<?xml version="1.0"?>
<MethodSetup Method="BDT::BDTG">
  <GeneralInfo>
    <Info name="TMVA Release" value="4.2.1 [262657]"/>
    <Info name="ROOT Release" value="6.06/01 [394753]"/>
    <Info name="Creator" value="kelmorab"/>
    <Info name="Date" value="Sun Oct  8 13:28:50 2017"/>
    <Info name="Host" value="Linux vocms0301.cern.ch 2.6.32-642.11.1.el6.x86_64 #1 SMP Wed Nov 16 09:40:09 CET 2016 x86_64 x86_64 x86_64 GNU/Linux"/>
    <Info name="Dir" value="/nfs/dust/cms/user/kelmorab/Spring17Training/3makeHistosAndCards"/>
    <Info name="Training events" value="6084"/>
    <Info name="TrainingTime" value="6.36630011e+00"/>
    <Info name="AnalysisType" value="Classification"/>
  </GeneralInfo>
  <Options>
    <Option name="V" modified="Yes">False</Option>
    <Option name="VerbosityLevel" modified="No">Default</Option>
    <Option name="VarTransform" modified="No">None</Option>
    <Option name="H" modified="Yes">False</Option>
    <Option name="CreateMVAPdfs" modified="No">False</Option>
    <Option name="IgnoreNegWeightsInTraining" modified="No">False</Option>
    <Option name="NTrees" modified="Yes">831</Option>
    <Option name="MaxDepth" modified="Yes">2</Option>
    <Option name="MinNodeSize" modified="No">5%</Option>
    <Option name="nCuts" modified="Yes">30</Option>
    <Option name="BoostType" modified="Yes">Grad</Option>
    <Option name="AdaBoostR2Loss" modified="No">quadratic</Option>
    <Option name="UseBaggedBoost" modified="Yes">True</Option>
    <Option name="Shrinkage" modified="Yes">7.600000e-03</Option>
    <Option name="AdaBoostBeta" modified="No">5.000000e-01</Option>
    <Option name="UseRandomisedTrees" modified="No">False</Option>
    <Option name="UseNvars" modified="No">3</Option>
    <Option name="UsePoissonNvars" modified="No">True</Option>
    <Option name="BaggedSampleFraction" modified="No">4.700000e-01</Option>
    <Option name="UseYesNoLeaf" modified="No">True</Option>
    <Option name="NegWeightTreatment" modified="Yes">ignorenegweightsintraining</Option>
    <Option name="Css" modified="No">1.000000e+00</Option>
    <Option name="Cts_sb" modified="No">1.000000e+00</Option>
    <Option name="Ctb_ss" modified="No">1.000000e+00</Option>
    <Option name="Cbb" modified="No">1.000000e+00</Option>
    <Option name="NodePurityLimit" modified="No">5.000000e-01</Option>
    <Option name="SeparationType" modified="No">giniindex</Option>
    <Option name="DoBoostMonitor" modified="No">False</Option>
    <Option name="UseFisherCuts" modified="No">False</Option>
    <Option name="MinLinCorrForFisher" modified="No">8.000000e-01</Option>
    <Option name="UseExclusiveVars" modified="No">False</Option>
    <Option name="DoPreselection" modified="No">False</Option>
    <Option name="SigToBkgFraction" modified="No">1.000000e+00</Option>
    <Option name="PruneMethod" modified="No">nopruning</Option>
    <Option name="PruneStrength" modified="No">0.000000e+00</Option>
    <Option name="PruningValFraction" modified="No">5.000000e-01</Option>
    <Option name="nEventsMin" modified="No">0</Option>
    <Option name="UseBaggedGrad" modified="No">False</Option>
    <Option name="GradBaggingFraction" modified="Yes">4.700000e-01</Option>
    <Option name="UseNTrainEvents" modified="No">0</Option>
    <Option name="NNodesMax" modified="No">0</Option>
  </Options>
  <Variables NVar="8">
    <Variable VarIndex="0" Expression="blr_transformed" Label="blr_transformed" Title="blr_transformed" Unit="" Internal="blr_transformed" Type="F" Min="2.17701530e+00" Max="1.11890192e+01"/>
    <Variable VarIndex="1" Expression="Evt_Deta_JetsAverage" Label="Evt_Deta_JetsAverage" Title="Evt_Deta_JetsAverage" Unit="" Internal="Evt_Deta_JetsAverage" Type="F" Min="4.71079014e-02" Max="2.89317560e+00"/>
    <Variable VarIndex="2" Expression="M3" Label="M3" Title="M3" Unit="" Internal="M3" Type="F" Min="4.17133446e+01" Max="1.71480615e+03"/>
    <Variable VarIndex="3" Expression="closest_tagged_dijet_mass" Label="closest_tagged_dijet_mass" Title="closest_tagged_dijet_mass" Unit="" Internal="closest_tagged_dijet_mass" Type="F" Min="1.74118862e+01" Max="6.92729980e+02"/>
    <Variable VarIndex="4" Expression="h1" Label="h1" Title="h1" Unit="" Internal="h1" Type="F" Min="-2.04482570e-01" Max="3.32861930e-01"/>
    <Variable VarIndex="5" Expression="maxeta_tag_tag" Label="maxeta_tag_tag" Title="maxeta_tag_tag" Unit="" Internal="maxeta_tag_tag" Type="F" Min="3.98631692e-02" Max="1.66156650e+00"/>
    <Variable VarIndex="6" Expression="all_sum_pt_with_met" Label="all_sum_pt_with_met" Title="all_sum_pt_with_met" Unit="" Internal="all_sum_pt_with_met" Type="F" Min="1.93832397e+02" Max="2.36763452e+03"/>
    <Variable VarIndex="7" Expression="h2" Label="h2" Title="h2" Unit="" Internal="h2" Type="F" Min="-1.36198074e-01" Max="3.04821134e-01"/>
  </Variables>
  <Spectators NSpec="0"/>
  <Classes NClass="2">
    <Class Name="Signal" Index="0"/>
    <Class Name="Background" Index="1"/>
  </Classes>
  <Transformations NTransformations="0"/>
  <MVAPdfs/>
  <Weights NTrees="831" AnalysisType="1">
    <BinaryTree type="DecisionTree" boostWeight="1.0000000000000000e+00" itree="0">
      <Node pos="s" depth="0" NCoef="0" IVar="0" Cut="7.0543541908264160e+00" cType="1" res="-1.0130259208381176e-02" rms="4.9989736080169678e-01" purity="4.8986974358558655e-01" nType="0">
        <Node pos="l" depth="1" NCoef="0" IVar="1" Cut="1.1729327440261841e+00" cType="1" res="-1.2207217514514923e-01" rms="4.8486945033073425e-01" purity="3.7792783975601196e-01" nType="0">
          <Node pos="l" depth="2" NCoef="0" IVar="-1" Cut="0.0000000000000000e+00" cType="1" res="-5.5341003462672234e-04" rms="4.9772492051124573e-01" purity="4.5235657691955566e-01" nType="-99"/>
          <Node pos="r" depth="2" NCoef="0" IVar="-1" Cut="0.0000000000000000e+00" cType="1" res="-4.2432192713022232e-03" rms="4.0303018689155579e-01" purity="2.0408333837985992e-01" nType="-99"/>
        </Node>
        <Node pos="r" depth="1" NCoef="0" IVar="1" Cut="1.0705075263977051e+00" cType="1" res="1.8128740787506104e-01" rms="4.6597734093666077e-01" purity="6.8128740787506104e-01" nType="0">
          <Node pos="l" depth="2" NCoef="0" IVar="-1" Cut="0.0000000000000000e+00" cType="1" res="2.5503926444798708e-03" rms="4.3352177739143372e-01" purity="7.4911618232727051e-01" nType="-99"/>
          <Node pos="r" depth="2" NCoef="0" IVar="-1" Cut="0.0000000000000000e+00" cType="1" res="1.0533097520237789e-04" rms="4.9992835521697998e-01" purity="5.0846385955810547e-01" nType="-99"/>
        </Node>
      </Node>
    </BinaryTree>
    <BinaryTree type="DecisionTree" boostWeight="1.0000000000000000e+00" itree="1">
      <Node pos="s" depth="0" NCoef="0" IVar="0" Cut="6.8283720016479492e+00" cType="1" res="-1.6688149422407150e-02" rms="4.9933046102523804e-01" purity="4.8314702510833740e-01" nType="0">
        <Node pos="l" depth="1" NCoef="0" IVar="1" Cut="1.1590144634246826e+00" cType="1" res="-1.3995470106601715e-01" rms="4.7959405183792114e-01" purity="3.5921335220336914e-01" nType="0">
          <Node pos="l" depth="2" NCoef="0" IVar="-1" Cut="0.0000000000000000e+00" cType="1" res="-8.2273851148784161e-04" rms="4.9509456753730774e-01" purity="4.3013334274291992e-01" nType="-99"/>
          <Node pos="r" depth="2" NCoef="0" IVar="-1" Cut="0.0000000000000000e+00" cType="1" res="-4.2809280566871166e-03" rms="4.0354415774345398e-01" purity="2.0477288961410522e-01" nType="-99"/>
        </Node>
        <Node pos="r" depth="1" NCoef="0" IVar="1" Cut="1.3417441844940186e+00" cType="1" res="1.4583547413349152e-01" rms="4.7786685824394226e-01" purity="6.4655017852783203e-01" nType="0">
          <Node pos="l" depth="2" NCoef="0" IVar="-1" Cut="0.0000000000000000e+00" cType="1" res="2.1157904993742704e-03" rms="4.5733937621116638e-01" purity="7.0191496610641479e-01" nType="-99"/>
          <Node pos="r" depth="2" NCoef="0" IVar="-1" Cut="0.0000000000000000e+00" cType="1" res="-2.5782140437513590e-03" rms="4.6809235215187073e-01" purity="3.2418856024742126e-01" nType="-99"/>
        </Node>
      </Node>
    </BinaryTree>
    <BinaryTree type="DecisionTree" boostWeight="1.0000000000000000e+00" itree="2">
      <Node pos="s" depth="0" NCoef="0" IVar="0" Cut="6.5775566101074219e+00" cType="1" res="1.1416321649448946e-04" rms="4.9915036559104919e-01" purity="4.9973759055137634e-01" nType="0">
        <Node pos="l" depth="1" NCoef="0" IVar="1" Cut="1.1590144634246826e+00" cType="1" res="-1.6228197515010834e-01" rms="4.7196173667907715e-01" purity="3.3587607741355896e-01" nType="0">
          <Node pos="l" depth="2" NCoef="0" IVar="-1" Cut="0.0000000000000000e+00" cType="1" res="-1.1105893645435572e-03" rms="4.9080500006675720e-01" purity="4.0455129742622375e-01" nType="-99"/>
          <Node pos="r" depth="2" NCoef="0" IVar="-1" Cut="0.0000000000000000e+00" cType="1" res="-4.4102957472205162e-03" rms="3.9703807234764099e-01" purity="1.9606849551200867e-01" nType="-99"/>
        </Node>
        <Node pos="r" depth="1" NCoef="0" IVar="1" Cut="1.4813365936279297e+00" cType="1" res="1.5136341750621796e-01" rms="4.7571352124214172e-01" purity="6.5235161781311035e-01" nType="0">
          <Node pos="l" depth="2" NCoef="0" IVar="-1" Cut="0.0000000000000000e+00" cType="1" res="2.0267521031200886e-03" rms="4.6078327298164368e-01" purity="6.9348776340484619e-01" nType="-99"/>
          <Node pos="r" depth="2" NCoef="0" IVar="-1" Cut="0.0000000000000000e+00" cType="1" res="-3.3409658353775740e-03" rms="4.4547024369239807e-01" purity="2.7343097329139709e-01" nType="-99"/>
        </Node>
      </Node>
    </BinaryTree>
    <BinaryTree type="DecisionTree" boostWeight="1.0000000000000000e+00" itree="3">
      <Node pos="s" depth="0" NCoef="0" IVar="0" Cut="7.0385332107543945e+00" cType="1" res="1.8015416339039803e-02" rms="4.9849736690521240e-01" purity="5.1745408773422241e-01" nType="0">
        <Node pos="l" depth="1" NCoef="0" IVar="1" Cut="1.3415577411651611e+00" cType="1" res="-9.8798632621765137e-02" rms="4.8908290266990662e-01" purity="3.9877647161483765e-01" nType="0">
          <Node pos="l" depth="2" NCoef="0" IVar="-1" Cut="0.0000000000000000e+00" cType="1" res="-5.8541120961308479e-04" rms="4.9708801507949829e-01" purity="4.4836011528968811e-01" nType="-99"/>
          <Node pos="r" depth="2" NCoef="0" IVar="-1" Cut="0.0000000000000000e+00" cType="1" res="-4.2312340810894966e-03" rms="4.0463918447494507e-01" purity="2.0622050762176514e-01" nType="-99"/>
        </Node>
        <Node pos="r" depth="1" NCoef="0" IVar="1" Cut="1.2940281629562378e+00" cType="1" res="1.9722811877727509e-01" rms="4.5794305205345154e-01" purity="6.9952589273452759e-01" nType="0">
          <Node pos="l" depth="2" NCoef="0" IVar="-1" Cut="0.0000000000000000e+00" cType="1" res="2.5451581459492445e-03" rms="4.3221092224121094e-01" purity="7.5130611658096313e-01" nType="-99"/>
          <Node pos="r" depth="2" NCoef="0" IVar="-1" Cut="0.0000000000000000e+00" cType="1" res="-5.0801434554159641e-04" rms="4.9810224771499634e-01" purity="4.5948520302772522e-01" nType="-99"/>
        </Node>
      </Node>
    </BinaryTree>
    <BinaryTree type="DecisionTree" boostWeight="1.0000000000000000e+00" itree="4">
      <Node pos="s" depth="0" NCoef="0" IVar="0" Cut="7.0419421195983887e+00" cType="1" res="6.2456005252897739e-03" rms="4.9834549427032471e-01" purity="5.0570696592330933e-01" nType="0">
        <Node pos="l" depth="1" NCoef="0" IVar="0" Cut="5.7185187339782715e+00" cType="1" res="-1.1281991004943848e-01" rms="4.8564964532852173e-01" purity="3.8400086760520935e-01" nType="0">
          <Node pos="l" depth="2" NCoef="0" IVar="-1" Cut="0.0000000000000000e+00" cType="1" res="-2.9852665029466152e-03" rms="4.4462352991104126e-01" purity="2.7194097638130188e-01" nType="-99"/>
          <Node pos="r" depth="2" NCoef="0" IVar="-1" Cut="0.0000000000000000e+00" cType="1" res="-3.9994370308704674e-04" rms="4.9784070253372192e-01" purity="4.6325880289077759e-01" nType="-99"/>
        </Node>
        <Node pos="r" depth="1" NCoef="0" IVar="1" Cut="1.3869225978851318e+00" cType="1" res="1.8127748370170593e-01" rms="4.6393603086471558e-01" purity="6.8462055921554565e-01" nType="0">
          <Node pos="l" depth="2" NCoef="0" IVar="-1" Cut="0.0000000000000000e+00" cType="1" res="2.3535646032541990e-03" rms="4.4120335578918457e-01" purity="7.3507601022720337e-01" nType="-99"/>
          <Node pos="r" depth="2" NCoef="0" IVar="-1" Cut="0.0000000000000000e+00" cType="1" res="-2.4700497742742300e-03" rms="4.7194755077362061e-01" purity="3.3510079979896545e-01" nType="-99"/>
        </Node>
      </Node>
    </BinaryTree>
    <BinaryTree type="DecisionTree" boostWeight="1.0000000000000000e+00" itree="5">
      <Node pos="s" depth="0" NCoef="0" IVar="0" Cut="7.0447754859924316e+00" cType="1" res="-6.0855140909552574e-03" rms="4.9782180786132812e-01" purity="4.9331709742546082e-01" nType="0">
        <Node pos="l" depth="1" NCoef="0" IVar="1" Cut="1.1960952281951904e+00" cType="1" res="-1.3300150632858276e-01" rms="4.8001465201377869e-01" purity="3.6316275596618652e-01" nType="0">
          <Node pos="l" depth="2" NCoef="0" IVar="-1" Cut="0.0000000000000000e+00" cType="1" res="-7.7974080340936780e-04" rms="4.9521255493164062e-01" purity="4.3276330828666687e-01" nType="-99"/>
          <Node pos="r" depth="2" NCoef="0" IVar="-1" Cut="0.0000000000000000e+00" cType="1" res="-4.2133554816246033e-03" rms="4.0316027402877808e-01" purity="2.0464535057544708e-01" nType="-99"/>
        </Node>
        <Node pos="r" depth="1" NCoef="0" IVar="1" Cut="1.3417441844940186e+00" cType="1" res="1.8536438047885895e-01" rms="4.6167281270027161e-01" purity="6.8965202569961548e-01" nType="0">
          <Node pos="l" depth="2" NCoef="0" IVar="-1" Cut="0.0000000000000000e+00" cType="1" res="2.4657093454152346e-03" rms="4.3553999066352844e-01" purity="7.4545532464981079e-01" nType="-99"/>
          <Node pos="r" depth="2" NCoef="0" IVar="-1" Cut="0.0000000000000000e+00" cType="1" res="-1.7984200967475772e-03" rms="4.8249104619026184e-01" purity="3.6955267190933228e-01" nType="-99"/>
        </Node>
      </Node>
    </BinaryTree>
    <BinaryTree type="DecisionTree" boostWeight="1.0000000000000000e+00" itree="6">
      <Node pos="s" depth="0" NCoef="0" IVar="0" Cut="7.0419421195983887e+00" cType="1" res="5.4595582187175751e-03" rms="4.9793842434883118e-01" purity="5.0437724590301514e-01" nType="0">
        <Node pos="l" depth="1" NCoef="0" IVar="1" Cut="1.3396024703979492e+00" cType="1" res="-8.7202340364456177e-02" rms="4.9056953191757202e-01" purity="4.0788596868515015e-01" nType="0">
          <Node pos="l" depth="2" NCoef="0" IVar="-1" Cut="0.0000000000000000e+00" cType="1" res="-4.2615784332156181e-04" rms="4.9818843603134155e-01" purity="4.6027082204818726e-01" nType="-99"/>
          <Node pos="r" depth="2" NCoef="0" IVar="-1" Cut="0.0000000000000000e+00" cType="1" res="-3.9066746830940247e-03" rms="4.1385567188262939e-01" purity="2.1971759200096130e-01" nType="-99"/>
        </Node>
        <Node pos="r" depth="1" NCoef="0" IVar="1" Cut="1.3916972875595093e+00" cType="1" res="1.4955598115921021e-01" rms="4.7450411319732666e-01" purity="6.5442860126495361e-01" nType="0">
          <Node pos="l" depth="2" NCoef="0" IVar="-1" Cut="0.0000000000000000e+00" cType="1" res="2.0371950231492519e-03" rms="4.5700290799140930e-01" purity="7.0266443490982056e-01" nType="-99"/>
          <Node pos="r" depth="2" NCoef="0" IVar="-1" Cut="0.0000000000000000e+00" cType="1" res="-1.5796802472323179e-03" rms="4.8512443900108337e-01" purity="3.7965843081474304e-01" nType="-99"/>
        </Node>
      </Node>
    </BinaryTree>
    <BinaryTree type="DecisionTree" boostWeight="1.0000000000000000e+00" itree="7">
      <Node pos="s" depth="0" NCoef="0" IVar="0" Cut="7.0281844139099121e+00" cType="1" res="2.8045091312378645e-03" rms="4.9757671356201172e-01" purity="5.0182586908340454e-01" nType="0">
        <Node pos="l" depth="1" NCoef="0" IVar="1" Cut="1.0812381505966187e+00" cType="1" res="-9.7364582121372223e-02" rms="4.8839327692985535e-01" purity="3.9731371402740479e-01" nType="0">
          <Node pos="l" depth="2" NCoef="0" IVar="-1" Cut="0.0000000000000000e+00" cType="1" res="-2.9951910255476832e-04" rms="4.9903449416160583e-01" purity="4.7150364518165588e-01" nType="-99"/>
          <Node pos="r" depth="2" NCoef="0" IVar="-1" Cut="0.0000000000000000e+00" cType="1" res="-2.7771419845521450e-03" rms="4.5149517059326172e-01" purity="2.8638082742691040e-01" nType="-99"/>
        </Node>
        <Node pos="r" depth="1" NCoef="0" IVar="1" Cut="1.3317067623138428e+00" cType="1" res="1.6173638403415680e-01" rms="4.6986123919487000e-01" purity="6.6764861345291138e-01" nType="0">
          <Node pos="l" depth="2" NCoef="0" IVar="-1" Cut="0.0000000000000000e+00" cType="1" res="2.1550899837166071e-03" rms="4.5071995258331299e-01" purity="7.1637511253356934e-01" nType="-99"/>
          <Node pos="r" depth="2" NCoef="0" IVar="-1" Cut="0.0000000000000000e+00" cType="1" res="-1.3533368473872542e-03" rms="4.8826205730438232e-01" purity="3.9623853564262390e-01" nType="-99"/>
        </Node>
      </Node>
    </BinaryTree>
    <BinaryTree type="DecisionTree" boostWeight="1.0000000000000000e+00" itree="8">
      <Node pos="s" depth="0" NCoef="0" IVar="1" Cut="1.1567348241806030e+00" cType="1" res="-2.4422472342848778e-02" rms="4.9639901518821716e-01" purity="4.7428989410400391e-01" nType="0">
        <Node pos="l" depth="1" NCoef="0" IVar="0" Cut="7.0419421195983887e+00" cType="1" res="6.0888029634952545e-02" rms="4.9438768625259399e-01" purity="5.6296616792678833e-01" nType="0">
          <Node pos="l" depth="2" NCoef="0" IVar="-1" Cut="0.0000000000000000e+00" cType="1" res="-5.2044930635020137e-04" rms="4.9756357073783875e-01" purity="4.5257478952407837e-01" nType="-99"/>
          <Node pos="r" depth="2" NCoef="0" IVar="-1" Cut="0.0000000000000000e+00" cType="1" res="2.1896492689847946e-03" rms="4.4703251123428345e-01" purity="7.2392445802688599e-01" nType="-99"/>
        </Node>
        <Node pos="r" depth="1" NCoef="0" IVar="6" Cut="6.0923846435546875e+02" cType="1" res="-2.2418966889381409e-01" rms="4.4060105085372925e-01" purity="2.6664137840270996e-01" nType="0">
          <Node pos="l" depth="2" NCoef="0" IVar="-1" Cut="0.0000000000000000e+00" cType="1" res="-4.0678028017282486e-03" rms="4.0836820006370544e-01" purity="2.1389232575893402e-01" nType="-99"/>
          <Node pos="r" depth="2" NCoef="0" IVar="-1" Cut="0.0000000000000000e+00" cType="1" res="1.8411893688607961e-04" rms="4.9892064929008484e-01" purity="5.0783318281173706e-01" nType="-99"/>
        </Node>
      </Node>
    </BinaryTree>
    <BinaryTree type="DecisionTree" boostWeight="1.0000000000000000e+00" itree="9">
      <Node pos="s" depth="0" NCoef="0" IVar="0" Cut="6.9917750358581543e+00" cType="1" res="1.4810274355113506e-02" rms="4.9626931548118591e-01" purity="5.1399630308151245e-01" nType="0">
        <Node pos="l" depth="1" NCoef="0" IVar="0" Cut="4.9308300018310547e+00" cType="1" res="-1.2626807391643524e-01" rms="4.8066851496696472e-01" purity="3.6687612533569336e-01" nType="0">
          <Node pos="l" depth="2" NCoef="0" IVar="-1" Cut="0.0000000000000000e+00" cType="1" res="-5.5389148183166981e-03" rms="3.2650446891784668e-01" purity="1.2174215912818909e-01" nType="-99"/>
          <Node pos="r" depth="2" NCoef="0" IVar="-1" Cut="0.0000000000000000e+00" cType="1" res="-1.1470989556983113e-03" rms="4.8881697654724121e-01" purity="4.0083906054496765e-01" nType="-99"/>
        </Node>
        <Node pos="r" depth="1" NCoef="0" IVar="1" Cut="1.1227794885635376e+00" cType="1" res="1.9551992416381836e-01" rms="4.5569238066673279e-01" purity="7.0244491100311279e-01" nType="0">
          <Node pos="l" depth="2" NCoef="0" IVar="-1" Cut="0.0000000000000000e+00" cType="1" res="2.6088864542543888e-03" rms="4.2113286256790161e-01" purity="7.6948124170303345e-01" nType="-99"/>
          <Node pos="r" depth="2" NCoef="0" IVar="-1" Cut="0.0000000000000000e+00" cType="1" res="-8.7359170720446855e-05" rms="4.9937123060226440e-01" purity="4.9064248800277710e-01" nType="-99"/>
        </Node>
      </Node>
    </BinaryTree>
    <BinaryTree type="DecisionTree" boostWeight="1.0000000000000000e+00" itree="10">
      <Node pos="s" depth="0" NCoef="0" IVar="1" Cut="1.0774085521697998e+00" cType="1" res="1.5988893574103713e-03" rms="4.9619510769844055e-01" purity="5.0038766860961914e-01" nType="0">
        <Node pos="l" depth="1" NCoef="0" IVar="0" Cut="5.5907111167907715e+00" cType="1" res="9.5014676451683044e-02" rms="4.8794364929199219e-01" purity="5.9788501262664795e-01" nType="0">
          <Node pos="l" depth="2" NCoef="0" IVar="-1" Cut="0.0000000000000000e+00" cType="1" res="-2.3983027786016464e-03" rms="4.6190989017486572e-01" purity="3.0925422906875610e-01" nType="-99"/>
          <Node pos="r" depth="2" NCoef="0" IVar="-1" Cut="0.0000000000000000e+00" cType="1" res="1.7505077412351966e-03" rms="4.6834668517112732e-01" purity="6.7109954357147217e-01" nType="-99"/>
        </Node>
        <Node pos="r" depth="1" NCoef="0" IVar="1" Cut="1.5510309934616089e+00" cType="1" res="-1.8050412833690643e-01" rms="4.6029004454612732e-01" purity="3.1032821536064148e-01" nType="0">
          <Node pos="l" depth="2" NCoef="0" IVar="-1" Cut="0.0000000000000000e+00" cType="1" res="-1.4844912802800536e-03" rms="4.8309439420700073e-01" purity="3.7826618552207947e-01" nType="-99"/>
          <Node pos="r" depth="2" NCoef="0" IVar="-1" Cut="0.0000000000000000e+00" cType="1" res="-5.5748345330357552e-03" rms="3.5144338011741638e-01" purity="1.4528796076774597e-01" nType="-99"/>
        </Node>
      </Node>
    </BinaryTree>
    <BinaryTree type="DecisionTree" boostWeight="1.0000000000000000e+00" itree="11">
      <Node pos="s" depth="0" NCoef="0" IVar="0" Cut="6.5540504455566406e+00" cType="1" res="-1.4060343615710735e-02" rms="4.9567782878875732e-01" purity="4.8426511883735657e-01" nType="0">
        <Node pos="l" depth="1" NCoef="0" IVar="6" Cut="6.7880645751953125e+02" cType="1" res="-1.6104556620121002e-01" rms="4.6877163648605347e-01" purity="3.2993355393409729e-01" nType="0">
          <Node pos="l" depth="2" NCoef="0" IVar="-1" Cut="0.0000000000000000e+00" cType="1" res="-2.4129743687808514e-03" rms="4.5811501145362854e-01" purity="3.0249795317649841e-01" nType="-99"/>
          <Node pos="r" depth="2" NCoef="0" IVar="-1" Cut="0.0000000000000000e+00" cType="1" res="5.8240245562046766e-04" rms="4.9597302079200745e-01" purity="5.4403191804885864e-01" nType="-99"/>
        </Node>
        <Node pos="r" depth="1" NCoef="0" IVar="1" Cut="1.2299815416336060e+00" cType="1" res="1.1973814666271210e-01" rms="4.8140385746955872e-01" purity="6.2475085258483887e-01" nType="0">
          <Node pos="l" depth="2" NCoef="0" IVar="-1" Cut="0.0000000000000000e+00" cType="1" res="1.9192043691873550e-03" rms="4.6019688248634338e-01" purity="6.9383007287979126e-01" nType="-99"/>
          <Node pos="r" depth="2" NCoef="0" IVar="-1" Cut="0.0000000000000000e+00" cType="1" res="-1.6662817215546966e-03" rms="4.8136723041534424e-01" purity="3.7148827314376831e-01" nType="-99"/>
        </Node>
      </Node>
    </BinaryTree>
    <BinaryTree type="DecisionTree" boostWeight="1.0000000000000000e+00" itree="12">
      <Node pos="s" depth="0" NCoef="0" IVar="0" Cut="7.1023764610290527e+00" cType="1" res="3.4251306205987930e-03" rms="4.9594491720199585e-01" purity="5.0174391269683838e-01" nType="0">
        <Node pos="l" depth="1" NCoef="0" IVar="1" Cut="1.1682177782058716e+00" cType="1" res="-9.7927384078502655e-02" rms="4.8661038279533386e-01" purity="3.9379465579986572e-01" nType="0">
          <Node pos="l" depth="2" NCoef="0" IVar="-1" Cut="0.0000000000000000e+00" cType="1" res="-4.0055741555988789e-04" rms="4.9776515364646912e-01" purity="4.6144390106201172e-01" nType="-99"/>
          <Node pos="r" depth="2" NCoef="0" IVar="-1" Cut="0.0000000000000000e+00" cType="1" res="-3.4126783721148968e-03" rms="4.2801317572593689e-01" purity="2.4252927303314209e-01" nType="-99"/>
        </Node>
        <Node pos="r" depth="1" NCoef="0" IVar="1" Cut="1.3121759891510010e+00" cType="1" res="1.6617594659328461e-01" rms="4.6658989787101746e-01" purity="6.7508769035339355e-01" nType="0">
          <Node pos="l" depth="2" NCoef="0" IVar="-1" Cut="0.0000000000000000e+00" cType="1" res="2.1671333815902472e-03" rms="4.4813841581344604e-01" purity="7.2159814834594727e-01" nType="-99"/>
          <Node pos="r" depth="2" NCoef="0" IVar="-1" Cut="0.0000000000000000e+00" cType="1" res="-6.4902461599558592e-04" rms="4.9617424607276917e-01" purity="4.4120320677757263e-01" nType="-99"/>
        </Node>
      </Node>
    </BinaryTree>
    <BinaryTree type="DecisionTree" boostWeight="1.0000000000000000e+00" itree="13">
      <Node pos="s" depth="0" NCoef="0" IVar="0" Cut="7.0307221412658691e+00" cType="1" res="-1.2944952584803104e-02" rms="4.9537268280982971e-01" purity="4.8521721363067627e-01" nType="0">
        <Node pos="l" depth="1" NCoef="0" IVar="1" Cut="1.0718595981597900e+00" cType="1" res="-1.1342778056859970e-01" rms="4.8251095414161682e-01" purity="3.7734436988830566e-01" nType="0">
          <Node pos="l" depth="2" NCoef="0" IVar="-1" Cut="0.0000000000000000e+00" cType="1" res="-3.3880458795465529e-04" rms="4.9825781583786011e-01" purity="4.6622452139854431e-01" nType="-99"/>
          <Node pos="r" depth="2" NCoef="0" IVar="-1" Cut="0.0000000000000000e+00" cType="1" res="-3.4724781289696693e-03" rms="4.2470142245292664e-01" purity="2.3830144107341766e-01" nType="-99"/>
        </Node>
        <Node pos="r" depth="1" NCoef="0" IVar="1" Cut="1.2794042825698853e+00" cType="1" res="1.4186298847198486e-01" rms="4.7460517287254333e-01" purity="6.5141052007675171e-01" nType="0">
          <Node pos="l" depth="2" NCoef="0" IVar="-1" Cut="0.0000000000000000e+00" cType="1" res="1.9555771723389626e-03" rms="4.5856389403343201e-01" purity="6.9918596744537354e-01" nType="-99"/>
          <Node pos="r" depth="2" NCoef="0" IVar="-1" Cut="0.0000000000000000e+00" cType="1" res="-7.7178759966045618e-04" rms="4.9450832605361938e-01" purity="4.3426048755645752e-01" nType="-99"/>
        </Node>
      </Node>
    </BinaryTree>
    <BinaryTree type="DecisionTree" boostWeight="1.0000000000000000e+00" itree="14">
      <Node pos="s" depth="0" NCoef="0" IVar="0" Cut="6.9911742210388184e+00" cType="1" res="1.1074700159952044e-04" rms="4.9509990215301514e-01" purity="4.9804103374481201e-01" nType="0">
        <Node pos="l" depth="1" NCoef="0" IVar="1" Cut="1.4361627101898193e+00" cType="1" res="-1.1124884337186813e-01" rms="4.8299762606620789e-01" purity="3.7857529520988464e-01" nType="0">
          <Node pos="l" depth="2" NCoef="0" IVar="-1" Cut="0.0000000000000000e+00" cType="1" res="-8.3560356870293617e-04" rms="4.9305224418640137e-01" purity="4.2244648933410645e-01" nType="-99"/>
          <Node pos="r" depth="2" NCoef="0" IVar="-1" Cut="0.0000000000000000e+00" cType="1" res="-5.1207705400884151e-03" rms="3.5426196455955505e-01" purity="1.4772173762321472e-01" nType="-99"/>
        </Node>
        <Node pos="r" depth="1" NCoef="0" IVar="1" Cut="1.2458609342575073e+00" cType="1" res="1.6999879479408264e-01" rms="4.6411409974098206e-01" purity="6.8029570579528809e-01" nType="0">
          <Node pos="l" depth="2" NCoef="0" IVar="-1" Cut="0.0000000000000000e+00" cType="1" res="2.1866923198103905e-03" rms="4.4366303086280823e-01" purity="7.3000812530517578e-01" nType="-99"/>
          <Node pos="r" depth="2" NCoef="0" IVar="-1" Cut="0.0000000000000000e+00" cType="1" res="-3.9358565118163824e-04" rms="4.9756833910942078e-01" purity="4.6274501085281372e-01" nType="-99"/>
        </Node>
      </Node>
    </BinaryTree>
    <BinaryTree type="DecisionTree" boostWeight="1.0000000000000000e+00" itree="15">
      <Node pos="s" depth="0" NCoef="0" IVar="0" Cut="6.9932942390441895e+00" cType="1" res="-1.2563345022499561e-02" rms="4.9445307254791260e-01" purity="4.8496988415718079e-01" nType="0">
        <Node pos="l" depth="1" NCoef="0" IVar="0" Cut="5.0380101203918457e+00" cType="1" res="-1.2473598867654800e-01" rms="4.7897771000862122e-01" purity="3.6412912607192993e-01" nType="0">
          <Node pos="l" depth="2" NCoef="0" IVar="-1" Cut="0.0000000000000000e+00" cType="1" res="-4.5039104297757149e-03" rms="3.7069079279899597e-01" purity="1.6469796001911163e-01" nType="-99"/>
          <Node pos="r" depth="2" NCoef="0" IVar="-1" Cut="0.0000000000000000e+00" cType="1" res="-1.0404059430584311e-03" rms="4.8864001035690308e-01" purity="4.0463614463806152e-01" nType="-99"/>
        </Node>
        <Node pos="r" depth="1" NCoef="0" IVar="1" Cut="1.0950427055358887e+00" cType="1" res="1.5862706303596497e-01" rms="4.6793672442436218e-01" purity="6.6938889026641846e-01" nType="0">
          <Node pos="l" depth="2" NCoef="0" IVar="-1" Cut="0.0000000000000000e+00" cType="1" res="2.3259250447154045e-03" rms="4.3706429004669189e-01" purity="7.4270302057266235e-01" nType="-99"/>
          <Node pos="r" depth="2" NCoef="0" IVar="-1" Cut="0.0000000000000000e+00" cType="1" res="-2.2077729227021337e-04" rms="4.9821004271507263e-01" purity="4.7955372929573059e-01" nType="-99"/>
        </Node>
      </Node>
    </BinaryTree>
    <BinaryTree type="DecisionTree" boostWeight="1.0000000000000000e+00" itree="16">
      <Node pos="s" depth="0" NCoef="0" IVar="0" Cut="6.5376625061035156e+00" cType="1" res="1.0642162524163723e-02" rms="4.9445790052413940e-01" purity="5.0839126110076904e-01" nType="0">
        <Node pos="l" depth="1" NCoef="0" IVar="0" Cut="5.2671246528625488e+00" cType="1" res="-1.2412123382091522e-01" rms="4.7846585512161255e-01" purity="3.6276736855506897e-01" nType="0">
          <Node pos="l" depth="2" NCoef="0" IVar="-1" Cut="0.0000000000000000e+00" cType="1" res="-3.9642769843339920e-03" rms="4.0145462751388550e-01" purity="2.0335541665554047e-01" nType="-99"/>
          <Node pos="r" depth="2" NCoef="0" IVar="-1" Cut="0.0000000000000000e+00" cType="1" res="-7.2067067958414555e-04" rms="4.9266165494918823e-01" purity="4.2831909656524658e-01" nType="-99"/>
        </Node>
        <Node pos="r" depth="1" NCoef="0" IVar="1" Cut="1.2289725542068481e+00" cType="1" res="1.3063144683837891e-01" rms="4.7725707292556763e-01" purity="6.3805037736892700e-01" nType="0">
          <Node pos="l" depth="2" NCoef="0" IVar="-1" Cut="0.0000000000000000e+00" cType="1" res="1.8945009214803576e-03" rms="4.6010270714759827e-01" purity="6.9251132011413574e-01" nType="-99"/>
          <Node pos="r" depth="2" NCoef="0" IVar="-1" Cut="0.0000000000000000e+00" cType="1" res="-7.2735315188765526e-04" rms="4.9445477128028870e-01" purity="4.3086004257202148e-01" nType="-99"/>
        </Node>
      </Node>
    </BinaryTree>
    <BinaryTree type="DecisionTree" boostWeight="1.0000000000000000e+00" itree="17">
      <Node pos="s" depth="0" NCoef="0" IVar="0" Cut="6.5376625061035156e+00" cType="1" res="9.6260653808712959e-03" rms="4.9365681409835815e-01" purity="5.0735533237457275e-01" nType="0">
        <Node pos="l" depth="1" NCoef="0" IVar="1" Cut="1.2442482709884644e+00" cType="1" res="-1.5140727162361145e-01" rms="4.6954804658889771e-01" purity="3.3463343977928162e-01" nType="0">
          <Node pos="l" depth="2" NCoef="0" IVar="-1" Cut="0.0000000000000000e+00" cType="1" res="-1.1126163881272078e-03" rms="4.8866209387779236e-01" purity="3.9739897847175598e-01" nType="-99"/>
          <Node pos="r" depth="2" NCoef="0" IVar="-1" Cut="0.0000000000000000e+00" cType="1" res="-4.7459420748054981e-03" rms="3.6683976650238037e-01" purity="1.6074599325656891e-01" nType="-99"/>
        </Node>
        <Node pos="r" depth="1" NCoef="0" IVar="1" Cut="1.3286039829254150e+00" cType="1" res="1.5425324440002441e-01" rms="4.6941033005714417e-01" purity="6.6248029470443726e-01" nType="0">
          <Node pos="l" depth="2" NCoef="0" IVar="-1" Cut="0.0000000000000000e+00" cType="1" res="2.1185476798564196e-03" rms="4.5036500692367554e-01" purity="7.1492195129394531e-01" nType="-99"/>
          <Node pos="r" depth="2" NCoef="0" IVar="-1" Cut="0.0000000000000000e+00" cType="1" res="-1.2425765162333846e-03" rms="4.8731717467308044e-01" purity="3.9296084642410278e-01" nType="-99"/>
        </Node>
      </Node>
    </BinaryTree>
    <BinaryTree type="DecisionTree" boostWeight="1.0000000000000000e+00" itree="18">
      <Node pos="s" depth="0" NCoef="0" IVar="0" Cut="6.7678003311157227e+00" cType="1" res="2.8843784704804420e-02" rms="4.9298107624053955e-01" purity="5.2652686834335327e-01" nType="0">
        <Node pos="l" depth="1" NCoef="0" IVar="1" Cut="1.5241010189056396e+00" cType="1" res="-9.2809729278087616e-02" rms="4.8589736223220825e-01" purity="3.9304280281066895e-01" nType="0">
          <Node pos="l" depth="2" NCoef="0" IVar="-1" Cut="0.0000000000000000e+00" cType="1" res="-7.0080143632367253e-04" rms="4.9349838495254517e-01" purity="4.2912936210632324e-01" nType="-99"/>
          <Node pos="r" depth="2" NCoef="0" IVar="-1" Cut="0.0000000000000000e+00" cType="1" res="-5.0697117112576962e-03" rms="3.4981992840766907e-01" purity="1.4319248497486115e-01" nType="-99"/>
        </Node>
        <Node pos="r" depth="1" NCoef="0" IVar="1" Cut="1.3312008380889893e+00" cType="1" res="1.6862332820892334e-01" rms="4.6309244632720947e-01" purity="6.7989963293075562e-01" nType="0">
          <Node pos="l" depth="2" NCoef="0" IVar="-1" Cut="0.0000000000000000e+00" cType="1" res="2.1917140111327171e-03" rms="4.4264838099479675e-01" purity="7.3089945316314697e-01" nType="-99"/>
          <Node pos="r" depth="2" NCoef="0" IVar="-1" Cut="0.0000000000000000e+00" cType="1" res="-1.3776820851489902e-03" rms="4.8643735051155090e-01" purity="3.8549786806106567e-01" nType="-99"/>
        </Node>
      </Node>
    </BinaryTree>
    <BinaryTree type="DecisionTree" boostWeight="1.0000000000000000e+00" itree="19">
      <Node pos="s" depth="0" NCoef="0" IVar="0" Cut="6.5781311988830566e+00" cType="1" res="2.7095719706267118e-03" rms="4.9288684129714966e-01" purity="5.0036579370498657e-01" nType="0">
        <Node pos="l" depth="1" NCoef="0" IVar="0" Cut="4.8975472450256348e+00" cType="1" res="-1.5429510176181793e-01" rms="4.6801051497459412e-01" purity="3.2938390970230103e-01" nType="0">
          <Node pos="l" depth="2" NCoef="0" IVar="-1" Cut="0.0000000000000000e+00" cType="1" res="-5.3056050091981888e-03" rms="3.2667568325996399e-01" purity="1.2312704324722290e-01" nType="-99"/>
          <Node pos="r" depth="2" NCoef="0" IVar="-1" Cut="0.0000000000000000e+00" cType="1" res="-1.4971725177019835e-03" rms="4.7984352707862854e-01" purity="3.6447298526763916e-01" nType="-99"/>
        </Node>
        <Node pos="r" depth="1" NCoef="0" IVar="1" Cut="1.3453859090805054e+00" cType="1" res="1.4118185639381409e-01" rms="4.7233903408050537e-01" purity="6.5116536617279053e-01" nType="0">
          <Node pos="l" depth="2" NCoef="0" IVar="-1" Cut="0.0000000000000000e+00" cType="1" res="2.0147047471255064e-03" rms="4.5300993323326111e-01" purity="7.0883804559707642e-01" nType="-99"/>
          <Node pos="r" depth="2" NCoef="0" IVar="-1" Cut="0.0000000000000000e+00" cType="1" res="-2.2777591366320848e-03" rms="4.6798738837242126e-01" purity="3.2625088095664978e-01" nType="-99"/>
        </Node>
      </Node>
    </BinaryTree>
    <BinaryTree type="DecisionTree" boostWeight="1.0000000000000000e+00" itree="20">
      <Node pos="s" depth="0" NCoef="0" IVar="0" Cut="6.9932942390441895e+00" cType="1" res="-7.7866804786026478e-03" rms="4.9287876486778259e-01" purity="4.8980304598808289e-01" nType="0">
        <Node pos="l" depth="1" NCoef="0" IVar="0" Cut="5.7945914268493652e+00" cType="1" res="-1.2043821811676025e-01" rms="4.7855111956596375e-01" purity="3.6549070477485657e-01" nType="0">
          <Node pos="l" depth="2" NCoef="0" IVar="-1" Cut="0.0000000000000000e+00" cType="1" res="-2.9952109325677156e-03" rms="4.3270689249038696e-01" purity="2.5407293438911438e-01" nType="-99"/>
          <Node pos="r" depth="2" NCoef="0" IVar="-1" Cut="0.0000000000000000e+00" cType="1" res="-3.8186629535630345e-04" rms="4.9628579616546631e-01" purity="4.5760929584503174e-01" nType="-99"/>
        </Node>
        <Node pos="r" depth="1" NCoef="0" IVar="1" Cut="1.3593893051147461e+00" cType="1" res="1.5287491679191589e-01" rms="4.6783387660980225e-01" purity="6.6709500551223755e-01" nType="0">
          <Node pos="l" depth="2" NCoef="0" IVar="-1" Cut="0.0000000000000000e+00" cType="1" res="2.0948858000338078e-03" rms="4.4824481010437012e-01" purity="7.2088968753814697e-01" nType="-99"/>
          <Node pos="r" depth="2" NCoef="0" IVar="-1" Cut="0.0000000000000000e+00" cType="1" res="-1.3864872744306922e-03" rms="4.8620691895484924e-01" purity="3.8441944122314453e-01" nType="-99"/>
        </Node>
      </Node>
    </BinaryTree>
    <BinaryTree type="DecisionTree" boostWeight="1.0000000000000000e+00" itree="21">
      <Node pos="s" depth="0" NCoef="0" IVar="0" Cut="6.5775566101074219e+00" cType="1" res="-1.1589929461479187e-02" rms="4.9277421832084656e-01" purity="4.8573628067970276e-01" nType="0">
        <Node pos="l" depth="1" NCoef="0" IVar="6" Cut="4.4022421264648438e+02" cType="1" res="-1.4173649251461029e-01" rms="4.7116845846176147e-01" purity="3.4076303243637085e-01" nType="0">
          <Node pos="l" depth="2" NCoef="0" IVar="-1" Cut="0.0000000000000000e+00" cType="1" res="-3.0002249404788017e-03" rms="4.3344604969024658e-01" purity="2.5440374016761780e-01" nType="-99"/>
          <Node pos="r" depth="2" NCoef="0" IVar="-1" Cut="0.0000000000000000e+00" cType="1" res="-6.6008424619212747e-04" rms="4.9209046363830566e-01" purity="4.2977669835090637e-01" nType="-99"/>
        </Node>
        <Node pos="r" depth="1" NCoef="0" IVar="1" Cut="1.1522611379623413e+00" cType="1" res="1.1156599968671799e-01" rms="4.8097684979438782e-01" purity="6.2292248010635376e-01" nType="0">
          <Node pos="l" depth="2" NCoef="0" IVar="-1" Cut="0.0000000000000000e+00" cType="1" res="1.7547151073813438e-03" rms="4.6345099806785583e-01" purity="6.8490260839462280e-01" nType="-99"/>
          <Node pos="r" depth="2" NCoef="0" IVar="-1" Cut="0.0000000000000000e+00" cType="1" res="-6.7854439839720726e-04" rms="4.9464169144630432e-01" purity="4.3863064050674438e-01" nType="-99"/>
        </Node>
      </Node>
    </BinaryTree>
    <BinaryTree type="DecisionTree" boostWeight="1.0000000000000000e+00" itree="22">
      <Node pos="s" depth="0" NCoef="0" IVar="0" Cut="5.8318109512329102e+00" cType="1" res="9.9912360310554504e-03" rms="4.9213832616806030e-01" purity="5.0744479894638062e-01" nType="0">
        <Node pos="l" depth="1" NCoef="0" IVar="1" Cut="1.1462805271148682e+00" cType="1" res="-2.1685780584812164e-01" rms="4.3715882301330566e-01" purity="2.6214122772216797e-01" nType="0">
          <Node pos="l" depth="2" NCoef="0" IVar="-1" Cut="0.0000000000000000e+00" cType="1" res="-1.8696723273023963e-03" rms="4.7172522544860840e-01" purity="3.3637133240699768e-01" nType="-99"/>
          <Node pos="r" depth="2" NCoef="0" IVar="-1" Cut="0.0000000000000000e+00" cType="1" res="-5.3491634316742420e-03" rms="3.2452934980392456e-01" purity="1.1996982991695404e-01" nType="-99"/>
        </Node>
        <Node pos="r" depth="1" NCoef="0" IVar="1" Cut="1.4007174968719482e+00" cType="1" res="9.4401903450489044e-02" rms="4.8470398783683777e-01" purity="5.9872239828109741e-01" nType="0">
          <Node pos="l" depth="2" NCoef="0" IVar="-1" Cut="0.0000000000000000e+00" cType="1" res="1.4768938999623060e-03" rms="4.7443079948425293e-01" purity="6.4754188060760498e-01" nType="-99"/>
          <Node pos="r" depth="2" NCoef="0" IVar="-1" Cut="0.0000000000000000e+00" cType="1" res="-2.1988837979733944e-03" rms="4.6659079194068909e-01" purity="3.2134211063385010e-01" nType="-99"/>
        </Node>
      </Node>
    </BinaryTree>
    <BinaryTree type="DecisionTree" boostWeight="1.0000000000000000e+00" itree="23">
      <Node pos="s" depth="0" NCoef="0" IVar="0" Cut="5.8549060821533203e+00" cType="1" res="1.3534292578697205e-02" rms="4.9219131469726562e-01" purity="5.1081091165542603e-01" nType="0">
        <Node pos="l" depth="1" NCoef="0" IVar="6" Cut="3.8249920654296875e+02" cType="1" res="-1.8330778181552887e-01" rms="4.5272538065910339e-01" purity="2.9439315199851990e-01" nType="0">
          <Node pos="l" depth="2" NCoef="0" IVar="-1" Cut="0.0000000000000000e+00" cType="1" res="-4.4429921545088291e-03" rms="3.6717903614044189e-01" purity="1.6211842000484467e-01" nType="-99"/>
          <Node pos="r" depth="2" NCoef="0" IVar="-1" Cut="0.0000000000000000e+00" cType="1" res="-1.2625249801203609e-03" rms="4.8129895329475403e-01" purity="3.7820276618003845e-01" nType="-99"/>
        </Node>
        <Node pos="r" depth="1" NCoef="0" IVar="1" Cut="1.4966695308685303e+00" cType="1" res="8.7606549263000488e-02" rms="4.8602280020713806e-01" purity="5.9224957227706909e-01" nType="0">
          <Node pos="l" depth="2" NCoef="0" IVar="-1" Cut="0.0000000000000000e+00" cType="1" res="1.3023014180362225e-03" rms="4.7960859537124634e-01" purity="6.2843000888824463e-01" nType="-99"/>
          <Node pos="r" depth="2" NCoef="0" IVar="-1" Cut="0.0000000000000000e+00" cType="1" res="-3.0534018296748400e-03" rms="4.4329488277435303e-01" purity="2.6947462558746338e-01" nType="-99"/>
        </Node>
      </Node>
    </BinaryTree>
    <BinaryTree type="DecisionTree" boostWeight="1.0000000000000000e+00" itree="24">
      <Node pos="s" depth="0" NCoef="0" IVar="0" Cut="6.8006834983825684e+00" cType="1" res="5.4962723515927792e-03" rms="4.9214029312133789e-01" purity="5.0300741195678711e-01" nType="0">
        <Node pos="l" depth="1" NCoef="0" IVar="0" Cut="5.2668809890747070e+00" cType="1" res="-1.0513544827699661e-01" rms="4.8155987262725830e-01" purity="3.7726420164108276e-01" nType="0">
          <Node pos="l" depth="2" NCoef="0" IVar="-1" Cut="0.0000000000000000e+00" cType="1" res="-3.4040894825011492e-03" rms="4.1798451542854309e-01" purity="2.2687849402427673e-01" nType="-99"/>
          <Node pos="r" depth="2" NCoef="0" IVar="-1" Cut="0.0000000000000000e+00" cType="1" res="-6.8659591488540173e-04" rms="4.9220302700996399e-01" purity="4.2802223563194275e-01" nType="-99"/>
        </Node>
        <Node pos="r" depth="1" NCoef="0" IVar="1" Cut="1.0331401824951172e+00" cType="1" res="1.3413223624229431e-01" rms="4.7265461087226868e-01" purity="6.4921426773071289e-01" nType="0">
          <Node pos="l" depth="2" NCoef="0" IVar="-1" Cut="0.0000000000000000e+00" cType="1" res="2.2580896038562059e-03" rms="4.3424057960510254e-01" purity="7.4700742959976196e-01" nType="-99"/>
          <Node pos="r" depth="2" NCoef="0" IVar="-1" Cut="0.0000000000000000e+00" cType="1" res="-4.7990999883040786e-04" rms="4.9487879872322083e-01" purity="4.6246626973152161e-01" nType="-99"/>
        </Node>
      </Node>
    </BinaryTree>
    <BinaryTree type="DecisionTree" boostWeight="1.0000000000000000e+00" itree="25">
      <Node pos="s" depth="0" NCoef="0" IVar="0" Cut="6.7979960441589355e+00" cType="1" res="1.1606263928115368e-02" rms="4.9151444435119629e-01" purity="5.0833982229232788e-01" nType="0">
        <Node pos="l" depth="1" NCoef="0" IVar="1" Cut="9.4146174192428589e-01" cType="1" res="-1.0388464480638504e-01" rms="4.8095250129699707e-01" purity="3.7699383497238159e-01" nType="0">
          <Node pos="l" depth="2" NCoef="0" IVar="-1" Cut="0.0000000000000000e+00" cType="1" res="-1.3276211393531412e-04" rms="4.9731841683387756e-01" purity="4.7704294323921204e-01" nType="-99"/>
          <Node pos="r" depth="2" NCoef="0" IVar="-1" Cut="0.0000000000000000e+00" cType="1" res="-2.5335764512419701e-03" rms="4.4927027821540833e-01" purity="2.8562495112419128e-01" nType="-99"/>
        </Node>
        <Node pos="r" depth="1" NCoef="0" IVar="1" Cut="1.3408473730087280e+00" cType="1" res="1.4796444773674011e-01" rms="4.6837136149406433e-01" purity="6.6341769695281982e-01" nType="0">
          <Node pos="l" depth="2" NCoef="0" IVar="-1" Cut="0.0000000000000000e+00" cType="1" res="2.0089838653802872e-03" rms="4.5127403736114502e-01" purity="7.1391910314559937e-01" nType="-99"/>
          <Node pos="r" depth="2" NCoef="0" IVar="-1" Cut="0.0000000000000000e+00" cType="1" res="-9.7331765573471785e-04" rms="4.9003037810325623e-01" purity="4.0674272179603577e-01" nType="-99"/>
        </Node>
      </Node>
    </BinaryTree>
    <BinaryTree type="DecisionTree" boostWeight="1.0000000000000000e+00" itree="26">
      <Node pos="s" depth="0" NCoef="0" IVar="0" Cut="6.7364001274108887e+00" cType="1" res="-1.3481077738106251e-02" rms="4.9083438515663147e-01" purity="4.8433631658554077e-01" nType="0">
        <Node pos="l" depth="1" NCoef="0" IVar="1" Cut="1.2525517940521240e+00" cType="1" res="-1.4465366303920746e-01" rms="4.6855172514915466e-01" purity="3.3549776673316956e-01" nType="0">
          <Node pos="l" depth="2" NCoef="0" IVar="-1" Cut="0.0000000000000000e+00" cType="1" res="-1.1310158297419548e-03" rms="4.8685586452484131e-01" purity="3.9285847544670105e-01" nType="-99"/>
          <Node pos="r" depth="2" NCoef="0" IVar="-1" Cut="0.0000000000000000e+00" cType="1" res="-4.1663395240902901e-03" rms="3.8634032011032104e-01" purity="1.8533258140087128e-01" nType="-99"/>
        </Node>
        <Node pos="r" depth="1" NCoef="0" IVar="1" Cut="1.0331401824951172e+00" cType="1" res="1.1805769801139832e-01" rms="4.7728297114372253e-01" purity="6.3359034061431885e-01" nType="0">
          <Node pos="l" depth="2" NCoef="0" IVar="-1" Cut="0.0000000000000000e+00" cType="1" res="2.0352422725409269e-03" rms="4.4774127006530762e-01" purity="7.2134017944335938e-01" nType="-99"/>
          <Node pos="r" depth="2" NCoef="0" IVar="-1" Cut="0.0000000000000000e+00" cType="1" res="-3.3454480580985546e-04" rms="4.9547752737998962e-01" purity="4.7284492850303650e-01" nType="-99"/>
        </Node>
      </Node>
    </BinaryTree>
    <BinaryTree type="DecisionTree" boostWeight="1.0000000000000000e+00" itree="27">
      <Node pos="s" depth="0" NCoef="0" IVar="0" Cut="6.9932942390441895e+00" cType="1" res="1.6698464751243591e-02" rms="4.9086132645606995e-01" purity="5.1294928789138794e-01" nType="0">
        <Node pos="l" depth="1" NCoef="0" IVar="1" Cut="1.2869718074798584e+00" cType="1" res="-7.8618630766868591e-02" rms="4.8534980416297913e-01" purity="4.0281033515930176e-01" nType="0">
          <Node pos="l" depth="2" NCoef="0" IVar="-1" Cut="0.0000000000000000e+00" cType="1" res="-1.8047344929073006e-04" rms="4.9683114886283875e-01" purity="4.7213640809059143e-01" nType="-99"/>
          <Node pos="r" depth="2" NCoef="0" IVar="-1" Cut="0.0000000000000000e+00" cType="1" res="-4.1597830131649971e-03" rms="3.8530194759368896e-01" purity="1.8438707292079926e-01" nType="-99"/>
        </Node>
        <Node pos="r" depth="1" NCoef="0" IVar="1" Cut="1.1495378017425537e+00" cType="1" res="1.6319891810417175e-01" rms="4.6237218379974365e-01" purity="6.8223071098327637e-01" nType="0">
          <Node pos="l" depth="2" NCoef="0" IVar="-1" Cut="0.0000000000000000e+00" cType="1" res="2.1343741100281477e-03" rms="4.3854409456253052e-01" purity="7.3997843265533447e-01" nType="-99"/>
          <Node pos="r" depth="2" NCoef="0" IVar="-1" Cut="0.0000000000000000e+00" cType="1" res="1.4752558490727097e-04" rms="4.9897065758705139e-01" purity="5.0576168298721313e-01" nType="-99"/>
        </Node>
      </Node>
    </BinaryTree>
    <BinaryTree type="DecisionTree" boostWeight="1.0000000000000000e+00" itree="28">
      <Node pos="s" depth="0" NCoef="0" IVar="0" Cut="7.2885541915893555e+00" cType="1" res="-4.4114384800195694e-03" rms="4.9065399169921875e-01" purity="4.9261260032653809e-01" nType="0">
        <Node pos="l" depth="1" NCoef="0" IVar="1" Cut="1.5241010189056396e+00" cType="1" res="-9.0334460139274597e-02" rms="4.8332768678665161e-01" purity="3.9514589309692383e-01" nType="0">
          <Node pos="l" depth="2" NCoef="0" IVar="-1" Cut="0.0000000000000000e+00" cType="1" res="-6.5035076113417745e-04" rms="4.9204796552658081e-01" purity="4.3466711044311523e-01" nType="-99"/>
          <Node pos="r" depth="2" NCoef="0" IVar="-1" Cut="0.0000000000000000e+00" cType="1" res="-5.7647787034511566e-03" rms="3.1719592213630676e-01" purity="1.1465691775083542e-01" nType="-99"/>
        </Node>
        <Node pos="r" depth="1" NCoef="0" IVar="1" Cut="9.5891541242599487e-01" cType="1" res="1.7342054843902588e-01" rms="4.5673382282257080e-01" purity="6.9433617591857910e-01" nType="0">
          <Node pos="l" depth="2" NCoef="0" IVar="-1" Cut="0.0000000000000000e+00" cType="1" res="2.4647670798003674e-03" rms="4.1403436660766602e-01" purity="7.8031331300735474e-01" nType="-99"/>
          <Node pos="r" depth="2" NCoef="0" IVar="-1" Cut="0.0000000000000000e+00" cType="1" res="6.1126198852434754e-04" rms="4.9280536174774170e-01" purity="5.5809086561203003e-01" nType="-99"/>
        </Node>
      </Node>
    </BinaryTree>
    <BinaryTree type="DecisionTree" boostWeight="1.0000000000000000e+00" itree="29">
      <Node pos="s" depth="0" NCoef="0" IVar="0" Cut="6.4808759689331055e+00" cType="1" res="1.1134785600006580e-02" rms="4.8986428976058960e-01" purity="5.0737535953521729e-01" nType="0">
        <Node pos="l" depth="1" NCoef="0" IVar="0" Cut="5.7863349914550781e+00" cType="1" res="-1.3903546333312988e-01" rms="4.6878618001937866e-01" purity="3.3696040511131287e-01" nType="0">
          <Node pos="l" depth="2" NCoef="0" IVar="-1" Cut="0.0000000000000000e+00" cType="1" res="-3.0521131120622158e-03" rms="4.2935493588447571e-01" purity="2.4887794256210327e-01" nType="-99"/>
          <Node pos="r" depth="2" NCoef="0" IVar="-1" Cut="0.0000000000000000e+00" cType="1" res="-2.0559201948344707e-04" rms="4.9645009636878967e-01" purity="4.6540051698684692e-01" nType="-99"/>
        </Node>
        <Node pos="r" depth="1" NCoef="0" IVar="1" Cut="1.3408473730087280e+00" cType="1" res="1.3375632464885712e-01" rms="4.7224625945091248e-01" purity="6.4652770757675171e-01" nType="0">
          <Node pos="l" depth="2" NCoef="0" IVar="-1" Cut="0.0000000000000000e+00" cType="1" res="1.9203501287847757e-03" rms="4.5433869957923889e-01" purity="7.0462316274642944e-01" nType="-99"/>
          <Node pos="r" depth="2" NCoef="0" IVar="-1" Cut="0.0000000000000000e+00" cType="1" res="-1.4825474936515093e-03" rms="4.8080039024353027e-01" purity="3.6596262454986572e-01" nType="-99"/>
        </Node>
      </Node>
    </BinaryTree>
    <BinaryTree type="DecisionTree" boostWeight="1.0000000000000000e+00" itree="30">
      <Node pos="s" depth="0" NCoef="0" IVar="0" Cut="7.0921163558959961e+00" cType="1" res="2.2289998829364777e-02" rms="4.8991897702217102e-01" purity="5.1903599500656128e-01" nType="0">
        <Node pos="l" depth="1" NCoef="0" IVar="1" Cut="1.1673500537872314e+00" cType="1" res="-7.2642669081687927e-02" rms="4.8630911111831665e-01" purity="4.0821418166160583e-01" nType="0">
          <Node pos="l" depth="2" NCoef="0" IVar="-1" Cut="0.0000000000000000e+00" cType="1" res="-1.0338248102925718e-04" rms="4.9747025966644287e-01" purity="4.8055127263069153e-01" nType="-99"/>
          <Node pos="r" depth="2" NCoef="0" IVar="-1" Cut="0.0000000000000000e+00" cType="1" res="-3.0299762729555368e-03" rms="4.2691916227340698e-01" purity="2.4562352895736694e-01" nType="-99"/>
        </Node>
        <Node pos="r" depth="1" NCoef="0" IVar="1" Cut="8.4677058458328247e-01" cType="1" res="1.7339146137237549e-01" rms="4.5656722784042358e-01" purity="6.9542783498764038e-01" nType="0">
          <Node pos="l" depth="2" NCoef="0" IVar="-1" Cut="0.0000000000000000e+00" cType="1" res="2.5747690815478563e-03" rms="4.0595805644989014e-01" purity="7.9184550046920776e-01" nType="-99"/>
          <Node pos="r" depth="2" NCoef="0" IVar="-1" Cut="0.0000000000000000e+00" cType="1" res="9.8268897272646427e-04" rms="4.8694515228271484e-01" purity="5.9803563356399536e-01" nType="-99"/>
        </Node>
      </Node>
    </BinaryTree>
    <BinaryTree type="DecisionTree" boostWeight="1.0000000000000000e+00" itree="31">
      <Node pos="s" depth="0" NCoef="0" IVar="0" Cut="7.1023764610290527e+00" cType="1" res="1.8039893358945847e-02" rms="4.8948013782501221e-01" purity="5.1515311002731323e-01" nType="0">
        <Node pos="l" depth="1" NCoef="0" IVar="1" Cut="1.1682177782058716e+00" cType="1" res="-7.9630203545093536e-02" rms="4.8478138446807861e-01" purity="4.0098828077316284e-01" nType="0">
          <Node pos="l" depth="2" NCoef="0" IVar="-1" Cut="0.0000000000000000e+00" cType="1" res="-1.9694860384333879e-04" rms="4.9702262878417969e-01" purity="4.7291418910026550e-01" nType="-99"/>
          <Node pos="r" depth="2" NCoef="0" IVar="-1" Cut="0.0000000000000000e+00" cType="1" res="-3.0015807133167982e-03" rms="4.2695483565330505e-01" purity="2.4524691700935364e-01" nType="-99"/>
        </Node>
        <Node pos="r" depth="1" NCoef="0" IVar="1" Cut="9.4350087642669678e-01" cType="1" res="1.7062273621559143e-01" rms="4.5668160915374756e-01" purity="6.9350445270538330e-01" nType="0">
          <Node pos="l" depth="2" NCoef="0" IVar="-1" Cut="0.0000000000000000e+00" cType="1" res="2.4976178538054228e-03" rms="4.0996894240379333e-01" purity="7.8621727228164673e-01" nType="-99"/>
          <Node pos="r" depth="2" NCoef="0" IVar="-1" Cut="0.0000000000000000e+00" cType="1" res="6.1305955750867724e-04" rms="4.9236276745796204e-01" purity="5.6104791164398193e-01" nType="-99"/>
        </Node>
      </Node>
    </BinaryTree>
    <BinaryTree type="DecisionTree" boostWeight="1.0000000000000000e+00" itree="32">
      <Node pos="s" depth="0" NCoef="0" IVar="0" Cut="7.0307221412658691e+00" cType="1" res="-8.0895125865936279e-03" rms="4.8850223422050476e-01" purity="4.8835289478302002e-01" nType="0">
        <Node pos="l" depth="1" NCoef="0" IVar="0" Cut="5.8244094848632812e+00" cType="1" res="-1.1638906598091125e-01" rms="4.7541108727455139e-01" purity="3.6199802160263062e-01" nType="0">
          <Node pos="l" depth="2" NCoef="0" IVar="-1" Cut="0.0000000000000000e+00" cType="1" res="-3.0067535117268562e-03" rms="4.2810779809951782e-01" purity="2.4836510419845581e-01" nType="-99"/>
          <Node pos="r" depth="2" NCoef="0" IVar="-1" Cut="0.0000000000000000e+00" cType="1" res="-2.9698738944716752e-04" rms="4.9528950452804565e-01" purity="4.6077445149421692e-01" nType="-99"/>
        </Node>
        <Node pos="r" depth="1" NCoef="0" IVar="1" Cut="1.2299815416336060e+00" cType="1" res="1.5815396606922150e-01" rms="4.6082925796508789e-01" purity="6.8231189250946045e-01" nType="0">
          <Node pos="l" depth="2" NCoef="0" IVar="-1" Cut="0.0000000000000000e+00" cType="1" res="2.1798911038786173e-03" rms="4.3687561154365540e-01" purity="7.4268180131912231e-01" nType="-99"/>
          <Node pos="r" depth="2" NCoef="0" IVar="-1" Cut="0.0000000000000000e+00" cType="1" res="-9.6536154160276055e-04" rms="4.9060177803039551e-01" purity="4.2076772451400757e-01" nType="-99"/>
        </Node>
      </Node>
    </BinaryTree>
    <BinaryTree type="DecisionTree" boostWeight="1.0000000000000000e+00" itree="33">
      <Node pos="s" depth="0" NCoef="0" IVar="0" Cut="6.5568866729736328e+00" cType="1" res="7.7348444610834122e-03" rms="4.8961329460144043e-01" purity="5.0479137897491455e-01" nType="0">
        <Node pos="l" depth="1" NCoef="0" IVar="4" Cut="5.1619097590446472e-02" cType="1" res="-1.2085875123739243e-01" rms="4.7374922037124634e-01" purity="3.5272163152694702e-01" nType="0">
          <Node pos="l" depth="2" NCoef="0" IVar="-1" Cut="0.0000000000000000e+00" cType="1" res="-2.7596768923103809e-03" rms="4.3730744719505310e-01" purity="2.6518902182579041e-01" nType="-99"/>
          <Node pos="r" depth="2" NCoef="0" IVar="-1" Cut="0.0000000000000000e+00" cType="1" res="-6.7392684286460280e-05" rms="4.9691101908683777e-01" purity="4.7249439358711243e-01" nType="-99"/>
        </Node>
        <Node pos="r" depth="1" NCoef="0" IVar="1" Cut="1.3439633846282959e+00" cType="1" res="1.1836472153663635e-01" rms="4.7581911087036133e-01" purity="6.3561791181564331e-01" nType="0">
          <Node pos="l" depth="2" NCoef="0" IVar="-1" Cut="0.0000000000000000e+00" cType="1" res="1.6958777559921145e-03" rms="4.6217897534370422e-01" purity="6.8766278028488159e-01" nType="-99"/>
          <Node pos="r" depth="2" NCoef="0" IVar="-1" Cut="0.0000000000000000e+00" cType="1" res="-1.4625615440309048e-03" rms="4.8097267746925354e-01" purity="3.6834293603897095e-01" nType="-99"/>
        </Node>
      </Node>
    </BinaryTree>
    <BinaryTree type="DecisionTree" boostWeight="1.0000000000000000e+00" itree="34">
      <Node pos="s" depth="0" NCoef="0" IVar="0" Cut="7.0921163558959961e+00" cType="1" res="-1.0485817911103368e-03" rms="4.8918646574020386e-01" purity="4.9473696947097778e-01" nType="0">
        <Node pos="l" depth="1" NCoef="0" IVar="1" Cut="9.6942704916000366e-01" cType="1" res="-9.1585084795951843e-02" rms="4.8165613412857056e-01" purity="3.8646891713142395e-01" nType="0">
          <Node pos="l" depth="2" NCoef="0" IVar="-1" Cut="0.0000000000000000e+00" cType="1" res="-1.4431007730308920e-04" rms="4.9669927358627319e-01" purity="4.7751504182815552e-01" nType="-99"/>
          <Node pos="r" depth="2" NCoef="0" IVar="-1" Cut="0.0000000000000000e+00" cType="1" res="-2.4607779923826456e-03" rms="4.4885247945785522e-01" purity="2.8652942180633545e-01" nType="-99"/>
        </Node>
        <Node pos="r" depth="1" NCoef="0" IVar="1" Cut="1.0703278779983521e+00" cType="1" res="1.4572142064571381e-01" rms="4.6510806679725647e-01" purity="6.7025184631347656e-01" nType="0">
          <Node pos="l" depth="2" NCoef="0" IVar="-1" Cut="0.0000000000000000e+00" cType="1" res="2.1923992317169905e-03" rms="4.3434891104698181e-01" purity="7.4761861562728882e-01" nType="-99"/>
          <Node pos="r" depth="2" NCoef="0" IVar="-1" Cut="0.0000000000000000e+00" cType="1" res="-2.2614606132265180e-04" rms="4.9628603458404541e-01" purity="4.8108080029487610e-01" nType="-99"/>
        </Node>
      </Node>
    </BinaryTree>
    <BinaryTree type="DecisionTree" boostWeight="1.0000000000000000e+00" itree="35">
      <Node pos="s" depth="0" NCoef="0" IVar="0" Cut="6.7678003311157227e+00" cType="1" res="-4.5960457064211369e-03" rms="4.8956495523452759e-01" purity="4.9115961790084839e-01" nType="0">
        <Node pos="l" depth="1" NCoef="0" IVar="1" Cut="1.4405795335769653e+00" cType="1" res="-1.0557386279106140e-01" rms="4.7822880744934082e-01" purity="3.6824935674667358e-01" nType="0">
          <Node pos="l" depth="2" NCoef="0" IVar="-1" Cut="0.0000000000000000e+00" cType="1" res="-8.0028205411508679e-04" rms="4.9064922332763672e-01" purity="4.1311073303222656e-01" nType="-99"/>
          <Node pos="r" depth="2" NCoef="0" IVar="-1" Cut="0.0000000000000000e+00" cType="1" res="-4.7194352373480797e-03" rms="3.5033243894577026e-01" purity="1.4402236044406891e-01" nType="-99"/>
        </Node>
        <Node pos="r" depth="1" NCoef="0" IVar="1" Cut="1.2060329914093018e+00" cType="1" res="1.1434619873762131e-01" rms="4.7585597634315491e-01" purity="6.3593614101409912e-01" nType="0">
          <Node pos="l" depth="2" NCoef="0" IVar="-1" Cut="0.0000000000000000e+00" cType="1" res="1.7567822942510247e-03" rms="4.5678943395614624e-01" purity="7.0133960247039795e-01" nType="-99"/>
          <Node pos="r" depth="2" NCoef="0" IVar="-1" Cut="0.0000000000000000e+00" cType="1" res="-8.7733997497707605e-04" rms="4.9187979102134705e-01" purity="4.2231568694114685e-01" nType="-99"/>
        </Node>
      </Node>
    </BinaryTree>
    <BinaryTree type="DecisionTree" boostWeight="1.0000000000000000e+00" itree="36">
      <Node pos="s" depth="0" NCoef="0" IVar="0" Cut="6.0696592330932617e+00" cType="1" res="-6.0226400382816792e-03" rms="4.8939883708953857e-01" purity="4.8943543434143066e-01" nType="0">
        <Node pos="l" depth="1" NCoef="0" IVar="0" Cut="5.4366540908813477e+00" cType="1" res="-1.5890690684318542e-01" rms="4.5779708027839661e-01" purity="3.0946770310401917e-01" nType="0">
          <Node pos="l" depth="2" NCoef="0" IVar="-1" Cut="0.0000000000000000e+00" cType="1" res="-3.5024385433644056e-03" rms="4.0942096710205078e-01" purity="2.1694773435592651e-01" nType="-99"/>
          <Node pos="r" depth="2" NCoef="0" IVar="-1" Cut="0.0000000000000000e+00" cType="1" res="-7.6414644718170166e-04" rms="4.8809927701950073e-01" purity="4.1146901249885559e-01" nType="-99"/>
        </Node>
        <Node pos="r" depth="1" NCoef="0" IVar="1" Cut="1.0535677671432495e+00" cType="1" res="7.8355468809604645e-02" rms="4.8581042885780334e-01" purity="5.8876109123229980e-01" nType="0">
          <Node pos="l" depth="2" NCoef="0" IVar="-1" Cut="0.0000000000000000e+00" cType="1" res="1.4563060831278563e-03" rms="4.7094973921775818e-01" purity="6.5996485948562622e-01" nType="-99"/>
          <Node pos="r" depth="2" NCoef="0" IVar="-1" Cut="0.0000000000000000e+00" cType="1" res="-3.6857792292721570e-04" rms="4.9409341812133789e-01" purity="4.5806020498275757e-01" nType="-99"/>
        </Node>
      </Node>
    </BinaryTree>
    <BinaryTree type="DecisionTree" boostWeight="1.0000000000000000e+00" itree="37">
      <Node pos="s" depth="0" NCoef="0" IVar="0" Cut="6.5568866729736328e+00" cType="1" res="-7.4980463832616806e-03" rms="4.9000856280326843e-01" purity="4.8749753832817078e-01" nType="0">
        <Node pos="l" depth="1" NCoef="0" IVar="6" Cut="4.4022421264648438e+02" cType="1" res="-1.0283645242452621e-01" rms="4.7836339473724365e-01" purity="3.6768323183059692e-01" nType="0">
          <Node pos="l" depth="2" NCoef="0" IVar="-1" Cut="0.0000000000000000e+00" cType="1" res="-2.5558737106621265e-03" rms="4.4183412194252014e-01" purity="2.7265062928199768e-01" nType="-99"/>
          <Node pos="r" depth="2" NCoef="0" IVar="-1" Cut="0.0000000000000000e+00" cType="1" res="-1.9505994714563712e-05" rms="4.9603435397148132e-01" purity="4.7173276543617249e-01" nType="-99"/>
        </Node>
        <Node pos="r" depth="1" NCoef="0" IVar="1" Cut="1.2574516534805298e+00" cType="1" res="8.3029076457023621e-02" rms="4.8372542858123779e-01" purity="6.0126537084579468e-01" nType="0">
          <Node pos="l" depth="2" NCoef="0" IVar="-1" Cut="0.0000000000000000e+00" cType="1" res="1.4351882273331285e-03" rms="4.7123396396636963e-01" purity="6.6382241249084473e-01" nType="-99"/>
          <Node pos="r" depth="2" NCoef="0" IVar="-1" Cut="0.0000000000000000e+00" cType="1" res="-1.4873360050842166e-03" rms="4.8049983382225037e-01" purity="3.7137302756309509e-01" nType="-99"/>
        </Node>
      </Node>
    </BinaryTree>
    <BinaryTree type="DecisionTree" boostWeight="1.0000000000000000e+00" itree="38">
      <Node pos="s" depth="0" NCoef="0" IVar="0" Cut="7.0779643058776855e+00" cType="1" res="1.1693904176354408e-02" rms="4.8759654164314270e-01" purity="5.0777351856231689e-01" nType="0">
        <Node pos="l" depth="1" NCoef="0" IVar="1" Cut="1.4328293800354004e+00" cType="1" res="-9.0940169990062714e-02" rms="4.8085874319076538e-01" purity="3.8467442989349365e-01" nType="0">
          <Node pos="l" depth="2" NCoef="0" IVar="-1" Cut="0.0000000000000000e+00" cType="1" res="-5.9576303465291858e-04" rms="4.9229621887207031e-01" purity="4.3209761381149292e-01" nType="-99"/>
          <Node pos="r" depth="2" NCoef="0" IVar="-1" Cut="0.0000000000000000e+00" cType="1" res="-4.6419557183980942e-03" rms="3.5664987564086914e-01" purity="1.5079447627067566e-01" nType="-99"/>
        </Node>
        <Node pos="r" depth="1" NCoef="0" IVar="1" Cut="1.3516898155212402e+00" cType="1" res="1.6605745255947113e-01" rms="4.5595327019691467e-01" purity="6.9291687011718750e-01" nType="0">
          <Node pos="l" depth="2" NCoef="0" IVar="-1" Cut="0.0000000000000000e+00" cType="1" res="2.1423485595732927e-03" rms="4.3697652220726013e-01" purity="7.4174964427947998e-01" nType="-99"/>
          <Node pos="r" depth="2" NCoef="0" IVar="-1" Cut="0.0000000000000000e+00" cType="1" res="-1.1539437109604478e-03" rms="4.8753061890602112e-01" purity="3.9363890886306763e-01" nType="-99"/>
        </Node>
      </Node>
    </BinaryTree>
    <BinaryTree type="DecisionTree" boostWeight="1.0000000000000000e+00" itree="39">
      <Node pos="s" depth="0" NCoef="0" IVar="0" Cut="7.2885541915893555e+00" cType="1" res="-5.8021866716444492e-03" rms="4.8772999644279480e-01" purity="4.8999559879302979e-01" nType="0">
        <Node pos="l" depth="1" NCoef="0" IVar="1" Cut="1.1239081621170044e+00" cType="1" res="-8.4994927048683167e-02" rms="4.8166507482528687e-01" purity="3.9417493343353271e-01" nType="0">
          <Node pos="l" depth="2" NCoef="0" IVar="-1" Cut="0.0000000000000000e+00" cType="1" res="-1.7653875693213195e-04" rms="4.9565789103507996e-01" purity="4.7695431113243103e-01" nType="-99"/>
          <Node pos="r" depth="2" NCoef="0" IVar="-1" Cut="0.0000000000000000e+00" cType="1" res="-2.9958598315715790e-03" rms="4.2799985408782959e-01" purity="2.4559278786182404e-01" nType="-99"/>
        </Node>
        <Node pos="r" depth="1" NCoef="0" IVar="1" Cut="1.1778514385223389e+00" cType="1" res="1.4897309243679047e-01" rms="4.6169111132621765e-01" purity="6.7726862430572510e-01" nType="0">
          <Node pos="l" depth="2" NCoef="0" IVar="-1" Cut="0.0000000000000000e+00" cType="1" res="2.1237020846456289e-03" rms="4.3469491600990295e-01" purity="7.4661511182785034e-01" nType="-99"/>
          <Node pos="r" depth="2" NCoef="0" IVar="-1" Cut="0.0000000000000000e+00" cType="1" res="-7.5358484173193574e-04" rms="4.9321433901786804e-01" purity="4.3447813391685486e-01" nType="-99"/>
        </Node>
      </Node>
    </BinaryTree>
    <BinaryTree type="DecisionTree" boostWeight="1.0000000000000000e+00" itree="40">
      <Node pos="s" depth="0" NCoef="0" IVar="0" Cut="6.4855394363403320e+00" cType="1" res="-1.2450078502297401e-02" rms="4.8759555816650391e-01" purity="4.8187005519866943e-01" nType="0">
        <Node pos="l" depth="1" NCoef="0" IVar="1" Cut="1.5705329179763794e+00" cType="1" res="-1.2603285908699036e-01" rms="4.6940806508064270e-01" purity="3.4188553690910339e-01" nType="0">
          <Node pos="l" depth="2" NCoef="0" IVar="-1" Cut="0.0000000000000000e+00" cType="1" res="-1.1351464781910181e-03" rms="4.8258578777313232e-01" purity="3.7931743264198303e-01" nType="-99"/>
          <Node pos="r" depth="2" NCoef="0" IVar="-1" Cut="0.0000000000000000e+00" cType="1" res="-6.7193042486906052e-03" rms="2.1500645577907562e-01" purity="4.9042034894227982e-02" nType="-99"/>
        </Node>
        <Node pos="r" depth="1" NCoef="0" IVar="1" Cut="1.0331401824951172e+00" cType="1" res="8.4172591567039490e-02" rms="4.8191836476325989e-01" purity="6.0095214843750000e-01" nType="0">
          <Node pos="l" depth="2" NCoef="0" IVar="-1" Cut="0.0000000000000000e+00" cType="1" res="1.6955191968008876e-03" rms="4.5822796225547791e-01" purity="6.9380575418472290e-01" nType="-99"/>
          <Node pos="r" depth="2" NCoef="0" IVar="-1" Cut="0.0000000000000000e+00" cType="1" res="-6.4034195384010673e-04" rms="4.9164786934852600e-01" purity="4.4227918982505798e-01" nType="-99"/>
        </Node>
      </Node>
    </BinaryTree>
    <BinaryTree type="DecisionTree" boostWeight="1.0000000000000000e+00" itree="41">
      <Node pos="s" depth="0" NCoef="0" IVar="0" Cut="6.9958319664001465e+00" cType="1" res="-1.0989975417032838e-03" rms="4.8699969053268433e-01" purity="4.9451321363449097e-01" nType="0">
        <Node pos="l" depth="1" NCoef="0" IVar="1" Cut="1.3415577411651611e+00" cType="1" res="-9.9794752895832062e-02" rms="4.7715079784393311e-01" purity="3.7324839830398560e-01" nType="0">
          <Node pos="l" depth="2" NCoef="0" IVar="-1" Cut="0.0000000000000000e+00" cType="1" res="-5.5170099949464202e-04" rms="4.9294099211692810e-01" purity="4.3506765365600586e-01" nType="-99"/>
          <Node pos="r" depth="2" NCoef="0" IVar="-1" Cut="0.0000000000000000e+00" cType="1" res="-4.8704990185797215e-03" rms="3.3835986256599426e-01" purity="1.3333588838577271e-01" nType="-99"/>
        </Node>
        <Node pos="r" depth="1" NCoef="0" IVar="1" Cut="9.7113072872161865e-01" cType="1" res="1.4311270415782928e-01" rms="4.6477273106575012e-01" purity="6.7170220613479614e-01" nType="0">
          <Node pos="l" depth="2" NCoef="0" IVar="-1" Cut="0.0000000000000000e+00" cType="1" res="2.1358197554945946e-03" rms="4.3220424652099609e-01" purity="7.5142490863800049e-01" nType="-99"/>
          <Node pos="r" depth="2" NCoef="0" IVar="-1" Cut="0.0000000000000000e+00" cType="1" res="4.0192494634538889e-04" rms="4.9440273642539978e-01" purity="5.4110527038574219e-01" nType="-99"/>
        </Node>
      </Node>
    </BinaryTree>
    <BinaryTree type="DecisionTree" boostWeight="1.0000000000000000e+00" itree="42">
      <Node pos="s" depth="0" NCoef="0" IVar="0" Cut="7.1023764610290527e+00" cType="1" res="-1.2791138142347336e-02" rms="4.8522230982780457e-01" purity="4.8291492462158203e-01" nType="0">
        <Node pos="l" depth="1" NCoef="0" IVar="1" Cut="1.1956822872161865e+00" cType="1" res="-1.1579733341932297e-01" rms="4.7215107083320618e-01" purity="3.5813471674919128e-01" nType="0">
          <Node pos="l" depth="2" NCoef="0" IVar="-1" Cut="0.0000000000000000e+00" cType="1" res="-6.3997379038482904e-04" rms="4.9220365285873413e-01" purity="4.3239417672157288e-01" nType="-99"/>
          <Node pos="r" depth="2" NCoef="0" IVar="-1" Cut="0.0000000000000000e+00" cType="1" res="-3.8293458055704832e-03" rms="3.8673663139343262e-01" purity="1.8749728798866272e-01" nType="-99"/>
        </Node>
        <Node pos="r" depth="1" NCoef="0" IVar="1" Cut="1.0694423913955688e+00" cType="1" res="1.4961121976375580e-01" rms="4.6050804853439331e-01" purity="6.7964684963226318e-01" nType="0">
          <Node pos="l" depth="2" NCoef="0" IVar="-1" Cut="0.0000000000000000e+00" cType="1" res="2.2355476394295692e-03" rms="4.2597255110740662e-01" purity="7.6162588596343994e-01" nType="-99"/>
          <Node pos="r" depth="2" NCoef="0" IVar="-1" Cut="0.0000000000000000e+00" cType="1" res="-1.4716321311425418e-04" rms="4.9558958411216736e-01" purity="4.9002656340599060e-01" nType="-99"/>
        </Node>
      </Node>
    </BinaryTree>
    <BinaryTree type="DecisionTree" boostWeight="1.0000000000000000e+00" itree="43">
      <Node pos="s" depth="0" NCoef="0" IVar="0" Cut="7.0310177803039551e+00" cType="1" res="-1.1843270622193813e-03" rms="4.8592299222946167e-01" purity="4.9444839358329773e-01" nType="0">
        <Node pos="l" depth="1" NCoef="0" IVar="0" Cut="5.2759637832641602e+00" cType="1" res="-1.0528524965047836e-01" rms="4.7496849298477173e-01" purity="3.6577159166336060e-01" nType="0">
          <Node pos="l" depth="2" NCoef="0" IVar="-1" Cut="0.0000000000000000e+00" cType="1" res="-3.7643979303538799e-03" rms="3.8701048493385315e-01" purity="1.8629094958305359e-01" nType="-99"/>
          <Node pos="r" depth="2" NCoef="0" IVar="-1" Cut="0.0000000000000000e+00" cType="1" res="-6.7242665681988001e-04" rms="4.8825228214263916e-01" purity="4.2103505134582520e-01" nType="-99"/>
        </Node>
        <Node pos="r" depth="1" NCoef="0" IVar="1" Cut="1.2931312322616577e+00" cType="1" res="1.4180502295494080e-01" rms="4.6394842863082886e-01" purity="6.7119431495666504e-01" nType="0">
          <Node pos="l" depth="2" NCoef="0" IVar="-1" Cut="0.0000000000000000e+00" cType="1" res="1.9418806768953800e-03" rms="4.4453692436218262e-01" purity="7.2782510519027710e-01" nType="-99"/>
          <Node pos="r" depth="2" NCoef="0" IVar="-1" Cut="0.0000000000000000e+00" cType="1" res="-1.1244752677157521e-03" rms="4.8873320221900940e-01" purity="3.9845412969589233e-01" nType="-99"/>
        </Node>
      </Node>
    </BinaryTree>
    <BinaryTree type="DecisionTree" boostWeight="1.0000000000000000e+00" itree="44">
      <Node pos="s" depth="0" NCoef="0" IVar="0" Cut="6.7879085540771484e+00" cType="1" res="7.9092439264059067e-03" rms="4.8649787902832031e-01" purity="5.0453162193298340e-01" nType="0">
        <Node pos="l" depth="1" NCoef="0" IVar="0" Cut="5.2593832015991211e+00" cType="1" res="-1.0468010604381561e-01" rms="4.7546613216400146e-01" purity="3.6437940597534180e-01" nType="0">
          <Node pos="l" depth="2" NCoef="0" IVar="-1" Cut="0.0000000000000000e+00" cType="1" res="-3.5621568094938993e-03" rms="3.9768934249877930e-01" purity="1.9848226010799408e-01" nType="-99"/>
          <Node pos="r" depth="2" NCoef="0" IVar="-1" Cut="0.0000000000000000e+00" cType="1" res="-6.7696813493967056e-04" rms="4.8818242549896240e-01" purity="4.1801533102989197e-01" nType="-99"/>
        </Node>
        <Node pos="r" depth="1" NCoef="0" IVar="1" Cut="1.2408645153045654e+00" cType="1" res="1.3051417469978333e-01" rms="4.6840190887451172e-01" purity="6.5715134143829346e-01" nType="0">
          <Node pos="l" depth="2" NCoef="0" IVar="-1" Cut="0.0000000000000000e+00" cType="1" res="1.8544674385339022e-03" rms="4.5010158419609070e-01" purity="7.1532791852951050e-01" nType="-99"/>
          <Node pos="r" depth="2" NCoef="0" IVar="-1" Cut="0.0000000000000000e+00" cType="1" res="-7.5071048922836781e-04" rms="4.9281218647956848e-01" purity="4.2284956574440002e-01" nType="-99"/>
        </Node>
      </Node>
    </BinaryTree>
    <BinaryTree type="DecisionTree" boostWeight="1.0000000000000000e+00" itree="45">
      <Node pos="s" depth="0" NCoef="0" IVar="0" Cut="6.5775566101074219e+00" cType="1" res="1.4444992411881685e-03" rms="4.8621225357055664e-01" purity="4.9691703915596008e-01" nType="0">
        <Node pos="l" depth="1" NCoef="0" IVar="1" Cut="1.2590050697326660e+00" cType="1" res="-1.1785264313220978e-01" rms="4.6983483433723450e-01" purity="3.4798756241798401e-01" nType="0">
          <Node pos="l" depth="2" NCoef="0" IVar="-1" Cut="0.0000000000000000e+00" cType="1" res="-6.4946169732138515e-04" rms="4.9161678552627563e-01" purity="4.2104765772819519e-01" nType="-99"/>
          <Node pos="r" depth="2" NCoef="0" IVar="-1" Cut="0.0000000000000000e+00" cType="1" res="-4.7558071091771126e-03" rms="3.4015122056007385e-01" purity="1.3637582957744598e-01" nType="-99"/>
        </Node>
        <Node pos="r" depth="1" NCoef="0" IVar="1" Cut="1.4951314926147461e+00" cType="1" res="1.0601954907178879e-01" rms="4.7614729404449463e-01" purity="6.2746757268905640e-01" nType="0">
          <Node pos="l" depth="2" NCoef="0" IVar="-1" Cut="0.0000000000000000e+00" cType="1" res="1.4871997991576791e-03" rms="4.6825930476188660e-01" purity="6.6514700651168823e-01" nType="-99"/>
          <Node pos="r" depth="2" NCoef="0" IVar="-1" Cut="0.0000000000000000e+00" cType="1" res="-2.2081970237195492e-03" rms="4.6232312917709351e-01" purity="3.1267440319061279e-01" nType="-99"/>
        </Node>
      </Node>
    </BinaryTree>
    <BinaryTree type="DecisionTree" boostWeight="1.0000000000000000e+00" itree="46">
      <Node pos="s" depth="0" NCoef="0" IVar="0" Cut="7.0600094795227051e+00" cType="1" res="8.6809722706675529e-03" rms="4.8636654019355774e-01" purity="5.0415110588073730e-01" nType="0">
        <Node pos="l" depth="1" NCoef="0" IVar="0" Cut="4.8545536994934082e+00" cType="1" res="-8.3838000893592834e-02" rms="4.8122844099998474e-01" purity="3.8779684901237488e-01" nType="0">
          <Node pos="l" depth="2" NCoef="0" IVar="-1" Cut="0.0000000000000000e+00" cType="1" res="-5.5767288431525230e-03" rms="2.8759437799453735e-01" purity="9.1856867074966431e-02" nType="-99"/>
          <Node pos="r" depth="2" NCoef="0" IVar="-1" Cut="0.0000000000000000e+00" cType="1" res="-6.9753231946378946e-04" rms="4.8809629678726196e-01" purity="4.1700550913810730e-01" nType="-99"/>
        </Node>
        <Node pos="r" depth="1" NCoef="0" IVar="1" Cut="1.2289725542068481e+00" cType="1" res="1.5039120614528656e-01" rms="4.5931982994079590e-01" purity="6.8236953020095825e-01" nType="0">
          <Node pos="l" depth="2" NCoef="0" IVar="-1" Cut="0.0000000000000000e+00" cType="1" res="2.0206158515065908e-03" rms="4.3636459112167358e-01" purity="7.4337869882583618e-01" nType="-99"/>
          <Node pos="r" depth="2" NCoef="0" IVar="-1" Cut="0.0000000000000000e+00" cType="1" res="-5.6802376639097929e-04" rms="4.9393138289451599e-01" purity="4.4224306941032410e-01" nType="-99"/>
        </Node>
      </Node>
    </BinaryTree>
    <BinaryTree type="DecisionTree" boostWeight="1.0000000000000000e+00" itree="47">
      <Node pos="s" depth="0" NCoef="0" IVar="0" Cut="7.0543541908264160e+00" cType="1" res="6.2809484079480171e-03" rms="4.8426404595375061e-01" purity="5.0081175565719604e-01" nType="0">
        <Node pos="l" depth="1" NCoef="0" IVar="0" Cut="5.7955560684204102e+00" cType="1" res="-9.1510608792304993e-02" rms="4.7730898857116699e-01" purity="3.7776681780815125e-01" nType="0">
          <Node pos="l" depth="2" NCoef="0" IVar="-1" Cut="0.0000000000000000e+00" cType="1" res="-2.6341406628489494e-03" rms="4.3446555733680725e-01" purity="2.6247778534889221e-01" nType="-99"/>
          <Node pos="r" depth="2" NCoef="0" IVar="-1" Cut="0.0000000000000000e+00" cType="1" res="-1.1353675654390827e-04" rms="4.9415764212608337e-01" purity="4.7044694423675537e-01" nType="-99"/>
        </Node>
        <Node pos="r" depth="1" NCoef="0" IVar="1" Cut="1.2564986944198608e+00" cType="1" res="1.5555264055728912e-01" rms="4.5589527487754822e-01" purity="6.8863087892532349e-01" nType="0">
          <Node pos="l" depth="2" NCoef="0" IVar="-1" Cut="0.0000000000000000e+00" cType="1" res="2.1136021241545677e-03" rms="4.3080738186836243e-01" purity="7.5249356031417847e-01" nType="-99"/>
          <Node pos="r" depth="2" NCoef="0" IVar="-1" Cut="0.0000000000000000e+00" cType="1" res="-9.1679894831031561e-04" rms="4.9047803878784180e-01" purity="4.1560262441635132e-01" nType="-99"/>
        </Node>
      </Node>
    </BinaryTree>
    <BinaryTree type="DecisionTree" boostWeight="1.0000000000000000e+00" itree="48">
      <Node pos="s" depth="0" NCoef="0" IVar="0" Cut="6.3101048469543457e+00" cType="1" res="7.5452198507264256e-04" rms="4.8630467057228088e-01" purity="4.9484011530876160e-01" nType="0">
        <Node pos="l" depth="1" NCoef="0" IVar="6" Cut="4.9169219970703125e+02" cType="1" res="-1.2494825571775436e-01" rms="4.6767941117286682e-01" purity="3.3662861585617065e-01" nType="0">
          <Node pos="l" depth="2" NCoef="0" IVar="-1" Cut="0.0000000000000000e+00" cType="1" res="-2.4187762755900621e-03" rms="4.4115775823593140e-01" purity="2.7300587296485901e-01" nType="-99"/>
          <Node pos="r" depth="2" NCoef="0" IVar="-1" Cut="0.0000000000000000e+00" cType="1" res="-1.8878329137805849e-04" rms="4.9350360035896301e-01" purity="4.5094406604766846e-01" nType="-99"/>
        </Node>
        <Node pos="r" depth="1" NCoef="0" IVar="1" Cut="9.4350087642669678e-01" cType="1" res="9.2443913221359253e-02" rms="4.7908255457878113e-01" purity="6.1024177074432373e-01" nType="0">
          <Node pos="l" depth="2" NCoef="0" IVar="-1" Cut="0.0000000000000000e+00" cType="1" res="1.8417899264022708e-03" rms="4.5222440361976624e-01" purity="7.0871573686599731e-01" nType="-99"/>
          <Node pos="r" depth="2" NCoef="0" IVar="-1" Cut="0.0000000000000000e+00" cType="1" res="-1.0744483734015375e-04" rms="4.9178642034530640e-01" purity="4.8872187733650208e-01" nType="-99"/>
        </Node>
      </Node>
    </BinaryTree>
    <BinaryTree type="DecisionTree" boostWeight="1.0000000000000000e+00" itree="49">
      <Node pos="s" depth="0" NCoef="0" IVar="0" Cut="6.4855394363403320e+00" cType="1" res="-1.4155989512801170e-02" rms="4.8605167865753174e-01" purity="4.8006594181060791e-01" nType="0">
        <Node pos="l" depth="1" NCoef="0" IVar="1" Cut="1.4328293800354004e+00" cType="1" res="-1.2508653104305267e-01" rms="4.6841853857040405e-01" purity="3.3770716190338135e-01" nType="0">
          <Node pos="l" depth="2" NCoef="0" IVar="-1" Cut="0.0000000000000000e+00" cType="1" res="-1.2247317936271429e-03" rms="4.8076441884040833e-01" purity="3.7043777108192444e-01" nType="-99"/>
          <Node pos="r" depth="2" NCoef="0" IVar="-1" Cut="0.0000000000000000e+00" cType="1" res="-4.5083118602633476e-03" rms="3.5155090689659119e-01" purity="1.4653897285461426e-01" nType="-99"/>
        </Node>
        <Node pos="r" depth="1" NCoef="0" IVar="1" Cut="1.3869225978851318e+00" cType="1" res="8.2601986825466156e-02" rms="4.8044851422309875e-01" purity="6.0423690080642700e-01" nType="0">
          <Node pos="l" depth="2" NCoef="0" IVar="-1" Cut="0.0000000000000000e+00" cType="1" res="1.3339633587747812e-03" rms="4.7178438305854797e-01" purity="6.5517348051071167e-01" nType="-99"/>
          <Node pos="r" depth="2" NCoef="0" IVar="-1" Cut="0.0000000000000000e+00" cType="1" res="-2.0916524808853865e-03" rms="4.6517020463943481e-01" purity="3.2120105624198914e-01" nType="-99"/>
        </Node>
      </Node>
    </BinaryTree>
    <BinaryTree type="DecisionTree" boostWeight="1.0000000000000000e+00" itree="50">
      <Node pos="s" depth="0" NCoef="0" IVar="0" Cut="7.3412561416625977e+00" cType="1" res="5.2391374483704567e-03" rms="4.8567289113998413e-01" purity="4.9962320923805237e-01" nType="0">
        <Node pos="l" depth="1" NCoef="0" IVar="0" Cut="5.0085520744323730e+00" cType="1" res="-6.9814391434192657e-02" rms="4.8263689875602722e-01" purity="4.0433081984519958e-01" nType="0">
          <Node pos="l" depth="2" NCoef="0" IVar="-1" Cut="0.0000000000000000e+00" cType="1" res="-3.9241816848516464e-03" rms="3.7580212950706482e-01" purity="1.6964273154735565e-01" nType="-99"/>
          <Node pos="r" depth="2" NCoef="0" IVar="-1" Cut="0.0000000000000000e+00" cType="1" res="-4.5974386739544570e-04" rms="4.8959782719612122e-01" purity="4.4048407673835754e-01" nType="-99"/>
        </Node>
        <Node pos="r" depth="1" NCoef="0" IVar="1" Cut="1.2832957506179810e+00" cType="1" res="1.5832038223743439e-01" rms="4.5491874217987061e-01" purity="6.9398415088653564e-01" nType="0">
          <Node pos="l" depth="2" NCoef="0" IVar="-1" Cut="0.0000000000000000e+00" cType="1" res="2.0768400281667709e-03" rms="4.3584787845611572e-01" purity="7.4432265758514404e-01" nType="-99"/>
          <Node pos="r" depth="2" NCoef="0" IVar="-1" Cut="0.0000000000000000e+00" cType="1" res="-3.5412816214375198e-04" rms="4.9512371420860291e-01" purity="4.5677426457405090e-01" nType="-99"/>
        </Node>
      </Node>
    </BinaryTree>
    <BinaryTree type="DecisionTree" boostWeight="1.0000000000000000e+00" itree="51">
      <Node pos="s" depth="0" NCoef="0" IVar="0" Cut="7.1023764610290527e+00" cType="1" res="1.9199052825570107e-02" rms="4.8480224609375000e-01" purity="5.1519137620925903e-01" nType="0">
        <Node pos="l" depth="1" NCoef="0" IVar="0" Cut="5.0351042747497559e+00" cType="1" res="-7.2137400507926941e-02" rms="4.8193666338920593e-01" purity="3.9803567528724670e-01" nType="0">
          <Node pos="l" depth="2" NCoef="0" IVar="-1" Cut="0.0000000000000000e+00" cType="1" res="-4.6085105277597904e-03" rms="3.4405368566513062e-01" purity="1.3377721607685089e-01" nType="-99"/>
          <Node pos="r" depth="2" NCoef="0" IVar="-1" Cut="0.0000000000000000e+00" cType="1" res="-4.3477673898451030e-04" rms="4.8978742957115173e-01" purity="4.3834593892097473e-01" nType="-99"/>
        </Node>
        <Node pos="r" depth="1" NCoef="0" IVar="1" Cut="1.0528546571731567e+00" cType="1" res="1.5718121826648712e-01" rms="4.5560550689697266e-01" purity="6.9217878580093384e-01" nType="0">
          <Node pos="l" depth="2" NCoef="0" IVar="-1" Cut="0.0000000000000000e+00" cType="1" res="2.2187104914337397e-03" rms="4.2227333784103394e-01" purity="7.6768457889556885e-01" nType="-99"/>
          <Node pos="r" depth="2" NCoef="0" IVar="-1" Cut="0.0000000000000000e+00" cType="1" res="3.5431631840765476e-04" rms="4.9586418271064758e-01" purity="5.3111326694488525e-01" nType="-99"/>
        </Node>
      </Node>
    </BinaryTree>
    <BinaryTree type="DecisionTree" boostWeight="1.0000000000000000e+00" itree="52">
      <Node pos="s" depth="0" NCoef="0" IVar="0" Cut="7.2858877182006836e+00" cType="1" res="1.4046817086637020e-02" rms="4.8429235816001892e-01" purity="5.0823432207107544e-01" nType="0">
        <Node pos="l" depth="1" NCoef="0" IVar="1" Cut="1.2442482709884644e+00" cType="1" res="-6.0933157801628113e-02" rms="4.8283430933952332e-01" purity="4.1112893819808960e-01" nType="0">
          <Node pos="l" depth="2" NCoef="0" IVar="-1" Cut="0.0000000000000000e+00" cType="1" res="-3.9672817365499213e-05" rms="4.9421551823616028e-01" purity="4.8182442784309387e-01" nType="-99"/>
          <Node pos="r" depth="2" NCoef="0" IVar="-1" Cut="0.0000000000000000e+00" cType="1" res="-3.2156021334230900e-03" rms="4.1235873103141785e-01" purity="2.2010022401809692e-01" nType="-99"/>
        </Node>
        <Node pos="r" depth="1" NCoef="0" IVar="1" Cut="1.1555961370468140e+00" cType="1" res="1.6338385641574860e-01" rms="4.5149609446525574e-01" purity="7.0163846015930176e-01" nType="0">
          <Node pos="l" depth="2" NCoef="0" IVar="-1" Cut="0.0000000000000000e+00" cType="1" res="2.2062971256673336e-03" rms="4.2419102787971497e-01" purity="7.6427930593490601e-01" nType="-99"/>
          <Node pos="r" depth="2" NCoef="0" IVar="-1" Cut="0.0000000000000000e+00" cType="1" res="-2.6476304628886282e-04" rms="4.9847844243049622e-01" purity="4.7147896885871887e-01" nType="-99"/>
        </Node>
      </Node>
    </BinaryTree>
    <BinaryTree type="DecisionTree" boostWeight="1.0000000000000000e+00" itree="53">
      <Node pos="s" depth="0" NCoef="0" IVar="0" Cut="7.0419421195983887e+00" cType="1" res="-2.4233423173427582e-02" rms="4.8123651742935181e-01" purity="4.6993061900138855e-01" nType="0">
        <Node pos="l" depth="1" NCoef="0" IVar="1" Cut="1.1271396875381470e+00" cType="1" res="-1.2496083229780197e-01" rms="4.6555060148239136e-01" purity="3.4160423278808594e-01" nType="0">
          <Node pos="l" depth="2" NCoef="0" IVar="-1" Cut="0.0000000000000000e+00" cType="1" res="-7.2590442141517997e-04" rms="4.8919439315795898e-01" purity="4.2086750268936157e-01" nType="-99"/>
          <Node pos="r" depth="2" NCoef="0" IVar="-1" Cut="0.0000000000000000e+00" cType="1" res="-3.4853669349104166e-03" rms="3.9790633320808411e-01" purity="2.0391613245010376e-01" nType="-99"/>
        </Node>
        <Node pos="r" depth="1" NCoef="0" IVar="1" Cut="1.2564986944198608e+00" cType="1" res="1.3012304902076721e-01" rms="4.6365189552307129e-01" purity="6.6658020019531250e-01" nType="0">
          <Node pos="l" depth="2" NCoef="0" IVar="-1" Cut="0.0000000000000000e+00" cType="1" res="1.8902551382780075e-03" rms="4.4261935353279114e-01" purity="7.3152238130569458e-01" nType="-99"/>
          <Node pos="r" depth="2" NCoef="0" IVar="-1" Cut="0.0000000000000000e+00" cType="1" res="-1.2959332671016455e-03" rms="4.8391607403755188e-01" purity="3.8823440670967102e-01" nType="-99"/>
        </Node>
      </Node>
    </BinaryTree>
    <BinaryTree type="DecisionTree" boostWeight="1.0000000000000000e+00" itree="54">
      <Node pos="s" depth="0" NCoef="0" IVar="0" Cut="6.9911742210388184e+00" cType="1" res="-1.5961414901539683e-03" rms="4.8470059037208557e-01" purity="4.9150848388671875e-01" nType="0">
        <Node pos="l" depth="1" NCoef="0" IVar="0" Cut="5.3635563850402832e+00" cType="1" res="-8.1540837883949280e-02" rms="4.7924047708511353e-01" purity="3.8284277915954590e-01" nType="0">
          <Node pos="l" depth="2" NCoef="0" IVar="-1" Cut="0.0000000000000000e+00" cType="1" res="-3.1220666132867336e-03" rms="4.0924233198165894e-01" purity="2.1667978167533875e-01" nType="-99"/>
          <Node pos="r" depth="2" NCoef="0" IVar="-1" Cut="0.0000000000000000e+00" cType="1" res="-3.4111383138224483e-04" rms="4.9209120869636536e-01" purity="4.4399696588516235e-01" nType="-99"/>
        </Node>
        <Node pos="r" depth="1" NCoef="0" IVar="1" Cut="1.3176921606063843e+00" cType="1" res="1.2165935337543488e-01" rms="4.6690875291824341e-01" purity="6.5904486179351807e-01" nType="0">
          <Node pos="l" depth="2" NCoef="0" IVar="-1" Cut="0.0000000000000000e+00" cType="1" res="1.7115512164309621e-03" rms="4.5240598917007446e-01" purity="7.1119308471679688e-01" nType="-99"/>
          <Node pos="r" depth="2" NCoef="0" IVar="-1" Cut="0.0000000000000000e+00" cType="1" res="-1.8626907840371132e-03" rms="4.7426512837409973e-01" purity="3.4724542498588562e-01" nType="-99"/>
        </Node>
      </Node>
    </BinaryTree>
    <BinaryTree type="DecisionTree" boostWeight="1.0000000000000000e+00" itree="55">
      <Node pos="s" depth="0" NCoef="0" IVar="0" Cut="7.3472442626953125e+00" cType="1" res="2.3049633949995041e-02" rms="4.8343122005462646e-01" purity="5.1895552873611450e-01" nType="0">
        <Node pos="l" depth="1" NCoef="0" IVar="1" Cut="1.1176922321319580e+00" cType="1" res="-5.5469635874032974e-02" rms="4.8337653279304504e-01" purity="4.1724810004234314e-01" nType="0">
          <Node pos="l" depth="2" NCoef="0" IVar="-1" Cut="0.0000000000000000e+00" cType="1" res="1.0361238673795015e-04" rms="4.9463319778442383e-01" purity="4.9703693389892578e-01" nType="-99"/>
          <Node pos="r" depth="2" NCoef="0" IVar="-1" Cut="0.0000000000000000e+00" cType="1" res="-2.5045352522283792e-03" rms="4.3614140152931213e-01" purity="2.6665771007537842e-01" nType="-99"/>
        </Node>
        <Node pos="r" depth="1" NCoef="0" IVar="1" Cut="1.3312008380889893e+00" cType="1" res="1.7105582356452942e-01" rms="4.4752457737922668e-01" purity="7.1067070960998535e-01" nType="0">
          <Node pos="l" depth="2" NCoef="0" IVar="-1" Cut="0.0000000000000000e+00" cType="1" res="2.0613269880414009e-03" rms="4.3066802620887756e-01" purity="7.5296533107757568e-01" nType="-99"/>
          <Node pos="r" depth="2" NCoef="0" IVar="-1" Cut="0.0000000000000000e+00" cType="1" res="-2.0820717327296734e-04" rms="4.9721035361289978e-01" purity="4.6004766225814819e-01" nType="-99"/>
        </Node>
      </Node>
    </BinaryTree>
    <BinaryTree type="DecisionTree" boostWeight="1.0000000000000000e+00" itree="56">
      <Node pos="s" depth="0" NCoef="0" IVar="0" Cut="6.5003590583801270e+00" cType="1" res="-1.2148314155638218e-02" rms="4.8147583007812500e-01" purity="4.8249387741088867e-01" nType="0">
        <Node pos="l" depth="1" NCoef="0" IVar="1" Cut="1.1590144634246826e+00" cType="1" res="-1.4895807206630707e-01" rms="4.5489737391471863e-01" purity="3.0749142169952393e-01" nType="0">
          <Node pos="l" depth="2" NCoef="0" IVar="-1" Cut="0.0000000000000000e+00" cType="1" res="-1.0427330853417516e-03" rms="4.8423987627029419e-01" purity="3.8421231508255005e-01" nType="-99"/>
          <Node pos="r" depth="2" NCoef="0" IVar="-1" Cut="0.0000000000000000e+00" cType="1" res="-4.3378323316574097e-03" rms="3.5008826851844788e-01" purity="1.4523433148860931e-01" nType="-99"/>
        </Node>
        <Node pos="r" depth="1" NCoef="0" IVar="1" Cut="1.5092051029205322e+00" cType="1" res="1.0269046574831009e-01" rms="4.7308620810508728e-01" purity="6.2939184904098511e-01" nType="0">
          <Node pos="l" depth="2" NCoef="0" IVar="-1" Cut="0.0000000000000000e+00" cType="1" res="1.4355361927300692e-03" rms="4.6536993980407715e-01" purity="6.6748678684234619e-01" nType="-99"/>
          <Node pos="r" depth="2" NCoef="0" IVar="-1" Cut="0.0000000000000000e+00" cType="1" res="-2.5675457436591387e-03" rms="4.5424959063529968e-01" purity="2.8797739744186401e-01" nType="-99"/>
        </Node>
      </Node>
    </BinaryTree>
    <BinaryTree type="DecisionTree" boostWeight="1.0000000000000000e+00" itree="57">
      <Node pos="s" depth="0" NCoef="0" IVar="0" Cut="7.3183703422546387e+00" cType="1" res="3.0669735278934240e-03" rms="4.8324701189994812e-01" purity="4.9733540415763855e-01" nType="0">
        <Node pos="l" depth="1" NCoef="0" IVar="1" Cut="1.1266090869903564e+00" cType="1" res="-7.3400273919105530e-02" rms="4.7969037294387817e-01" purity="3.9790439605712891e-01" nType="0">
          <Node pos="l" depth="2" NCoef="0" IVar="-1" Cut="0.0000000000000000e+00" cType="1" res="-9.0338493464514613e-05" rms="4.9514889717102051e-01" purity="4.7928112745285034e-01" nType="-99"/>
          <Node pos="r" depth="2" NCoef="0" IVar="-1" Cut="0.0000000000000000e+00" cType="1" res="-3.0041066929697990e-03" rms="4.1508752107620239e-01" purity="2.3089054226875305e-01" nType="-99"/>
        </Node>
        <Node pos="r" depth="1" NCoef="0" IVar="1" Cut="8.4177023172378540e-01" cType="1" res="1.5809746086597443e-01" rms="4.5230740308761597e-01" purity="6.9892287254333496e-01" nType="0">
          <Node pos="l" depth="2" NCoef="0" IVar="-1" Cut="0.0000000000000000e+00" cType="1" res="2.4988513905555010e-03" rms="3.9495074748992920e-01" purity="8.0661791563034058e-01" nType="-99"/>
          <Node pos="r" depth="2" NCoef="0" IVar="-1" Cut="0.0000000000000000e+00" cType="1" res="8.9907104847952724e-04" rms="4.8330140113830566e-01" purity="6.0424923896789551e-01" nType="-99"/>
        </Node>
      </Node>
    </BinaryTree>
    <BinaryTree type="DecisionTree" boostWeight="1.0000000000000000e+00" itree="58">
      <Node pos="s" depth="0" NCoef="0" IVar="0" Cut="5.7946062088012695e+00" cType="1" res="1.0588509961962700e-02" rms="4.8427221179008484e-01" purity="5.0317639112472534e-01" nType="0">
        <Node pos="l" depth="1" NCoef="0" IVar="6" Cut="5.8832287597656250e+02" cType="1" res="-1.6373646259307861e-01" rms="4.4644075632095337e-01" purity="2.8261822462081909e-01" nType="0">
          <Node pos="l" depth="2" NCoef="0" IVar="-1" Cut="0.0000000000000000e+00" cType="1" res="-2.7309702709317207e-03" rms="4.2621505260467529e-01" purity="2.4373838305473328e-01" nType="-99"/>
          <Node pos="r" depth="2" NCoef="0" IVar="-1" Cut="0.0000000000000000e+00" cType="1" res="2.0161962765996577e-06" rms="4.9282744526863098e-01" purity="4.5140048861503601e-01" nType="-99"/>
        </Node>
        <Node pos="r" depth="1" NCoef="0" IVar="1" Cut="1.2289725542068481e+00" cType="1" res="7.7265642583370209e-02" rms="4.8157835006713867e-01" purity="5.8753716945648193e-01" nType="0">
          <Node pos="l" depth="2" NCoef="0" IVar="-1" Cut="0.0000000000000000e+00" cType="1" res="1.3654227368533611e-03" rms="4.7133105993270874e-01" purity="6.5230590105056763e-01" nType="-99"/>
          <Node pos="r" depth="2" NCoef="0" IVar="-1" Cut="0.0000000000000000e+00" cType="1" res="-1.4980331761762500e-03" rms="4.7289332747459412e-01" purity="3.5161781311035156e-01" nType="-99"/>
        </Node>
      </Node>
    </BinaryTree>
    <BinaryTree type="DecisionTree" boostWeight="1.0000000000000000e+00" itree="59">
      <Node pos="s" depth="0" NCoef="0" IVar="0" Cut="6.5376625061035156e+00" cType="1" res="-1.6996046528220177e-02" rms="4.8315516114234924e-01" purity="4.7545102238655090e-01" nType="0">
        <Node pos="l" depth="1" NCoef="0" IVar="1" Cut="1.5518633127212524e+00" cType="1" res="-1.1662938445806503e-01" rms="4.6710240840911865e-01" purity="3.3803853392601013e-01" nType="0">
          <Node pos="l" depth="2" NCoef="0" IVar="-1" Cut="0.0000000000000000e+00" cType="1" res="-1.1072014458477497e-03" rms="4.7993028163909912e-01" purity="3.7083578109741211e-01" nType="-99"/>
          <Node pos="r" depth="2" NCoef="0" IVar="-1" Cut="0.0000000000000000e+00" cType="1" res="-6.0189077630639076e-03" rms="2.5434169173240662e-01" purity="7.0565998554229736e-02" nType="-99"/>
        </Node>
        <Node pos="r" depth="1" NCoef="0" IVar="1" Cut="1.3286039829254150e+00" cType="1" res="7.7182270586490631e-02" rms="4.7917130589485168e-01" purity="6.0534006357192993e-01" nType="0">
          <Node pos="l" depth="2" NCoef="0" IVar="-1" Cut="0.0000000000000000e+00" cType="1" res="1.3120777439326048e-03" rms="4.6958073973655701e-01" purity="6.6318488121032715e-01" nType="-99"/>
          <Node pos="r" depth="2" NCoef="0" IVar="-1" Cut="0.0000000000000000e+00" cType="1" res="-2.1061082370579243e-03" rms="4.6431636810302734e-01" purity="3.1914117932319641e-01" nType="-99"/>
        </Node>
      </Node>
    </BinaryTree>
    <BinaryTree type="DecisionTree" boostWeight="1.0000000000000000e+00" itree="60">
      <Node pos="s" depth="0" NCoef="0" IVar="0" Cut="7.0281844139099121e+00" cType="1" res="1.2761755846440792e-02" rms="4.8257762193679810e-01" purity="5.0634473562240601e-01" nType="0">
        <Node pos="l" depth="1" NCoef="0" IVar="1" Cut="1.2502861022949219e+00" cType="1" res="-7.4376508593559265e-02" rms="4.7858202457427979e-01" purity="3.8782167434692383e-01" nType="0">
          <Node pos="l" depth="2" NCoef="0" IVar="-1" Cut="0.0000000000000000e+00" cType="1" res="-2.4119688896462321e-04" rms="4.9448135495185852e-01" purity="4.5604202151298523e-01" nType="-99"/>
          <Node pos="r" depth="2" NCoef="0" IVar="-1" Cut="0.0000000000000000e+00" cType="1" res="-3.4369151107966900e-03" rms="3.9703577756881714e-01" purity="2.0176520943641663e-01" nType="-99"/>
        </Node>
        <Node pos="r" depth="1" NCoef="0" IVar="1" Cut="9.3801474571228027e-01" cType="1" res="1.4202219247817993e-01" rms="4.5891854166984558e-01" purity="6.8216127157211304e-01" nType="0">
          <Node pos="l" depth="2" NCoef="0" IVar="-1" Cut="0.0000000000000000e+00" cType="1" res="2.1931731607764959e-03" rms="4.1750571131706238e-01" purity="7.7489513158798218e-01" nType="-99"/>
          <Node pos="r" depth="2" NCoef="0" IVar="-1" Cut="0.0000000000000000e+00" cType="1" res="4.1091436287388206e-04" rms="4.9310231208801270e-01" purity="5.4869824647903442e-01" nType="-99"/>
        </Node>
      </Node>
    </BinaryTree>
    <BinaryTree type="DecisionTree" boostWeight="1.0000000000000000e+00" itree="61">
      <Node pos="s" depth="0" NCoef="0" IVar="0" Cut="6.4805493354797363e+00" cType="1" res="1.6778964549303055e-02" rms="4.8311027884483337e-01" purity="5.0791621208190918e-01" nType="0">
        <Node pos="l" depth="1" NCoef="0" IVar="1" Cut="9.9674022197723389e-01" cType="1" res="-8.7802469730377197e-02" rms="4.7473645210266113e-01" purity="3.6517947912216187e-01" nType="0">
          <Node pos="l" depth="2" NCoef="0" IVar="-1" Cut="0.0000000000000000e+00" cType="1" res="-2.3761377087794244e-04" rms="4.9564450979232788e-01" purity="4.5111426711082458e-01" nType="-99"/>
          <Node pos="r" depth="2" NCoef="0" IVar="-1" Cut="0.0000000000000000e+00" cType="1" res="-2.3714550770819187e-03" rms="4.3487581610679626e-01" purity="2.6200029253959656e-01" nType="-99"/>
        </Node>
        <Node pos="r" depth="1" NCoef="0" IVar="1" Cut="1.4163345098495483e+00" cType="1" res="1.0944941639900208e-01" rms="4.7140580415725708e-01" purity="6.3439637422561646e-01" nType="0">
          <Node pos="l" depth="2" NCoef="0" IVar="-1" Cut="0.0000000000000000e+00" cType="1" res="1.6288425540551543e-03" rms="4.5938211679458618e-01" purity="6.8768805265426636e-01" nType="-99"/>
          <Node pos="r" depth="2" NCoef="0" IVar="-1" Cut="0.0000000000000000e+00" cType="1" res="-2.3340070620179176e-03" rms="4.5945233106613159e-01" purity="3.0183783173561096e-01" nType="-99"/>
        </Node>
      </Node>
    </BinaryTree>
    <BinaryTree type="DecisionTree" boostWeight="1.0000000000000000e+00" itree="62">
      <Node pos="s" depth="0" NCoef="0" IVar="0" Cut="6.8126492500305176e+00" cType="1" res="8.0632343888282776e-03" rms="4.8273658752441406e-01" purity="5.0139528512954712e-01" nType="0">
        <Node pos="l" depth="1" NCoef="0" IVar="1" Cut="1.3714247941970825e+00" cType="1" res="-8.2180708646774292e-02" rms="4.7724905610084534e-01" purity="3.7566080689430237e-01" nType="0">
          <Node pos="l" depth="2" NCoef="0" IVar="-1" Cut="0.0000000000000000e+00" cType="1" res="-5.9327331837266684e-04" rms="4.8929610848426819e-01" purity="4.1837003827095032e-01" nType="-99"/>
          <Node pos="r" depth="2" NCoef="0" IVar="-1" Cut="0.0000000000000000e+00" cType="1" res="-3.6391338799148798e-03" rms="3.8217195868492126e-01" purity="1.7854748666286469e-01" nType="-99"/>
        </Node>
        <Node pos="r" depth="1" NCoef="0" IVar="1" Cut="1.2194458246231079e+00" cType="1" res="1.1685472726821899e-01" rms="4.6661749482154846e-01" purity="6.5297156572341919e-01" nType="0">
          <Node pos="l" depth="2" NCoef="0" IVar="-1" Cut="0.0000000000000000e+00" cType="1" res="1.7097231466323137e-03" rms="4.4880792498588562e-01" purity="7.1722972393035889e-01" nType="-99"/>
          <Node pos="r" depth="2" NCoef="0" IVar="-1" Cut="0.0000000000000000e+00" cType="1" res="-9.3349162489175797e-04" rms="4.8618203401565552e-01" purity="4.0527606010437012e-01" nType="-99"/>
        </Node>
      </Node>
    </BinaryTree>
    <BinaryTree type="DecisionTree" boostWeight="1.0000000000000000e+00" itree="63">
      <Node pos="s" depth="0" NCoef="0" IVar="0" Cut="6.8283720016479492e+00" cType="1" res="1.2780713848769665e-02" rms="4.8222494125366211e-01" purity="5.0751823186874390e-01" nType="0">
        <Node pos="l" depth="1" NCoef="0" IVar="6" Cut="4.0290216064453125e+02" cType="1" res="-8.6036734282970428e-02" rms="4.7657999396324158e-01" purity="3.7269267439842224e-01" nType="0">
          <Node pos="l" depth="2" NCoef="0" IVar="-1" Cut="0.0000000000000000e+00" cType="1" res="-2.1929547656327486e-03" rms="4.4647803902626038e-01" purity="2.8453436493873596e-01" nType="-99"/>
          <Node pos="r" depth="2" NCoef="0" IVar="-1" Cut="0.0000000000000000e+00" cType="1" res="-4.0530963451601565e-04" rms="4.8791089653968811e-01" purity="4.2999705672264099e-01" nType="-99"/>
        </Node>
        <Node pos="r" depth="1" NCoef="0" IVar="1" Cut="1.2124187946319580e+00" cType="1" res="1.3524502515792847e-01" rms="4.6059677004814148e-01" purity="6.7460727691650391e-01" nType="0">
          <Node pos="l" depth="2" NCoef="0" IVar="-1" Cut="0.0000000000000000e+00" cType="1" res="1.8209555419161916e-03" rms="4.4320935010910034e-01" purity="7.2892767190933228e-01" nType="-99"/>
          <Node pos="r" depth="2" NCoef="0" IVar="-1" Cut="0.0000000000000000e+00" cType="1" res="-8.3733932115137577e-04" rms="4.9125722050666809e-01" purity="4.1105344891548157e-01" nType="-99"/>
        </Node>
      </Node>
    </BinaryTree>
    <BinaryTree type="DecisionTree" boostWeight="1.0000000000000000e+00" itree="64">
      <Node pos="s" depth="0" NCoef="0" IVar="0" Cut="6.8283720016479492e+00" cType="1" res="1.6754932701587677e-02" rms="4.7994187474250793e-01" purity="5.0903081893920898e-01" nType="0">
        <Node pos="l" depth="1" NCoef="0" IVar="0" Cut="5.0274462699890137e+00" cType="1" res="-8.7216258049011230e-02" rms="4.7513777017593384e-01" purity="3.6999818682670593e-01" nType="0">
          <Node pos="l" depth="2" NCoef="0" IVar="-1" Cut="0.0000000000000000e+00" cType="1" res="-3.6636821459978819e-03" rms="3.7634181976318359e-01" purity="1.7325799167156219e-01" nType="-99"/>
          <Node pos="r" depth="2" NCoef="0" IVar="-1" Cut="0.0000000000000000e+00" cType="1" res="-6.4434250816702843e-04" rms="4.8579558730125427e-01" purity="4.1055312752723694e-01" nType="-99"/>
        </Node>
        <Node pos="r" depth="1" NCoef="0" IVar="1" Cut="1.3766667842864990e+00" cType="1" res="1.4948649704456329e-01" rms="4.5253041386604309e-01" purity="6.8652254343032837e-01" nType="0">
          <Node pos="l" depth="2" NCoef="0" IVar="-1" Cut="0.0000000000000000e+00" cType="1" res="2.0939633250236511e-03" rms="4.3051344156265259e-01" purity="7.4989587068557739e-01" nType="-99"/>
          <Node pos="r" depth="2" NCoef="0" IVar="-1" Cut="0.0000000000000000e+00" cType="1" res="-2.0881623495370150e-03" rms="4.6511790156364441e-01" purity="3.1723728775978088e-01" nType="-99"/>
        </Node>
      </Node>
    </BinaryTree>
    <BinaryTree type="DecisionTree" boostWeight="1.0000000000000000e+00" itree="65">
      <Node pos="s" depth="0" NCoef="0" IVar="0" Cut="6.5000290870666504e+00" cType="1" res="-6.7485691979527473e-03" rms="4.7972759604454041e-01" purity="4.8851341009140015e-01" nType="0">
        <Node pos="l" depth="1" NCoef="0" IVar="0" Cut="4.9267711639404297e+00" cType="1" res="-1.3538764417171478e-01" rms="4.5818564295768738e-01" purity="3.1606385111808777e-01" nType="0">
          <Node pos="l" depth="2" NCoef="0" IVar="-1" Cut="0.0000000000000000e+00" cType="1" res="-4.2497259564697742e-03" rms="3.5112687945365906e-01" purity="1.4442679286003113e-01" nType="-99"/>
          <Node pos="r" depth="2" NCoef="0" IVar="-1" Cut="0.0000000000000000e+00" cType="1" res="-1.3474358711391687e-03" rms="4.7141385078430176e-01" purity="3.5095512866973877e-01" nType="-99"/>
        </Node>
        <Node pos="r" depth="1" NCoef="0" IVar="1" Cut="1.4471384286880493e+00" cType="1" res="9.8273299634456635e-02" rms="4.7126865386962891e-01" purity="6.2930244207382202e-01" nType="0">
          <Node pos="l" depth="2" NCoef="0" IVar="-1" Cut="0.0000000000000000e+00" cType="1" res="1.5068253269419074e-03" rms="4.6118223667144775e-01" purity="6.8355935811996460e-01" nType="-99"/>
          <Node pos="r" depth="2" NCoef="0" IVar="-1" Cut="0.0000000000000000e+00" cType="1" res="-3.8458344060927629e-03" rms="4.0747666358947754e-01" purity="2.1179369091987610e-01" nType="-99"/>
        </Node>
      </Node>
    </BinaryTree>
    <BinaryTree type="DecisionTree" boostWeight="1.0000000000000000e+00" itree="66">
      <Node pos="s" depth="0" NCoef="0" IVar="0" Cut="6.4855394363403320e+00" cType="1" res="-1.0738552082329988e-03" rms="4.8085385560989380e-01" purity="4.9111226201057434e-01" nType="0">
        <Node pos="l" depth="1" NCoef="0" IVar="0" Cut="4.8168678283691406e+00" cType="1" res="-1.1620087921619415e-01" rms="4.6428316831588745e-01" purity="3.3368518948554993e-01" nType="0">
          <Node pos="l" depth="2" NCoef="0" IVar="-1" Cut="0.0000000000000000e+00" cType="1" res="-5.2172685973346233e-03" rms="2.8490433096885681e-01" purity="9.2665471136569977e-02" nType="-99"/>
          <Node pos="r" depth="2" NCoef="0" IVar="-1" Cut="0.0000000000000000e+00" cType="1" res="-1.0240352712571621e-03" rms="4.7782275080680847e-01" purity="3.7191486358642578e-01" nType="-99"/>
        </Node>
        <Node pos="r" depth="1" NCoef="0" IVar="1" Cut="1.2678833007812500e+00" cType="1" res="9.8040372133255005e-02" rms="4.7272542119026184e-01" purity="6.2664312124252319e-01" nType="0">
          <Node pos="l" depth="2" NCoef="0" IVar="-1" Cut="0.0000000000000000e+00" cType="1" res="1.5733633190393448e-03" rms="4.5845425128936768e-01" purity="6.9467449188232422e-01" nType="-99"/>
          <Node pos="r" depth="2" NCoef="0" IVar="-1" Cut="0.0000000000000000e+00" cType="1" res="-1.6289609484374523e-03" rms="4.7114163637161255e-01" purity="3.4528225660324097e-01" nType="-99"/>
        </Node>
      </Node>
    </BinaryTree>
    <BinaryTree type="DecisionTree" boostWeight="1.0000000000000000e+00" itree="67">
      <Node pos="s" depth="0" NCoef="0" IVar="0" Cut="6.5151886940002441e+00" cType="1" res="5.0501120276749134e-03" rms="4.8111593723297119e-01" purity="4.9930825829505920e-01" nType="0">
        <Node pos="l" depth="1" NCoef="0" IVar="0" Cut="4.8400564193725586e+00" cType="1" res="-1.1433049291372299e-01" rms="4.6675294637680054e-01" purity="3.3579766750335693e-01" nType="0">
          <Node pos="l" depth="2" NCoef="0" IVar="-1" Cut="0.0000000000000000e+00" cType="1" res="-3.9671757258474827e-03" rms="3.5540220141410828e-01" purity="1.5336149930953979e-01" nType="-99"/>
          <Node pos="r" depth="2" NCoef="0" IVar="-1" Cut="0.0000000000000000e+00" cType="1" res="-1.1314130388200283e-03" rms="4.7699159383773804e-01" purity="3.6329209804534912e-01" nType="-99"/>
        </Node>
        <Node pos="r" depth="1" NCoef="0" IVar="1" Cut="1.3261328935623169e+00" cType="1" res="1.1089842021465302e-01" rms="4.6872535347938538e-01" purity="6.4428424835205078e-01" nType="0">
          <Node pos="l" depth="2" NCoef="0" IVar="-1" Cut="0.0000000000000000e+00" cType="1" res="1.5679141506552696e-03" rms="4.5828717947006226e-01" purity="6.9320327043533325e-01" nType="-99"/>
          <Node pos="r" depth="2" NCoef="0" IVar="-1" Cut="0.0000000000000000e+00" cType="1" res="-1.3701104326173663e-03" rms="4.7404128313064575e-01" purity="3.5956737399101257e-01" nType="-99"/>
        </Node>
      </Node>
    </BinaryTree>
    <BinaryTree type="DecisionTree" boostWeight="1.0000000000000000e+00" itree="68">
      <Node pos="s" depth="0" NCoef="0" IVar="0" Cut="6.6308646202087402e+00" cType="1" res="6.2623764388263226e-03" rms="4.8112085461616516e-01" purity="4.9854600429534912e-01" nType="0">
        <Node pos="l" depth="1" NCoef="0" IVar="0" Cut="4.8860235214233398e+00" cType="1" res="-1.0080554336309433e-01" rms="4.6977961063385010e-01" purity="3.5010087490081787e-01" nType="0">
          <Node pos="l" depth="2" NCoef="0" IVar="-1" Cut="0.0000000000000000e+00" cType="1" res="-4.0793954394757748e-03" rms="3.4618642926216125e-01" purity="1.4080987870693207e-01" nType="-99"/>
          <Node pos="r" depth="2" NCoef="0" IVar="-1" Cut="0.0000000000000000e+00" cType="1" res="-8.9868385111913085e-04" rms="4.8051950335502625e-01" purity="3.8354215025901794e-01" nType="-99"/>
        </Node>
        <Node pos="r" depth="1" NCoef="0" IVar="1" Cut="1.3031841516494751e+00" cType="1" res="1.1594872921705246e-01" rms="4.6770766377449036e-01" purity="6.5062153339385986e-01" nType="0">
          <Node pos="l" depth="2" NCoef="0" IVar="-1" Cut="0.0000000000000000e+00" cType="1" res="1.6107518458738923e-03" rms="4.5417109131813049e-01" purity="7.0326644182205200e-01" nType="-99"/>
          <Node pos="r" depth="2" NCoef="0" IVar="-1" Cut="0.0000000000000000e+00" cType="1" res="-7.1637058863416314e-04" rms="4.9110856652259827e-01" purity="4.0771874785423279e-01" nType="-99"/>
        </Node>
      </Node>
    </BinaryTree>
    <BinaryTree type="DecisionTree" boostWeight="1.0000000000000000e+00" itree="69">
      <Node pos="s" depth="0" NCoef="0" IVar="0" Cut="7.4717612266540527e+00" cType="1" res="7.5047230347990990e-03" rms="4.8202309012413025e-01" purity="5.0299042463302612e-01" nType="0">
        <Node pos="l" depth="1" NCoef="0" IVar="1" Cut="1.4398487806320190e+00" cType="1" res="-5.8047752827405930e-02" rms="4.8130929470062256e-01" purity="4.1452485322952271e-01" nType="0">
          <Node pos="l" depth="2" NCoef="0" IVar="-1" Cut="0.0000000000000000e+00" cType="1" res="-3.0625460203737020e-04" rms="4.9116915464401245e-01" purity="4.5654419064521790e-01" nType="-99"/>
          <Node pos="r" depth="2" NCoef="0" IVar="-1" Cut="0.0000000000000000e+00" cType="1" res="-4.2421119287610054e-03" rms="3.5706102848052979e-01" purity="1.5618978440761566e-01" nType="-99"/>
        </Node>
        <Node pos="r" depth="1" NCoef="0" IVar="5" Cut="8.4680867195129395e-01" cType="1" res="1.5784524381160736e-01" rms="4.4884943962097168e-01" purity="7.0588070154190063e-01" nType="0">
          <Node pos="l" depth="2" NCoef="0" IVar="-1" Cut="0.0000000000000000e+00" cType="1" res="2.0833085291087627e-03" rms="4.2652347683906555e-01" purity="7.5690782070159912e-01" nType="-99"/>
          <Node pos="r" depth="2" NCoef="0" IVar="-1" Cut="0.0000000000000000e+00" cType="1" res="-2.3243666510097682e-04" rms="4.8974996805191040e-01" purity="5.0417852401733398e-01" nType="-99"/>
        </Node>
      </Node>
    </BinaryTree>
    <BinaryTree type="DecisionTree" boostWeight="1.0000000000000000e+00" itree="70">
      <Node pos="s" depth="0" NCoef="0" IVar="0" Cut="7.0735244750976562e+00" cType="1" res="3.1677822698839009e-04" rms="4.8013108968734741e-01" purity="4.9236020445823669e-01" nType="0">
        <Node pos="l" depth="1" NCoef="0" IVar="0" Cut="4.9953904151916504e+00" cType="1" res="-8.0405808985233307e-02" rms="4.7570779919624329e-01" purity="3.7703812122344971e-01" nType="0">
          <Node pos="l" depth="2" NCoef="0" IVar="-1" Cut="0.0000000000000000e+00" cType="1" res="-3.9891782216727734e-03" rms="3.6064037680625916e-01" purity="1.5658318996429443e-01" nType="-99"/>
          <Node pos="r" depth="2" NCoef="0" IVar="-1" Cut="0.0000000000000000e+00" cType="1" res="-5.8091635582968593e-04" rms="4.8641476035118103e-01" purity="4.1670814156532288e-01" nType="-99"/>
        </Node>
        <Node pos="r" depth="1" NCoef="0" IVar="1" Cut="1.3178987503051758e+00" cType="1" res="1.2892714142799377e-01" rms="4.5862790942192078e-01" purity="6.7609584331512451e-01" nType="0">
          <Node pos="l" depth="2" NCoef="0" IVar="-1" Cut="0.0000000000000000e+00" cType="1" res="1.7711472464725375e-03" rms="4.4309744238853455e-01" purity="7.2971415519714355e-01" nType="-99"/>
          <Node pos="r" depth="2" NCoef="0" IVar="-1" Cut="0.0000000000000000e+00" cType="1" res="-1.2722995597869158e-03" rms="4.8160991072654724e-01" purity="3.7925434112548828e-01" nType="-99"/>
        </Node>
      </Node>
    </BinaryTree>
    <BinaryTree type="DecisionTree" boostWeight="1.0000000000000000e+00" itree="71">
      <Node pos="s" depth="0" NCoef="0" IVar="0" Cut="6.7390871047973633e+00" cType="1" res="-8.2588251680135727e-03" rms="4.7995093464851379e-01" purity="4.8240959644317627e-01" nType="0">
        <Node pos="l" depth="1" NCoef="0" IVar="6" Cut="4.0606735229492188e+02" cType="1" res="-1.0369164496660233e-01" rms="4.6851989626884460e-01" purity="3.4684801101684570e-01" nType="0">
          <Node pos="l" depth="2" NCoef="0" IVar="-1" Cut="0.0000000000000000e+00" cType="1" res="-2.8168375138193369e-03" rms="4.2053407430648804e-01" purity="2.3611022531986237e-01" nType="-99"/>
          <Node pos="r" depth="2" NCoef="0" IVar="-1" Cut="0.0000000000000000e+00" cType="1" res="-4.6530779218301177e-04" rms="4.8549851775169373e-01" purity="4.1780894994735718e-01" nType="-99"/>
        </Node>
        <Node pos="r" depth="1" NCoef="0" IVar="1" Cut="1.0702981948852539e+00" cType="1" res="1.0823947191238403e-01" rms="4.6786591410636902e-01" purity="6.4789450168609619e-01" nType="0">
          <Node pos="l" depth="2" NCoef="0" IVar="-1" Cut="0.0000000000000000e+00" cType="1" res="1.7158534610643983e-03" rms="4.4447514414787292e-01" purity="7.2525203227996826e-01" nType="-99"/>
          <Node pos="r" depth="2" NCoef="0" IVar="-1" Cut="0.0000000000000000e+00" cType="1" res="-4.2614041012711823e-04" rms="4.9339234828948975e-01" purity="4.5669877529144287e-01" nType="-99"/>
        </Node>
      </Node>
    </BinaryTree>
    <BinaryTree type="DecisionTree" boostWeight="1.0000000000000000e+00" itree="72">
      <Node pos="s" depth="0" NCoef="0" IVar="0" Cut="5.5821008682250977e+00" cType="1" res="1.0521139018237591e-02" rms="4.8031619191169739e-01" purity="5.0267195701599121e-01" nType="0">
        <Node pos="l" depth="1" NCoef="0" IVar="0" Cut="4.9519762992858887e+00" cType="1" res="-1.8105207383632660e-01" rms="4.2571464180946350e-01" purity="2.5048589706420898e-01" nType="0">
          <Node pos="l" depth="2" NCoef="0" IVar="-1" Cut="0.0000000000000000e+00" cType="1" res="-4.6992166899144650e-03" rms="3.0969956517219543e-01" purity="1.1259894818067551e-01" nType="-99"/>
          <Node pos="r" depth="2" NCoef="0" IVar="-1" Cut="0.0000000000000000e+00" cType="1" res="-1.4652700629085302e-03" rms="4.6558007597923279e-01" purity="3.3033761382102966e-01" nType="-99"/>
        </Node>
        <Node pos="r" depth="1" NCoef="0" IVar="1" Cut="1.1532702445983887e+00" cType="1" res="6.3085459172725677e-02" rms="4.8108690977096558e-01" purity="5.7186740636825562e-01" nType="0">
          <Node pos="l" depth="2" NCoef="0" IVar="-1" Cut="0.0000000000000000e+00" cType="1" res="1.2107669608667493e-03" rms="4.7250956296920776e-01" purity="6.4139866828918457e-01" nType="-99"/>
          <Node pos="r" depth="2" NCoef="0" IVar="-1" Cut="0.0000000000000000e+00" cType="1" res="-1.0305169271305203e-03" rms="4.7691741585731506e-01" purity="3.7724962830543518e-01" nType="-99"/>
        </Node>
      </Node>
    </BinaryTree>
    <BinaryTree type="DecisionTree" boostWeight="1.0000000000000000e+00" itree="73">
      <Node pos="s" depth="0" NCoef="0" IVar="0" Cut="6.9889416694641113e+00" cType="1" res="1.6496028751134872e-02" rms="4.7810578346252441e-01" purity="5.1021468639373779e-01" nType="0">
        <Node pos="l" depth="1" NCoef="0" IVar="1" Cut="1.6106765270233154e+00" cType="1" res="-8.5252642631530762e-02" rms="4.7302857041358948e-01" purity="3.7030321359634399e-01" nType="0">
          <Node pos="l" depth="2" NCoef="0" IVar="-1" Cut="0.0000000000000000e+00" cType="1" res="-7.1166467387229204e-04" rms="4.8393484950065613e-01" purity="4.0320983529090881e-01" nType="-99"/>
          <Node pos="r" depth="2" NCoef="0" IVar="-1" Cut="0.0000000000000000e+00" cType="1" res="-6.2990058213472366e-03" rms="2.2420600056648254e-01" purity="5.4206021130084991e-02" nType="-99"/>
        </Node>
        <Node pos="r" depth="1" NCoef="0" IVar="1" Cut="1.1177372932434082e+00" cType="1" res="1.5456062555313110e-01" rms="4.4947534799575806e-01" purity="7.0006304979324341e-01" nType="0">
          <Node pos="l" depth="2" NCoef="0" IVar="-1" Cut="0.0000000000000000e+00" cType="1" res="2.0321211777627468e-03" rms="4.2338857054710388e-01" purity="7.6503890752792358e-01" nType="-99"/>
          <Node pos="r" depth="2" NCoef="0" IVar="-1" Cut="0.0000000000000000e+00" cType="1" res="4.3268353329040110e-04" rms="4.9312576651573181e-01" purity="5.2724671363830566e-01" nType="-99"/>
        </Node>
      </Node>
    </BinaryTree>
    <BinaryTree type="DecisionTree" boostWeight="1.0000000000000000e+00" itree="74">
      <Node pos="s" depth="0" NCoef="0" IVar="0" Cut="7.0543541908264160e+00" cType="1" res="7.9871844500303268e-03" rms="4.7816428542137146e-01" purity="5.0166302919387817e-01" nType="0">
        <Node pos="l" depth="1" NCoef="0" IVar="6" Cut="6.4578704833984375e+02" cType="1" res="-7.6528087258338928e-02" rms="4.7516801953315735e-01" purity="3.8061350584030151e-01" nType="0">
          <Node pos="l" depth="2" NCoef="0" IVar="-1" Cut="0.0000000000000000e+00" cType="1" res="-1.3953128363937140e-03" rms="4.6559172868728638e-01" purity="3.4696385264396667e-01" nType="-99"/>
          <Node pos="r" depth="2" NCoef="0" IVar="-1" Cut="0.0000000000000000e+00" cType="1" res="1.1296295560896397e-03" rms="4.8879829049110413e-01" purity="5.6600689888000488e-01" nType="-99"/>
        </Node>
        <Node pos="r" depth="1" NCoef="0" IVar="1" Cut="1.0878013372421265e+00" cType="1" res="1.3906253874301910e-01" rms="4.5256215333938599e-01" purity="6.8939960002899170e-01" nType="0">
          <Node pos="l" depth="2" NCoef="0" IVar="-1" Cut="0.0000000000000000e+00" cType="1" res="2.0149399060755968e-03" rms="4.2259970307350159e-01" purity="7.6646393537521362e-01" nType="-99"/>
          <Node pos="r" depth="2" NCoef="0" IVar="-1" Cut="0.0000000000000000e+00" cType="1" res="-3.5766218206845224e-04" rms="4.9181568622589111e-01" purity="4.6866154670715332e-01" nType="-99"/>
        </Node>
      </Node>
    </BinaryTree>
    <BinaryTree type="DecisionTree" boostWeight="1.0000000000000000e+00" itree="75">
      <Node pos="s" depth="0" NCoef="0" IVar="0" Cut="5.8254976272583008e+00" cType="1" res="2.4298723787069321e-02" rms="4.7945743799209595e-01" purity="5.1737731695175171e-01" nType="0">
        <Node pos="l" depth="1" NCoef="0" IVar="1" Cut="1.0610340833663940e+00" cType="1" res="-1.2726233899593353e-01" rms="4.5412507653236389e-01" purity="3.0866554379463196e-01" nType="0">
          <Node pos="l" depth="2" NCoef="0" IVar="-1" Cut="0.0000000000000000e+00" cType="1" res="-6.4915616530925035e-04" rms="4.8743346333503723e-01" purity="3.9997473359107971e-01" nType="-99"/>
          <Node pos="r" depth="2" NCoef="0" IVar="-1" Cut="0.0000000000000000e+00" cType="1" res="-3.5225450992584229e-03" rms="3.7755659222602844e-01" purity="1.7763954401016235e-01" nType="-99"/>
        </Node>
        <Node pos="r" depth="1" NCoef="0" IVar="1" Cut="1.5938934087753296e+00" cType="1" res="8.2742698490619659e-02" rms="4.7615712881088257e-01" purity="5.9785938262939453e-01" nType="0">
          <Node pos="l" depth="2" NCoef="0" IVar="-1" Cut="0.0000000000000000e+00" cType="1" res="1.1918820673599839e-03" rms="4.7291353344917297e-01" purity="6.3000285625457764e-01" nType="-99"/>
          <Node pos="r" depth="2" NCoef="0" IVar="-1" Cut="0.0000000000000000e+00" cType="1" res="-3.8819680921733379e-03" rms="3.9678204059600830e-01" purity="1.9619241356849670e-01" nType="-99"/>
        </Node>
      </Node>
    </BinaryTree>
    <BinaryTree type="DecisionTree" boostWeight="1.0000000000000000e+00" itree="76">
      <Node pos="s" depth="0" NCoef="0" IVar="0" Cut="6.5893487930297852e+00" cType="1" res="2.2847380489110947e-02" rms="4.8035037517547607e-01" purity="5.1624029874801636e-01" nType="0">
        <Node pos="l" depth="1" NCoef="0" IVar="1" Cut="1.4113606214523315e+00" cType="1" res="-7.2685822844505310e-02" rms="4.7535935044288635e-01" purity="3.7456032633781433e-01" nType="0">
          <Node pos="l" depth="2" NCoef="0" IVar="-1" Cut="0.0000000000000000e+00" cType="1" res="-4.5926301390863955e-04" rms="4.8888421058654785e-01" purity="4.1833764314651489e-01" nType="-99"/>
          <Node pos="r" depth="2" NCoef="0" IVar="-1" Cut="0.0000000000000000e+00" cType="1" res="-4.7750258818268776e-03" rms="3.1428563594818115e-01" purity="1.1341127753257751e-01" nType="-99"/>
        </Node>
        <Node pos="r" depth="1" NCoef="0" IVar="1" Cut="1.3020579814910889e+00" cType="1" res="1.0972716659307480e-01" rms="4.6821621060371399e-01" purity="6.4508682489395142e-01" nType="0">
          <Node pos="l" depth="2" NCoef="0" IVar="-1" Cut="0.0000000000000000e+00" cType="1" res="1.5705114929005504e-03" rms="4.5461267232894897e-01" purity="7.0196169614791870e-01" nType="-99"/>
          <Node pos="r" depth="2" NCoef="0" IVar="-1" Cut="0.0000000000000000e+00" cType="1" res="-8.0671173054724932e-04" rms="4.8876529932022095e-01" purity="3.9746764302253723e-01" nType="-99"/>
        </Node>
      </Node>
    </BinaryTree>
    <BinaryTree type="DecisionTree" boostWeight="1.0000000000000000e+00" itree="77">
      <Node pos="s" depth="0" NCoef="0" IVar="0" Cut="6.7674517631530762e+00" cType="1" res="3.2037545461207628e-03" rms="4.7830384969711304e-01" purity="4.9545493721961975e-01" nType="0">
        <Node pos="l" depth="1" NCoef="0" IVar="0" Cut="4.9897680282592773e+00" cType="1" res="-8.8392011821269989e-02" rms="4.7205528616905212e-01" purity="3.6126235127449036e-01" nType="0">
          <Node pos="l" depth="2" NCoef="0" IVar="-1" Cut="0.0000000000000000e+00" cType="1" res="-3.6198729649186134e-03" rms="3.7040302157402039e-01" purity="1.6782227158546448e-01" nType="-99"/>
          <Node pos="r" depth="2" NCoef="0" IVar="-1" Cut="0.0000000000000000e+00" cType="1" res="-7.2926917346194386e-04" rms="4.8329821228981018e-01" purity="3.9727017283439636e-01" nType="-99"/>
        </Node>
        <Node pos="r" depth="1" NCoef="0" IVar="1" Cut="1.1731590032577515e+00" cType="1" res="1.1712592840194702e-01" rms="4.6124547719955444e-01" purity="6.6235691308975220e-01" nType="0">
          <Node pos="l" depth="2" NCoef="0" IVar="-1" Cut="0.0000000000000000e+00" cType="1" res="1.7835637554526329e-03" rms="4.3967285752296448e-01" purity="7.3430699110031128e-01" nType="-99"/>
          <Node pos="r" depth="2" NCoef="0" IVar="-1" Cut="0.0000000000000000e+00" cType="1" res="-7.8670197399333119e-04" rms="4.8700314760208130e-01" purity="4.2118877172470093e-01" nType="-99"/>
        </Node>
      </Node>
    </BinaryTree>
    <BinaryTree type="DecisionTree" boostWeight="1.0000000000000000e+00" itree="78">
      <Node pos="s" depth="0" NCoef="0" IVar="0" Cut="6.5983357429504395e+00" cType="1" res="-1.1970055056735873e-03" rms="4.7796934843063354e-01" purity="4.9085348844528198e-01" nType="0">
        <Node pos="l" depth="1" NCoef="0" IVar="6" Cut="3.4433197021484375e+02" cType="1" res="-1.0426443070173264e-01" rms="4.6589863300323486e-01" purity="3.4066143631935120e-01" nType="0">
          <Node pos="l" depth="2" NCoef="0" IVar="-1" Cut="0.0000000000000000e+00" cType="1" res="-3.9296685717999935e-03" rms="3.6812350153923035e-01" purity="1.6351145505905151e-01" nType="-99"/>
          <Node pos="r" depth="2" NCoef="0" IVar="-1" Cut="0.0000000000000000e+00" cType="1" res="-8.1994262291118503e-04" rms="4.7757217288017273e-01" purity="3.8197496533393860e-01" nType="-99"/>
        </Node>
        <Node pos="r" depth="1" NCoef="0" IVar="1" Cut="1.1485288143157959e+00" cType="1" res="9.7646243870258331e-02" rms="4.6842652559280396e-01" purity="6.3488996028900146e-01" nType="0">
          <Node pos="l" depth="2" NCoef="0" IVar="-1" Cut="0.0000000000000000e+00" cType="1" res="1.6464622458443046e-03" rms="4.4636651873588562e-01" purity="7.1930611133575439e-01" nType="-99"/>
          <Node pos="r" depth="2" NCoef="0" IVar="-1" Cut="0.0000000000000000e+00" cType="1" res="-7.6621922198683023e-04" rms="4.8719051480293274e-01" purity="4.1978791356086731e-01" nType="-99"/>
        </Node>
      </Node>
    </BinaryTree>
    <BinaryTree type="DecisionTree" boostWeight="1.0000000000000000e+00" itree="79">
      <Node pos="s" depth="0" NCoef="0" IVar="0" Cut="7.2882761955261230e+00" cType="1" res="1.3181149028241634e-02" rms="4.7809430956840515e-01" purity="5.0888067483901978e-01" nType="0">
        <Node pos="l" depth="1" NCoef="0" IVar="1" Cut="1.0968147516250610e+00" cType="1" res="-5.8770809322595596e-02" rms="4.7818341851234436e-01" purity="4.0395271778106689e-01" nType="0">
          <Node pos="l" depth="2" NCoef="0" IVar="-1" Cut="0.0000000000000000e+00" cType="1" res="9.4685790827497840e-05" rms="4.9324518442153931e-01" purity="4.9208813905715942e-01" nType="-99"/>
          <Node pos="r" depth="2" NCoef="0" IVar="-1" Cut="0.0000000000000000e+00" cType="1" res="-2.5904609356075525e-03" rms="4.2480528354644775e-01" purity="2.4721425771713257e-01" nType="-99"/>
        </Node>
        <Node pos="r" depth="1" NCoef="0" IVar="1" Cut="1.2783726453781128e+00" cType="1" res="1.4293318986892700e-01" rms="4.4972103834152222e-01" purity="6.9809889793395996e-01" nType="0">
          <Node pos="l" depth="2" NCoef="0" IVar="-1" Cut="0.0000000000000000e+00" cType="1" res="1.8309118459001184e-03" rms="4.3372273445129395e-01" purity="7.4706959724426270e-01" nType="-99"/>
          <Node pos="r" depth="2" NCoef="0" IVar="-1" Cut="0.0000000000000000e+00" cType="1" res="-7.2406226536259055e-04" rms="4.8651161789894104e-01" purity="4.2273932695388794e-01" nType="-99"/>
        </Node>
      </Node>
    </BinaryTree>
    <BinaryTree type="DecisionTree" boostWeight="1.0000000000000000e+00" itree="80">
      <Node pos="s" depth="0" NCoef="0" IVar="0" Cut="5.9109516143798828e+00" cType="1" res="1.5455660410225391e-02" rms="4.7727787494659424e-01" purity="5.0791496038436890e-01" nType="0">
        <Node pos="l" depth="1" NCoef="0" IVar="1" Cut="6.3120132684707642e-01" cType="1" res="-1.5416398644447327e-01" rms="4.4039919972419739e-01" purity="2.7691310644149780e-01" nType="0">
          <Node pos="l" depth="2" NCoef="0" IVar="-1" Cut="0.0000000000000000e+00" cType="1" res="1.2744107516482472e-04" rms="4.9423032999038696e-01" purity="4.6613195538520813e-01" nType="-99"/>
          <Node pos="r" depth="2" NCoef="0" IVar="-1" Cut="0.0000000000000000e+00" cType="1" res="-2.7110858354717493e-03" rms="4.1631391644477844e-01" purity="2.3055672645568848e-01" nType="-99"/>
        </Node>
        <Node pos="r" depth="1" NCoef="0" IVar="1" Cut="1.0331401824951172e+00" cType="1" res="8.7432198226451874e-02" rms="4.7409468889236450e-01" purity="6.0593849420547485e-01" nType="0">
          <Node pos="l" depth="2" NCoef="0" IVar="-1" Cut="0.0000000000000000e+00" cType="1" res="1.6002909978851676e-03" rms="4.5446577668190002e-01" purity="6.9610792398452759e-01" nType="-99"/>
          <Node pos="r" depth="2" NCoef="0" IVar="-1" Cut="0.0000000000000000e+00" cType="1" res="-3.0411005718633533e-04" rms="4.8610684275627136e-01" purity="4.5168137550354004e-01" nType="-99"/>
        </Node>
      </Node>
    </BinaryTree>
    <BinaryTree type="DecisionTree" boostWeight="1.0000000000000000e+00" itree="81">
      <Node pos="s" depth="0" NCoef="0" IVar="0" Cut="7.0600094795227051e+00" cType="1" res="1.2342923320829868e-02" rms="4.7916224598884583e-01" purity="5.0385582447052002e-01" nType="0">
        <Node pos="l" depth="1" NCoef="0" IVar="0" Cut="5.3271346092224121e+00" cType="1" res="-6.1575397849082947e-02" rms="4.7882926464080811e-01" purity="3.9248511195182800e-01" nType="0">
          <Node pos="l" depth="2" NCoef="0" IVar="-1" Cut="0.0000000000000000e+00" cType="1" res="-2.4700216017663479e-03" rms="4.2289447784423828e-01" purity="2.3883709311485291e-01" nType="-99"/>
          <Node pos="r" depth="2" NCoef="0" IVar="-1" Cut="0.0000000000000000e+00" cType="1" res="-3.2375345472246408e-04" rms="4.8885750770568848e-01" purity="4.3830633163452148e-01" nType="-99"/>
        </Node>
        <Node pos="r" depth="1" NCoef="0" IVar="1" Cut="1.3605040311813354e+00" cType="1" res="1.3282515108585358e-01" rms="4.5463678240776062e-01" purity="6.8538296222686768e-01" nType="0">
          <Node pos="l" depth="2" NCoef="0" IVar="-1" Cut="0.0000000000000000e+00" cType="1" res="1.7539608525112271e-03" rms="4.4065895676612854e-01" purity="7.3288667201995850e-01" nType="-99"/>
          <Node pos="r" depth="2" NCoef="0" IVar="-1" Cut="0.0000000000000000e+00" cType="1" res="-1.1535084340721369e-03" rms="4.8386108875274658e-01" purity="3.7823209166526794e-01" nType="-99"/>
        </Node>
      </Node>
    </BinaryTree>
    <BinaryTree type="DecisionTree" boostWeight="1.0000000000000000e+00" itree="82">
      <Node pos="s" depth="0" NCoef="0" IVar="0" Cut="6.8650612831115723e+00" cType="1" res="4.6113948337733746e-03" rms="4.8048403859138489e-01" purity="4.9505394697189331e-01" nType="0">
        <Node pos="l" depth="1" NCoef="0" IVar="1" Cut="1.3767917156219482e+00" cType="1" res="-7.7663071453571320e-02" rms="4.7332262992858887e-01" purity="3.7236884236335754e-01" nType="0">
          <Node pos="l" depth="2" NCoef="0" IVar="-1" Cut="0.0000000000000000e+00" cType="1" res="-4.3612704030238092e-04" rms="4.8927500844001770e-01" purity="4.2635601758956909e-01" nType="-99"/>
          <Node pos="r" depth="2" NCoef="0" IVar="-1" Cut="0.0000000000000000e+00" cType="1" res="-4.3342700228095055e-03" rms="3.3903744816780090e-01" purity="1.3252873718738556e-01" nType="-99"/>
        </Node>
        <Node pos="r" depth="1" NCoef="0" IVar="3" Cut="8.1387588500976562e+01" cType="1" res="1.1859931796789169e-01" rms="4.6685853600502014e-01" purity="6.6502916812896729e-01" nType="0">
          <Node pos="l" depth="2" NCoef="0" IVar="-1" Cut="0.0000000000000000e+00" cType="1" res="5.8276089839637280e-04" rms="4.8257777094841003e-01" purity="6.0330301523208618e-01" nType="-99"/>
          <Node pos="r" depth="2" NCoef="0" IVar="-1" Cut="0.0000000000000000e+00" cType="1" res="2.0616322290152311e-03" rms="4.3684160709381104e-01" purity="7.3342132568359375e-01" nType="-99"/>
        </Node>
      </Node>
    </BinaryTree>
    <BinaryTree type="DecisionTree" boostWeight="1.0000000000000000e+00" itree="83">
      <Node pos="s" depth="0" NCoef="0" IVar="0" Cut="5.8222131729125977e+00" cType="1" res="1.2820459669455886e-03" rms="4.7783666849136353e-01" purity="4.9355128407478333e-01" nType="0">
        <Node pos="l" depth="1" NCoef="0" IVar="0" Cut="4.9692234992980957e+00" cType="1" res="-1.5538308024406433e-01" rms="4.3759995698928833e-01" purity="2.7314954996109009e-01" nType="0">
          <Node pos="l" depth="2" NCoef="0" IVar="-1" Cut="0.0000000000000000e+00" cType="1" res="-4.4290157966315746e-03" rms="3.2882151007652283e-01" purity="1.2249641120433807e-01" nType="-99"/>
          <Node pos="r" depth="2" NCoef="0" IVar="-1" Cut="0.0000000000000000e+00" cType="1" res="-1.3044560328125954e-03" rms="4.6473354101181030e-01" purity="3.3418947458267212e-01" nType="-99"/>
        </Node>
        <Node pos="r" depth="1" NCoef="0" IVar="1" Cut="1.3443645238876343e+00" cType="1" res="6.2368273735046387e-02" rms="4.7894519567489624e-01" purity="5.7948940992355347e-01" nType="0">
          <Node pos="l" depth="2" NCoef="0" IVar="-1" Cut="0.0000000000000000e+00" cType="1" res="1.0642687557265162e-03" rms="4.7372335195541382e-01" purity="6.3229453563690186e-01" nType="-99"/>
          <Node pos="r" depth="2" NCoef="0" IVar="-1" Cut="0.0000000000000000e+00" cType="1" res="-1.5869601629674435e-03" rms="4.6516534686088562e-01" purity="3.2266813516616821e-01" nType="-99"/>
        </Node>
      </Node>
    </BinaryTree>
    <BinaryTree type="DecisionTree" boostWeight="1.0000000000000000e+00" itree="84">
      <Node pos="s" depth="0" NCoef="0" IVar="0" Cut="7.0385332107543945e+00" cType="1" res="-7.4763027951121330e-03" rms="4.7758379578590393e-01" purity="4.8506015539169312e-01" nType="0">
        <Node pos="l" depth="1" NCoef="0" IVar="0" Cut="5.3121643066406250e+00" cType="1" res="-9.0839199721813202e-02" rms="4.7008121013641357e-01" purity="3.5933119058609009e-01" nType="0">
          <Node pos="l" depth="2" NCoef="0" IVar="-1" Cut="0.0000000000000000e+00" cType="1" res="-3.0268831178545952e-03" rms="3.9717167615890503e-01" purity="1.9995397329330444e-01" nType="-99"/>
          <Node pos="r" depth="2" NCoef="0" IVar="-1" Cut="0.0000000000000000e+00" cType="1" res="-5.6193082127720118e-04" rms="4.8645564913749695e-01" purity="4.1798374056816101e-01" nType="-99"/>
        </Node>
        <Node pos="r" depth="1" NCoef="0" IVar="0" Cut="8.3319664001464844e+00" cType="1" res="1.1471984535455704e-01" rms="4.6194127202033997e-01" purity="6.6935789585113525e-01" nType="0">
          <Node pos="l" depth="2" NCoef="0" IVar="-1" Cut="0.0000000000000000e+00" cType="1" res="7.1479548932984471e-04" rms="4.7940769791603088e-01" purity="6.1574798822402954e-01" nType="-99"/>
          <Node pos="r" depth="2" NCoef="0" IVar="-1" Cut="0.0000000000000000e+00" cType="1" res="2.2231549955904484e-03" rms="4.1016951203346252e-01" purity="7.6982885599136353e-01" nType="-99"/>
        </Node>
      </Node>
    </BinaryTree>
    <BinaryTree type="DecisionTree" boostWeight="1.0000000000000000e+00" itree="85">
      <Node pos="s" depth="0" NCoef="0" IVar="0" Cut="6.5422582626342773e+00" cType="1" res="5.7545597665011883e-03" rms="4.7862532734870911e-01" purity="4.9726873636245728e-01" nType="0">
        <Node pos="l" depth="1" NCoef="0" IVar="6" Cut="4.2221286010742188e+02" cType="1" res="-9.6573024988174438e-02" rms="4.6708616614341736e-01" purity="3.4283882379531860e-01" nType="0">
          <Node pos="l" depth="2" NCoef="0" IVar="-1" Cut="0.0000000000000000e+00" cType="1" res="-2.2103057708591223e-03" rms="4.3672463297843933e-01" purity="2.6460003852844238e-01" nType="-99"/>
          <Node pos="r" depth="2" NCoef="0" IVar="-1" Cut="0.0000000000000000e+00" cType="1" res="-3.5711261443793774e-04" rms="4.8530679941177368e-01" purity="4.1905987262725830e-01" nType="-99"/>
        </Node>
        <Node pos="r" depth="1" NCoef="0" IVar="1" Cut="1.3916972875595093e+00" cType="1" res="1.0091795772314072e-01" rms="4.6950718760490417e-01" purity="6.4088672399520874e-01" nType="0">
          <Node pos="l" depth="2" NCoef="0" IVar="-1" Cut="0.0000000000000000e+00" cType="1" res="1.3878311729058623e-03" rms="4.6209061145782471e-01" purity="6.8217658996582031e-01" nType="-99"/>
          <Node pos="r" depth="2" NCoef="0" IVar="-1" Cut="0.0000000000000000e+00" cType="1" res="-1.5868899645283818e-03" rms="4.7086623311042786e-01" purity="3.4020793437957764e-01" nType="-99"/>
        </Node>
      </Node>
    </BinaryTree>
    <BinaryTree type="DecisionTree" boostWeight="1.0000000000000000e+00" itree="86">
      <Node pos="s" depth="0" NCoef="0" IVar="1" Cut="1.1078110933303833e+00" cType="1" res="2.3677898570895195e-02" rms="4.7605398297309875e-01" purity="5.1659262180328369e-01" nType="0">
        <Node pos="l" depth="1" NCoef="0" IVar="0" Cut="6.9961276054382324e+00" cType="1" res="9.0169712901115417e-02" rms="4.7178792953491211e-01" purity="6.0935753583908081e-01" nType="0">
          <Node pos="l" depth="2" NCoef="0" IVar="-1" Cut="0.0000000000000000e+00" cType="1" res="-7.3100864028674550e-06" rms="4.9474987387657166e-01" purity="4.7058823704719543e-01" nType="-99"/>
          <Node pos="r" depth="2" NCoef="0" IVar="-1" Cut="0.0000000000000000e+00" cType="1" res="2.0409526769071817e-03" rms="4.1850557923316956e-01" purity="7.7323013544082642e-01" nType="-99"/>
        </Node>
        <Node pos="r" depth="1" NCoef="0" IVar="0" Cut="5.8527092933654785e+00" cType="1" res="-1.1143726855516434e-01" rms="4.5563569664955139e-01" purity="3.2808890938758850e-01" nType="0">
          <Node pos="l" depth="2" NCoef="0" IVar="-1" Cut="0.0000000000000000e+00" cType="1" res="-4.5472849160432816e-03" rms="3.0831646919250488e-01" purity="1.0969700664281845e-01" nType="-99"/>
          <Node pos="r" depth="2" NCoef="0" IVar="-1" Cut="0.0000000000000000e+00" cType="1" res="-4.5573763782158494e-04" rms="4.8923677206039429e-01" purity="4.2589962482452393e-01" nType="-99"/>
        </Node>
      </Node>
    </BinaryTree>
    <BinaryTree type="DecisionTree" boostWeight="1.0000000000000000e+00" itree="87">
      <Node pos="s" depth="0" NCoef="0" IVar="0" Cut="7.2738142013549805e+00" cType="1" res="1.7075039446353912e-02" rms="4.7841417789459229e-01" purity="5.0874501466751099e-01" nType="0">
        <Node pos="l" depth="1" NCoef="0" IVar="0" Cut="5.8639969825744629e+00" cType="1" res="-4.7151241451501846e-02" rms="4.8064947128295898e-01" purity="4.1049662232398987e-01" nType="0">
          <Node pos="l" depth="2" NCoef="0" IVar="-1" Cut="0.0000000000000000e+00" cType="1" res="-1.6355679836124182e-03" rms="4.5194175839424133e-01" purity="3.0240711569786072e-01" nType="-99"/>
          <Node pos="r" depth="2" NCoef="0" IVar="-1" Cut="0.0000000000000000e+00" cType="1" res="1.4673093392048031e-04" rms="4.9373081326484680e-01" purity="4.9472674727439880e-01" nType="-99"/>
        </Node>
        <Node pos="r" depth="1" NCoef="0" IVar="1" Cut="1.0872690677642822e+00" cType="1" res="1.4344161748886108e-01" rms="4.4785892963409424e-01" purity="7.0205086469650269e-01" nType="0">
          <Node pos="l" depth="2" NCoef="0" IVar="-1" Cut="0.0000000000000000e+00" cType="1" res="1.9592547323554754e-03" rms="4.2041489481925964e-01" purity="7.7040141820907593e-01" nType="-99"/>
          <Node pos="r" depth="2" NCoef="0" IVar="-1" Cut="0.0000000000000000e+00" cType="1" res="2.1980631572660059e-04" rms="4.9244976043701172e-01" purity="5.1950722932815552e-01" nType="-99"/>
        </Node>
      </Node>
    </BinaryTree>
    <BinaryTree type="DecisionTree" boostWeight="1.0000000000000000e+00" itree="88">
      <Node pos="s" depth="0" NCoef="0" IVar="0" Cut="6.7979960441589355e+00" cType="1" res="-1.3222224079072475e-03" rms="4.7735252976417542e-01" purity="4.9027410149574280e-01" nType="0">
        <Node pos="l" depth="1" NCoef="0" IVar="2" Cut="2.0362554931640625e+02" cType="1" res="-9.4198852777481079e-02" rms="4.6930855512619019e-01" purity="3.5055023431777954e-01" nType="0">
          <Node pos="l" depth="2" NCoef="0" IVar="-1" Cut="0.0000000000000000e+00" cType="1" res="-2.0313891582190990e-03" rms="4.4915929436683655e-01" purity="2.9162746667861938e-01" nType="-99"/>
          <Node pos="r" depth="2" NCoef="0" IVar="-1" Cut="0.0000000000000000e+00" cType="1" res="-4.5247489470057189e-04" rms="4.7917762398719788e-01" purity="4.0355300903320312e-01" nType="-99"/>
        </Node>
        <Node pos="r" depth="1" NCoef="0" IVar="1" Cut="1.4114011526107788e+00" cType="1" res="1.0817956924438477e-01" rms="4.6333861351013184e-01" purity="6.5500897169113159e-01" nType="0">
          <Node pos="l" depth="2" NCoef="0" IVar="-1" Cut="0.0000000000000000e+00" cType="1" res="1.5131124528124928e-03" rms="4.5272278785705566e-01" purity="7.0329868793487549e-01" nType="-99"/>
          <Node pos="r" depth="2" NCoef="0" IVar="-1" Cut="0.0000000000000000e+00" cType="1" res="-1.5030627837404609e-03" rms="4.7383576631546021e-01" purity="3.4644582867622375e-01" nType="-99"/>
        </Node>
      </Node>
    </BinaryTree>
    <BinaryTree type="DecisionTree" boostWeight="1.0000000000000000e+00" itree="89">
      <Node pos="s" depth="0" NCoef="0" IVar="0" Cut="7.0547242164611816e+00" cType="1" res="8.6494348943233490e-03" rms="4.7891268134117126e-01" purity="4.9960839748382568e-01" nType="0">
        <Node pos="l" depth="1" NCoef="0" IVar="3" Cut="3.9196342468261719e+01" cType="1" res="-6.1953373253345490e-02" rms="4.7783944010734558e-01" purity="3.8692939281463623e-01" nType="0">
          <Node pos="l" depth="2" NCoef="0" IVar="-1" Cut="0.0000000000000000e+00" cType="1" res="-4.2062220163643360e-03" rms="3.6514914035797119e-01" purity="1.7338253557682037e-01" nType="-99"/>
          <Node pos="r" depth="2" NCoef="0" IVar="-1" Cut="0.0000000000000000e+00" cType="1" res="-4.6879207366146147e-04" rms="4.8299926519393921e-01" purity="4.1072428226470947e-01" nType="-99"/>
        </Node>
        <Node pos="r" depth="1" NCoef="0" IVar="1" Cut="1.0515333414077759e+00" cType="1" res="1.2059667706489563e-01" rms="4.5885673165321350e-01" purity="6.7827135324478149e-01" nType="0">
          <Node pos="l" depth="2" NCoef="0" IVar="-1" Cut="0.0000000000000000e+00" cType="1" res="1.7214717809110880e-03" rms="4.3568113446235657e-01" purity="7.4487519264221191e-01" nType="-99"/>
          <Node pos="r" depth="2" NCoef="0" IVar="-1" Cut="0.0000000000000000e+00" cType="1" res="2.8929111431352794e-04" rms="4.9260890483856201e-01" purity="5.3105264902114868e-01" nType="-99"/>
        </Node>
      </Node>
    </BinaryTree>
    <BinaryTree type="DecisionTree" boostWeight="1.0000000000000000e+00" itree="90">
      <Node pos="s" depth="0" NCoef="0" IVar="0" Cut="5.7395710945129395e+00" cType="1" res="6.6326144151389599e-03" rms="4.7584879398345947e-01" purity="5.0076633691787720e-01" nType="0">
        <Node pos="l" depth="1" NCoef="0" IVar="1" Cut="1.1461092233657837e+00" cType="1" res="-1.7919167876243591e-01" rms="4.2208504676818848e-01" purity="2.4293048679828644e-01" nType="0">
          <Node pos="l" depth="2" NCoef="0" IVar="-1" Cut="0.0000000000000000e+00" cType="1" res="-1.8270588479936123e-03" rms="4.5762625336647034e-01" purity="3.0383333563804626e-01" nType="-99"/>
          <Node pos="r" depth="2" NCoef="0" IVar="-1" Cut="0.0000000000000000e+00" cType="1" res="-4.0515284053981304e-03" rms="3.3457857370376587e-01" purity="1.3078694045543671e-01" nType="-99"/>
        </Node>
        <Node pos="r" depth="1" NCoef="0" IVar="0" Cut="7.9002537727355957e+00" cType="1" res="6.3325144350528717e-02" rms="4.7687697410583496e-01" purity="5.7942867279052734e-01" nType="0">
          <Node pos="l" depth="2" NCoef="0" IVar="-1" Cut="0.0000000000000000e+00" cType="1" res="7.3036404501181096e-05" rms="4.8848769068717957e-01" purity="5.0213390588760376e-01" nType="-99"/>
          <Node pos="r" depth="2" NCoef="0" IVar="-1" Cut="0.0000000000000000e+00" cType="1" res="1.9994399044662714e-03" rms="4.2298907041549683e-01" purity="7.5167024135589600e-01" nType="-99"/>
        </Node>
      </Node>
    </BinaryTree>
    <BinaryTree type="DecisionTree" boostWeight="1.0000000000000000e+00" itree="91">
      <Node pos="s" depth="0" NCoef="0" IVar="0" Cut="5.9434676170349121e+00" cType="1" res="1.2259223731234670e-03" rms="4.7550475597381592e-01" purity="4.9320784211158752e-01" nType="0">
        <Node pos="l" depth="1" NCoef="0" IVar="6" Cut="4.9407327270507812e+02" cType="1" res="-1.3590531051158905e-01" rms="4.4461742043495178e-01" purity="2.8885662555694580e-01" nType="0">
          <Node pos="l" depth="2" NCoef="0" IVar="-1" Cut="0.0000000000000000e+00" cType="1" res="-2.5551693979650736e-03" rms="4.1813430190086365e-01" purity="2.3415817320346832e-01" nType="-99"/>
          <Node pos="r" depth="2" NCoef="0" IVar="-1" Cut="0.0000000000000000e+00" cType="1" res="-4.8654069541953504e-04" rms="4.7880482673645020e-01" purity="3.9849641919136047e-01" nType="-99"/>
        </Node>
        <Node pos="r" depth="1" NCoef="0" IVar="1" Cut="9.8505949974060059e-01" cType="1" res="6.5907098352909088e-02" rms="4.7587427496910095e-01" purity="5.8959490060806274e-01" nType="0">
          <Node pos="l" depth="2" NCoef="0" IVar="-1" Cut="0.0000000000000000e+00" cType="1" res="1.4637338463217020e-03" rms="4.5675286650657654e-01" purity="6.8857830762863159e-01" nType="-99"/>
          <Node pos="r" depth="2" NCoef="0" IVar="-1" Cut="0.0000000000000000e+00" cType="1" res="-5.3686078172177076e-04" rms="4.8278483748435974e-01" purity="4.4317254424095154e-01" nType="-99"/>
        </Node>
      </Node>
    </BinaryTree>
    <BinaryTree type="DecisionTree" boostWeight="1.0000000000000000e+00" itree="92">
      <Node pos="s" depth="0" NCoef="0" IVar="0" Cut="6.4808759689331055e+00" cType="1" res="1.8202079460024834e-02" rms="4.7800034284591675e-01" purity="5.1327186822891235e-01" nType="0">
        <Node pos="l" depth="1" NCoef="0" IVar="0" Cut="4.9522547721862793e+00" cType="1" res="-7.7372312545776367e-02" rms="4.7214016318321228e-01" purity="3.6046755313873291e-01" nType="0">
          <Node pos="l" depth="2" NCoef="0" IVar="-1" Cut="0.0000000000000000e+00" cType="1" res="-3.3271084539592266e-03" rms="3.7978193163871765e-01" purity="1.8048287928104401e-01" nType="-99"/>
          <Node pos="r" depth="2" NCoef="0" IVar="-1" Cut="0.0000000000000000e+00" cType="1" res="-6.0706533258780837e-04" rms="4.8399481177330017e-01" purity="3.9713406562805176e-01" nType="-99"/>
        </Node>
        <Node pos="r" depth="1" NCoef="0" IVar="1" Cut="9.8662364482879639e-01" cType="1" res="9.6653111279010773e-02" rms="4.6840393543243408e-01" purity="6.3869935274124146e-01" nType="0">
          <Node pos="l" depth="2" NCoef="0" IVar="-1" Cut="0.0000000000000000e+00" cType="1" res="1.6973423771560192e-03" rms="4.3946477770805359e-01" purity="7.3268955945968628e-01" nType="-99"/>
          <Node pos="r" depth="2" NCoef="0" IVar="-1" Cut="0.0000000000000000e+00" cType="1" res="-1.9458001770544797e-04" rms="4.9198579788208008e-01" purity="4.8498818278312683e-01" nType="-99"/>
        </Node>
      </Node>
    </BinaryTree>
    <BinaryTree type="DecisionTree" boostWeight="1.0000000000000000e+00" itree="93">
      <Node pos="s" depth="0" NCoef="0" IVar="0" Cut="5.0493650436401367e+00" cType="1" res="1.2893365696072578e-02" rms="4.7767743468284607e-01" purity="5.0775897502899170e-01" nType="0">
        <Node pos="l" depth="1" NCoef="0" IVar="-1" Cut="0.0000000000000000e+00" cType="1" res="-4.2421980760991573e-03" rms="3.2541364431381226e-01" purity="1.2299489974975586e-01" nType="-99"/>
        <Node pos="r" depth="1" NCoef="0" IVar="0" Cut="7.1906266212463379e+00" cType="1" res="4.1368123143911362e-02" rms="4.8100212216377258e-01" purity="5.4600518941879272e-01" nType="0">
          <Node pos="l" depth="2" NCoef="0" IVar="-1" Cut="0.0000000000000000e+00" cType="1" res="-1.6526029503438622e-04" rms="4.8803269863128662e-01" purity="4.5290672779083252e-01" nType="-99"/>
          <Node pos="r" depth="2" NCoef="0" IVar="-1" Cut="0.0000000000000000e+00" cType="1" res="1.3627408770844340e-03" rms="4.5748224854469299e-01" purity="6.8786245584487915e-01" nType="-99"/>
        </Node>
      </Node>
    </BinaryTree>
    <BinaryTree type="DecisionTree" boostWeight="1.0000000000000000e+00" itree="94">
      <Node pos="s" depth="0" NCoef="0" IVar="0" Cut="6.8283720016479492e+00" cType="1" res="9.3000764027237892e-03" rms="4.7632253170013428e-01" purity="5.0084918737411499e-01" nType="0">
        <Node pos="l" depth="1" NCoef="0" IVar="1" Cut="1.4145340919494629e+00" cType="1" res="-8.4735855460166931e-02" rms="4.7040992975234985e-01" purity="3.5930418968200684e-01" nType="0">
          <Node pos="l" depth="2" NCoef="0" IVar="-1" Cut="0.0000000000000000e+00" cType="1" res="-6.9427437847480178e-04" rms="4.8425790667533875e-01" purity="3.9836454391479492e-01" nType="-99"/>
          <Node pos="r" depth="2" NCoef="0" IVar="-1" Cut="0.0000000000000000e+00" cType="1" res="-4.2419699020683765e-03" rms="3.3113068342208862e-01" purity="1.2686216831207275e-01" nType="-99"/>
        </Node>
        <Node pos="r" depth="1" NCoef="0" IVar="1" Cut="1.0888663530349731e+00" cType="1" res="1.2846985459327698e-01" rms="4.5669382810592651e-01" purity="6.8022614717483521e-01" nType="0">
          <Node pos="l" depth="2" NCoef="0" IVar="-1" Cut="0.0000000000000000e+00" cType="1" res="1.7675729468464851e-03" rms="4.3536499142646790e-01" purity="7.4378091096878052e-01" nType="-99"/>
          <Node pos="r" depth="2" NCoef="0" IVar="-1" Cut="0.0000000000000000e+00" cType="1" res="4.2691209819167852e-04" rms="4.9231636524200439e-01" purity="5.2609169483184814e-01" nType="-99"/>
        </Node>
      </Node>
    </BinaryTree>
    <BinaryTree type="DecisionTree" boostWeight="1.0000000000000000e+00" itree="95">
      <Node pos="s" depth="0" NCoef="0" IVar="0" Cut="5.8133692741394043e+00" cType="1" res="-1.4348953031003475e-02" rms="4.7418585419654846e-01" purity="4.7688937187194824e-01" nType="0">
        <Node pos="l" depth="1" NCoef="0" IVar="6" Cut="4.3312921142578125e+02" cType="1" res="-1.9378948211669922e-01" rms="4.1137644648551941e-01" purity="2.2484585642814636e-01" nType="0">
          <Node pos="l" depth="2" NCoef="0" IVar="-1" Cut="0.0000000000000000e+00" cType="1" res="-3.5362849012017250e-03" rms="3.6712986230850220e-01" purity="1.6511921584606171e-01" nType="-99"/>
          <Node pos="r" depth="2" NCoef="0" IVar="-1" Cut="0.0000000000000000e+00" cType="1" res="-1.6736836405470967e-03" rms="4.5282387733459473e-01" purity="3.0264559388160706e-01" nType="-99"/>
        </Node>
        <Node pos="r" depth="1" NCoef="0" IVar="0" Cut="7.5381765365600586e+00" cType="1" res="5.4577331990003586e-02" rms="4.7864234447479248e-01" purity="5.7370376586914062e-01" nType="0">
          <Node pos="l" depth="2" NCoef="0" IVar="-1" Cut="0.0000000000000000e+00" cType="1" res="-3.7382687878562137e-05" rms="4.8907467722892761e-01" purity="4.8807772994041443e-01" nType="-99"/>
          <Node pos="r" depth="2" NCoef="0" IVar="-1" Cut="0.0000000000000000e+00" cType="1" res="1.5685019316151738e-03" rms="4.4684079289436340e-01" purity="7.0864909887313843e-01" nType="-99"/>
        </Node>
      </Node>
    </BinaryTree>
    <BinaryTree type="DecisionTree" boostWeight="1.0000000000000000e+00" itree="96">
      <Node pos="s" depth="0" NCoef="0" IVar="0" Cut="6.7555103302001953e+00" cType="1" res="4.8978044651448727e-04" rms="4.7478836774826050e-01" purity="4.9379178881645203e-01" nType="0">
        <Node pos="l" depth="1" NCoef="0" IVar="1" Cut="1.5516461133956909e+00" cType="1" res="-1.0068381577730179e-01" rms="4.6299275755882263e-01" purity="3.3903795480728149e-01" nType="0">
          <Node pos="l" depth="2" NCoef="0" IVar="-1" Cut="0.0000000000000000e+00" cType="1" res="-9.2281593242660165e-04" rms="4.7759371995925903e-01" purity="3.7460404634475708e-01" nType="-99"/>
          <Node pos="r" depth="2" NCoef="0" IVar="-1" Cut="0.0000000000000000e+00" cType="1" res="-5.3253020159900188e-03" rms="2.6078060269355774e-01" purity="7.4688091874122620e-02" nType="-99"/>
        </Node>
        <Node pos="r" depth="1" NCoef="0" IVar="4" Cut="-4.2748078703880310e-02" cType="1" res="1.0953244566917419e-01" rms="4.6305885910987854e-01" purity="6.6058206558227539e-01" nType="0">
          <Node pos="l" depth="2" NCoef="0" IVar="-1" Cut="0.0000000000000000e+00" cType="1" res="3.3269633422605693e-04" rms="4.8062825202941895e-01" purity="5.7233446836471558e-01" nType="-99"/>
          <Node pos="r" depth="2" NCoef="0" IVar="-1" Cut="0.0000000000000000e+00" cType="1" res="1.7456990899518132e-03" rms="4.4247236847877502e-01" purity="7.2031670808792114e-01" nType="-99"/>
        </Node>
      </Node>
    </BinaryTree>
    <BinaryTree type="DecisionTree" boostWeight="1.0000000000000000e+00" itree="97">
      <Node pos="s" depth="0" NCoef="0" IVar="0" Cut="7.3008723258972168e+00" cType="1" res="3.5430494695901871e-02" rms="4.7356781363487244e-01" purity="5.2816462516784668e-01" nType="0">
        <Node pos="l" depth="1" NCoef="0" IVar="1" Cut="1.5142183303833008e+00" cType="1" res="-3.2168511301279068e-02" rms="4.7830632328987122e-01" purity="4.2212107777595520e-01" nType="0">
          <Node pos="l" depth="2" NCoef="0" IVar="-1" Cut="0.0000000000000000e+00" cType="1" res="4.3255666241748258e-05" rms="4.8887714743614197e-01" purity="4.6937942504882812e-01" nType="-99"/>
          <Node pos="r" depth="2" NCoef="0" IVar="-1" Cut="0.0000000000000000e+00" cType="1" res="-4.6517504379153252e-03" rms="3.1106823682785034e-01" purity="1.0992270708084106e-01" nType="-99"/>
        </Node>
        <Node pos="r" depth="1" NCoef="0" IVar="7" Cut="-5.0410732626914978e-02" cType="1" res="1.5748730301856995e-01" rms="4.3928757309913635e-01" purity="7.1963691711425781e-01" nType="0">
          <Node pos="l" depth="2" NCoef="0" IVar="-1" Cut="0.0000000000000000e+00" cType="1" res="2.7797457296401262e-03" rms="3.4435683488845825e-01" purity="8.5479855537414551e-01" nType="-99"/>
          <Node pos="r" depth="2" NCoef="0" IVar="-1" Cut="0.0000000000000000e+00" cType="1" res="1.3266946189105511e-03" rms="4.5820522308349609e-01" purity="6.7801427841186523e-01" nType="-99"/>
        </Node>
      </Node>
    </BinaryTree>
    <BinaryTree type="DecisionTree" boostWeight="1.0000000000000000e+00" itree="98">
      <Node pos="s" depth="0" NCoef="0" IVar="1" Cut="1.3358553647994995e+00" cType="1" res="1.5484729781746864e-02" rms="4.7773668169975281e-01" purity="5.0857967138290405e-01" nType="0">
        <Node pos="l" depth="1" NCoef="0" IVar="0" Cut="6.5540504455566406e+00" cType="1" res="5.3651642054319382e-02" rms="4.8013630509376526e-01" purity="5.6582361459732056e-01" nType="0">
          <Node pos="l" depth="2" NCoef="0" IVar="-1" Cut="0.0000000000000000e+00" cType="1" res="-3.0226859962567687e-04" rms="4.8889103531837463e-01" purity="4.2373302578926086e-01" nType="-99"/>
          <Node pos="r" depth="2" NCoef="0" IVar="-1" Cut="0.0000000000000000e+00" cType="1" res="1.2724697589874268e-03" rms="4.6310386061668396e-01" purity="6.8145775794982910e-01" nType="-99"/>
        </Node>
        <Node pos="r" depth="1" NCoef="0" IVar="7" Cut="3.2582417130470276e-02" cType="1" res="-1.5055054426193237e-01" rms="4.2933478951454163e-01" purity="2.5955489277839661e-01" nType="0">
          <Node pos="l" depth="2" NCoef="0" IVar="-1" Cut="0.0000000000000000e+00" cType="1" res="-7.9492660006508231e-04" rms="4.7011783719062805e-01" purity="3.5864239931106567e-01" nType="-99"/>
          <Node pos="r" depth="2" NCoef="0" IVar="-1" Cut="0.0000000000000000e+00" cType="1" res="-3.3270430285483599e-03" rms="3.8926774263381958e-01" purity="1.9571059942245483e-01" nType="-99"/>
        </Node>
      </Node>
    </BinaryTree>
    <BinaryTree type="DecisionTree" boostWeight="1.0000000000000000e+00" itree="99">
      <Node pos="s" depth="0" NCoef="0" IVar="1" Cut="1.2160468101501465e+00" cType="1" res="1.3040044344961643e-02" rms="4.7495394945144653e-01" purity="5.0652116537094116e-01" nType="0">
        <Node pos="l" depth="1" NCoef="0" IVar="0" Cut="6.5476503372192383e+00" cType="1" res="6.4083784818649292e-02" rms="4.7656643390655518e-01" purity="5.8098834753036499e-01" nType="0">
          <Node pos="l" depth="2" NCoef="0" IVar="-1" Cut="0.0000000000000000e+00" cType="1" res="-3.0073165544308722e-04" rms="4.9030244350433350e-01" purity="4.2911228537559509e-01" nType="-99"/>
          <Node pos="r" depth="2" NCoef="0" IVar="-1" Cut="0.0000000000000000e+00" cType="1" res="1.4462161343544722e-03" rms="4.5129275321960449e-01" purity="7.0835965871810913e-01" nType="-99"/>
        </Node>
        <Node pos="r" depth="1" NCoef="0" IVar="2" Cut="3.6355734252929688e+02" cType="1" res="-1.4861477911472321e-01" rms="4.3166929483413696e-01" purity="2.7068462967872620e-01" nType="0">
          <Node pos="l" depth="2" NCoef="0" IVar="-1" Cut="0.0000000000000000e+00" cType="1" res="-1.2573057319968939e-03" rms="4.5848390460014343e-01" purity="3.3078849315643311e-01" nType="-99"/>
          <Node pos="r" depth="2" NCoef="0" IVar="-1" Cut="0.0000000000000000e+00" cType="1" res="-5.2874609827995300e-03" rms="3.0659207701683044e-01" purity="1.1403553932905197e-01" nType="-99"/>
        </Node>
      </Node>
    </BinaryTree>
    <BinaryTree type="DecisionTree" boostWeight="1.0000000000000000e+00" itree="100">
      <Node pos="s" depth="0" NCoef="0" IVar="0" Cut="7.4689130783081055e+00" cType="1" res="-4.5208991505205631e-03" rms="4.7437602281570435e-01" purity="4.8873463273048401e-01" nType="0">
        <Node pos="l" depth="1" NCoef="0" IVar="1" Cut="1.0610340833663940e+00" cType="1" res="-6.6087402403354645e-02" rms="4.7157144546508789e-01" purity="3.9597716927528381e-01" nType="0">
          <Node pos="l" depth="2" NCoef="0" IVar="-1" Cut="0.0000000000000000e+00" cType="1" res="1.1809459829237312e-04" rms="4.8956689238548279e-01" purity="5.0052124261856079e-01" nType="-99"/>
          <Node pos="r" depth="2" NCoef="0" IVar="-1" Cut="0.0000000000000000e+00" cType="1" res="-2.6459307409822941e-03" rms="4.1791662573814392e-01" purity="2.3925967514514923e-01" nType="-99"/>
        </Node>
        <Node pos="r" depth="1" NCoef="0" IVar="7" Cut="4.7265522181987762e-02" cType="1" res="1.3884381949901581e-01" rms="4.4925546646118164e-01" purity="7.0473110675811768e-01" nType="0">
          <Node pos="l" depth="2" NCoef="0" IVar="-1" Cut="0.0000000000000000e+00" cType="1" res="2.0255791023373604e-03" rms="4.1909000277519226e-01" purity="7.6693606376647949e-01" nType="-99"/>
          <Node pos="r" depth="2" NCoef="0" IVar="-1" Cut="0.0000000000000000e+00" cType="1" res="1.3182095426600426e-04" rms="4.8817354440689087e-01" purity="5.6222116947174072e-01" nType="-99"/>
        </Node>
      </Node>
    </BinaryTree>
    <BinaryTree type="DecisionTree" boostWeight="1.0000000000000000e+00" itree="101">
      <Node pos="s" depth="0" NCoef="0" IVar="1" Cut="1.2442482709884644e+00" cType="1" res="2.6427546516060829e-02" rms="4.7444102168083191e-01" purity="5.1716285943984985e-01" nType="0">
        <Node pos="l" depth="1" NCoef="0" IVar="0" Cut="6.9932942390441895e+00" cType="1" res="7.9815953969955444e-02" rms="4.7379079461097717e-01" purity="5.9195297956466675e-01" nType="0">
          <Node pos="l" depth="2" NCoef="0" IVar="-1" Cut="0.0000000000000000e+00" cType="1" res="8.5366657003760338e-05" rms="4.9401515722274780e-01" purity="4.6940764784812927e-01" nType="-99"/>
          <Node pos="r" depth="2" NCoef="0" IVar="-1" Cut="0.0000000000000000e+00" cType="1" res="1.9037168240174651e-03" rms="4.2297878861427307e-01" purity="7.6508235931396484e-01" nType="-99"/>
        </Node>
        <Node pos="r" depth="1" NCoef="0" IVar="1" Cut="1.5102953910827637e+00" cType="1" res="-1.6424888372421265e-01" rms="4.2515754699707031e-01" purity="2.5005042552947998e-01" nType="0">
          <Node pos="l" depth="2" NCoef="0" IVar="-1" Cut="0.0000000000000000e+00" cType="1" res="-1.4310863334685564e-03" rms="4.6415737271308899e-01" purity="3.3025133609771729e-01" nType="-99"/>
          <Node pos="r" depth="2" NCoef="0" IVar="-1" Cut="0.0000000000000000e+00" cType="1" res="-3.9540315046906471e-03" rms="3.6972662806510925e-01" purity="1.6672706604003906e-01" nType="-99"/>
        </Node>
      </Node>
    </BinaryTree>
    <BinaryTree type="DecisionTree" boostWeight="1.0000000000000000e+00" itree="102">
      <Node pos="s" depth="0" NCoef="0" IVar="0" Cut="7.0740385055541992e+00" cType="1" res="1.5136202797293663e-02" rms="4.7400817275047302e-01" purity="5.0733911991119385e-01" nType="0">
        <Node pos="l" depth="1" NCoef="0" IVar="1" Cut="1.2442482709884644e+00" cType="1" res="-5.6071512401103973e-02" rms="4.7551578283309937e-01" purity="3.9053273200988770e-01" nType="0">
          <Node pos="l" depth="2" NCoef="0" IVar="-1" Cut="0.0000000000000000e+00" cType="1" res="-1.6649530152790248e-04" rms="4.9106445908546448e-01" purity="4.5192599296569824e-01" nType="-99"/>
          <Node pos="r" depth="2" NCoef="0" IVar="-1" Cut="0.0000000000000000e+00" cType="1" res="-2.7491650544106960e-03" rms="4.0322637557983398e-01" purity="2.1200235188007355e-01" nType="-99"/>
        </Node>
        <Node pos="r" depth="1" NCoef="0" IVar="1" Cut="1.1227794885635376e+00" cType="1" res="1.2640690803527832e-01" rms="4.4960242509841919e-01" purity="6.8986344337463379e-01" nType="0">
          <Node pos="l" depth="2" NCoef="0" IVar="-1" Cut="0.0000000000000000e+00" cType="1" res="1.8982382025569677e-03" rms="4.1764530539512634e-01" purity="7.7452617883682251e-01" nType="-99"/>
          <Node pos="r" depth="2" NCoef="0" IVar="-1" Cut="0.0000000000000000e+00" cType="1" res="-5.9899798361584544e-04" rms="4.9072378873825073e-01" purity="4.4910222291946411e-01" nType="-99"/>
        </Node>
      </Node>
    </BinaryTree>
    <BinaryTree type="DecisionTree" boostWeight="1.0000000000000000e+00" itree="103">
      <Node pos="s" depth="0" NCoef="0" IVar="0" Cut="5.7682018280029297e+00" cType="1" res="4.7209444455802441e-03" rms="4.7523307800292969e-01" purity="4.9296072125434875e-01" nType="0">
        <Node pos="l" depth="1" NCoef="0" IVar="6" Cut="4.6668527221679688e+02" cType="1" res="-1.3004329800605774e-01" rms="4.4170764088630676e-01" purity="2.8411385416984558e-01" nType="0">
          <Node pos="l" depth="2" NCoef="0" IVar="-1" Cut="0.0000000000000000e+00" cType="1" res="-2.9774978756904602e-03" rms="3.9338445663452148e-01" purity="1.9460642337799072e-01" nType="-99"/>
          <Node pos="r" depth="2" NCoef="0" IVar="-1" Cut="0.0000000000000000e+00" cType="1" res="-2.1612015189020894e-05" rms="4.8044651746749878e-01" purity="4.2338860034942627e-01" nType="-99"/>
        </Node>
        <Node pos="r" depth="1" NCoef="0" IVar="1" Cut="1.2313939332962036e+00" cType="1" res="5.7338859885931015e-02" rms="4.7748234868049622e-01" purity="5.7450371980667114e-01" nType="0">
          <Node pos="l" depth="2" NCoef="0" IVar="-1" Cut="0.0000000000000000e+00" cType="1" res="1.0275081731379032e-03" rms="4.7148817777633667e-01" purity="6.3678413629531860e-01" nType="-99"/>
          <Node pos="r" depth="2" NCoef="0" IVar="-1" Cut="0.0000000000000000e+00" cType="1" res="-8.9440058218315244e-04" rms="4.7673842310905457e-01" purity="3.7027457356452942e-01" nType="-99"/>
        </Node>
      </Node>
    </BinaryTree>
    <BinaryTree type="DecisionTree" boostWeight="1.0000000000000000e+00" itree="104">
      <Node pos="s" depth="0" NCoef="0" IVar="0" Cut="6.0598320960998535e+00" cType="1" res="-2.6983435964211822e-04" rms="4.7436451911926270e-01" purity="4.9027299880981445e-01" nType="0">
        <Node pos="l" depth="1" NCoef="0" IVar="6" Cut="4.1903912353515625e+02" cType="1" res="-1.2467592954635620e-01" rms="4.4579306244850159e-01" purity="2.9626688361167908e-01" nType="0">
          <Node pos="l" depth="2" NCoef="0" IVar="-1" Cut="0.0000000000000000e+00" cType="1" res="-3.4732259809970856e-03" rms="3.7129956483840942e-01" purity="1.7222985625267029e-01" nType="-99"/>
          <Node pos="r" depth="2" NCoef="0" IVar="-1" Cut="0.0000000000000000e+00" cType="1" res="-3.5114114871248603e-04" rms="4.7986009716987610e-01" purity="4.0172740817070007e-01" nType="-99"/>
        </Node>
        <Node pos="r" depth="1" NCoef="0" IVar="1" Cut="7.6422226428985596e-01" cType="1" res="6.3446871936321259e-02" rms="4.7592031955718994e-01" purity="5.8963650465011597e-01" nType="0">
          <Node pos="l" depth="2" NCoef="0" IVar="-1" Cut="0.0000000000000000e+00" cType="1" res="1.7486492870375514e-03" rms="4.4106498360633850e-01" purity="7.2590273618698120e-01" nType="-99"/>
          <Node pos="r" depth="2" NCoef="0" IVar="-1" Cut="0.0000000000000000e+00" cType="1" res="-3.4658329241210595e-05" rms="4.8509898781776428e-01" purity="5.0361651182174683e-01" nType="-99"/>
        </Node>
      </Node>
    </BinaryTree>
    <BinaryTree type="DecisionTree" boostWeight="1.0000000000000000e+00" itree="105">
      <Node pos="s" depth="0" NCoef="0" IVar="0" Cut="7.0307221412658691e+00" cType="1" res="2.6117363944649696e-02" rms="4.7397232055664062e-01" purity="5.1918178796768188e-01" nType="0">
        <Node pos="l" depth="1" NCoef="0" IVar="6" Cut="4.0420034790039062e+02" cType="1" res="-4.9962271004915237e-02" rms="4.7625401616096497e-01" purity="3.9253717660903931e-01" nType="0">
          <Node pos="l" depth="2" NCoef="0" IVar="-1" Cut="0.0000000000000000e+00" cType="1" res="-1.6693917568773031e-03" rms="4.4752559065818787e-01" purity="3.0183178186416626e-01" nType="-99"/>
          <Node pos="r" depth="2" NCoef="0" IVar="-1" Cut="0.0000000000000000e+00" cType="1" res="8.4007342593395151e-06" rms="4.8760741949081421e-01" purity="4.5207023620605469e-01" nType="-99"/>
        </Node>
        <Node pos="r" depth="1" NCoef="0" IVar="7" Cut="4.1902773082256317e-02" cType="1" res="1.3465738296508789e-01" rms="4.4890755414962769e-01" purity="6.9986099004745483e-01" nType="0">
          <Node pos="l" depth="2" NCoef="0" IVar="-1" Cut="0.0000000000000000e+00" cType="1" res="1.8826270243152976e-03" rms="4.2571505904197693e-01" purity="7.5195783376693726e-01" nType="-99"/>
          <Node pos="r" depth="2" NCoef="0" IVar="-1" Cut="0.0000000000000000e+00" cType="1" res="4.5023596612736583e-04" rms="4.8021623492240906e-01" purity="5.9011161327362061e-01" nType="-99"/>
        </Node>
      </Node>
    </BinaryTree>
    <BinaryTree type="DecisionTree" boostWeight="1.0000000000000000e+00" itree="106">
      <Node pos="s" depth="0" NCoef="0" IVar="0" Cut="6.5781311988830566e+00" cType="1" res="3.8414549635490403e-05" rms="4.7152459621429443e-01" purity="4.9225571751594543e-01" nType="0">
        <Node pos="l" depth="1" NCoef="0" IVar="2" Cut="2.1871519470214844e+02" cType="1" res="-1.1074951291084290e-01" rms="4.5785340666770935e-01" purity="3.2017561793327332e-01" nType="0">
          <Node pos="l" depth="2" NCoef="0" IVar="-1" Cut="0.0000000000000000e+00" cType="1" res="-2.2499475162476301e-03" rms="4.3729043006896973e-01" purity="2.6778161525726318e-01" nType="-99"/>
          <Node pos="r" depth="2" NCoef="0" IVar="-1" Cut="0.0000000000000000e+00" cType="1" res="-4.7671989887021482e-04" rms="4.7159567475318909e-01" purity="3.8516226410865784e-01" nType="-99"/>
        </Node>
        <Node pos="r" depth="1" NCoef="0" IVar="1" Cut="1.4064118862152100e+00" cType="1" res="1.0535522550344467e-01" rms="4.6005895733833313e-01" purity="6.5583789348602295e-01" nType="0">
          <Node pos="l" depth="2" NCoef="0" IVar="-1" Cut="0.0000000000000000e+00" cType="1" res="1.4526011655107141e-03" rms="4.5080345869064331e-01" purity="7.0180517435073853e-01" nType="-99"/>
          <Node pos="r" depth="2" NCoef="0" IVar="-1" Cut="0.0000000000000000e+00" cType="1" res="-1.9364140462130308e-03" rms="4.6052494645118713e-01" purity="3.1313019990921021e-01" nType="-99"/>
        </Node>
      </Node>
    </BinaryTree>
    <BinaryTree type="DecisionTree" boostWeight="1.0000000000000000e+00" itree="107">
      <Node pos="s" depth="0" NCoef="0" IVar="0" Cut="6.5376625061035156e+00" cType="1" res="-8.9129069820046425e-03" rms="4.7350504994392395e-01" purity="4.8293673992156982e-01" nType="0">
        <Node pos="l" depth="1" NCoef="0" IVar="6" Cut="4.1903912353515625e+02" cType="1" res="-1.0403320193290710e-01" rms="4.5677757263183594e-01" purity="3.2108914852142334e-01" nType="0">
          <Node pos="l" depth="2" NCoef="0" IVar="-1" Cut="0.0000000000000000e+00" cType="1" res="-2.6582831051200628e-03" rms="4.1185769438743591e-01" purity="2.2350509464740753e-01" nType="-99"/>
          <Node pos="r" depth="2" NCoef="0" IVar="-1" Cut="0.0000000000000000e+00" cType="1" res="-3.5240390570834279e-04" rms="4.8102828860282898e-01" purity="4.0891405940055847e-01" nType="-99"/>
        </Node>
        <Node pos="r" depth="1" NCoef="0" IVar="1" Cut="1.3187955617904663e+00" cType="1" res="7.2831116616725922e-02" rms="4.7235837578773499e-01" purity="6.2202453613281250e-01" nType="0">
          <Node pos="l" depth="2" NCoef="0" IVar="-1" Cut="0.0000000000000000e+00" cType="1" res="1.1494129430502653e-03" rms="4.6526497602462769e-01" purity="6.7414766550064087e-01" nType="-99"/>
          <Node pos="r" depth="2" NCoef="0" IVar="-1" Cut="0.0000000000000000e+00" cType="1" res="-1.3976254267618060e-03" rms="4.7244977951049805e-01" purity="3.4964966773986816e-01" nType="-99"/>
        </Node>
      </Node>
    </BinaryTree>
    <BinaryTree type="DecisionTree" boostWeight="1.0000000000000000e+00" itree="108">
      <Node pos="s" depth="0" NCoef="0" IVar="0" Cut="6.1806182861328125e+00" cType="1" res="9.9413618445396423e-03" rms="4.7466203570365906e-01" purity="5.0189745426177979e-01" nType="0">
        <Node pos="l" depth="1" NCoef="0" IVar="1" Cut="1.3982830047607422e+00" cType="1" res="-9.6461817622184753e-02" rms="4.5704567432403564e-01" purity="3.2747858762741089e-01" nType="0">
          <Node pos="l" depth="2" NCoef="0" IVar="-1" Cut="0.0000000000000000e+00" cType="1" res="-6.9435487966984510e-04" rms="4.7906312346458435e-01" purity="3.7999856472015381e-01" nType="-99"/>
          <Node pos="r" depth="2" NCoef="0" IVar="-1" Cut="0.0000000000000000e+00" cType="1" res="-5.5862921290099621e-03" rms="2.3092563450336456e-01" purity="5.7657871395349503e-02" nType="-99"/>
        </Node>
        <Node pos="r" depth="1" NCoef="0" IVar="0" Cut="8.8466558456420898e+00" cType="1" res="7.2696335613727570e-02" rms="4.7367587685585022e-01" purity="6.0476702451705933e-01" nType="0">
          <Node pos="l" depth="2" NCoef="0" IVar="-1" Cut="0.0000000000000000e+00" cType="1" res="5.5050221271812916e-04" rms="4.8132067918777466e-01" purity="5.7238835096359253e-01" nType="-99"/>
          <Node pos="r" depth="2" NCoef="0" IVar="-1" Cut="0.0000000000000000e+00" cType="1" res="2.3691484238952398e-03" rms="3.8344994187355042e-01" purity="8.1279748678207397e-01" nType="-99"/>
        </Node>
      </Node>
    </BinaryTree>
    <BinaryTree type="DecisionTree" boostWeight="1.0000000000000000e+00" itree="109">
      <Node pos="s" depth="0" NCoef="0" IVar="0" Cut="5.9070281982421875e+00" cType="1" res="7.0911440998315811e-03" rms="4.7078007459640503e-01" purity="4.9666318297386169e-01" nType="0">
        <Node pos="l" depth="1" NCoef="0" IVar="0" Cut="4.9442448616027832e+00" cType="1" res="-1.5171255171298981e-01" rms="4.2873480916023254e-01" purity="2.5926274061203003e-01" nType="0">
          <Node pos="l" depth="2" NCoef="0" IVar="-1" Cut="0.0000000000000000e+00" cType="1" res="-3.9088171906769276e-03" rms="3.3531248569488525e-01" purity="1.3346548378467560e-01" nType="-99"/>
          <Node pos="r" depth="2" NCoef="0" IVar="-1" Cut="0.0000000000000000e+00" cType="1" res="-1.4983540168032050e-03" rms="4.5306554436683655e-01" purity="3.0612739920616150e-01" nType="-99"/>
        </Node>
        <Node pos="r" depth="1" NCoef="0" IVar="1" Cut="1.4731723070144653e+00" cType="1" res="7.3549523949623108e-02" rms="4.7168940305709839e-01" purity="5.9601378440856934e-01" nType="0">
          <Node pos="l" depth="2" NCoef="0" IVar="-1" Cut="0.0000000000000000e+00" cType="1" res="1.1004756670445204e-03" rms="4.6878373622894287e-01" purity="6.3701856136322021e-01" nType="-99"/>
          <Node pos="r" depth="2" NCoef="0" IVar="-1" Cut="0.0000000000000000e+00" cType="1" res="-2.2282563149929047e-03" rms="4.3458735942840576e-01" purity="2.6707109808921814e-01" nType="-99"/>
        </Node>
      </Node>
    </BinaryTree>
    <BinaryTree type="DecisionTree" boostWeight="1.0000000000000000e+00" itree="110">
      <Node pos="s" depth="0" NCoef="0" IVar="0" Cut="7.1190819740295410e+00" cType="1" res="2.0037854090332985e-02" rms="4.7337004542350769e-01" purity="5.1346856355667114e-01" nType="0">
        <Node pos="l" depth="1" NCoef="0" IVar="1" Cut="1.0603398084640503e+00" cType="1" res="-5.4914362728595734e-02" rms="4.7659152746200562e-01" purity="3.9167994260787964e-01" nType="0">
          <Node pos="l" depth="2" NCoef="0" IVar="-1" Cut="0.0000000000000000e+00" cType="1" res="3.5790451420325553e-06" rms="4.9245408177375793e-01" purity="4.7214433550834656e-01" nType="-99"/>
          <Node pos="r" depth="2" NCoef="0" IVar="-1" Cut="0.0000000000000000e+00" cType="1" res="-2.0293563138693571e-03" rms="4.3812358379364014e-01" purity="2.6896604895591736e-01" nType="-99"/>
        </Node>
        <Node pos="r" depth="1" NCoef="0" IVar="1" Cut="1.3020579814910889e+00" cType="1" res="1.3783365488052368e-01" rms="4.4335621595382690e-01" purity="7.0487302541732788e-01" nType="0">
          <Node pos="l" depth="2" NCoef="0" IVar="-1" Cut="0.0000000000000000e+00" cType="1" res="1.8610099796205759e-03" rms="4.2312183976173401e-01" purity="7.6425278186798096e-01" nType="-99"/>
          <Node pos="r" depth="2" NCoef="0" IVar="-1" Cut="0.0000000000000000e+00" cType="1" res="-7.4037432204931974e-04" rms="4.8953959345817566e-01" purity="4.1028940677642822e-01" nType="-99"/>
        </Node>
      </Node>
    </BinaryTree>
    <BinaryTree type="DecisionTree" boostWeight="1.0000000000000000e+00" itree="111">
      <Node pos="s" depth="0" NCoef="0" IVar="0" Cut="5.6655330657958984e+00" cType="1" res="-1.2118347221985459e-03" rms="4.7101902961730957e-01" purity="4.9102023243904114e-01" nType="0">
        <Node pos="l" depth="1" NCoef="0" IVar="6" Cut="5.3926867675781250e+02" cType="1" res="-1.8394333124160767e-01" rms="4.0329664945602417e-01" purity="2.2050873935222626e-01" nType="0">
          <Node pos="l" depth="2" NCoef="0" IVar="-1" Cut="0.0000000000000000e+00" cType="1" res="-3.3944130409508944e-03" rms="3.6712923645973206e-01" purity="1.7115665972232819e-01" nType="-99"/>
          <Node pos="r" depth="2" NCoef="0" IVar="-1" Cut="0.0000000000000000e+00" cType="1" res="-4.5281008351594210e-04" rms="4.7565531730651855e-01" purity="3.8441932201385498e-01" nType="-99"/>
        </Node>
        <Node pos="r" depth="1" NCoef="0" IVar="1" Cut="1.2458609342575073e+00" cType="1" res="5.1161147654056549e-02" rms="4.7593727707862854e-01" purity="5.6855201721191406e-01" nType="0">
          <Node pos="l" depth="2" NCoef="0" IVar="-1" Cut="0.0000000000000000e+00" cType="1" res="9.9885091185569763e-04" rms="4.7068813443183899e-01" purity="6.3431251049041748e-01" nType="-99"/>
          <Node pos="r" depth="2" NCoef="0" IVar="-1" Cut="0.0000000000000000e+00" cType="1" res="-1.3811968965455890e-03" rms="4.6503493189811707e-01" purity="3.3349749445915222e-01" nType="-99"/>
        </Node>
      </Node>
    </BinaryTree>
    <BinaryTree type="DecisionTree" boostWeight="1.0000000000000000e+00" itree="112">
      <Node pos="s" depth="0" NCoef="0" IVar="0" Cut="7.1190819740295410e+00" cType="1" res="6.2988507561385632e-03" rms="4.7310987114906311e-01" purity="4.9726527929306030e-01" nType="0">
        <Node pos="l" depth="1" NCoef="0" IVar="0" Cut="4.8869199752807617e+00" cType="1" res="-5.8529116213321686e-02" rms="4.7433292865753174e-01" purity="3.8643869757652283e-01" nType="0">
          <Node pos="l" depth="2" NCoef="0" IVar="-1" Cut="0.0000000000000000e+00" cType="1" res="-3.7232153117656708e-03" rms="3.4654515981674194e-01" purity="1.3914850354194641e-01" nType="-99"/>
          <Node pos="r" depth="2" NCoef="0" IVar="-1" Cut="0.0000000000000000e+00" cType="1" res="-4.4881342910230160e-04" rms="4.8285555839538574e-01" purity="4.1626709699630737e-01" nType="-99"/>
        </Node>
        <Node pos="r" depth="1" NCoef="0" IVar="1" Cut="1.2824494838714600e+00" cType="1" res="1.1816646903753281e-01" rms="4.4951847195625305e-01" purity="6.8850839138031006e-01" nType="0">
          <Node pos="l" depth="2" NCoef="0" IVar="-1" Cut="0.0000000000000000e+00" cType="1" res="1.6972264274954796e-03" rms="4.3086829781532288e-01" purity="7.5091850757598877e-01" nType="-99"/>
          <Node pos="r" depth="2" NCoef="0" IVar="-1" Cut="0.0000000000000000e+00" cType="1" res="-1.1713559506461024e-03" rms="4.8231512308120728e-01" purity="3.8269531726837158e-01" nType="-99"/>
        </Node>
      </Node>
    </BinaryTree>
    <BinaryTree type="DecisionTree" boostWeight="1.0000000000000000e+00" itree="113">
      <Node pos="s" depth="0" NCoef="0" IVar="0" Cut="6.3026285171508789e+00" cType="1" res="1.1962186545133591e-02" rms="4.7249814867973328e-01" purity="5.0439763069152832e-01" nType="0">
        <Node pos="l" depth="1" NCoef="0" IVar="6" Cut="6.4853900146484375e+02" cType="1" res="-9.9520534276962280e-02" rms="4.5629677176475525e-01" purity="3.2202628254890442e-01" nType="0">
          <Node pos="l" depth="2" NCoef="0" IVar="-1" Cut="0.0000000000000000e+00" cType="1" res="-1.8474498065188527e-03" rms="4.4080433249473572e-01" purity="2.8159242868423462e-01" nType="-99"/>
          <Node pos="r" depth="2" NCoef="0" IVar="-1" Cut="0.0000000000000000e+00" cType="1" res="1.2798932148143649e-03" rms="4.8500850796699524e-01" purity="5.5410802364349365e-01" nType="-99"/>
        </Node>
        <Node pos="r" depth="1" NCoef="0" IVar="1" Cut="9.6399080753326416e-01" cType="1" res="8.6085975170135498e-02" rms="4.6851012110710144e-01" purity="6.2565457820892334e-01" nType="0">
          <Node pos="l" depth="2" NCoef="0" IVar="-1" Cut="0.0000000000000000e+00" cType="1" res="1.5535791171714664e-03" rms="4.4351929426193237e-01" purity="7.1847939491271973e-01" nType="-99"/>
          <Node pos="r" depth="2" NCoef="0" IVar="-1" Cut="0.0000000000000000e+00" cType="1" res="7.8887802374083549e-05" rms="4.8880362510681152e-01" purity="5.0134515762329102e-01" nType="-99"/>
        </Node>
      </Node>
    </BinaryTree>
    <BinaryTree type="DecisionTree" boostWeight="1.0000000000000000e+00" itree="114">
      <Node pos="s" depth="0" NCoef="0" IVar="0" Cut="5.9070281982421875e+00" cType="1" res="1.4864429831504822e-02" rms="4.7238251566886902e-01" purity="5.0451451539993286e-01" nType="0">
        <Node pos="l" depth="1" NCoef="0" IVar="1" Cut="1.3926751613616943e+00" cType="1" res="-1.2229428440332413e-01" rms="4.4105610251426697e-01" purity="2.8562930226325989e-01" nType="0">
          <Node pos="l" depth="2" NCoef="0" IVar="-1" Cut="0.0000000000000000e+00" cType="1" res="-1.0079905623570085e-03" rms="4.7104549407958984e-01" purity="3.4549406170845032e-01" nType="-99"/>
          <Node pos="r" depth="2" NCoef="0" IVar="-1" Cut="0.0000000000000000e+00" cType="1" res="-5.4988809861242771e-03" rms="2.2896693646907806e-01" purity="5.4517153650522232e-02" nType="-99"/>
        </Node>
        <Node pos="r" depth="1" NCoef="0" IVar="1" Cut="1.0888663530349731e+00" cType="1" res="7.3090009391307831e-02" rms="4.7319784760475159e-01" purity="5.9743398427963257e-01" nType="0">
          <Node pos="l" depth="2" NCoef="0" IVar="-1" Cut="0.0000000000000000e+00" cType="1" res="1.2843492440879345e-03" rms="4.5879748463630676e-01" purity="6.7490261793136597e-01" nType="-99"/>
          <Node pos="r" depth="2" NCoef="0" IVar="-1" Cut="0.0000000000000000e+00" cType="1" res="-3.2576240482740104e-04" rms="4.8783195018768311e-01" purity="4.3370455503463745e-01" nType="-99"/>
        </Node>
      </Node>
    </BinaryTree>
    <BinaryTree type="DecisionTree" boostWeight="1.0000000000000000e+00" itree="115">
      <Node pos="s" depth="0" NCoef="0" IVar="0" Cut="7.0419421195983887e+00" cType="1" res="4.5790341682732105e-03" rms="4.7192806005477905e-01" purity="4.9292755126953125e-01" nType="0">
        <Node pos="l" depth="1" NCoef="0" IVar="1" Cut="6.5361642837524414e-01" cType="1" res="-5.8680251240730286e-02" rms="4.7104793787002563e-01" purity="3.7842071056365967e-01" nType="0">
          <Node pos="l" depth="2" NCoef="0" IVar="-1" Cut="0.0000000000000000e+00" cType="1" res="6.6474662162363529e-04" rms="4.9166679382324219e-01" purity="5.2892434597015381e-01" nType="-99"/>
          <Node pos="r" depth="2" NCoef="0" IVar="-1" Cut="0.0000000000000000e+00" cType="1" res="-1.2501967139542103e-03" rms="4.5891287922859192e-01" purity="3.3361530303955078e-01" nType="-99"/>
        </Node>
        <Node pos="r" depth="1" NCoef="0" IVar="1" Cut="1.3417441844940186e+00" cType="1" res="1.0314538329839706e-01" rms="4.5613452792167664e-01" purity="6.7134428024291992e-01" nType="0">
          <Node pos="l" depth="2" NCoef="0" IVar="-1" Cut="0.0000000000000000e+00" cType="1" res="1.4907348668202758e-03" rms="4.4365265965461731e-01" purity="7.2573059797286987e-01" nType="-99"/>
          <Node pos="r" depth="2" NCoef="0" IVar="-1" Cut="0.0000000000000000e+00" cType="1" res="-1.4253254048526287e-03" rms="4.7399303317070007e-01" purity="3.5473668575286865e-01" nType="-99"/>
        </Node>
      </Node>
    </BinaryTree>
    <BinaryTree type="DecisionTree" boostWeight="1.0000000000000000e+00" itree="116">
      <Node pos="s" depth="0" NCoef="0" IVar="0" Cut="7.2885541915893555e+00" cType="1" res="6.4046974293887615e-03" rms="4.7234466671943665e-01" purity="4.9683746695518494e-01" nType="0">
        <Node pos="l" depth="1" NCoef="0" IVar="1" Cut="1.0099432468414307e+00" cType="1" res="-5.8959785848855972e-02" rms="4.7288033366203308e-01" purity="3.8871839642524719e-01" nType="0">
          <Node pos="l" depth="2" NCoef="0" IVar="-1" Cut="0.0000000000000000e+00" cType="1" res="5.9514677559491247e-05" rms="4.9096241593360901e-01" purity="4.8242241144180298e-01" nType="-99"/>
          <Node pos="r" depth="2" NCoef="0" IVar="-1" Cut="0.0000000000000000e+00" cType="1" res="-1.9735225941985846e-03" rms="4.3669942021369934e-01" purity="2.7280050516128540e-01" nType="-99"/>
        </Node>
        <Node pos="r" depth="1" NCoef="0" IVar="4" Cut="-3.0786801129579544e-02" cType="1" res="1.3147373497486115e-01" rms="4.4533506035804749e-01" purity="7.0371359586715698e-01" nType="0">
          <Node pos="l" depth="2" NCoef="0" IVar="-1" Cut="0.0000000000000000e+00" cType="1" res="3.6557484418153763e-04" rms="4.7621530294418335e-01" purity="5.8822500705718994e-01" nType="-99"/>
          <Node pos="r" depth="2" NCoef="0" IVar="-1" Cut="0.0000000000000000e+00" cType="1" res="2.0667682401835918e-03" rms="4.1111254692077637e-01" purity="7.7865844964981079e-01" nType="-99"/>
        </Node>
      </Node>
    </BinaryTree>
    <BinaryTree type="DecisionTree" boostWeight="1.0000000000000000e+00" itree="117">
      <Node pos="s" depth="0" NCoef="0" IVar="0" Cut="6.7487816810607910e+00" cType="1" res="-1.5471844002604485e-02" rms="4.6999076008796692e-01" purity="4.7608244419097900e-01" nType="0">
        <Node pos="l" depth="1" NCoef="0" IVar="6" Cut="6.3037884521484375e+02" cType="1" res="-1.0283020883798599e-01" rms="4.5689067244529724e-01" purity="3.2858249545097351e-01" nType="0">
          <Node pos="l" depth="2" NCoef="0" IVar="-1" Cut="0.0000000000000000e+00" cType="1" res="-1.8245120299980044e-03" rms="4.4183391332626343e-01" purity="2.9235538840293884e-01" nType="-99"/>
          <Node pos="r" depth="2" NCoef="0" IVar="-1" Cut="0.0000000000000000e+00" cType="1" res="7.1031757397577167e-04" rms="4.9595862627029419e-01" purity="5.1361453533172607e-01" nType="-99"/>
        </Node>
        <Node pos="r" depth="1" NCoef="0" IVar="1" Cut="1.2582952976226807e+00" cType="1" res="8.3472885191440582e-02" rms="4.6498417854309082e-01" purity="6.4314538240432739e-01" nType="0">
          <Node pos="l" depth="2" NCoef="0" IVar="-1" Cut="0.0000000000000000e+00" cType="1" res="1.3401213800534606e-03" rms="4.5103493332862854e-01" purity="7.0961588621139526e-01" nType="-99"/>
          <Node pos="r" depth="2" NCoef="0" IVar="-1" Cut="0.0000000000000000e+00" cType="1" res="-1.1785884853452444e-03" rms="4.8231729865074158e-01" purity="3.7629628181457520e-01" nType="-99"/>
        </Node>
      </Node>
    </BinaryTree>
    <BinaryTree type="DecisionTree" boostWeight="1.0000000000000000e+00" itree="118">
      <Node pos="s" depth="0" NCoef="0" IVar="0" Cut="6.7727746963500977e+00" cType="1" res="5.6672259233891964e-03" rms="4.7263774275779724e-01" purity="4.9996885657310486e-01" nType="0">
        <Node pos="l" depth="1" NCoef="0" IVar="4" Cut="1.9403044879436493e-01" cType="1" res="-7.8472442924976349e-02" rms="4.6570360660552979e-01" purity="3.5249364376068115e-01" nType="0">
          <Node pos="l" depth="2" NCoef="0" IVar="-1" Cut="0.0000000000000000e+00" cType="1" res="-1.3710616622120142e-03" rms="4.5595809817314148e-01" purity="3.2292634248733521e-01" nType="-99"/>
          <Node pos="r" depth="2" NCoef="0" IVar="-1" Cut="0.0000000000000000e+00" cType="1" res="1.3329843059182167e-03" rms="4.8918628692626953e-01" purity="5.7031637430191040e-01" nType="-99"/>
        </Node>
        <Node pos="r" depth="1" NCoef="0" IVar="0" Cut="8.7204179763793945e+00" cType="1" res="9.7708709537982941e-02" rms="4.6291261911392212e-01" purity="6.6129398345947266e-01" nType="0">
          <Node pos="l" depth="2" NCoef="0" IVar="-1" Cut="0.0000000000000000e+00" cType="1" res="8.3227339200675488e-04" rms="4.7146669030189514e-01" purity="6.3343232870101929e-01" nType="-99"/>
          <Node pos="r" depth="2" NCoef="0" IVar="-1" Cut="0.0000000000000000e+00" cType="1" res="2.0206910558044910e-03" rms="4.1585880517959595e-01" purity="7.6772814989089966e-01" nType="-99"/>
        </Node>
      </Node>
    </BinaryTree>
    <BinaryTree type="DecisionTree" boostWeight="1.0000000000000000e+00" itree="119">
      <Node pos="s" depth="0" NCoef="0" IVar="0" Cut="5.6201038360595703e+00" cType="1" res="-1.7575677484273911e-02" rms="4.7310057282447815e-01" purity="4.7137036919593811e-01" nType="0">
        <Node pos="l" depth="1" NCoef="0" IVar="6" Cut="4.0420034790039062e+02" cType="1" res="-1.7226164042949677e-01" rms="4.1239625215530396e-01" purity="2.2360448539257050e-01" nType="0">
          <Node pos="l" depth="2" NCoef="0" IVar="-1" Cut="0.0000000000000000e+00" cType="1" res="-3.2525626011192799e-03" rms="3.6821311712265015e-01" purity="1.6154608130455017e-01" nType="-99"/>
          <Node pos="r" depth="2" NCoef="0" IVar="-1" Cut="0.0000000000000000e+00" cType="1" res="-1.8181273480877280e-03" rms="4.4147670269012451e-01" purity="2.7542251348495483e-01" nType="-99"/>
        </Node>
        <Node pos="r" depth="1" NCoef="0" IVar="1" Cut="1.3798019886016846e+00" cType="1" res="2.7125203981995583e-02" rms="4.8004680871963501e-01" purity="5.4296928644180298e-01" nType="0">
          <Node pos="l" depth="2" NCoef="0" IVar="-1" Cut="0.0000000000000000e+00" cType="1" res="6.2721699941903353e-04" rms="4.8059242963790894e-01" purity="5.8928358554840088e-01" nType="-99"/>
          <Node pos="r" depth="2" NCoef="0" IVar="-1" Cut="0.0000000000000000e+00" cType="1" res="-2.3426970001310110e-03" rms="4.3618315458297729e-01" purity="2.5996172428131104e-01" nType="-99"/>
        </Node>
      </Node>
    </BinaryTree>
    <BinaryTree type="DecisionTree" boostWeight="1.0000000000000000e+00" itree="120">
      <Node pos="s" depth="0" NCoef="0" IVar="0" Cut="8.1716451644897461e+00" cType="1" res="2.0654750987887383e-03" rms="4.7433122992515564e-01" purity="4.9274319410324097e-01" nType="0">
        <Node pos="l" depth="1" NCoef="0" IVar="1" Cut="1.5160460472106934e+00" cType="1" res="-3.3788755536079407e-02" rms="4.7746565937995911e-01" purity="4.3910008668899536e-01" nType="0">
          <Node pos="l" depth="2" NCoef="0" IVar="-1" Cut="0.0000000000000000e+00" cType="1" res="-1.0328259668312967e-04" rms="4.8643544316291809e-01" purity="4.7739776968955994e-01" nType="-99"/>
          <Node pos="r" depth="2" NCoef="0" IVar="-1" Cut="0.0000000000000000e+00" cType="1" res="-3.9591975510120392e-03" rms="3.4304761886596680e-01" purity="1.4153517782688141e-01" nType="-99"/>
        </Node>
        <Node pos="r" depth="1" NCoef="0" IVar="1" Cut="1.0446944236755371e+00" cType="1" res="1.7415675520896912e-01" rms="4.1819286346435547e-01" purity="7.5021660327911377e-01" nType="0">
          <Node pos="l" depth="2" NCoef="0" IVar="-1" Cut="0.0000000000000000e+00" cType="1" res="2.1922884043306112e-03" rms="3.7972077727317810e-01" purity="8.2489013671875000e-01" nType="-99"/>
          <Node pos="r" depth="2" NCoef="0" IVar="-1" Cut="0.0000000000000000e+00" cType="1" res="9.7056257072836161e-04" rms="4.7275909781455994e-01" purity="6.0064101219177246e-01" nType="-99"/>
        </Node>
      </Node>
    </BinaryTree>
    <BinaryTree type="DecisionTree" boostWeight="1.0000000000000000e+00" itree="121">
      <Node pos="s" depth="0" NCoef="0" IVar="0" Cut="7.3472442626953125e+00" cType="1" res="1.5435081906616688e-02" rms="4.7286549210548401e-01" purity="5.0761318206787109e-01" nType="0">
        <Node pos="l" depth="1" NCoef="0" IVar="1" Cut="1.1358586549758911e+00" cType="1" res="-3.9931472390890121e-02" rms="4.7507101297378540e-01" purity="4.0862786769866943e-01" nType="0">
          <Node pos="l" depth="2" NCoef="0" IVar="-1" Cut="0.0000000000000000e+00" cType="1" res="1.1275618453510106e-04" rms="4.9036774039268494e-01" purity="4.8881420493125916e-01" nType="-99"/>
          <Node pos="r" depth="2" NCoef="0" IVar="-1" Cut="0.0000000000000000e+00" cType="1" res="-1.9177853828296065e-03" rms="4.3186578154563904e-01" purity="2.6364094018936157e-01" nType="-99"/>
        </Node>
        <Node pos="r" depth="1" NCoef="0" IVar="0" Cut="8.9138069152832031e+00" cType="1" res="1.2075464427471161e-01" rms="4.5022377371788025e-01" purity="6.9590538740158081e-01" nType="0">
          <Node pos="l" depth="2" NCoef="0" IVar="-1" Cut="0.0000000000000000e+00" cType="1" res="9.2278316151350737e-04" rms="4.6535760164260864e-01" purity="6.5379935503005981e-01" nType="-99"/>
          <Node pos="r" depth="2" NCoef="0" IVar="-1" Cut="0.0000000000000000e+00" cType="1" res="2.3438162170350552e-03" rms="3.8529628515243530e-01" purity="8.1374710798263550e-01" nType="-99"/>
        </Node>
      </Node>
    </BinaryTree>
    <BinaryTree type="DecisionTree" boostWeight="1.0000000000000000e+00" itree="122">
      <Node pos="s" depth="0" NCoef="0" IVar="0" Cut="6.9932942390441895e+00" cType="1" res="1.2464737519621849e-02" rms="4.7102963924407959e-01" purity="5.0148534774780273e-01" nType="0">
        <Node pos="l" depth="1" NCoef="0" IVar="6" Cut="5.8936364746093750e+02" cType="1" res="-5.8048009872436523e-02" rms="4.7014892101287842e-01" purity="3.7710762023925781e-01" nType="0">
          <Node pos="l" depth="2" NCoef="0" IVar="-1" Cut="0.0000000000000000e+00" cType="1" res="-1.2951275566592813e-03" rms="4.5630320906639099e-01" purity="3.3000946044921875e-01" nType="-99"/>
          <Node pos="r" depth="2" NCoef="0" IVar="-1" Cut="0.0000000000000000e+00" cType="1" res="1.1319055920466781e-03" rms="4.8884657025337219e-01" purity="5.5961960554122925e-01" nType="-99"/>
        </Node>
        <Node pos="r" depth="1" NCoef="0" IVar="0" Cut="8.0490436553955078e+00" cType="1" res="1.1855453252792358e-01" rms="4.5208445191383362e-01" purity="6.8861746788024902e-01" nType="0">
          <Node pos="l" depth="2" NCoef="0" IVar="-1" Cut="0.0000000000000000e+00" cType="1" res="7.2896410711109638e-04" rms="4.7713145613670349e-01" purity="6.2472105026245117e-01" nType="-99"/>
          <Node pos="r" depth="2" NCoef="0" IVar="-1" Cut="0.0000000000000000e+00" cType="1" res="1.9563126843422651e-03" rms="4.1032743453979492e-01" purity="7.6608914136886597e-01" nType="-99"/>
        </Node>
      </Node>
    </BinaryTree>
    <BinaryTree type="DecisionTree" boostWeight="1.0000000000000000e+00" itree="123">
      <Node pos="s" depth="0" NCoef="0" IVar="0" Cut="6.5568866729736328e+00" cType="1" res="6.6323406063020229e-03" rms="4.7117805480957031e-01" purity="4.9740856885910034e-01" nType="0">
        <Node pos="l" depth="1" NCoef="0" IVar="6" Cut="3.7423559570312500e+02" cType="1" res="-8.5074841976165771e-02" rms="4.6229681372642517e-01" purity="3.3817324042320251e-01" nType="0">
          <Node pos="l" depth="2" NCoef="0" IVar="-1" Cut="0.0000000000000000e+00" cType="1" res="-2.7219275943934917e-03" rms="4.0636122226715088e-01" purity="2.1284613013267517e-01" nType="-99"/>
          <Node pos="r" depth="2" NCoef="0" IVar="-1" Cut="0.0000000000000000e+00" cType="1" res="-4.3748147436417639e-04" rms="4.7809886932373047e-01" purity="3.9653900265693665e-01" nType="-99"/>
        </Node>
        <Node pos="r" depth="1" NCoef="0" IVar="1" Cut="1.1402529478073120e+00" cType="1" res="9.2673830687999725e-02" rms="4.6313413977622986e-01" purity="6.4680624008178711e-01" nType="0">
          <Node pos="l" depth="2" NCoef="0" IVar="-1" Cut="0.0000000000000000e+00" cType="1" res="1.4603422023355961e-03" rms="4.4611948728561401e-01" purity="7.1867799758911133e-01" nType="-99"/>
          <Node pos="r" depth="2" NCoef="0" IVar="-1" Cut="0.0000000000000000e+00" cType="1" res="-4.2478251270949841e-04" rms="4.8711240291595459e-01" purity="4.4282478094100952e-01" nType="-99"/>
        </Node>
      </Node>
    </BinaryTree>
    <BinaryTree type="DecisionTree" boostWeight="1.0000000000000000e+00" itree="124">
      <Node pos="s" depth="0" NCoef="0" IVar="0" Cut="6.9917750358581543e+00" cType="1" res="1.8727881833910942e-02" rms="4.7219288349151611e-01" purity="5.1094084978103638e-01" nType="0">
        <Node pos="l" depth="1" NCoef="0" IVar="6" Cut="6.2501806640625000e+02" cType="1" res="-4.8509605228900909e-02" rms="4.7369751334190369e-01" purity="3.8632929325103760e-01" nType="0">
          <Node pos="l" depth="2" NCoef="0" IVar="-1" Cut="0.0000000000000000e+00" cType="1" res="-1.0706486646085978e-03" rms="4.6388283371925354e-01" purity="3.4767010807991028e-01" nType="-99"/>
          <Node pos="r" depth="2" NCoef="0" IVar="-1" Cut="0.0000000000000000e+00" cType="1" res="1.2593108695000410e-03" rms="4.8732596635818481e-01" purity="5.6769800186157227e-01" nType="-99"/>
        </Node>
        <Node pos="r" depth="1" NCoef="0" IVar="1" Cut="1.3916972875595093e+00" cType="1" res="1.1098414659500122e-01" rms="4.5420148968696594e-01" purity="6.8191987276077271e-01" nType="0">
          <Node pos="l" depth="2" NCoef="0" IVar="-1" Cut="0.0000000000000000e+00" cType="1" res="1.4610777143388987e-03" rms="4.4370633363723755e-01" purity="7.2657299041748047e-01" nType="-99"/>
          <Node pos="r" depth="2" NCoef="0" IVar="-1" Cut="0.0000000000000000e+00" cType="1" res="-9.6509204013273120e-04" rms="4.8287260532379150e-01" purity="3.7845084071159363e-01" nType="-99"/>
        </Node>
      </Node>
    </BinaryTree>
    <BinaryTree type="DecisionTree" boostWeight="1.0000000000000000e+00" itree="125">
      <Node pos="s" depth="0" NCoef="0" IVar="2" Cut="1.9659182739257812e+02" cType="1" res="-6.1298962682485580e-03" rms="4.7302335500717163e-01" purity="4.8666572570800781e-01" nType="0">
        <Node pos="l" depth="1" NCoef="0" IVar="0" Cut="8.0616664886474609e+00" cType="1" res="-9.7566224634647369e-02" rms="4.6515658497810364e-01" purity="3.9971947669982910e-01" nType="0">
          <Node pos="l" depth="2" NCoef="0" IVar="-1" Cut="0.0000000000000000e+00" cType="1" res="-1.8964243354275823e-03" rms="4.5554265379905701e-01" purity="3.2838347554206848e-01" nType="-99"/>
          <Node pos="r" depth="2" NCoef="0" IVar="-1" Cut="0.0000000000000000e+00" cType="1" res="1.2896286789327860e-03" rms="4.4490653276443481e-01" purity="7.1575683355331421e-01" nType="-99"/>
        </Node>
        <Node pos="r" depth="1" NCoef="0" IVar="1" Cut="1.1225199699401855e+00" cType="1" res="5.7319559156894684e-02" rms="4.6802252531051636e-01" purity="5.4699945449829102e-01" nType="0">
          <Node pos="l" depth="2" NCoef="0" IVar="-1" Cut="0.0000000000000000e+00" cType="1" res="1.6671617049723864e-03" rms="4.4793587923049927e-01" purity="6.9325852394104004e-01" nType="-99"/>
          <Node pos="r" depth="2" NCoef="0" IVar="-1" Cut="0.0000000000000000e+00" cType="1" res="-1.3139903312548995e-03" rms="4.5804917812347412e-01" purity="3.2568016648292542e-01" nType="-99"/>
        </Node>
      </Node>
    </BinaryTree>
    <BinaryTree type="DecisionTree" boostWeight="1.0000000000000000e+00" itree="126">
      <Node pos="s" depth="0" NCoef="0" IVar="0" Cut="5.9434676170349121e+00" cType="1" res="3.1961951404809952e-02" rms="4.7280243039131165e-01" purity="5.2655225992202759e-01" nType="0">
        <Node pos="l" depth="1" NCoef="0" IVar="1" Cut="1.2806929349899292e+00" cType="1" res="-8.0133460462093353e-02" rms="4.5498052239418030e-01" purity="3.2613492012023926e-01" nType="0">
          <Node pos="l" depth="2" NCoef="0" IVar="-1" Cut="0.0000000000000000e+00" cType="1" res="-3.7383977905847132e-04" rms="4.8284414410591125e-01" purity="3.9528197050094604e-01" nType="-99"/>
          <Node pos="r" depth="2" NCoef="0" IVar="-1" Cut="0.0000000000000000e+00" cType="1" res="-3.9421599358320236e-03" rms="3.1346929073333740e-01" purity="1.1599873751401901e-01" nType="-99"/>
        </Node>
        <Node pos="r" depth="1" NCoef="0" IVar="1" Cut="1.0519689321517944e+00" cType="1" res="7.9463295638561249e-02" rms="4.7219470143318176e-01" purity="6.1148071289062500e-01" nType="0">
          <Node pos="l" depth="2" NCoef="0" IVar="-1" Cut="0.0000000000000000e+00" cType="1" res="1.2979652965441346e-03" rms="4.5597779750823975e-01" purity="6.8923437595367432e-01" nType="-99"/>
          <Node pos="r" depth="2" NCoef="0" IVar="-1" Cut="0.0000000000000000e+00" cType="1" res="4.4636948587140068e-05" rms="4.9110338091850281e-01" purity="4.7112825512886047e-01" nType="-99"/>
        </Node>
      </Node>
    </BinaryTree>
    <BinaryTree type="DecisionTree" boostWeight="1.0000000000000000e+00" itree="127">
      <Node pos="s" depth="0" NCoef="0" IVar="0" Cut="6.5376625061035156e+00" cType="1" res="4.2429273016750813e-03" rms="4.6738767623901367e-01" purity="4.9537613987922668e-01" nType="0">
        <Node pos="l" depth="1" NCoef="0" IVar="6" Cut="6.4023376464843750e+02" cType="1" res="-1.0773219913244247e-01" rms="4.5285901427268982e-01" purity="3.1189760565757751e-01" nType="0">
          <Node pos="l" depth="2" NCoef="0" IVar="-1" Cut="0.0000000000000000e+00" cType="1" res="-1.8977081635966897e-03" rms="4.3797051906585693e-01" purity="2.7514085173606873e-01" nType="-99"/>
          <Node pos="r" depth="2" NCoef="0" IVar="-1" Cut="0.0000000000000000e+00" cType="1" res="8.9566287351772189e-04" rms="4.9133005738258362e-01" purity="5.1976239681243896e-01" nType="-99"/>
        </Node>
        <Node pos="r" depth="1" NCoef="0" IVar="1" Cut="1.5103294849395752e+00" cType="1" res="1.0055194795131683e-01" rms="4.5813864469528198e-01" purity="6.5318477153778076e-01" nType="0">
          <Node pos="l" depth="2" NCoef="0" IVar="-1" Cut="0.0000000000000000e+00" cType="1" res="1.3980832882225513e-03" rms="4.5098245143890381e-01" purity="6.9738411903381348e-01" nType="-99"/>
          <Node pos="r" depth="2" NCoef="0" IVar="-1" Cut="0.0000000000000000e+00" cType="1" res="-2.1212894935160875e-03" rms="4.4704791903495789e-01" purity="2.8290906548500061e-01" nType="-99"/>
        </Node>
      </Node>
    </BinaryTree>
    <BinaryTree type="DecisionTree" boostWeight="1.0000000000000000e+00" itree="128">
      <Node pos="s" depth="0" NCoef="0" IVar="0" Cut="5.6655330657958984e+00" cType="1" res="1.3448836281895638e-02" rms="4.6701386570930481e-01" purity="5.0364845991134644e-01" nType="0">
        <Node pos="l" depth="1" NCoef="0" IVar="4" Cut="5.5263709276914597e-02" cType="1" res="-1.6025751829147339e-01" rms="4.1273620724678040e-01" purity="2.3471625149250031e-01" nType="0">
          <Node pos="l" depth="2" NCoef="0" IVar="-1" Cut="0.0000000000000000e+00" cType="1" res="-3.3953869715332985e-03" rms="3.6186707019805908e-01" purity="1.6167445480823517e-01" nType="-99"/>
          <Node pos="r" depth="2" NCoef="0" IVar="-1" Cut="0.0000000000000000e+00" cType="1" res="-8.8190566748380661e-04" rms="4.6411937475204468e-01" purity="3.4455332159996033e-01" nType="-99"/>
        </Node>
        <Node pos="r" depth="1" NCoef="0" IVar="1" Cut="1.1318050622940063e+00" cType="1" res="6.4662091434001923e-02" rms="4.6974596381187439e-01" purity="5.8293688297271729e-01" nType="0">
          <Node pos="l" depth="2" NCoef="0" IVar="-1" Cut="0.0000000000000000e+00" cType="1" res="1.2958231382071972e-03" rms="4.5868390798568726e-01" purity="6.7131263017654419e-01" nType="-99"/>
          <Node pos="r" depth="2" NCoef="0" IVar="-1" Cut="0.0000000000000000e+00" cType="1" res="-8.7710347725078464e-04" rms="4.6944355964660645e-01" purity="3.7841495871543884e-01" nType="-99"/>
        </Node>
      </Node>
    </BinaryTree>
    <BinaryTree type="DecisionTree" boostWeight="1.0000000000000000e+00" itree="129">
      <Node pos="s" depth="0" NCoef="0" IVar="0" Cut="7.2735357284545898e+00" cType="1" res="8.8252387940883636e-03" rms="4.7285196185112000e-01" purity="4.9974301457405090e-01" nType="0">
        <Node pos="l" depth="1" NCoef="0" IVar="2" Cut="2.0337193298339844e+02" cType="1" res="-4.7734085470438004e-02" rms="4.7440010309219360e-01" purity="3.9715853333473206e-01" nType="0">
          <Node pos="l" depth="2" NCoef="0" IVar="-1" Cut="0.0000000000000000e+00" cType="1" res="-1.3876167358830571e-03" rms="4.6345829963684082e-01" purity="3.4513366222381592e-01" nType="-99"/>
          <Node pos="r" depth="2" NCoef="0" IVar="-1" Cut="0.0000000000000000e+00" cType="1" res="7.6686701504513621e-05" rms="4.7737869620323181e-01" purity="4.4285541772842407e-01" nType="-99"/>
        </Node>
        <Node pos="r" depth="1" NCoef="0" IVar="3" Cut="8.9417259216308594e+01" cType="1" res="1.1664356291294098e-01" rms="4.5063349604606628e-01" purity="6.9529843330383301e-01" nType="0">
          <Node pos="l" depth="2" NCoef="0" IVar="-1" Cut="0.0000000000000000e+00" cType="1" res="6.9349253317341208e-04" rms="4.6967095136642456e-01" purity="6.4404851198196411e-01" nType="-99"/>
          <Node pos="r" depth="2" NCoef="0" IVar="-1" Cut="0.0000000000000000e+00" cType="1" res="2.1300376392900944e-03" rms="4.0544223785400391e-01" purity="7.7303880453109741e-01" nType="-99"/>
        </Node>
      </Node>
    </BinaryTree>
    <BinaryTree type="DecisionTree" boostWeight="1.0000000000000000e+00" itree="130">
      <Node pos="s" depth="0" NCoef="0" IVar="0" Cut="5.9562425613403320e+00" cType="1" res="7.8802006319165230e-03" rms="4.7139212489128113e-01" purity="4.9642094969749451e-01" nType="0">
        <Node pos="l" depth="1" NCoef="0" IVar="1" Cut="1.3094719648361206e+00" cType="1" res="-1.0362299531698227e-01" rms="4.4755625724792480e-01" purity="2.9969292879104614e-01" nType="0">
          <Node pos="l" depth="2" NCoef="0" IVar="-1" Cut="0.0000000000000000e+00" cType="1" res="-9.7317626932635903e-04" rms="4.6924597024917603e-01" purity="3.4417161345481873e-01" nType="-99"/>
          <Node pos="r" depth="2" NCoef="0" IVar="-1" Cut="0.0000000000000000e+00" cType="1" res="-3.3233773428946733e-03" rms="3.4366968274116516e-01" purity="1.4172551035881042e-01" nType="-99"/>
        </Node>
        <Node pos="r" depth="1" NCoef="0" IVar="1" Cut="1.2980608940124512e+00" cType="1" res="6.0030154883861542e-02" rms="4.7320237755775452e-01" purity="5.8843046426773071e-01" nType="0">
          <Node pos="l" depth="2" NCoef="0" IVar="-1" Cut="0.0000000000000000e+00" cType="1" res="1.0776305571198463e-03" rms="4.6668177843093872e-01" purity="6.4989459514617920e-01" nType="-99"/>
          <Node pos="r" depth="2" NCoef="0" IVar="-1" Cut="0.0000000000000000e+00" cType="1" res="-1.3530395226553082e-03" rms="4.6958497166633606e-01" purity="3.3457326889038086e-01" nType="-99"/>
        </Node>
      </Node>
    </BinaryTree>
    <BinaryTree type="DecisionTree" boostWeight="1.0000000000000000e+00" itree="131">
      <Node pos="s" depth="0" NCoef="0" IVar="0" Cut="7.3921036720275879e+00" cType="1" res="1.0304138995707035e-02" rms="4.7091224789619446e-01" purity="5.0420969724655151e-01" nType="0">
        <Node pos="l" depth="1" NCoef="0" IVar="6" Cut="6.8661602783203125e+02" cType="1" res="-4.0411628782749176e-02" rms="4.7341370582580566e-01" purity="4.1305947303771973e-01" nType="0">
          <Node pos="l" depth="2" NCoef="0" IVar="-1" Cut="0.0000000000000000e+00" cType="1" res="-8.8603841140866280e-04" rms="4.6754717826843262e-01" purity="3.8015466928482056e-01" nType="-99"/>
          <Node pos="r" depth="2" NCoef="0" IVar="-1" Cut="0.0000000000000000e+00" cType="1" res="1.5029116766527295e-03" rms="4.7208839654922485e-01" purity="6.1125063896179199e-01" nType="-99"/>
        </Node>
        <Node pos="r" depth="1" NCoef="0" IVar="4" Cut="-5.3982622921466827e-02" cType="1" res="1.2088406085968018e-01" rms="4.4583833217620850e-01" purity="7.0295244455337524e-01" nType="0">
          <Node pos="l" depth="2" NCoef="0" IVar="-1" Cut="0.0000000000000000e+00" cType="1" res="2.5012050173245370e-04" rms="4.7677120566368103e-01" purity="5.9010910987854004e-01" nType="-99"/>
          <Node pos="r" depth="2" NCoef="0" IVar="-1" Cut="0.0000000000000000e+00" cType="1" res="1.7728377133607864e-03" rms="4.2088282108306885e-01" purity="7.5930929183959961e-01" nType="-99"/>
        </Node>
      </Node>
    </BinaryTree>
    <BinaryTree type="DecisionTree" boostWeight="1.0000000000000000e+00" itree="132">
      <Node pos="s" depth="0" NCoef="0" IVar="0" Cut="5.8946466445922852e+00" cType="1" res="3.9962637238204479e-03" rms="4.6930873394012451e-01" purity="4.9203249812126160e-01" nType="0">
        <Node pos="l" depth="1" NCoef="0" IVar="6" Cut="4.0265963745117188e+02" cType="1" res="-1.2038867175579071e-01" rms="4.3678867816925049e-01" purity="2.7725172042846680e-01" nType="0">
          <Node pos="l" depth="2" NCoef="0" IVar="-1" Cut="0.0000000000000000e+00" cType="1" res="-2.8901044279336929e-03" rms="3.8050347566604614e-01" purity="1.8435238301753998e-01" nType="-99"/>
          <Node pos="r" depth="2" NCoef="0" IVar="-1" Cut="0.0000000000000000e+00" cType="1" res="-7.3613238055258989e-04" rms="4.6776783466339111e-01" purity="3.5226947069168091e-01" nType="-99"/>
        </Node>
        <Node pos="r" depth="1" NCoef="0" IVar="1" Cut="1.0659971237182617e+00" cType="1" res="5.8184996247291565e-02" rms="4.7266384959220886e-01" purity="5.8560258150100708e-01" nType="0">
          <Node pos="l" depth="2" NCoef="0" IVar="-1" Cut="0.0000000000000000e+00" cType="1" res="1.2478606076911092e-03" rms="4.5799753069877625e-01" purity="6.7765378952026367e-01" nType="-99"/>
          <Node pos="r" depth="2" NCoef="0" IVar="-1" Cut="0.0000000000000000e+00" cType="1" res="-8.1883033271878958e-04" rms="4.7890213131904602e-01" purity="4.0052539110183716e-01" nType="-99"/>
        </Node>
      </Node>
    </BinaryTree>
    <BinaryTree type="DecisionTree" boostWeight="1.0000000000000000e+00" itree="133">
      <Node pos="s" depth="0" NCoef="0" IVar="0" Cut="6.9932942390441895e+00" cType="1" res="2.0933706313371658e-02" rms="4.6916952729225159e-01" purity="5.1346945762634277e-01" nType="0">
        <Node pos="l" depth="1" NCoef="0" IVar="1" Cut="1.4187337160110474e+00" cType="1" res="-4.4546615332365036e-02" rms="4.7213816642761230e-01" purity="3.8754266500473022e-01" nType="0">
          <Node pos="l" depth="2" NCoef="0" IVar="-1" Cut="0.0000000000000000e+00" cType="1" res="-1.8781969265546650e-04" rms="4.8664224147796631e-01" purity="4.3379446864128113e-01" nType="-99"/>
          <Node pos="r" depth="2" NCoef="0" IVar="-1" Cut="0.0000000000000000e+00" cType="1" res="-3.0750830192118883e-03" rms="3.6404454708099365e-01" purity="1.6487890481948853e-01" nType="-99"/>
        </Node>
        <Node pos="r" depth="1" NCoef="0" IVar="1" Cut="1.1227794885635376e+00" cType="1" res="1.1140425503253937e-01" rms="4.4961121678352356e-01" purity="6.8745559453964233e-01" nType="0">
          <Node pos="l" depth="2" NCoef="0" IVar="-1" Cut="0.0000000000000000e+00" cType="1" res="1.6599519876763225e-03" rms="4.2588302493095398e-01" purity="7.5997769832611084e-01" nType="-99"/>
          <Node pos="r" depth="2" NCoef="0" IVar="-1" Cut="0.0000000000000000e+00" cType="1" res="-2.5124513194896281e-04" rms="4.9010589718818665e-01" purity="4.7388401627540588e-01" nType="-99"/>
        </Node>
      </Node>
    </BinaryTree>
    <BinaryTree type="DecisionTree" boostWeight="1.0000000000000000e+00" itree="134">
      <Node pos="s" depth="0" NCoef="0" IVar="0" Cut="7.3331108093261719e+00" cType="1" res="6.9153662770986557e-03" rms="4.6954515576362610e-01" purity="4.9779734015464783e-01" nType="0">
        <Node pos="l" depth="1" NCoef="0" IVar="6" Cut="4.4022421264648438e+02" cType="1" res="-5.0164885818958282e-02" rms="4.7080904245376587e-01" purity="3.9815750718116760e-01" nType="0">
          <Node pos="l" depth="2" NCoef="0" IVar="-1" Cut="0.0000000000000000e+00" cType="1" res="-1.7250848468393087e-03" rms="4.4140055775642395e-01" purity="3.0502074956893921e-01" nType="-99"/>
          <Node pos="r" depth="2" NCoef="0" IVar="-1" Cut="0.0000000000000000e+00" cType="1" res="3.2482441747561097e-04" rms="4.8556095361709595e-01" purity="4.8888263106346130e-01" nType="-99"/>
        </Node>
        <Node pos="r" depth="1" NCoef="0" IVar="7" Cut="-4.3104435317218304e-03" cType="1" res="1.2485272437334061e-01" rms="4.4427010416984558e-01" purity="7.0366990566253662e-01" nType="0">
          <Node pos="l" depth="2" NCoef="0" IVar="-1" Cut="0.0000000000000000e+00" cType="1" res="2.0530105102807283e-03" rms="4.0095654129981995e-01" purity="7.8464436531066895e-01" nType="-99"/>
          <Node pos="r" depth="2" NCoef="0" IVar="-1" Cut="0.0000000000000000e+00" cType="1" res="7.2964461287483573e-04" rms="4.7099006175994873e-01" purity="6.3203513622283936e-01" nType="-99"/>
        </Node>
      </Node>
    </BinaryTree>
    <BinaryTree type="DecisionTree" boostWeight="1.0000000000000000e+00" itree="135">
      <Node pos="s" depth="0" NCoef="0" IVar="0" Cut="6.5540504455566406e+00" cType="1" res="-1.1523813940584660e-02" rms="4.6810773015022278e-01" purity="4.8148441314697266e-01" nType="0">
        <Node pos="l" depth="1" NCoef="0" IVar="4" Cut="-1.0062555968761444e-01" cType="1" res="-9.7996681928634644e-02" rms="4.5423853397369385e-01" purity="3.1988868117332458e-01" nType="0">
          <Node pos="l" depth="2" NCoef="0" IVar="-1" Cut="0.0000000000000000e+00" cType="1" res="-4.1547380387783051e-03" rms="3.3111906051635742e-01" purity="1.3118298351764679e-01" nType="-99"/>
          <Node pos="r" depth="2" NCoef="0" IVar="-1" Cut="0.0000000000000000e+00" cType="1" res="-8.3971017738804221e-04" rms="4.6707430481910706e-01" purity="3.5524827241897583e-01" nType="-99"/>
        </Node>
        <Node pos="r" depth="1" NCoef="0" IVar="1" Cut="8.7059420347213745e-01" cType="1" res="6.3124962151050568e-02" rms="4.6705499291419983e-01" purity="6.2098389863967896e-01" nType="0">
          <Node pos="l" depth="2" NCoef="0" IVar="-1" Cut="0.0000000000000000e+00" cType="1" res="1.4926758594810963e-03" rms="4.3414890766143799e-01" purity="7.3823451995849609e-01" nType="-99"/>
          <Node pos="r" depth="2" NCoef="0" IVar="-1" Cut="0.0000000000000000e+00" cType="1" res="-2.7939307619817555e-04" rms="4.8612815141677856e-01" purity="4.9382293224334717e-01" nType="-99"/>
        </Node>
      </Node>
    </BinaryTree>
    <BinaryTree type="DecisionTree" boostWeight="1.0000000000000000e+00" itree="136">
      <Node pos="s" depth="0" NCoef="0" IVar="0" Cut="5.8254976272583008e+00" cType="1" res="-3.4524122020229697e-04" rms="4.6919429302215576e-01" purity="4.9178838729858398e-01" nType="0">
        <Node pos="l" depth="1" NCoef="0" IVar="7" Cut="3.2057803124189377e-02" cType="1" res="-1.2625949084758759e-01" rms="4.3217021226882935e-01" purity="2.6892033219337463e-01" nType="0">
          <Node pos="l" depth="2" NCoef="0" IVar="-1" Cut="0.0000000000000000e+00" cType="1" res="-8.8147126371040940e-04" rms="4.6284249424934387e-01" purity="3.3496609330177307e-01" nType="-99"/>
          <Node pos="r" depth="2" NCoef="0" IVar="-1" Cut="0.0000000000000000e+00" cType="1" res="-3.1638087239116430e-03" rms="3.6882999539375305e-01" purity="1.7444951832294464e-01" nType="-99"/>
        </Node>
        <Node pos="r" depth="1" NCoef="0" IVar="1" Cut="1.3559174537658691e+00" cType="1" res="4.9032263457775116e-02" rms="4.7389322519302368e-01" purity="5.7918649911880493e-01" nType="0">
          <Node pos="l" depth="2" NCoef="0" IVar="-1" Cut="0.0000000000000000e+00" cType="1" res="8.9189736172556877e-04" rms="4.7114807367324829e-01" purity="6.3324719667434692e-01" nType="-99"/>
          <Node pos="r" depth="2" NCoef="0" IVar="-1" Cut="0.0000000000000000e+00" cType="1" res="-1.6683285357430577e-03" rms="4.5423728227615356e-01" purity="2.9853060841560364e-01" nType="-99"/>
        </Node>
      </Node>
    </BinaryTree>
    <BinaryTree type="DecisionTree" boostWeight="1.0000000000000000e+00" itree="137">
      <Node pos="s" depth="0" NCoef="0" IVar="0" Cut="7.2287745475769043e+00" cType="1" res="9.5483297482132912e-03" rms="4.6843624114990234e-01" purity="4.9871966242790222e-01" nType="0">
        <Node pos="l" depth="1" NCoef="0" IVar="6" Cut="4.3164144897460938e+02" cType="1" res="-5.1310643553733826e-02" rms="4.6994164586067200e-01" purity="3.8912257552146912e-01" nType="0">
          <Node pos="l" depth="2" NCoef="0" IVar="-1" Cut="0.0000000000000000e+00" cType="1" res="-1.6238811658695340e-03" rms="4.4171813130378723e-01" purity="3.0122712254524231e-01" nType="-99"/>
          <Node pos="r" depth="2" NCoef="0" IVar="-1" Cut="0.0000000000000000e+00" cType="1" res="1.7359474441036582e-04" rms="4.8570320010185242e-01" purity="4.7107586264610291e-01" nType="-99"/>
        </Node>
        <Node pos="r" depth="1" NCoef="0" IVar="1" Cut="1.2124187946319580e+00" cType="1" res="1.2486988306045532e-01" rms="4.4321361184120178e-01" purity="7.0639491081237793e-01" nType="0">
          <Node pos="l" depth="2" NCoef="0" IVar="-1" Cut="0.0000000000000000e+00" cType="1" res="1.6281737480312586e-03" rms="4.2407491803169250e-01" purity="7.6342880725860596e-01" nType="-99"/>
          <Node pos="r" depth="2" NCoef="0" IVar="-1" Cut="0.0000000000000000e+00" cType="1" res="1.1507433555379976e-05" rms="4.9422246217727661e-01" purity="4.7619941830635071e-01" nType="-99"/>
        </Node>
      </Node>
    </BinaryTree>
    <BinaryTree type="DecisionTree" boostWeight="1.0000000000000000e+00" itree="138">
      <Node pos="s" depth="0" NCoef="0" IVar="1" Cut="1.4274624586105347e+00" cType="1" res="1.6647862270474434e-02" rms="4.6992686390876770e-01" purity="5.0950628519058228e-01" nType="0">
        <Node pos="l" depth="1" NCoef="0" IVar="0" Cut="5.0599050521850586e+00" cType="1" res="4.9001395702362061e-02" rms="4.7380188107490540e-01" purity="5.6163257360458374e-01" nType="0">
          <Node pos="l" depth="2" NCoef="0" IVar="-1" Cut="0.0000000000000000e+00" cType="1" res="-2.5619366206228733e-03" rms="4.0733867883682251e-01" purity="2.0537374913692474e-01" nType="-99"/>
          <Node pos="r" depth="2" NCoef="0" IVar="-1" Cut="0.0000000000000000e+00" cType="1" res="7.9628202365711331e-04" rms="4.7411331534385681e-01" purity="5.9723633527755737e-01" nType="-99"/>
        </Node>
        <Node pos="r" depth="1" NCoef="0" IVar="3" Cut="8.0125000000000000e+01" cType="1" res="-1.6538722813129425e-01" rms="4.0153360366821289e-01" purity="2.1622124314308167e-01" nType="0">
          <Node pos="l" depth="2" NCoef="0" IVar="-1" Cut="0.0000000000000000e+00" cType="1" res="-4.4922670349478722e-03" rms="3.2750791311264038e-01" purity="1.3058374822139740e-01" nType="-99"/>
          <Node pos="r" depth="2" NCoef="0" IVar="-1" Cut="0.0000000000000000e+00" cType="1" res="-1.4276764122769237e-03" rms="4.4247752428054810e-01" purity="2.8870120644569397e-01" nType="-99"/>
        </Node>
      </Node>
    </BinaryTree>
    <BinaryTree type="DecisionTree" boostWeight="1.0000000000000000e+00" itree="139">
      <Node pos="s" depth="0" NCoef="0" IVar="0" Cut="7.5320725440979004e+00" cType="1" res="3.2132600899785757e-03" rms="4.6742495894432068e-01" purity="4.9232026934623718e-01" nType="0">
        <Node pos="l" depth="1" NCoef="0" IVar="6" Cut="6.6369366455078125e+02" cType="1" res="-5.6033369153738022e-02" rms="4.6860399842262268e-01" purity="3.9525267481803894e-01" nType="0">
          <Node pos="l" depth="2" NCoef="0" IVar="-1" Cut="0.0000000000000000e+00" cType="1" res="-1.0718565899878740e-03" rms="4.6066844463348389e-01" purity="3.6488828063011169e-01" nType="-99"/>
          <Node pos="r" depth="2" NCoef="0" IVar="-1" Cut="0.0000000000000000e+00" cType="1" res="1.2863187585026026e-03" rms="4.8342695832252502e-01" purity="5.8730810880661011e-01" nType="-99"/>
        </Node>
        <Node pos="r" depth="1" NCoef="0" IVar="1" Cut="1.1050128936767578e+00" cType="1" res="1.5394154191017151e-01" rms="4.2898634076118469e-01" purity="7.3926812410354614e-01" nType="0">
          <Node pos="l" depth="2" NCoef="0" IVar="-1" Cut="0.0000000000000000e+00" cType="1" res="1.9633183255791664e-03" rms="4.0039277076721191e-01" purity="7.9907703399658203e-01" nType="-99"/>
          <Node pos="r" depth="2" NCoef="0" IVar="-1" Cut="0.0000000000000000e+00" cType="1" res="7.3350750608369708e-04" rms="4.9103382229804993e-01" purity="5.6665158271789551e-01" nType="-99"/>
        </Node>
      </Node>
    </BinaryTree>
    <BinaryTree type="DecisionTree" boostWeight="1.0000000000000000e+00" itree="140">
      <Node pos="s" depth="0" NCoef="0" IVar="1" Cut="1.6632355451583862e+00" cType="1" res="-1.3916118768975139e-03" rms="4.7306269407272339e-01" purity="4.8652014136314392e-01" nType="0">
        <Node pos="l" depth="1" NCoef="0" IVar="0" Cut="7.5163497924804688e+00" cType="1" res="1.6582936048507690e-02" rms="4.7781080007553101e-01" purity="5.1306486129760742e-01" nType="0">
          <Node pos="l" depth="2" NCoef="0" IVar="-1" Cut="0.0000000000000000e+00" cType="1" res="-2.3728553787805140e-04" rms="4.8197770118713379e-01" purity="4.4190561771392822e-01" nType="-99"/>
          <Node pos="r" depth="2" NCoef="0" IVar="-1" Cut="0.0000000000000000e+00" cType="1" res="1.2608167016878724e-03" rms="4.5215514302253723e-01" purity="7.0672798156738281e-01" nType="-99"/>
        </Node>
        <Node pos="r" depth="1" NCoef="0" IVar="-1" Cut="0.0000000000000000e+00" cType="1" res="-4.8898882232606411e-03" rms="2.9462751746177673e-01" purity="1.0367209464311600e-01" nType="-99"/>
      </Node>
    </BinaryTree>
    <BinaryTree type="DecisionTree" boostWeight="1.0000000000000000e+00" itree="141">
      <Node pos="s" depth="0" NCoef="0" IVar="1" Cut="1.1039813756942749e+00" cType="1" res="2.3485019803047180e-02" rms="4.6953904628753662e-01" purity="5.1338064670562744e-01" nType="0">
        <Node pos="l" depth="1" NCoef="0" IVar="2" Cut="1.9871952819824219e+02" cType="1" res="7.3977470397949219e-02" rms="4.6920928359031677e-01" purity="6.0030454397201538e-01" nType="0">
          <Node pos="l" depth="2" NCoef="0" IVar="-1" Cut="0.0000000000000000e+00" cType="1" res="-2.9950038879178464e-04" rms="4.7895911335945129e-01" purity="4.8554739356040955e-01" nType="-99"/>
          <Node pos="r" depth="2" NCoef="0" IVar="-1" Cut="0.0000000000000000e+00" cType="1" res="1.7977721290662885e-03" rms="4.3822538852691650e-01" purity="7.1247082948684692e-01" nType="-99"/>
        </Node>
        <Node pos="r" depth="1" NCoef="0" IVar="1" Cut="1.7524144649505615e+00" cType="1" res="-7.7840819954872131e-02" rms="4.5354714989662170e-01" purity="3.3894592523574829e-01" nType="0">
          <Node pos="l" depth="2" NCoef="0" IVar="-1" Cut="0.0000000000000000e+00" cType="1" res="-6.3502654666081071e-04" rms="4.6741926670074463e-01" purity="3.7844029068946838e-01" nType="-99"/>
          <Node pos="r" depth="2" NCoef="0" IVar="-1" Cut="0.0000000000000000e+00" cType="1" res="-4.3975897133350372e-03" rms="3.1738552451133728e-01" purity="1.1921729147434235e-01" nType="-99"/>
        </Node>
      </Node>
    </BinaryTree>
    <BinaryTree type="DecisionTree" boostWeight="1.0000000000000000e+00" itree="142">
      <Node pos="s" depth="0" NCoef="0" IVar="0" Cut="6.0598320960998535e+00" cType="1" res="1.9265515729784966e-02" rms="4.7011840343475342e-01" purity="5.1124292612075806e-01" nType="0">
        <Node pos="l" depth="1" NCoef="0" IVar="6" Cut="3.4688940429687500e+02" cType="1" res="-9.0689636766910553e-02" rms="4.5262292027473450e-01" purity="3.1042587757110596e-01" nType="0">
          <Node pos="l" depth="2" NCoef="0" IVar="-1" Cut="0.0000000000000000e+00" cType="1" res="-3.1231073662638664e-03" rms="3.6616742610931396e-01" purity="1.6489343345165253e-01" nType="-99"/>
          <Node pos="r" depth="2" NCoef="0" IVar="-1" Cut="0.0000000000000000e+00" cType="1" res="-7.7147636329755187e-04" rms="4.6694955229759216e-01" purity="3.4727042913436890e-01" nType="-99"/>
        </Node>
        <Node pos="r" depth="1" NCoef="0" IVar="1" Cut="1.4214237928390503e+00" cType="1" res="7.3242664337158203e-02" rms="4.6913510560989380e-01" purity="6.0982429981231689e-01" nType="0">
          <Node pos="l" depth="2" NCoef="0" IVar="-1" Cut="0.0000000000000000e+00" cType="1" res="1.0897754691541195e-03" rms="4.6501839160919189e-01" purity="6.5613573789596558e-01" nType="-99"/>
          <Node pos="r" depth="2" NCoef="0" IVar="-1" Cut="0.0000000000000000e+00" cType="1" res="-1.3237314997240901e-03" rms="4.6309131383895874e-01" purity="3.1768435239791870e-01" nType="-99"/>
        </Node>
      </Node>
    </BinaryTree>
    <BinaryTree type="DecisionTree" boostWeight="1.0000000000000000e+00" itree="143">
      <Node pos="s" depth="0" NCoef="0" IVar="0" Cut="6.5376625061035156e+00" cType="1" res="7.2540584951639175e-03" rms="4.6949443221092224e-01" purity="4.9683150649070740e-01" nType="0">
        <Node pos="l" depth="1" NCoef="0" IVar="6" Cut="4.4022421264648438e+02" cType="1" res="-6.8899735808372498e-02" rms="4.6204450726509094e-01" purity="3.4331864118576050e-01" nType="0">
          <Node pos="l" depth="2" NCoef="0" IVar="-1" Cut="0.0000000000000000e+00" cType="1" res="-1.7895300406962633e-03" rms="4.3378961086273193e-01" purity="2.6530119776725769e-01" nType="-99"/>
          <Node pos="r" depth="2" NCoef="0" IVar="-1" Cut="0.0000000000000000e+00" cType="1" res="2.1316947822924703e-05" rms="4.8338630795478821e-01" purity="4.3408995866775513e-01" nType="-99"/>
        </Node>
        <Node pos="r" depth="1" NCoef="0" IVar="1" Cut="9.4350087642669678e-01" cType="1" res="7.3513269424438477e-02" rms="4.6586164832115173e-01" purity="6.3039869070053101e-01" nType="0">
          <Node pos="l" depth="2" NCoef="0" IVar="-1" Cut="0.0000000000000000e+00" cType="1" res="1.4552990905940533e-03" rms="4.3873453140258789e-01" purity="7.3346060514450073e-01" nType="-99"/>
          <Node pos="r" depth="2" NCoef="0" IVar="-1" Cut="0.0000000000000000e+00" cType="1" res="-4.4004900701111183e-05" rms="4.8526486754417419e-01" purity="5.0704884529113770e-01" nType="-99"/>
        </Node>
      </Node>
    </BinaryTree>
    <BinaryTree type="DecisionTree" boostWeight="1.0000000000000000e+00" itree="144">
      <Node pos="s" depth="0" NCoef="0" IVar="0" Cut="7.0602812767028809e+00" cType="1" res="1.7327880486845970e-03" rms="4.6651247143745422e-01" purity="4.9197116494178772e-01" nType="0">
        <Node pos="l" depth="1" NCoef="0" IVar="1" Cut="1.0274784564971924e+00" cType="1" res="-6.4797274768352509e-02" rms="4.6434360742568970e-01" purity="3.6925250291824341e-01" nType="0">
          <Node pos="l" depth="2" NCoef="0" IVar="-1" Cut="0.0000000000000000e+00" cType="1" res="1.9454068024060689e-05" rms="4.8758819699287415e-01" purity="4.6801257133483887e-01" nType="-99"/>
          <Node pos="r" depth="2" NCoef="0" IVar="-1" Cut="0.0000000000000000e+00" cType="1" res="-2.3097610101103783e-03" rms="4.1460502147674561e-01" purity="2.3635122179985046e-01" nType="-99"/>
        </Node>
        <Node pos="r" depth="1" NCoef="0" IVar="4" Cut="1.2365625798702240e-01" cType="1" res="1.0744192451238632e-01" rms="4.5014932751655579e-01" purity="6.8695795536041260e-01" nType="0">
          <Node pos="l" depth="2" NCoef="0" IVar="-1" Cut="0.0000000000000000e+00" cType="1" res="7.3861243436113000e-04" rms="4.6651408076286316e-01" purity="6.3634634017944336e-01" nType="-99"/>
          <Node pos="r" depth="2" NCoef="0" IVar="-1" Cut="0.0000000000000000e+00" cType="1" res="2.3398194462060928e-03" rms="3.6702844500541687e-01" purity="8.3937478065490723e-01" nType="-99"/>
        </Node>
      </Node>
    </BinaryTree>
    <BinaryTree type="DecisionTree" boostWeight="1.0000000000000000e+00" itree="145">
      <Node pos="s" depth="0" NCoef="0" IVar="0" Cut="5.7946062088012695e+00" cType="1" res="-4.2765662074089050e-03" rms="4.6741202473640442e-01" purity="4.8439317941665649e-01" nType="0">
        <Node pos="l" depth="1" NCoef="0" IVar="0" Cut="5.0964679718017578e+00" cType="1" res="-1.2625198066234589e-01" rms="4.2934855818748474e-01" purity="2.6423001289367676e-01" nType="0">
          <Node pos="l" depth="2" NCoef="0" IVar="-1" Cut="0.0000000000000000e+00" cType="1" res="-3.1340511050075293e-03" rms="3.6438497900962830e-01" purity="1.6085427999496460e-01" nType="-99"/>
          <Node pos="r" depth="2" NCoef="0" IVar="-1" Cut="0.0000000000000000e+00" cType="1" res="-1.0050029959529638e-03" rms="4.5930233597755432e-01" purity="3.3007252216339111e-01" nType="-99"/>
        </Node>
        <Node pos="r" depth="1" NCoef="0" IVar="1" Cut="1.1963294744491577e+00" cType="1" res="4.5226249843835831e-02" rms="4.7311550378799438e-01" purity="5.7374471426010132e-01" nType="0">
          <Node pos="l" depth="2" NCoef="0" IVar="-1" Cut="0.0000000000000000e+00" cType="1" res="9.2584447702392936e-04" rms="4.6805772185325623e-01" purity="6.4005833864212036e-01" nType="-99"/>
          <Node pos="r" depth="2" NCoef="0" IVar="-1" Cut="0.0000000000000000e+00" cType="1" res="-1.2816343223676085e-03" rms="4.6534776687622070e-01" purity="3.4245961904525757e-01" nType="-99"/>
        </Node>
      </Node>
    </BinaryTree>
    <BinaryTree type="DecisionTree" boostWeight="1.0000000000000000e+00" itree="146">
      <Node pos="s" depth="0" NCoef="0" IVar="0" Cut="7.3921036720275879e+00" cType="1" res="7.3757572099566460e-03" rms="4.6727955341339111e-01" purity="4.9590662121772766e-01" nType="0">
        <Node pos="l" depth="1" NCoef="0" IVar="3" Cut="1.0465370178222656e+02" cType="1" res="-4.1621118783950806e-02" rms="4.7056829929351807e-01" purity="4.0508797764778137e-01" nType="0">
          <Node pos="l" depth="2" NCoef="0" IVar="-1" Cut="0.0000000000000000e+00" cType="1" res="-1.0575575288385153e-03" rms="4.6112862229347229e-01" purity="3.6360588669776917e-01" nType="-99"/>
          <Node pos="r" depth="2" NCoef="0" IVar="-1" Cut="0.0000000000000000e+00" cType="1" res="1.0365296620875597e-03" rms="4.7707056999206543e-01" purity="5.3796112537384033e-01" nType="-99"/>
        </Node>
        <Node pos="r" depth="1" NCoef="0" IVar="1" Cut="1.2510300874710083e+00" cType="1" res="1.2150730937719345e-01" rms="4.3880242109298706e-01" purity="7.0745640993118286e-01" nType="0">
          <Node pos="l" depth="2" NCoef="0" IVar="-1" Cut="0.0000000000000000e+00" cType="1" res="1.6926208045333624e-03" rms="4.1856315732002258e-01" purity="7.7176690101623535e-01" nType="-99"/>
          <Node pos="r" depth="2" NCoef="0" IVar="-1" Cut="0.0000000000000000e+00" cType="1" res="-4.4009080738760531e-04" rms="4.8359069228172302e-01" purity="4.4412827491760254e-01" nType="-99"/>
        </Node>
      </Node>
    </BinaryTree>
    <BinaryTree type="DecisionTree" boostWeight="1.0000000000000000e+00" itree="147">
      <Node pos="s" depth="0" NCoef="0" IVar="0" Cut="7.0310177803039551e+00" cType="1" res="4.5908759348094463e-03" rms="4.7091421484947205e-01" purity="4.9369856715202332e-01" nType="0">
        <Node pos="l" depth="1" NCoef="0" IVar="3" Cut="1.2880239868164062e+02" cType="1" res="-5.4465647786855698e-02" rms="4.6900621056556702e-01" purity="3.7478816509246826e-01" nType="0">
          <Node pos="l" depth="2" NCoef="0" IVar="-1" Cut="0.0000000000000000e+00" cType="1" res="-9.9662190768867731e-04" rms="4.6285697817802429e-01" purity="3.5137149691581726e-01" nType="-99"/>
          <Node pos="r" depth="2" NCoef="0" IVar="-1" Cut="0.0000000000000000e+00" cType="1" res="1.2148559326305985e-03" rms="4.8145017027854919e-01" purity="5.3909254074096680e-01" nType="-99"/>
        </Node>
        <Node pos="r" depth="1" NCoef="0" IVar="0" Cut="8.2304639816284180e+00" cType="1" res="9.2468015849590302e-02" rms="4.5990937948226929e-01" purity="6.7063933610916138e-01" nType="0">
          <Node pos="l" depth="2" NCoef="0" IVar="-1" Cut="0.0000000000000000e+00" cType="1" res="4.9654924077913165e-04" rms="4.7715151309967041e-01" purity="6.1378151178359985e-01" nType="-99"/>
          <Node pos="r" depth="2" NCoef="0" IVar="-1" Cut="0.0000000000000000e+00" cType="1" res="1.7954021459445357e-03" rms="4.2349407076835632e-01" purity="7.5300586223602295e-01" nType="-99"/>
        </Node>
      </Node>
    </BinaryTree>
    <BinaryTree type="DecisionTree" boostWeight="1.0000000000000000e+00" itree="148">
      <Node pos="s" depth="0" NCoef="0" IVar="0" Cut="5.9110698699951172e+00" cType="1" res="1.1284186504781246e-02" rms="4.7023591399192810e-01" purity="5.0180035829544067e-01" nType="0">
        <Node pos="l" depth="1" NCoef="0" IVar="1" Cut="6.7821973562240601e-01" cType="1" res="-1.0145253688097000e-01" rms="4.4013127684593201e-01" purity="2.9311874508857727e-01" nType="0">
          <Node pos="l" depth="2" NCoef="0" IVar="-1" Cut="0.0000000000000000e+00" cType="1" res="3.9941785507835448e-04" rms="4.9222418665885925e-01" purity="4.5684558153152466e-01" nType="-99"/>
          <Node pos="r" depth="2" NCoef="0" IVar="-1" Cut="0.0000000000000000e+00" cType="1" res="-2.1860385313630104e-03" rms="4.0845388174057007e-01" purity="2.3308719694614410e-01" nType="-99"/>
        </Node>
        <Node pos="r" depth="1" NCoef="0" IVar="1" Cut="1.3408473730087280e+00" cType="1" res="5.7040963321924210e-02" rms="4.7433438897132874e-01" purity="5.8649855852127075e-01" nType="0">
          <Node pos="l" depth="2" NCoef="0" IVar="-1" Cut="0.0000000000000000e+00" cType="1" res="9.2785479500889778e-04" rms="4.7083374857902527e-01" purity="6.3969647884368896e-01" nType="-99"/>
          <Node pos="r" depth="2" NCoef="0" IVar="-1" Cut="0.0000000000000000e+00" cType="1" res="-8.9035218115895987e-04" rms="4.7140142321586609e-01" purity="3.4906697273254395e-01" nType="-99"/>
        </Node>
      </Node>
    </BinaryTree>
    <BinaryTree type="DecisionTree" boostWeight="1.0000000000000000e+00" itree="149">
      <Node pos="s" depth="0" NCoef="0" IVar="0" Cut="6.7009463310241699e+00" cType="1" res="1.2999555096030235e-02" rms="4.6656855940818787e-01" purity="5.0565934181213379e-01" nType="0">
        <Node pos="l" depth="1" NCoef="0" IVar="0" Cut="4.9483809471130371e+00" cType="1" res="-6.5676271915435791e-02" rms="4.6489018201828003e-01" purity="3.5363119840621948e-01" nType="0">
          <Node pos="l" depth="2" NCoef="0" IVar="-1" Cut="0.0000000000000000e+00" cType="1" res="-3.6076710093766451e-03" rms="3.3302849531173706e-01" purity="1.3083878159523010e-01" nType="-99"/>
          <Node pos="r" depth="2" NCoef="0" IVar="-1" Cut="0.0000000000000000e+00" cType="1" res="-5.0196162192150950e-04" rms="4.7789573669433594e-01" purity="3.8983944058418274e-01" nType="-99"/>
        </Node>
        <Node pos="r" depth="1" NCoef="0" IVar="1" Cut="1.0703278779983521e+00" cType="1" res="9.4865225255489349e-02" rms="4.5405960083007812e-01" purity="6.6385126113891602e-01" nType="0">
          <Node pos="l" depth="2" NCoef="0" IVar="-1" Cut="0.0000000000000000e+00" cType="1" res="1.5865620225667953e-03" rms="4.2874708771705627e-01" purity="7.5352150201797485e-01" nType="-99"/>
          <Node pos="r" depth="2" NCoef="0" IVar="-1" Cut="0.0000000000000000e+00" cType="1" res="-3.5805348306894302e-04" rms="4.8423355817794800e-01" purity="4.6278625726699829e-01" nType="-99"/>
        </Node>
      </Node>
    </BinaryTree>
    <BinaryTree type="DecisionTree" boostWeight="1.0000000000000000e+00" itree="150">
      <Node pos="s" depth="0" NCoef="0" IVar="0" Cut="6.8714146614074707e+00" cType="1" res="5.1254988647997379e-03" rms="4.6638512611389160e-01" purity="4.9125346541404724e-01" nType="0">
        <Node pos="l" depth="1" NCoef="0" IVar="0" Cut="4.8116149902343750e+00" cType="1" res="-6.1223026365041733e-02" rms="4.6469056606292725e-01" purity="3.5897901654243469e-01" nType="0">
          <Node pos="l" depth="2" NCoef="0" IVar="-1" Cut="0.0000000000000000e+00" cType="1" res="-3.8790004327893257e-03" rms="3.1311011314392090e-01" purity="1.1569044739007950e-01" nType="-99"/>
          <Node pos="r" depth="2" NCoef="0" IVar="-1" Cut="0.0000000000000000e+00" cType="1" res="-4.8216269351541996e-04" rms="4.7629109025001526e-01" purity="3.9109379053115845e-01" nType="-99"/>
        </Node>
        <Node pos="r" depth="1" NCoef="0" IVar="1" Cut="1.2458609342575073e+00" cType="1" res="9.3964122235774994e-02" rms="4.5369708538055420e-01" purity="6.6836482286453247e-01" nType="0">
          <Node pos="l" depth="2" NCoef="0" IVar="-1" Cut="0.0000000000000000e+00" cType="1" res="1.4514139620587230e-03" rms="4.3671050667762756e-01" purity="7.3808372020721436e-01" nType="-99"/>
          <Node pos="r" depth="2" NCoef="0" IVar="-1" Cut="0.0000000000000000e+00" cType="1" res="-7.8841421054676175e-04" rms="4.8500752449035645e-01" purity="4.0056166052818298e-01" nType="-99"/>
        </Node>
      </Node>
    </BinaryTree>
    <BinaryTree type="DecisionTree" boostWeight="1.0000000000000000e+00" itree="151">
      <Node pos="s" depth="0" NCoef="0" IVar="0" Cut="6.6996121406555176e+00" cType="1" res="1.5582474879920483e-02" rms="4.7140246629714966e-01" purity="5.0382626056671143e-01" nType="0">
        <Node pos="l" depth="1" NCoef="0" IVar="3" Cut="9.2979499816894531e+01" cType="1" res="-4.9251679331064224e-02" rms="4.7068694233894348e-01" purity="3.6609601974487305e-01" nType="0">
          <Node pos="l" depth="2" NCoef="0" IVar="-1" Cut="0.0000000000000000e+00" cType="1" res="-1.1636458802968264e-03" rms="4.6119394898414612e-01" purity="3.2564789056777954e-01" nType="-99"/>
          <Node pos="r" depth="2" NCoef="0" IVar="-1" Cut="0.0000000000000000e+00" cType="1" res="4.4254388194531202e-04" rms="4.8022219538688660e-01" purity="4.5519775152206421e-01" nType="-99"/>
        </Node>
        <Node pos="r" depth="1" NCoef="0" IVar="1" Cut="1.3031841516494751e+00" cType="1" res="8.6852148175239563e-02" rms="4.6180212497711182e-01" purity="6.5522783994674683e-01" nType="0">
          <Node pos="l" depth="2" NCoef="0" IVar="-1" Cut="0.0000000000000000e+00" cType="1" res="1.2238662457093596e-03" rms="4.5129603147506714e-01" purity="7.0982480049133301e-01" nType="-99"/>
          <Node pos="r" depth="2" NCoef="0" IVar="-1" Cut="0.0000000000000000e+00" cType="1" res="-4.9336341908201575e-04" rms="4.8758322000503540e-01" purity="4.1032731533050537e-01" nType="-99"/>
        </Node>
      </Node>
    </BinaryTree>
    <BinaryTree type="DecisionTree" boostWeight="1.0000000000000000e+00" itree="152">
      <Node pos="s" depth="0" NCoef="0" IVar="0" Cut="5.8056807518005371e+00" cType="1" res="3.2139830291271210e-03" rms="4.7077238559722900e-01" purity="4.9535074830055237e-01" nType="0">
        <Node pos="l" depth="1" NCoef="0" IVar="7" Cut="8.3917233860120177e-04" cType="1" res="-1.1289902776479721e-01" rms="4.3462410569190979e-01" purity="2.7421352267265320e-01" nType="0">
          <Node pos="l" depth="2" NCoef="0" IVar="-1" Cut="0.0000000000000000e+00" cType="1" res="-4.1228882037103176e-04" rms="4.7132062911987305e-01" purity="3.6343973875045776e-01" nType="-99"/>
          <Node pos="r" depth="2" NCoef="0" IVar="-1" Cut="0.0000000000000000e+00" cType="1" res="-2.8430731035768986e-03" rms="3.8601276278495789e-01" purity="1.9579096138477325e-01" nType="-99"/>
        </Node>
        <Node pos="r" depth="1" NCoef="0" IVar="7" Cut="5.6418728083372116e-02" cType="1" res="4.5448224991559982e-02" rms="4.7628083825111389e-01" purity="5.7578587532043457e-01" nType="0">
          <Node pos="l" depth="2" NCoef="0" IVar="-1" Cut="0.0000000000000000e+00" cType="1" res="9.3801651382818818e-04" rms="4.6692183613777161e-01" purity="6.2289488315582275e-01" nType="-99"/>
          <Node pos="r" depth="2" NCoef="0" IVar="-1" Cut="0.0000000000000000e+00" cType="1" res="-5.9837591834366322e-04" rms="4.8599246144294739e-01" purity="4.6154391765594482e-01" nType="-99"/>
        </Node>
      </Node>
    </BinaryTree>
    <BinaryTree type="DecisionTree" boostWeight="1.0000000000000000e+00" itree="153">
      <Node pos="s" depth="0" NCoef="0" IVar="1" Cut="9.9155014753341675e-01" cType="1" res="1.0010804049670696e-02" rms="4.6757772564888000e-01" purity="5.0040668249130249e-01" nType="0">
        <Node pos="l" depth="1" NCoef="0" IVar="2" Cut="1.8367970275878906e+02" cType="1" res="7.6059535145759583e-02" rms="4.6563455462455750e-01" purity="6.0606718063354492e-01" nType="0">
          <Node pos="l" depth="2" NCoef="0" IVar="-1" Cut="0.0000000000000000e+00" cType="1" res="-1.3730961654800922e-04" rms="4.7709548473358154e-01" purity="5.0097024440765381e-01" nType="-99"/>
          <Node pos="r" depth="2" NCoef="0" IVar="-1" Cut="0.0000000000000000e+00" cType="1" res="1.6515168827027082e-03" rms="4.4096383452415466e-01" purity="6.9854038953781128e-01" nType="-99"/>
        </Node>
        <Node pos="r" depth="1" NCoef="0" IVar="3" Cut="8.3625869750976562e+01" cType="1" res="-8.0506913363933563e-02" rms="4.5490887761116028e-01" purity="3.5560214519500732e-01" nType="0">
          <Node pos="l" depth="2" NCoef="0" IVar="-1" Cut="0.0000000000000000e+00" cType="1" res="-2.3274675477296114e-03" rms="4.2597535252571106e-01" purity="2.7476024627685547e-01" nType="-99"/>
          <Node pos="r" depth="2" NCoef="0" IVar="-1" Cut="0.0000000000000000e+00" cType="1" res="-1.1134905071230605e-04" rms="4.7063639760017395e-01" purity="4.3477168679237366e-01" nType="-99"/>
        </Node>
      </Node>
    </BinaryTree>
    <BinaryTree type="DecisionTree" boostWeight="1.0000000000000000e+00" itree="154">
      <Node pos="s" depth="0" NCoef="0" IVar="1" Cut="1.5160460472106934e+00" cType="1" res="1.0856458917260170e-02" rms="4.7146797180175781e-01" purity="5.0022453069686890e-01" nType="0">
        <Node pos="l" depth="1" NCoef="0" IVar="0" Cut="7.7113842964172363e+00" cType="1" res="3.4377243369817734e-02" rms="4.7628581523895264e-01" purity="5.4040664434432983e-01" nType="0">
          <Node pos="l" depth="2" NCoef="0" IVar="-1" Cut="0.0000000000000000e+00" cType="1" res="1.1578867088246625e-05" rms="4.8424357175827026e-01" purity="4.7454544901847839e-01" nType="-99"/>
          <Node pos="r" depth="2" NCoef="0" IVar="-1" Cut="0.0000000000000000e+00" cType="1" res="1.4542853459715843e-03" rms="4.3689593672752380e-01" purity="7.3648440837860107e-01" nType="-99"/>
        </Node>
        <Node pos="r" depth="1" NCoef="0" IVar="7" Cut="6.5719708800315857e-02" cType="1" res="-1.6699546575546265e-01" rms="3.8979586958885193e-01" purity="1.9638830423355103e-01" nType="0">
          <Node pos="l" depth="2" NCoef="0" IVar="-1" Cut="0.0000000000000000e+00" cType="1" res="-1.3731315266340971e-03" rms="4.4482067227363586e-01" purity="2.8326088190078735e-01" nType="-99"/>
          <Node pos="r" depth="2" NCoef="0" IVar="-1" Cut="0.0000000000000000e+00" cType="1" res="-4.3097781017422676e-03" rms="3.1630682945251465e-01" purity="1.1767750233411789e-01" nType="-99"/>
        </Node>
      </Node>
    </BinaryTree>
    <BinaryTree type="DecisionTree" boostWeight="1.0000000000000000e+00" itree="155">
      <Node pos="s" depth="0" NCoef="0" IVar="0" Cut="7.9154963493347168e+00" cType="1" res="9.8896343261003494e-03" rms="4.6747261285781860e-01" purity="4.9828723073005676e-01" nType="0">
        <Node pos="l" depth="1" NCoef="0" IVar="1" Cut="1.0610340833663940e+00" cType="1" res="-3.0686253681778908e-02" rms="4.7085744142532349e-01" purity="4.3134763836860657e-01" nType="0">
          <Node pos="l" depth="2" NCoef="0" IVar="-1" Cut="0.0000000000000000e+00" cType="1" res="3.2316969009116292e-04" rms="4.8464471101760864e-01" purity="5.2719342708587646e-01" nType="-99"/>
          <Node pos="r" depth="2" NCoef="0" IVar="-1" Cut="0.0000000000000000e+00" cType="1" res="-1.8651772988960147e-03" rms="4.3031680583953857e-01" purity="2.7456775307655334e-01" nType="-99"/>
        </Node>
        <Node pos="r" depth="1" NCoef="0" IVar="4" Cut="4.8634572885930538e-03" cType="1" res="1.5847913920879364e-01" rms="4.2283773422241211e-01" purity="7.4342095851898193e-01" nType="0">
          <Node pos="l" depth="2" NCoef="0" IVar="-1" Cut="0.0000000000000000e+00" cType="1" res="8.0356665421277285e-04" rms="4.5645689964294434e-01" purity="6.3980287313461304e-01" nType="-99"/>
          <Node pos="r" depth="2" NCoef="0" IVar="-1" Cut="0.0000000000000000e+00" cType="1" res="2.3821480572223663e-03" rms="3.7739881873130798e-01" purity="8.2896721363067627e-01" nType="-99"/>
        </Node>
      </Node>
    </BinaryTree>
    <BinaryTree type="DecisionTree" boostWeight="1.0000000000000000e+00" itree="156">
      <Node pos="s" depth="0" NCoef="0" IVar="0" Cut="5.8254976272583008e+00" cType="1" res="2.9177801683545113e-02" rms="4.6867275238037109e-01" purity="5.1910185813903809e-01" nType="0">
        <Node pos="l" depth="1" NCoef="0" IVar="6" Cut="5.4016766357421875e+02" cType="1" res="-9.1842502355575562e-02" rms="4.4398471713066101e-01" purity="2.9438772797584534e-01" nType="0">
          <Node pos="l" depth="2" NCoef="0" IVar="-1" Cut="0.0000000000000000e+00" cType="1" res="-1.9359248690307140e-03" rms="4.1743060946464539e-01" purity="2.3998673260211945e-01" nType="-99"/>
          <Node pos="r" depth="2" NCoef="0" IVar="-1" Cut="0.0000000000000000e+00" cType="1" res="7.2400091448798776e-04" rms="4.9234125018119812e-01" purity="4.7160622477531433e-01" nType="-99"/>
        </Node>
        <Node pos="r" depth="1" NCoef="0" IVar="1" Cut="1.5543994903564453e+00" cType="1" res="7.5963631272315979e-02" rms="4.6958902478218079e-01" purity="6.0597515106201172e-01" nType="0">
          <Node pos="l" depth="2" NCoef="0" IVar="-1" Cut="0.0000000000000000e+00" cType="1" res="1.0698029072955251e-03" rms="4.6843868494033813e-01" purity="6.4032429456710815e-01" nType="-99"/>
          <Node pos="r" depth="2" NCoef="0" IVar="-1" Cut="0.0000000000000000e+00" cType="1" res="-2.6777379680424929e-03" rms="4.1421523690223694e-01" purity="2.2761724889278412e-01" nType="-99"/>
        </Node>
      </Node>
    </BinaryTree>
    <BinaryTree type="DecisionTree" boostWeight="1.0000000000000000e+00" itree="157">
      <Node pos="s" depth="0" NCoef="0" IVar="0" Cut="7.0543541908264160e+00" cType="1" res="3.1648133881390095e-03" rms="4.6649008989334106e-01" purity="4.9164992570877075e-01" nType="0">
        <Node pos="l" depth="1" NCoef="0" IVar="1" Cut="9.7647112607955933e-01" cType="1" res="-5.7870332151651382e-02" rms="4.6461504697799683e-01" purity="3.6899596452713013e-01" nType="0">
          <Node pos="l" depth="2" NCoef="0" IVar="-1" Cut="0.0000000000000000e+00" cType="1" res="7.9364392149727792e-05" rms="4.8958066105842590e-01" purity="4.6775737404823303e-01" nType="-99"/>
          <Node pos="r" depth="2" NCoef="0" IVar="-1" Cut="0.0000000000000000e+00" cType="1" res="-2.0236005075275898e-03" rms="4.2033109068870544e-01" purity="2.5168555974960327e-01" nType="-99"/>
        </Node>
        <Node pos="r" depth="1" NCoef="0" IVar="7" Cut="5.5602837353944778e-02" cType="1" res="9.9602945148944855e-02" rms="4.5297363400459290e-01" purity="6.8544834852218628e-01" nType="0">
          <Node pos="l" depth="2" NCoef="0" IVar="-1" Cut="0.0000000000000000e+00" cType="1" res="1.4729117974638939e-03" rms="4.3584582209587097e-01" purity="7.3056805133819580e-01" nType="-99"/>
          <Node pos="r" depth="2" NCoef="0" IVar="-1" Cut="0.0000000000000000e+00" cType="1" res="1.8165167421102524e-04" rms="4.8038405179977417e-01" purity="5.7934665679931641e-01" nType="-99"/>
        </Node>
      </Node>
    </BinaryTree>
    <BinaryTree type="DecisionTree" boostWeight="1.0000000000000000e+00" itree="158">
      <Node pos="s" depth="0" NCoef="0" IVar="1" Cut="1.5190695524215698e+00" cType="1" res="1.1505831032991409e-02" rms="4.6467053890228271e-01" purity="5.0142139196395874e-01" nType="0">
        <Node pos="l" depth="1" NCoef="0" IVar="0" Cut="7.2858877182006836e+00" cType="1" res="4.1819643229246140e-02" rms="4.7029849886894226e-01" purity="5.4774194955825806e-01" nType="0">
          <Node pos="l" depth="2" NCoef="0" IVar="-1" Cut="0.0000000000000000e+00" cType="1" res="-1.4657434076070786e-04" rms="4.8215249180793762e-01" purity="4.3861305713653564e-01" nType="-99"/>
          <Node pos="r" depth="2" NCoef="0" IVar="-1" Cut="0.0000000000000000e+00" cType="1" res="1.4901707181707025e-03" rms="4.3234723806381226e-01" purity="7.4130231142044067e-01" nType="-99"/>
        </Node>
        <Node pos="r" depth="1" NCoef="0" IVar="5" Cut="8.8916915655136108e-01" cType="1" res="-2.2376394271850586e-01" rms="3.3555313944816589e-01" purity="1.4192172884941101e-01" nType="0">
          <Node pos="l" depth="2" NCoef="0" IVar="-1" Cut="0.0000000000000000e+00" cType="1" res="-4.9741831608116627e-03" rms="2.7857017517089844e-01" purity="9.4056390225887299e-02" nType="-99"/>
          <Node pos="r" depth="2" NCoef="0" IVar="-1" Cut="0.0000000000000000e+00" cType="1" res="-3.1134004238992929e-03" rms="3.7457603216171265e-01" purity="1.8501652777194977e-01" nType="-99"/>
        </Node>
      </Node>
    </BinaryTree>
    <BinaryTree type="DecisionTree" boostWeight="1.0000000000000000e+00" itree="159">
      <Node pos="s" depth="0" NCoef="0" IVar="0" Cut="7.0281844139099121e+00" cType="1" res="1.0504473932087421e-02" rms="4.6381995081901550e-01" purity="5.0123763084411621e-01" nType="0">
        <Node pos="l" depth="1" NCoef="0" IVar="1" Cut="1.5190695524215698e+00" cType="1" res="-5.8094549924135208e-02" rms="4.6410837769508362e-01" purity="3.6873009800910950e-01" nType="0">
          <Node pos="l" depth="2" NCoef="0" IVar="-1" Cut="0.0000000000000000e+00" cType="1" res="-3.5821952042169869e-04" rms="4.8049134016036987e-01" purity="4.1176477074623108e-01" nType="-99"/>
          <Node pos="r" depth="2" NCoef="0" IVar="-1" Cut="0.0000000000000000e+00" cType="1" res="-5.1685292273759842e-03" rms="2.2926941514015198e-01" purity="5.6440457701683044e-02" nType="-99"/>
        </Node>
        <Node pos="r" depth="1" NCoef="0" IVar="1" Cut="9.8505949974060059e-01" cType="1" res="1.1089892685413361e-01" rms="4.4471481442451477e-01" purity="6.9516193866729736e-01" nType="0">
          <Node pos="l" depth="2" NCoef="0" IVar="-1" Cut="0.0000000000000000e+00" cType="1" res="1.6871886327862740e-03" rms="4.1237255930900574e-01" purity="7.8169637918472290e-01" nType="-99"/>
          <Node pos="r" depth="2" NCoef="0" IVar="-1" Cut="0.0000000000000000e+00" cType="1" res="3.9413716876879334e-04" rms="4.8181396722793579e-01" purity="5.5650424957275391e-01" nType="-99"/>
        </Node>
      </Node>
    </BinaryTree>
    <BinaryTree type="DecisionTree" boostWeight="1.0000000000000000e+00" itree="160">
      <Node pos="s" depth="0" NCoef="0" IVar="6" Cut="4.2300604248046875e+02" cType="1" res="3.3359294757246971e-03" rms="4.7016566991806030e-01" purity="4.9045231938362122e-01" nType="0">
        <Node pos="l" depth="1" NCoef="0" IVar="0" Cut="5.9790115356445312e+00" cType="1" res="-8.2459785044193268e-02" rms="4.5282199978828430e-01" purity="3.7727427482604980e-01" nType="0">
          <Node pos="l" depth="2" NCoef="0" IVar="-1" Cut="0.0000000000000000e+00" cType="1" res="-2.6106496807187796e-03" rms="3.9027571678161621e-01" purity="1.9355604052543640e-01" nType="-99"/>
          <Node pos="r" depth="2" NCoef="0" IVar="-1" Cut="0.0000000000000000e+00" cType="1" res="-2.4686349206604064e-04" rms="4.7924217581748962e-01" purity="4.9697330594062805e-01" nType="-99"/>
        </Node>
        <Node pos="r" depth="1" NCoef="0" IVar="3" Cut="1.1485199737548828e+02" cType="1" res="6.5388761460781097e-02" rms="4.7271484136581421e-01" purity="5.7230985164642334e-01" nType="0">
          <Node pos="l" depth="2" NCoef="0" IVar="-1" Cut="0.0000000000000000e+00" cType="1" res="3.4765142481774092e-04" rms="4.7367697954177856e-01" purity="5.3852981328964233e-01" nType="-99"/>
          <Node pos="r" depth="2" NCoef="0" IVar="-1" Cut="0.0000000000000000e+00" cType="1" res="1.9188781734555960e-03" rms="4.5456299185752869e-01" purity="6.6834962368011475e-01" nType="-99"/>
        </Node>
      </Node>
    </BinaryTree>
    <BinaryTree type="DecisionTree" boostWeight="1.0000000000000000e+00" itree="161">
      <Node pos="s" depth="0" NCoef="0" IVar="1" Cut="1.1673500537872314e+00" cType="1" res="2.3226581513881683e-02" rms="4.6600005030632019e-01" purity="5.1531571149826050e-01" nType="0">
        <Node pos="l" depth="1" NCoef="0" IVar="2" Cut="1.9624873352050781e+02" cType="1" res="6.6182486712932587e-02" rms="4.6726232767105103e-01" purity="5.9668797254562378e-01" nType="0">
          <Node pos="l" depth="2" NCoef="0" IVar="-1" Cut="0.0000000000000000e+00" cType="1" res="-1.6443963977508247e-04" rms="4.7578352689743042e-01" purity="5.0192850828170776e-01" nType="-99"/>
          <Node pos="r" depth="2" NCoef="0" IVar="-1" Cut="0.0000000000000000e+00" cType="1" res="1.5858543338254094e-03" rms="4.4484707713127136e-01" purity="6.8969243764877319e-01" nType="-99"/>
        </Node>
        <Node pos="r" depth="1" NCoef="0" IVar="0" Cut="7.5182933807373047e+00" cType="1" res="-8.4429860115051270e-02" rms="4.4495981931686401e-01" purity="3.1137967109680176e-01" nType="0">
          <Node pos="l" depth="2" NCoef="0" IVar="-1" Cut="0.0000000000000000e+00" cType="1" res="-1.8715823534876108e-03" rms="4.2153280973434448e-01" purity="2.4662879109382629e-01" nType="-99"/>
          <Node pos="r" depth="2" NCoef="0" IVar="-1" Cut="0.0000000000000000e+00" cType="1" res="4.4009994599036872e-04" rms="4.9579459428787231e-01" purity="5.2482950687408447e-01" nType="-99"/>
        </Node>
      </Node>
    </BinaryTree>
    <BinaryTree type="DecisionTree" boostWeight="1.0000000000000000e+00" itree="162">
      <Node pos="s" depth="0" NCoef="0" IVar="0" Cut="6.8126492500305176e+00" cType="1" res="1.6221942380070686e-02" rms="4.6594899892807007e-01" purity="5.0608259439468384e-01" nType="0">
        <Node pos="l" depth="1" NCoef="0" IVar="3" Cut="6.6300270080566406e+01" cType="1" res="-5.4148077964782715e-02" rms="4.6671026945114136e-01" purity="3.6243480443954468e-01" nType="0">
          <Node pos="l" depth="2" NCoef="0" IVar="-1" Cut="0.0000000000000000e+00" cType="1" res="-1.6657861415296793e-03" rms="4.4196966290473938e-01" purity="2.9282826185226440e-01" nType="-99"/>
          <Node pos="r" depth="2" NCoef="0" IVar="-1" Cut="0.0000000000000000e+00" cType="1" res="-8.3262893895152956e-06" rms="4.7813254594802856e-01" purity="4.1617721319198608e-01" nType="-99"/>
        </Node>
        <Node pos="r" depth="1" NCoef="0" IVar="2" Cut="1.8136558532714844e+02" cType="1" res="1.0307810455560684e-01" rms="4.5008453726768494e-01" purity="6.8338388204574585e-01" nType="0">
          <Node pos="l" depth="2" NCoef="0" IVar="-1" Cut="0.0000000000000000e+00" cType="1" res="-1.9301814973005094e-05" rms="4.8304802179336548e-01" purity="5.9262281656265259e-01" nType="-99"/>
          <Node pos="r" depth="2" NCoef="0" IVar="-1" Cut="0.0000000000000000e+00" cType="1" res="1.6294977394863963e-03" rms="4.2676806449890137e-01" purity="7.2324895858764648e-01" nType="-99"/>
        </Node>
      </Node>
    </BinaryTree>
    <BinaryTree type="DecisionTree" boostWeight="1.0000000000000000e+00" itree="163">
      <Node pos="s" depth="0" NCoef="0" IVar="0" Cut="5.7918081283569336e+00" cType="1" res="2.0313050597906113e-02" rms="4.6830347180366516e-01" purity="5.0993233919143677e-01" nType="0">
        <Node pos="l" depth="1" NCoef="0" IVar="0" Cut="5.0231761932373047e+00" cType="1" res="-8.9900910854339600e-02" rms="4.3825623393058777e-01" purity="2.9101279377937317e-01" nType="0">
          <Node pos="l" depth="2" NCoef="0" IVar="-1" Cut="0.0000000000000000e+00" cType="1" res="-3.0293774325400591e-03" rms="3.5995045304298401e-01" purity="1.6216489672660828e-01" nType="-99"/>
          <Node pos="r" depth="2" NCoef="0" IVar="-1" Cut="0.0000000000000000e+00" cType="1" res="-4.6441709855571389e-04" rms="4.6584659814834595e-01" purity="3.5990601778030396e-01" nType="-99"/>
        </Node>
        <Node pos="r" depth="1" NCoef="0" IVar="2" Cut="1.4627066040039062e+02" cType="1" res="6.0572098940610886e-02" rms="4.7244083881378174e-01" purity="5.8989948034286499e-01" nType="0">
          <Node pos="l" depth="2" NCoef="0" IVar="-1" Cut="0.0000000000000000e+00" cType="1" res="-1.2782377889379859e-03" rms="4.9005335569381714e-01" purity="4.3085244297981262e-01" nType="-99"/>
          <Node pos="r" depth="2" NCoef="0" IVar="-1" Cut="0.0000000000000000e+00" cType="1" res="9.7065878799185157e-04" rms="4.6517628431320190e-01" purity="6.1255395412445068e-01" nType="-99"/>
        </Node>
      </Node>
    </BinaryTree>
    <BinaryTree type="DecisionTree" boostWeight="1.0000000000000000e+00" itree="164">
      <Node pos="s" depth="0" NCoef="0" IVar="0" Cut="5.8258800506591797e+00" cType="1" res="1.4009847305715084e-02" rms="4.6637201309204102e-01" purity="5.0583940744400024e-01" nType="0">
        <Node pos="l" depth="1" NCoef="0" IVar="0" Cut="5.5399370193481445e+00" cType="1" res="-1.0879395902156830e-01" rms="4.3585368990898132e-01" purity="2.7418720722198486e-01" nType="0">
          <Node pos="l" depth="2" NCoef="0" IVar="-1" Cut="0.0000000000000000e+00" cType="1" res="-2.2909734398126602e-03" rms="4.0899685025215149e-01" purity="2.1827229857444763e-01" nType="-99"/>
          <Node pos="r" depth="2" NCoef="0" IVar="-1" Cut="0.0000000000000000e+00" cType="1" res="-3.0943672754801810e-05" rms="4.7731107473373413e-01" purity="4.0702635049819946e-01" nType="-99"/>
        </Node>
        <Node pos="r" depth="1" NCoef="0" IVar="1" Cut="1.5093946456909180e+00" cType="1" res="5.9370163828134537e-02" rms="4.6908989548683167e-01" purity="5.9140527248382568e-01" nType="0">
          <Node pos="l" depth="2" NCoef="0" IVar="-1" Cut="0.0000000000000000e+00" cType="1" res="9.2885148478671908e-04" rms="4.6812227368354797e-01" purity="6.3127201795578003e-01" nType="-99"/>
          <Node pos="r" depth="2" NCoef="0" IVar="-1" Cut="0.0000000000000000e+00" cType="1" res="-2.5097657926380634e-03" rms="4.2144215106964111e-01" purity="2.3617257177829742e-01" nType="-99"/>
        </Node>
      </Node>
    </BinaryTree>
    <BinaryTree type="DecisionTree" boostWeight="1.0000000000000000e+00" itree="165">
      <Node pos="s" depth="0" NCoef="0" IVar="0" Cut="7.0600094795227051e+00" cType="1" res="1.0787938954308629e-03" rms="4.6581330895423889e-01" purity="4.8956292867660522e-01" nType="0">
        <Node pos="l" depth="1" NCoef="0" IVar="0" Cut="5.7995672225952148e+00" cType="1" res="-5.7348389178514481e-02" rms="4.6669527888298035e-01" purity="3.6965170502662659e-01" nType="0">
          <Node pos="l" depth="2" NCoef="0" IVar="-1" Cut="0.0000000000000000e+00" cType="1" res="-1.5781703405082226e-03" rms="4.3288072943687439e-01" purity="2.7183550596237183e-01" nType="-99"/>
          <Node pos="r" depth="2" NCoef="0" IVar="-1" Cut="0.0000000000000000e+00" cType="1" res="-1.9843329209834337e-04" rms="4.8739638924598694e-01" purity="4.4564211368560791e-01" nType="-99"/>
        </Node>
        <Node pos="r" depth="1" NCoef="0" IVar="1" Cut="1.1555961370468140e+00" cType="1" res="9.7114533185958862e-02" rms="4.4810289144515991e-01" purity="6.8665897846221924e-01" nType="0">
          <Node pos="l" depth="2" NCoef="0" IVar="-1" Cut="0.0000000000000000e+00" cType="1" res="1.5005940804257989e-03" rms="4.2515012621879578e-01" purity="7.6109373569488525e-01" nType="-99"/>
          <Node pos="r" depth="2" NCoef="0" IVar="-1" Cut="0.0000000000000000e+00" cType="1" res="-5.7557719992473722e-04" rms="4.9102678894996643e-01" purity="4.4069495797157288e-01" nType="-99"/>
        </Node>
      </Node>
    </BinaryTree>
    <BinaryTree type="DecisionTree" boostWeight="1.0000000000000000e+00" itree="166">
      <Node pos="s" depth="0" NCoef="0" IVar="0" Cut="6.8126492500305176e+00" cType="1" res="4.5080992276780307e-04" rms="4.6820208430290222e-01" purity="4.9045789241790771e-01" nType="0">
        <Node pos="l" depth="1" NCoef="0" IVar="3" Cut="1.2270175933837891e+02" cType="1" res="-5.9191621840000153e-02" rms="4.6513479948043823e-01" purity="3.5763666033744812e-01" nType="0">
          <Node pos="l" depth="2" NCoef="0" IVar="-1" Cut="0.0000000000000000e+00" cType="1" res="-1.1778352782130241e-03" rms="4.5766338706016541e-01" purity="3.2784080505371094e-01" nType="-99"/>
          <Node pos="r" depth="2" NCoef="0" IVar="-1" Cut="0.0000000000000000e+00" cType="1" res="1.4180286088958383e-03" rms="4.7055426239967346e-01" purity="5.4364216327667236e-01" nType="-99"/>
        </Node>
        <Node pos="r" depth="1" NCoef="0" IVar="0" Cut="8.4952239990234375e+00" cType="1" res="7.2702586650848389e-02" rms="4.6168348193168640e-01" purity="6.5135961771011353e-01" nType="0">
          <Node pos="l" depth="2" NCoef="0" IVar="-1" Cut="0.0000000000000000e+00" cType="1" res="4.0052190888673067e-04" rms="4.7676509618759155e-01" purity="6.0225057601928711e-01" nType="-99"/>
          <Node pos="r" depth="2" NCoef="0" IVar="-1" Cut="0.0000000000000000e+00" cType="1" res="1.8812289927154779e-03" rms="4.0282225608825684e-01" purity="7.7945119142532349e-01" nType="-99"/>
        </Node>
      </Node>
    </BinaryTree>
    <BinaryTree type="DecisionTree" boostWeight="1.0000000000000000e+00" itree="167">
      <Node pos="s" depth="0" NCoef="0" IVar="1" Cut="1.1078110933303833e+00" cType="1" res="6.6233142279088497e-03" rms="4.6544763445854187e-01" purity="4.9921864271163940e-01" nType="0">
        <Node pos="l" depth="1" NCoef="0" IVar="0" Cut="6.7979960441589355e+00" cType="1" res="5.5018715560436249e-02" rms="4.6657267212867737e-01" purity="5.8559697866439819e-01" nType="0">
          <Node pos="l" depth="2" NCoef="0" IVar="-1" Cut="0.0000000000000000e+00" cType="1" res="-1.8564473430160433e-04" rms="4.8622357845306396e-01" purity="4.3145921826362610e-01" nType="-99"/>
          <Node pos="r" depth="2" NCoef="0" IVar="-1" Cut="0.0000000000000000e+00" cType="1" res="1.3562442036345601e-03" rms="4.3487194180488586e-01" purity="7.3945724964141846e-01" nType="-99"/>
        </Node>
        <Node pos="r" depth="1" NCoef="0" IVar="1" Cut="1.5386693477630615e+00" cType="1" res="-1.0099535435438156e-01" rms="4.4443199038505554e-01" purity="3.0713573098182678e-01" nType="0">
          <Node pos="l" depth="2" NCoef="0" IVar="-1" Cut="0.0000000000000000e+00" cType="1" res="-7.2762009222060442e-04" rms="4.7436749935150146e-01" purity="3.7870153784751892e-01" nType="-99"/>
          <Node pos="r" depth="2" NCoef="0" IVar="-1" Cut="0.0000000000000000e+00" cType="1" res="-3.6966931074857712e-03" rms="3.4866553544998169e-01" purity="1.4919367432594299e-01" nType="-99"/>
        </Node>
      </Node>
    </BinaryTree>
    <BinaryTree type="DecisionTree" boostWeight="1.0000000000000000e+00" itree="168">
      <Node pos="s" depth="0" NCoef="0" IVar="0" Cut="8.1915330886840820e+00" cType="1" res="5.9974160976707935e-03" rms="4.6644619107246399e-01" purity="4.9260449409484863e-01" nType="0">
        <Node pos="l" depth="1" NCoef="0" IVar="1" Cut="1.0959887504577637e+00" cType="1" res="-2.5605458766222000e-02" rms="4.6902862191200256e-01" purity="4.3888711929321289e-01" nType="0">
          <Node pos="l" depth="2" NCoef="0" IVar="-1" Cut="0.0000000000000000e+00" cType="1" res="2.8266911976970732e-04" rms="4.8127102851867676e-01" purity="5.2957063913345337e-01" nType="-99"/>
          <Node pos="r" depth="2" NCoef="0" IVar="-1" Cut="0.0000000000000000e+00" cType="1" res="-1.7302050255239010e-03" rms="4.3163341283798218e-01" purity="2.7544501423835754e-01" nType="-99"/>
        </Node>
        <Node pos="r" depth="1" NCoef="0" IVar="0" Cut="8.8428678512573242e+00" cType="1" res="1.6348811984062195e-01" rms="4.1922843456268311e-01" purity="7.6030111312866211e-01" nType="0">
          <Node pos="l" depth="2" NCoef="0" IVar="-1" Cut="0.0000000000000000e+00" cType="1" res="1.0882470523938537e-03" rms="4.5121240615844727e-01" purity="6.8967074155807495e-01" nType="-99"/>
          <Node pos="r" depth="2" NCoef="0" IVar="-1" Cut="0.0000000000000000e+00" cType="1" res="2.2753849625587463e-03" rms="3.8280993700027466e-01" purity="8.1833487749099731e-01" nType="-99"/>
        </Node>
      </Node>
    </BinaryTree>
    <BinaryTree type="DecisionTree" boostWeight="1.0000000000000000e+00" itree="169">
      <Node pos="s" depth="0" NCoef="0" IVar="0" Cut="7.7005014419555664e+00" cType="1" res="2.0103763788938522e-02" rms="4.6810320019721985e-01" purity="5.0622344017028809e-01" nType="0">
        <Node pos="l" depth="1" NCoef="0" IVar="6" Cut="7.7163787841796875e+02" cType="1" res="-1.9773650914430618e-02" rms="4.7431382536888123e-01" purity="4.2752611637115479e-01" nType="0">
          <Node pos="l" depth="2" NCoef="0" IVar="-1" Cut="0.0000000000000000e+00" cType="1" res="-4.6872283564880490e-04" rms="4.7219309210777283e-01" purity="4.0755152702331543e-01" nType="-99"/>
          <Node pos="r" depth="2" NCoef="0" IVar="-1" Cut="0.0000000000000000e+00" cType="1" res="1.8053073436021805e-03" rms="4.6075770258903503e-01" purity="6.3516962528228760e-01" nType="-99"/>
        </Node>
        <Node pos="r" depth="1" NCoef="0" IVar="3" Cut="8.9277816772460938e+01" cType="1" res="1.3623207807540894e-01" rms="4.2890465259552002e-01" purity="7.3540031909942627e-01" nType="0">
          <Node pos="l" depth="2" NCoef="0" IVar="-1" Cut="0.0000000000000000e+00" cType="1" res="9.6225459128618240e-04" rms="4.5229765772819519e-01" purity="6.8962264060974121e-01" nType="-99"/>
          <Node pos="r" depth="2" NCoef="0" IVar="-1" Cut="0.0000000000000000e+00" cType="1" res="2.3307858500629663e-03" rms="3.7379175424575806e-01" purity="8.1032454967498779e-01" nType="-99"/>
        </Node>
      </Node>
    </BinaryTree>
    <BinaryTree type="DecisionTree" boostWeight="1.0000000000000000e+00" itree="170">
      <Node pos="s" depth="0" NCoef="0" IVar="0" Cut="5.8166532516479492e+00" cType="1" res="5.1506962627172470e-03" rms="4.6982651948928833e-01" purity="4.9406147003173828e-01" nType="0">
        <Node pos="l" depth="1" NCoef="0" IVar="0" Cut="4.8994317054748535e+00" cType="1" res="-9.7197681665420532e-02" rms="4.3767580389976501e-01" purity="2.8051885962486267e-01" nType="0">
          <Node pos="l" depth="2" NCoef="0" IVar="-1" Cut="0.0000000000000000e+00" cType="1" res="-3.6606779322028160e-03" rms="3.1397864222526550e-01" purity="1.1655538529157639e-01" nType="-99"/>
          <Node pos="r" depth="2" NCoef="0" IVar="-1" Cut="0.0000000000000000e+00" cType="1" res="-6.9477176293730736e-04" rms="4.6517840027809143e-01" purity="3.3798196911811829e-01" nType="-99"/>
        </Node>
        <Node pos="r" depth="1" NCoef="0" IVar="7" Cut="3.0108101665973663e-02" cType="1" res="4.5054141432046890e-02" rms="4.7585299611091614e-01" purity="5.7731717824935913e-01" nType="0">
          <Node pos="l" depth="2" NCoef="0" IVar="-1" Cut="0.0000000000000000e+00" cType="1" res="1.0338645661249757e-03" rms="4.6425262093544006e-01" purity="6.3499093055725098e-01" nType="-99"/>
          <Node pos="r" depth="2" NCoef="0" IVar="-1" Cut="0.0000000000000000e+00" cType="1" res="-3.7089423858560622e-04" rms="4.8442018032073975e-01" purity="4.8552745580673218e-01" nType="-99"/>
        </Node>
      </Node>
    </BinaryTree>
    <BinaryTree type="DecisionTree" boostWeight="1.0000000000000000e+00" itree="171">
      <Node pos="s" depth="0" NCoef="0" IVar="1" Cut="1.6207299232482910e+00" cType="1" res="1.1487698182463646e-02" rms="4.6806570887565613e-01" purity="5.0040179491043091e-01" nType="0">
        <Node pos="l" depth="1" NCoef="0" IVar="2" Cut="1.9624873352050781e+02" cType="1" res="2.9735101386904716e-02" rms="4.7314369678497314e-01" purity="5.3076261281967163e-01" nType="0">
          <Node pos="l" depth="2" NCoef="0" IVar="-1" Cut="0.0000000000000000e+00" cType="1" res="-5.8441865257918835e-04" rms="4.7856366634368896e-01" purity="4.4370675086975098e-01" nType="-99"/>
          <Node pos="r" depth="2" NCoef="0" IVar="-1" Cut="0.0000000000000000e+00" cType="1" res="1.0129682486876845e-03" rms="4.6089413762092590e-01" purity="5.9497499465942383e-01" nType="-99"/>
        </Node>
        <Node pos="r" depth="1" NCoef="0" IVar="-1" Cut="0.0000000000000000e+00" cType="1" res="-3.5789625253528357e-03" rms="3.3849179744720459e-01" purity="1.4727024734020233e-01" nType="-99"/>
      </Node>
    </BinaryTree>
    <BinaryTree type="DecisionTree" boostWeight="1.0000000000000000e+00" itree="172">
      <Node pos="s" depth="0" NCoef="0" IVar="0" Cut="6.7979960441589355e+00" cType="1" res="1.7293477430939674e-02" rms="4.6586793661117554e-01" purity="5.1183921098709106e-01" nType="0">
        <Node pos="l" depth="1" NCoef="0" IVar="0" Cut="5.0587253570556641e+00" cType="1" res="-5.2358865737915039e-02" rms="4.6726977825164795e-01" purity="3.6423897743225098e-01" nType="0">
          <Node pos="l" depth="2" NCoef="0" IVar="-1" Cut="0.0000000000000000e+00" cType="1" res="-2.7766774874180555e-03" rms="3.6873742938041687e-01" purity="1.6791146993637085e-01" nType="-99"/>
          <Node pos="r" depth="2" NCoef="0" IVar="-1" Cut="0.0000000000000000e+00" cType="1" res="-3.1274851062335074e-04" rms="4.8109471797943115e-01" purity="4.0591928362846375e-01" nType="-99"/>
        </Node>
        <Node pos="r" depth="1" NCoef="0" IVar="4" Cut="-4.1643388569355011e-02" cType="1" res="9.5836691558361053e-02" rms="4.5157289505004883e-01" purity="6.7827999591827393e-01" nType="0">
          <Node pos="l" depth="2" NCoef="0" IVar="-1" Cut="0.0000000000000000e+00" cType="1" res="9.7386699053458869e-05" rms="4.7503164410591125e-01" purity="5.6692147254943848e-01" nType="-99"/>
          <Node pos="r" depth="2" NCoef="0" IVar="-1" Cut="0.0000000000000000e+00" cType="1" res="1.5622844221070409e-03" rms="4.3000012636184692e-01" purity="7.4099671840667725e-01" nType="-99"/>
        </Node>
      </Node>
    </BinaryTree>
    <BinaryTree type="DecisionTree" boostWeight="1.0000000000000000e+00" itree="173">
      <Node pos="s" depth="0" NCoef="0" IVar="0" Cut="6.7678003311157227e+00" cType="1" res="-1.0872559621930122e-02" rms="4.6396124362945557e-01" purity="4.7772234678268433e-01" nType="0">
        <Node pos="l" depth="1" NCoef="0" IVar="0" Cut="5.2813181877136230e+00" cType="1" res="-7.7058158814907074e-02" rms="4.5769810676574707e-01" purity="3.3606564998626709e-01" nType="0">
          <Node pos="l" depth="2" NCoef="0" IVar="-1" Cut="0.0000000000000000e+00" cType="1" res="-2.5771744549274445e-03" rms="3.8596102595329285e-01" purity="1.9069525599479675e-01" nType="-99"/>
          <Node pos="r" depth="2" NCoef="0" IVar="-1" Cut="0.0000000000000000e+00" cType="1" res="-5.4697191808372736e-04" rms="4.7757729887962341e-01" purity="3.9070343971252441e-01" nType="-99"/>
        </Node>
        <Node pos="r" depth="1" NCoef="0" IVar="1" Cut="1.3605040311813354e+00" cType="1" res="6.8492256104946136e-02" rms="4.5894482731819153e-01" purity="6.4758646488189697e-01" nType="0">
          <Node pos="l" depth="2" NCoef="0" IVar="-1" Cut="0.0000000000000000e+00" cType="1" res="1.0716686956584454e-03" rms="4.5237809419631958e-01" purity="7.0270621776580811e-01" nType="-99"/>
          <Node pos="r" depth="2" NCoef="0" IVar="-1" Cut="0.0000000000000000e+00" cType="1" res="-1.3499859487637877e-03" rms="4.6183985471725464e-01" purity="3.3708238601684570e-01" nType="-99"/>
        </Node>
      </Node>
    </BinaryTree>
    <BinaryTree type="DecisionTree" boostWeight="1.0000000000000000e+00" itree="174">
      <Node pos="s" depth="0" NCoef="0" IVar="0" Cut="6.5450944900512695e+00" cType="1" res="7.1246414445340633e-03" rms="4.6280306577682495e-01" purity="4.9442017078399658e-01" nType="0">
        <Node pos="l" depth="1" NCoef="0" IVar="0" Cut="4.9463553428649902e+00" cType="1" res="-7.6366670429706573e-02" rms="4.5347210764884949e-01" purity="3.2563504576683044e-01" nType="0">
          <Node pos="l" depth="2" NCoef="0" IVar="-1" Cut="0.0000000000000000e+00" cType="1" res="-3.5858836490660906e-03" rms="3.2408064603805542e-01" purity="1.2398236989974976e-01" nType="-99"/>
          <Node pos="r" depth="2" NCoef="0" IVar="-1" Cut="0.0000000000000000e+00" cType="1" res="-6.3621107256039977e-04" rms="4.7015723586082458e-01" purity="3.6536577343940735e-01" nType="-99"/>
        </Node>
        <Node pos="r" depth="1" NCoef="0" IVar="1" Cut="1.3336423635482788e+00" cType="1" res="8.2408897578716278e-02" rms="4.5819506049156189e-01" purity="6.4661407470703125e-01" nType="0">
          <Node pos="l" depth="2" NCoef="0" IVar="-1" Cut="0.0000000000000000e+00" cType="1" res="1.1988360201939940e-03" rms="4.4938173890113831e-01" purity="7.0243340730667114e-01" nType="-99"/>
          <Node pos="r" depth="2" NCoef="0" IVar="-1" Cut="0.0000000000000000e+00" cType="1" res="-8.3505810471251607e-04" rms="4.7640147805213928e-01" purity="3.6175253987312317e-01" nType="-99"/>
        </Node>
      </Node>
    </BinaryTree>
    <BinaryTree type="DecisionTree" boostWeight="1.0000000000000000e+00" itree="175">
      <Node pos="s" depth="0" NCoef="0" IVar="0" Cut="4.7845592498779297e+00" cType="1" res="1.2669417075812817e-02" rms="4.6703064441680908e-01" purity="5.0006794929504395e-01" nType="0">
        <Node pos="l" depth="1" NCoef="0" IVar="-1" Cut="0.0000000000000000e+00" cType="1" res="-3.8587104063481092e-03" rms="2.9944401979446411e-01" purity="1.0369738191366196e-01" nType="-99"/>
        <Node pos="r" depth="1" NCoef="0" IVar="1" Cut="1.0621718168258667e+00" cType="1" res="2.8873397037386894e-02" rms="4.7152978181838989e-01" purity="5.2619874477386475e-01" nType="0">
          <Node pos="l" depth="2" NCoef="0" IVar="-1" Cut="0.0000000000000000e+00" cType="1" res="7.9993531107902527e-04" rms="4.6838259696960449e-01" purity="6.1109495162963867e-01" nType="-99"/>
          <Node pos="r" depth="2" NCoef="0" IVar="-1" Cut="0.0000000000000000e+00" cType="1" res="-6.2755832914263010e-04" rms="4.6766400337219238e-01" purity="3.7730506062507629e-01" nType="-99"/>
        </Node>
      </Node>
    </BinaryTree>
    <BinaryTree type="DecisionTree" boostWeight="1.0000000000000000e+00" itree="176">
      <Node pos="s" depth="0" NCoef="0" IVar="0" Cut="7.4764747619628906e+00" cType="1" res="1.1786363087594509e-02" rms="4.7116824984550476e-01" purity="5.0274038314819336e-01" nType="0">
        <Node pos="l" depth="1" NCoef="0" IVar="0" Cut="4.9950733184814453e+00" cType="1" res="-2.3452129215002060e-02" rms="4.7586765885353088e-01" purity="4.2517462372779846e-01" nType="0">
          <Node pos="l" depth="2" NCoef="0" IVar="-1" Cut="0.0000000000000000e+00" cType="1" res="-2.9064163099974394e-03" rms="3.6861902475357056e-01" purity="1.6470938920974731e-01" nType="-99"/>
          <Node pos="r" depth="2" NCoef="0" IVar="-1" Cut="0.0000000000000000e+00" cType="1" res="-6.1062964960001409e-05" rms="4.8386767506599426e-01" purity="4.5639342069625854e-01" nType="-99"/>
        </Node>
        <Node pos="r" depth="1" NCoef="0" IVar="4" Cut="-5.2591927349567413e-02" cType="1" res="1.0152297466993332e-01" rms="4.4659957289695740e-01" purity="7.0026546716690063e-01" nType="0">
          <Node pos="l" depth="2" NCoef="0" IVar="-1" Cut="0.0000000000000000e+00" cType="1" res="-3.0021497514098883e-04" rms="4.8613288998603821e-01" purity="5.5118596553802490e-01" nType="-99"/>
          <Node pos="r" depth="2" NCoef="0" IVar="-1" Cut="0.0000000000000000e+00" cType="1" res="1.7028425354510546e-03" rms="4.1300469636917114e-01" purity="7.7162134647369385e-01" nType="-99"/>
        </Node>
      </Node>
    </BinaryTree>
    <BinaryTree type="DecisionTree" boostWeight="1.0000000000000000e+00" itree="177">
      <Node pos="s" depth="0" NCoef="0" IVar="1" Cut="1.7566984891891479e+00" cType="1" res="1.6285371035337448e-02" rms="4.6598458290100098e-01" purity="5.0616174936294556e-01" nType="0">
        <Node pos="l" depth="1" NCoef="0" IVar="2" Cut="2.1423988342285156e+02" cType="1" res="3.1671117991209030e-02" rms="4.6959546208381653e-01" purity="5.2994173765182495e-01" nType="0">
          <Node pos="l" depth="2" NCoef="0" IVar="-1" Cut="0.0000000000000000e+00" cType="1" res="-3.5826605744659901e-04" rms="4.6889424324035645e-01" purity="4.6665629744529724e-01" nType="-99"/>
          <Node pos="r" depth="2" NCoef="0" IVar="-1" Cut="0.0000000000000000e+00" cType="1" res="1.1538874823600054e-03" rms="4.6113574504852295e-01" purity="5.9915626049041748e-01" nType="-99"/>
        </Node>
        <Node pos="r" depth="1" NCoef="0" IVar="-1" Cut="0.0000000000000000e+00" cType="1" res="-4.6285809949040413e-03" rms="2.9864186048507690e-01" purity="1.0581511259078979e-01" nType="-99"/>
      </Node>
    </BinaryTree>
    <BinaryTree type="DecisionTree" boostWeight="1.0000000000000000e+00" itree="178">
      <Node pos="s" depth="0" NCoef="0" IVar="1" Cut="1.2590050697326660e+00" cType="1" res="1.1684829369187355e-02" rms="4.6501484513282776e-01" purity="4.9975919723510742e-01" nType="0">
        <Node pos="l" depth="1" NCoef="0" IVar="0" Cut="8.0198917388916016e+00" cType="1" res="5.0650343298912048e-02" rms="4.7137185931205750e-01" purity="5.6831294298171997e-01" nType="0">
          <Node pos="l" depth="2" NCoef="0" IVar="-1" Cut="0.0000000000000000e+00" cType="1" res="2.5350440409965813e-04" rms="4.8309636116027832e-01" purity="5.1204562187194824e-01" nType="-99"/>
          <Node pos="r" depth="2" NCoef="0" IVar="-1" Cut="0.0000000000000000e+00" cType="1" res="1.8152965931221843e-03" rms="3.9796632528305054e-01" purity="8.0077910423278809e-01" nType="-99"/>
        </Node>
        <Node pos="r" depth="1" NCoef="0" IVar="0" Cut="6.4743070602416992e+00" cType="1" res="-1.3024218380451202e-01" rms="4.1095447540283203e-01" purity="2.5006061792373657e-01" nType="0">
          <Node pos="l" depth="2" NCoef="0" IVar="-1" Cut="0.0000000000000000e+00" cType="1" res="-3.9455769583582878e-03" rms="3.0531084537506104e-01" purity="1.1168576776981354e-01" nType="-99"/>
          <Node pos="r" depth="2" NCoef="0" IVar="-1" Cut="0.0000000000000000e+00" cType="1" res="-5.6818459415808320e-04" rms="4.8345625400543213e-01" purity="3.9662346243858337e-01" nType="-99"/>
        </Node>
      </Node>
    </BinaryTree>
    <BinaryTree type="DecisionTree" boostWeight="1.0000000000000000e+00" itree="179">
      <Node pos="s" depth="0" NCoef="0" IVar="0" Cut="5.9562425613403320e+00" cType="1" res="6.0779601335525513e-03" rms="4.6388062834739685e-01" purity="4.9799305200576782e-01" nType="0">
        <Node pos="l" depth="1" NCoef="0" IVar="0" Cut="4.9794602394104004e+00" cType="1" res="-1.0272068530321121e-01" rms="4.3818849325180054e-01" purity="2.7628293633460999e-01" nType="0">
          <Node pos="l" depth="2" NCoef="0" IVar="-1" Cut="0.0000000000000000e+00" cType="1" res="-3.2821244094520807e-03" rms="3.3788898587226868e-01" purity="1.3391715288162231e-01" nType="-99"/>
          <Node pos="r" depth="2" NCoef="0" IVar="-1" Cut="0.0000000000000000e+00" cType="1" res="-8.4218161646276712e-04" rms="4.6526160836219788e-01" purity="3.3144548535346985e-01" nType="-99"/>
        </Node>
        <Node pos="r" depth="1" NCoef="0" IVar="1" Cut="1.0519689321517944e+00" cType="1" res="5.1711771637201309e-02" rms="4.6675339341163635e-01" purity="5.9098577499389648e-01" nType="0">
          <Node pos="l" depth="2" NCoef="0" IVar="-1" Cut="0.0000000000000000e+00" cType="1" res="1.1698683956637979e-03" rms="4.5136666297912598e-01" purity="6.9030863046646118e-01" nType="-99"/>
          <Node pos="r" depth="2" NCoef="0" IVar="-1" Cut="0.0000000000000000e+00" cType="1" res="-7.2190846549347043e-04" rms="4.7665658593177795e-01" purity="4.0491926670074463e-01" nType="-99"/>
        </Node>
      </Node>
    </BinaryTree>
    <BinaryTree type="DecisionTree" boostWeight="1.0000000000000000e+00" itree="180">
      <Node pos="s" depth="0" NCoef="0" IVar="0" Cut="7.4097919464111328e+00" cType="1" res="1.4349013566970825e-02" rms="4.6971145272254944e-01" purity="5.0453525781631470e-01" nType="0">
        <Node pos="l" depth="1" NCoef="0" IVar="6" Cut="6.8022167968750000e+02" cType="1" res="-2.9333489015698433e-02" rms="4.7483178973197937e-01" purity="4.1350188851356506e-01" nType="0">
          <Node pos="l" depth="2" NCoef="0" IVar="-1" Cut="0.0000000000000000e+00" cType="1" res="-6.3272978877648711e-04" rms="4.7042655944824219e-01" purity="3.8697996735572815e-01" nType="-99"/>
          <Node pos="r" depth="2" NCoef="0" IVar="-1" Cut="0.0000000000000000e+00" cType="1" res="1.2253660243004560e-03" rms="4.8285007476806641e-01" purity="6.0005295276641846e-01" nType="-99"/>
        </Node>
        <Node pos="r" depth="1" NCoef="0" IVar="3" Cut="8.7998748779296875e+01" cType="1" res="1.1421462148427963e-01" rms="4.4185572862625122e-01" purity="7.1265274286270142e-01" nType="0">
          <Node pos="l" depth="2" NCoef="0" IVar="-1" Cut="0.0000000000000000e+00" cType="1" res="8.2359474617987871e-04" rms="4.6341666579246521e-01" purity="6.7637860774993896e-01" nType="-99"/>
          <Node pos="r" depth="2" NCoef="0" IVar="-1" Cut="0.0000000000000000e+00" cType="1" res="1.9058486213907599e-03" rms="4.0289852023124695e-01" purity="7.6318275928497314e-01" nType="-99"/>
        </Node>
      </Node>
    </BinaryTree>
    <BinaryTree type="DecisionTree" boostWeight="1.0000000000000000e+00" itree="181">
      <Node pos="s" depth="0" NCoef="0" IVar="1" Cut="1.4208420515060425e+00" cType="1" res="-2.1672442555427551e-02" rms="4.6309724450111389e-01" purity="4.6965563297271729e-01" nType="0">
        <Node pos="l" depth="1" NCoef="0" IVar="0" Cut="6.9911742210388184e+00" cType="1" res="8.8418181985616684e-03" rms="4.7301352024078369e-01" purity="5.2485448122024536e-01" nType="0">
          <Node pos="l" depth="2" NCoef="0" IVar="-1" Cut="0.0000000000000000e+00" cType="1" res="-6.0214230325073004e-04" rms="4.7854852676391602e-01" purity="3.9249941706657410e-01" nType="-99"/>
          <Node pos="r" depth="2" NCoef="0" IVar="-1" Cut="0.0000000000000000e+00" cType="1" res="9.1807468561455607e-04" rms="4.5541167259216309e-01" purity="6.9535839557647705e-01" nType="-99"/>
        </Node>
        <Node pos="r" depth="1" NCoef="0" IVar="4" Cut="-5.9177804738283157e-02" cType="1" res="-1.8624196946620941e-01" rms="3.6371767520904541e-01" purity="1.7195697128772736e-01" nType="0">
          <Node pos="l" depth="2" NCoef="0" IVar="-1" Cut="0.0000000000000000e+00" cType="1" res="-4.6766204759478569e-03" rms="2.9963254928588867e-01" purity="1.0816120356321335e-01" nType="-99"/>
          <Node pos="r" depth="2" NCoef="0" IVar="-1" Cut="0.0000000000000000e+00" cType="1" res="-1.6921673668548465e-03" rms="4.2144823074340820e-01" purity="2.5683024525642395e-01" nType="-99"/>
        </Node>
      </Node>
    </BinaryTree>
    <BinaryTree type="DecisionTree" boostWeight="1.0000000000000000e+00" itree="182">
      <Node pos="s" depth="0" NCoef="0" IVar="0" Cut="6.8126492500305176e+00" cType="1" res="2.6407172903418541e-02" rms="4.6668526530265808e-01" purity="5.1907300949096680e-01" nType="0">
        <Node pos="l" depth="1" NCoef="0" IVar="0" Cut="5.0177545547485352e+00" cType="1" res="-2.9600787907838821e-02" rms="4.6972361207008362e-01" purity="3.8555991649627686e-01" nType="0">
          <Node pos="l" depth="2" NCoef="0" IVar="-1" Cut="0.0000000000000000e+00" cType="1" res="-3.1799802090972662e-03" rms="3.3912032842636108e-01" purity="1.3560429215431213e-01" nType="-99"/>
          <Node pos="r" depth="2" NCoef="0" IVar="-1" Cut="0.0000000000000000e+00" cType="1" res="-3.8090634006948676e-06" rms="4.8246145248413086e-01" purity="4.2818981409072876e-01" nType="-99"/>
        </Node>
        <Node pos="r" depth="1" NCoef="0" IVar="3" Cut="4.6601528167724609e+01" cType="1" res="9.2915989458560944e-02" rms="4.5416751503944397e-01" purity="6.7761838436126709e-01" nType="0">
          <Node pos="l" depth="2" NCoef="0" IVar="-1" Cut="0.0000000000000000e+00" cType="1" res="-3.0352064641192555e-04" rms="4.8485976457595825e-01" purity="5.6352114677429199e-01" nType="-99"/>
          <Node pos="r" depth="2" NCoef="0" IVar="-1" Cut="0.0000000000000000e+00" cType="1" res="1.2899073772132397e-03" rms="4.4405442476272583e-01" purity="7.0027887821197510e-01" nType="-99"/>
        </Node>
      </Node>
    </BinaryTree>
    <BinaryTree type="DecisionTree" boostWeight="1.0000000000000000e+00" itree="183">
      <Node pos="s" depth="0" NCoef="0" IVar="0" Cut="7.0543541908264160e+00" cType="1" res="-7.7973296865820885e-03" rms="4.6316805481910706e-01" purity="4.8044440150260925e-01" nType="0">
        <Node pos="l" depth="1" NCoef="0" IVar="1" Cut="7.4632585048675537e-01" cType="1" res="-6.4837642014026642e-02" rms="4.6011838316917419e-01" purity="3.5652363300323486e-01" nType="0">
          <Node pos="l" depth="2" NCoef="0" IVar="-1" Cut="0.0000000000000000e+00" cType="1" res="3.9639943861402571e-04" rms="4.8600959777832031e-01" purity="4.9464699625968933e-01" nType="-99"/>
          <Node pos="r" depth="2" NCoef="0" IVar="-1" Cut="0.0000000000000000e+00" cType="1" res="-1.6379435546696186e-03" rms="4.3829506635665894e-01" purity="2.8769344091415405e-01" nType="-99"/>
        </Node>
        <Node pos="r" depth="1" NCoef="0" IVar="5" Cut="1.0056639909744263e+00" cType="1" res="8.0128028988838196e-02" rms="4.5400309562683105e-01" purity="6.7146313190460205e-01" nType="0">
          <Node pos="l" depth="2" NCoef="0" IVar="-1" Cut="0.0000000000000000e+00" cType="1" res="1.1526643065735698e-03" rms="4.4536596536636353e-01" purity="7.0469880104064941e-01" nType="-99"/>
          <Node pos="r" depth="2" NCoef="0" IVar="-1" Cut="0.0000000000000000e+00" cType="1" res="-9.2377013061195612e-04" rms="4.7897732257843018e-01" purity="4.5722892880439758e-01" nType="-99"/>
        </Node>
      </Node>
    </BinaryTree>
    <BinaryTree type="DecisionTree" boostWeight="1.0000000000000000e+00" itree="184">
      <Node pos="s" depth="0" NCoef="0" IVar="0" Cut="6.8319811820983887e+00" cType="1" res="-2.7850470505654812e-03" rms="4.6796435117721558e-01" purity="4.8663786053657532e-01" nType="0">
        <Node pos="l" depth="1" NCoef="0" IVar="3" Cut="3.9311893463134766e+01" cType="1" res="-5.5890802294015884e-02" rms="4.6507567167282104e-01" purity="3.5531634092330933e-01" nType="0">
          <Node pos="l" depth="2" NCoef="0" IVar="-1" Cut="0.0000000000000000e+00" cType="1" res="-2.9589373152703047e-03" rms="3.9034867286682129e-01" purity="2.0771688222885132e-01" nType="-99"/>
          <Node pos="r" depth="2" NCoef="0" IVar="-1" Cut="0.0000000000000000e+00" cType="1" res="-5.2116357255727053e-04" rms="4.7002100944519043e-01" purity="3.7153509259223938e-01" nType="-99"/>
        </Node>
        <Node pos="r" depth="1" NCoef="0" IVar="4" Cut="-7.2337128221988678e-02" cType="1" res="6.3867062330245972e-02" rms="4.6302402019500732e-01" purity="6.5145719051361084e-01" nType="0">
          <Node pos="l" depth="2" NCoef="0" IVar="-1" Cut="0.0000000000000000e+00" cType="1" res="-5.0900870701298118e-04" rms="4.8068174719810486e-01" purity="5.1175469160079956e-01" nType="-99"/>
          <Node pos="r" depth="2" NCoef="0" IVar="-1" Cut="0.0000000000000000e+00" cType="1" res="1.0406875517219305e-03" rms="4.5332017540931702e-01" purity="6.9227558374404907e-01" nType="-99"/>
        </Node>
      </Node>
    </BinaryTree>
    <BinaryTree type="DecisionTree" boostWeight="1.0000000000000000e+00" itree="185">
      <Node pos="s" depth="0" NCoef="0" IVar="0" Cut="6.5450944900512695e+00" cType="1" res="2.5357164442539215e-02" rms="4.6273306012153625e-01" purity="5.1459121704101562e-01" nType="0">
        <Node pos="l" depth="1" NCoef="0" IVar="6" Cut="6.5528552246093750e+02" cType="1" res="-5.0424441695213318e-02" rms="4.6209985017776489e-01" purity="3.4903702139854431e-01" nType="0">
          <Node pos="l" depth="2" NCoef="0" IVar="-1" Cut="0.0000000000000000e+00" cType="1" res="-1.1199169093742967e-03" rms="4.5119717717170715e-01" purity="3.1225478649139404e-01" nType="-99"/>
          <Node pos="r" depth="2" NCoef="0" IVar="-1" Cut="0.0000000000000000e+00" cType="1" res="1.7028067959472537e-03" rms="4.8162621259689331e-01" purity="5.8140450716018677e-01" nType="-99"/>
        </Node>
        <Node pos="r" depth="1" NCoef="0" IVar="1" Cut="1.2310603857040405e+00" cType="1" res="9.5881715416908264e-02" rms="4.5204943418502808e-01" purity="6.6866075992584229e-01" nType="0">
          <Node pos="l" depth="2" NCoef="0" IVar="-1" Cut="0.0000000000000000e+00" cType="1" res="1.3505117967724800e-03" rms="4.3868300318717957e-01" purity="7.3044973611831665e-01" nType="-99"/>
          <Node pos="r" depth="2" NCoef="0" IVar="-1" Cut="0.0000000000000000e+00" cType="1" res="-2.8878287412226200e-04" rms="4.8517820239067078e-01" purity="4.1945514082908630e-01" nType="-99"/>
        </Node>
      </Node>
    </BinaryTree>
    <BinaryTree type="DecisionTree" boostWeight="1.0000000000000000e+00" itree="186">
      <Node pos="s" depth="0" NCoef="0" IVar="0" Cut="6.9961276054382324e+00" cType="1" res="1.1233214754611254e-03" rms="4.6565532684326172e-01" purity="4.8971322178840637e-01" nType="0">
        <Node pos="l" depth="1" NCoef="0" IVar="1" Cut="1.6015002727508545e+00" cType="1" res="-5.3864151239395142e-02" rms="4.6604633331298828e-01" purity="3.6250287294387817e-01" nType="0">
          <Node pos="l" depth="2" NCoef="0" IVar="-1" Cut="0.0000000000000000e+00" cType="1" res="-4.6637104242108762e-04" rms="4.7846779227256775e-01" purity="3.9188820123672485e-01" nType="-99"/>
          <Node pos="r" depth="2" NCoef="0" IVar="-1" Cut="0.0000000000000000e+00" cType="1" res="-3.8036026526242495e-03" rms="3.0836597084999084e-01" purity="1.1090020835399628e-01" nType="-99"/>
        </Node>
        <Node pos="r" depth="1" NCoef="0" IVar="5" Cut="8.6941903829574585e-01" cType="1" res="8.0796979367733002e-02" rms="4.5340722799301147e-01" purity="6.7403364181518555e-01" nType="0">
          <Node pos="l" depth="2" NCoef="0" IVar="-1" Cut="0.0000000000000000e+00" cType="1" res="1.2664577225223184e-03" rms="4.3857678771018982e-01" purity="7.2007066011428833e-01" nType="-99"/>
          <Node pos="r" depth="2" NCoef="0" IVar="-1" Cut="0.0000000000000000e+00" cType="1" res="-4.1868098196573555e-04" rms="4.8372590541839600e-01" purity="5.1679527759552002e-01" nType="-99"/>
        </Node>
      </Node>
    </BinaryTree>
    <BinaryTree type="DecisionTree" boostWeight="1.0000000000000000e+00" itree="187">
      <Node pos="s" depth="0" NCoef="0" IVar="0" Cut="5.6928215026855469e+00" cType="1" res="1.9815100822597742e-03" rms="4.6353358030319214e-01" purity="4.9395039677619934e-01" nType="0">
        <Node pos="l" depth="1" NCoef="0" IVar="4" Cut="6.0259193181991577e-02" cType="1" res="-1.1124116182327271e-01" rms="4.2663416266441345e-01" purity="2.5871133804321289e-01" nType="0">
          <Node pos="l" depth="2" NCoef="0" IVar="-1" Cut="0.0000000000000000e+00" cType="1" res="-2.4213315919041634e-03" rms="3.9085260033607483e-01" purity="1.9942256808280945e-01" nType="-99"/>
          <Node pos="r" depth="2" NCoef="0" IVar="-1" Cut="0.0000000000000000e+00" cType="1" res="-5.3542264504358172e-04" rms="4.6737447381019592e-01" purity="3.4949186444282532e-01" nType="-99"/>
        </Node>
        <Node pos="r" depth="1" NCoef="0" IVar="1" Cut="1.4251960515975952e+00" cType="1" res="3.9033327251672745e-02" rms="4.6908894181251526e-01" purity="5.7093173265457153e-01" nType="0">
          <Node pos="l" depth="2" NCoef="0" IVar="-1" Cut="0.0000000000000000e+00" cType="1" res="7.0060399593785405e-04" rms="4.6943372488021851e-01" purity="6.1729055643081665e-01" nType="-99"/>
          <Node pos="r" depth="2" NCoef="0" IVar="-1" Cut="0.0000000000000000e+00" cType="1" res="-1.8558145966380835e-03" rms="4.3695604801177979e-01" purity="2.6583948731422424e-01" nType="-99"/>
        </Node>
      </Node>
    </BinaryTree>
    <BinaryTree type="DecisionTree" boostWeight="1.0000000000000000e+00" itree="188">
      <Node pos="s" depth="0" NCoef="0" IVar="0" Cut="5.6537408828735352e+00" cType="1" res="1.1451652273535728e-02" rms="4.6725651621818542e-01" purity="5.0051945447921753e-01" nType="0">
        <Node pos="l" depth="1" NCoef="0" IVar="2" Cut="2.2218418884277344e+02" cType="1" res="-1.0300368070602417e-01" rms="4.2785716056823730e-01" purity="2.6596945524215698e-01" nType="0">
          <Node pos="l" depth="2" NCoef="0" IVar="-1" Cut="0.0000000000000000e+00" cType="1" res="-2.4822894483804703e-03" rms="3.9720273017883301e-01" purity="2.0754541456699371e-01" nType="-99"/>
          <Node pos="r" depth="2" NCoef="0" IVar="-1" Cut="0.0000000000000000e+00" cType="1" res="-2.2490725677926093e-04" rms="4.5164844393730164e-01" purity="3.4470859169960022e-01" nType="-99"/>
        </Node>
        <Node pos="r" depth="1" NCoef="0" IVar="4" Cut="-3.3730302006006241e-02" cType="1" res="4.6243518590927124e-02" rms="4.7313463687896729e-01" purity="5.7181745767593384e-01" nType="0">
          <Node pos="l" depth="2" NCoef="0" IVar="-1" Cut="0.0000000000000000e+00" cType="1" res="-2.0584376761689782e-04" rms="4.7417488694190979e-01" purity="4.8492389917373657e-01" nType="-99"/>
          <Node pos="r" depth="2" NCoef="0" IVar="-1" Cut="0.0000000000000000e+00" cType="1" res="9.8147336393594742e-04" rms="4.6802297234535217e-01" purity="6.2766277790069580e-01" nType="-99"/>
        </Node>
      </Node>
    </BinaryTree>
    <BinaryTree type="DecisionTree" boostWeight="1.0000000000000000e+00" itree="189">
      <Node pos="s" depth="0" NCoef="0" IVar="0" Cut="7.3245048522949219e+00" cType="1" res="3.5983750130981207e-03" rms="4.6511870622634888e-01" purity="4.8886081576347351e-01" nType="0">
        <Node pos="l" depth="1" NCoef="0" IVar="1" Cut="1.1526411771774292e+00" cType="1" res="-4.1598524898290634e-02" rms="4.6596202254295349e-01" purity="3.9127036929130554e-01" nType="0">
          <Node pos="l" depth="2" NCoef="0" IVar="-1" Cut="0.0000000000000000e+00" cType="1" res="2.8778262276318856e-05" rms="4.8549014329910278e-01" purity="4.6915665268898010e-01" nType="-99"/>
          <Node pos="r" depth="2" NCoef="0" IVar="-1" Cut="0.0000000000000000e+00" cType="1" res="-2.1584732457995415e-03" rms="4.0470033884048462e-01" purity="2.2309140861034393e-01" nType="-99"/>
        </Node>
        <Node pos="r" depth="1" NCoef="0" IVar="7" Cut="-3.9108138531446457e-02" cType="1" res="9.9219985306262970e-02" rms="4.4856312870979309e-01" purity="6.9532984495162964e-01" nType="0">
          <Node pos="l" depth="2" NCoef="0" IVar="-1" Cut="0.0000000000000000e+00" cType="1" res="2.1907261107116938e-03" rms="3.6423009634017944e-01" purity="8.3156174421310425e-01" nType="-99"/>
          <Node pos="r" depth="2" NCoef="0" IVar="-1" Cut="0.0000000000000000e+00" cType="1" res="6.3093588687479496e-04" rms="4.7152051329612732e-01" purity="6.3934886455535889e-01" nType="-99"/>
        </Node>
      </Node>
    </BinaryTree>
    <BinaryTree type="DecisionTree" boostWeight="1.0000000000000000e+00" itree="190">
      <Node pos="s" depth="0" NCoef="0" IVar="0" Cut="6.7727746963500977e+00" cType="1" res="1.2762224301695824e-02" rms="4.6059414744377136e-01" purity="4.9912980198860168e-01" nType="0">
        <Node pos="l" depth="1" NCoef="0" IVar="6" Cut="4.5751992797851562e+02" cType="1" res="-5.9007264673709869e-02" rms="4.6079984307289124e-01" purity="3.4796065092086792e-01" nType="0">
          <Node pos="l" depth="2" NCoef="0" IVar="-1" Cut="0.0000000000000000e+00" cType="1" res="-1.3953533489257097e-03" rms="4.3896481394767761e-01" purity="2.8894090652465820e-01" nType="-99"/>
          <Node pos="r" depth="2" NCoef="0" IVar="-1" Cut="0.0000000000000000e+00" cType="1" res="7.1651544431006187e-07" rms="4.8347494006156921e-01" purity="4.3027681112289429e-01" nType="-99"/>
        </Node>
        <Node pos="r" depth="1" NCoef="0" IVar="4" Cut="2.8748339042067528e-02" cType="1" res="1.0079520195722580e-01" rms="4.4479951262474060e-01" purity="6.8455499410629272e-01" nType="0">
          <Node pos="l" depth="2" NCoef="0" IVar="-1" Cut="0.0000000000000000e+00" cType="1" res="4.9378589028492570e-04" rms="4.6029731631278992e-01" purity="6.1251097917556763e-01" nType="-99"/>
          <Node pos="r" depth="2" NCoef="0" IVar="-1" Cut="0.0000000000000000e+00" cType="1" res="1.8654911546036601e-03" rms="4.1348636150360107e-01" purity="7.7336615324020386e-01" nType="-99"/>
        </Node>
      </Node>
    </BinaryTree>
    <BinaryTree type="DecisionTree" boostWeight="1.0000000000000000e+00" itree="191">
      <Node pos="s" depth="0" NCoef="0" IVar="1" Cut="1.5142183303833008e+00" cType="1" res="2.9048668220639229e-02" rms="4.6576106548309326e-01" purity="5.2060782909393311e-01" nType="0">
        <Node pos="l" depth="1" NCoef="0" IVar="2" Cut="2.0362554931640625e+02" cType="1" res="4.9220554530620575e-02" rms="4.6990916132926941e-01" purity="5.5880445241928101e-01" nType="0">
          <Node pos="l" depth="2" NCoef="0" IVar="-1" Cut="0.0000000000000000e+00" cType="1" res="-2.2962673392612487e-04" rms="4.7175717353820801e-01" purity="4.8078122735023499e-01" nType="-99"/>
          <Node pos="r" depth="2" NCoef="0" IVar="-1" Cut="0.0000000000000000e+00" cType="1" res="1.3293422525748610e-03" rms="4.5847788453102112e-01" purity="6.3474082946777344e-01" nType="-99"/>
        </Node>
        <Node pos="r" depth="1" NCoef="0" IVar="5" Cut="8.8916915655136108e-01" cType="1" res="-1.3608485460281372e-01" rms="3.9314109086990356e-01" purity="2.0791828632354736e-01" nType="0">
          <Node pos="l" depth="2" NCoef="0" IVar="-1" Cut="0.0000000000000000e+00" cType="1" res="-1.5621548518538475e-03" rms="4.1565820574760437e-01" purity="2.5527939200401306e-01" nType="-99"/>
          <Node pos="r" depth="2" NCoef="0" IVar="-1" Cut="0.0000000000000000e+00" cType="1" res="-3.2459602225571871e-03" rms="3.6533778905868530e-01" purity="1.6162098944187164e-01" nType="-99"/>
        </Node>
      </Node>
    </BinaryTree>
    <BinaryTree type="DecisionTree" boostWeight="1.0000000000000000e+00" itree="192">
      <Node pos="s" depth="0" NCoef="0" IVar="0" Cut="6.2469525337219238e+00" cType="1" res="1.3838999904692173e-02" rms="4.6281898021697998e-01" purity="5.0101619958877563e-01" nType="0">
        <Node pos="l" depth="1" NCoef="0" IVar="4" Cut="6.0264546424150467e-02" cType="1" res="-6.4341701567173004e-02" rms="4.5302996039390564e-01" purity="3.2725402712821960e-01" nType="0">
          <Node pos="l" depth="2" NCoef="0" IVar="-1" Cut="0.0000000000000000e+00" cType="1" res="-1.7441036179661751e-03" rms="4.2106631398200989e-01" purity="2.5951454043388367e-01" nType="-99"/>
          <Node pos="r" depth="2" NCoef="0" IVar="-1" Cut="0.0000000000000000e+00" cType="1" res="3.0218836036510766e-04" rms="4.8481729626655579e-01" purity="4.3104285001754761e-01" nType="-99"/>
        </Node>
        <Node pos="r" depth="1" NCoef="0" IVar="1" Cut="1.0694423913955688e+00" cType="1" res="6.6592581570148468e-02" rms="4.6189132332801819e-01" purity="6.1826479434967041e-01" nType="0">
          <Node pos="l" depth="2" NCoef="0" IVar="-1" Cut="0.0000000000000000e+00" cType="1" res="1.2457476695999503e-03" rms="4.4533601403236389e-01" purity="7.0950669050216675e-01" nType="-99"/>
          <Node pos="r" depth="2" NCoef="0" IVar="-1" Cut="0.0000000000000000e+00" cType="1" res="-3.6267400719225407e-04" rms="4.7948551177978516e-01" purity="4.3665662407875061e-01" nType="-99"/>
        </Node>
      </Node>
    </BinaryTree>
    <BinaryTree type="DecisionTree" boostWeight="1.0000000000000000e+00" itree="193">
      <Node pos="s" depth="0" NCoef="0" IVar="0" Cut="5.8222131729125977e+00" cType="1" res="7.4984356760978699e-03" rms="4.6192169189453125e-01" purity="4.9919268488883972e-01" nType="0">
        <Node pos="l" depth="1" NCoef="0" IVar="0" Cut="5.2530579566955566e+00" cType="1" res="-1.1069861799478531e-01" rms="4.2318704724311829e-01" purity="2.6096048951148987e-01" nType="0">
          <Node pos="l" depth="2" NCoef="0" IVar="-1" Cut="0.0000000000000000e+00" cType="1" res="-2.9311310499906540e-03" rms="3.6231777071952820e-01" purity="1.6037143766880035e-01" nType="-99"/>
          <Node pos="r" depth="2" NCoef="0" IVar="-1" Cut="0.0000000000000000e+00" cType="1" res="-5.8851594803854823e-04" rms="4.6257212758064270e-01" purity="3.5304072499275208e-01" nType="-99"/>
        </Node>
        <Node pos="r" depth="1" NCoef="0" IVar="1" Cut="1.5295178890228271e+00" cType="1" res="5.2257310599088669e-02" rms="4.6803924441337585e-01" purity="5.8940649032592773e-01" nType="0">
          <Node pos="l" depth="2" NCoef="0" IVar="-1" Cut="0.0000000000000000e+00" cType="1" res="8.0220453673973680e-04" rms="4.6836546063423157e-01" purity="6.2429964542388916e-01" nType="-99"/>
          <Node pos="r" depth="2" NCoef="0" IVar="-1" Cut="0.0000000000000000e+00" cType="1" res="-2.2360673174262047e-03" rms="4.2194256186485291e-01" purity="2.3638734221458435e-01" nType="-99"/>
        </Node>
      </Node>
    </BinaryTree>
    <BinaryTree type="DecisionTree" boostWeight="1.0000000000000000e+00" itree="194">
      <Node pos="s" depth="0" NCoef="0" IVar="1" Cut="1.1266090869903564e+00" cType="1" res="2.0011924207210541e-02" rms="4.6269240975379944e-01" purity="5.0984573364257812e-01" nType="0">
        <Node pos="l" depth="1" NCoef="0" IVar="0" Cut="8.0177249908447266e+00" cType="1" res="6.6549412906169891e-02" rms="4.6305760741233826e-01" purity="6.0062819719314575e-01" nType="0">
          <Node pos="l" depth="2" NCoef="0" IVar="-1" Cut="0.0000000000000000e+00" cType="1" res="3.8264077738858759e-04" rms="4.7950190305709839e-01" purity="5.3679561614990234e-01" nType="-99"/>
          <Node pos="r" depth="2" NCoef="0" IVar="-1" Cut="0.0000000000000000e+00" cType="1" res="2.0535765215754509e-03" rms="3.7522098422050476e-01" purity="8.2893025875091553e-01" nType="-99"/>
        </Node>
        <Node pos="r" depth="1" NCoef="0" IVar="1" Cut="1.7299438714981079e+00" cType="1" res="-7.9890429973602295e-02" rms="4.4579011201858521e-01" purity="3.1496232748031616e-01" nType="0">
          <Node pos="l" depth="2" NCoef="0" IVar="-1" Cut="0.0000000000000000e+00" cType="1" res="-7.4529409175738692e-04" rms="4.6426153182983398e-01" purity="3.5522317886352539e-01" nType="-99"/>
          <Node pos="r" depth="2" NCoef="0" IVar="-1" Cut="0.0000000000000000e+00" cType="1" res="-3.8741100579500198e-03" rms="3.1940123438835144e-01" purity="1.2767682969570160e-01" nType="-99"/>
        </Node>
      </Node>
    </BinaryTree>
    <BinaryTree type="DecisionTree" boostWeight="1.0000000000000000e+00" itree="195">
      <Node pos="s" depth="0" NCoef="0" IVar="0" Cut="5.2923130989074707e+00" cType="1" res="1.2000275775790215e-02" rms="4.6710386872291565e-01" purity="4.9614492058753967e-01" nType="0">
        <Node pos="l" depth="1" NCoef="0" IVar="2" Cut="2.3394670104980469e+02" cType="1" res="-1.3706785440444946e-01" rms="3.9832621812820435e-01" purity="2.0367403328418732e-01" nType="0">
          <Node pos="l" depth="2" NCoef="0" IVar="-1" Cut="0.0000000000000000e+00" cType="1" res="-3.1439682934433222e-03" rms="3.4870988130569458e-01" purity="1.4372809231281281e-01" nType="-99"/>
          <Node pos="r" depth="2" NCoef="0" IVar="-1" Cut="0.0000000000000000e+00" cType="1" res="-3.3844177960418165e-04" rms="4.4856616854667664e-01" purity="3.0651590228080750e-01" nType="-99"/>
        </Node>
        <Node pos="r" depth="1" NCoef="0" IVar="1" Cut="1.4813365936279297e+00" cType="1" res="3.7715576589107513e-02" rms="4.7324350476264954e-01" purity="5.4659819602966309e-01" nType="0">
          <Node pos="l" depth="2" NCoef="0" IVar="-1" Cut="0.0000000000000000e+00" cType="1" res="6.9335685111582279e-04" rms="4.7614300251007080e-01" purity="5.8822101354598999e-01" nType="-99"/>
          <Node pos="r" depth="2" NCoef="0" IVar="-1" Cut="0.0000000000000000e+00" cType="1" res="-2.3127165623009205e-03" rms="4.0965747833251953e-01" purity="2.2824898362159729e-01" nType="-99"/>
        </Node>
      </Node>
    </BinaryTree>
    <BinaryTree type="DecisionTree" boostWeight="1.0000000000000000e+00" itree="196">
      <Node pos="s" depth="0" NCoef="0" IVar="0" Cut="6.4808759689331055e+00" cType="1" res="7.3222792707383633e-03" rms="4.6297594904899597e-01" purity="4.9625667929649353e-01" nType="0">
        <Node pos="l" depth="1" NCoef="0" IVar="2" Cut="1.8226655578613281e+02" cType="1" res="-6.4685672521591187e-02" rms="4.5536139607429504e-01" purity="3.3166393637657166e-01" nType="0">
          <Node pos="l" depth="2" NCoef="0" IVar="-1" Cut="0.0000000000000000e+00" cType="1" res="-1.8988705705851316e-03" rms="4.2955172061920166e-01" purity="2.6001232862472534e-01" nType="-99"/>
          <Node pos="r" depth="2" NCoef="0" IVar="-1" Cut="0.0000000000000000e+00" cType="1" res="-2.3236815468408167e-04" rms="4.6418195962905884e-01" purity="3.7552464008331299e-01" nType="-99"/>
        </Node>
        <Node pos="r" depth="1" NCoef="0" IVar="1" Cut="1.5109688043594360e+00" cType="1" res="6.8646587431430817e-02" rms="4.6057075262069702e-01" purity="6.3642919063568115e-01" nType="0">
          <Node pos="l" depth="2" NCoef="0" IVar="-1" Cut="0.0000000000000000e+00" cType="1" res="9.8419561982154846e-04" rms="4.5734760165214539e-01" purity="6.7486786842346191e-01" nType="-99"/>
          <Node pos="r" depth="2" NCoef="0" IVar="-1" Cut="0.0000000000000000e+00" cType="1" res="-1.6186513239517808e-03" rms="4.5301902294158936e-01" purity="2.9018372297286987e-01" nType="-99"/>
        </Node>
      </Node>
    </BinaryTree>
    <BinaryTree type="DecisionTree" boostWeight="1.0000000000000000e+00" itree="197">
      <Node pos="s" depth="0" NCoef="0" IVar="0" Cut="6.9889416694641113e+00" cType="1" res="1.4847610145807266e-02" rms="4.6452638506889343e-01" purity="5.0250595808029175e-01" nType="0">
        <Node pos="l" depth="1" NCoef="0" IVar="6" Cut="6.2028961181640625e+02" cType="1" res="-4.2688250541687012e-02" rms="4.6703296899795532e-01" purity="3.7253192067146301e-01" nType="0">
          <Node pos="l" depth="2" NCoef="0" IVar="-1" Cut="0.0000000000000000e+00" cType="1" res="-9.2286831932142377e-04" rms="4.5548057556152344e-01" purity="3.3817610144615173e-01" nType="-99"/>
          <Node pos="r" depth="2" NCoef="0" IVar="-1" Cut="0.0000000000000000e+00" cType="1" res="1.0925912065431476e-03" rms="4.9850863218307495e-01" purity="5.4046159982681274e-01" nType="-99"/>
        </Node>
        <Node pos="r" depth="1" NCoef="0" IVar="3" Cut="1.0222747802734375e+02" cType="1" res="9.9638387560844421e-02" rms="4.4752159714698792e-01" purity="6.9404911994934082e-01" nType="0">
          <Node pos="l" depth="2" NCoef="0" IVar="-1" Cut="0.0000000000000000e+00" cType="1" res="6.5327883930876851e-04" rms="4.6128988265991211e-01" purity="6.5737861394882202e-01" nType="-99"/>
          <Node pos="r" depth="2" NCoef="0" IVar="-1" Cut="0.0000000000000000e+00" cType="1" res="2.2222425322979689e-03" rms="3.9466518163681030e-01" purity="7.8117036819458008e-01" nType="-99"/>
        </Node>
      </Node>
    </BinaryTree>
    <BinaryTree type="DecisionTree" boostWeight="1.0000000000000000e+00" itree="198">
      <Node pos="s" depth="0" NCoef="0" IVar="0" Cut="6.5893487930297852e+00" cType="1" res="1.1767864227294922e-02" rms="4.6472781896591187e-01" purity="4.9909937381744385e-01" nType="0">
        <Node pos="l" depth="1" NCoef="0" IVar="3" Cut="4.1509334564208984e+01" cType="1" res="-5.6592494249343872e-02" rms="4.5919084548950195e-01" purity="3.4362164139747620e-01" nType="0">
          <Node pos="l" depth="2" NCoef="0" IVar="-1" Cut="0.0000000000000000e+00" cType="1" res="-3.8054734468460083e-03" rms="3.4773826599121094e-01" purity="1.5723618865013123e-01" nType="-99"/>
          <Node pos="r" depth="2" NCoef="0" IVar="-1" Cut="0.0000000000000000e+00" cType="1" res="-4.4634944060817361e-04" rms="4.6685966849327087e-01" purity="3.6735761165618896e-01" nType="-99"/>
        </Node>
        <Node pos="r" depth="1" NCoef="0" IVar="7" Cut="2.9000181704759598e-02" cType="1" res="7.8648954629898071e-02" rms="4.6036058664321899e-01" purity="6.5121269226074219e-01" nType="0">
          <Node pos="l" depth="2" NCoef="0" IVar="-1" Cut="0.0000000000000000e+00" cType="1" res="1.4352482976391912e-03" rms="4.3878117203712463e-01" purity="7.1607905626296997e-01" nType="-99"/>
          <Node pos="r" depth="2" NCoef="0" IVar="-1" Cut="0.0000000000000000e+00" cType="1" res="-3.5408971598371863e-05" rms="4.8100444674491882e-01" purity="5.4973065853118896e-01" nType="-99"/>
        </Node>
      </Node>
    </BinaryTree>
    <BinaryTree type="DecisionTree" boostWeight="1.0000000000000000e+00" itree="199">
      <Node pos="s" depth="0" NCoef="0" IVar="0" Cut="6.7979960441589355e+00" cType="1" res="1.6371445730328560e-02" rms="4.6019700169563293e-01" purity="5.0852364301681519e-01" nType="0">
        <Node pos="l" depth="1" NCoef="0" IVar="0" Cut="5.0568418502807617e+00" cType="1" res="-4.8737466335296631e-02" rms="4.6140456199645996e-01" purity="3.5929557681083679e-01" nType="0">
          <Node pos="l" depth="2" NCoef="0" IVar="-1" Cut="0.0000000000000000e+00" cType="1" res="-2.8933580033481121e-03" rms="3.5085231065750122e-01" purity="1.5329512953758240e-01" nType="-99"/>
          <Node pos="r" depth="2" NCoef="0" IVar="-1" Cut="0.0000000000000000e+00" cType="1" res="-2.4337689683306962e-04" rms="4.7836625576019287e-01" purity="4.0653726458549500e-01" nType="-99"/>
        </Node>
        <Node pos="r" depth="1" NCoef="0" IVar="1" Cut="1.0485236644744873e+00" cType="1" res="9.1945990920066833e-02" rms="4.4705414772033691e-01" purity="6.8173873424530029e-01" nType="0">
          <Node pos="l" depth="2" NCoef="0" IVar="-1" Cut="0.0000000000000000e+00" cType="1" res="1.4669297961518168e-03" rms="4.2007979750633240e-01" purity="7.6643228530883789e-01" nType="-99"/>
          <Node pos="r" depth="2" NCoef="0" IVar="-1" Cut="0.0000000000000000e+00" cType="1" res="-1.2872458319179714e-04" rms="4.8739120364189148e-01" purity="4.9077489972114563e-01" nType="-99"/>
        </Node>
      </Node>
    </BinaryTree>
    <BinaryTree type="DecisionTree" boostWeight="1.0000000000000000e+00" itree="200">
      <Node pos="s" depth="0" NCoef="0" IVar="3" Cut="1.0663140106201172e+02" cType="1" res="1.2909558601677418e-02" rms="4.6663516759872437e-01" purity="5.0122416019439697e-01" nType="0">
        <Node pos="l" depth="1" NCoef="0" IVar="0" Cut="7.1023764610290527e+00" cType="1" res="-2.1463824436068535e-02" rms="4.6746349334716797e-01" purity="4.6479204297065735e-01" nType="0">
          <Node pos="l" depth="2" NCoef="0" IVar="-1" Cut="0.0000000000000000e+00" cType="1" res="-8.4260449511930346e-04" rms="4.6546179056167603e-01" purity="3.5578942298889160e-01" nType="-99"/>
          <Node pos="r" depth="2" NCoef="0" IVar="-1" Cut="0.0000000000000000e+00" cType="1" res="6.1935797566547990e-04" rms="4.6133333444595337e-01" purity="6.6016894578933716e-01" nType="-99"/>
        </Node>
        <Node pos="r" depth="1" NCoef="0" IVar="1" Cut="1.3505951166152954e+00" cType="1" res="1.2523737549781799e-01" rms="4.4580405950546265e-01" purity="6.2027972936630249e-01" nType="0">
          <Node pos="l" depth="2" NCoef="0" IVar="-1" Cut="0.0000000000000000e+00" cType="1" res="2.0563278812915087e-03" rms="4.2890530824661255e-01" purity="7.2408503293991089e-01" nType="-99"/>
          <Node pos="r" depth="2" NCoef="0" IVar="-1" Cut="0.0000000000000000e+00" cType="1" res="-1.4780194032937288e-03" rms="4.3271642923355103e-01" purity="2.6980942487716675e-01" nType="-99"/>
        </Node>
      </Node>
    </BinaryTree>
    <BinaryTree type="DecisionTree" boostWeight="1.0000000000000000e+00" itree="201">
      <Node pos="s" depth="0" NCoef="0" IVar="0" Cut="7.0307221412658691e+00" cType="1" res="7.8614335507154465e-03" rms="4.6209391951560974e-01" purity="4.9506404995918274e-01" nType="0">
        <Node pos="l" depth="1" NCoef="0" IVar="6" Cut="3.5563821411132812e+02" cType="1" res="-4.3158203363418579e-02" rms="4.6530976891517639e-01" purity="3.6851456761360168e-01" nType="0">
          <Node pos="l" depth="2" NCoef="0" IVar="-1" Cut="0.0000000000000000e+00" cType="1" res="-2.1860853303223848e-03" rms="4.1642901301383972e-01" purity="2.3028455674648285e-01" nType="-99"/>
          <Node pos="r" depth="2" NCoef="0" IVar="-1" Cut="0.0000000000000000e+00" cType="1" res="-1.4735519653186202e-04" rms="4.7431078553199768e-01" purity="4.0960732102394104e-01" nType="-99"/>
        </Node>
        <Node pos="r" depth="1" NCoef="0" IVar="1" Cut="1.0519689321517944e+00" cType="1" res="8.6123205721378326e-02" rms="4.4591271877288818e-01" purity="6.8918526172637939e-01" nType="0">
          <Node pos="l" depth="2" NCoef="0" IVar="-1" Cut="0.0000000000000000e+00" cType="1" res="1.3962604571133852e-03" rms="4.2181885242462158e-01" purity="7.6710176467895508e-01" nType="-99"/>
          <Node pos="r" depth="2" NCoef="0" IVar="-1" Cut="0.0000000000000000e+00" cType="1" res="-1.6499545017722994e-04" rms="4.8394483327865601e-01" purity="5.0522577762603760e-01" nType="-99"/>
        </Node>
      </Node>
    </BinaryTree>
    <BinaryTree type="DecisionTree" boostWeight="1.0000000000000000e+00" itree="202">
      <Node pos="s" depth="0" NCoef="0" IVar="0" Cut="7.6932301521301270e+00" cType="1" res="1.6068819910287857e-02" rms="4.6445101499557495e-01" purity="5.0467312335968018e-01" nType="0">
        <Node pos="l" depth="1" NCoef="0" IVar="1" Cut="7.7284234762191772e-01" cType="1" res="-2.0314645022153854e-02" rms="4.7020238637924194e-01" purity="4.2745929956436157e-01" nType="0">
          <Node pos="l" depth="2" NCoef="0" IVar="-1" Cut="0.0000000000000000e+00" cType="1" res="7.7826477354392409e-04" rms="4.7747859358787537e-01" purity="5.6098061800003052e-01" nType="-99"/>
          <Node pos="r" depth="2" NCoef="0" IVar="-1" Cut="0.0000000000000000e+00" cType="1" res="-8.6938840104267001e-04" rms="4.6020469069480896e-01" purity="3.6088305711746216e-01" nType="-99"/>
        </Node>
        <Node pos="r" depth="1" NCoef="0" IVar="7" Cut="-3.7120509892702103e-02" cType="1" res="1.2573198974132538e-01" rms="4.2836484313011169e-01" purity="7.3740285634994507e-01" nType="0">
          <Node pos="l" depth="2" NCoef="0" IVar="-1" Cut="0.0000000000000000e+00" cType="1" res="2.3353118449449539e-03" rms="3.3735033869743347e-01" purity="8.5852408409118652e-01" nType="-99"/>
          <Node pos="r" depth="2" NCoef="0" IVar="-1" Cut="0.0000000000000000e+00" cType="1" res="1.0061119683086872e-03" rms="4.5192840695381165e-01" purity="6.9185680150985718e-01" nType="-99"/>
        </Node>
      </Node>
    </BinaryTree>
    <BinaryTree type="DecisionTree" boostWeight="1.0000000000000000e+00" itree="203">
      <Node pos="s" depth="0" NCoef="0" IVar="1" Cut="1.1662850379943848e+00" cType="1" res="1.8608940765261650e-02" rms="4.6493223309516907e-01" purity="5.1028883457183838e-01" nType="0">
        <Node pos="l" depth="1" NCoef="0" IVar="6" Cut="4.1480538940429688e+02" cType="1" res="6.0598343610763550e-02" rms="4.6844202280044556e-01" purity="5.9232699871063232e-01" nType="0">
          <Node pos="l" depth="2" NCoef="0" IVar="-1" Cut="0.0000000000000000e+00" cType="1" res="-6.9832336157560349e-04" rms="4.6373423933982849e-01" purity="4.4560661911964417e-01" nType="-99"/>
          <Node pos="r" depth="2" NCoef="0" IVar="-1" Cut="0.0000000000000000e+00" cType="1" res="1.3043527724221349e-03" rms="4.5985504984855652e-01" purity="6.6473805904388428e-01" nType="-99"/>
        </Node>
        <Node pos="r" depth="1" NCoef="0" IVar="0" Cut="7.6797094345092773e+00" cType="1" res="-8.3539634943008423e-02" rms="4.3985110521316528e-01" purity="3.1071257591247559e-01" nType="0">
          <Node pos="l" depth="2" NCoef="0" IVar="-1" Cut="0.0000000000000000e+00" cType="1" res="-1.7892438918352127e-03" rms="4.2098703980445862e-01" purity="2.5130861997604370e-01" nType="-99"/>
          <Node pos="r" depth="2" NCoef="0" IVar="-1" Cut="0.0000000000000000e+00" cType="1" res="4.5681701158173382e-04" rms="4.8762202262878418e-01" purity="5.4058045148849487e-01" nType="-99"/>
        </Node>
      </Node>
    </BinaryTree>
    <BinaryTree type="DecisionTree" boostWeight="1.0000000000000000e+00" itree="204">
      <Node pos="s" depth="0" NCoef="0" IVar="0" Cut="7.9912114143371582e+00" cType="1" res="3.8138509262353182e-03" rms="4.6537324786186218e-01" purity="4.9225476384162903e-01" nType="0">
        <Node pos="l" depth="1" NCoef="0" IVar="6" Cut="5.2124224853515625e+02" cType="1" res="-2.4886852130293846e-02" rms="4.7026240825653076e-01" purity="4.3351078033447266e-01" nType="0">
          <Node pos="l" depth="2" NCoef="0" IVar="-1" Cut="0.0000000000000000e+00" cType="1" res="-8.6178258061408997e-04" rms="4.6398019790649414e-01" purity="3.7949299812316895e-01" nType="-99"/>
          <Node pos="r" depth="2" NCoef="0" IVar="-1" Cut="0.0000000000000000e+00" cType="1" res="7.1256817318499088e-04" rms="4.7180506587028503e-01" purity="5.4287558794021606e-01" nType="-99"/>
        </Node>
        <Node pos="r" depth="1" NCoef="0" IVar="1" Cut="8.1452286243438721e-01" cType="1" res="1.2154868245124817e-01" rms="4.2493110895156860e-01" purity="7.3323184251785278e-01" nType="0">
          <Node pos="l" depth="2" NCoef="0" IVar="-1" Cut="0.0000000000000000e+00" cType="1" res="1.9004307687282562e-03" rms="3.7159341573715210e-01" purity="8.3416932821273804e-01" nType="-99"/>
          <Node pos="r" depth="2" NCoef="0" IVar="-1" Cut="0.0000000000000000e+00" cType="1" res="8.3273334894329309e-04" rms="4.5824414491653442e-01" purity="6.5037834644317627e-01" nType="-99"/>
        </Node>
      </Node>
    </BinaryTree>
    <BinaryTree type="DecisionTree" boostWeight="1.0000000000000000e+00" itree="205">
      <Node pos="s" depth="0" NCoef="0" IVar="1" Cut="1.4843600988388062e+00" cType="1" res="1.3813814148306847e-02" rms="4.6683770418167114e-01" purity="5.0370925664901733e-01" nType="0">
        <Node pos="l" depth="1" NCoef="0" IVar="2" Cut="1.9078379821777344e+02" cType="1" res="3.4081690013408661e-02" rms="4.7375681996345520e-01" purity="5.4460275173187256e-01" nType="0">
          <Node pos="l" depth="2" NCoef="0" IVar="-1" Cut="0.0000000000000000e+00" cType="1" res="-4.2271558777429163e-04" rms="4.7421416640281677e-01" purity="4.5572063326835632e-01" nType="-99"/>
          <Node pos="r" depth="2" NCoef="0" IVar="-1" Cut="0.0000000000000000e+00" cType="1" res="9.8651321604847908e-04" rms="4.6696147322654724e-01" purity="6.0969269275665283e-01" nType="-99"/>
        </Node>
        <Node pos="r" depth="1" NCoef="0" IVar="0" Cut="6.7527465820312500e+00" cType="1" res="-1.3167858123779297e-01" rms="3.8353931903839111e-01" purity="2.1015639603137970e-01" nType="0">
          <Node pos="l" depth="2" NCoef="0" IVar="-1" Cut="0.0000000000000000e+00" cType="1" res="-4.5312438160181046e-03" rms="2.5182622671127319e-01" purity="6.9125391542911530e-02" nType="-99"/>
          <Node pos="r" depth="2" NCoef="0" IVar="-1" Cut="0.0000000000000000e+00" cType="1" res="-1.3458386820275337e-04" rms="4.8345485329627991e-01" purity="3.9993965625762939e-01" nType="-99"/>
        </Node>
      </Node>
    </BinaryTree>
    <BinaryTree type="DecisionTree" boostWeight="1.0000000000000000e+00" itree="206">
      <Node pos="s" depth="0" NCoef="0" IVar="1" Cut="1.2499934434890747e+00" cType="1" res="-3.6603985354304314e-03" rms="4.6286514401435852e-01" purity="4.8976704478263855e-01" nType="0">
        <Node pos="l" depth="1" NCoef="0" IVar="0" Cut="6.0710597038269043e+00" cType="1" res="3.0749054625630379e-02" rms="4.6942371129989624e-01" purity="5.5903077125549316e-01" nType="0">
          <Node pos="l" depth="2" NCoef="0" IVar="-1" Cut="0.0000000000000000e+00" cType="1" res="-6.1150093097239733e-04" rms="4.7157782316207886e-01" purity="3.6158573627471924e-01" nType="-99"/>
          <Node pos="r" depth="2" NCoef="0" IVar="-1" Cut="0.0000000000000000e+00" cType="1" res="7.7736476669088006e-04" rms="4.6350604295730591e-01" purity="6.5456384420394897e-01" nType="-99"/>
        </Node>
        <Node pos="r" depth="1" NCoef="0" IVar="0" Cut="5.8527092933654785e+00" cType="1" res="-1.1965224891901016e-01" rms="4.1974675655364990e-01" purity="2.5628399848937988e-01" nType="0">
          <Node pos="l" depth="2" NCoef="0" IVar="-1" Cut="0.0000000000000000e+00" cType="1" res="-4.3550911359488964e-03" rms="2.6923108100891113e-01" purity="7.9181514680385590e-02" nType="-99"/>
          <Node pos="r" depth="2" NCoef="0" IVar="-1" Cut="0.0000000000000000e+00" cType="1" res="-1.1333245784044266e-03" rms="4.6440210938453674e-01" purity="3.3395832777023315e-01" nType="-99"/>
        </Node>
      </Node>
    </BinaryTree>
    <BinaryTree type="DecisionTree" boostWeight="1.0000000000000000e+00" itree="207">
      <Node pos="s" depth="0" NCoef="0" IVar="0" Cut="6.2469525337219238e+00" cType="1" res="2.3096781224012375e-02" rms="4.6342504024505615e-01" purity="5.0881296396255493e-01" nType="0">
        <Node pos="l" depth="1" NCoef="0" IVar="1" Cut="1.2582541704177856e+00" cType="1" res="-5.0778031349182129e-02" rms="4.5546939969062805e-01" purity="3.3405607938766479e-01" nType="0">
          <Node pos="l" depth="2" NCoef="0" IVar="-1" Cut="0.0000000000000000e+00" cType="1" res="-1.5814593643881381e-04" rms="4.8137947916984558e-01" purity="4.0055316686630249e-01" nType="-99"/>
          <Node pos="r" depth="2" NCoef="0" IVar="-1" Cut="0.0000000000000000e+00" cType="1" res="-2.6831955183297396e-03" rms="3.5477027297019958e-01" purity="1.5110827982425690e-01" nType="-99"/>
        </Node>
        <Node pos="r" depth="1" NCoef="0" IVar="4" Cut="-1.1988684535026550e-01" cType="1" res="7.1920983493328094e-02" rms="4.6217265725135803e-01" purity="6.2431061267852783e-01" nType="0">
          <Node pos="l" depth="2" NCoef="0" IVar="-1" Cut="0.0000000000000000e+00" cType="1" res="-1.4203847385942936e-03" rms="4.6222585439682007e-01" purity="3.8920438289642334e-01" nType="-99"/>
          <Node pos="r" depth="2" NCoef="0" IVar="-1" Cut="0.0000000000000000e+00" cType="1" res="1.0240229312330484e-03" rms="4.5822283625602722e-01" purity="6.4776939153671265e-01" nType="-99"/>
        </Node>
      </Node>
    </BinaryTree>
    <BinaryTree type="DecisionTree" boostWeight="1.0000000000000000e+00" itree="208">
      <Node pos="s" depth="0" NCoef="0" IVar="0" Cut="7.4046468734741211e+00" cType="1" res="1.0986602865159512e-02" rms="4.6694383025169373e-01" purity="5.0315624475479126e-01" nType="0">
        <Node pos="l" depth="1" NCoef="0" IVar="2" Cut="2.0362554931640625e+02" cType="1" res="-3.0812816694378853e-02" rms="4.7403851151466370e-01" purity="4.0780350565910339e-01" nType="0">
          <Node pos="l" depth="2" NCoef="0" IVar="-1" Cut="0.0000000000000000e+00" cType="1" res="-1.1607069754973054e-03" rms="4.6911016106605530e-01" purity="3.4970140457153320e-01" nType="-99"/>
          <Node pos="r" depth="2" NCoef="0" IVar="-1" Cut="0.0000000000000000e+00" cType="1" res="3.1983270309865475e-04" rms="4.7185835242271423e-01" purity="4.6238195896148682e-01" nType="-99"/>
        </Node>
        <Node pos="r" depth="1" NCoef="0" IVar="3" Cut="8.6249702453613281e+01" cType="1" res="1.0282887518405914e-01" rms="4.3714302778244019e-01" purity="7.1266674995422363e-01" nType="0">
          <Node pos="l" depth="2" NCoef="0" IVar="-1" Cut="0.0000000000000000e+00" cType="1" res="5.3832679986953735e-04" rms="4.6049508452415466e-01" purity="6.6172200441360474e-01" nType="-99"/>
          <Node pos="r" depth="2" NCoef="0" IVar="-1" Cut="0.0000000000000000e+00" cType="1" res="1.9644454587250948e-03" rms="3.9284116029739380e-01" purity="7.7857422828674316e-01" nType="-99"/>
        </Node>
      </Node>
    </BinaryTree>
    <BinaryTree type="DecisionTree" boostWeight="1.0000000000000000e+00" itree="209">
      <Node pos="s" depth="0" NCoef="0" IVar="1" Cut="1.1526411771774292e+00" cType="1" res="-4.1551040485501289e-03" rms="4.6220234036445618e-01" purity="4.8039388656616211e-01" nType="0">
        <Node pos="l" depth="1" NCoef="0" IVar="2" Cut="1.8930175781250000e+02" cType="1" res="3.8629040122032166e-02" rms="4.7116479277610779e-01" purity="5.6583487987518311e-01" nType="0">
          <Node pos="l" depth="2" NCoef="0" IVar="-1" Cut="0.0000000000000000e+00" cType="1" res="-6.0288124950602651e-04" rms="4.7073677182197571e-01" purity="4.5363751053810120e-01" nType="-99"/>
          <Node pos="r" depth="2" NCoef="0" IVar="-1" Cut="0.0000000000000000e+00" cType="1" res="1.3013966381549835e-03" rms="4.5770269632339478e-01" purity="6.6372543573379517e-01" nType="-99"/>
        </Node>
        <Node pos="r" depth="1" NCoef="0" IVar="4" Cut="2.3376399651169777e-02" cType="1" res="-1.0426935553550720e-01" rms="4.2396956682205200e-01" purity="2.8046339750289917e-01" nType="0">
          <Node pos="l" depth="2" NCoef="0" IVar="-1" Cut="0.0000000000000000e+00" cType="1" res="-2.5024281349033117e-03" rms="3.9815530180931091e-01" purity="2.2400800883769989e-01" nType="-99"/>
          <Node pos="r" depth="2" NCoef="0" IVar="-1" Cut="0.0000000000000000e+00" cType="1" res="5.5064196203602478e-05" rms="4.5550927519798279e-01" purity="4.0016359090805054e-01" nType="-99"/>
        </Node>
      </Node>
    </BinaryTree>
    <BinaryTree type="DecisionTree" boostWeight="1.0000000000000000e+00" itree="210">
      <Node pos="s" depth="0" NCoef="0" IVar="0" Cut="7.9912114143371582e+00" cType="1" res="2.2501509636640549e-02" rms="4.6003964543342590e-01" purity="5.1537340879440308e-01" nType="0">
        <Node pos="l" depth="1" NCoef="0" IVar="6" Cut="4.6869296264648438e+02" cType="1" res="-8.3763925358653069e-03" rms="4.6651235222816467e-01" purity="4.5360863208770752e-01" nType="0">
          <Node pos="l" depth="2" NCoef="0" IVar="-1" Cut="0.0000000000000000e+00" cType="1" res="-8.4102927939966321e-04" rms="4.5571854710578918e-01" purity="3.7967509031295776e-01" nType="-99"/>
          <Node pos="r" depth="2" NCoef="0" IVar="-1" Cut="0.0000000000000000e+00" cType="1" res="7.5106846634298563e-04" rms="4.7025081515312195e-01" purity="5.4678201675415039e-01" nType="-99"/>
        </Node>
        <Node pos="r" depth="1" NCoef="0" IVar="1" Cut="7.7563530206680298e-01" cType="1" res="1.4669549465179443e-01" rms="4.1018986701965332e-01" purity="7.6379758119583130e-01" nType="0">
          <Node pos="l" depth="2" NCoef="0" IVar="-1" Cut="0.0000000000000000e+00" cType="1" res="2.2329676430672407e-03" rms="3.3491638302803040e-01" purity="8.7034988403320312e-01" nType="-99"/>
          <Node pos="r" depth="2" NCoef="0" IVar="-1" Cut="0.0000000000000000e+00" cType="1" res="1.0984562104567885e-03" rms="4.5112326741218567e-01" purity="6.8560427427291870e-01" nType="-99"/>
        </Node>
      </Node>
    </BinaryTree>
    <BinaryTree type="DecisionTree" boostWeight="1.0000000000000000e+00" itree="211">
      <Node pos="s" depth="0" NCoef="0" IVar="1" Cut="1.0354229211807251e+00" cType="1" res="2.3921169340610504e-02" rms="4.6446168422698975e-01" purity="5.1280450820922852e-01" nType="0">
        <Node pos="l" depth="1" NCoef="0" IVar="6" Cut="3.6198010253906250e+02" cType="1" res="7.3669277131557465e-02" rms="4.6260753273963928e-01" purity="6.1061006784439087e-01" nType="0">
          <Node pos="l" depth="2" NCoef="0" IVar="-1" Cut="0.0000000000000000e+00" cType="1" res="-8.3672231994569302e-04" rms="4.7180798649787903e-01" purity="4.2410895228385925e-01" nType="-99"/>
          <Node pos="r" depth="2" NCoef="0" IVar="-1" Cut="0.0000000000000000e+00" cType="1" res="1.1407205602154136e-03" rms="4.5481058955192566e-01" purity="6.5111607313156128e-01" nType="-99"/>
        </Node>
        <Node pos="r" depth="1" NCoef="0" IVar="1" Cut="1.7097381353378296e+00" cType="1" res="-5.7786833494901657e-02" rms="4.5585837960243225e-01" purity="3.5216525197029114e-01" nType="0">
          <Node pos="l" depth="2" NCoef="0" IVar="-1" Cut="0.0000000000000000e+00" cType="1" res="-4.3168530100956559e-04" rms="4.7233048081398010e-01" purity="3.9351603388786316e-01" nType="-99"/>
          <Node pos="r" depth="2" NCoef="0" IVar="-1" Cut="0.0000000000000000e+00" cType="1" res="-3.8271558005362749e-03" rms="3.1843152642250061e-01" purity="1.2850086390972137e-01" nType="-99"/>
        </Node>
      </Node>
    </BinaryTree>
    <BinaryTree type="DecisionTree" boostWeight="1.0000000000000000e+00" itree="212">
      <Node pos="s" depth="0" NCoef="0" IVar="1" Cut="1.2473124265670776e+00" cType="1" res="3.0085068196058273e-02" rms="4.5970246195793152e-01" purity="5.2138954401016235e-01" nType="0">
        <Node pos="l" depth="1" NCoef="0" IVar="2" Cut="1.8930175781250000e+02" cType="1" res="6.6159904003143311e-02" rms="4.6247819066047668e-01" purity="5.9029191732406616e-01" nType="0">
          <Node pos="l" depth="2" NCoef="0" IVar="-1" Cut="0.0000000000000000e+00" cType="1" res="-2.3748508829157799e-04" rms="4.7867918014526367e-01" purity="4.8043704032897949e-01" nType="-99"/>
          <Node pos="r" depth="2" NCoef="0" IVar="-1" Cut="0.0000000000000000e+00" cType="1" res="1.4896541833877563e-03" rms="4.3753594160079956e-01" purity="6.7658674716949463e-01" nType="-99"/>
        </Node>
        <Node pos="r" depth="1" NCoef="0" IVar="0" Cut="6.4013547897338867e+00" cType="1" res="-9.4794355332851410e-02" rms="4.2704275250434875e-01" purity="2.8287163376808167e-01" nType="0">
          <Node pos="l" depth="2" NCoef="0" IVar="-1" Cut="0.0000000000000000e+00" cType="1" res="-3.1279223039746284e-03" rms="3.4139445424079895e-01" purity="1.4074152708053589e-01" nType="-99"/>
          <Node pos="r" depth="2" NCoef="0" IVar="-1" Cut="0.0000000000000000e+00" cType="1" res="-3.6861441913060844e-04" rms="4.7991135716438293e-01" purity="4.0748378634452820e-01" nType="-99"/>
        </Node>
      </Node>
    </BinaryTree>
    <BinaryTree type="DecisionTree" boostWeight="1.0000000000000000e+00" itree="213">
      <Node pos="s" depth="0" NCoef="0" IVar="1" Cut="7.1917259693145752e-01" cType="1" res="2.2846583276987076e-02" rms="4.6058508753776550e-01" purity="5.1430660486221313e-01" nType="0">
        <Node pos="l" depth="1" NCoef="0" IVar="2" Cut="2.0900343322753906e+02" cType="1" res="1.1444297432899475e-01" rms="4.4717231392860413e-01" purity="6.6011703014373779e-01" nType="0">
          <Node pos="l" depth="2" NCoef="0" IVar="-1" Cut="0.0000000000000000e+00" cType="1" res="6.1652745353057981e-04" rms="4.6746978163719177e-01" purity="5.8009588718414307e-01" nType="-99"/>
          <Node pos="r" depth="2" NCoef="0" IVar="-1" Cut="0.0000000000000000e+00" cType="1" res="2.2206993307918310e-03" rms="3.9428749680519104e-01" purity="7.8815358877182007e-01" nType="-99"/>
        </Node>
        <Node pos="r" depth="1" NCoef="0" IVar="1" Cut="1.6715958118438721e+00" cType="1" res="-1.8013196066021919e-02" rms="4.6060591936111450e-01" purity="4.4926273822784424e-01" nType="0">
          <Node pos="l" depth="2" NCoef="0" IVar="-1" Cut="0.0000000000000000e+00" cType="1" res="2.2598422219743952e-05" rms="4.7040632367134094e-01" purity="4.8461291193962097e-01" nType="-99"/>
          <Node pos="r" depth="2" NCoef="0" IVar="-1" Cut="0.0000000000000000e+00" cType="1" res="-4.2130765505135059e-03" rms="2.8346359729766846e-01" purity="1.0121687501668930e-01" nType="-99"/>
        </Node>
      </Node>
    </BinaryTree>
    <BinaryTree type="DecisionTree" boostWeight="1.0000000000000000e+00" itree="214">
      <Node pos="s" depth="0" NCoef="0" IVar="0" Cut="6.8283720016479492e+00" cType="1" res="7.3132994584739208e-03" rms="4.5989215373992920e-01" purity="4.9985131621360779e-01" nType="0">
        <Node pos="l" depth="1" NCoef="0" IVar="0" Cut="5.0268115997314453e+00" cType="1" res="-5.3671717643737793e-02" rms="4.5959201455116272e-01" purity="3.4911918640136719e-01" nType="0">
          <Node pos="l" depth="2" NCoef="0" IVar="-1" Cut="0.0000000000000000e+00" cType="1" res="-3.2448449637740850e-03" rms="3.3737364411354065e-01" purity="1.3126322627067566e-01" nType="-99"/>
          <Node pos="r" depth="2" NCoef="0" IVar="-1" Cut="0.0000000000000000e+00" cType="1" res="-3.3867612364701927e-04" rms="4.7632572054862976e-01" purity="3.9411833882331848e-01" nType="-99"/>
        </Node>
        <Node pos="r" depth="1" NCoef="0" IVar="7" Cut="3.3094584941864014e-02" cType="1" res="7.7368542551994324e-02" rms="4.5015305280685425e-01" purity="6.7300164699554443e-01" nType="0">
          <Node pos="l" depth="2" NCoef="0" IVar="-1" Cut="0.0000000000000000e+00" cType="1" res="1.3687892351299524e-03" rms="4.2683702707290649e-01" purity="7.3117917776107788e-01" nType="-99"/>
          <Node pos="r" depth="2" NCoef="0" IVar="-1" Cut="0.0000000000000000e+00" cType="1" res="-3.2516545616090298e-05" rms="4.7706431150436401e-01" purity="5.7317101955413818e-01" nType="-99"/>
        </Node>
      </Node>
    </BinaryTree>
    <BinaryTree type="DecisionTree" boostWeight="1.0000000000000000e+00" itree="215">
      <Node pos="s" depth="0" NCoef="0" IVar="0" Cut="6.5540504455566406e+00" cType="1" res="2.5882071349769831e-03" rms="4.5868363976478577e-01" purity="4.9584209918975830e-01" nType="0">
        <Node pos="l" depth="1" NCoef="0" IVar="2" Cut="2.2305645751953125e+02" cType="1" res="-6.7532643675804138e-02" rms="4.5202594995498657e-01" purity="3.2686764001846313e-01" nType="0">
          <Node pos="l" depth="2" NCoef="0" IVar="-1" Cut="0.0000000000000000e+00" cType="1" res="-1.7384930979460478e-03" rms="4.3375793099403381e-01" purity="2.7022644877433777e-01" nType="-99"/>
          <Node pos="r" depth="2" NCoef="0" IVar="-1" Cut="0.0000000000000000e+00" cType="1" res="1.1022682883776724e-04" rms="4.6256026625633240e-01" purity="3.9679789543151855e-01" nType="-99"/>
        </Node>
        <Node pos="r" depth="1" NCoef="0" IVar="1" Cut="1.3020579814910889e+00" cType="1" res="6.4571671187877655e-02" rms="4.5558971166610718e-01" purity="6.4520740509033203e-01" nType="0">
          <Node pos="l" depth="2" NCoef="0" IVar="-1" Cut="0.0000000000000000e+00" cType="1" res="1.0346213821321726e-03" rms="4.4800430536270142e-01" purity="7.0372688770294189e-01" nType="-99"/>
          <Node pos="r" depth="2" NCoef="0" IVar="-1" Cut="0.0000000000000000e+00" cType="1" res="-1.4624026371166110e-03" rms="4.6115377545356750e-01" purity="3.2989493012428284e-01" nType="-99"/>
        </Node>
      </Node>
    </BinaryTree>
    <BinaryTree type="DecisionTree" boostWeight="1.0000000000000000e+00" itree="216">
      <Node pos="s" depth="0" NCoef="0" IVar="1" Cut="1.1632668972015381e+00" cType="1" res="1.4619740657508373e-02" rms="4.6297883987426758e-01" purity="5.0644654035568237e-01" nType="0">
        <Node pos="l" depth="1" NCoef="0" IVar="2" Cut="2.2218418884277344e+02" cType="1" res="5.3562406450510025e-02" rms="4.6653947234153748e-01" purity="5.8937180042266846e-01" nType="0">
          <Node pos="l" depth="2" NCoef="0" IVar="-1" Cut="0.0000000000000000e+00" cType="1" res="-8.5778274296899326e-06" rms="4.7232455015182495e-01" purity="5.2125078439712524e-01" nType="-99"/>
          <Node pos="r" depth="2" NCoef="0" IVar="-1" Cut="0.0000000000000000e+00" cType="1" res="1.6196260694414377e-03" rms="4.4091728329658508e-01" purity="7.0696854591369629e-01" nType="-99"/>
        </Node>
        <Node pos="r" depth="1" NCoef="0" IVar="1" Cut="1.7117843627929688e+00" cType="1" res="-8.2830652594566345e-02" rms="4.3906235694885254e-01" purity="2.9893383383750916e-01" nType="0">
          <Node pos="l" depth="2" NCoef="0" IVar="-1" Cut="0.0000000000000000e+00" cType="1" res="-7.7849446097388864e-04" rms="4.5867547392845154e-01" purity="3.4033393859863281e-01" nType="-99"/>
          <Node pos="r" depth="2" NCoef="0" IVar="-1" Cut="0.0000000000000000e+00" cType="1" res="-4.2321309447288513e-03" rms="3.0351948738098145e-01" purity="1.0887270420789719e-01" nType="-99"/>
        </Node>
      </Node>
    </BinaryTree>
    <BinaryTree type="DecisionTree" boostWeight="1.0000000000000000e+00" itree="217">
      <Node pos="s" depth="0" NCoef="0" IVar="0" Cut="5.0460381507873535e+00" cType="1" res="-1.1463547125458717e-03" rms="4.5941129326820374e-01" purity="4.8539286851882935e-01" nType="0">
        <Node pos="l" depth="1" NCoef="0" IVar="-1" Cut="0.0000000000000000e+00" cType="1" res="-4.4167637825012207e-03" rms="2.5956198573112488e-01" purity="7.6822347939014435e-02" nType="-99"/>
        <Node pos="r" depth="1" NCoef="0" IVar="1" Cut="1.0438799858093262e+00" cType="1" res="2.4465069174766541e-02" rms="4.6814900636672974e-01" purity="5.2813363075256348e-01" nType="0">
          <Node pos="l" depth="2" NCoef="0" IVar="-1" Cut="0.0000000000000000e+00" cType="1" res="8.0376921687275171e-04" rms="4.6805110573768616e-01" purity="6.2441378831863403e-01" nType="-99"/>
          <Node pos="r" depth="2" NCoef="0" IVar="-1" Cut="0.0000000000000000e+00" cType="1" res="-7.2492653271183372e-04" rms="4.5806702971458435e-01" purity="3.7218514084815979e-01" nType="-99"/>
        </Node>
      </Node>
    </BinaryTree>
    <BinaryTree type="DecisionTree" boostWeight="1.0000000000000000e+00" itree="218">
      <Node pos="s" depth="0" NCoef="0" IVar="3" Cut="9.4385696411132812e+01" cType="1" res="-1.8632767023518682e-03" rms="4.6453890204429626e-01" purity="4.8662167787551880e-01" nType="0">
        <Node pos="l" depth="1" NCoef="0" IVar="1" Cut="1.0679298639297485e+00" cType="1" res="-4.2325414717197418e-02" rms="4.6174973249435425e-01" purity="4.4241607189178467e-01" nType="0">
          <Node pos="l" depth="2" NCoef="0" IVar="-1" Cut="0.0000000000000000e+00" cType="1" res="-5.4005955462343991e-05" rms="4.7248029708862305e-01" purity="5.2190971374511719e-01" nType="-99"/>
          <Node pos="r" depth="2" NCoef="0" IVar="-1" Cut="0.0000000000000000e+00" cType="1" res="-2.0203562453389168e-03" rms="4.2302867770195007e-01" purity="2.5778743624687195e-01" nType="-99"/>
        </Node>
        <Node pos="r" depth="1" NCoef="0" IVar="1" Cut="1.3324288129806519e+00" cType="1" res="8.8145568966865540e-02" rms="4.5803940296173096e-01" purity="5.8495813608169556e-01" nType="0">
          <Node pos="l" depth="2" NCoef="0" IVar="-1" Cut="0.0000000000000000e+00" cType="1" res="1.4891665196046233e-03" rms="4.5288401842117310e-01" purity="6.7355287075042725e-01" nType="-99"/>
          <Node pos="r" depth="2" NCoef="0" IVar="-1" Cut="0.0000000000000000e+00" cType="1" res="-1.0534765897318721e-03" rms="4.3976169824600220e-01" purity="2.8991931676864624e-01" nType="-99"/>
        </Node>
      </Node>
    </BinaryTree>
    <BinaryTree type="DecisionTree" boostWeight="1.0000000000000000e+00" itree="219">
      <Node pos="s" depth="0" NCoef="0" IVar="0" Cut="6.9889416694641113e+00" cType="1" res="-5.6869331747293472e-03" rms="4.6231499314308167e-01" purity="4.8581978678703308e-01" nType="0">
        <Node pos="l" depth="1" NCoef="0" IVar="6" Cut="6.1502917480468750e+02" cType="1" res="-5.1918428391218185e-02" rms="4.6249318122863770e-01" purity="3.5914164781570435e-01" nType="0">
          <Node pos="l" depth="2" NCoef="0" IVar="-1" Cut="0.0000000000000000e+00" cType="1" res="-1.0187372099608183e-03" rms="4.5268738269805908e-01" purity="3.2729172706604004e-01" nType="-99"/>
          <Node pos="r" depth="2" NCoef="0" IVar="-1" Cut="0.0000000000000000e+00" cType="1" res="6.2920677009969950e-04" rms="4.9173781275749207e-01" purity="5.0527709722518921e-01" nType="-99"/>
        </Node>
        <Node pos="r" depth="1" NCoef="0" IVar="4" Cut="1.4001914858818054e-01" cType="1" res="5.9238322079181671e-02" rms="4.5418807864189148e-01" purity="6.6372036933898926e-01" nType="0">
          <Node pos="l" depth="2" NCoef="0" IVar="-1" Cut="0.0000000000000000e+00" cType="1" res="2.2256551892496645e-04" rms="4.6763560175895691e-01" purity="6.1420983076095581e-01" nType="-99"/>
          <Node pos="r" depth="2" NCoef="0" IVar="-1" Cut="0.0000000000000000e+00" cType="1" res="1.9932417199015617e-03" rms="3.8012278079986572e-01" purity="8.2226157188415527e-01" nType="-99"/>
        </Node>
      </Node>
    </BinaryTree>
    <BinaryTree type="DecisionTree" boostWeight="1.0000000000000000e+00" itree="220">
      <Node pos="s" depth="0" NCoef="0" IVar="0" Cut="5.7219400405883789e+00" cType="1" res="2.0193807780742645e-02" rms="4.6066382527351379e-01" purity="5.0865203142166138e-01" nType="0">
        <Node pos="l" depth="1" NCoef="0" IVar="6" Cut="4.7488909912109375e+02" cType="1" res="-9.0472258627414703e-02" rms="4.2702466249465942e-01" purity="2.6785990595817566e-01" nType="0">
          <Node pos="l" depth="2" NCoef="0" IVar="-1" Cut="0.0000000000000000e+00" cType="1" res="-2.2841116879135370e-03" rms="3.8593453168869019e-01" purity="1.9369713962078094e-01" nType="-99"/>
          <Node pos="r" depth="2" NCoef="0" IVar="-1" Cut="0.0000000000000000e+00" cType="1" res="9.5568866527173668e-05" rms="4.7409641742706299e-01" purity="3.9536994695663452e-01" nType="-99"/>
        </Node>
        <Node pos="r" depth="1" NCoef="0" IVar="6" Cut="3.3428591918945312e+02" cType="1" res="5.7495668530464172e-02" rms="4.6557155251502991e-01" purity="5.8981513977050781e-01" nType="0">
          <Node pos="l" depth="2" NCoef="0" IVar="-1" Cut="0.0000000000000000e+00" cType="1" res="-1.6443217173218727e-03" rms="4.3809223175048828e-01" purity="3.5752445459365845e-01" nType="-99"/>
          <Node pos="r" depth="2" NCoef="0" IVar="-1" Cut="0.0000000000000000e+00" cType="1" res="8.7894021999090910e-04" rms="4.6440529823303223e-01" purity="6.1291211843490601e-01" nType="-99"/>
        </Node>
      </Node>
    </BinaryTree>
    <BinaryTree type="DecisionTree" boostWeight="1.0000000000000000e+00" itree="221">
      <Node pos="s" depth="0" NCoef="0" IVar="1" Cut="9.8909080028533936e-01" cType="1" res="1.8924408359453082e-03" rms="4.6548691391944885e-01" purity="4.9030181765556335e-01" nType="0">
        <Node pos="l" depth="1" NCoef="0" IVar="2" Cut="1.9647842407226562e+02" cType="1" res="4.7847971320152283e-02" rms="4.6714791655540466e-01" purity="5.8679187297821045e-01" nType="0">
          <Node pos="l" depth="2" NCoef="0" IVar="-1" Cut="0.0000000000000000e+00" cType="1" res="-1.5513168182224035e-04" rms="4.7294074296951294e-01" purity="4.9820560216903687e-01" nType="-99"/>
          <Node pos="r" depth="2" NCoef="0" IVar="-1" Cut="0.0000000000000000e+00" cType="1" res="1.2999674072489142e-03" rms="4.5074060559272766e-01" purity="6.8642544746398926e-01" nType="-99"/>
        </Node>
        <Node pos="r" depth="1" NCoef="0" IVar="2" Cut="3.1790335083007812e+02" cType="1" res="-5.9247337281703949e-02" rms="4.5614621043205261e-01" purity="3.6193022131919861e-01" nType="0">
          <Node pos="l" depth="2" NCoef="0" IVar="-1" Cut="0.0000000000000000e+00" cType="1" res="-3.8970494642853737e-04" rms="4.6721529960632324e-01" purity="3.9936661720275879e-01" nType="-99"/>
          <Node pos="r" depth="2" NCoef="0" IVar="-1" Cut="0.0000000000000000e+00" cType="1" res="-2.0869830623269081e-03" rms="4.1694030165672302e-01" purity="2.6708921790122986e-01" nType="-99"/>
        </Node>
      </Node>
    </BinaryTree>
    <BinaryTree type="DecisionTree" boostWeight="1.0000000000000000e+00" itree="222">
      <Node pos="s" depth="0" NCoef="0" IVar="0" Cut="7.1190819740295410e+00" cType="1" res="-3.0838865786790848e-03" rms="4.6063306927680969e-01" purity="4.8685386776924133e-01" nType="0">
        <Node pos="l" depth="1" NCoef="0" IVar="3" Cut="9.5436431884765625e+01" cType="1" res="-5.5019281804561615e-02" rms="4.6029630303382874e-01" purity="3.6327216029167175e-01" nType="0">
          <Node pos="l" depth="2" NCoef="0" IVar="-1" Cut="0.0000000000000000e+00" cType="1" res="-1.3361887540668249e-03" rms="4.4998764991760254e-01" purity="3.1677550077438354e-01" nType="-99"/>
          <Node pos="r" depth="2" NCoef="0" IVar="-1" Cut="0.0000000000000000e+00" cType="1" res="6.4200832275673747e-04" rms="4.6754795312881470e-01" purity="4.7614818811416626e-01" nType="-99"/>
        </Node>
        <Node pos="r" depth="1" NCoef="0" IVar="7" Cut="7.7605366706848145e-02" cType="1" res="7.9436741769313812e-02" rms="4.4897684454917908e-01" purity="6.8321394920349121e-01" nType="0">
          <Node pos="l" depth="2" NCoef="0" IVar="-1" Cut="0.0000000000000000e+00" cType="1" res="1.2335107894614339e-03" rms="4.3747180700302124e-01" purity="7.2259265184402466e-01" nType="-99"/>
          <Node pos="r" depth="2" NCoef="0" IVar="-1" Cut="0.0000000000000000e+00" cType="1" res="-4.2639588355086744e-04" rms="4.7226750850677490e-01" purity="5.3829157352447510e-01" nType="-99"/>
        </Node>
      </Node>
    </BinaryTree>
    <BinaryTree type="DecisionTree" boostWeight="1.0000000000000000e+00" itree="223">
      <Node pos="s" depth="0" NCoef="0" IVar="1" Cut="1.5160460472106934e+00" cType="1" res="1.8968166783452034e-02" rms="4.6283143758773804e-01" purity="5.0688058137893677e-01" nType="0">
        <Node pos="l" depth="1" NCoef="0" IVar="2" Cut="1.3174163818359375e+02" cType="1" res="3.8912333548069000e-02" rms="4.6866241097450256e-01" purity="5.4601997137069702e-01" nType="0">
          <Node pos="l" depth="2" NCoef="0" IVar="-1" Cut="0.0000000000000000e+00" cType="1" res="-2.2338072303682566e-03" rms="4.3527683615684509e-01" purity="3.2540339231491089e-01" nType="-99"/>
          <Node pos="r" depth="2" NCoef="0" IVar="-1" Cut="0.0000000000000000e+00" cType="1" res="6.3904590206220746e-04" rms="4.6762564778327942e-01" purity="5.6391960382461548e-01" nType="-99"/>
        </Node>
        <Node pos="r" depth="1" NCoef="0" IVar="4" Cut="-8.4226273000240326e-02" cType="1" res="-1.4737378060817719e-01" rms="3.7138244509696960e-01" purity="1.8044309318065643e-01" nType="0">
          <Node pos="l" depth="2" NCoef="0" IVar="-1" Cut="0.0000000000000000e+00" cType="1" res="-3.4769522026181221e-03" rms="3.3900710940361023e-01" purity="1.3905672729015350e-01" nType="-99"/>
          <Node pos="r" depth="2" NCoef="0" IVar="-1" Cut="0.0000000000000000e+00" cType="1" res="-1.9263566937297583e-03" rms="3.9458623528480530e-01" purity="2.1687486767768860e-01" nType="-99"/>
        </Node>
      </Node>
    </BinaryTree>
    <BinaryTree type="DecisionTree" boostWeight="1.0000000000000000e+00" itree="224">
      <Node pos="s" depth="0" NCoef="0" IVar="3" Cut="7.6028900146484375e+01" cType="1" res="1.8434250727295876e-02" rms="4.6530154347419739e-01" purity="5.0967365503311157e-01" nType="0">
        <Node pos="l" depth="1" NCoef="0" IVar="4" Cut="-5.5788211524486542e-02" cType="1" res="-3.7009779363870621e-02" rms="4.6478098630905151e-01" purity="4.4812992215156555e-01" nType="0">
          <Node pos="l" depth="2" NCoef="0" IVar="-1" Cut="0.0000000000000000e+00" cType="1" res="-1.8974494887515903e-03" rms="4.3016257882118225e-01" purity="3.3061766624450684e-01" nType="-99"/>
          <Node pos="r" depth="2" NCoef="0" IVar="-1" Cut="0.0000000000000000e+00" cType="1" res="5.1929058827226982e-05" rms="4.7266113758087158e-01" purity="4.9788433313369751e-01" nType="-99"/>
        </Node>
        <Node pos="r" depth="1" NCoef="0" IVar="1" Cut="1.4394592046737671e+00" cType="1" res="7.8256718814373016e-02" rms="4.5840200781822205e-01" purity="5.7607758045196533e-01" nType="0">
          <Node pos="l" depth="2" NCoef="0" IVar="-1" Cut="0.0000000000000000e+00" cType="1" res="1.2180755147710443e-03" rms="4.5876547694206238e-01" purity="6.3295072317123413e-01" nType="-99"/>
          <Node pos="r" depth="2" NCoef="0" IVar="-1" Cut="0.0000000000000000e+00" cType="1" res="-1.4127813046798110e-03" rms="4.1908937692642212e-01" purity="2.6142749190330505e-01" nType="-99"/>
        </Node>
      </Node>
    </BinaryTree>
    <BinaryTree type="DecisionTree" boostWeight="1.0000000000000000e+00" itree="225">
      <Node pos="s" depth="0" NCoef="0" IVar="1" Cut="7.2165119647979736e-01" cType="1" res="5.6682555004954338e-03" rms="4.6612897515296936e-01" purity="4.9542295932769775e-01" nType="0">
        <Node pos="l" depth="1" NCoef="0" IVar="2" Cut="1.9647842407226562e+02" cType="1" res="9.4190299510955811e-02" rms="4.5702904462814331e-01" purity="6.4069861173629761e-01" nType="0">
          <Node pos="l" depth="2" NCoef="0" IVar="-1" Cut="0.0000000000000000e+00" cType="1" res="2.4996203137561679e-04" rms="4.7663959860801697e-01" purity="5.4088503122329712e-01" nType="-99"/>
          <Node pos="r" depth="2" NCoef="0" IVar="-1" Cut="0.0000000000000000e+00" cType="1" res="1.9544046372175217e-03" rms="4.1766598820686340e-01" purity="7.5665360689163208e-01" nType="-99"/>
        </Node>
        <Node pos="r" depth="1" NCoef="0" IVar="3" Cut="8.5979743957519531e+01" cType="1" res="-3.8076579570770264e-02" rms="4.6437224745750427e-01" purity="4.2363220453262329e-01" nType="0">
          <Node pos="l" depth="2" NCoef="0" IVar="-1" Cut="0.0000000000000000e+00" cType="1" res="-1.2546426150947809e-03" rms="4.5823961496353149e-01" purity="3.6145246028900146e-01" nType="-99"/>
          <Node pos="r" depth="2" NCoef="0" IVar="-1" Cut="0.0000000000000000e+00" cType="1" res="3.6529373028315604e-04" rms="4.6325021982192993e-01" purity="5.0090169906616211e-01" nType="-99"/>
        </Node>
      </Node>
    </BinaryTree>
    <BinaryTree type="DecisionTree" boostWeight="1.0000000000000000e+00" itree="226">
      <Node pos="s" depth="0" NCoef="0" IVar="0" Cut="5.5821008682250977e+00" cType="1" res="8.6744455620646477e-03" rms="4.6575337648391724e-01" purity="4.9810203909873962e-01" nType="0">
        <Node pos="l" depth="1" NCoef="0" IVar="1" Cut="1.1197075843811035e+00" cType="1" res="-9.1897174715995789e-02" rms="4.1756090521812439e-01" purity="2.5764051079750061e-01" nType="0">
          <Node pos="l" depth="2" NCoef="0" IVar="-1" Cut="0.0000000000000000e+00" cType="1" res="-4.7008530236780643e-04" rms="4.6586170792579651e-01" purity="3.5153615474700928e-01" nType="-99"/>
          <Node pos="r" depth="2" NCoef="0" IVar="-1" Cut="0.0000000000000000e+00" cType="1" res="-3.1844100449234247e-03" rms="3.1661710143089294e-01" purity="1.1996506154537201e-01" nType="-99"/>
        </Node>
        <Node pos="r" depth="1" NCoef="0" IVar="3" Cut="9.6290824890136719e+01" cType="1" res="3.4383367747068405e-02" rms="4.7387924790382385e-01" purity="5.5957072973251343e-01" nType="0">
          <Node pos="l" depth="2" NCoef="0" IVar="-1" Cut="0.0000000000000000e+00" cType="1" res="6.6504078858997673e-05" rms="4.7919255495071411e-01" purity="5.2617233991622925e-01" nType="-99"/>
          <Node pos="r" depth="2" NCoef="0" IVar="-1" Cut="0.0000000000000000e+00" cType="1" res="1.1451711179688573e-03" rms="4.5578658580780029e-01" purity="6.3236296176910400e-01" nType="-99"/>
        </Node>
      </Node>
    </BinaryTree>
    <BinaryTree type="DecisionTree" boostWeight="1.0000000000000000e+00" itree="227">
      <Node pos="s" depth="0" NCoef="0" IVar="3" Cut="4.6832096099853516e+01" cType="1" res="1.1355591937899590e-02" rms="4.6662580966949463e-01" purity="5.0080204010009766e-01" nType="0">
        <Node pos="l" depth="1" NCoef="0" IVar="0" Cut="7.3616099357604980e+00" cType="1" res="-1.0307150334119797e-01" rms="4.4809654355049133e-01" purity="3.8503006100654602e-01" nType="0">
          <Node pos="l" depth="2" NCoef="0" IVar="-1" Cut="0.0000000000000000e+00" cType="1" res="-2.3988331668078899e-03" rms="4.1771128773689270e-01" purity="2.5764456391334534e-01" nType="-99"/>
          <Node pos="r" depth="2" NCoef="0" IVar="-1" Cut="0.0000000000000000e+00" cType="1" res="1.8423654546495527e-04" rms="4.7856602072715759e-01" purity="6.2593406438827515e-01" nType="-99"/>
        </Node>
        <Node pos="r" depth="1" NCoef="0" IVar="1" Cut="1.6996632814407349e+00" cType="1" res="3.4838471561670303e-02" rms="4.6688267588615417e-01" purity="5.2456086874008179e-01" nType="0">
          <Node pos="l" depth="2" NCoef="0" IVar="-1" Cut="0.0000000000000000e+00" cType="1" res="5.8655784232541919e-04" rms="4.7111427783966064e-01" purity="5.5078989267349243e-01" nType="-99"/>
          <Node pos="r" depth="2" NCoef="0" IVar="-1" Cut="0.0000000000000000e+00" cType="1" res="-3.4798136912286282e-03" rms="3.3219471573829651e-01" purity="1.3874773681163788e-01" nType="-99"/>
        </Node>
      </Node>
    </BinaryTree>
    <BinaryTree type="DecisionTree" boostWeight="1.0000000000000000e+00" itree="228">
      <Node pos="s" depth="0" NCoef="0" IVar="6" Cut="6.8251275634765625e+02" cType="1" res="5.6451838463544846e-04" rms="4.6348610520362854e-01" purity="4.9119293689727783e-01" nType="0">
        <Node pos="l" depth="1" NCoef="0" IVar="4" Cut="-5.6134451180696487e-02" cType="1" res="-2.1348776295781136e-02" rms="4.6100693941116333e-01" purity="4.6264475584030151e-01" nType="0">
          <Node pos="l" depth="2" NCoef="0" IVar="-1" Cut="0.0000000000000000e+00" cType="1" res="-1.4478738885372877e-03" rms="4.3938466906547546e-01" purity="3.5247656702995300e-01" nType="-99"/>
          <Node pos="r" depth="2" NCoef="0" IVar="-1" Cut="0.0000000000000000e+00" cType="1" res="2.0516435324680060e-04" rms="4.6565017104148865e-01" purity="5.1316320896148682e-01" nType="-99"/>
        </Node>
        <Node pos="r" depth="1" NCoef="0" IVar="5" Cut="6.3675570487976074e-01" cType="1" res="1.3526673614978790e-01" rms="4.5586374402046204e-01" purity="6.6668033599853516e-01" nType="0">
          <Node pos="l" depth="2" NCoef="0" IVar="-1" Cut="0.0000000000000000e+00" cType="1" res="1.9785759504884481e-03" rms="4.4234257936477661e-01" purity="7.4184030294418335e-01" nType="-99"/>
          <Node pos="r" depth="2" NCoef="0" IVar="-1" Cut="0.0000000000000000e+00" cType="1" res="9.1628846712410450e-04" rms="4.6591326594352722e-01" purity="5.7423573732376099e-01" nType="-99"/>
        </Node>
      </Node>
    </BinaryTree>
    <BinaryTree type="DecisionTree" boostWeight="1.0000000000000000e+00" itree="229">
      <Node pos="s" depth="0" NCoef="0" IVar="0" Cut="7.5298333168029785e+00" cType="1" res="1.7496854998171329e-03" rms="4.6345600485801697e-01" purity="4.8763674497604370e-01" nType="0">
        <Node pos="l" depth="1" NCoef="0" IVar="1" Cut="6.7650532722473145e-01" cType="1" res="-4.1125692427158356e-02" rms="4.6583658456802368e-01" purity="3.9594122767448425e-01" nType="0">
          <Node pos="l" depth="2" NCoef="0" IVar="-1" Cut="0.0000000000000000e+00" cType="1" res="5.1037961384281516e-04" rms="4.8859643936157227e-01" purity="5.3643661737442017e-01" nType="-99"/>
          <Node pos="r" depth="2" NCoef="0" IVar="-1" Cut="0.0000000000000000e+00" cType="1" res="-1.0050928685814142e-03" rms="4.5286867022514343e-01" purity="3.4326770901679993e-01" nType="-99"/>
        </Node>
        <Node pos="r" depth="1" NCoef="0" IVar="2" Cut="1.9358525085449219e+02" cType="1" res="1.1111720651388168e-01" rms="4.3874597549438477e-01" purity="7.2153574228286743e-01" nType="0">
          <Node pos="l" depth="2" NCoef="0" IVar="-1" Cut="0.0000000000000000e+00" cType="1" res="3.1054709688760340e-04" rms="4.7379279136657715e-01" purity="6.4576488733291626e-01" nType="-99"/>
          <Node pos="r" depth="2" NCoef="0" IVar="-1" Cut="0.0000000000000000e+00" cType="1" res="1.7395357135683298e-03" rms="4.1253432631492615e-01" purity="7.6106125116348267e-01" nType="-99"/>
        </Node>
      </Node>
    </BinaryTree>
    <BinaryTree type="DecisionTree" boostWeight="1.0000000000000000e+00" itree="230">
      <Node pos="s" depth="0" NCoef="0" IVar="1" Cut="1.1266090869903564e+00" cType="1" res="3.4759924747049809e-03" rms="4.6287193894386292e-01" purity="4.9381774663925171e-01" nType="0">
        <Node pos="l" depth="1" NCoef="0" IVar="2" Cut="1.9078379821777344e+02" cType="1" res="3.8511604070663452e-02" rms="4.6557009220123291e-01" purity="5.7702577114105225e-01" nType="0">
          <Node pos="l" depth="2" NCoef="0" IVar="-1" Cut="0.0000000000000000e+00" cType="1" res="-2.3669794609304518e-04" rms="4.6836307644844055e-01" purity="4.8959913849830627e-01" nType="-99"/>
          <Node pos="r" depth="2" NCoef="0" IVar="-1" Cut="0.0000000000000000e+00" cType="1" res="1.0453594150021672e-03" rms="4.5663648843765259e-01" purity="6.5628862380981445e-01" nType="-99"/>
        </Node>
        <Node pos="r" depth="1" NCoef="0" IVar="2" Cut="3.2454666137695312e+02" cType="1" res="-7.2381868958473206e-02" rms="4.4767665863037109e-01" purity="3.1365883350372314e-01" nType="0">
          <Node pos="l" depth="2" NCoef="0" IVar="-1" Cut="0.0000000000000000e+00" cType="1" res="-4.1180604603141546e-04" rms="4.6908769011497498e-01" purity="3.6316403746604919e-01" nType="-99"/>
          <Node pos="r" depth="2" NCoef="0" IVar="-1" Cut="0.0000000000000000e+00" cType="1" res="-2.6999311521649361e-03" rms="3.8452398777008057e-01" purity="2.1081414818763733e-01" nType="-99"/>
        </Node>
      </Node>
    </BinaryTree>
    <BinaryTree type="DecisionTree" boostWeight="1.0000000000000000e+00" itree="231">
      <Node pos="s" depth="0" NCoef="0" IVar="1" Cut="1.2581830024719238e+00" cType="1" res="6.7480369471013546e-03" rms="4.6482190489768982e-01" purity="4.9302622675895691e-01" nType="0">
        <Node pos="l" depth="1" NCoef="0" IVar="2" Cut="1.8637524414062500e+02" cType="1" res="3.6427587270736694e-02" rms="4.7133022546768188e-01" purity="5.6208771467208862e-01" nType="0">
          <Node pos="l" depth="2" NCoef="0" IVar="-1" Cut="0.0000000000000000e+00" cType="1" res="-4.8185687046498060e-04" rms="4.7681093215942383e-01" purity="4.6424639225006104e-01" nType="-99"/>
          <Node pos="r" depth="2" NCoef="0" IVar="-1" Cut="0.0000000000000000e+00" cType="1" res="1.0798628209158778e-03" rms="4.5869019627571106e-01" purity="6.3647401332855225e-01" nType="-99"/>
        </Node>
        <Node pos="r" depth="1" NCoef="0" IVar="0" Cut="5.9728312492370605e+00" cType="1" res="-8.8545389473438263e-02" rms="4.2963689565658569e-01" purity="2.7128747105598450e-01" nType="0">
          <Node pos="l" depth="2" NCoef="0" IVar="-1" Cut="0.0000000000000000e+00" cType="1" res="-3.2278094440698624e-03" rms="3.1668400764465332e-01" purity="1.1636558920145035e-01" nType="-99"/>
          <Node pos="r" depth="2" NCoef="0" IVar="-1" Cut="0.0000000000000000e+00" cType="1" res="-6.3812150619924068e-04" rms="4.7646224498748779e-01" purity="3.5940530896186829e-01" nType="-99"/>
        </Node>
      </Node>
    </BinaryTree>
    <BinaryTree type="DecisionTree" boostWeight="1.0000000000000000e+00" itree="232">
      <Node pos="s" depth="0" NCoef="0" IVar="1" Cut="1.2442482709884644e+00" cType="1" res="4.7458009794354439e-03" rms="4.5839959383010864e-01" purity="4.9640223383903503e-01" nType="0">
        <Node pos="l" depth="1" NCoef="0" IVar="2" Cut="2.0362554931640625e+02" cType="1" res="3.9314974099397659e-02" rms="4.6374782919883728e-01" purity="5.6858718395233154e-01" nType="0">
          <Node pos="l" depth="2" NCoef="0" IVar="-1" Cut="0.0000000000000000e+00" cType="1" res="-4.6840877621434629e-04" rms="4.6014824509620667e-01" purity="4.6823641657829285e-01" nType="-99"/>
          <Node pos="r" depth="2" NCoef="0" IVar="-1" Cut="0.0000000000000000e+00" cType="1" res="1.3598604127764702e-03" rms="4.5321145653724670e-01" purity="6.7408853769302368e-01" nType="-99"/>
        </Node>
        <Node pos="r" depth="1" NCoef="0" IVar="2" Cut="2.7872720336914062e+02" cType="1" res="-1.1032850295305252e-01" rms="4.2011046409606934e-01" purity="2.5611227750778198e-01" nType="0">
          <Node pos="l" depth="2" NCoef="0" IVar="-1" Cut="0.0000000000000000e+00" cType="1" res="-8.0764986341819167e-04" rms="4.4738456606864929e-01" purity="3.1140980124473572e-01" nType="-99"/>
          <Node pos="r" depth="2" NCoef="0" IVar="-1" Cut="0.0000000000000000e+00" cType="1" res="-3.0312202870845795e-03" rms="3.7916183471679688e-01" purity="1.9591245055198669e-01" nType="-99"/>
        </Node>
      </Node>
    </BinaryTree>
    <BinaryTree type="DecisionTree" boostWeight="1.0000000000000000e+00" itree="233">
      <Node pos="s" depth="0" NCoef="0" IVar="0" Cut="6.5229220390319824e+00" cType="1" res="-6.2216748483479023e-03" rms="4.5741984248161316e-01" purity="4.8575165867805481e-01" nType="0">
        <Node pos="l" depth="1" NCoef="0" IVar="6" Cut="6.5528552246093750e+02" cType="1" res="-7.5378119945526123e-02" rms="4.4586655497550964e-01" purity="3.1580609083175659e-01" nType="0">
          <Node pos="l" depth="2" NCoef="0" IVar="-1" Cut="0.0000000000000000e+00" cType="1" res="-1.4260469470173120e-03" rms="4.3368488550186157e-01" purity="2.8167036175727844e-01" nType="-99"/>
          <Node pos="r" depth="2" NCoef="0" IVar="-1" Cut="0.0000000000000000e+00" cType="1" res="9.9591223988682032e-04" rms="4.8448270559310913e-01" purity="5.2871799468994141e-01" nType="-99"/>
        </Node>
        <Node pos="r" depth="1" NCoef="0" IVar="1" Cut="1.1658532619476318e+00" cType="1" res="5.2847679704427719e-02" rms="4.5888176560401917e-01" purity="6.3090920448303223e-01" nType="0">
          <Node pos="l" depth="2" NCoef="0" IVar="-1" Cut="0.0000000000000000e+00" cType="1" res="9.4658759189769626e-04" rms="4.4788306951522827e-01" purity="7.0298534631729126e-01" nType="-99"/>
          <Node pos="r" depth="2" NCoef="0" IVar="-1" Cut="0.0000000000000000e+00" cType="1" res="-6.0427613789215684e-04" rms="4.7828564047813416e-01" purity="4.0950965881347656e-01" nType="-99"/>
        </Node>
      </Node>
    </BinaryTree>
    <BinaryTree type="DecisionTree" boostWeight="1.0000000000000000e+00" itree="234">
      <Node pos="s" depth="0" NCoef="0" IVar="2" Cut="1.8357952880859375e+02" cType="1" res="1.3148663565516472e-02" rms="4.6269902586936951e-01" purity="5.0354212522506714e-01" nType="0">
        <Node pos="l" depth="1" NCoef="0" IVar="0" Cut="6.6358504295349121e+00" cType="1" res="-7.1934655308723450e-02" rms="4.5930618047714233e-01" purity="4.1348072886466980e-01" nType="0">
          <Node pos="l" depth="2" NCoef="0" IVar="-1" Cut="0.0000000000000000e+00" cType="1" res="-1.8307780846953392e-03" rms="4.3140834569931030e-01" purity="2.6298981904983521e-01" nType="-99"/>
          <Node pos="r" depth="2" NCoef="0" IVar="-1" Cut="0.0000000000000000e+00" cType="1" res="1.0937949991784990e-04" rms="4.8026612401008606e-01" purity="6.0460019111633301e-01" nType="-99"/>
        </Node>
        <Node pos="r" depth="1" NCoef="0" IVar="1" Cut="1.1227794885635376e+00" cType="1" res="5.7875875383615494e-02" rms="4.5817983150482178e-01" purity="5.5088627338409424e-01" nType="0">
          <Node pos="l" depth="2" NCoef="0" IVar="-1" Cut="0.0000000000000000e+00" cType="1" res="1.3484701048582792e-03" rms="4.4927996397018433e-01" purity="6.8172323703765869e-01" nType="-99"/>
          <Node pos="r" depth="2" NCoef="0" IVar="-1" Cut="0.0000000000000000e+00" cType="1" res="-4.6851809020154178e-04" rms="4.5610436797142029e-01" purity="3.5860788822174072e-01" nType="-99"/>
        </Node>
      </Node>
    </BinaryTree>
    <BinaryTree type="DecisionTree" boostWeight="1.0000000000000000e+00" itree="235">
      <Node pos="s" depth="0" NCoef="0" IVar="0" Cut="5.8258800506591797e+00" cType="1" res="1.8969906494021416e-02" rms="4.6311706304550171e-01" purity="5.0565618276596069e-01" nType="0">
        <Node pos="l" depth="1" NCoef="0" IVar="2" Cut="2.0362554931640625e+02" cType="1" res="-6.7714899778366089e-02" rms="4.3776586651802063e-01" purity="2.9528066515922546e-01" nType="0">
          <Node pos="l" depth="2" NCoef="0" IVar="-1" Cut="0.0000000000000000e+00" cType="1" res="-1.8396259984001517e-03" rms="4.1729575395584106e-01" purity="2.3736445605754852e-01" nType="-99"/>
          <Node pos="r" depth="2" NCoef="0" IVar="-1" Cut="0.0000000000000000e+00" cType="1" res="-9.4971175712998956e-05" rms="4.4820445775985718e-01" purity="3.5099375247955322e-01" nType="-99"/>
        </Node>
        <Node pos="r" depth="1" NCoef="0" IVar="2" Cut="1.9659182739257812e+02" cType="1" res="5.4895948618650436e-02" rms="4.6854856610298157e-01" purity="5.9284526109695435e-01" nType="0">
          <Node pos="l" depth="2" NCoef="0" IVar="-1" Cut="0.0000000000000000e+00" cType="1" res="4.2582601054164115e-06" rms="4.8166346549987793e-01" purity="5.4410237073898315e-01" nType="-99"/>
          <Node pos="r" depth="2" NCoef="0" IVar="-1" Cut="0.0000000000000000e+00" cType="1" res="1.0552365565672517e-03" rms="4.5669558644294739e-01" purity="6.2371069192886353e-01" nType="-99"/>
        </Node>
      </Node>
    </BinaryTree>
    <BinaryTree type="DecisionTree" boostWeight="1.0000000000000000e+00" itree="236">
      <Node pos="s" depth="0" NCoef="0" IVar="0" Cut="5.8222131729125977e+00" cType="1" res="1.3346875086426735e-02" rms="4.5930784940719604e-01" purity="5.0540679693222046e-01" nType="0">
        <Node pos="l" depth="1" NCoef="0" IVar="1" Cut="1.1197075843811035e+00" cType="1" res="-8.7201289832592010e-02" rms="4.3017667531967163e-01" purity="2.7681517601013184e-01" nType="0">
          <Node pos="l" depth="2" NCoef="0" IVar="-1" Cut="0.0000000000000000e+00" cType="1" res="-4.7286599874496460e-04" rms="4.7126862406730652e-01" purity="3.6173599958419800e-01" nType="-99"/>
          <Node pos="r" depth="2" NCoef="0" IVar="-1" Cut="0.0000000000000000e+00" cType="1" res="-3.4375858958810568e-03" rms="3.1202542781829834e-01" purity="1.0964872688055038e-01" nType="-99"/>
        </Node>
        <Node pos="r" depth="1" NCoef="0" IVar="2" Cut="1.4748394775390625e+02" cType="1" res="5.1504075527191162e-02" rms="4.6422448754310608e-01" purity="5.9215551614761353e-01" nType="0">
          <Node pos="l" depth="2" NCoef="0" IVar="-1" Cut="0.0000000000000000e+00" cType="1" res="-1.0364584159106016e-03" rms="4.9843040108680725e-01" purity="4.6218040585517883e-01" nType="-99"/>
          <Node pos="r" depth="2" NCoef="0" IVar="-1" Cut="0.0000000000000000e+00" cType="1" res="8.3508738316595554e-04" rms="4.5575457811355591e-01" purity="6.1119002103805542e-01" nType="-99"/>
        </Node>
      </Node>
    </BinaryTree>
    <BinaryTree type="DecisionTree" boostWeight="1.0000000000000000e+00" itree="237">
      <Node pos="s" depth="0" NCoef="0" IVar="3" Cut="4.1482494354248047e+01" cType="1" res="2.3098455742001534e-02" rms="4.6747002005577087e-01" purity="5.1248949766159058e-01" nType="0">
        <Node pos="l" depth="1" NCoef="0" IVar="7" Cut="3.2444160431623459e-02" cType="1" res="-1.2747648358345032e-01" rms="4.5132631063461304e-01" purity="3.4817981719970703e-01" nType="0">
          <Node pos="l" depth="2" NCoef="0" IVar="-1" Cut="0.0000000000000000e+00" cType="1" res="-6.3496537040919065e-04" rms="4.6525818109512329e-01" purity="4.3767091631889343e-01" nType="-99"/>
          <Node pos="r" depth="2" NCoef="0" IVar="-1" Cut="0.0000000000000000e+00" cType="1" res="-3.5951456520706415e-03" rms="4.1246587038040161e-01" purity="2.3414625227451324e-01" nType="-99"/>
        </Node>
        <Node pos="r" depth="1" NCoef="0" IVar="1" Cut="1.7116189002990723e+00" cType="1" res="4.3620020151138306e-02" rms="4.6587401628494263e-01" purity="5.3488296270370483e-01" nType="0">
          <Node pos="l" depth="2" NCoef="0" IVar="-1" Cut="0.0000000000000000e+00" cType="1" res="6.9751217961311340e-04" rms="4.6976432204246521e-01" purity="5.6159967184066772e-01" nType="-99"/>
          <Node pos="r" depth="2" NCoef="0" IVar="-1" Cut="0.0000000000000000e+00" cType="1" res="-3.9865290746092796e-03" rms="3.1638959050178528e-01" purity="1.1759997904300690e-01" nType="-99"/>
        </Node>
      </Node>
    </BinaryTree>
    <BinaryTree type="DecisionTree" boostWeight="1.0000000000000000e+00" itree="238">
      <Node pos="s" depth="0" NCoef="0" IVar="0" Cut="6.5173330307006836e+00" cType="1" res="3.4718416631221771e-02" rms="4.5575514435768127e-01" purity="5.2902418375015259e-01" nType="0">
        <Node pos="l" depth="1" NCoef="0" IVar="6" Cut="6.2831121826171875e+02" cType="1" res="-4.6442806720733643e-02" rms="4.5782792568206787e-01" purity="3.4347984194755554e-01" nType="0">
          <Node pos="l" depth="2" NCoef="0" IVar="-1" Cut="0.0000000000000000e+00" cType="1" res="-9.0588460443541408e-04" rms="4.4898647069931030e-01" purity="3.1634262204170227e-01" nType="-99"/>
          <Node pos="r" depth="2" NCoef="0" IVar="-1" Cut="0.0000000000000000e+00" cType="1" res="9.9324225448071957e-04" rms="4.9150243401527405e-01" purity="5.1499217748641968e-01" nType="-99"/>
        </Node>
        <Node pos="r" depth="1" NCoef="0" IVar="1" Cut="1.5207750797271729e+00" cType="1" res="9.9711045622825623e-02" rms="4.4350582361221313e-01" purity="6.7760515213012695e-01" nType="0">
          <Node pos="l" depth="2" NCoef="0" IVar="-1" Cut="0.0000000000000000e+00" cType="1" res="1.2973165139555931e-03" rms="4.3757531046867371e-01" purity="7.1897041797637939e-01" nType="-99"/>
          <Node pos="r" depth="2" NCoef="0" IVar="-1" Cut="0.0000000000000000e+00" cType="1" res="-8.7050022557377815e-04" rms="4.6318218111991882e-01" purity="3.1553173065185547e-01" nType="-99"/>
        </Node>
      </Node>
    </BinaryTree>
    <BinaryTree type="DecisionTree" boostWeight="1.0000000000000000e+00" itree="239">
      <Node pos="s" depth="0" NCoef="0" IVar="1" Cut="1.6324181556701660e+00" cType="1" res="1.7138531431555748e-02" rms="4.5885986089706421e-01" purity="5.1196134090423584e-01" nType="0">
        <Node pos="l" depth="1" NCoef="0" IVar="0" Cut="5.8258800506591797e+00" cType="1" res="3.7136152386665344e-02" rms="4.6429824829101562e-01" purity="5.4559582471847534e-01" nType="0">
          <Node pos="l" depth="2" NCoef="0" IVar="-1" Cut="0.0000000000000000e+00" cType="1" res="-1.0085810208693147e-03" rms="4.4137218594551086e-01" purity="3.0300211906433105e-01" nType="-99"/>
          <Node pos="r" depth="2" NCoef="0" IVar="-1" Cut="0.0000000000000000e+00" cType="1" res="8.8341895025223494e-04" rms="4.6586725115776062e-01" purity="6.3451671600341797e-01" nType="-99"/>
        </Node>
        <Node pos="r" depth="1" NCoef="0" IVar="-1" Cut="0.0000000000000000e+00" cType="1" res="-4.8436527140438557e-03" rms="2.8393921256065369e-01" purity="9.2205002903938293e-02" nType="-99"/>
      </Node>
    </BinaryTree>
    <BinaryTree type="DecisionTree" boostWeight="1.0000000000000000e+00" itree="240">
      <Node pos="s" depth="0" NCoef="0" IVar="1" Cut="1.7022836208343506e+00" cType="1" res="-7.5127673335373402e-03" rms="4.6036547422409058e-01" purity="4.8122501373291016e-01" nType="0">
        <Node pos="l" depth="1" NCoef="0" IVar="3" Cut="9.4385696411132812e+01" cType="1" res="6.4600855112075806e-03" rms="4.6709036827087402e-01" purity="5.0714486837387085e-01" nType="0">
          <Node pos="l" depth="2" NCoef="0" IVar="-1" Cut="0.0000000000000000e+00" cType="1" res="-4.0667128632776439e-04" rms="4.6470084786415100e-01" purity="4.6234348416328430e-01" nType="-99"/>
          <Node pos="r" depth="2" NCoef="0" IVar="-1" Cut="0.0000000000000000e+00" cType="1" res="1.2112446129322052e-03" rms="4.5920613408088684e-01" purity="6.1763191223144531e-01" nType="-99"/>
        </Node>
        <Node pos="r" depth="1" NCoef="0" IVar="-1" Cut="0.0000000000000000e+00" cType="1" res="-5.2250465378165245e-03" rms="2.4114081263542175e-01" purity="6.4693123102188110e-02" nType="-99"/>
      </Node>
    </BinaryTree>
    <BinaryTree type="DecisionTree" boostWeight="1.0000000000000000e+00" itree="241">
      <Node pos="s" depth="0" NCoef="0" IVar="1" Cut="1.0703278779983521e+00" cType="1" res="-7.2016203776001930e-03" rms="4.5896828174591064e-01" purity="4.8726946115493774e-01" nType="0">
        <Node pos="l" depth="1" NCoef="0" IVar="2" Cut="2.0381060791015625e+02" cType="1" res="4.2258217930793762e-02" rms="4.6409398317337036e-01" purity="5.8660870790481567e-01" nType="0">
          <Node pos="l" depth="2" NCoef="0" IVar="-1" Cut="0.0000000000000000e+00" cType="1" res="-3.0080025317147374e-04" rms="4.7289168834686279e-01" purity="4.9137005209922791e-01" nType="-99"/>
          <Node pos="r" depth="2" NCoef="0" IVar="-1" Cut="0.0000000000000000e+00" cType="1" res="1.4039723901078105e-03" rms="4.3919089436531067e-01" purity="7.0334118604660034e-01" nType="-99"/>
        </Node>
        <Node pos="r" depth="1" NCoef="0" IVar="1" Cut="1.6974986791610718e+00" cType="1" res="-1.0285513103008270e-01" rms="4.3315246701240540e-01" purity="2.9515090584754944e-01" nType="0">
          <Node pos="l" depth="2" NCoef="0" IVar="-1" Cut="0.0000000000000000e+00" cType="1" res="-1.0861585615202785e-03" rms="4.5677596330642700e-01" purity="3.4017270803451538e-01" nType="-99"/>
          <Node pos="r" depth="2" NCoef="0" IVar="-1" Cut="0.0000000000000000e+00" cType="1" res="-5.0077945925295353e-03" rms="2.4939987063407898e-01" purity="7.0225343108177185e-02" nType="-99"/>
        </Node>
      </Node>
    </BinaryTree>
    <BinaryTree type="DecisionTree" boostWeight="1.0000000000000000e+00" itree="242">
      <Node pos="s" depth="0" NCoef="0" IVar="0" Cut="7.2858877182006836e+00" cType="1" res="1.8010620027780533e-02" rms="4.5619115233421326e-01" purity="5.0728791952133179e-01" nType="0">
        <Node pos="l" depth="1" NCoef="0" IVar="1" Cut="1.1526411771774292e+00" cType="1" res="-2.7278833091259003e-02" rms="4.6213042736053467e-01" purity="4.0021058917045593e-01" nType="0">
          <Node pos="l" depth="2" NCoef="0" IVar="-1" Cut="0.0000000000000000e+00" cType="1" res="1.6239171964116395e-04" rms="4.8331266641616821e-01" purity="4.8370349407196045e-01" nType="-99"/>
          <Node pos="r" depth="2" NCoef="0" IVar="-1" Cut="0.0000000000000000e+00" cType="1" res="-2.0142351277172565e-03" rms="3.9508044719696045e-01" purity="2.1225926280021667e-01" nType="-99"/>
        </Node>
        <Node pos="r" depth="1" NCoef="0" IVar="4" Cut="-3.9972640573978424e-02" cType="1" res="1.0719305276870728e-01" rms="4.3055513501167297e-01" purity="7.1814095973968506e-01" nType="0">
          <Node pos="l" depth="2" NCoef="0" IVar="-1" Cut="0.0000000000000000e+00" cType="1" res="2.7130235685035586e-04" rms="4.6341961622238159e-01" purity="6.0595023632049561e-01" nType="-99"/>
          <Node pos="r" depth="2" NCoef="0" IVar="-1" Cut="0.0000000000000000e+00" cType="1" res="1.7376876203343272e-03" rms="4.0141829848289490e-01" purity="7.8468078374862671e-01" nType="-99"/>
        </Node>
      </Node>
    </BinaryTree>
    <BinaryTree type="DecisionTree" boostWeight="1.0000000000000000e+00" itree="243">
      <Node pos="s" depth="0" NCoef="0" IVar="0" Cut="8.2616701126098633e+00" cType="1" res="-1.1760759167373180e-02" rms="4.5913568139076233e-01" purity="4.7717460989952087e-01" nType="0">
        <Node pos="l" depth="1" NCoef="0" IVar="1" Cut="1.6324181556701660e+00" cType="1" res="-3.8316290825605392e-02" rms="4.6226757764816284e-01" purity="4.2522767186164856e-01" nType="0">
          <Node pos="l" depth="2" NCoef="0" IVar="-1" Cut="0.0000000000000000e+00" cType="1" res="-3.0185224022716284e-04" rms="4.7240802645683289e-01" purity="4.5472437143325806e-01" nType="-99"/>
          <Node pos="r" depth="2" NCoef="0" IVar="-1" Cut="0.0000000000000000e+00" cType="1" res="-4.2393957264721394e-03" rms="2.7853855490684509e-01" purity="9.1942019760608673e-02" nType="-99"/>
        </Node>
        <Node pos="r" depth="1" NCoef="0" IVar="0" Cut="8.7346611022949219e+00" cType="1" res="1.2716425955295563e-01" rms="4.1559547185897827e-01" purity="7.4893444776535034e-01" nType="0">
          <Node pos="l" depth="2" NCoef="0" IVar="-1" Cut="0.0000000000000000e+00" cType="1" res="6.6483399132266641e-04" rms="4.4822716712951660e-01" purity="6.7248672246932983e-01" nType="-99"/>
          <Node pos="r" depth="2" NCoef="0" IVar="-1" Cut="0.0000000000000000e+00" cType="1" res="1.9849026575684547e-03" rms="3.8244619965553284e-01" purity="8.0391591787338257e-01" nType="-99"/>
        </Node>
      </Node>
    </BinaryTree>
    <BinaryTree type="DecisionTree" boostWeight="1.0000000000000000e+00" itree="244">
      <Node pos="s" depth="0" NCoef="0" IVar="0" Cut="8.5063982009887695e+00" cType="1" res="2.9474510811269283e-03" rms="4.5856741070747375e-01" purity="4.9072408676147461e-01" nType="0">
        <Node pos="l" depth="1" NCoef="0" IVar="1" Cut="1.4002891778945923e+00" cType="1" res="-2.0881885662674904e-02" rms="4.6445584297180176e-01" purity="4.4496500492095947e-01" nType="0">
          <Node pos="l" depth="2" NCoef="0" IVar="-1" Cut="0.0000000000000000e+00" cType="1" res="2.3379589038086124e-05" rms="4.7741618752479553e-01" purity="4.9559700489044189e-01" nType="-99"/>
          <Node pos="r" depth="2" NCoef="0" IVar="-1" Cut="0.0000000000000000e+00" cType="1" res="-2.5909845717251301e-03" rms="3.6556631326675415e-01" purity="1.7659869790077209e-01" nType="-99"/>
        </Node>
        <Node pos="r" depth="1" NCoef="0" IVar="4" Cut="1.1039020027965307e-03" cType="1" res="1.6319395601749420e-01" rms="3.7978461384773254e-01" purity="7.9844284057617188e-01" nType="0">
          <Node pos="l" depth="2" NCoef="0" IVar="-1" Cut="0.0000000000000000e+00" cType="1" res="8.7615405209362507e-04" rms="4.2743539810180664e-01" purity="6.9684135913848877e-01" nType="-99"/>
          <Node pos="r" depth="2" NCoef="0" IVar="-1" Cut="0.0000000000000000e+00" cType="1" res="2.3476707283407450e-03" rms="3.2312810420989990e-01" purity="8.7617331743240356e-01" nType="-99"/>
        </Node>
      </Node>
    </BinaryTree>
    <BinaryTree type="DecisionTree" boostWeight="1.0000000000000000e+00" itree="245">
      <Node pos="s" depth="0" NCoef="0" IVar="0" Cut="7.0310177803039551e+00" cType="1" res="1.4206396415829659e-02" rms="4.5673659443855286e-01" purity="5.0478327274322510e-01" nType="0">
        <Node pos="l" depth="1" NCoef="0" IVar="3" Cut="1.0080733489990234e+02" cType="1" res="-4.0473502129316330e-02" rms="4.6057790517807007e-01" purity="3.6676388978958130e-01" nType="0">
          <Node pos="l" depth="2" NCoef="0" IVar="-1" Cut="0.0000000000000000e+00" cType="1" res="-1.1236671125516295e-03" rms="4.4667699933052063e-01" purity="3.2047909498214722e-01" nType="-99"/>
          <Node pos="r" depth="2" NCoef="0" IVar="-1" Cut="0.0000000000000000e+00" cType="1" res="9.7255711443722248e-04" rms="4.7778832912445068e-01" purity="4.9594187736511230e-01" nType="-99"/>
        </Node>
        <Node pos="r" depth="1" NCoef="0" IVar="7" Cut="7.6457120478153229e-02" cType="1" res="9.3479841947555542e-02" rms="4.3918201327323914e-01" purity="7.0487999916076660e-01" nType="0">
          <Node pos="l" depth="2" NCoef="0" IVar="-1" Cut="0.0000000000000000e+00" cType="1" res="1.4529390027746558e-03" rms="4.1933727264404297e-01" purity="7.5228881835937500e-01" nType="-99"/>
          <Node pos="r" depth="2" NCoef="0" IVar="-1" Cut="0.0000000000000000e+00" cType="1" res="-6.0146115720272064e-04" rms="4.8165664076805115e-01" purity="5.2675080299377441e-01" nType="-99"/>
        </Node>
      </Node>
    </BinaryTree>
    <BinaryTree type="DecisionTree" boostWeight="1.0000000000000000e+00" itree="246">
      <Node pos="s" depth="0" NCoef="0" IVar="1" Cut="1.0855033397674561e+00" cType="1" res="1.2872107326984406e-02" rms="4.6446692943572998e-01" purity="5.0027078390121460e-01" nType="0">
        <Node pos="l" depth="1" NCoef="0" IVar="2" Cut="1.8357952880859375e+02" cType="1" res="5.3201805800199509e-02" rms="4.6985080838203430e-01" purity="5.9062469005584717e-01" nType="0">
          <Node pos="l" depth="2" NCoef="0" IVar="-1" Cut="0.0000000000000000e+00" cType="1" res="-2.6074398192577064e-04" rms="4.8142957687377930e-01" purity="4.8572233319282532e-01" nType="-99"/>
          <Node pos="r" depth="2" NCoef="0" IVar="-1" Cut="0.0000000000000000e+00" cType="1" res="1.2382098939269781e-03" rms="4.5249128341674805e-01" purity="6.7073673009872437e-01" nType="-99"/>
        </Node>
        <Node pos="r" depth="1" NCoef="0" IVar="0" Cut="7.4054164886474609e+00" cType="1" res="-6.3077569007873535e-02" rms="4.4432547688484192e-01" purity="3.3011433482170105e-01" nType="0">
          <Node pos="l" depth="2" NCoef="0" IVar="-1" Cut="0.0000000000000000e+00" cType="1" res="-1.5025129541754723e-03" rms="4.2282798886299133e-01" purity="2.5715246796607971e-01" nType="-99"/>
          <Node pos="r" depth="2" NCoef="0" IVar="-1" Cut="0.0000000000000000e+00" cType="1" res="3.6866133450530469e-04" rms="4.8654532432556152e-01" purity="5.2970635890960693e-01" nType="-99"/>
        </Node>
      </Node>
    </BinaryTree>
    <BinaryTree type="DecisionTree" boostWeight="1.0000000000000000e+00" itree="247">
      <Node pos="s" depth="0" NCoef="0" IVar="0" Cut="7.4967799186706543e+00" cType="1" res="1.1696239933371544e-02" rms="4.5967271924018860e-01" purity="5.0515794754028320e-01" nType="0">
        <Node pos="l" depth="1" NCoef="0" IVar="3" Cut="1.1180344390869141e+02" cType="1" res="-2.2231005132198334e-02" rms="4.6427688002586365e-01" purity="4.1840729117393494e-01" nType="0">
          <Node pos="l" depth="2" NCoef="0" IVar="-1" Cut="0.0000000000000000e+00" cType="1" res="-6.0893018962815404e-04" rms="4.6025133132934570e-01" purity="3.9064803719520569e-01" nType="-99"/>
          <Node pos="r" depth="2" NCoef="0" IVar="-1" Cut="0.0000000000000000e+00" cType="1" res="1.0116638150066137e-03" rms="4.6663257479667664e-01" purity="5.3783702850341797e-01" nType="-99"/>
        </Node>
        <Node pos="r" depth="1" NCoef="0" IVar="0" Cut="8.8807344436645508e+00" cType="1" res="9.2095047235488892e-02" rms="4.3820816278457642e-01" purity="7.1073448657989502e-01" nType="0">
          <Node pos="l" depth="2" NCoef="0" IVar="-1" Cut="0.0000000000000000e+00" cType="1" res="6.7708553979173303e-04" rms="4.5536720752716064e-01" purity="6.7244738340377808e-01" nType="-99"/>
          <Node pos="r" depth="2" NCoef="0" IVar="-1" Cut="0.0000000000000000e+00" cType="1" res="1.9544491078704596e-03" rms="3.7854853272438049e-01" purity="8.0737620592117310e-01" nType="-99"/>
        </Node>
      </Node>
    </BinaryTree>
    <BinaryTree type="DecisionTree" boostWeight="1.0000000000000000e+00" itree="248">
      <Node pos="s" depth="0" NCoef="0" IVar="0" Cut="6.5229220390319824e+00" cType="1" res="1.0248824255540967e-03" rms="4.5650795102119446e-01" purity="4.9331954121589661e-01" nType="0">
        <Node pos="l" depth="1" NCoef="0" IVar="0" Cut="5.6805448532104492e+00" cType="1" res="-6.5520234405994415e-02" rms="4.4784250855445862e-01" purity="3.2162716984748840e-01" nType="0">
          <Node pos="l" depth="2" NCoef="0" IVar="-1" Cut="0.0000000000000000e+00" cType="1" res="-1.7435513436794281e-03" rms="4.0812957286834717e-01" purity="2.3153081536293030e-01" nType="-99"/>
          <Node pos="r" depth="2" NCoef="0" IVar="-1" Cut="0.0000000000000000e+00" cType="1" res="-2.1435099188238382e-04" rms="4.7835344076156616e-01" purity="4.0905746817588806e-01" nType="-99"/>
        </Node>
        <Node pos="r" depth="1" NCoef="0" IVar="6" Cut="4.1886431884765625e+02" cType="1" res="5.9727735817432404e-02" rms="4.5602649450302124e-01" purity="6.4477813243865967e-01" nType="0">
          <Node pos="l" depth="2" NCoef="0" IVar="-1" Cut="0.0000000000000000e+00" cType="1" res="-4.0761849959380925e-04" rms="4.7224050760269165e-01" purity="5.2918744087219238e-01" nType="-99"/>
          <Node pos="r" depth="2" NCoef="0" IVar="-1" Cut="0.0000000000000000e+00" cType="1" res="1.1502766283228993e-03" rms="4.4219198822975159e-01" purity="6.9698745012283325e-01" nType="-99"/>
        </Node>
      </Node>
    </BinaryTree>
    <BinaryTree type="DecisionTree" boostWeight="1.0000000000000000e+00" itree="249">
      <Node pos="s" depth="0" NCoef="0" IVar="0" Cut="7.3160963058471680e+00" cType="1" res="1.0035101324319839e-02" rms="4.5669490098953247e-01" purity="5.0090527534484863e-01" nType="0">
        <Node pos="l" depth="1" NCoef="0" IVar="1" Cut="9.8664325475692749e-01" cType="1" res="-3.8566634058952332e-02" rms="4.6060577034950256e-01" purity="3.8702553510665894e-01" nType="0">
          <Node pos="l" depth="2" NCoef="0" IVar="-1" Cut="0.0000000000000000e+00" cType="1" res="6.7516310082282871e-05" rms="4.7922784090042114e-01" purity="4.7709137201309204e-01" nType="-99"/>
          <Node pos="r" depth="2" NCoef="0" IVar="-1" Cut="0.0000000000000000e+00" cType="1" res="-1.3976991176605225e-03" rms="4.3068170547485352e-01" purity="2.7710890769958496e-01" nType="-99"/>
        </Node>
        <Node pos="r" depth="1" NCoef="0" IVar="7" Cut="-4.4466275721788406e-02" cType="1" res="1.0041385889053345e-01" rms="4.3513017892837524e-01" purity="7.1267360448837280e-01" nType="0">
          <Node pos="l" depth="2" NCoef="0" IVar="-1" Cut="0.0000000000000000e+00" cType="1" res="2.0309367682784796e-03" rms="3.5230651497840881e-01" purity="8.3868688344955444e-01" nType="-99"/>
          <Node pos="r" depth="2" NCoef="0" IVar="-1" Cut="0.0000000000000000e+00" cType="1" res="7.9517171252518892e-04" rms="4.5742478966712952e-01" purity="6.6623407602310181e-01" nType="-99"/>
        </Node>
      </Node>
    </BinaryTree>
    <BinaryTree type="DecisionTree" boostWeight="1.0000000000000000e+00" itree="250">
      <Node pos="s" depth="0" NCoef="0" IVar="1" Cut="7.1318542957305908e-01" cType="1" res="2.8285685926675797e-02" rms="4.5724770426750183e-01" purity="5.2149546146392822e-01" nType="0">
        <Node pos="l" depth="1" NCoef="0" IVar="0" Cut="6.2527832984924316e+00" cType="1" res="1.1115060001611710e-01" rms="4.4473960995674133e-01" purity="6.6128748655319214e-01" nType="0">
          <Node pos="l" depth="2" NCoef="0" IVar="-1" Cut="0.0000000000000000e+00" cType="1" res="1.5369510219898075e-04" rms="4.8833668231964111e-01" purity="4.3483051657676697e-01" nType="-99"/>
          <Node pos="r" depth="2" NCoef="0" IVar="-1" Cut="0.0000000000000000e+00" cType="1" res="1.7297784797847271e-03" rms="4.1116335988044739e-01" purity="7.7883654832839966e-01" nType="-99"/>
        </Node>
        <Node pos="r" depth="1" NCoef="0" IVar="0" Cut="8.1146745681762695e+00" cType="1" res="-9.3883769586682320e-03" rms="4.5789042115211487e-01" purity="4.5793983340263367e-01" nType="0">
          <Node pos="l" depth="2" NCoef="0" IVar="-1" Cut="0.0000000000000000e+00" cType="1" res="-4.1689237696118653e-04" rms="4.5630961656570435e-01" purity="4.1035190224647522e-01" nType="-99"/>
          <Node pos="r" depth="2" NCoef="0" IVar="-1" Cut="0.0000000000000000e+00" cType="1" res="1.1696749133989215e-03" rms="4.4935038685798645e-01" purity="7.0322149991989136e-01" nType="-99"/>
        </Node>
      </Node>
    </BinaryTree>
    <BinaryTree type="DecisionTree" boostWeight="1.0000000000000000e+00" itree="251">
      <Node pos="s" depth="0" NCoef="0" IVar="0" Cut="6.7674517631530762e+00" cType="1" res="9.8038967698812485e-03" rms="4.5851594209671021e-01" purity="5.0327301025390625e-01" nType="0">
        <Node pos="l" depth="1" NCoef="0" IVar="6" Cut="6.6497479248046875e+02" cType="1" res="-4.5501116663217545e-02" rms="4.5976364612579346e-01" purity="3.5212394595146179e-01" nType="0">
          <Node pos="l" depth="2" NCoef="0" IVar="-1" Cut="0.0000000000000000e+00" cType="1" res="-8.9206901611760259e-04" rms="4.5079886913299561e-01" purity="3.2444247603416443e-01" nType="-99"/>
          <Node pos="r" depth="2" NCoef="0" IVar="-1" Cut="0.0000000000000000e+00" cType="1" res="9.5098640304058790e-04" rms="4.9516579508781433e-01" purity="5.2683079242706299e-01" nType="-99"/>
        </Node>
        <Node pos="r" depth="1" NCoef="0" IVar="1" Cut="9.9110871553421021e-01" cType="1" res="7.0231020450592041e-02" rms="4.4943481683731079e-01" purity="6.6842079162597656e-01" nType="0">
          <Node pos="l" depth="2" NCoef="0" IVar="-1" Cut="0.0000000000000000e+00" cType="1" res="1.2214926537126303e-03" rms="4.2645001411437988e-01" purity="7.5537604093551636e-01" nType="-99"/>
          <Node pos="r" depth="2" NCoef="0" IVar="-1" Cut="0.0000000000000000e+00" cType="1" res="-3.7588324630632997e-05" rms="4.8057654500007629e-01" purity="5.0769823789596558e-01" nType="-99"/>
        </Node>
      </Node>
    </BinaryTree>
    <BinaryTree type="DecisionTree" boostWeight="1.0000000000000000e+00" itree="252">
      <Node pos="s" depth="0" NCoef="0" IVar="0" Cut="6.4855394363403320e+00" cType="1" res="6.6316272132098675e-03" rms="4.6030703186988831e-01" purity="4.9676209688186646e-01" nType="0">
        <Node pos="l" depth="1" NCoef="0" IVar="6" Cut="5.3817626953125000e+02" cType="1" res="-5.9227373450994492e-02" rms="4.5057201385498047e-01" purity="3.2597965002059937e-01" nType="0">
          <Node pos="l" depth="2" NCoef="0" IVar="-1" Cut="0.0000000000000000e+00" cType="1" res="-1.3806483475491405e-03" rms="4.3002250790596008e-01" purity="2.7363568544387817e-01" nType="-99"/>
          <Node pos="r" depth="2" NCoef="0" IVar="-1" Cut="0.0000000000000000e+00" cType="1" res="5.1258393796160817e-04" rms="4.8838165402412415e-01" purity="4.6824517846107483e-01" nType="-99"/>
        </Node>
        <Node pos="r" depth="1" NCoef="0" IVar="3" Cut="1.0891442108154297e+02" cType="1" res="6.3509538769721985e-02" rms="4.6104201674461365e-01" purity="6.4425528049468994e-01" nType="0">
          <Node pos="l" depth="2" NCoef="0" IVar="-1" Cut="0.0000000000000000e+00" cType="1" res="4.0899243322201073e-04" rms="4.6835952997207642e-01" purity="6.1609071493148804e-01" nType="-99"/>
          <Node pos="r" depth="2" NCoef="0" IVar="-1" Cut="0.0000000000000000e+00" cType="1" res="1.8076808191835880e-03" rms="4.2382350564002991e-01" purity="7.3409700393676758e-01" nType="-99"/>
        </Node>
      </Node>
    </BinaryTree>
    <BinaryTree type="DecisionTree" boostWeight="1.0000000000000000e+00" itree="253">
      <Node pos="s" depth="0" NCoef="0" IVar="0" Cut="4.9710125923156738e+00" cType="1" res="-3.4244873677380383e-04" rms="4.6710833907127380e-01" purity="4.8467320203781128e-01" nType="0">
        <Node pos="l" depth="1" NCoef="0" IVar="-1" Cut="0.0000000000000000e+00" cType="1" res="-2.3584789596498013e-03" rms="3.7007284164428711e-01" purity="1.7047791182994843e-01" nType="-99"/>
        <Node pos="r" depth="1" NCoef="0" IVar="5" Cut="1.0389753580093384e+00" cType="1" res="1.2814936228096485e-02" rms="4.7319835424423218e-01" purity="5.1453560590744019e-01" nType="0">
          <Node pos="l" depth="2" NCoef="0" IVar="-1" Cut="0.0000000000000000e+00" cType="1" res="3.3728044945746660e-04" rms="4.7397363185882568e-01" purity="5.3870666027069092e-01" nType="-99"/>
          <Node pos="r" depth="2" NCoef="0" IVar="-1" Cut="0.0000000000000000e+00" cType="1" res="-1.5218858607113361e-03" rms="4.4956755638122559e-01" purity="3.2758450508117676e-01" nType="-99"/>
        </Node>
      </Node>
    </BinaryTree>
    <BinaryTree type="DecisionTree" boostWeight="1.0000000000000000e+00" itree="254">
      <Node pos="s" depth="0" NCoef="0" IVar="1" Cut="9.8568421602249146e-01" cType="1" res="8.2866158336400986e-03" rms="4.5772793889045715e-01" purity="4.9516943097114563e-01" nType="0">
        <Node pos="l" depth="1" NCoef="0" IVar="2" Cut="1.9078379821777344e+02" cType="1" res="6.1340585350990295e-02" rms="4.6257743239402771e-01" purity="6.0234302282333374e-01" nType="0">
          <Node pos="l" depth="2" NCoef="0" IVar="-1" Cut="0.0000000000000000e+00" cType="1" res="-2.0932454208377749e-04" rms="4.7516161203384399e-01" purity="4.8622363805770874e-01" nType="-99"/>
          <Node pos="r" depth="2" NCoef="0" IVar="-1" Cut="0.0000000000000000e+00" cType="1" res="1.4968256000429392e-03" rms="4.3765631318092346e-01" purity="7.1169191598892212e-01" nType="-99"/>
        </Node>
        <Node pos="r" depth="1" NCoef="0" IVar="6" Cut="6.6497479248046875e+02" cType="1" res="-6.6028296947479248e-02" rms="4.4022488594055176e-01" purity="3.4504690766334534e-01" nType="0">
          <Node pos="l" depth="2" NCoef="0" IVar="-1" Cut="0.0000000000000000e+00" cType="1" res="-1.3635891955345869e-03" rms="4.2995795607566833e-01" purity="3.1162759661674500e-01" nType="-99"/>
          <Node pos="r" depth="2" NCoef="0" IVar="-1" Cut="0.0000000000000000e+00" cType="1" res="9.3467114493250847e-04" rms="4.6745601296424866e-01" purity="5.2919095754623413e-01" nType="-99"/>
        </Node>
      </Node>
    </BinaryTree>
    <BinaryTree type="DecisionTree" boostWeight="1.0000000000000000e+00" itree="255">
      <Node pos="s" depth="0" NCoef="0" IVar="0" Cut="5.0241003036499023e+00" cType="1" res="1.5336013399064541e-02" rms="4.6063929796218872e-01" purity="5.0647610425949097e-01" nType="0">
        <Node pos="l" depth="1" NCoef="0" IVar="-1" Cut="0.0000000000000000e+00" cType="1" res="-2.5455511640757322e-03" rms="3.6265316605567932e-01" purity="1.6484335064888000e-01" nType="-99"/>
        <Node pos="r" depth="1" NCoef="0" IVar="1" Cut="1.2408645153045654e+00" cType="1" res="3.0790776014328003e-02" rms="4.6586436033248901e-01" purity="5.3870940208435059e-01" nType="0">
          <Node pos="l" depth="2" NCoef="0" IVar="-1" Cut="0.0000000000000000e+00" cType="1" res="6.8308704067021608e-04" rms="4.6967843174934387e-01" purity="6.0719633102416992e-01" nType="-99"/>
          <Node pos="r" depth="2" NCoef="0" IVar="-1" Cut="0.0000000000000000e+00" cType="1" res="-9.8193367011845112e-04" rms="4.3978163599967957e-01" purity="3.1432965397834778e-01" nType="-99"/>
        </Node>
      </Node>
    </BinaryTree>
    <BinaryTree type="DecisionTree" boostWeight="1.0000000000000000e+00" itree="256">
      <Node pos="s" depth="0" NCoef="0" IVar="0" Cut="5.8254976272583008e+00" cType="1" res="2.4606013670563698e-02" rms="4.5933216810226440e-01" purity="5.1061791181564331e-01" nType="0">
        <Node pos="l" depth="1" NCoef="0" IVar="3" Cut="4.7414165496826172e+01" cType="1" res="-6.9901123642921448e-02" rms="4.3497428297996521e-01" purity="2.8108790516853333e-01" nType="0">
          <Node pos="l" depth="2" NCoef="0" IVar="-1" Cut="0.0000000000000000e+00" cType="1" res="-3.5612322390079498e-03" rms="3.2644987106323242e-01" purity="1.3142402470111847e-01" nType="-99"/>
          <Node pos="r" depth="2" NCoef="0" IVar="-1" Cut="0.0000000000000000e+00" cType="1" res="-5.1681790500879288e-04" rms="4.5073264837265015e-01" purity="3.1689405441284180e-01" nType="-99"/>
        </Node>
        <Node pos="r" depth="1" NCoef="0" IVar="7" Cut="3.1946256756782532e-02" cType="1" res="6.2656760215759277e-02" rms="4.6337094902992249e-01" purity="6.0303193330764771e-01" nType="0">
          <Node pos="l" depth="2" NCoef="0" IVar="-1" Cut="0.0000000000000000e+00" cType="1" res="1.1657171417027712e-03" rms="4.5359906554222107e-01" purity="6.5917050838470459e-01" nType="-99"/>
          <Node pos="r" depth="2" NCoef="0" IVar="-1" Cut="0.0000000000000000e+00" cType="1" res="-2.6860750949708745e-05" rms="4.7107833623886108e-01" purity="5.1484996080398560e-01" nType="-99"/>
        </Node>
      </Node>
    </BinaryTree>
    <BinaryTree type="DecisionTree" boostWeight="1.0000000000000000e+00" itree="257">
      <Node pos="s" depth="0" NCoef="0" IVar="1" Cut="1.0610340833663940e+00" cType="1" res="-3.3751926384866238e-03" rms="4.5795723795890808e-01" purity="4.8381513357162476e-01" nType="0">
        <Node pos="l" depth="1" NCoef="0" IVar="2" Cut="1.8950421142578125e+02" cType="1" res="4.0547430515289307e-02" rms="4.6525144577026367e-01" purity="5.8075684309005737e-01" nType="0">
          <Node pos="l" depth="2" NCoef="0" IVar="-1" Cut="0.0000000000000000e+00" cType="1" res="-3.0133235850371420e-04" rms="4.6735569834709167e-01" purity="4.8036268353462219e-01" nType="-99"/>
          <Node pos="r" depth="2" NCoef="0" IVar="-1" Cut="0.0000000000000000e+00" cType="1" res="1.1818845523521304e-03" rms="4.5418712496757507e-01" purity="6.7817503213882446e-01" nType="-99"/>
        </Node>
        <Node pos="r" depth="1" NCoef="0" IVar="0" Cut="7.3560495376586914e+00" cType="1" res="-8.0244727432727814e-02" rms="4.3434342741966248e-01" purity="3.1415626406669617e-01" nType="0">
          <Node pos="l" depth="2" NCoef="0" IVar="-1" Cut="0.0000000000000000e+00" cType="1" res="-1.9324735039845109e-03" rms="4.0668562054634094e-01" purity="2.3006699979305267e-01" nType="-99"/>
          <Node pos="r" depth="2" NCoef="0" IVar="-1" Cut="0.0000000000000000e+00" cType="1" res="3.0950873042456806e-04" rms="4.8476383090019226e-01" purity="5.3727859258651733e-01" nType="-99"/>
        </Node>
      </Node>
    </BinaryTree>
    <BinaryTree type="DecisionTree" boostWeight="1.0000000000000000e+00" itree="258">
      <Node pos="s" depth="0" NCoef="0" IVar="0" Cut="7.6192975044250488e+00" cType="1" res="-2.9933021869510412e-03" rms="4.6050769090652466e-01" purity="4.7975510358810425e-01" nType="0">
        <Node pos="l" depth="1" NCoef="0" IVar="1" Cut="1.1729327440261841e+00" cType="1" res="-3.1643297523260117e-02" rms="4.6061146259307861e-01" purity="4.0640684962272644e-01" nType="0">
          <Node pos="l" depth="2" NCoef="0" IVar="-1" Cut="0.0000000000000000e+00" cType="1" res="1.4427413361772778e-06" rms="4.7794547677040100e-01" purity="4.8494777083396912e-01" nType="-99"/>
          <Node pos="r" depth="2" NCoef="0" IVar="-1" Cut="0.0000000000000000e+00" cType="1" res="-1.7329587135463953e-03" rms="4.0893283486366272e-01" purity="2.2626218199729919e-01" nType="-99"/>
        </Node>
        <Node pos="r" depth="1" NCoef="0" IVar="3" Cut="1.0327227783203125e+02" cType="1" res="8.2631886005401611e-02" rms="4.4944053888320923e-01" purity="6.9896841049194336e-01" nType="0">
          <Node pos="l" depth="2" NCoef="0" IVar="-1" Cut="0.0000000000000000e+00" cType="1" res="5.5922538740560412e-04" rms="4.6177947521209717e-01" purity="6.6856634616851807e-01" nType="-99"/>
          <Node pos="r" depth="2" NCoef="0" IVar="-1" Cut="0.0000000000000000e+00" cType="1" res="1.9080998608842492e-03" rms="4.0517434477806091e-01" purity="7.7370339632034302e-01" nType="-99"/>
        </Node>
      </Node>
    </BinaryTree>
    <BinaryTree type="DecisionTree" boostWeight="1.0000000000000000e+00" itree="259">
      <Node pos="s" depth="0" NCoef="0" IVar="1" Cut="1.7022836208343506e+00" cType="1" res="1.3082083314657211e-02" rms="4.5819863677024841e-01" purity="5.0601893663406372e-01" nType="0">
        <Node pos="l" depth="1" NCoef="0" IVar="0" Cut="5.0676617622375488e+00" cType="1" res="2.7487881481647491e-02" rms="4.6450459957122803e-01" purity="5.3343737125396729e-01" nType="0">
          <Node pos="l" depth="2" NCoef="0" IVar="-1" Cut="0.0000000000000000e+00" cType="1" res="-2.0851034205406904e-03" rms="3.8453271985054016e-01" purity="1.9686324894428253e-01" nType="-99"/>
          <Node pos="r" depth="2" NCoef="0" IVar="-1" Cut="0.0000000000000000e+00" cType="1" res="5.1158416317775846e-04" rms="4.6896776556968689e-01" purity="5.6790781021118164e-01" nType="-99"/>
        </Node>
        <Node pos="r" depth="1" NCoef="0" IVar="-1" Cut="0.0000000000000000e+00" cType="1" res="-4.5516430400311947e-03" rms="2.5137633085250854e-01" purity="7.3379933834075928e-02" nType="-99"/>
      </Node>
    </BinaryTree>
    <BinaryTree type="DecisionTree" boostWeight="1.0000000000000000e+00" itree="260">
      <Node pos="s" depth="0" NCoef="0" IVar="0" Cut="5.8222131729125977e+00" cType="1" res="5.3373430855572224e-03" rms="4.5914837718009949e-01" purity="4.9311500787734985e-01" nType="0">
        <Node pos="l" depth="1" NCoef="0" IVar="3" Cut="8.2136077880859375e+01" cType="1" res="-8.4650561213493347e-02" rms="4.2601498961448669e-01" purity="2.6845729351043701e-01" nType="0">
          <Node pos="l" depth="2" NCoef="0" IVar="-1" Cut="0.0000000000000000e+00" cType="1" res="-1.8609443213790655e-03" rms="4.1122823953628540e-01" purity="2.2813925147056580e-01" nType="-99"/>
          <Node pos="r" depth="2" NCoef="0" IVar="-1" Cut="0.0000000000000000e+00" cType="1" res="-2.1934567485004663e-04" rms="4.4254246354103088e-01" purity="3.3953225612640381e-01" nType="-99"/>
        </Node>
        <Node pos="r" depth="1" NCoef="0" IVar="1" Cut="9.2350804805755615e-01" cType="1" res="3.9588171988725662e-02" rms="4.6660992503166199e-01" purity="5.7862329483032227e-01" nType="0">
          <Node pos="l" depth="2" NCoef="0" IVar="-1" Cut="0.0000000000000000e+00" cType="1" res="9.4361754599958658e-04" rms="4.5428672432899475e-01" purity="6.8326777219772339e-01" nType="-99"/>
          <Node pos="r" depth="2" NCoef="0" IVar="-1" Cut="0.0000000000000000e+00" cType="1" res="-1.2382908607833087e-04" rms="4.7473731637001038e-01" purity="4.6502161026000977e-01" nType="-99"/>
        </Node>
      </Node>
    </BinaryTree>
    <BinaryTree type="DecisionTree" boostWeight="1.0000000000000000e+00" itree="261">
      <Node pos="s" depth="0" NCoef="0" IVar="1" Cut="1.6350384950637817e+00" cType="1" res="1.5736041590571404e-02" rms="4.5661780238151550e-01" purity="5.0794011354446411e-01" nType="0">
        <Node pos="l" depth="1" NCoef="0" IVar="6" Cut="3.6249884033203125e+02" cType="1" res="3.0308717861771584e-02" rms="4.6230274438858032e-01" purity="5.3726553916931152e-01" nType="0">
          <Node pos="l" depth="2" NCoef="0" IVar="-1" Cut="0.0000000000000000e+00" cType="1" res="-1.2025547912344337e-03" rms="4.4534218311309814e-01" purity="3.5641324520111084e-01" nType="-99"/>
          <Node pos="r" depth="2" NCoef="0" IVar="-1" Cut="0.0000000000000000e+00" cType="1" res="7.1972352452576160e-04" rms="4.6154883503913879e-01" purity="5.8368372917175293e-01" nType="-99"/>
        </Node>
        <Node pos="r" depth="1" NCoef="0" IVar="-1" Cut="0.0000000000000000e+00" cType="1" res="-3.2896192278712988e-03" rms="3.2481440901756287e-01" purity="1.3631591200828552e-01" nType="-99"/>
      </Node>
    </BinaryTree>
    <BinaryTree type="DecisionTree" boostWeight="1.0000000000000000e+00" itree="262">
      <Node pos="s" depth="0" NCoef="0" IVar="0" Cut="7.5141105651855469e+00" cType="1" res="-1.1648879386484623e-02" rms="4.5924824476242065e-01" purity="4.7782820463180542e-01" nType="0">
        <Node pos="l" depth="1" NCoef="0" IVar="3" Cut="8.5423362731933594e+01" cType="1" res="-4.7821320593357086e-02" rms="4.5972439646720886e-01" purity="3.8959729671478271e-01" nType="0">
          <Node pos="l" depth="2" NCoef="0" IVar="-1" Cut="0.0000000000000000e+00" cType="1" res="-1.1900345562025905e-03" rms="4.4856864213943481e-01" purity="3.4311917424201965e-01" nType="-99"/>
          <Node pos="r" depth="2" NCoef="0" IVar="-1" Cut="0.0000000000000000e+00" cType="1" res="2.5580651708878577e-04" rms="4.6979811787605286e-01" purity="4.6669280529022217e-01" nType="-99"/>
        </Node>
        <Node pos="r" depth="1" NCoef="0" IVar="4" Cut="-5.2093070000410080e-02" cType="1" res="8.0248393118381500e-02" rms="4.4500339031219482e-01" purity="7.0198184251785278e-01" nType="0">
          <Node pos="l" depth="2" NCoef="0" IVar="-1" Cut="0.0000000000000000e+00" cType="1" res="1.2450043868739158e-04" rms="4.6284878253936768e-01" purity="6.1439961194992065e-01" nType="-99"/>
          <Node pos="r" depth="2" NCoef="0" IVar="-1" Cut="0.0000000000000000e+00" cType="1" res="1.3024925719946623e-03" rms="4.3117076158523560e-01" purity="7.4681603908538818e-01" nType="-99"/>
        </Node>
      </Node>
    </BinaryTree>
    <BinaryTree type="DecisionTree" boostWeight="1.0000000000000000e+00" itree="263">
      <Node pos="s" depth="0" NCoef="0" IVar="1" Cut="1.6895009279251099e+00" cType="1" res="8.3114209701307118e-05" rms="4.6203622221946716e-01" purity="4.8864090442657471e-01" nType="0">
        <Node pos="l" depth="1" NCoef="0" IVar="0" Cut="7.0419421195983887e+00" cType="1" res="1.2027353979647160e-02" rms="4.6828746795654297e-01" purity="5.1302909851074219e-01" nType="0">
          <Node pos="l" depth="2" NCoef="0" IVar="-1" Cut="0.0000000000000000e+00" cType="1" res="-2.8304915758781135e-04" rms="4.7689166665077209e-01" purity="3.9696857333183289e-01" nType="-99"/>
          <Node pos="r" depth="2" NCoef="0" IVar="-1" Cut="0.0000000000000000e+00" cType="1" res="7.2711380198597908e-04" rms="4.5037198066711426e-01" purity="6.8607509136199951e-01" nType="-99"/>
        </Node>
        <Node pos="r" depth="1" NCoef="0" IVar="-1" Cut="0.0000000000000000e+00" cType="1" res="-3.9854110218584538e-03" rms="2.9339602589607239e-01" purity="1.0882430523633957e-01" nType="-99"/>
      </Node>
    </BinaryTree>
    <BinaryTree type="DecisionTree" boostWeight="1.0000000000000000e+00" itree="264">
      <Node pos="s" depth="0" NCoef="0" IVar="0" Cut="6.7487816810607910e+00" cType="1" res="4.1772071272134781e-03" rms="4.5280286669731140e-01" purity="4.9587541818618774e-01" nType="0">
        <Node pos="l" depth="1" NCoef="0" IVar="4" Cut="7.6832726597785950e-02" cType="1" res="-6.5138861536979675e-02" rms="4.4912022352218628e-01" purity="3.2704111933708191e-01" nType="0">
          <Node pos="l" depth="2" NCoef="0" IVar="-1" Cut="0.0000000000000000e+00" cType="1" res="-1.5683646779507399e-03" rms="4.2627590894699097e-01" purity="2.7339974045753479e-01" nType="-99"/>
          <Node pos="r" depth="2" NCoef="0" IVar="-1" Cut="0.0000000000000000e+00" cType="1" res="2.6432890444993973e-04" rms="4.7956478595733643e-01" purity="4.3297693133354187e-01" nType="-99"/>
        </Node>
        <Node pos="r" depth="1" NCoef="0" IVar="1" Cut="1.3031841516494751e+00" cType="1" res="7.9721279442310333e-02" rms="4.4464257359504700e-01" purity="6.7987936735153198e-01" nType="0">
          <Node pos="l" depth="2" NCoef="0" IVar="-1" Cut="0.0000000000000000e+00" cType="1" res="1.1310247937217355e-03" rms="4.3499568104743958e-01" purity="7.3525607585906982e-01" nType="-99"/>
          <Node pos="r" depth="2" NCoef="0" IVar="-1" Cut="0.0000000000000000e+00" cType="1" res="-5.5687763961032033e-04" rms="4.7554138302803040e-01" purity="3.8392668962478638e-01" nType="-99"/>
        </Node>
      </Node>
    </BinaryTree>
    <BinaryTree type="DecisionTree" boostWeight="1.0000000000000000e+00" itree="265">
      <Node pos="s" depth="0" NCoef="0" IVar="0" Cut="8.1824197769165039e+00" cType="1" res="1.2765856459736824e-02" rms="4.5985513925552368e-01" purity="4.9884951114654541e-01" nType="0">
        <Node pos="l" depth="1" NCoef="0" IVar="1" Cut="1.0570029020309448e+00" cType="1" res="-9.3776211142539978e-03" rms="4.6496802568435669e-01" purity="4.4931563735008240e-01" nType="0">
          <Node pos="l" depth="2" NCoef="0" IVar="-1" Cut="0.0000000000000000e+00" cType="1" res="3.2837284379638731e-04" rms="4.7708198428153992e-01" purity="5.3974556922912598e-01" nType="-99"/>
          <Node pos="r" depth="2" NCoef="0" IVar="-1" Cut="0.0000000000000000e+00" cType="1" res="-1.0527863632887602e-03" rms="4.3792510032653809e-01" purity="3.0299213528633118e-01" nType="-99"/>
        </Node>
        <Node pos="r" depth="1" NCoef="0" IVar="4" Cut="-1.6697835177183151e-02" cType="1" res="1.3359579443931580e-01" rms="4.1035261750221252e-01" purity="7.6914000511169434e-01" nType="0">
          <Node pos="l" depth="2" NCoef="0" IVar="-1" Cut="0.0000000000000000e+00" cType="1" res="8.2789256703108549e-04" rms="4.4876718521118164e-01" purity="6.8374741077423096e-01" nType="-99"/>
          <Node pos="r" depth="2" NCoef="0" IVar="-1" Cut="0.0000000000000000e+00" cType="1" res="1.9338557031005621e-03" rms="3.7890893220901489e-01" purity="8.2227069139480591e-01" nType="-99"/>
        </Node>
      </Node>
    </BinaryTree>
    <BinaryTree type="DecisionTree" boostWeight="1.0000000000000000e+00" itree="266">
      <Node pos="s" depth="0" NCoef="0" IVar="0" Cut="5.0713934898376465e+00" cType="1" res="7.1028405800461769e-03" rms="4.5928633213043213e-01" purity="4.9960964918136597e-01" nType="0">
        <Node pos="l" depth="1" NCoef="0" IVar="2" Cut="1.9743818664550781e+02" cType="1" res="-1.5051355957984924e-01" rms="3.5164573788642883e-01" purity="1.5733774006366730e-01" nType="0">
          <Node pos="l" depth="2" NCoef="0" IVar="-1" Cut="0.0000000000000000e+00" cType="1" res="-3.2100828830152750e-03" rms="3.2712900638580322e-01" purity="1.2075933814048767e-01" nType="-99"/>
          <Node pos="r" depth="2" NCoef="0" IVar="-1" Cut="0.0000000000000000e+00" cType="1" res="-2.0086928270757198e-03" rms="3.6871114373207092e-01" purity="1.9068220257759094e-01" nType="-99"/>
        </Node>
        <Node pos="r" depth="1" NCoef="0" IVar="2" Cut="1.9078379821777344e+02" cType="1" res="2.6176769286394119e-02" rms="4.6705144643783569e-01" purity="5.4102969169616699e-01" nType="0">
          <Node pos="l" depth="2" NCoef="0" IVar="-1" Cut="0.0000000000000000e+00" cType="1" res="-4.3277503573335707e-04" rms="4.7547072172164917e-01" purity="4.7213125228881836e-01" nType="-99"/>
          <Node pos="r" depth="2" NCoef="0" IVar="-1" Cut="0.0000000000000000e+00" cType="1" res="7.8406889224424958e-04" rms="4.5772665739059448e-01" purity="5.8316510915756226e-01" nType="-99"/>
        </Node>
      </Node>
    </BinaryTree>
    <BinaryTree type="DecisionTree" boostWeight="1.0000000000000000e+00" itree="267">
      <Node pos="s" depth="0" NCoef="0" IVar="0" Cut="7.9912114143371582e+00" cType="1" res="1.1715862900018692e-02" rms="4.5945605635643005e-01" purity="5.0137400627136230e-01" nType="0">
        <Node pos="l" depth="1" NCoef="0" IVar="2" Cut="1.8976806640625000e+02" cType="1" res="-1.3217230327427387e-02" rms="4.6459308266639709e-01" purity="4.4415420293807983e-01" nType="0">
          <Node pos="l" depth="2" NCoef="0" IVar="-1" Cut="0.0000000000000000e+00" cType="1" res="-9.8620518110692501e-04" rms="4.6573680639266968e-01" purity="3.7800157070159912e-01" nType="-99"/>
          <Node pos="r" depth="2" NCoef="0" IVar="-1" Cut="0.0000000000000000e+00" cType="1" res="4.2526994366198778e-04" rms="4.5818153023719788e-01" purity="4.9212923645973206e-01" nType="-99"/>
        </Node>
        <Node pos="r" depth="1" NCoef="0" IVar="3" Cut="8.9308029174804688e+01" cType="1" res="1.1863268166780472e-01" rms="4.2029476165771484e-01" purity="7.4674105644226074e-01" nType="0">
          <Node pos="l" depth="2" NCoef="0" IVar="-1" Cut="0.0000000000000000e+00" cType="1" res="8.9545472292229533e-04" rms="4.3710145354270935e-01" purity="7.1249133348464966e-01" nType="-99"/>
          <Node pos="r" depth="2" NCoef="0" IVar="-1" Cut="0.0000000000000000e+00" cType="1" res="1.8605394288897514e-03" rms="3.8997447490692139e-01" purity="7.9259490966796875e-01" nType="-99"/>
        </Node>
      </Node>
    </BinaryTree>
    <BinaryTree type="DecisionTree" boostWeight="1.0000000000000000e+00" itree="268">
      <Node pos="s" depth="0" NCoef="0" IVar="1" Cut="1.4274624586105347e+00" cType="1" res="1.0964006185531616e-02" rms="4.5349776744842529e-01" purity="4.9900624155998230e-01" nType="0">
        <Node pos="l" depth="1" NCoef="0" IVar="2" Cut="2.0516699218750000e+02" cType="1" res="3.5622693598270416e-02" rms="4.6227240562438965e-01" purity="5.5377542972564697e-01" nType="0">
          <Node pos="l" depth="2" NCoef="0" IVar="-1" Cut="0.0000000000000000e+00" cType="1" res="-2.1595913858618587e-04" rms="4.6484723687171936e-01" purity="4.8359847068786621e-01" nType="-99"/>
          <Node pos="r" depth="2" NCoef="0" IVar="-1" Cut="0.0000000000000000e+00" cType="1" res="1.1217014398425817e-03" rms="4.5190876722335815e-01" purity="6.3266384601593018e-01" nType="-99"/>
        </Node>
        <Node pos="r" depth="1" NCoef="0" IVar="3" Cut="8.7013053894042969e+01" cType="1" res="-1.2916702032089233e-01" rms="3.7000459432601929e-01" purity="1.8776215612888336e-01" nType="0">
          <Node pos="l" depth="2" NCoef="0" IVar="-1" Cut="0.0000000000000000e+00" cType="1" res="-4.3134083971381187e-03" rms="2.8668954968452454e-01" purity="9.3133762478828430e-02" nType="-99"/>
          <Node pos="r" depth="2" NCoef="0" IVar="-1" Cut="0.0000000000000000e+00" cType="1" res="-7.0448883343487978e-04" rms="4.2670482397079468e-01" purity="2.9031103849411011e-01" nType="-99"/>
        </Node>
      </Node>
    </BinaryTree>
    <BinaryTree type="DecisionTree" boostWeight="1.0000000000000000e+00" itree="269">
      <Node pos="s" depth="0" NCoef="0" IVar="0" Cut="7.4097919464111328e+00" cType="1" res="2.4086339399218559e-02" rms="4.6123844385147095e-01" purity="5.1335597038269043e-01" nType="0">
        <Node pos="l" depth="1" NCoef="0" IVar="6" Cut="3.2873614501953125e+02" cType="1" res="-1.0887737385928631e-02" rms="4.6818196773529053e-01" purity="4.1974896192550659e-01" nType="0">
          <Node pos="l" depth="2" NCoef="0" IVar="-1" Cut="0.0000000000000000e+00" cType="1" res="-2.2834208793938160e-03" rms="4.1272762417793274e-01" purity="2.2162844240665436e-01" nType="-99"/>
          <Node pos="r" depth="2" NCoef="0" IVar="-1" Cut="0.0000000000000000e+00" cType="1" res="8.9614819444250315e-05" rms="4.7190585732460022e-01" purity="4.4535535573959351e-01" nType="-99"/>
        </Node>
        <Node pos="r" depth="1" NCoef="0" IVar="3" Cut="9.9038734436035156e+01" cType="1" res="1.0244234651327133e-01" rms="4.3520393967628479e-01" purity="7.2307336330413818e-01" nType="0">
          <Node pos="l" depth="2" NCoef="0" IVar="-1" Cut="0.0000000000000000e+00" cType="1" res="7.7718554530292749e-04" rms="4.5289781689643860e-01" purity="6.8836170434951782e-01" nType="-99"/>
          <Node pos="r" depth="2" NCoef="0" IVar="-1" Cut="0.0000000000000000e+00" cType="1" res="1.8950669327750802e-03" rms="3.8926136493682861e-01" purity="7.9007697105407715e-01" nType="-99"/>
        </Node>
      </Node>
    </BinaryTree>
    <BinaryTree type="DecisionTree" boostWeight="1.0000000000000000e+00" itree="270">
      <Node pos="s" depth="0" NCoef="0" IVar="2" Cut="1.9078379821777344e+02" cType="1" res="1.9928067922592163e-02" rms="4.6051314473152161e-01" purity="5.1367044448852539e-01" nType="0">
        <Node pos="l" depth="1" NCoef="0" IVar="0" Cut="7.7645249366760254e+00" cType="1" res="-4.5090034604072571e-02" rms="4.6479138731956482e-01" purity="4.4148835539817810e-01" nType="0">
          <Node pos="l" depth="2" NCoef="0" IVar="-1" Cut="0.0000000000000000e+00" cType="1" res="-9.9488988053053617e-04" rms="4.6502810716629028e-01" purity="3.6898699402809143e-01" nType="-99"/>
          <Node pos="r" depth="2" NCoef="0" IVar="-1" Cut="0.0000000000000000e+00" cType="1" res="8.4813428111374378e-04" rms="4.4364655017852783e-01" purity="7.1257507801055908e-01" nType="-99"/>
        </Node>
        <Node pos="r" depth="1" NCoef="0" IVar="1" Cut="1.0570029020309448e+00" cType="1" res="5.8135520666837692e-02" rms="4.5365411043167114e-01" purity="5.5608773231506348e-01" nType="0">
          <Node pos="l" depth="2" NCoef="0" IVar="-1" Cut="0.0000000000000000e+00" cType="1" res="1.4072398189455271e-03" rms="4.4395232200622559e-01" purity="7.0648193359375000e-01" nType="-99"/>
          <Node pos="r" depth="2" NCoef="0" IVar="-1" Cut="0.0000000000000000e+00" cType="1" res="-4.1274051181972027e-04" rms="4.5056295394897461e-01" purity="3.6932411789894104e-01" nType="-99"/>
        </Node>
      </Node>
    </BinaryTree>
    <BinaryTree type="DecisionTree" boostWeight="1.0000000000000000e+00" itree="271">
      <Node pos="s" depth="0" NCoef="0" IVar="1" Cut="1.0582216978073120e+00" cType="1" res="2.3705365601927042e-03" rms="4.6005272865295410e-01" purity="4.9353191256523132e-01" nType="0">
        <Node pos="l" depth="1" NCoef="0" IVar="2" Cut="1.8357952880859375e+02" cType="1" res="4.2687829583883286e-02" rms="4.6373289823532104e-01" purity="5.8769947290420532e-01" nType="0">
          <Node pos="l" depth="2" NCoef="0" IVar="-1" Cut="0.0000000000000000e+00" cType="1" res="-4.0852767415344715e-04" rms="4.6822357177734375e-01" purity="4.6795853972434998e-01" nType="-99"/>
          <Node pos="r" depth="2" NCoef="0" IVar="-1" Cut="0.0000000000000000e+00" cType="1" res="1.1266745859757066e-03" rms="4.5199793577194214e-01" purity="6.7752426862716675e-01" nType="-99"/>
        </Node>
        <Node pos="r" depth="1" NCoef="0" IVar="1" Cut="1.7299313545227051e+00" cType="1" res="-6.8341091275215149e-02" rms="4.4478625059127808e-01" purity="3.2837334275245667e-01" nType="0">
          <Node pos="l" depth="2" NCoef="0" IVar="-1" Cut="0.0000000000000000e+00" cType="1" res="-6.3922535628080368e-04" rms="4.6499606966972351e-01" purity="3.7327429652214050e-01" nType="-99"/>
          <Node pos="r" depth="2" NCoef="0" IVar="-1" Cut="0.0000000000000000e+00" cType="1" res="-3.9971699006855488e-03" rms="2.9607012867927551e-01" purity="1.0035225749015808e-01" nType="-99"/>
        </Node>
      </Node>
    </BinaryTree>
    <BinaryTree type="DecisionTree" boostWeight="1.0000000000000000e+00" itree="272">
      <Node pos="s" depth="0" NCoef="0" IVar="6" Cut="4.0961053466796875e+02" cType="1" res="3.2154783606529236e-02" rms="4.5889711380004883e-01" purity="5.2174311876296997e-01" nType="0">
        <Node pos="l" depth="1" NCoef="0" IVar="0" Cut="7.7403368949890137e+00" cType="1" res="-4.6120796352624893e-02" rms="4.4803363084793091e-01" purity="3.8673478364944458e-01" nType="0">
          <Node pos="l" depth="2" NCoef="0" IVar="-1" Cut="0.0000000000000000e+00" cType="1" res="-1.0695176897570491e-03" rms="4.4623437523841858e-01" purity="3.2014110684394836e-01" nType="-99"/>
          <Node pos="r" depth="2" NCoef="0" IVar="-1" Cut="0.0000000000000000e+00" cType="1" res="1.0572060709819198e-03" rms="4.2939284443855286e-01" purity="6.9460326433181763e-01" nType="-99"/>
        </Node>
        <Node pos="r" depth="1" NCoef="0" IVar="3" Cut="1.1494940948486328e+02" cType="1" res="7.5183182954788208e-02" rms="4.5911103487014771e-01" purity="5.9595769643783569e-01" nType="0">
          <Node pos="l" depth="2" NCoef="0" IVar="-1" Cut="0.0000000000000000e+00" cType="1" res="5.8230524882674217e-04" rms="4.6050080657005310e-01" purity="5.7009404897689819e-01" nType="-99"/>
          <Node pos="r" depth="2" NCoef="0" IVar="-1" Cut="0.0000000000000000e+00" cType="1" res="1.7796822357922792e-03" rms="4.4586122035980225e-01" purity="6.7058211565017700e-01" nType="-99"/>
        </Node>
      </Node>
    </BinaryTree>
    <BinaryTree type="DecisionTree" boostWeight="1.0000000000000000e+00" itree="273">
      <Node pos="s" depth="0" NCoef="0" IVar="0" Cut="8.5726308822631836e+00" cType="1" res="1.2302779592573643e-02" rms="4.5779022574424744e-01" purity="4.9889811873435974e-01" nType="0">
        <Node pos="l" depth="1" NCoef="0" IVar="6" Cut="4.6869296264648438e+02" cType="1" res="-7.8400624915957451e-03" rms="4.6142399311065674e-01" purity="4.5961609482765198e-01" nType="0">
          <Node pos="l" depth="2" NCoef="0" IVar="-1" Cut="0.0000000000000000e+00" cType="1" res="-7.7173148747533560e-04" rms="4.5157432556152344e-01" purity="3.8045734167098999e-01" nType="-99"/>
          <Node pos="r" depth="2" NCoef="0" IVar="-1" Cut="0.0000000000000000e+00" cType="1" res="6.4888928318396211e-04" rms="4.6601188182830811e-01" purity="5.5775111913681030e-01" nType="-99"/>
        </Node>
        <Node pos="r" depth="1" NCoef="0" IVar="-1" Cut="0.0000000000000000e+00" cType="1" res="1.7647258937358856e-03" rms="3.9940887689590454e-01" purity="7.9001361131668091e-01" nType="-99"/>
      </Node>
    </BinaryTree>
    <BinaryTree type="DecisionTree" boostWeight="1.0000000000000000e+00" itree="274">
      <Node pos="s" depth="0" NCoef="0" IVar="6" Cut="4.2468209838867188e+02" cType="1" res="6.4301500096917152e-03" rms="4.6204757690429688e-01" purity="4.9564981460571289e-01" nType="0">
        <Node pos="l" depth="1" NCoef="0" IVar="4" Cut="-1.0431105643510818e-01" cType="1" res="-5.5699106305837631e-02" rms="4.5302298665046692e-01" purity="3.9090722799301147e-01" nType="0">
          <Node pos="l" depth="2" NCoef="0" IVar="-1" Cut="0.0000000000000000e+00" cType="1" res="-4.1182902641594410e-03" rms="3.1601589918136597e-01" purity="1.5742556750774384e-01" nType="-99"/>
          <Node pos="r" depth="2" NCoef="0" IVar="-1" Cut="0.0000000000000000e+00" cType="1" res="-3.6738000926561654e-04" rms="4.6313297748565674e-01" purity="4.2442607879638672e-01" nType="-99"/>
        </Node>
        <Node pos="r" depth="1" NCoef="0" IVar="2" Cut="4.7284207153320312e+02" cType="1" res="4.9274694174528122e-02" rms="4.6334138512611389e-01" purity="5.6788063049316406e-01" nType="0">
          <Node pos="l" depth="2" NCoef="0" IVar="-1" Cut="0.0000000000000000e+00" cType="1" res="7.7199522638693452e-04" rms="4.6283033490180969e-01" purity="5.9515964984893799e-01" nType="-99"/>
          <Node pos="r" depth="2" NCoef="0" IVar="-1" Cut="0.0000000000000000e+00" cType="1" res="-2.1229728590697050e-03" rms="4.2865028977394104e-01" purity="2.8110963106155396e-01" nType="-99"/>
        </Node>
      </Node>
    </BinaryTree>
    <BinaryTree type="DecisionTree" boostWeight="1.0000000000000000e+00" itree="275">
      <Node pos="s" depth="0" NCoef="0" IVar="0" Cut="5.0844802856445312e+00" cType="1" res="4.0999655611813068e-03" rms="4.5564332604408264e-01" purity="4.9283951520919800e-01" nType="0">
        <Node pos="l" depth="1" NCoef="0" IVar="7" Cut="4.4702710583806038e-03" cType="1" res="-1.6583216190338135e-01" rms="3.3929705619812012e-01" purity="1.4386762678623199e-01" nType="0">
          <Node pos="l" depth="2" NCoef="0" IVar="-1" Cut="0.0000000000000000e+00" cType="1" res="-1.5845262678340077e-03" rms="3.9503228664398193e-01" purity="2.1511515974998474e-01" nType="-99"/>
          <Node pos="r" depth="2" NCoef="0" IVar="-1" Cut="0.0000000000000000e+00" cType="1" res="-4.5363819226622581e-03" rms="2.5767669081687927e-01" purity="7.1960747241973877e-02" nType="-99"/>
        </Node>
        <Node pos="r" depth="1" NCoef="0" IVar="1" Cut="1.4813365936279297e+00" cType="1" res="2.3490928113460541e-02" rms="4.6313446760177612e-01" purity="5.3266072273254395e-01" nType="0">
          <Node pos="l" depth="2" NCoef="0" IVar="-1" Cut="0.0000000000000000e+00" cType="1" res="4.9124349607154727e-04" rms="4.6909883618354797e-01" purity="5.7429146766662598e-01" nType="-99"/>
          <Node pos="r" depth="2" NCoef="0" IVar="-1" Cut="0.0000000000000000e+00" cType="1" res="-2.2026079241186380e-03" rms="3.8253110647201538e-01" purity="2.0198075473308563e-01" nType="-99"/>
        </Node>
      </Node>
    </BinaryTree>
    <BinaryTree type="DecisionTree" boostWeight="1.0000000000000000e+00" itree="276">
      <Node pos="s" depth="0" NCoef="0" IVar="0" Cut="5.7914257049560547e+00" cType="1" res="3.1129905954003334e-02" rms="4.6111831068992615e-01" purity="5.2080458402633667e-01" nType="0">
        <Node pos="l" depth="1" NCoef="0" IVar="6" Cut="5.0182214355468750e+02" cType="1" res="-4.8637498170137405e-02" rms="4.4420486688613892e-01" purity="2.9932057857513428e-01" nType="0">
          <Node pos="l" depth="2" NCoef="0" IVar="-1" Cut="0.0000000000000000e+00" cType="1" res="-1.3539453502744436e-03" rms="4.2265725135803223e-01" purity="2.4005894362926483e-01" nType="-99"/>
          <Node pos="r" depth="2" NCoef="0" IVar="-1" Cut="0.0000000000000000e+00" cType="1" res="3.0936510302126408e-04" rms="4.7343951463699341e-01" purity="4.0969112515449524e-01" nType="-99"/>
        </Node>
        <Node pos="r" depth="1" NCoef="0" IVar="4" Cut="-8.6431890726089478e-02" cType="1" res="6.0634072870016098e-02" rms="4.6375614404678345e-01" purity="6.0272657871246338e-01" nType="0">
          <Node pos="l" depth="2" NCoef="0" IVar="-1" Cut="0.0000000000000000e+00" cType="1" res="-2.9892486054450274e-04" rms="4.6074348688125610e-01" purity="4.7244444489479065e-01" nType="-99"/>
          <Node pos="r" depth="2" NCoef="0" IVar="-1" Cut="0.0000000000000000e+00" cType="1" res="9.5516827423125505e-04" rms="4.6201920509338379e-01" purity="6.3740652799606323e-01" nType="-99"/>
        </Node>
      </Node>
    </BinaryTree>
    <BinaryTree type="DecisionTree" boostWeight="1.0000000000000000e+00" itree="277">
      <Node pos="s" depth="0" NCoef="0" IVar="0" Cut="7.9912114143371582e+00" cType="1" res="-5.6214267387986183e-03" rms="4.5942184329032898e-01" purity="4.8766729235649109e-01" nType="0">
        <Node pos="l" depth="1" NCoef="0" IVar="3" Cut="9.7317619323730469e+01" cType="1" res="-3.8115683943033218e-02" rms="4.6364825963973999e-01" purity="4.1833451390266418e-01" nType="0">
          <Node pos="l" depth="2" NCoef="0" IVar="-1" Cut="0.0000000000000000e+00" cType="1" res="-8.9457316789776087e-04" rms="4.5931410789489746e-01" purity="3.8484466075897217e-01" nType="-99"/>
          <Node pos="r" depth="2" NCoef="0" IVar="-1" Cut="0.0000000000000000e+00" cType="1" res="4.9769668839871883e-04" rms="4.6596503257751465e-01" purity="5.0578719377517700e-01" nType="-99"/>
        </Node>
        <Node pos="r" depth="1" NCoef="0" IVar="7" Cut="3.5255845636129379e-02" cType="1" res="1.1534556746482849e-01" rms="4.2187827825546265e-01" purity="7.4577367305755615e-01" nType="0">
          <Node pos="l" depth="2" NCoef="0" IVar="-1" Cut="0.0000000000000000e+00" cType="1" res="1.6959600616246462e-03" rms="3.9571097493171692e-01" purity="7.9646486043930054e-01" nType="-99"/>
          <Node pos="r" depth="2" NCoef="0" IVar="-1" Cut="0.0000000000000000e+00" cType="1" res="4.3486015056259930e-04" rms="4.6349126100540161e-01" purity="6.3743788003921509e-01" nType="-99"/>
        </Node>
      </Node>
    </BinaryTree>
    <BinaryTree type="DecisionTree" boostWeight="1.0000000000000000e+00" itree="278">
      <Node pos="s" depth="0" NCoef="0" IVar="0" Cut="8.1956481933593750e+00" cType="1" res="1.1172288097441196e-02" rms="4.6030953526496887e-01" purity="4.9812835454940796e-01" nType="0">
        <Node pos="l" depth="1" NCoef="0" IVar="1" Cut="1.2491252422332764e+00" cType="1" res="-9.4216661527752876e-03" rms="4.6590268611907959e-01" purity="4.4769287109375000e-01" nType="0">
          <Node pos="l" depth="2" NCoef="0" IVar="-1" Cut="0.0000000000000000e+00" cType="1" res="1.8037787231151015e-04" rms="4.7902724146842957e-01" purity="5.1195955276489258e-01" nType="-99"/>
          <Node pos="r" depth="2" NCoef="0" IVar="-1" Cut="0.0000000000000000e+00" cType="1" res="-1.4947012532502413e-03" rms="4.1022452712059021e-01" purity="2.3836345970630646e-01" nType="-99"/>
        </Node>
        <Node pos="r" depth="1" NCoef="0" IVar="7" Cut="3.1535316258668900e-02" cType="1" res="1.1736730486154556e-01" rms="4.1437536478042603e-01" purity="7.5820451974868774e-01" nType="0">
          <Node pos="l" depth="2" NCoef="0" IVar="-1" Cut="0.0000000000000000e+00" cType="1" res="1.7622731393203139e-03" rms="3.8514068722724915e-01" purity="8.1321686506271362e-01" nType="-99"/>
          <Node pos="r" depth="2" NCoef="0" IVar="-1" Cut="0.0000000000000000e+00" cType="1" res="5.3927215049043298e-04" rms="4.5124262571334839e-01" purity="6.6374510526657104e-01" nType="-99"/>
        </Node>
      </Node>
    </BinaryTree>
    <BinaryTree type="DecisionTree" boostWeight="1.0000000000000000e+00" itree="279">
      <Node pos="s" depth="0" NCoef="0" IVar="0" Cut="5.8133692741394043e+00" cType="1" res="6.0994778759777546e-03" rms="4.6152538061141968e-01" purity="4.9478662014007568e-01" nType="0">
        <Node pos="l" depth="1" NCoef="0" IVar="0" Cut="5.0368733406066895e+00" cType="1" res="-8.3068750798702240e-02" rms="4.2588591575622559e-01" purity="2.6561111211776733e-01" nType="0">
          <Node pos="l" depth="2" NCoef="0" IVar="-1" Cut="0.0000000000000000e+00" cType="1" res="-2.9641417786478996e-03" rms="3.3987715840339661e-01" purity="1.3499216735363007e-01" nType="-99"/>
          <Node pos="r" depth="2" NCoef="0" IVar="-1" Cut="0.0000000000000000e+00" cType="1" res="-6.1640189960598946e-04" rms="4.5477962493896484e-01" purity="3.2513245940208435e-01" nType="-99"/>
        </Node>
        <Node pos="r" depth="1" NCoef="0" IVar="1" Cut="1.5733841657638550e+00" cType="1" res="3.8878496736288071e-02" rms="4.6971768140792847e-01" purity="5.7903349399566650e-01" nType="0">
          <Node pos="l" depth="2" NCoef="0" IVar="-1" Cut="0.0000000000000000e+00" cType="1" res="5.8326590806245804e-04" rms="4.7198063135147095e-01" purity="6.0846948623657227e-01" nType="-99"/>
          <Node pos="r" depth="2" NCoef="0" IVar="-1" Cut="0.0000000000000000e+00" cType="1" res="-1.5485883923247457e-03" rms="4.2168626189231873e-01" purity="2.4269287288188934e-01" nType="-99"/>
        </Node>
      </Node>
    </BinaryTree>
    <BinaryTree type="DecisionTree" boostWeight="1.0000000000000000e+00" itree="280">
      <Node pos="s" depth="0" NCoef="0" IVar="1" Cut="1.4083372354507446e+00" cType="1" res="2.0763460546731949e-02" rms="4.6176186203956604e-01" purity="5.0705015659332275e-01" nType="0">
        <Node pos="l" depth="1" NCoef="0" IVar="2" Cut="1.8930175781250000e+02" cType="1" res="4.2468391358852386e-02" rms="4.6937799453735352e-01" purity="5.5797642469406128e-01" nType="0">
          <Node pos="l" depth="2" NCoef="0" IVar="-1" Cut="0.0000000000000000e+00" cType="1" res="-5.5450096260756254e-04" rms="4.7172439098358154e-01" purity="4.4474467635154724e-01" nType="-99"/>
          <Node pos="r" depth="2" NCoef="0" IVar="-1" Cut="0.0000000000000000e+00" cType="1" res="1.1959470575675368e-03" rms="4.5785826444625854e-01" purity="6.3799339532852173e-01" nType="-99"/>
        </Node>
        <Node pos="r" depth="1" NCoef="0" IVar="2" Cut="2.6937261962890625e+02" cType="1" res="-1.0738077759742737e-01" rms="3.9006799459457397e-01" purity="2.0638564229011536e-01" nType="0">
          <Node pos="l" depth="2" NCoef="0" IVar="-1" Cut="0.0000000000000000e+00" cType="1" res="-3.6817759973928332e-04" rms="4.3763324618339539e-01" purity="2.9400384426116943e-01" nType="-99"/>
          <Node pos="r" depth="2" NCoef="0" IVar="-1" Cut="0.0000000000000000e+00" cType="1" res="-3.1255120411515236e-03" rms="3.4643283486366272e-01" purity="1.5135031938552856e-01" nType="-99"/>
        </Node>
      </Node>
    </BinaryTree>
    <BinaryTree type="DecisionTree" boostWeight="1.0000000000000000e+00" itree="281">
      <Node pos="s" depth="0" NCoef="0" IVar="0" Cut="7.2858877182006836e+00" cType="1" res="2.5839341804385185e-02" rms="4.5672839879989624e-01" purity="5.1843935251235962e-01" nType="0">
        <Node pos="l" depth="1" NCoef="0" IVar="3" Cut="1.0454970550537109e+02" cType="1" res="-1.4611451886594296e-02" rms="4.6621796488761902e-01" purity="4.0747743844985962e-01" nType="0">
          <Node pos="l" depth="2" NCoef="0" IVar="-1" Cut="0.0000000000000000e+00" cType="1" res="-5.7303957873955369e-04" rms="4.6055105328559875e-01" purity="3.7163746356964111e-01" nType="-99"/>
          <Node pos="r" depth="2" NCoef="0" IVar="-1" Cut="0.0000000000000000e+00" cType="1" res="1.0401434265077114e-03" rms="4.7179627418518066e-01" purity="5.2763777971267700e-01" nType="-99"/>
        </Node>
        <Node pos="r" depth="1" NCoef="0" IVar="7" Cut="3.8587290793657303e-02" cType="1" res="1.0299609601497650e-01" rms="4.2757537961006165e-01" purity="7.3009049892425537e-01" nType="0">
          <Node pos="l" depth="2" NCoef="0" IVar="-1" Cut="0.0000000000000000e+00" cType="1" res="1.6737662954255939e-03" rms="3.9212995767593384e-01" purity="7.9586893320083618e-01" nType="-99"/>
          <Node pos="r" depth="2" NCoef="0" IVar="-1" Cut="0.0000000000000000e+00" cType="1" res="-1.1706054465321358e-05" rms="4.7886529564857483e-01" purity="5.8897292613983154e-01" nType="-99"/>
        </Node>
      </Node>
    </BinaryTree>
    <BinaryTree type="DecisionTree" boostWeight="1.0000000000000000e+00" itree="282">
      <Node pos="s" depth="0" NCoef="0" IVar="3" Cut="1.0080733489990234e+02" cType="1" res="2.2866938263177872e-02" rms="4.5969858765602112e-01" purity="5.1518434286117554e-01" nType="0">
        <Node pos="l" depth="1" NCoef="0" IVar="0" Cut="7.1783790588378906e+00" cType="1" res="-1.7952896654605865e-02" rms="4.6081793308258057e-01" purity="4.6372556686401367e-01" nType="0">
          <Node pos="l" depth="2" NCoef="0" IVar="-1" Cut="0.0000000000000000e+00" cType="1" res="-7.2550156619399786e-04" rms="4.5758464932441711e-01" purity="3.5109674930572510e-01" nType="-99"/>
          <Node pos="r" depth="2" NCoef="0" IVar="-1" Cut="0.0000000000000000e+00" cType="1" res="5.7030399329960346e-04" rms="4.5931741595268250e-01" purity="6.6838771104812622e-01" nType="-99"/>
        </Node>
        <Node pos="r" depth="1" NCoef="0" IVar="1" Cut="1.3560614585876465e+00" cType="1" res="1.2453779578208923e-01" rms="4.4075989723205566e-01" purity="6.4335381984710693e-01" nType="0">
          <Node pos="l" depth="2" NCoef="0" IVar="-1" Cut="0.0000000000000000e+00" cType="1" res="1.7866890411823988e-03" rms="4.3184489011764526e-01" purity="7.2509503364562988e-01" nType="-99"/>
          <Node pos="r" depth="2" NCoef="0" IVar="-1" Cut="0.0000000000000000e+00" cType="1" res="-2.8081575874239206e-04" rms="4.4561007618904114e-01" purity="3.2743385434150696e-01" nType="-99"/>
        </Node>
      </Node>
    </BinaryTree>
    <BinaryTree type="DecisionTree" boostWeight="1.0000000000000000e+00" itree="283">
      <Node pos="s" depth="0" NCoef="0" IVar="0" Cut="7.1023764610290527e+00" cType="1" res="3.7950875703245401e-03" rms="4.5429697632789612e-01" purity="4.9129840731620789e-01" nType="0">
        <Node pos="l" depth="1" NCoef="0" IVar="3" Cut="9.7317619323730469e+01" cType="1" res="-4.7344502061605453e-02" rms="4.5617830753326416e-01" purity="3.6012676358222961e-01" nType="0">
          <Node pos="l" depth="2" NCoef="0" IVar="-1" Cut="0.0000000000000000e+00" cType="1" res="-1.0761886369436979e-03" rms="4.5031458139419556e-01" purity="3.2188791036605835e-01" nType="-99"/>
          <Node pos="r" depth="2" NCoef="0" IVar="-1" Cut="0.0000000000000000e+00" cType="1" res="5.5337749654427171e-04" rms="4.6074959635734558e-01" purity="4.6937274932861328e-01" nType="-99"/>
        </Node>
        <Node pos="r" depth="1" NCoef="0" IVar="3" Cut="9.1055801391601562e+01" cType="1" res="8.5349887609481812e-02" rms="4.3912667036056519e-01" purity="7.0048409700393677e-01" nType="0">
          <Node pos="l" depth="2" NCoef="0" IVar="-1" Cut="0.0000000000000000e+00" cType="1" res="6.1718671349808574e-04" rms="4.5379140973091125e-01" purity="6.7252707481384277e-01" nType="-99"/>
          <Node pos="r" depth="2" NCoef="0" IVar="-1" Cut="0.0000000000000000e+00" cType="1" res="1.6574554610997438e-03" rms="4.0491560101509094e-01" purity="7.5061184167861938e-01" nType="-99"/>
        </Node>
      </Node>
    </BinaryTree>
    <BinaryTree type="DecisionTree" boostWeight="1.0000000000000000e+00" itree="284">
      <Node pos="s" depth="0" NCoef="0" IVar="0" Cut="7.4097919464111328e+00" cType="1" res="8.2481224089860916e-03" rms="4.5865190029144287e-01" purity="4.9622970819473267e-01" nType="0">
        <Node pos="l" depth="1" NCoef="0" IVar="3" Cut="7.9751411437988281e+01" cType="1" res="-3.5164687782526016e-02" rms="4.6573626995086670e-01" purity="3.9046084880828857e-01" nType="0">
          <Node pos="l" depth="2" NCoef="0" IVar="-1" Cut="0.0000000000000000e+00" cType="1" res="-1.1071206536144018e-03" rms="4.4824177026748657e-01" purity="3.3253544569015503e-01" nType="-99"/>
          <Node pos="r" depth="2" NCoef="0" IVar="-1" Cut="0.0000000000000000e+00" cType="1" res="2.5025790091603994e-04" rms="4.8041296005249023e-01" purity="4.6079814434051514e-01" nType="-99"/>
        </Node>
        <Node pos="r" depth="1" NCoef="0" IVar="4" Cut="-7.2578646242618561e-02" cType="1" res="1.0572978854179382e-01" rms="4.2652329802513123e-01" purity="7.3372924327850342e-01" nType="0">
          <Node pos="l" depth="2" NCoef="0" IVar="-1" Cut="0.0000000000000000e+00" cType="1" res="2.5001847461680882e-05" rms="4.6904146671295166e-01" purity="5.9025013446807861e-01" nType="-99"/>
          <Node pos="r" depth="2" NCoef="0" IVar="-1" Cut="0.0000000000000000e+00" cType="1" res="1.6684088623151183e-03" rms="4.0123936533927917e-01" purity="7.9030799865722656e-01" nType="-99"/>
        </Node>
      </Node>
    </BinaryTree>
    <BinaryTree type="DecisionTree" boostWeight="1.0000000000000000e+00" itree="285">
      <Node pos="s" depth="0" NCoef="0" IVar="3" Cut="1.0454970550537109e+02" cType="1" res="1.8115220591425896e-02" rms="4.6540048718452454e-01" purity="5.0195020437240601e-01" nType="0">
        <Node pos="l" depth="1" NCoef="0" IVar="1" Cut="6.0793513059616089e-01" cType="1" res="-3.1882748007774353e-03" rms="4.6930482983589172e-01" purity="4.7408324480056763e-01" nType="0">
          <Node pos="l" depth="2" NCoef="0" IVar="-1" Cut="0.0000000000000000e+00" cType="1" res="7.5945386197417974e-04" rms="4.6928241848945618e-01" purity="6.0373610258102417e-01" nType="-99"/>
          <Node pos="r" depth="2" NCoef="0" IVar="-1" Cut="0.0000000000000000e+00" cType="1" res="-3.1535755260847509e-04" rms="4.6730354428291321e-01" purity="4.3534290790557861e-01" nType="-99"/>
        </Node>
        <Node pos="r" depth="1" NCoef="0" IVar="1" Cut="1.0519689321517944e+00" cType="1" res="8.2944072782993317e-02" rms="4.4711098074913025e-01" purity="5.8675241470336914e-01" nType="0">
          <Node pos="l" depth="2" NCoef="0" IVar="-1" Cut="0.0000000000000000e+00" cType="1" res="1.8162896158173680e-03" rms="4.0605592727661133e-01" purity="7.5607681274414062e-01" nType="-99"/>
          <Node pos="r" depth="2" NCoef="0" IVar="-1" Cut="0.0000000000000000e+00" cType="1" res="5.3813884733244777e-05" rms="4.7103154659271240e-01" purity="4.1982212662696838e-01" nType="-99"/>
        </Node>
      </Node>
    </BinaryTree>
    <BinaryTree type="DecisionTree" boostWeight="1.0000000000000000e+00" itree="286">
      <Node pos="s" depth="0" NCoef="0" IVar="0" Cut="6.2752146720886230e+00" cType="1" res="3.5849539563059807e-03" rms="4.5491582155227661e-01" purity="4.9451941251754761e-01" nType="0">
        <Node pos="l" depth="1" NCoef="0" IVar="6" Cut="4.2468209838867188e+02" cType="1" res="-7.5081154704093933e-02" rms="4.3681243062019348e-01" purity="2.9791292548179626e-01" nType="0">
          <Node pos="l" depth="2" NCoef="0" IVar="-1" Cut="0.0000000000000000e+00" cType="1" res="-2.1772088948637247e-03" rms="3.9624148607254028e-01" purity="2.0338237285614014e-01" nType="-99"/>
          <Node pos="r" depth="2" NCoef="0" IVar="-1" Cut="0.0000000000000000e+00" cType="1" res="-1.6873756248969585e-04" rms="4.6295526623725891e-01" purity="3.8618016242980957e-01" nType="-99"/>
        </Node>
        <Node pos="r" depth="1" NCoef="0" IVar="4" Cut="-5.2210263907909393e-02" cType="1" res="5.5854681879281998e-02" rms="4.5916318893432617e-01" purity="6.2515467405319214e-01" nType="0">
          <Node pos="l" depth="2" NCoef="0" IVar="-1" Cut="0.0000000000000000e+00" cType="1" res="-2.9275644919835031e-04" rms="4.6767079830169678e-01" purity="5.1873230934143066e-01" nType="-99"/>
          <Node pos="r" depth="2" NCoef="0" IVar="-1" Cut="0.0000000000000000e+00" cType="1" res="1.1128219775855541e-03" rms="4.4914799928665161e-01" purity="6.8070077896118164e-01" nType="-99"/>
        </Node>
      </Node>
    </BinaryTree>
    <BinaryTree type="DecisionTree" boostWeight="1.0000000000000000e+00" itree="287">
      <Node pos="s" depth="0" NCoef="0" IVar="1" Cut="1.0570029020309448e+00" cType="1" res="-1.0316872503608465e-03" rms="4.5700111985206604e-01" purity="4.8779809474945068e-01" nType="0">
        <Node pos="l" depth="1" NCoef="0" IVar="2" Cut="2.2227259826660156e+02" cType="1" res="4.1350282728672028e-02" rms="4.6361207962036133e-01" purity="5.8691173791885376e-01" nType="0">
          <Node pos="l" depth="2" NCoef="0" IVar="-1" Cut="0.0000000000000000e+00" cType="1" res="-2.9782031197100878e-04" rms="4.7175067663192749e-01" purity="4.9789041280746460e-01" nType="-99"/>
          <Node pos="r" depth="2" NCoef="0" IVar="-1" Cut="0.0000000000000000e+00" cType="1" res="1.6701952554285526e-03" rms="4.2815709114074707e-01" purity="7.3397290706634521e-01" nType="-99"/>
        </Node>
        <Node pos="r" depth="1" NCoef="0" IVar="0" Cut="5.8454775810241699e+00" cType="1" res="-7.4577808380126953e-02" rms="4.3561747670173645e-01" purity="3.1580457091331482e-01" nType="0">
          <Node pos="l" depth="2" NCoef="0" IVar="-1" Cut="0.0000000000000000e+00" cType="1" res="-2.5440175086259842e-03" rms="3.4502762556076050e-01" purity="1.4862848818302155e-01" nType="-99"/>
          <Node pos="r" depth="2" NCoef="0" IVar="-1" Cut="0.0000000000000000e+00" cType="1" res="-5.5656483164057136e-04" rms="4.7116789221763611e-01" purity="4.0017282962799072e-01" nType="-99"/>
        </Node>
      </Node>
    </BinaryTree>
    <BinaryTree type="DecisionTree" boostWeight="1.0000000000000000e+00" itree="288">
      <Node pos="s" depth="0" NCoef="0" IVar="0" Cut="4.7934036254882812e+00" cType="1" res="2.1031469106674194e-02" rms="4.5894706249237061e-01" purity="5.1375716924667358e-01" nType="0">
        <Node pos="l" depth="1" NCoef="0" IVar="-1" Cut="0.0000000000000000e+00" cType="1" res="-3.5581158008426428e-03" rms="2.9242584109306335e-01" purity="1.0430824011564255e-01" nType="-99"/>
        <Node pos="r" depth="1" NCoef="0" IVar="1" Cut="1.5819377899169922e+00" cType="1" res="3.2375510782003403e-02" rms="4.6357297897338867e-01" purity="5.3592264652252197e-01" nType="0">
          <Node pos="l" depth="2" NCoef="0" IVar="-1" Cut="0.0000000000000000e+00" cType="1" res="5.4559012642130256e-04" rms="4.6728459000587463e-01" purity="5.6855463981628418e-01" nType="-99"/>
          <Node pos="r" depth="2" NCoef="0" IVar="-1" Cut="0.0000000000000000e+00" cType="1" res="-1.9605730194598436e-03" rms="3.9681202173233032e-01" purity="1.9835223257541656e-01" nType="-99"/>
        </Node>
      </Node>
    </BinaryTree>
    <BinaryTree type="DecisionTree" boostWeight="1.0000000000000000e+00" itree="289">
      <Node pos="s" depth="0" NCoef="0" IVar="1" Cut="1.6350384950637817e+00" cType="1" res="1.8476836383342743e-02" rms="4.5643892884254456e-01" purity="5.0753819942474365e-01" nType="0">
        <Node pos="l" depth="1" NCoef="0" IVar="0" Cut="5.2974209785461426e+00" cType="1" res="3.2744787633419037e-02" rms="4.6295249462127686e-01" purity="5.3844296932220459e-01" nType="0">
          <Node pos="l" depth="2" NCoef="0" IVar="-1" Cut="0.0000000000000000e+00" cType="1" res="-1.2348843738436699e-03" rms="4.1872850060462952e-01" purity="2.4811770021915436e-01" nType="-99"/>
          <Node pos="r" depth="2" NCoef="0" IVar="-1" Cut="0.0000000000000000e+00" cType="1" res="6.2444806098937988e-04" rms="4.6729072928428650e-01" purity="5.8926522731781006e-01" nType="-99"/>
        </Node>
        <Node pos="r" depth="1" NCoef="0" IVar="-1" Cut="0.0000000000000000e+00" cType="1" res="-3.1725987792015076e-03" rms="3.2139512896537781e-01" purity="1.3272382318973541e-01" nType="-99"/>
      </Node>
    </BinaryTree>
    <BinaryTree type="DecisionTree" boostWeight="1.0000000000000000e+00" itree="290">
      <Node pos="s" depth="0" NCoef="0" IVar="0" Cut="5.5742397308349609e+00" cType="1" res="5.8763492852449417e-03" rms="4.6252453327178955e-01" purity="4.9482846260070801e-01" nType="0">
        <Node pos="l" depth="1" NCoef="0" IVar="5" Cut="7.1992278099060059e-01" cType="1" res="-7.9457618296146393e-02" rms="4.2164301872253418e-01" purity="2.5721496343612671e-01" nType="0">
          <Node pos="l" depth="2" NCoef="0" IVar="-1" Cut="0.0000000000000000e+00" cType="1" res="-2.1184792276471853e-03" rms="4.0001806616783142e-01" purity="2.1812854707241058e-01" nType="-99"/>
          <Node pos="r" depth="2" NCoef="0" IVar="-1" Cut="0.0000000000000000e+00" cType="1" res="-2.5997826014645398e-04" rms="4.3369650840759277e-01" purity="2.9665696620941162e-01" nType="-99"/>
        </Node>
        <Node pos="r" depth="1" NCoef="0" IVar="2" Cut="3.5284912109375000e+02" cType="1" res="2.7835104614496231e-02" rms="4.6997267007827759e-01" purity="5.5597293376922607e-01" nType="0">
          <Node pos="l" depth="2" NCoef="0" IVar="-1" Cut="0.0000000000000000e+00" cType="1" res="4.9327692249789834e-04" rms="4.6811345219612122e-01" purity="5.7942318916320801e-01" nType="-99"/>
          <Node pos="r" depth="2" NCoef="0" IVar="-1" Cut="0.0000000000000000e+00" cType="1" res="-9.3923346139490604e-04" rms="4.7229540348052979e-01" purity="3.9826148748397827e-01" nType="-99"/>
        </Node>
      </Node>
    </BinaryTree>
    <BinaryTree type="DecisionTree" boostWeight="1.0000000000000000e+00" itree="291">
      <Node pos="s" depth="0" NCoef="0" IVar="4" Cut="-5.2672900259494781e-02" cType="1" res="5.5160983465611935e-03" rms="4.5977252721786499e-01" purity="4.9227166175842285e-01" nType="0">
        <Node pos="l" depth="1" NCoef="0" IVar="5" Cut="8.9989387989044189e-01" cType="1" res="-6.9649465382099152e-02" rms="4.4359704852104187e-01" purity="3.9182341098785400e-01" nType="0">
          <Node pos="l" depth="2" NCoef="0" IVar="-1" Cut="0.0000000000000000e+00" cType="1" res="-5.3441774798557162e-04" rms="4.5501348376274109e-01" purity="4.3991145491600037e-01" nType="-99"/>
          <Node pos="r" depth="2" NCoef="0" IVar="-1" Cut="0.0000000000000000e+00" cType="1" res="-3.7051197141408920e-03" rms="3.5588419437408447e-01" purity="1.6767491400241852e-01" nType="-99"/>
        </Node>
        <Node pos="r" depth="1" NCoef="0" IVar="6" Cut="3.3407769775390625e+02" cType="1" res="4.1850700974464417e-02" rms="4.6303677558898926e-01" purity="5.4082769155502319e-01" nType="0">
          <Node pos="l" depth="2" NCoef="0" IVar="-1" Cut="0.0000000000000000e+00" cType="1" res="-2.0419894717633724e-03" rms="4.1864106059074402e-01" purity="2.7307239174842834e-01" nType="-99"/>
          <Node pos="r" depth="2" NCoef="0" IVar="-1" Cut="0.0000000000000000e+00" cType="1" res="7.6706969412043691e-04" rms="4.6334919333457947e-01" purity="5.7642078399658203e-01" nType="-99"/>
        </Node>
      </Node>
    </BinaryTree>
    <BinaryTree type="DecisionTree" boostWeight="1.0000000000000000e+00" itree="292">
      <Node pos="s" depth="0" NCoef="0" IVar="0" Cut="7.3245048522949219e+00" cType="1" res="-1.8313745968043804e-03" rms="4.5213770866394043e-01" purity="4.8627218604087830e-01" nType="0">
        <Node pos="l" depth="1" NCoef="0" IVar="1" Cut="6.8595749139785767e-01" cType="1" res="-4.4321458786725998e-02" rms="4.5068511366844177e-01" purity="3.7190523743629456e-01" nType="0">
          <Node pos="l" depth="2" NCoef="0" IVar="-1" Cut="0.0000000000000000e+00" cType="1" res="6.2848668312653899e-04" rms="4.7353300452232361e-01" purity="5.3558403253555298e-01" nType="-99"/>
          <Node pos="r" depth="2" NCoef="0" IVar="-1" Cut="0.0000000000000000e+00" cType="1" res="-1.1516851373016834e-03" rms="4.3653413653373718e-01" purity="3.1215754151344299e-01" nType="-99"/>
        </Node>
        <Node pos="r" depth="1" NCoef="0" IVar="0" Cut="8.5238533020019531e+00" cType="1" res="7.8595891594886780e-02" rms="4.4387492537498474e-01" purity="7.0275139808654785e-01" nType="0">
          <Node pos="l" depth="2" NCoef="0" IVar="-1" Cut="0.0000000000000000e+00" cType="1" res="5.2599044283851981e-04" rms="4.6063160896301270e-01" purity="6.6208505630493164e-01" nType="-99"/>
          <Node pos="r" depth="2" NCoef="0" IVar="-1" Cut="0.0000000000000000e+00" cType="1" res="1.5906451735645533e-03" rms="4.0388360619544983e-01" purity="7.7752703428268433e-01" nType="-99"/>
        </Node>
      </Node>
    </BinaryTree>
    <BinaryTree type="DecisionTree" boostWeight="1.0000000000000000e+00" itree="293">
      <Node pos="s" depth="0" NCoef="0" IVar="0" Cut="6.8283720016479492e+00" cType="1" res="1.3807323761284351e-02" rms="4.5865109562873840e-01" purity="5.0401192903518677e-01" nType="0">
        <Node pos="l" depth="1" NCoef="0" IVar="1" Cut="7.8621292114257812e-01" cType="1" res="-2.5534320622682571e-02" rms="4.6048921346664429e-01" purity="3.6603045463562012e-01" nType="0">
          <Node pos="l" depth="2" NCoef="0" IVar="-1" Cut="0.0000000000000000e+00" cType="1" res="4.4232007348909974e-04" rms="4.8589110374450684e-01" purity="4.8808094859123230e-01" nType="-99"/>
          <Node pos="r" depth="2" NCoef="0" IVar="-1" Cut="0.0000000000000000e+00" cType="1" res="-8.2865450531244278e-04" rms="4.4418221712112427e-01" purity="3.0643254518508911e-01" nType="-99"/>
        </Node>
        <Node pos="r" depth="1" NCoef="0" IVar="7" Cut="-3.8832288235425949e-02" cType="1" res="6.0825966298580170e-02" rms="4.5197471976280212e-01" purity="6.6891860961914062e-01" nType="0">
          <Node pos="l" depth="2" NCoef="0" IVar="-1" Cut="0.0000000000000000e+00" cType="1" res="1.5325604472309351e-03" rms="4.0402415394783020e-01" purity="7.8044831752777100e-01" nType="-99"/>
          <Node pos="r" depth="2" NCoef="0" IVar="-1" Cut="0.0000000000000000e+00" cType="1" res="4.0569601696915925e-04" rms="4.6443885564804077e-01" purity="6.3020801544189453e-01" nType="-99"/>
        </Node>
      </Node>
    </BinaryTree>
    <BinaryTree type="DecisionTree" boostWeight="1.0000000000000000e+00" itree="294">
      <Node pos="s" depth="0" NCoef="0" IVar="1" Cut="1.2499934434890747e+00" cType="1" res="1.4481635764241219e-02" rms="4.5934689044952393e-01" purity="5.0169044733047485e-01" nType="0">
        <Node pos="l" depth="1" NCoef="0" IVar="0" Cut="5.3314433097839355e+00" cType="1" res="4.8195444047451019e-02" rms="4.6675795316696167e-01" purity="5.7701611518859863e-01" nType="0">
          <Node pos="l" depth="2" NCoef="0" IVar="-1" Cut="0.0000000000000000e+00" cType="1" res="-9.3968375585973263e-04" rms="4.4166839122772217e-01" purity="2.8666293621063232e-01" nType="-99"/>
          <Node pos="r" depth="2" NCoef="0" IVar="-1" Cut="0.0000000000000000e+00" cType="1" res="7.7707786113023758e-04" rms="4.6807527542114258e-01" purity="6.2677597999572754e-01" nType="-99"/>
        </Node>
        <Node pos="r" depth="1" NCoef="0" IVar="5" Cut="8.9314144849777222e-01" cType="1" res="-1.0064214468002319e-01" rms="4.1282939910888672e-01" purity="2.4447315931320190e-01" nType="0">
          <Node pos="l" depth="2" NCoef="0" IVar="-1" Cut="0.0000000000000000e+00" cType="1" res="-1.0468298569321632e-03" rms="4.3311077356338501e-01" purity="2.8692319989204407e-01" nType="-99"/>
          <Node pos="r" depth="2" NCoef="0" IVar="-1" Cut="0.0000000000000000e+00" cType="1" res="-2.6457381900399923e-03" rms="3.7994179129600525e-01" purity="1.8918408453464508e-01" nType="-99"/>
        </Node>
      </Node>
    </BinaryTree>
    <BinaryTree type="DecisionTree" boostWeight="1.0000000000000000e+00" itree="295">
      <Node pos="s" depth="0" NCoef="0" IVar="1" Cut="1.0694423913955688e+00" cType="1" res="6.0823555104434490e-03" rms="4.5665630698204041e-01" purity="4.9450299143791199e-01" nType="0">
        <Node pos="l" depth="1" NCoef="0" IVar="2" Cut="1.8937690734863281e+02" cType="1" res="4.3552402406930923e-02" rms="4.6162685751914978e-01" purity="5.8810603618621826e-01" nType="0">
          <Node pos="l" depth="2" NCoef="0" IVar="-1" Cut="0.0000000000000000e+00" cType="1" res="-9.2440670414362103e-05" rms="4.6415287256240845e-01" purity="5.0006335973739624e-01" nType="-99"/>
          <Node pos="r" depth="2" NCoef="0" IVar="-1" Cut="0.0000000000000000e+00" cType="1" res="1.0574848856776953e-03" rms="4.5386505126953125e-01" purity="6.7175871133804321e-01" nType="-99"/>
        </Node>
        <Node pos="r" depth="1" NCoef="0" IVar="3" Cut="1.0890020751953125e+02" cType="1" res="-5.8359049260616302e-02" rms="4.4058802723884583e-01" purity="3.3352333307266235e-01" nType="0">
          <Node pos="l" depth="2" NCoef="0" IVar="-1" Cut="0.0000000000000000e+00" cType="1" res="-1.6035150038078427e-03" rms="4.2014443874359131e-01" purity="2.7808126807212830e-01" nType="-99"/>
          <Node pos="r" depth="2" NCoef="0" IVar="-1" Cut="0.0000000000000000e+00" cType="1" res="5.5670161964371800e-04" rms="4.6951305866241455e-01" purity="4.6297794580459595e-01" nType="-99"/>
        </Node>
      </Node>
    </BinaryTree>
    <BinaryTree type="DecisionTree" boostWeight="1.0000000000000000e+00" itree="296">
      <Node pos="s" depth="0" NCoef="0" IVar="0" Cut="8.0177249908447266e+00" cType="1" res="1.3503740541636944e-02" rms="4.5663568377494812e-01" purity="5.0403839349746704e-01" nType="0">
        <Node pos="l" depth="1" NCoef="0" IVar="6" Cut="4.2221286010742188e+02" cType="1" res="-1.4237447641789913e-02" rms="4.6319067478179932e-01" purity="4.3869739770889282e-01" nType="0">
          <Node pos="l" depth="2" NCoef="0" IVar="-1" Cut="0.0000000000000000e+00" cType="1" res="-9.1798050561919808e-04" rms="4.5126208662986755e-01" purity="3.4675160050392151e-01" nType="-99"/>
          <Node pos="r" depth="2" NCoef="0" IVar="-1" Cut="0.0000000000000000e+00" cType="1" res="3.0190843972377479e-04" rms="4.6813833713531494e-01" purity="5.0665956735610962e-01" nType="-99"/>
        </Node>
        <Node pos="r" depth="1" NCoef="0" IVar="3" Cut="8.6479705810546875e+01" cType="1" res="1.2517757713794708e-01" rms="4.1070088744163513e-01" purity="7.6707273721694946e-01" nType="0">
          <Node pos="l" depth="2" NCoef="0" IVar="-1" Cut="0.0000000000000000e+00" cType="1" res="8.5706805111840367e-04" rms="4.4157737493515015e-01" purity="7.1766394376754761e-01" nType="-99"/>
          <Node pos="r" depth="2" NCoef="0" IVar="-1" Cut="0.0000000000000000e+00" cType="1" res="2.1297223865985870e-03" rms="3.5857129096984863e-01" purity="8.2841032743453979e-01" nType="-99"/>
        </Node>
      </Node>
    </BinaryTree>
    <BinaryTree type="DecisionTree" boostWeight="1.0000000000000000e+00" itree="297">
      <Node pos="s" depth="0" NCoef="0" IVar="2" Cut="1.8357952880859375e+02" cType="1" res="2.3598100990056992e-02" rms="4.6221011877059937e-01" purity="5.1276087760925293e-01" nType="0">
        <Node pos="l" depth="1" NCoef="0" IVar="5" Cut="3.7142124772071838e-01" cType="1" res="-3.5021651536226273e-02" rms="4.7420847415924072e-01" purity="4.4201025366783142e-01" nType="0">
          <Node pos="l" depth="2" NCoef="0" IVar="-1" Cut="0.0000000000000000e+00" cType="1" res="1.0936710750684142e-03" rms="4.7776883840560913e-01" purity="6.0007494688034058e-01" nType="-99"/>
          <Node pos="r" depth="2" NCoef="0" IVar="-1" Cut="0.0000000000000000e+00" cType="1" res="-9.1320741921663284e-04" rms="4.6708551049232483e-01" purity="4.0111047029495239e-01" nType="-99"/>
        </Node>
        <Node pos="r" depth="1" NCoef="0" IVar="1" Cut="1.0174552202224731e+00" cType="1" res="5.4825063794851303e-02" rms="4.5260068774223328e-01" purity="5.5044996738433838e-01" nType="0">
          <Node pos="l" depth="2" NCoef="0" IVar="-1" Cut="0.0000000000000000e+00" cType="1" res="1.3726539909839630e-03" rms="4.3654695153236389e-01" purity="7.0280838012695312e-01" nType="-99"/>
          <Node pos="r" depth="2" NCoef="0" IVar="-1" Cut="0.0000000000000000e+00" cType="1" res="-2.5594691396690905e-04" rms="4.5803257822990417e-01" purity="3.8813111186027527e-01" nType="-99"/>
        </Node>
      </Node>
    </BinaryTree>
    <BinaryTree type="DecisionTree" boostWeight="1.0000000000000000e+00" itree="298">
      <Node pos="s" depth="0" NCoef="0" IVar="0" Cut="4.8464303016662598e+00" cType="1" res="8.3332378417253494e-03" rms="4.5886522531509399e-01" purity="4.9695378541946411e-01" nType="0">
        <Node pos="l" depth="1" NCoef="0" IVar="-1" Cut="0.0000000000000000e+00" cType="1" res="-3.7685204297304153e-03" rms="2.9108572006225586e-01" purity="9.6918925642967224e-02" nType="-99"/>
        <Node pos="r" depth="1" NCoef="0" IVar="1" Cut="1.0515333414077759e+00" cType="1" res="2.2177139297127724e-02" rms="4.6479225158691406e-01" purity="5.2398532629013062e-01" nType="0">
          <Node pos="l" depth="2" NCoef="0" IVar="-1" Cut="0.0000000000000000e+00" cType="1" res="5.9600756503641605e-04" rms="4.6358433365821838e-01" purity="6.0601562261581421e-01" nType="-99"/>
          <Node pos="r" depth="2" NCoef="0" IVar="-1" Cut="0.0000000000000000e+00" cType="1" res="-4.7978226211853325e-04" rms="4.6189746260643005e-01" purity="3.7351104617118835e-01" nType="-99"/>
        </Node>
      </Node>
    </BinaryTree>
    <BinaryTree type="DecisionTree" boostWeight="1.0000000000000000e+00" itree="299">
      <Node pos="s" depth="0" NCoef="0" IVar="0" Cut="5.9067449569702148e+00" cType="1" res="6.2708808109164238e-03" rms="4.5908936858177185e-01" purity="4.9103400111198425e-01" nType="0">
        <Node pos="l" depth="1" NCoef="0" IVar="4" Cut="1.0125018656253815e-01" cType="1" res="-6.1678119003772736e-02" rms="4.3804964423179626e-01" purity="2.9068797826766968e-01" nType="0">
          <Node pos="l" depth="2" NCoef="0" IVar="-1" Cut="0.0000000000000000e+00" cType="1" res="-1.2674556346610188e-03" rms="4.1974645853042603e-01" purity="2.5414761900901794e-01" nType="-99"/>
          <Node pos="r" depth="2" NCoef="0" IVar="-1" Cut="0.0000000000000000e+00" cType="1" res="-4.4514788896776736e-05" rms="4.7416287660598755e-01" purity="3.7858062982559204e-01" nType="-99"/>
        </Node>
        <Node pos="r" depth="1" NCoef="0" IVar="2" Cut="3.1789083862304688e+02" cType="1" res="3.6024615168571472e-02" rms="4.6488854289054871e-01" purity="5.7876223325729370e-01" nType="0">
          <Node pos="l" depth="2" NCoef="0" IVar="-1" Cut="0.0000000000000000e+00" cType="1" res="6.7753298208117485e-04" rms="4.6234419941902161e-01" purity="6.1245501041412354e-01" nType="-99"/>
          <Node pos="r" depth="2" NCoef="0" IVar="-1" Cut="0.0000000000000000e+00" cType="1" res="-1.0417327284812927e-03" rms="4.6169531345367432e-01" purity="4.1409772634506226e-01" nType="-99"/>
        </Node>
      </Node>
    </BinaryTree>
    <BinaryTree type="DecisionTree" boostWeight="1.0000000000000000e+00" itree="300">
      <Node pos="s" depth="0" NCoef="0" IVar="0" Cut="8.4406023025512695e+00" cType="1" res="1.4489280059933662e-02" rms="4.5922610163688660e-01" purity="5.0474065542221069e-01" nType="0">
        <Node pos="l" depth="1" NCoef="0" IVar="1" Cut="1.6996632814407349e+00" cType="1" res="-3.1022597104310989e-03" rms="4.6560743451118469e-01" purity="4.6276754140853882e-01" nType="0">
          <Node pos="l" depth="2" NCoef="0" IVar="-1" Cut="0.0000000000000000e+00" cType="1" res="1.0619887325447053e-04" rms="4.7346207499504089e-01" purity="4.8781648278236389e-01" nType="-99"/>
          <Node pos="r" depth="2" NCoef="0" IVar="-1" Cut="0.0000000000000000e+00" cType="1" res="-4.0407008491456509e-03" rms="2.7351444959640503e-01" purity="9.0115264058113098e-02" nType="-99"/>
        </Node>
        <Node pos="r" depth="1" NCoef="0" IVar="7" Cut="-3.0735903419554234e-04" cType="1" res="1.3241380453109741e-01" rms="3.9413979649543762e-01" purity="7.8610676527023315e-01" nType="0">
          <Node pos="l" depth="2" NCoef="0" IVar="-1" Cut="0.0000000000000000e+00" cType="1" res="1.9819771405309439e-03" rms="3.4231013059616089e-01" purity="8.5042643547058105e-01" nType="-99"/>
          <Node pos="r" depth="2" NCoef="0" IVar="-1" Cut="0.0000000000000000e+00" cType="1" res="8.1712455721572042e-04" rms="4.4743242859840393e-01" purity="6.9897872209548950e-01" nType="-99"/>
        </Node>
      </Node>
    </BinaryTree>
    <BinaryTree type="DecisionTree" boostWeight="1.0000000000000000e+00" itree="301">
      <Node pos="s" depth="0" NCoef="0" IVar="1" Cut="9.6942704916000366e-01" cType="1" res="5.9705157764256001e-03" rms="4.5899677276611328e-01" purity="4.9494642019271851e-01" nType="0">
        <Node pos="l" depth="1" NCoef="0" IVar="2" Cut="1.4917216491699219e+02" cType="1" res="6.0836400836706161e-02" rms="4.6259328722953796e-01" purity="6.1188489198684692e-01" nType="0">
          <Node pos="l" depth="2" NCoef="0" IVar="-1" Cut="0.0000000000000000e+00" cType="1" res="-6.9963565329089761e-04" rms="4.8316216468811035e-01" purity="4.3794009089469910e-01" nType="-99"/>
          <Node pos="r" depth="2" NCoef="0" IVar="-1" Cut="0.0000000000000000e+00" cType="1" res="1.0219302494078875e-03" rms="4.5272150635719299e-01" purity="6.5507495403289795e-01" nType="-99"/>
        </Node>
        <Node pos="r" depth="1" NCoef="0" IVar="3" Cut="4.3501300811767578e+01" cType="1" res="-6.1822116374969482e-02" rms="4.4527208805084229e-01" purity="3.5045641660690308e-01" nType="0">
          <Node pos="l" depth="2" NCoef="0" IVar="-1" Cut="0.0000000000000000e+00" cType="1" res="-3.5554969217628241e-03" rms="3.4148234128952026e-01" purity="1.9678518176078796e-01" nType="-99"/>
          <Node pos="r" depth="2" NCoef="0" IVar="-1" Cut="0.0000000000000000e+00" cType="1" res="-5.9753237292170525e-04" rms="4.5364260673522949e-01" purity="3.7086671590805054e-01" nType="-99"/>
        </Node>
      </Node>
    </BinaryTree>
    <BinaryTree type="DecisionTree" boostWeight="1.0000000000000000e+00" itree="302">
      <Node pos="s" depth="0" NCoef="0" IVar="3" Cut="1.0465370178222656e+02" cType="1" res="1.5363997779786587e-02" rms="4.5947733521461487e-01" purity="5.0064730644226074e-01" nType="0">
        <Node pos="l" depth="1" NCoef="0" IVar="4" Cut="7.2856523096561432e-02" cType="1" res="-1.7435416579246521e-02" rms="4.5948639512062073e-01" purity="4.6222126483917236e-01" nType="0">
          <Node pos="l" depth="2" NCoef="0" IVar="-1" Cut="0.0000000000000000e+00" cType="1" res="-7.3399650864303112e-04" rms="4.4860193133354187e-01" purity="4.1267275810241699e-01" nType="-99"/>
          <Node pos="r" depth="2" NCoef="0" IVar="-1" Cut="0.0000000000000000e+00" cType="1" res="5.9583043912425637e-04" rms="4.7092527151107788e-01" purity="5.5121380090713501e-01" nType="-99"/>
        </Node>
        <Node pos="r" depth="1" NCoef="0" IVar="5" Cut="8.3772081136703491e-01" cType="1" res="1.1143025755882263e-01" rms="4.4577506184577942e-01" purity="6.1319321393966675e-01" nType="0">
          <Node pos="l" depth="2" NCoef="0" IVar="-1" Cut="0.0000000000000000e+00" cType="1" res="1.9364401232451200e-03" rms="4.3033248186111450e-01" purity="7.0206415653228760e-01" nType="-99"/>
          <Node pos="r" depth="2" NCoef="0" IVar="-1" Cut="0.0000000000000000e+00" cType="1" res="-1.9459167378954589e-04" rms="4.5394554734230042e-01" purity="4.1469213366508484e-01" nType="-99"/>
        </Node>
      </Node>
    </BinaryTree>
    <BinaryTree type="DecisionTree" boostWeight="1.0000000000000000e+00" itree="303">
      <Node pos="s" depth="0" NCoef="0" IVar="1" Cut="1.6848611831665039e+00" cType="1" res="1.3279588893055916e-02" rms="4.6023711562156677e-01" purity="5.0321960449218750e-01" nType="0">
        <Node pos="l" depth="1" NCoef="0" IVar="2" Cut="2.2176992797851562e+02" cType="1" res="2.5015024468302727e-02" rms="4.6686831116676331e-01" purity="5.3078240156173706e-01" nType="0">
          <Node pos="l" depth="2" NCoef="0" IVar="-1" Cut="0.0000000000000000e+00" cType="1" res="-1.6041596245486289e-04" rms="4.6804091334342957e-01" purity="4.7972831130027771e-01" nType="-99"/>
          <Node pos="r" depth="2" NCoef="0" IVar="-1" Cut="0.0000000000000000e+00" cType="1" res="9.1740948846563697e-04" rms="4.6058693528175354e-01" purity="5.9777361154556274e-01" nType="-99"/>
        </Node>
        <Node pos="r" depth="1" NCoef="0" IVar="-1" Cut="0.0000000000000000e+00" cType="1" res="-2.9920150991529226e-03" rms="3.2041588425636292e-01" purity="1.3333474099636078e-01" nType="-99"/>
      </Node>
    </BinaryTree>
    <BinaryTree type="DecisionTree" boostWeight="1.0000000000000000e+00" itree="304">
      <Node pos="s" depth="0" NCoef="0" IVar="0" Cut="5.6201038360595703e+00" cType="1" res="6.1707908753305674e-04" rms="4.5611435174942017e-01" purity="4.9247384071350098e-01" nType="0">
        <Node pos="l" depth="1" NCoef="0" IVar="2" Cut="2.2218418884277344e+02" cType="1" res="-9.8084375262260437e-02" rms="4.0962585806846619e-01" purity="2.3164638876914978e-01" nType="0">
          <Node pos="l" depth="2" NCoef="0" IVar="-1" Cut="0.0000000000000000e+00" cType="1" res="-2.3585772141814232e-03" rms="3.8022163510322571e-01" purity="1.8057832121849060e-01" nType="-99"/>
          <Node pos="r" depth="2" NCoef="0" IVar="-1" Cut="0.0000000000000000e+00" cType="1" res="-3.9241171907633543e-04" rms="4.3530854582786560e-01" purity="2.9995331168174744e-01" nType="-99"/>
        </Node>
        <Node pos="r" depth="1" NCoef="0" IVar="3" Cut="4.7231281280517578e+01" cType="1" res="2.6787618175148964e-02" rms="4.6415919065475464e-01" purity="5.6163185834884644e-01" nType="0">
          <Node pos="l" depth="2" NCoef="0" IVar="-1" Cut="0.0000000000000000e+00" cType="1" res="-1.2201206991448998e-03" rms="4.6202889084815979e-01" purity="4.2664659023284912e-01" nType="-99"/>
          <Node pos="r" depth="2" NCoef="0" IVar="-1" Cut="0.0000000000000000e+00" cType="1" res="6.0716917505487800e-04" rms="4.6083673834800720e-01" purity="5.8820158243179321e-01" nType="-99"/>
        </Node>
      </Node>
    </BinaryTree>
    <BinaryTree type="DecisionTree" boostWeight="1.0000000000000000e+00" itree="305">
      <Node pos="s" depth="0" NCoef="0" IVar="0" Cut="7.2735357284545898e+00" cType="1" res="1.4212714741006494e-03" rms="4.5532363653182983e-01" purity="4.9080291390419006e-01" nType="0">
        <Node pos="l" depth="1" NCoef="0" IVar="6" Cut="6.8469091796875000e+02" cType="1" res="-3.6407686769962311e-02" rms="4.5807340741157532e-01" purity="3.8170984387397766e-01" nType="0">
          <Node pos="l" depth="2" NCoef="0" IVar="-1" Cut="0.0000000000000000e+00" cType="1" res="-7.2929839370772243e-04" rms="4.5241534709930420e-01" purity="3.5526630282402039e-01" nType="-99"/>
          <Node pos="r" depth="2" NCoef="0" IVar="-1" Cut="0.0000000000000000e+00" cType="1" res="1.0997803183272481e-03" rms="4.7771310806274414e-01" purity="5.7064008712768555e-01" nType="-99"/>
        </Node>
        <Node pos="r" depth="1" NCoef="0" IVar="7" Cut="3.4160979092121124e-02" cType="1" res="7.2436049580574036e-02" rms="4.4144660234451294e-01" purity="6.9559890031814575e-01" nType="0">
          <Node pos="l" depth="2" NCoef="0" IVar="-1" Cut="0.0000000000000000e+00" cType="1" res="1.3944866368547082e-03" rms="4.1411083936691284e-01" purity="7.6434171199798584e-01" nType="-99"/>
          <Node pos="r" depth="2" NCoef="0" IVar="-1" Cut="0.0000000000000000e+00" cType="1" res="-3.2404874218627810e-04" rms="4.7496074438095093e-01" purity="5.6264078617095947e-01" nType="-99"/>
        </Node>
      </Node>
    </BinaryTree>
    <BinaryTree type="DecisionTree" boostWeight="1.0000000000000000e+00" itree="306">
      <Node pos="s" depth="0" NCoef="0" IVar="0" Cut="7.9938998222351074e+00" cType="1" res="1.2830317718908191e-03" rms="4.6083074808120728e-01" purity="4.8916909098625183e-01" nType="0">
        <Node pos="l" depth="1" NCoef="0" IVar="1" Cut="1.3767917156219482e+00" cType="1" res="-1.9574729725718498e-02" rms="4.6696346998214722e-01" purity="4.2987981438636780e-01" nType="0">
          <Node pos="l" depth="2" NCoef="0" IVar="-1" Cut="0.0000000000000000e+00" cType="1" res="-3.4550241252873093e-05" rms="4.8031181097030640e-01" purity="4.7869700193405151e-01" nType="-99"/>
          <Node pos="r" depth="2" NCoef="0" IVar="-1" Cut="0.0000000000000000e+00" cType="1" res="-1.8429498886689544e-03" rms="3.8785034418106079e-01" purity="1.9829308986663818e-01" nType="-99"/>
        </Node>
        <Node pos="r" depth="1" NCoef="0" IVar="1" Cut="9.6707981824874878e-01" cType="1" res="8.7739817798137665e-02" rms="4.2367660999298096e-01" purity="7.3492699861526489e-01" nType="0">
          <Node pos="l" depth="2" NCoef="0" IVar="-1" Cut="0.0000000000000000e+00" cType="1" res="1.4594022650271654e-03" rms="3.8725465536117554e-01" purity="8.1485348939895630e-01" nType="-99"/>
          <Node pos="r" depth="2" NCoef="0" IVar="-1" Cut="0.0000000000000000e+00" cType="1" res="7.9433368227910250e-05" rms="4.7541946172714233e-01" purity="5.8185380697250366e-01" nType="-99"/>
        </Node>
      </Node>
    </BinaryTree>
    <BinaryTree type="DecisionTree" boostWeight="1.0000000000000000e+00" itree="307">
      <Node pos="s" depth="0" NCoef="0" IVar="6" Cut="3.2257806396484375e+02" cType="1" res="1.7595785902813077e-03" rms="4.5859837532043457e-01" purity="4.9234220385551453e-01" nType="0">
        <Node pos="l" depth="1" NCoef="0" IVar="-1" Cut="0.0000000000000000e+00" cType="1" res="-2.4420020636171103e-03" rms="4.1374132037162781e-01" purity="2.2105576097965240e-01" nType="-99"/>
        <Node pos="r" depth="1" NCoef="0" IVar="1" Cut="1.0526543855667114e+00" cType="1" res="1.6545109450817108e-02" rms="4.5972758531570435e-01" purity="5.1743370294570923e-01" nType="0">
          <Node pos="l" depth="2" NCoef="0" IVar="-1" Cut="0.0000000000000000e+00" cType="1" res="6.0298660537227988e-04" rms="4.5895558595657349e-01" purity="6.0978150367736816e-01" nType="-99"/>
          <Node pos="r" depth="2" NCoef="0" IVar="-1" Cut="0.0000000000000000e+00" cType="1" res="-7.0376537041738629e-04" rms="4.5432689785957336e-01" purity="3.5033211112022400e-01" nType="-99"/>
        </Node>
      </Node>
    </BinaryTree>
    <BinaryTree type="DecisionTree" boostWeight="1.0000000000000000e+00" itree="308">
      <Node pos="s" depth="0" NCoef="0" IVar="6" Cut="6.1456829833984375e+02" cType="1" res="7.4276220984756947e-03" rms="4.5679724216461182e-01" purity="4.9957564473152161e-01" nType="0">
        <Node pos="l" depth="1" NCoef="0" IVar="1" Cut="1.2809244394302368e+00" cType="1" res="-1.8883926793932915e-02" rms="4.5561975240707397e-01" purity="4.6156910061836243e-01" nType="0">
          <Node pos="l" depth="2" NCoef="0" IVar="-1" Cut="0.0000000000000000e+00" cType="1" res="8.5539890278596431e-05" rms="4.6741124987602234e-01" purity="5.2861672639846802e-01" nType="-99"/>
          <Node pos="r" depth="2" NCoef="0" IVar="-1" Cut="0.0000000000000000e+00" cType="1" res="-2.0006136037409306e-03" rms="3.9531847834587097e-01" purity="2.1644997596740723e-01" nType="-99"/>
        </Node>
        <Node pos="r" depth="1" NCoef="0" IVar="2" Cut="3.6400680541992188e+02" cType="1" res="1.1510703712701797e-01" rms="4.4568201899528503e-01" purity="6.5511643886566162e-01" nType="0">
          <Node pos="l" depth="2" NCoef="0" IVar="-1" Cut="0.0000000000000000e+00" cType="1" res="1.7574250232428312e-03" rms="4.3200561404228210e-01" purity="7.3112678527832031e-01" nType="-99"/>
          <Node pos="r" depth="2" NCoef="0" IVar="-1" Cut="0.0000000000000000e+00" cType="1" res="1.9101673387922347e-04" rms="4.5570525527000427e-01" purity="5.0171101093292236e-01" nType="-99"/>
        </Node>
      </Node>
    </BinaryTree>
    <BinaryTree type="DecisionTree" boostWeight="1.0000000000000000e+00" itree="309">
      <Node pos="s" depth="0" NCoef="0" IVar="0" Cut="7.4097919464111328e+00" cType="1" res="-5.6660766713321209e-03" rms="4.5352682471275330e-01" purity="4.8675048351287842e-01" nType="0">
        <Node pos="l" depth="1" NCoef="0" IVar="6" Cut="7.0224676513671875e+02" cType="1" res="-4.8746898770332336e-02" rms="4.5404997467994690e-01" purity="3.7899041175842285e-01" nType="0">
          <Node pos="l" depth="2" NCoef="0" IVar="-1" Cut="0.0000000000000000e+00" cType="1" res="-1.0207835584878922e-03" rms="4.4909149408340454e-01" purity="3.4539458155632019e-01" nType="-99"/>
          <Node pos="r" depth="2" NCoef="0" IVar="-1" Cut="0.0000000000000000e+00" cType="1" res="1.4568038750439882e-03" rms="4.5026573538780212e-01" purity="6.0899645090103149e-01" nType="-99"/>
        </Node>
        <Node pos="r" depth="1" NCoef="0" IVar="7" Cut="-4.4466275721788406e-02" cType="1" res="8.7072901427745819e-02" rms="4.3825650215148926e-01" purity="7.1872287988662720e-01" nType="0">
          <Node pos="l" depth="2" NCoef="0" IVar="-1" Cut="0.0000000000000000e+00" cType="1" res="1.9622470717877150e-03" rms="3.4927868843078613e-01" purity="8.5390692949295044e-01" nType="-99"/>
          <Node pos="r" depth="2" NCoef="0" IVar="-1" Cut="0.0000000000000000e+00" cType="1" res="6.5510004060342908e-04" rms="4.6133485436439514e-01" purity="6.7079216241836548e-01" nType="-99"/>
        </Node>
      </Node>
    </BinaryTree>
    <BinaryTree type="DecisionTree" boostWeight="1.0000000000000000e+00" itree="310">
      <Node pos="s" depth="0" NCoef="0" IVar="3" Cut="8.1556724548339844e+01" cType="1" res="-7.2682588361203671e-03" rms="4.5496243238449097e-01" purity="4.8156741261482239e-01" nType="0">
        <Node pos="l" depth="1" NCoef="0" IVar="1" Cut="8.1725710630416870e-01" cType="1" res="-4.9552518874406815e-02" rms="4.5313608646392822e-01" purity="4.2942133545875549e-01" nType="0">
          <Node pos="l" depth="2" NCoef="0" IVar="-1" Cut="0.0000000000000000e+00" cType="1" res="6.1014670791337267e-06" rms="4.6721681952476501e-01" purity="5.2324420213699341e-01" nType="-99"/>
          <Node pos="r" depth="2" NCoef="0" IVar="-1" Cut="0.0000000000000000e+00" cType="1" res="-1.4274852583184838e-03" rms="4.3434229493141174e-01" purity="3.4156715869903564e-01" nType="-99"/>
        </Node>
        <Node pos="r" depth="1" NCoef="0" IVar="5" Cut="5.3694063425064087e-01" cType="1" res="5.1869388669729233e-02" rms="4.5090186595916748e-01" purity="5.5449759960174561e-01" nType="0">
          <Node pos="l" depth="2" NCoef="0" IVar="-1" Cut="0.0000000000000000e+00" cType="1" res="1.8135028658434749e-03" rms="4.1295817494392395e-01" purity="7.2853779792785645e-01" nType="-99"/>
          <Node pos="r" depth="2" NCoef="0" IVar="-1" Cut="0.0000000000000000e+00" cType="1" res="3.6020825064042583e-05" rms="4.5866861939430237e-01" purity="4.7584336996078491e-01" nType="-99"/>
        </Node>
      </Node>
    </BinaryTree>
    <BinaryTree type="DecisionTree" boostWeight="1.0000000000000000e+00" itree="311">
      <Node pos="s" depth="0" NCoef="0" IVar="0" Cut="7.7005014419555664e+00" cType="1" res="1.5154723078012466e-02" rms="4.6247702836990356e-01" purity="5.0375914573669434e-01" nType="0">
        <Node pos="l" depth="1" NCoef="0" IVar="6" Cut="7.0932983398437500e+02" cType="1" res="-1.0444259271025658e-02" rms="4.6710899472236633e-01" purity="4.3155580759048462e-01" nType="0">
          <Node pos="l" depth="2" NCoef="0" IVar="-1" Cut="0.0000000000000000e+00" cType="1" res="-3.4700499963946640e-04" rms="4.6441563963890076e-01" purity="4.0840974450111389e-01" nType="-99"/>
          <Node pos="r" depth="2" NCoef="0" IVar="-1" Cut="0.0000000000000000e+00" cType="1" res="1.4721385668963194e-03" rms="4.6817255020141602e-01" purity="6.2958508729934692e-01" nType="-99"/>
        </Node>
        <Node pos="r" depth="1" NCoef="0" IVar="7" Cut="-3.1966488808393478e-02" cType="1" res="9.1669298708438873e-02" rms="4.3954733014106750e-01" purity="7.1957296133041382e-01" nType="0">
          <Node pos="l" depth="2" NCoef="0" IVar="-1" Cut="0.0000000000000000e+00" cType="1" res="1.7284606583416462e-03" rms="3.7916669249534607e-01" purity="8.1947004795074463e-01" nType="-99"/>
          <Node pos="r" depth="2" NCoef="0" IVar="-1" Cut="0.0000000000000000e+00" cType="1" res="7.4158777715638280e-04" rms="4.6172031760215759e-01" purity="6.7363196611404419e-01" nType="-99"/>
        </Node>
      </Node>
    </BinaryTree>
    <BinaryTree type="DecisionTree" boostWeight="1.0000000000000000e+00" itree="312">
      <Node pos="s" depth="0" NCoef="0" IVar="2" Cut="4.7347921752929688e+02" cType="1" res="1.3594829477369785e-02" rms="4.5799058675765991e-01" purity="5.0366955995559692e-01" nType="0">
        <Node pos="l" depth="1" NCoef="0" IVar="3" Cut="1.0604201507568359e+02" cType="1" res="2.3960454389452934e-02" rms="4.5979133248329163e-01" purity="5.1979029178619385e-01" nType="0">
          <Node pos="l" depth="2" NCoef="0" IVar="-1" Cut="0.0000000000000000e+00" cType="1" res="1.2261622941878159e-05" rms="4.6057987213134766e-01" purity="4.8559883236885071e-01" nType="-99"/>
          <Node pos="r" depth="2" NCoef="0" IVar="-1" Cut="0.0000000000000000e+00" cType="1" res="1.3050863053649664e-03" rms="4.4629931449890137e-01" purity="6.4863169193267822e-01" nType="-99"/>
        </Node>
        <Node pos="r" depth="1" NCoef="0" IVar="-1" Cut="0.0000000000000000e+00" cType="1" res="-3.0516439583152533e-03" rms="3.7776684761047363e-01" purity="2.1191646158695221e-01" nType="-99"/>
      </Node>
    </BinaryTree>
    <BinaryTree type="DecisionTree" boostWeight="1.0000000000000000e+00" itree="313">
      <Node pos="s" depth="0" NCoef="0" IVar="0" Cut="7.0202188491821289e+00" cType="1" res="3.2044585794210434e-02" rms="4.5475938916206360e-01" purity="5.2230238914489746e-01" nType="0">
        <Node pos="l" depth="1" NCoef="0" IVar="1" Cut="1.6153726577758789e+00" cType="1" res="-1.3477008789777756e-02" rms="4.6669471263885498e-01" purity="3.8551527261734009e-01" nType="0">
          <Node pos="l" depth="2" NCoef="0" IVar="-1" Cut="0.0000000000000000e+00" cType="1" res="-1.2564526514324825e-05" rms="4.7900483012199402e-01" purity="4.1435286402702332e-01" nType="-99"/>
          <Node pos="r" depth="2" NCoef="0" IVar="-1" Cut="0.0000000000000000e+00" cType="1" res="-2.9662779998034239e-03" rms="2.9931029677391052e-01" purity="1.0750303417444229e-01" nType="-99"/>
        </Node>
        <Node pos="r" depth="1" NCoef="0" IVar="3" Cut="1.0237352752685547e+02" cType="1" res="9.7213715314865112e-02" rms="4.2877483367919922e-01" purity="7.1812808513641357e-01" nType="0">
          <Node pos="l" depth="2" NCoef="0" IVar="-1" Cut="0.0000000000000000e+00" cType="1" res="7.8290334204211831e-04" rms="4.4305256009101868e-01" purity="6.9029402732849121e-01" nType="-99"/>
          <Node pos="r" depth="2" NCoef="0" IVar="-1" Cut="0.0000000000000000e+00" cType="1" res="1.9338111160323024e-03" rms="3.8190406560897827e-01" purity="7.8565180301666260e-01" nType="-99"/>
        </Node>
      </Node>
    </BinaryTree>
    <BinaryTree type="DecisionTree" boostWeight="1.0000000000000000e+00" itree="314">
      <Node pos="s" depth="0" NCoef="0" IVar="6" Cut="3.4578555297851562e+02" cType="1" res="1.2200734578073025e-02" rms="4.5924347639083862e-01" purity="5.0544095039367676e-01" nType="0">
        <Node pos="l" depth="1" NCoef="0" IVar="6" Cut="3.2300448608398438e+02" cType="1" res="-1.0386508703231812e-01" rms="4.2447927594184875e-01" purity="3.1585952639579773e-01" nType="0">
          <Node pos="l" depth="2" NCoef="0" IVar="-1" Cut="0.0000000000000000e+00" cType="1" res="-2.9713066760450602e-03" rms="3.8151016831398010e-01" purity="2.1227706968784332e-01" nType="-99"/>
          <Node pos="r" depth="2" NCoef="0" IVar="-1" Cut="0.0000000000000000e+00" cType="1" res="-5.3816082072444260e-05" rms="4.4775837659835815e-01" purity="4.3265986442565918e-01" nType="-99"/>
        </Node>
        <Node pos="r" depth="1" NCoef="0" IVar="7" Cut="3.1772837042808533e-02" cType="1" res="3.2632529735565186e-02" rms="4.6208640933036804e-01" purity="5.3881418704986572e-01" nType="0">
          <Node pos="l" depth="2" NCoef="0" IVar="-1" Cut="0.0000000000000000e+00" cType="1" res="8.8798138312995434e-04" rms="4.5547202229499817e-01" purity="6.0611635446548462e-01" nType="-99"/>
          <Node pos="r" depth="2" NCoef="0" IVar="-1" Cut="0.0000000000000000e+00" cType="1" res="-4.0595975588075817e-04" rms="4.6486163139343262e-01" purity="4.3827024102210999e-01" nType="-99"/>
        </Node>
      </Node>
    </BinaryTree>
    <BinaryTree type="DecisionTree" boostWeight="1.0000000000000000e+00" itree="315">
      <Node pos="s" depth="0" NCoef="0" IVar="0" Cut="7.9217143058776855e+00" cType="1" res="1.0491455905139446e-02" rms="4.5692846179008484e-01" purity="5.0138849020004272e-01" nType="0">
        <Node pos="l" depth="1" NCoef="0" IVar="6" Cut="3.3738400268554688e+02" cType="1" res="-1.6079721972346306e-02" rms="4.6297058463096619e-01" purity="4.3092599511146545e-01" nType="0">
          <Node pos="l" depth="2" NCoef="0" IVar="-1" Cut="0.0000000000000000e+00" cType="1" res="-2.0692620892077684e-03" rms="4.1525608301162720e-01" purity="2.3561784625053406e-01" nType="-99"/>
          <Node pos="r" depth="2" NCoef="0" IVar="-1" Cut="0.0000000000000000e+00" cType="1" res="6.3572573708370328e-05" rms="4.6740716695785522e-01" purity="4.6427610516548157e-01" nType="-99"/>
        </Node>
        <Node pos="r" depth="1" NCoef="0" IVar="3" Cut="8.6479705810546875e+01" cType="1" res="1.0217542201280594e-01" rms="4.2280384898185730e-01" purity="7.4451971054077148e-01" nType="0">
          <Node pos="l" depth="2" NCoef="0" IVar="-1" Cut="0.0000000000000000e+00" cType="1" res="7.0166989462450147e-04" rms="4.4562721252441406e-01" purity="7.1088325977325439e-01" nType="-99"/>
          <Node pos="r" depth="2" NCoef="0" IVar="-1" Cut="0.0000000000000000e+00" cType="1" res="1.7781457863748074e-03" rms="3.8004273176193237e-01" purity="7.9223269224166870e-01" nType="-99"/>
        </Node>
      </Node>
    </BinaryTree>
    <BinaryTree type="DecisionTree" boostWeight="1.0000000000000000e+00" itree="316">
      <Node pos="s" depth="0" NCoef="0" IVar="0" Cut="5.0661139488220215e+00" cType="1" res="4.4532404281198978e-03" rms="4.6567210555076599e-01" purity="4.9300554394721985e-01" nType="0">
        <Node pos="l" depth="1" NCoef="0" IVar="-1" Cut="0.0000000000000000e+00" cType="1" res="-2.2238725796341896e-03" rms="3.7246581912040710e-01" purity="1.7373351752758026e-01" nType="-99"/>
        <Node pos="r" depth="1" NCoef="0" IVar="4" Cut="-7.1605853736400604e-02" cType="1" res="1.8680425360798836e-02" rms="4.7247603535652161e-01" purity="5.2756309509277344e-01" nType="0">
          <Node pos="l" depth="2" NCoef="0" IVar="-1" Cut="0.0000000000000000e+00" cType="1" res="-5.5188988335430622e-04" rms="4.6518453955650330e-01" purity="4.3389859795570374e-01" nType="-99"/>
          <Node pos="r" depth="2" NCoef="0" IVar="-1" Cut="0.0000000000000000e+00" cType="1" res="4.9842416774481535e-04" rms="4.7328138351440430e-01" purity="5.6309300661087036e-01" nType="-99"/>
        </Node>
      </Node>
    </BinaryTree>
    <BinaryTree type="DecisionTree" boostWeight="1.0000000000000000e+00" itree="317">
      <Node pos="s" depth="0" NCoef="0" IVar="0" Cut="8.7834196090698242e+00" cType="1" res="-6.2615042552351952e-03" rms="4.6117314696311951e-01" purity="4.8456987738609314e-01" nType="0">
        <Node pos="l" depth="1" NCoef="0" IVar="5" Cut="9.0176552534103394e-01" cType="1" res="-2.1781321614980698e-02" rms="4.6494540572166443e-01" purity="4.5354276895523071e-01" nType="0">
          <Node pos="l" depth="2" NCoef="0" IVar="-1" Cut="0.0000000000000000e+00" cType="1" res="1.0041576388175599e-05" rms="4.7135990858078003e-01" purity="4.9277809262275696e-01" nType="-99"/>
          <Node pos="r" depth="2" NCoef="0" IVar="-1" Cut="0.0000000000000000e+00" cType="1" res="-1.4777552569285035e-03" rms="4.3275794386863708e-01" purity="3.1685167551040649e-01" nType="-99"/>
        </Node>
        <Node pos="r" depth="1" NCoef="0" IVar="-1" Cut="0.0000000000000000e+00" cType="1" res="1.7623117892071605e-03" rms="3.8012275099754333e-01" purity="8.1883329153060913e-01" nType="-99"/>
      </Node>
    </BinaryTree>
    <BinaryTree type="DecisionTree" boostWeight="1.0000000000000000e+00" itree="318">
      <Node pos="s" depth="0" NCoef="0" IVar="3" Cut="4.1482494354248047e+01" cType="1" res="2.2354772314429283e-02" rms="4.5849731564521790e-01" purity="5.1184153556823730e-01" nType="0">
        <Node pos="l" depth="1" NCoef="0" IVar="3" Cut="3.5797740936279297e+01" cType="1" res="-1.1423546075820923e-01" rms="4.4452464580535889e-01" purity="3.5834828019142151e-01" nType="0">
          <Node pos="l" depth="2" NCoef="0" IVar="-1" Cut="0.0000000000000000e+00" cType="1" res="-2.3896165657788515e-03" rms="4.2013585567474365e-01" purity="3.1670111417770386e-01" nType="-99"/>
          <Node pos="r" depth="2" NCoef="0" IVar="-1" Cut="0.0000000000000000e+00" cType="1" res="-7.3599198367446661e-04" rms="4.6608623862266541e-01" purity="4.0965196490287781e-01" nType="-99"/>
        </Node>
        <Node pos="r" depth="1" NCoef="0" IVar="1" Cut="7.8157699108123779e-01" cType="1" res="4.0194436907768250e-02" rms="4.5728847384452820e-01" purity="5.3188878297805786e-01" nType="0">
          <Node pos="l" depth="2" NCoef="0" IVar="-1" Cut="0.0000000000000000e+00" cType="1" res="1.1090142652392387e-03" rms="4.4624355435371399e-01" purity="6.5980142354965210e-01" nType="-99"/>
          <Node pos="r" depth="2" NCoef="0" IVar="-1" Cut="0.0000000000000000e+00" cType="1" res="6.8010340328328311e-05" rms="4.6028128266334534e-01" purity="4.5477980375289917e-01" nType="-99"/>
        </Node>
      </Node>
    </BinaryTree>
    <BinaryTree type="DecisionTree" boostWeight="1.0000000000000000e+00" itree="319">
      <Node pos="s" depth="0" NCoef="0" IVar="0" Cut="7.2858877182006836e+00" cType="1" res="1.5973666450008750e-04" rms="4.5605635643005371e-01" purity="4.9007588624954224e-01" nType="0">
        <Node pos="l" depth="1" NCoef="0" IVar="6" Cut="3.3407769775390625e+02" cType="1" res="-3.2615847885608673e-02" rms="4.6029728651046753e-01" purity="3.8532066345214844e-01" nType="0">
          <Node pos="l" depth="2" NCoef="0" IVar="-1" Cut="0.0000000000000000e+00" cType="1" res="-2.6467775460332632e-03" rms="3.8336539268493652e-01" purity="1.8656642735004425e-01" nType="-99"/>
          <Node pos="r" depth="2" NCoef="0" IVar="-1" Cut="0.0000000000000000e+00" cType="1" res="-1.3126686098985374e-04" rms="4.6806693077087402e-01" purity="4.1827422380447388e-01" nType="-99"/>
        </Node>
        <Node pos="r" depth="1" NCoef="0" IVar="7" Cut="-3.2395560294389725e-02" cType="1" res="6.4041256904602051e-02" rms="4.4072476029396057e-01" purity="6.9424998760223389e-01" nType="0">
          <Node pos="l" depth="2" NCoef="0" IVar="-1" Cut="0.0000000000000000e+00" cType="1" res="1.6302389558404684e-03" rms="3.7400975823402405e-01" purity="8.1120985746383667e-01" nType="-99"/>
          <Node pos="r" depth="2" NCoef="0" IVar="-1" Cut="0.0000000000000000e+00" cType="1" res="2.7975402190349996e-04" rms="4.6563237905502319e-01" purity="6.3504779338836670e-01" nType="-99"/>
        </Node>
      </Node>
    </BinaryTree>
    <BinaryTree type="DecisionTree" boostWeight="1.0000000000000000e+00" itree="320">
      <Node pos="s" depth="0" NCoef="0" IVar="0" Cut="7.2885541915893555e+00" cType="1" res="1.1711256578564644e-02" rms="4.5845863223075867e-01" purity="5.0404548645019531e-01" nType="0">
        <Node pos="l" depth="1" NCoef="0" IVar="3" Cut="4.6832096099853516e+01" cType="1" res="-2.5986872613430023e-02" rms="4.6515932679176331e-01" purity="3.9275884628295898e-01" nType="0">
          <Node pos="l" depth="2" NCoef="0" IVar="-1" Cut="0.0000000000000000e+00" cType="1" res="-2.1747120190411806e-03" rms="4.1593024134635925e-01" purity="2.5258070230484009e-01" nType="-99"/>
          <Node pos="r" depth="2" NCoef="0" IVar="-1" Cut="0.0000000000000000e+00" cType="1" res="-1.7604730601306073e-05" rms="4.7108080983161926e-01" purity="4.2202049493789673e-01" nType="-99"/>
        </Node>
        <Node pos="r" depth="1" NCoef="0" IVar="4" Cut="-3.6391802132129669e-02" cType="1" res="8.2438893616199493e-02" rms="4.3692591786384583e-01" purity="7.1283692121505737e-01" nType="0">
          <Node pos="l" depth="2" NCoef="0" IVar="-1" Cut="0.0000000000000000e+00" cType="1" res="2.3139171389630064e-05" rms="4.6608760952949524e-01" purity="6.0604929924011230e-01" nType="-99"/>
          <Node pos="r" depth="2" NCoef="0" IVar="-1" Cut="0.0000000000000000e+00" cType="1" res="1.4861621893942356e-03" rms="4.0869623422622681e-01" purity="7.8170818090438843e-01" nType="-99"/>
        </Node>
      </Node>
    </BinaryTree>
    <BinaryTree type="DecisionTree" boostWeight="1.0000000000000000e+00" itree="321">
      <Node pos="s" depth="0" NCoef="0" IVar="1" Cut="1.0438799858093262e+00" cType="1" res="1.8924273317679763e-03" rms="4.5709493756294250e-01" purity="4.9330258369445801e-01" nType="0">
        <Node pos="l" depth="1" NCoef="0" IVar="2" Cut="2.0257104492187500e+02" cType="1" res="4.4141996651887894e-02" rms="4.5888105034828186e-01" purity="5.8936202526092529e-01" nType="0">
          <Node pos="l" depth="2" NCoef="0" IVar="-1" Cut="0.0000000000000000e+00" cType="1" res="-1.7137956456281245e-04" rms="4.6788072586059570e-01" purity="4.9712976813316345e-01" nType="-99"/>
          <Node pos="r" depth="2" NCoef="0" IVar="-1" Cut="0.0000000000000000e+00" cType="1" res="1.3621031539514661e-03" rms="4.3528154492378235e-01" purity="7.0944219827651978e-01" nType="-99"/>
        </Node>
        <Node pos="r" depth="1" NCoef="0" IVar="7" Cut="-4.2904060333967209e-02" cType="1" res="-7.4140988290309906e-02" rms="4.4384464621543884e-01" purity="3.2043150067329407e-01" nType="0">
          <Node pos="l" depth="2" NCoef="0" IVar="-1" Cut="0.0000000000000000e+00" cType="1" res="-2.1383499260991812e-03" rms="4.0767323970794678e-01" purity="3.1510201096534729e-01" nType="-99"/>
          <Node pos="r" depth="2" NCoef="0" IVar="-1" Cut="0.0000000000000000e+00" cType="1" res="-9.1334810713306069e-04" rms="4.4929119944572449e-01" purity="3.2150092720985413e-01" nType="-99"/>
        </Node>
      </Node>
    </BinaryTree>
    <BinaryTree type="DecisionTree" boostWeight="1.0000000000000000e+00" itree="322">
      <Node pos="s" depth="0" NCoef="0" IVar="1" Cut="1.0331401824951172e+00" cType="1" res="5.5742301046848297e-03" rms="4.5290723443031311e-01" purity="4.9614256620407104e-01" nType="0">
        <Node pos="l" depth="1" NCoef="0" IVar="2" Cut="2.0257104492187500e+02" cType="1" res="4.8472777009010315e-02" rms="4.5711499452590942e-01" purity="5.9557127952575684e-01" nType="0">
          <Node pos="l" depth="2" NCoef="0" IVar="-1" Cut="0.0000000000000000e+00" cType="1" res="-1.2128908565500751e-04" rms="4.6529361605644226e-01" purity="5.0364243984222412e-01" nType="-99"/>
          <Node pos="r" depth="2" NCoef="0" IVar="-1" Cut="0.0000000000000000e+00" cType="1" res="1.3835901627317071e-03" rms="4.3540680408477783e-01" purity="7.1153372526168823e-01" nType="-99"/>
        </Node>
        <Node pos="r" depth="1" NCoef="0" IVar="5" Cut="1.0335310697555542e+00" cType="1" res="-6.1953645199537277e-02" rms="4.3776762485504150e-01" purity="3.3962887525558472e-01" nType="0">
          <Node pos="l" depth="2" NCoef="0" IVar="-1" Cut="0.0000000000000000e+00" cType="1" res="-4.7446036478504539e-04" rms="4.5565775036811829e-01" purity="3.7406295537948608e-01" nType="-99"/>
          <Node pos="r" depth="2" NCoef="0" IVar="-1" Cut="0.0000000000000000e+00" cType="1" res="-2.5473639834672213e-03" rms="3.6169776320457458e-01" purity="2.3219285905361176e-01" nType="-99"/>
        </Node>
      </Node>
    </BinaryTree>
    <BinaryTree type="DecisionTree" boostWeight="1.0000000000000000e+00" itree="323">
      <Node pos="s" depth="0" NCoef="0" IVar="0" Cut="8.5072584152221680e+00" cType="1" res="7.5488595757633448e-04" rms="4.5784941315650940e-01" purity="4.9077844619750977e-01" nType="0">
        <Node pos="l" depth="1" NCoef="0" IVar="4" Cut="6.0700666159391403e-02" cType="1" res="-1.7390638589859009e-02" rms="4.6385768055915833e-01" purity="4.4953724741935730e-01" nType="0">
          <Node pos="l" depth="2" NCoef="0" IVar="-1" Cut="0.0000000000000000e+00" cType="1" res="-6.7128340015187860e-04" rms="4.5903056859970093e-01" purity="4.0097224712371826e-01" nType="-99"/>
          <Node pos="r" depth="2" NCoef="0" IVar="-1" Cut="0.0000000000000000e+00" cType="1" res="4.9159198533743620e-04" rms="4.6662095189094543e-01" purity="5.3505700826644897e-01" nType="-99"/>
        </Node>
        <Node pos="r" depth="1" NCoef="0" IVar="5" Cut="6.3085001707077026e-01" cType="1" res="1.2942446768283844e-01" rms="3.8918700814247131e-01" purity="7.8321927785873413e-01" nType="0">
          <Node pos="l" depth="2" NCoef="0" IVar="-1" Cut="0.0000000000000000e+00" cType="1" res="1.9882172346115112e-03" rms="3.3129042387008667e-01" purity="8.6800175905227661e-01" nType="-99"/>
          <Node pos="r" depth="2" NCoef="0" IVar="-1" Cut="0.0000000000000000e+00" cType="1" res="6.8644463317468762e-04" rms="4.4182071089744568e-01" purity="6.7470288276672363e-01" nType="-99"/>
        </Node>
      </Node>
    </BinaryTree>
    <BinaryTree type="DecisionTree" boostWeight="1.0000000000000000e+00" itree="324">
      <Node pos="s" depth="0" NCoef="0" IVar="0" Cut="7.5320725440979004e+00" cType="1" res="1.7695393413305283e-02" rms="4.5737329125404358e-01" purity="5.0916254520416260e-01" nType="0">
        <Node pos="l" depth="1" NCoef="0" IVar="1" Cut="1.3702753782272339e+00" cType="1" res="-1.1213531717658043e-02" rms="4.6413028240203857e-01" purity="4.2033454775810242e-01" nType="0">
          <Node pos="l" depth="2" NCoef="0" IVar="-1" Cut="0.0000000000000000e+00" cType="1" res="1.1339461343595758e-04" rms="4.7993710637092590e-01" purity="4.7336667776107788e-01" nType="-99"/>
          <Node pos="r" depth="2" NCoef="0" IVar="-1" Cut="0.0000000000000000e+00" cType="1" res="-2.1244173403829336e-03" rms="3.6561721563339233e-01" purity="1.7039306461811066e-01" nType="-99"/>
        </Node>
        <Node pos="r" depth="1" NCoef="0" IVar="3" Cut="8.9308029174804688e+01" cType="1" res="8.6094237864017487e-02" rms="4.3336170911788940e-01" purity="7.1933048963546753e-01" nType="0">
          <Node pos="l" depth="2" NCoef="0" IVar="-1" Cut="0.0000000000000000e+00" cType="1" res="4.0902901673689485e-04" rms="4.6056076884269714e-01" purity="6.6450619697570801e-01" nType="-99"/>
          <Node pos="r" depth="2" NCoef="0" IVar="-1" Cut="0.0000000000000000e+00" cType="1" res="1.6517046606168151e-03" rms="3.8505682349205017e-01" purity="7.9034709930419922e-01" nType="-99"/>
        </Node>
      </Node>
    </BinaryTree>
    <BinaryTree type="DecisionTree" boostWeight="1.0000000000000000e+00" itree="325">
      <Node pos="s" depth="0" NCoef="0" IVar="6" Cut="3.2567614746093750e+02" cType="1" res="8.8623650372028351e-03" rms="4.5664769411087036e-01" purity="5.0025761127471924e-01" nType="0">
        <Node pos="l" depth="1" NCoef="0" IVar="-1" Cut="0.0000000000000000e+00" cType="1" res="-2.1583770867437124e-03" rms="4.0918138623237610e-01" purity="2.4458737671375275e-01" nType="-99"/>
        <Node pos="r" depth="1" NCoef="0" IVar="1" Cut="1.5142183303833008e+00" cType="1" res="2.2708972916007042e-02" rms="4.5828363299369812e-01" purity="5.2374523878097534e-01" nType="0">
          <Node pos="l" depth="2" NCoef="0" IVar="-1" Cut="0.0000000000000000e+00" cType="1" res="4.4497297494672239e-04" rms="4.6395608782768250e-01" purity="5.6259173154830933e-01" nType="-99"/>
          <Node pos="r" depth="2" NCoef="0" IVar="-1" Cut="0.0000000000000000e+00" cType="1" res="-1.7386204563081264e-03" rms="3.9195129275321960e-01" purity="2.1259835362434387e-01" nType="-99"/>
        </Node>
      </Node>
    </BinaryTree>
    <BinaryTree type="DecisionTree" boostWeight="1.0000000000000000e+00" itree="326">
      <Node pos="s" depth="0" NCoef="0" IVar="1" Cut="1.0570029020309448e+00" cType="1" res="1.0714717209339142e-02" rms="4.5587083697319031e-01" purity="4.9882081151008606e-01" nType="0">
        <Node pos="l" depth="1" NCoef="0" IVar="2" Cut="1.4489006042480469e+02" cType="1" res="5.8121018111705780e-02" rms="4.5880928635597229e-01" purity="6.0829085111618042e-01" nType="0">
          <Node pos="l" depth="2" NCoef="0" IVar="-1" Cut="0.0000000000000000e+00" cType="1" res="-1.9141930388286710e-03" rms="4.5605462789535522e-01" purity="3.3471998572349548e-01" nType="-99"/>
          <Node pos="r" depth="2" NCoef="0" IVar="-1" Cut="0.0000000000000000e+00" cType="1" res="1.0627650190144777e-03" rms="4.5034441351890564e-01" purity="6.5629661083221436e-01" nType="-99"/>
        </Node>
        <Node pos="r" depth="1" NCoef="0" IVar="7" Cut="-7.8617194667458534e-03" cType="1" res="-7.2282448410987854e-02" rms="4.3850830197334290e-01" purity="3.0716466903686523e-01" nType="0">
          <Node pos="l" depth="2" NCoef="0" IVar="-1" Cut="0.0000000000000000e+00" cType="1" res="-2.5454303249716759e-03" rms="4.1430875658988953e-01" purity="2.5906711816787720e-01" nType="-99"/>
          <Node pos="r" depth="2" NCoef="0" IVar="-1" Cut="0.0000000000000000e+00" cType="1" res="-4.4621794950217009e-04" rms="4.4277161359786987e-01" purity="3.2982030510902405e-01" nType="-99"/>
        </Node>
      </Node>
    </BinaryTree>
    <BinaryTree type="DecisionTree" boostWeight="1.0000000000000000e+00" itree="327">
      <Node pos="s" depth="0" NCoef="0" IVar="1" Cut="9.2714077234268188e-01" cType="1" res="1.7119772732257843e-02" rms="4.5570820569992065e-01" purity="5.0286513566970825e-01" nType="0">
        <Node pos="l" depth="1" NCoef="0" IVar="2" Cut="1.8371026611328125e+02" cType="1" res="6.8906672298908234e-02" rms="4.5356282591819763e-01" purity="6.1905169486999512e-01" nType="0">
          <Node pos="l" depth="2" NCoef="0" IVar="-1" Cut="0.0000000000000000e+00" cType="1" res="-2.0588026382029057e-04" rms="4.6676462888717651e-01" purity="4.8690688610076904e-01" nType="-99"/>
          <Node pos="r" depth="2" NCoef="0" IVar="-1" Cut="0.0000000000000000e+00" cType="1" res="1.5525073977187276e-03" rms="4.2988139390945435e-01" purity="7.2692120075225830e-01" nType="-99"/>
        </Node>
        <Node pos="r" depth="1" NCoef="0" IVar="3" Cut="9.8421104431152344e+01" cType="1" res="-3.8571182638406754e-02" rms="4.5142248272895813e-01" purity="3.7791973352432251e-01" nType="0">
          <Node pos="l" depth="2" NCoef="0" IVar="-1" Cut="0.0000000000000000e+00" cType="1" res="-1.1394415050745010e-03" rms="4.4275343418121338e-01" purity="3.2731640338897705e-01" nType="-99"/>
          <Node pos="r" depth="2" NCoef="0" IVar="-1" Cut="0.0000000000000000e+00" cType="1" res="3.8865796523168683e-04" rms="4.5881855487823486e-01" purity="4.6900239586830139e-01" nType="-99"/>
        </Node>
      </Node>
    </BinaryTree>
    <BinaryTree type="DecisionTree" boostWeight="1.0000000000000000e+00" itree="328">
      <Node pos="s" depth="0" NCoef="0" IVar="0" Cut="5.9562425613403320e+00" cType="1" res="-1.9045367662329227e-04" rms="4.5411255955696106e-01" purity="4.8985093832015991e-01" nType="0">
        <Node pos="l" depth="1" NCoef="0" IVar="3" Cut="1.0882239532470703e+02" cType="1" res="-7.6360702514648438e-02" rms="4.2313539981842041e-01" purity="2.6535847783088684e-01" nType="0">
          <Node pos="l" depth="2" NCoef="0" IVar="-1" Cut="0.0000000000000000e+00" cType="1" res="-1.5309089794754982e-03" rms="4.0958583354949951e-01" purity="2.3499932885169983e-01" nType="-99"/>
          <Node pos="r" depth="2" NCoef="0" IVar="-1" Cut="0.0000000000000000e+00" cType="1" res="4.6459597069770098e-04" rms="4.6381357312202454e-01" purity="4.0168792009353638e-01" nType="-99"/>
        </Node>
        <Node pos="r" depth="1" NCoef="0" IVar="7" Cut="-4.5370876789093018e-02" cType="1" res="3.2190479338169098e-02" rms="4.6287742257118225e-01" purity="5.8528548479080200e-01" nType="0">
          <Node pos="l" depth="2" NCoef="0" IVar="-1" Cut="0.0000000000000000e+00" cType="1" res="1.3038765173405409e-03" rms="4.2207372188568115e-01" purity="7.1519505977630615e-01" nType="-99"/>
          <Node pos="r" depth="2" NCoef="0" IVar="-1" Cut="0.0000000000000000e+00" cType="1" res="9.0600085968617350e-05" rms="4.7141012549400330e-01" purity="5.4684895277023315e-01" nType="-99"/>
        </Node>
      </Node>
    </BinaryTree>
    <BinaryTree type="DecisionTree" boostWeight="1.0000000000000000e+00" itree="329">
      <Node pos="s" depth="0" NCoef="0" IVar="1" Cut="1.7502545118331909e+00" cType="1" res="2.1828827448189259e-03" rms="4.5923310518264771e-01" purity="4.9136474728584290e-01" nType="0">
        <Node pos="l" depth="1" NCoef="0" IVar="2" Cut="2.0362554931640625e+02" cType="1" res="1.3828585855662823e-02" rms="4.6589577198028564e-01" purity="5.1558333635330200e-01" nType="0">
          <Node pos="l" depth="2" NCoef="0" IVar="-1" Cut="0.0000000000000000e+00" cType="1" res="-4.3989252299070358e-04" rms="4.7102680802345276e-01" purity="4.5237395167350769e-01" nType="-99"/>
          <Node pos="r" depth="2" NCoef="0" IVar="-1" Cut="0.0000000000000000e+00" cType="1" res="7.5056054629385471e-04" rms="4.5611932873725891e-01" purity="5.7565647363662720e-01" nType="-99"/>
        </Node>
        <Node pos="r" depth="1" NCoef="0" IVar="-1" Cut="0.0000000000000000e+00" cType="1" res="-4.7487919218838215e-03" rms="2.4285145103931427e-01" purity="6.7225210368633270e-02" nType="-99"/>
      </Node>
    </BinaryTree>
    <BinaryTree type="DecisionTree" boostWeight="1.0000000000000000e+00" itree="330">
      <Node pos="s" depth="0" NCoef="0" IVar="3" Cut="1.0660724639892578e+02" cType="1" res="-1.3907878019381315e-04" rms="4.5715194940567017e-01" purity="4.8786762356758118e-01" nType="0">
        <Node pos="l" depth="1" NCoef="0" IVar="2" Cut="1.3313571166992188e+02" cType="1" res="-3.1633213162422180e-02" rms="4.5726105570793152e-01" purity="4.4538003206253052e-01" nType="0">
          <Node pos="l" depth="2" NCoef="0" IVar="-1" Cut="0.0000000000000000e+00" cType="1" res="-2.8501877095550299e-03" rms="4.2500516772270203e-01" purity="2.6731768250465393e-01" nType="-99"/>
          <Node pos="r" depth="2" NCoef="0" IVar="-1" Cut="0.0000000000000000e+00" cType="1" res="-1.5255589096341282e-04" rms="4.5707768201828003e-01" purity="4.6708714962005615e-01" nType="-99"/>
        </Node>
        <Node pos="r" depth="1" NCoef="0" IVar="1" Cut="1.2408645153045654e+00" cType="1" res="1.0624018311500549e-01" rms="4.4043624401092529e-01" purity="6.3138002157211304e-01" nType="0">
          <Node pos="l" depth="2" NCoef="0" IVar="-1" Cut="0.0000000000000000e+00" cType="1" res="1.6858390299603343e-03" rms="4.2560312151908875e-01" purity="7.3864567279815674e-01" nType="-99"/>
          <Node pos="r" depth="2" NCoef="0" IVar="-1" Cut="0.0000000000000000e+00" cType="1" res="-1.0459648183314130e-04" rms="4.5852741599082947e-01" purity="3.4777742624282837e-01" nType="-99"/>
        </Node>
      </Node>
    </BinaryTree>
    <BinaryTree type="DecisionTree" boostWeight="1.0000000000000000e+00" itree="331">
      <Node pos="s" depth="0" NCoef="0" IVar="2" Cut="2.0729290771484375e+02" cType="1" res="1.7438255250453949e-02" rms="4.5694100856781006e-01" purity="5.0813555717468262e-01" nType="0">
        <Node pos="l" depth="1" NCoef="0" IVar="0" Cut="7.4975819587707520e+00" cType="1" res="-2.9321171343326569e-02" rms="4.6571534872055054e-01" purity="4.5710837841033936e-01" nType="0">
          <Node pos="l" depth="2" NCoef="0" IVar="-1" Cut="0.0000000000000000e+00" cType="1" res="-9.0307096252217889e-04" rms="4.6892511844635010e-01" purity="3.5677686333656311e-01" nType="-99"/>
          <Node pos="r" depth="2" NCoef="0" IVar="-1" Cut="0.0000000000000000e+00" cType="1" res="8.0399354919791222e-04" rms="4.4215708971023560e-01" purity="7.0777958631515503e-01" nType="-99"/>
        </Node>
        <Node pos="r" depth="1" NCoef="0" IVar="1" Cut="1.0702981948852539e+00" cType="1" res="5.9777263551950455e-02" rms="4.4462612271308899e-01" purity="5.5433893203735352e-01" nType="0">
          <Node pos="l" depth="2" NCoef="0" IVar="-1" Cut="0.0000000000000000e+00" cType="1" res="1.5522957546636462e-03" rms="4.2468228936195374e-01" purity="7.3255020380020142e-01" nType="-99"/>
          <Node pos="r" depth="2" NCoef="0" IVar="-1" Cut="0.0000000000000000e+00" cType="1" res="-3.8902249070815742e-04" rms="4.4957566261291504e-01" purity="3.6290857195854187e-01" nType="-99"/>
        </Node>
      </Node>
    </BinaryTree>
    <BinaryTree type="DecisionTree" boostWeight="1.0000000000000000e+00" itree="332">
      <Node pos="s" depth="0" NCoef="0" IVar="3" Cut="1.0663140106201172e+02" cType="1" res="7.5943986885249615e-03" rms="4.5352432131767273e-01" purity="4.9863517284393311e-01" nType="0">
        <Node pos="l" depth="1" NCoef="0" IVar="0" Cut="6.5114579200744629e+00" cType="1" res="-2.1560927852988243e-02" rms="4.5606213808059692e-01" purity="4.6007141470909119e-01" nType="0">
          <Node pos="l" depth="2" NCoef="0" IVar="-1" Cut="0.0000000000000000e+00" cType="1" res="-9.8520785104483366e-04" rms="4.4319871068000793e-01" purity="3.0043193697929382e-01" nType="-99"/>
          <Node pos="r" depth="2" NCoef="0" IVar="-1" Cut="0.0000000000000000e+00" cType="1" res="3.1622650567442179e-04" rms="4.6349826455116272e-01" purity="6.1818516254425049e-01" nType="-99"/>
        </Node>
        <Node pos="r" depth="1" NCoef="0" IVar="1" Cut="9.8568421602249146e-01" cType="1" res="9.8271019756793976e-02" rms="4.3317323923110962e-01" purity="6.1857318878173828e-01" nType="0">
          <Node pos="l" depth="2" NCoef="0" IVar="-1" Cut="0.0000000000000000e+00" cType="1" res="1.9293356453999877e-03" rms="3.9526936411857605e-01" purity="7.8546220064163208e-01" nType="-99"/>
          <Node pos="r" depth="2" NCoef="0" IVar="-1" Cut="0.0000000000000000e+00" cType="1" res="3.9273424772545695e-04" rms="4.5425117015838623e-01" purity="4.6651816368103027e-01" nType="-99"/>
        </Node>
      </Node>
    </BinaryTree>
    <BinaryTree type="DecisionTree" boostWeight="1.0000000000000000e+00" itree="333">
      <Node pos="s" depth="0" NCoef="0" IVar="1" Cut="1.6078547239303589e+00" cType="1" res="4.3479548767209053e-03" rms="4.5546075701713562e-01" purity="4.9614453315734863e-01" nType="0">
        <Node pos="l" depth="1" NCoef="0" IVar="0" Cut="5.0419545173645020e+00" cType="1" res="2.0159782841801643e-02" rms="4.6356511116027832e-01" purity="5.3095275163650513e-01" nType="0">
          <Node pos="l" depth="2" NCoef="0" IVar="-1" Cut="0.0000000000000000e+00" cType="1" res="-1.9433159613981843e-03" rms="3.8811123371124268e-01" purity="1.9498738646507263e-01" nType="-99"/>
          <Node pos="r" depth="2" NCoef="0" IVar="-1" Cut="0.0000000000000000e+00" cType="1" res="4.0615152101963758e-04" rms="4.6838998794555664e-01" purity="5.6521791219711304e-01" nType="-99"/>
        </Node>
        <Node pos="r" depth="1" NCoef="0" IVar="-1" Cut="0.0000000000000000e+00" cType="1" res="-3.5184624139219522e-03" rms="3.0647704005241394e-01" purity="1.1699275672435760e-01" nType="-99"/>
      </Node>
    </BinaryTree>
    <BinaryTree type="DecisionTree" boostWeight="1.0000000000000000e+00" itree="334">
      <Node pos="s" depth="0" NCoef="0" IVar="1" Cut="1.3176921606063843e+00" cType="1" res="2.0377019420266151e-02" rms="4.5306387543678284e-01" purity="5.1117259263992310e-01" nType="0">
        <Node pos="l" depth="1" NCoef="0" IVar="0" Cut="8.0000362396240234e+00" cType="1" res="4.8902072012424469e-02" rms="4.6121591329574585e-01" purity="5.7936012744903564e-01" nType="0">
          <Node pos="l" depth="2" NCoef="0" IVar="-1" Cut="0.0000000000000000e+00" cType="1" res="2.6362779317423701e-04" rms="4.7821590304374695e-01" purity="5.1227337121963501e-01" nType="-99"/>
          <Node pos="r" depth="2" NCoef="0" IVar="-1" Cut="0.0000000000000000e+00" cType="1" res="1.6751550137996674e-03" rms="3.7617343664169312e-01" purity="8.2680034637451172e-01" nType="-99"/>
        </Node>
        <Node pos="r" depth="1" NCoef="0" IVar="4" Cut="-2.9532305896282196e-02" cType="1" res="-1.0276373475790024e-01" rms="3.9295727014541626e-01" purity="2.1681138873100281e-01" nType="0">
          <Node pos="l" depth="2" NCoef="0" IVar="-1" Cut="0.0000000000000000e+00" cType="1" res="-2.8004988562315702e-03" rms="3.7007495760917664e-01" purity="1.7128589749336243e-01" nType="-99"/>
          <Node pos="r" depth="2" NCoef="0" IVar="-1" Cut="0.0000000000000000e+00" cType="1" res="-5.7083764113485813e-04" rms="4.1884875297546387e-01" purity="2.9057729244232178e-01" nType="-99"/>
        </Node>
      </Node>
    </BinaryTree>
    <BinaryTree type="DecisionTree" boostWeight="1.0000000000000000e+00" itree="335">
      <Node pos="s" depth="0" NCoef="0" IVar="0" Cut="7.5577001571655273e+00" cType="1" res="1.9757095724344254e-02" rms="4.5125705003738403e-01" purity="5.1560539007186890e-01" nType="0">
        <Node pos="l" depth="1" NCoef="0" IVar="1" Cut="7.9392784833908081e-01" cType="1" res="-1.2858020141720772e-02" rms="4.6134090423583984e-01" purity="4.2174360156059265e-01" nType="0">
          <Node pos="l" depth="2" NCoef="0" IVar="-1" Cut="0.0000000000000000e+00" cType="1" res="6.0826831031590700e-04" rms="4.6805456280708313e-01" purity="5.5164659023284912e-01" nType="-99"/>
          <Node pos="r" depth="2" NCoef="0" IVar="-1" Cut="0.0000000000000000e+00" cType="1" res="-7.6934701064601541e-04" rms="4.5245662331581116e-01" purity="3.4166556596755981e-01" nType="-99"/>
        </Node>
        <Node pos="r" depth="1" NCoef="0" IVar="7" Cut="5.7301791384816170e-03" cType="1" res="9.7586773335933685e-02" rms="4.1602525115013123e-01" purity="7.3958826065063477e-01" nType="0">
          <Node pos="l" depth="2" NCoef="0" IVar="-1" Cut="0.0000000000000000e+00" cType="1" res="1.6047850949689746e-03" rms="3.7565153837203979e-01" purity="8.0216014385223389e-01" nType="-99"/>
          <Node pos="r" depth="2" NCoef="0" IVar="-1" Cut="0.0000000000000000e+00" cType="1" res="5.3501361981034279e-04" rms="4.5350065827369690e-01" purity="6.6595870256423950e-01" nType="-99"/>
        </Node>
      </Node>
    </BinaryTree>
    <BinaryTree type="DecisionTree" boostWeight="1.0000000000000000e+00" itree="336">
      <Node pos="s" depth="0" NCoef="0" IVar="4" Cut="6.6100396215915680e-02" cType="1" res="3.0644938349723816e-02" rms="4.5605948567390442e-01" purity="5.1881927251815796e-01" nType="0">
        <Node pos="l" depth="1" NCoef="0" IVar="3" Cut="9.3151405334472656e+01" cType="1" res="-5.4320329800248146e-03" rms="4.5262682437896729e-01" purity="4.6938267350196838e-01" nType="0">
          <Node pos="l" depth="2" NCoef="0" IVar="-1" Cut="0.0000000000000000e+00" cType="1" res="-4.8922194400802255e-04" rms="4.5117247104644775e-01" purity="4.2835116386413574e-01" nType="-99"/>
          <Node pos="r" depth="2" NCoef="0" IVar="-1" Cut="0.0000000000000000e+00" cType="1" res="7.4853561818599701e-04" rms="4.4876986742019653e-01" purity="5.5306905508041382e-01" nType="-99"/>
        </Node>
        <Node pos="r" depth="1" NCoef="0" IVar="7" Cut="-2.7588108554482460e-02" cType="1" res="9.3159273266792297e-02" rms="4.5522728562355042e-01" purity="6.0448324680328369e-01" nType="0">
          <Node pos="l" depth="2" NCoef="0" IVar="-1" Cut="0.0000000000000000e+00" cType="1" res="2.1591742988675833e-03" rms="4.0770870447158813e-01" purity="7.4547147750854492e-01" nType="-99"/>
          <Node pos="r" depth="2" NCoef="0" IVar="-1" Cut="0.0000000000000000e+00" cType="1" res="7.8012538142502308e-04" rms="4.6375462412834167e-01" purity="5.6493806838989258e-01" nType="-99"/>
        </Node>
      </Node>
    </BinaryTree>
    <BinaryTree type="DecisionTree" boostWeight="1.0000000000000000e+00" itree="337">
      <Node pos="s" depth="0" NCoef="0" IVar="6" Cut="6.9438018798828125e+02" cType="1" res="2.5589404627680779e-02" rms="4.6091499924659729e-01" purity="5.1682001352310181e-01" nType="0">
        <Node pos="l" depth="1" NCoef="0" IVar="3" Cut="5.3561775207519531e+01" cType="1" res="5.3049060516059399e-03" rms="4.6066749095916748e-01" purity="4.8980787396430969e-01" nType="0">
          <Node pos="l" depth="2" NCoef="0" IVar="-1" Cut="0.0000000000000000e+00" cType="1" res="-1.0243877768516541e-03" rms="4.5135143399238586e-01" purity="3.9855709671974182e-01" nType="-99"/>
          <Node pos="r" depth="2" NCoef="0" IVar="-1" Cut="0.0000000000000000e+00" cType="1" res="4.4256926048547029e-04" rms="4.6049588918685913e-01" purity="5.2339607477188110e-01" nType="-99"/>
        </Node>
        <Node pos="r" depth="1" NCoef="0" IVar="6" Cut="8.0241308593750000e+02" cType="1" res="1.5779255330562592e-01" rms="4.4019284844398499e-01" purity="6.9286954402923584e-01" nType="0">
          <Node pos="l" depth="2" NCoef="0" IVar="-1" Cut="0.0000000000000000e+00" cType="1" res="2.3165065795183182e-03" rms="4.1435545682907104e-01" purity="7.5249987840652466e-01" nType="-99"/>
          <Node pos="r" depth="2" NCoef="0" IVar="-1" Cut="0.0000000000000000e+00" cType="1" res="1.2379360850900412e-03" rms="4.5476067066192627e-01" purity="6.4550131559371948e-01" nType="-99"/>
        </Node>
      </Node>
    </BinaryTree>
    <BinaryTree type="DecisionTree" boostWeight="1.0000000000000000e+00" itree="338">
      <Node pos="s" depth="0" NCoef="0" IVar="0" Cut="5.0841131210327148e+00" cType="1" res="4.8205656930804253e-03" rms="4.5593288540840149e-01" purity="4.9752631783485413e-01" nType="0">
        <Node pos="l" depth="1" NCoef="0" IVar="-1" Cut="0.0000000000000000e+00" cType="1" res="-2.7804516721516848e-03" rms="3.4169015288352966e-01" purity="1.4257602393627167e-01" nType="-99"/>
        <Node pos="r" depth="1" NCoef="0" IVar="7" Cut="2.8202706947922707e-02" cType="1" res="2.1907407790422440e-02" rms="4.6319520473480225e-01" purity="5.3534001111984253e-01" nType="0">
          <Node pos="l" depth="2" NCoef="0" IVar="-1" Cut="0.0000000000000000e+00" cType="1" res="6.5576808992773294e-04" rms="4.5638421177864075e-01" purity="5.9223484992980957e-01" nType="-99"/>
          <Node pos="r" depth="2" NCoef="0" IVar="-1" Cut="0.0000000000000000e+00" cType="1" res="-3.6415571230463684e-04" rms="4.6880498528480530e-01" purity="4.5076423883438110e-01" nType="-99"/>
        </Node>
      </Node>
    </BinaryTree>
    <BinaryTree type="DecisionTree" boostWeight="1.0000000000000000e+00" itree="339">
      <Node pos="s" depth="0" NCoef="0" IVar="6" Cut="4.0420034790039062e+02" cType="1" res="8.1784278154373169e-03" rms="4.5256328582763672e-01" purity="4.9922966957092285e-01" nType="0">
        <Node pos="l" depth="1" NCoef="0" IVar="0" Cut="5.6316118240356445e+00" cType="1" res="-5.6058272719383240e-02" rms="4.4080564379692078e-01" purity="3.7696933746337891e-01" nType="0">
          <Node pos="l" depth="2" NCoef="0" IVar="-1" Cut="0.0000000000000000e+00" cType="1" res="-2.5692747440189123e-03" rms="3.3864828944206238e-01" purity="1.4796318113803864e-01" nType="-99"/>
          <Node pos="r" depth="2" NCoef="0" IVar="-1" Cut="0.0000000000000000e+00" cType="1" res="-2.7736890478990972e-04" rms="4.6759530901908875e-01" purity="4.5960712432861328e-01" nType="-99"/>
        </Node>
        <Node pos="r" depth="1" NCoef="0" IVar="3" Cut="1.1852330780029297e+02" cType="1" res="4.3202802538871765e-02" rms="4.5504295825958252e-01" purity="5.6589072942733765e-01" nType="0">
          <Node pos="l" depth="2" NCoef="0" IVar="-1" Cut="0.0000000000000000e+00" cType="1" res="2.1705788094550371e-04" rms="4.6070557832717896e-01" purity="5.3735733032226562e-01" nType="-99"/>
          <Node pos="r" depth="2" NCoef="0" IVar="-1" Cut="0.0000000000000000e+00" cType="1" res="1.4789105625823140e-03" rms="4.2545330524444580e-01" purity="6.5932476520538330e-01" nType="-99"/>
        </Node>
      </Node>
    </BinaryTree>
    <BinaryTree type="DecisionTree" boostWeight="1.0000000000000000e+00" itree="340">
      <Node pos="s" depth="0" NCoef="0" IVar="3" Cut="8.1808944702148438e+01" cType="1" res="1.3981820084154606e-02" rms="4.6007832884788513e-01" purity="5.0238889455795288e-01" nType="0">
        <Node pos="l" depth="1" NCoef="0" IVar="4" Cut="7.2856523096561432e-02" cType="1" res="-2.0642342045903206e-02" rms="4.6639031171798706e-01" purity="4.5569029450416565e-01" nType="0">
          <Node pos="l" depth="2" NCoef="0" IVar="-1" Cut="0.0000000000000000e+00" cType="1" res="-8.6026615463197231e-04" rms="4.5895537734031677e-01" purity="4.0230765938758850e-01" nType="-99"/>
          <Node pos="r" depth="2" NCoef="0" IVar="-1" Cut="0.0000000000000000e+00" cType="1" res="6.3323450740426779e-04" rms="4.6990200877189636e-01" purity="5.4581290483474731e-01" nType="-99"/>
        </Node>
        <Node pos="r" depth="1" NCoef="0" IVar="0" Cut="6.9105167388916016e+00" cType="1" res="6.3333183526992798e-02" rms="4.4630992412567139e-01" purity="5.6895047426223755e-01" nType="0">
          <Node pos="l" depth="2" NCoef="0" IVar="-1" Cut="0.0000000000000000e+00" cType="1" res="2.1434538939502090e-04" rms="4.6714812517166138e-01" purity="4.2736276984214783e-01" nType="-99"/>
          <Node pos="r" depth="2" NCoef="0" IVar="-1" Cut="0.0000000000000000e+00" cType="1" res="1.3816308928653598e-03" rms="4.1209205985069275e-01" purity="7.4244236946105957e-01" nType="-99"/>
        </Node>
      </Node>
    </BinaryTree>
    <BinaryTree type="DecisionTree" boostWeight="1.0000000000000000e+00" itree="341">
      <Node pos="s" depth="0" NCoef="0" IVar="3" Cut="9.3151405334472656e+01" cType="1" res="2.2680327296257019e-02" rms="4.5982006192207336e-01" purity="5.1223987340927124e-01" nType="0">
        <Node pos="l" depth="1" NCoef="0" IVar="2" Cut="2.8203298950195312e+02" cType="1" res="-6.2350765801966190e-03" rms="4.6643391251564026e-01" purity="4.7096556425094604e-01" nType="0">
          <Node pos="l" depth="2" NCoef="0" IVar="-1" Cut="0.0000000000000000e+00" cType="1" res="1.3019648031331599e-04" rms="4.7025251388549805e-01" purity="4.9354064464569092e-01" nType="-99"/>
          <Node pos="r" depth="2" NCoef="0" IVar="-1" Cut="0.0000000000000000e+00" cType="1" res="-1.6622784314677119e-03" rms="4.2963504791259766e-01" purity="3.3610230684280396e-01" nType="-99"/>
        </Node>
        <Node pos="r" depth="1" NCoef="0" IVar="0" Cut="5.6120095252990723e+00" cType="1" res="7.9123489558696747e-02" rms="4.4120106101036072e-01" purity="5.9280782938003540e-01" nType="0">
          <Node pos="l" depth="2" NCoef="0" IVar="-1" Cut="0.0000000000000000e+00" cType="1" res="-9.3300576554611325e-04" rms="4.2887344956398010e-01" purity="2.9039749503135681e-01" nType="-99"/>
          <Node pos="r" depth="2" NCoef="0" IVar="-1" Cut="0.0000000000000000e+00" cType="1" res="1.2653436278924346e-03" rms="4.3816018104553223e-01" purity="6.5391618013381958e-01" nType="-99"/>
        </Node>
      </Node>
    </BinaryTree>
    <BinaryTree type="DecisionTree" boostWeight="1.0000000000000000e+00" itree="342">
      <Node pos="s" depth="0" NCoef="0" IVar="0" Cut="7.9912114143371582e+00" cType="1" res="-3.6631067632697523e-04" rms="4.5034056901931763e-01" purity="4.9464234709739685e-01" nType="0">
        <Node pos="l" depth="1" NCoef="0" IVar="0" Cut="4.8027009963989258e+00" cType="1" res="-3.0707560479640961e-02" rms="4.5776063203811646e-01" purity="4.2095574736595154e-01" nType="0">
          <Node pos="l" depth="2" NCoef="0" IVar="-1" Cut="0.0000000000000000e+00" cType="1" res="-4.2669526301324368e-03" rms="2.3844750225543976e-01" purity="7.0290841162204742e-02" nType="-99"/>
          <Node pos="r" depth="2" NCoef="0" IVar="-1" Cut="0.0000000000000000e+00" cType="1" res="-2.1023499721195549e-04" rms="4.6764943003654480e-01" purity="4.4862124323844910e-01" nType="-99"/>
        </Node>
        <Node pos="r" depth="1" NCoef="0" IVar="1" Cut="9.2350804805755615e-01" cType="1" res="1.0786812007427216e-01" rms="4.0468674898147583e-01" purity="7.5749987363815308e-01" nType="0">
          <Node pos="l" depth="2" NCoef="0" IVar="-1" Cut="0.0000000000000000e+00" cType="1" res="1.7896618228405714e-03" rms="3.4505453705787659e-01" purity="8.5799205303192139e-01" nType="-99"/>
          <Node pos="r" depth="2" NCoef="0" IVar="-1" Cut="0.0000000000000000e+00" cType="1" res="4.3675265624187887e-04" rms="4.6974572539329529e-01" purity="6.1016356945037842e-01" nType="-99"/>
        </Node>
      </Node>
    </BinaryTree>
    <BinaryTree type="DecisionTree" boostWeight="1.0000000000000000e+00" itree="343">
      <Node pos="s" depth="0" NCoef="0" IVar="1" Cut="1.7229096889495850e+00" cType="1" res="2.0482139661908150e-02" rms="4.5534664392471313e-01" purity="5.0880193710327148e-01" nType="0">
        <Node pos="l" depth="1" NCoef="0" IVar="0" Cut="7.3416481018066406e+00" cType="1" res="3.2492361962795258e-02" rms="4.6117502450942993e-01" purity="5.3294920921325684e-01" nType="0">
          <Node pos="l" depth="2" NCoef="0" IVar="-1" Cut="0.0000000000000000e+00" cType="1" res="5.3127139835851267e-05" rms="4.7358283400535583e-01" purity="4.3518123030662537e-01" nType="-99"/>
          <Node pos="r" depth="2" NCoef="0" IVar="-1" Cut="0.0000000000000000e+00" cType="1" res="1.0626196162775159e-03" rms="4.2780044674873352e-01" purity="7.3881846666336060e-01" nType="-99"/>
        </Node>
        <Node pos="r" depth="1" NCoef="0" IVar="-1" Cut="0.0000000000000000e+00" cType="1" res="-4.5775375328958035e-03" rms="2.4246722459793091e-01" purity="6.7246012389659882e-02" nType="-99"/>
      </Node>
    </BinaryTree>
    <BinaryTree type="DecisionTree" boostWeight="1.0000000000000000e+00" itree="344">
      <Node pos="s" depth="0" NCoef="0" IVar="0" Cut="7.6344795227050781e+00" cType="1" res="1.4373495243489742e-02" rms="4.4954609870910645e-01" purity="5.0440329313278198e-01" nType="0">
        <Node pos="l" depth="1" NCoef="0" IVar="6" Cut="7.1418322753906250e+02" cType="1" res="-1.8168030306696892e-02" rms="4.5845606923103333e-01" purity="4.1544914245605469e-01" nType="0">
          <Node pos="l" depth="2" NCoef="0" IVar="-1" Cut="0.0000000000000000e+00" cType="1" res="-6.0028518782928586e-04" rms="4.5498135685920715e-01" purity="3.7926527857780457e-01" nType="-99"/>
          <Node pos="r" depth="2" NCoef="0" IVar="-1" Cut="0.0000000000000000e+00" cType="1" res="1.9976953044533730e-03" rms="4.3727198243141174e-01" purity="6.8619400262832642e-01" nType="-99"/>
        </Node>
        <Node pos="r" depth="1" NCoef="0" IVar="5" Cut="7.0434927940368652e-01" cType="1" res="1.0642912238836288e-01" rms="4.0955528616905212e-01" purity="7.5604271888732910e-01" nType="0">
          <Node pos="l" depth="2" NCoef="0" IVar="-1" Cut="0.0000000000000000e+00" cType="1" res="1.5974739799275994e-03" rms="3.7895673513412476e-01" purity="8.1563293933868408e-01" nType="-99"/>
          <Node pos="r" depth="2" NCoef="0" IVar="-1" Cut="0.0000000000000000e+00" cType="1" res="5.1287421956658363e-04" rms="4.5081332325935364e-01" purity="6.5226924419403076e-01" nType="-99"/>
        </Node>
      </Node>
    </BinaryTree>
    <BinaryTree type="DecisionTree" boostWeight="1.0000000000000000e+00" itree="345">
      <Node pos="s" depth="0" NCoef="0" IVar="6" Cut="3.2567614746093750e+02" cType="1" res="2.7307894080877304e-02" rms="4.5773860812187195e-01" purity="5.1969707012176514e-01" nType="0">
        <Node pos="l" depth="1" NCoef="0" IVar="-1" Cut="0.0000000000000000e+00" cType="1" res="-1.6177165089175105e-03" rms="4.2051371932029724e-01" purity="2.7501857280731201e-01" nType="-99"/>
        <Node pos="r" depth="1" NCoef="0" IVar="2" Cut="2.1765357971191406e+02" cType="1" res="4.2094238102436066e-02" rms="4.5913940668106079e-01" purity="5.4610610008239746e-01" nType="0">
          <Node pos="l" depth="2" NCoef="0" IVar="-1" Cut="0.0000000000000000e+00" cType="1" res="2.0851282897638157e-05" rms="4.7181951999664307e-01" purity="4.9997386336326599e-01" nType="-99"/>
          <Node pos="r" depth="2" NCoef="0" IVar="-1" Cut="0.0000000000000000e+00" cType="1" res="1.0087628616020083e-03" rms="4.4355413317680359e-01" purity="5.8946782350540161e-01" nType="-99"/>
        </Node>
      </Node>
    </BinaryTree>
    <BinaryTree type="DecisionTree" boostWeight="1.0000000000000000e+00" itree="346">
      <Node pos="s" depth="0" NCoef="0" IVar="3" Cut="1.0465370178222656e+02" cType="1" res="1.6967196017503738e-02" rms="4.6191856265068054e-01" purity="5.0889235734939575e-01" nType="0">
        <Node pos="l" depth="1" NCoef="0" IVar="4" Cut="-6.1514705419540405e-02" cType="1" res="-1.4775094576179981e-02" rms="4.6228629350662231e-01" purity="4.7037774324417114e-01" nType="0">
          <Node pos="l" depth="2" NCoef="0" IVar="-1" Cut="0.0000000000000000e+00" cType="1" res="-1.4021139359101653e-03" rms="4.4330739974975586e-01" purity="3.5113376379013062e-01" nType="-99"/>
          <Node pos="r" depth="2" NCoef="0" IVar="-1" Cut="0.0000000000000000e+00" cType="1" res="2.0691246027126908e-04" rms="4.6551936864852905e-01" purity="5.1599329710006714e-01" nType="-99"/>
        </Node>
        <Node pos="r" depth="1" NCoef="0" IVar="0" Cut="5.8448839187622070e+00" cType="1" res="1.1355770379304886e-01" rms="4.4714516401290894e-01" purity="6.2609082460403442e-01" nType="0">
          <Node pos="l" depth="2" NCoef="0" IVar="-1" Cut="0.0000000000000000e+00" cType="1" res="1.6925422823987901e-04" rms="4.5297142863273621e-01" purity="3.7830555438995361e-01" nType="-99"/>
          <Node pos="r" depth="2" NCoef="0" IVar="-1" Cut="0.0000000000000000e+00" cType="1" res="1.6671975608915091e-03" rms="4.4091391563415527e-01" purity="6.9990420341491699e-01" nType="-99"/>
        </Node>
      </Node>
    </BinaryTree>
    <BinaryTree type="DecisionTree" boostWeight="1.0000000000000000e+00" itree="347">
      <Node pos="s" depth="0" NCoef="0" IVar="3" Cut="3.4143054962158203e+01" cType="1" res="1.1899162083864212e-02" rms="4.5893922448158264e-01" purity="4.9892613291740417e-01" nType="0">
        <Node pos="l" depth="1" NCoef="0" IVar="-1" Cut="0.0000000000000000e+00" cType="1" res="-2.5576180778443813e-03" rms="4.0096426010131836e-01" purity="2.7479043602943420e-01" nType="-99"/>
        <Node pos="r" depth="1" NCoef="0" IVar="2" Cut="4.0382943725585938e+02" cType="1" res="2.2423753514885902e-02" rms="4.5979285240173340e-01" purity="5.1169306039810181e-01" nType="0">
          <Node pos="l" depth="2" NCoef="0" IVar="-1" Cut="0.0000000000000000e+00" cType="1" res="4.3701089452952147e-04" rms="4.6259176731109619e-01" purity="5.3150320053100586e-01" nType="-99"/>
          <Node pos="r" depth="2" NCoef="0" IVar="-1" Cut="0.0000000000000000e+00" cType="1" res="-1.8866913160309196e-03" rms="4.0432700514793396e-01" purity="3.0088976025581360e-01" nType="-99"/>
        </Node>
      </Node>
    </BinaryTree>
    <BinaryTree type="DecisionTree" boostWeight="1.0000000000000000e+00" itree="348">
      <Node pos="s" depth="0" NCoef="0" IVar="6" Cut="4.0706100463867188e+02" cType="1" res="1.2553236447274685e-02" rms="4.5231112837791443e-01" purity="5.0078225135803223e-01" nType="0">
        <Node pos="l" depth="1" NCoef="0" IVar="0" Cut="5.9786634445190430e+00" cType="1" res="-7.1150228381156921e-02" rms="4.3531128764152527e-01" purity="3.5236433148384094e-01" nType="0">
          <Node pos="l" depth="2" NCoef="0" IVar="-1" Cut="0.0000000000000000e+00" cType="1" res="-2.5602837558835745e-03" rms="3.5795521736145020e-01" purity="1.5185290575027466e-01" nType="-99"/>
          <Node pos="r" depth="2" NCoef="0" IVar="-1" Cut="0.0000000000000000e+00" cType="1" res="-1.8418472609482706e-04" rms="4.7416466474533081e-01" purity="4.9325135350227356e-01" nType="-99"/>
        </Node>
        <Node pos="r" depth="1" NCoef="0" IVar="1" Cut="1.0535677671432495e+00" cType="1" res="5.7742360979318619e-02" rms="4.5487052202224731e-01" purity="5.8090889453887939e-01" nType="0">
          <Node pos="l" depth="2" NCoef="0" IVar="-1" Cut="0.0000000000000000e+00" cType="1" res="1.0587611468508840e-03" rms="4.5038932561874390e-01" purity="6.7148065567016602e-01" nType="-99"/>
          <Node pos="r" depth="2" NCoef="0" IVar="-1" Cut="0.0000000000000000e+00" cType="1" res="-2.1009880583733320e-04" rms="4.5529073476791382e-01" purity="3.9741095900535583e-01" nType="-99"/>
        </Node>
      </Node>
    </BinaryTree>
    <BinaryTree type="DecisionTree" boostWeight="1.0000000000000000e+00" itree="349">
      <Node pos="s" depth="0" NCoef="0" IVar="1" Cut="1.0159085988998413e+00" cType="1" res="-2.1546275820583105e-03" rms="4.5666953921318054e-01" purity="4.9030798673629761e-01" nType="0">
        <Node pos="l" depth="1" NCoef="0" IVar="2" Cut="2.3025411987304688e+02" cType="1" res="3.0036527663469315e-02" rms="4.5793160796165466e-01" purity="5.8834034204483032e-01" nType="0">
          <Node pos="l" depth="2" NCoef="0" IVar="-1" Cut="0.0000000000000000e+00" cType="1" res="-6.4134757849387825e-05" rms="4.6540623903274536e-01" purity="5.2768057584762573e-01" nType="-99"/>
          <Node pos="r" depth="2" NCoef="0" IVar="-1" Cut="0.0000000000000000e+00" cType="1" res="1.3378396397456527e-03" rms="4.2804700136184692e-01" purity="7.3244172334671021e-01" nType="-99"/>
        </Node>
        <Node pos="r" depth="1" NCoef="0" IVar="3" Cut="9.9297988891601562e+01" cType="1" res="-5.1048830151557922e-02" rms="4.5036572217941284e-01" purity="3.4140953421592712e-01" nType="0">
          <Node pos="l" depth="2" NCoef="0" IVar="-1" Cut="0.0000000000000000e+00" cType="1" res="-1.3060735072940588e-03" rms="4.3775543570518494e-01" purity="2.9394140839576721e-01" nType="-99"/>
          <Node pos="r" depth="2" NCoef="0" IVar="-1" Cut="0.0000000000000000e+00" cType="1" res="1.8541290774010122e-04" rms="4.6695548295974731e-01" purity="4.3302866816520691e-01" nType="-99"/>
        </Node>
      </Node>
    </BinaryTree>
    <BinaryTree type="DecisionTree" boostWeight="1.0000000000000000e+00" itree="350">
      <Node pos="s" depth="0" NCoef="0" IVar="0" Cut="7.7005014419555664e+00" cType="1" res="3.0363068799488246e-04" rms="4.5054185390472412e-01" purity="4.9025383591651917e-01" nType="0">
        <Node pos="l" depth="1" NCoef="0" IVar="6" Cut="3.2713757324218750e+02" cType="1" res="-3.1473215669393539e-02" rms="4.5540565252304077e-01" purity="4.0427687764167786e-01" nType="0">
          <Node pos="l" depth="2" NCoef="0" IVar="-1" Cut="0.0000000000000000e+00" cType="1" res="-2.9386451933532953e-03" rms="3.5537928342819214e-01" purity="1.7056491971015930e-01" nType="-99"/>
          <Node pos="r" depth="2" NCoef="0" IVar="-1" Cut="0.0000000000000000e+00" cType="1" res="-1.4063152775634080e-04" rms="4.6291017532348633e-01" purity="4.3484377861022949e-01" nType="-99"/>
        </Node>
        <Node pos="r" depth="1" NCoef="0" IVar="4" Cut="-5.2130661904811859e-02" cType="1" res="9.1079413890838623e-02" rms="4.2340955138206482e-01" purity="7.3586124181747437e-01" nType="0">
          <Node pos="l" depth="2" NCoef="0" IVar="-1" Cut="0.0000000000000000e+00" cType="1" res="8.0716323282103986e-05" rms="4.6604955196380615e-01" purity="6.1904019117355347e-01" nType="-99"/>
          <Node pos="r" depth="2" NCoef="0" IVar="-1" Cut="0.0000000000000000e+00" cType="1" res="1.5260948566719890e-03" rms="3.9407148957252502e-01" purity="7.9348713159561157e-01" nType="-99"/>
        </Node>
      </Node>
    </BinaryTree>
    <BinaryTree type="DecisionTree" boostWeight="1.0000000000000000e+00" itree="351">
      <Node pos="s" depth="0" NCoef="0" IVar="5" Cut="1.0071018934249878e+00" cType="1" res="-1.0465090163052082e-02" rms="4.5588845014572144e-01" purity="4.7867652773857117e-01" nType="0">
        <Node pos="l" depth="1" NCoef="0" IVar="0" Cut="8.0198917388916016e+00" cType="1" res="7.8077320940792561e-03" rms="4.6017768979072571e-01" purity="5.1024663448333740e-01" nType="0">
          <Node pos="l" depth="2" NCoef="0" IVar="-1" Cut="0.0000000000000000e+00" cType="1" res="-1.9626379071269184e-04" rms="4.6754214167594910e-01" purity="4.4962397217750549e-01" nType="-99"/>
          <Node pos="r" depth="2" NCoef="0" IVar="-1" Cut="0.0000000000000000e+00" cType="1" res="1.1232845718041062e-03" rms="4.1860467195510864e-01" purity="7.4532461166381836e-01" nType="-99"/>
        </Node>
        <Node pos="r" depth="1" NCoef="0" IVar="3" Cut="8.2198860168457031e+01" cType="1" res="-1.3418965041637421e-01" rms="4.0455040335655212e-01" purity="2.6491641998291016e-01" nType="0">
          <Node pos="l" depth="2" NCoef="0" IVar="-1" Cut="0.0000000000000000e+00" cType="1" res="-3.0425125733017921e-03" rms="3.7939482927322388e-01" purity="2.1612519025802612e-01" nType="-99"/>
          <Node pos="r" depth="2" NCoef="0" IVar="-1" Cut="0.0000000000000000e+00" cType="1" res="-1.1943620629608631e-03" rms="4.2519742250442505e-01" purity="3.2103607058525085e-01" nType="-99"/>
        </Node>
      </Node>
    </BinaryTree>
    <BinaryTree type="DecisionTree" boostWeight="1.0000000000000000e+00" itree="352">
      <Node pos="s" depth="0" NCoef="0" IVar="0" Cut="8.5510120391845703e+00" cType="1" res="1.2686158530414104e-02" rms="4.5762661099433899e-01" purity="5.0051313638687134e-01" nType="0">
        <Node pos="l" depth="1" NCoef="0" IVar="4" Cut="3.8189139217138290e-02" cType="1" res="-3.3747330307960510e-03" rms="4.6336692571640015e-01" purity="4.6423965692520142e-01" nType="0">
          <Node pos="l" depth="2" NCoef="0" IVar="-1" Cut="0.0000000000000000e+00" cType="1" res="-5.1182805327698588e-04" rms="4.5940712094306946e-01" purity="4.1328349709510803e-01" nType="-99"/>
          <Node pos="r" depth="2" NCoef="0" IVar="-1" Cut="0.0000000000000000e+00" cType="1" res="5.7350168935954571e-04" rms="4.6456947922706604e-01" purity="5.3925937414169312e-01" nType="-99"/>
        </Node>
        <Node pos="r" depth="1" NCoef="0" IVar="-1" Cut="0.0000000000000000e+00" cType="1" res="1.5801682602614164e-03" rms="3.8522213697433472e-01" purity="7.9129737615585327e-01" nType="-99"/>
      </Node>
    </BinaryTree>
    <BinaryTree type="DecisionTree" boostWeight="1.0000000000000000e+00" itree="353">
      <Node pos="s" depth="0" NCoef="0" IVar="1" Cut="1.1039813756942749e+00" cType="1" res="-1.2046574847772717e-03" rms="4.5594343543052673e-01" purity="4.8820099234580994e-01" nType="0">
        <Node pos="l" depth="1" NCoef="0" IVar="2" Cut="1.9895013427734375e+02" cType="1" res="3.6209668964147568e-02" rms="4.6342417597770691e-01" purity="5.8351510763168335e-01" nType="0">
          <Node pos="l" depth="2" NCoef="0" IVar="-1" Cut="0.0000000000000000e+00" cType="1" res="-4.1499873623251915e-04" rms="4.7428631782531738e-01" purity="4.7432988882064819e-01" nType="-99"/>
          <Node pos="r" depth="2" NCoef="0" IVar="-1" Cut="0.0000000000000000e+00" cType="1" res="1.2897868873551488e-03" rms="4.3827500939369202e-01" purity="7.0404583215713501e-01" nType="-99"/>
        </Node>
        <Node pos="r" depth="1" NCoef="0" IVar="7" Cut="-3.6089561879634857e-02" cType="1" res="-8.1012584269046783e-02" rms="4.2878752946853638e-01" purity="2.8488799929618835e-01" nType="0">
          <Node pos="l" depth="2" NCoef="0" IVar="-1" Cut="0.0000000000000000e+00" cType="1" res="-2.6685560587793589e-03" rms="4.0691035985946655e-01" purity="2.3730625212192535e-01" nType="-99"/>
          <Node pos="r" depth="2" NCoef="0" IVar="-1" Cut="0.0000000000000000e+00" cType="1" res="-9.9048239644616842e-04" rms="4.3095153570175171e-01" purity="2.9509636759757996e-01" nType="-99"/>
        </Node>
      </Node>
    </BinaryTree>
    <BinaryTree type="DecisionTree" boostWeight="1.0000000000000000e+00" itree="354">
      <Node pos="s" depth="0" NCoef="0" IVar="2" Cut="1.9531442260742188e+02" cType="1" res="2.0542906131595373e-03" rms="4.5822075009346008e-01" purity="4.9438095092773438e-01" nType="0">
        <Node pos="l" depth="1" NCoef="0" IVar="0" Cut="6.4050641059875488e+00" cType="1" res="-4.8227358609437943e-02" rms="4.5924618840217590e-01" purity="4.3326589465141296e-01" nType="0">
          <Node pos="l" depth="2" NCoef="0" IVar="-1" Cut="0.0000000000000000e+00" cType="1" res="-1.3927036197856069e-03" rms="4.3260568380355835e-01" purity="2.6932704448699951e-01" nType="-99"/>
          <Node pos="r" depth="2" NCoef="0" IVar="-1" Cut="0.0000000000000000e+00" cType="1" res="-8.7928935954550980e-07" rms="4.7836410999298096e-01" purity="5.8971124887466431e-01" nType="-99"/>
        </Node>
        <Node pos="r" depth="1" NCoef="0" IVar="1" Cut="1.0944136381149292e+00" cType="1" res="3.8380477577447891e-02" rms="4.5402693748474121e-01" purity="5.3853380680084229e-01" nType="0">
          <Node pos="l" depth="2" NCoef="0" IVar="-1" Cut="0.0000000000000000e+00" cType="1" res="1.0479928459972143e-03" rms="4.4600924849510193e-01" purity="6.8277347087860107e-01" nType="-99"/>
          <Node pos="r" depth="2" NCoef="0" IVar="-1" Cut="0.0000000000000000e+00" cType="1" res="-3.9638768066652119e-04" rms="4.5548462867736816e-01" purity="3.5877391695976257e-01" nType="-99"/>
        </Node>
      </Node>
    </BinaryTree>
    <BinaryTree type="DecisionTree" boostWeight="1.0000000000000000e+00" itree="355">
      <Node pos="s" depth="0" NCoef="0" IVar="2" Cut="2.0362554931640625e+02" cType="1" res="9.4176298007369041e-03" rms="4.5943406224250793e-01" purity="5.0336289405822754e-01" nType="0">
        <Node pos="l" depth="1" NCoef="0" IVar="0" Cut="5.5738396644592285e+00" cType="1" res="-3.6068879067897797e-02" rms="4.6038457751274109e-01" purity="4.5053020119667053e-01" nType="0">
          <Node pos="l" depth="2" NCoef="0" IVar="-1" Cut="0.0000000000000000e+00" cType="1" res="-1.9891625270247459e-03" rms="3.8516479730606079e-01" purity="1.9470612704753876e-01" nType="-99"/>
          <Node pos="r" depth="2" NCoef="0" IVar="-1" Cut="0.0000000000000000e+00" cType="1" res="-1.1262359475949779e-04" rms="4.7755879163742065e-01" purity="5.2766031026840210e-01" nType="-99"/>
        </Node>
        <Node pos="r" depth="1" NCoef="0" IVar="1" Cut="9.8568421602249146e-01" cType="1" res="4.8302680253982544e-02" rms="4.5502910017967224e-01" purity="5.4852795600891113e-01" nType="0">
          <Node pos="l" depth="2" NCoef="0" IVar="-1" Cut="0.0000000000000000e+00" cType="1" res="1.2877526460215449e-03" rms="4.3332743644714355e-01" purity="7.2568964958190918e-01" nType="-99"/>
          <Node pos="r" depth="2" NCoef="0" IVar="-1" Cut="0.0000000000000000e+00" cType="1" res="-6.2151513702701777e-05" rms="4.6596956253051758e-01" purity="4.0012234449386597e-01" nType="-99"/>
        </Node>
      </Node>
    </BinaryTree>
    <BinaryTree type="DecisionTree" boostWeight="1.0000000000000000e+00" itree="356">
      <Node pos="s" depth="0" NCoef="0" IVar="1" Cut="1.3949223756790161e+00" cType="1" res="6.2574064359068871e-03" rms="4.5200341939926147e-01" purity="4.9470448493957520e-01" nType="0">
        <Node pos="l" depth="1" NCoef="0" IVar="2" Cut="2.0362554931640625e+02" cType="1" res="2.5341853499412537e-02" rms="4.6007969975471497e-01" purity="5.4918950796127319e-01" nType="0">
          <Node pos="l" depth="2" NCoef="0" IVar="-1" Cut="0.0000000000000000e+00" cType="1" res="-2.7326194685883820e-04" rms="4.6883583068847656e-01" purity="4.7373586893081665e-01" nType="-99"/>
          <Node pos="r" depth="2" NCoef="0" IVar="-1" Cut="0.0000000000000000e+00" cType="1" res="9.0975809143856168e-04" rms="4.4498127698898315e-01" purity="6.2999719381332397e-01" nType="-99"/>
        </Node>
        <Node pos="r" depth="1" NCoef="0" IVar="1" Cut="1.7195856571197510e+00" cType="1" res="-9.0590722858905792e-02" rms="3.9458525180816650e-01" purity="2.1820843219757080e-01" nType="0">
          <Node pos="l" depth="2" NCoef="0" IVar="-1" Cut="0.0000000000000000e+00" cType="1" res="-7.5424474198371172e-04" rms="4.3665719032287598e-01" purity="2.8472614288330078e-01" nType="-99"/>
          <Node pos="r" depth="2" NCoef="0" IVar="-1" Cut="0.0000000000000000e+00" cType="1" res="-4.1284053586423397e-03" rms="2.7232098579406738e-01" purity="8.5308559238910675e-02" nType="-99"/>
        </Node>
      </Node>
    </BinaryTree>
    <BinaryTree type="DecisionTree" boostWeight="1.0000000000000000e+00" itree="357">
      <Node pos="s" depth="0" NCoef="0" IVar="1" Cut="1.1632668972015381e+00" cType="1" res="9.0191327035427094e-03" rms="4.5414483547210693e-01" purity="4.9361866712570190e-01" nType="0">
        <Node pos="l" depth="1" NCoef="0" IVar="3" Cut="1.0024636077880859e+02" cType="1" res="4.0278006345033646e-02" rms="4.6122831106185913e-01" purity="5.8663618564605713e-01" nType="0">
          <Node pos="l" depth="2" NCoef="0" IVar="-1" Cut="0.0000000000000000e+00" cType="1" res="1.7118942923843861e-04" rms="4.6797341108322144e-01" purity="5.4397797584533691e-01" nType="-99"/>
          <Node pos="r" depth="2" NCoef="0" IVar="-1" Cut="0.0000000000000000e+00" cType="1" res="1.4701709151268005e-03" rms="4.2723929882049561e-01" purity="7.2696810960769653e-01" nType="-99"/>
        </Node>
        <Node pos="r" depth="1" NCoef="0" IVar="6" Cut="3.6841925048828125e+02" cType="1" res="-6.3065275549888611e-02" rms="4.2877218127250671e-01" purity="2.7911582589149475e-01" nType="0">
          <Node pos="l" depth="2" NCoef="0" IVar="-1" Cut="0.0000000000000000e+00" cType="1" res="4.2587891221046448e-04" rms="4.3246024847030640e-01" purity="3.4492370486259460e-01" nType="-99"/>
          <Node pos="r" depth="2" NCoef="0" IVar="-1" Cut="0.0000000000000000e+00" cType="1" res="-1.6708278562873602e-03" rms="4.2191308736801147e-01" purity="2.5275734066963196e-01" nType="-99"/>
        </Node>
      </Node>
    </BinaryTree>
    <BinaryTree type="DecisionTree" boostWeight="1.0000000000000000e+00" itree="358">
      <Node pos="s" depth="0" NCoef="0" IVar="0" Cut="7.2882761955261230e+00" cType="1" res="7.9327793791890144e-03" rms="4.5193532109260559e-01" purity="4.9903276562690735e-01" nType="0">
        <Node pos="l" depth="1" NCoef="0" IVar="6" Cut="6.2957513427734375e+02" cType="1" res="-2.6301568374037743e-02" rms="4.6020093560218811e-01" purity="3.8886326551437378e-01" nType="0">
          <Node pos="l" depth="2" NCoef="0" IVar="-1" Cut="0.0000000000000000e+00" cType="1" res="-6.0582411242648959e-04" rms="4.5572799444198608e-01" purity="3.5786756873130798e-01" nType="-99"/>
          <Node pos="r" depth="2" NCoef="0" IVar="-1" Cut="0.0000000000000000e+00" cType="1" res="8.6957932217046618e-04" rms="4.7200244665145874e-01" purity="5.5401051044464111e-01" nType="-99"/>
        </Node>
        <Node pos="r" depth="1" NCoef="0" IVar="4" Cut="-8.4490798413753510e-02" cType="1" res="7.4269928038120270e-02" rms="4.2774358391761780e-01" purity="7.1251213550567627e-01" nType="0">
          <Node pos="l" depth="2" NCoef="0" IVar="-1" Cut="0.0000000000000000e+00" cType="1" res="-4.8842479009181261e-04" rms="4.6450263261795044e-01" purity="5.5637109279632568e-01" nType="-99"/>
          <Node pos="r" depth="2" NCoef="0" IVar="-1" Cut="0.0000000000000000e+00" cType="1" res="1.2069656513631344e-03" rms="4.1222289204597473e-01" purity="7.5423032045364380e-01" nType="-99"/>
        </Node>
      </Node>
    </BinaryTree>
    <BinaryTree type="DecisionTree" boostWeight="1.0000000000000000e+00" itree="359">
      <Node pos="s" depth="0" NCoef="0" IVar="2" Cut="1.3880909729003906e+02" cType="1" res="3.6838611122220755e-03" rms="4.5922875404357910e-01" purity="4.9283531308174133e-01" nType="0">
        <Node pos="l" depth="1" NCoef="0" IVar="-1" Cut="0.0000000000000000e+00" cType="1" res="-1.6668509924784303e-03" rms="4.5370143651962280e-01" purity="3.5198745131492615e-01" nType="-99"/>
        <Node pos="r" depth="1" NCoef="0" IVar="4" Cut="4.4282864779233932e-02" cType="1" res="1.6962869092822075e-02" rms="4.5784232020378113e-01" purity="5.0799530744552612e-01" nType="0">
          <Node pos="l" depth="2" NCoef="0" IVar="-1" Cut="0.0000000000000000e+00" cType="1" res="-2.6109360624104738e-04" rms="4.4820237159729004e-01" purity="4.5744040608406067e-01" nType="-99"/>
          <Node pos="r" depth="2" NCoef="0" IVar="-1" Cut="0.0000000000000000e+00" cType="1" res="9.0728676877915859e-04" rms="4.6699336171150208e-01" purity="5.8938980102539062e-01" nType="-99"/>
        </Node>
      </Node>
    </BinaryTree>
    <BinaryTree type="DecisionTree" boostWeight="1.0000000000000000e+00" itree="360">
      <Node pos="s" depth="0" NCoef="0" IVar="0" Cut="5.9110698699951172e+00" cType="1" res="-6.1108898371458054e-03" rms="4.5363575220108032e-01" purity="4.8119303584098816e-01" nType="0">
        <Node pos="l" depth="1" NCoef="0" IVar="6" Cut="4.0420034790039062e+02" cType="1" res="-8.1354603171348572e-02" rms="4.1763773560523987e-01" purity="2.6177108287811279e-01" nType="0">
          <Node pos="l" depth="2" NCoef="0" IVar="-1" Cut="0.0000000000000000e+00" cType="1" res="-2.1777483634650707e-03" rms="3.6805501580238342e-01" purity="1.7451521754264832e-01" nType="-99"/>
          <Node pos="r" depth="2" NCoef="0" IVar="-1" Cut="0.0000000000000000e+00" cType="1" res="-5.6294177193194628e-04" rms="4.4916883111000061e-01" purity="3.3157211542129517e-01" nType="-99"/>
        </Node>
        <Node pos="r" depth="1" NCoef="0" IVar="2" Cut="1.5494552612304688e+02" cType="1" res="2.7372473850846291e-02" rms="4.6486756205558777e-01" purity="5.7883554697036743e-01" nType="0">
          <Node pos="l" depth="2" NCoef="0" IVar="-1" Cut="0.0000000000000000e+00" cType="1" res="-7.5994204962626100e-04" rms="4.8364096879959106e-01" purity="4.8990112543106079e-01" nType="-99"/>
          <Node pos="r" depth="2" NCoef="0" IVar="-1" Cut="0.0000000000000000e+00" cType="1" res="5.6109228171408176e-04" rms="4.5859071612358093e-01" purity="5.9745991230010986e-01" nType="-99"/>
        </Node>
      </Node>
    </BinaryTree>
    <BinaryTree type="DecisionTree" boostWeight="1.0000000000000000e+00" itree="361">
      <Node pos="s" depth="0" NCoef="0" IVar="0" Cut="5.6201038360595703e+00" cType="1" res="9.6853850409388542e-03" rms="4.5581823587417603e-01" purity="4.9916210770606995e-01" nType="0">
        <Node pos="l" depth="1" NCoef="0" IVar="5" Cut="5.7716774940490723e-01" cType="1" res="-7.9663001000881195e-02" rms="4.1355755925178528e-01" purity="2.3876859247684479e-01" nType="0">
          <Node pos="l" depth="2" NCoef="0" IVar="-1" Cut="0.0000000000000000e+00" cType="1" res="-2.6322675403207541e-03" rms="3.6598566174507141e-01" purity="1.7497387528419495e-01" nType="-99"/>
          <Node pos="r" depth="2" NCoef="0" IVar="-1" Cut="0.0000000000000000e+00" cType="1" res="-5.9858994791284204e-04" rms="4.2822909355163574e-01" purity="2.6919859647750854e-01" nType="-99"/>
        </Node>
        <Node pos="r" depth="1" NCoef="0" IVar="3" Cut="4.5279773712158203e+01" cType="1" res="3.4981459379196167e-02" rms="4.6397420763969421e-01" purity="5.7288408279418945e-01" nType="0">
          <Node pos="l" depth="2" NCoef="0" IVar="-1" Cut="0.0000000000000000e+00" cType="1" res="-9.2361372662708163e-04" rms="4.6574446558952332e-01" purity="4.4729372859001160e-01" nType="-99"/>
          <Node pos="r" depth="2" NCoef="0" IVar="-1" Cut="0.0000000000000000e+00" cType="1" res="6.1636889586225152e-04" rms="4.6149066090583801e-01" purity="5.9283196926116943e-01" nType="-99"/>
        </Node>
      </Node>
    </BinaryTree>
    <BinaryTree type="DecisionTree" boostWeight="1.0000000000000000e+00" itree="362">
      <Node pos="s" depth="0" NCoef="0" IVar="3" Cut="1.0454970550537109e+02" cType="1" res="1.6853712499141693e-02" rms="4.5699384808540344e-01" purity="5.0684112310409546e-01" nType="0">
        <Node pos="l" depth="1" NCoef="0" IVar="0" Cut="7.0307221412658691e+00" cType="1" res="-3.4655206836760044e-03" rms="4.5787814259529114e-01" purity="4.7582504153251648e-01" nType="0">
          <Node pos="l" depth="2" NCoef="0" IVar="-1" Cut="0.0000000000000000e+00" cType="1" res="-4.7561098472215235e-04" rms="4.5900851488113403e-01" purity="3.5122895240783691e-01" nType="-99"/>
          <Node pos="r" depth="2" NCoef="0" IVar="-1" Cut="0.0000000000000000e+00" cType="1" res="5.3243810543790460e-04" rms="4.5200094580650330e-01" purity="6.6541486978530884e-01" nType="-99"/>
        </Node>
        <Node pos="r" depth="1" NCoef="0" IVar="2" Cut="3.3962985229492188e+02" cType="1" res="7.9800657927989960e-02" rms="4.4843706488609314e-01" purity="6.0292589664459229e-01" nType="0">
          <Node pos="l" depth="2" NCoef="0" IVar="-1" Cut="0.0000000000000000e+00" cType="1" res="1.5061793383210897e-03" rms="4.4115489721298218e-01" purity="6.6573059558868408e-01" nType="-99"/>
          <Node pos="r" depth="2" NCoef="0" IVar="-1" Cut="0.0000000000000000e+00" cType="1" res="-4.8817801871336997e-04" rms="4.4575595855712891e-01" purity="4.4835966825485229e-01" nType="-99"/>
        </Node>
      </Node>
    </BinaryTree>
    <BinaryTree type="DecisionTree" boostWeight="1.0000000000000000e+00" itree="363">
      <Node pos="s" depth="0" NCoef="0" IVar="0" Cut="5.8222131729125977e+00" cType="1" res="1.3826997019350529e-02" rms="4.5352351665496826e-01" purity="5.0056231021881104e-01" nType="0">
        <Node pos="l" depth="1" NCoef="0" IVar="4" Cut="1.2883956730365753e-01" cType="1" res="-5.3170323371887207e-02" rms="4.2882373929023743e-01" purity="2.8115296363830566e-01" nType="0">
          <Node pos="l" depth="2" NCoef="0" IVar="-1" Cut="0.0000000000000000e+00" cType="1" res="-1.5008047921583056e-03" rms="4.0137517452239990e-01" purity="2.2903729975223541e-01" nType="-99"/>
          <Node pos="r" depth="2" NCoef="0" IVar="-1" Cut="0.0000000000000000e+00" cType="1" res="1.0896940948441625e-03" rms="4.8129791021347046e-01" purity="4.4719386100769043e-01" nType="-99"/>
        </Node>
        <Node pos="r" depth="1" NCoef="0" IVar="4" Cut="2.3846574127674103e-02" cType="1" res="4.1045125573873520e-02" rms="4.6040531992912292e-01" purity="5.8969891071319580e-01" nType="0">
          <Node pos="l" depth="2" NCoef="0" IVar="-1" Cut="0.0000000000000000e+00" cType="1" res="8.2947306509595364e-05" rms="4.6953624486923218e-01" purity="5.2783340215682983e-01" nType="-99"/>
          <Node pos="r" depth="2" NCoef="0" IVar="-1" Cut="0.0000000000000000e+00" cType="1" res="9.5989892724901438e-04" rms="4.4512423872947693e-01" purity="6.6645395755767822e-01" nType="-99"/>
        </Node>
      </Node>
    </BinaryTree>
    <BinaryTree type="DecisionTree" boostWeight="1.0000000000000000e+00" itree="364">
      <Node pos="s" depth="0" NCoef="0" IVar="0" Cut="8.1974401473999023e+00" cType="1" res="5.6109861470758915e-03" rms="4.5676437020301819e-01" purity="4.9390950798988342e-01" nType="0">
        <Node pos="l" depth="1" NCoef="0" IVar="3" Cut="3.5282920837402344e+01" cType="1" res="-1.3301456347107887e-02" rms="4.6361544728279114e-01" purity="4.4254168868064880e-01" nType="0">
          <Node pos="l" depth="2" NCoef="0" IVar="-1" Cut="0.0000000000000000e+00" cType="1" res="-2.3103419225662947e-03" rms="3.9512291550636292e-01" purity="2.7595531940460205e-01" nType="-99"/>
          <Node pos="r" depth="2" NCoef="0" IVar="-1" Cut="0.0000000000000000e+00" cType="1" res="-3.4863791370298713e-05" rms="4.6658822894096375e-01" purity="4.5497938990592957e-01" nType="-99"/>
        </Node>
        <Node pos="r" depth="1" NCoef="0" IVar="4" Cut="-5.4238546639680862e-02" cType="1" res="1.0457167774438858e-01" rms="4.0493747591972351e-01" purity="7.6269519329071045e-01" nType="0">
          <Node pos="l" depth="2" NCoef="0" IVar="-1" Cut="0.0000000000000000e+00" cType="1" res="2.5772905792109668e-04" rms="4.5753476023674011e-01" purity="6.3536292314529419e-01" nType="-99"/>
          <Node pos="r" depth="2" NCoef="0" IVar="-1" Cut="0.0000000000000000e+00" cType="1" res="1.6255086520686746e-03" rms="3.7103831768035889e-01" purity="8.2255542278289795e-01" nType="-99"/>
        </Node>
      </Node>
    </BinaryTree>
    <BinaryTree type="DecisionTree" boostWeight="1.0000000000000000e+00" itree="365">
      <Node pos="s" depth="0" NCoef="0" IVar="1" Cut="8.6567544937133789e-01" cType="1" res="1.0944753885269165e-03" rms="4.5667421817779541e-01" purity="4.9330189824104309e-01" nType="0">
        <Node pos="l" depth="1" NCoef="0" IVar="2" Cut="1.9370283508300781e+02" cType="1" res="3.8872227072715759e-02" rms="4.5817783474922180e-01" purity="6.0083520412445068e-01" nType="0">
          <Node pos="l" depth="2" NCoef="0" IVar="-1" Cut="0.0000000000000000e+00" cType="1" res="-2.3021279776003212e-04" rms="4.7992768883705139e-01" purity="4.9027290940284729e-01" nType="-99"/>
          <Node pos="r" depth="2" NCoef="0" IVar="-1" Cut="0.0000000000000000e+00" cType="1" res="1.1247332440689206e-03" rms="4.2721161246299744e-01" purity="7.1249306201934814e-01" nType="-99"/>
        </Node>
        <Node pos="r" depth="1" NCoef="0" IVar="4" Cut="-9.7134970128536224e-02" cType="1" res="-3.2994143664836884e-02" rms="4.5261490345001221e-01" purity="3.9626964926719666e-01" nType="0">
          <Node pos="l" depth="2" NCoef="0" IVar="-1" Cut="0.0000000000000000e+00" cType="1" res="-1.6238053794950247e-03" rms="4.2596080899238586e-01" purity="2.8962317109107971e-01" nType="-99"/>
          <Node pos="r" depth="2" NCoef="0" IVar="-1" Cut="0.0000000000000000e+00" cType="1" res="-2.0001619122922421e-04" rms="4.5799747109413147e-01" purity="4.2564547061920166e-01" nType="-99"/>
        </Node>
      </Node>
    </BinaryTree>
    <BinaryTree type="DecisionTree" boostWeight="1.0000000000000000e+00" itree="366">
      <Node pos="s" depth="0" NCoef="0" IVar="7" Cut="1.2105619907379150e-01" cType="1" res="2.2017341107130051e-02" rms="4.5722448825836182e-01" purity="5.0377744436264038e-01" nType="0">
        <Node pos="l" depth="1" NCoef="0" IVar="2" Cut="3.1156701660156250e+02" cType="1" res="3.7670876830816269e-02" rms="4.5763728022575378e-01" purity="5.2657580375671387e-01" nType="0">
          <Node pos="l" depth="2" NCoef="0" IVar="-1" Cut="0.0000000000000000e+00" cType="1" res="7.0324639091268182e-04" rms="4.5832002162933350e-01" purity="5.5437844991683960e-01" nType="-99"/>
          <Node pos="r" depth="2" NCoef="0" IVar="-1" Cut="0.0000000000000000e+00" cType="1" res="-1.0303425369784236e-03" rms="4.3900278210639954e-01" purity="3.8172850012779236e-01" nType="-99"/>
        </Node>
        <Node pos="r" depth="1" NCoef="0" IVar="1" Cut="8.8594585657119751e-01" cType="1" res="-8.0496490001678467e-02" rms="4.4098421931266785e-01" purity="3.5447254776954651e-01" nType="0">
          <Node pos="l" depth="2" NCoef="0" IVar="-1" Cut="0.0000000000000000e+00" cType="1" res="-3.5519001539796591e-04" rms="4.8552164435386658e-01" purity="5.0956410169601440e-01" nType="-99"/>
          <Node pos="r" depth="2" NCoef="0" IVar="-1" Cut="0.0000000000000000e+00" cType="1" res="-1.9833692349493504e-03" rms="4.0368121862411499e-01" purity="2.4790041148662567e-01" nType="-99"/>
        </Node>
      </Node>
    </BinaryTree>
    <BinaryTree type="DecisionTree" boostWeight="1.0000000000000000e+00" itree="367">
      <Node pos="s" depth="0" NCoef="0" IVar="1" Cut="1.1329823732376099e+00" cType="1" res="1.8369222059845924e-02" rms="4.5506063103675842e-01" purity="5.0721788406372070e-01" nType="0">
        <Node pos="l" depth="1" NCoef="0" IVar="2" Cut="2.3360116577148438e+02" cType="1" res="5.0539083778858185e-02" rms="4.6200960874557495e-01" purity="5.9746843576431274e-01" nType="0">
          <Node pos="l" depth="2" NCoef="0" IVar="-1" Cut="0.0000000000000000e+00" cType="1" res="1.7165196186397225e-04" rms="4.7458723187446594e-01" purity="5.3590983152389526e-01" nType="-99"/>
          <Node pos="r" depth="2" NCoef="0" IVar="-1" Cut="0.0000000000000000e+00" cType="1" res="1.4462717808783054e-03" rms="4.2478081583976746e-01" purity="7.2570985555648804e-01" nType="-99"/>
        </Node>
        <Node pos="r" depth="1" NCoef="0" IVar="5" Cut="1.0624973773956299e+00" cType="1" res="-5.3450223058462143e-02" rms="4.3056315183639526e-01" purity="3.0573305487632751e-01" nType="0">
          <Node pos="l" depth="2" NCoef="0" IVar="-1" Cut="0.0000000000000000e+00" cType="1" res="-4.4397002784535289e-04" rms="4.3930611014366150e-01" purity="3.3289694786071777e-01" nType="-99"/>
          <Node pos="r" depth="2" NCoef="0" IVar="-1" Cut="0.0000000000000000e+00" cType="1" res="-2.2308782208710909e-03" rms="3.9079007506370544e-01" purity="2.1802370250225067e-01" nType="-99"/>
        </Node>
      </Node>
    </BinaryTree>
    <BinaryTree type="DecisionTree" boostWeight="1.0000000000000000e+00" itree="368">
      <Node pos="s" depth="0" NCoef="0" IVar="0" Cut="6.5376625061035156e+00" cType="1" res="9.2431390658020973e-03" rms="4.5382937788963318e-01" purity="4.9785858392715454e-01" nType="0">
        <Node pos="l" depth="1" NCoef="0" IVar="6" Cut="4.2221286010742188e+02" cType="1" res="-4.3523892760276794e-02" rms="4.4593426585197449e-01" purity="3.2926419377326965e-01" nType="0">
          <Node pos="l" depth="2" NCoef="0" IVar="-1" Cut="0.0000000000000000e+00" cType="1" res="-1.6364307375624776e-03" rms="4.0942347049713135e-01" purity="2.2719925642013550e-01" nType="-99"/>
          <Node pos="r" depth="2" NCoef="0" IVar="-1" Cut="0.0000000000000000e+00" cType="1" res="1.5319803787861019e-04" rms="4.6927589178085327e-01" purity="4.2039513587951660e-01" nType="-99"/>
        </Node>
        <Node pos="r" depth="1" NCoef="0" IVar="6" Cut="5.2631091308593750e+02" cType="1" res="5.5536035448312759e-02" rms="4.5563963055610657e-01" purity="6.4576756954193115e-01" nType="0">
          <Node pos="l" depth="2" NCoef="0" IVar="-1" Cut="0.0000000000000000e+00" cType="1" res="3.2214965904131532e-04" rms="4.6849256753921509e-01" purity="5.9822976589202881e-01" nType="-99"/>
          <Node pos="r" depth="2" NCoef="0" IVar="-1" Cut="0.0000000000000000e+00" cType="1" res="1.2834273511543870e-03" rms="4.2683789134025574e-01" purity="7.3078340291976929e-01" nType="-99"/>
        </Node>
      </Node>
    </BinaryTree>
    <BinaryTree type="DecisionTree" boostWeight="1.0000000000000000e+00" itree="369">
      <Node pos="s" depth="0" NCoef="0" IVar="0" Cut="7.3921036720275879e+00" cType="1" res="-5.1092212088406086e-03" rms="4.4840452075004578e-01" purity="4.9103936553001404e-01" nType="0">
        <Node pos="l" depth="1" NCoef="0" IVar="0" Cut="5.3724150657653809e+00" cType="1" res="-3.8073547184467316e-02" rms="4.5211550593376160e-01" purity="3.8844332098960876e-01" nType="0">
          <Node pos="l" depth="2" NCoef="0" IVar="-1" Cut="0.0000000000000000e+00" cType="1" res="-1.9787510391324759e-03" rms="3.7461334466934204e-01" purity="1.8660394847393036e-01" nType="-99"/>
          <Node pos="r" depth="2" NCoef="0" IVar="-1" Cut="0.0000000000000000e+00" cType="1" res="-1.9909279944840819e-04" rms="4.6957010030746460e-01" purity="4.4625514745712280e-01" nType="-99"/>
        </Node>
        <Node pos="r" depth="1" NCoef="0" IVar="7" Cut="3.6584269255399704e-02" cType="1" res="6.3338518142700195e-02" rms="4.3265017867088318e-01" purity="7.0407164096832275e-01" nType="0">
          <Node pos="l" depth="2" NCoef="0" IVar="-1" Cut="0.0000000000000000e+00" cType="1" res="1.3336084084585309e-03" rms="4.0079069137573242e-01" purity="7.7756345272064209e-01" nType="-99"/>
          <Node pos="r" depth="2" NCoef="0" IVar="-1" Cut="0.0000000000000000e+00" cType="1" res="-4.6735291834920645e-04" rms="4.7472351789474487e-01" purity="5.5688863992691040e-01" nType="-99"/>
        </Node>
      </Node>
    </BinaryTree>
    <BinaryTree type="DecisionTree" boostWeight="1.0000000000000000e+00" itree="370">
      <Node pos="s" depth="0" NCoef="0" IVar="2" Cut="1.3741012573242188e+02" cType="1" res="6.9569898769259453e-03" rms="4.5673793554306030e-01" purity="4.9843326210975647e-01" nType="0">
        <Node pos="l" depth="1" NCoef="0" IVar="-1" Cut="0.0000000000000000e+00" cType="1" res="-2.0159336272627115e-03" rms="4.3525397777557373e-01" purity="3.3360147476196289e-01" nType="-99"/>
        <Node pos="r" depth="1" NCoef="0" IVar="1" Cut="1.5846358537673950e+00" cType="1" res="2.2366462275385857e-02" rms="4.5620092749595642e-01" purity="5.1572638750076294e-01" nType="0">
          <Node pos="l" depth="2" NCoef="0" IVar="-1" Cut="0.0000000000000000e+00" cType="1" res="4.6559525071643293e-04" rms="4.6451115608215332e-01" purity="5.5452513694763184e-01" nType="-99"/>
          <Node pos="r" depth="2" NCoef="0" IVar="-1" Cut="0.0000000000000000e+00" cType="1" res="-2.7430455666035414e-03" rms="3.2932227849960327e-01" purity="1.4084313809871674e-01" nType="-99"/>
        </Node>
      </Node>
    </BinaryTree>
    <BinaryTree type="DecisionTree" boostWeight="1.0000000000000000e+00" itree="371">
      <Node pos="s" depth="0" NCoef="0" IVar="0" Cut="5.8222131729125977e+00" cType="1" res="1.8441461026668549e-02" rms="4.5098876953125000e-01" purity="5.1033264398574829e-01" nType="0">
        <Node pos="l" depth="1" NCoef="0" IVar="4" Cut="9.9503628909587860e-02" cType="1" res="-6.6677212715148926e-02" rms="4.1919812560081482e-01" purity="2.7037984132766724e-01" nType="0">
          <Node pos="l" depth="2" NCoef="0" IVar="-1" Cut="0.0000000000000000e+00" cType="1" res="-1.5021187718957663e-03" rms="3.9279222488403320e-01" purity="2.2397920489311218e-01" nType="-99"/>
          <Node pos="r" depth="2" NCoef="0" IVar="-1" Cut="0.0000000000000000e+00" cType="1" res="7.0355250500142574e-05" rms="4.6763378381729126e-01" purity="3.7931197881698608e-01" nType="-99"/>
        </Node>
        <Node pos="r" depth="1" NCoef="0" IVar="3" Cut="1.0120814514160156e+02" cType="1" res="5.2054315805435181e-02" rms="4.5861119031906128e-01" purity="6.0508859157562256e-01" nType="0">
          <Node pos="l" depth="2" NCoef="0" IVar="-1" Cut="0.0000000000000000e+00" cType="1" res="3.7030834937468171e-04" rms="4.6362319588661194e-01" purity="5.7791262865066528e-01" nType="-99"/>
          <Node pos="r" depth="2" NCoef="0" IVar="-1" Cut="0.0000000000000000e+00" cType="1" res="1.2155328877270222e-03" rms="4.4192352890968323e-01" purity="6.7067277431488037e-01" nType="-99"/>
        </Node>
      </Node>
    </BinaryTree>
    <BinaryTree type="DecisionTree" boostWeight="1.0000000000000000e+00" itree="372">
      <Node pos="s" depth="0" NCoef="0" IVar="2" Cut="1.2994856262207031e+02" cType="1" res="8.8782142847776413e-03" rms="4.5598039031028748e-01" purity="4.9658411741256714e-01" nType="0">
        <Node pos="l" depth="1" NCoef="0" IVar="-1" Cut="0.0000000000000000e+00" cType="1" res="-1.8309674924239516e-03" rms="4.4144713878631592e-01" purity="3.3611553907394409e-01" nType="-99"/>
        <Node pos="r" depth="1" NCoef="0" IVar="1" Cut="7.3353457450866699e-01" cType="1" res="1.9894551485776901e-02" rms="4.5526087284088135e-01" purity="5.0912147760391235e-01" nType="0">
          <Node pos="l" depth="2" NCoef="0" IVar="-1" Cut="0.0000000000000000e+00" cType="1" res="9.5741736004129052e-04" rms="4.5154574513435364e-01" purity="6.4624315500259399e-01" nType="-99"/>
          <Node pos="r" depth="2" NCoef="0" IVar="-1" Cut="0.0000000000000000e+00" cType="1" res="-1.0480464698048308e-04" rms="4.5416238903999329e-01" purity="4.4821566343307495e-01" nType="-99"/>
        </Node>
      </Node>
    </BinaryTree>
    <BinaryTree type="DecisionTree" boostWeight="1.0000000000000000e+00" itree="373">
      <Node pos="s" depth="0" NCoef="0" IVar="0" Cut="8.4876050949096680e+00" cType="1" res="1.2538623996078968e-02" rms="4.5562887191772461e-01" purity="5.0333750247955322e-01" nType="0">
        <Node pos="l" depth="1" NCoef="0" IVar="6" Cut="3.3407769775390625e+02" cType="1" res="-3.3279291819781065e-03" rms="4.6096527576446533e-01" purity="4.6408563852310181e-01" nType="0">
          <Node pos="l" depth="2" NCoef="0" IVar="-1" Cut="0.0000000000000000e+00" cType="1" res="-1.8161556217819452e-03" rms="4.1368636488914490e-01" purity="2.4341900646686554e-01" nType="-99"/>
          <Node pos="r" depth="2" NCoef="0" IVar="-1" Cut="0.0000000000000000e+00" cType="1" res="1.5913115930743515e-04" rms="4.6489679813385010e-01" purity="4.9457779526710510e-01" nType="-99"/>
        </Node>
        <Node pos="r" depth="1" NCoef="0" IVar="3" Cut="8.0051116943359375e+01" cType="1" res="1.2732928991317749e-01" rms="3.9649942517280579e-01" purity="7.8731477260589600e-01" nType="0">
          <Node pos="l" depth="2" NCoef="0" IVar="-1" Cut="0.0000000000000000e+00" cType="1" res="1.0954817989841104e-03" rms="4.2455768585205078e-01" purity="7.4947285652160645e-01" nType="-99"/>
          <Node pos="r" depth="2" NCoef="0" IVar="-1" Cut="0.0000000000000000e+00" cType="1" res="1.9491233397275209e-03" rms="3.6428633332252502e-01" purity="8.2358032464981079e-01" nType="-99"/>
        </Node>
      </Node>
    </BinaryTree>
    <BinaryTree type="DecisionTree" boostWeight="1.0000000000000000e+00" itree="374">
      <Node pos="s" depth="0" NCoef="0" IVar="6" Cut="4.0420034790039062e+02" cType="1" res="3.7542874924838543e-03" rms="4.5795309543609619e-01" purity="4.9501621723175049e-01" nType="0">
        <Node pos="l" depth="1" NCoef="0" IVar="6" Cut="3.2943444824218750e+02" cType="1" res="-6.4896255731582642e-02" rms="4.4986382126808167e-01" purity="3.6619403958320618e-01" nType="0">
          <Node pos="l" depth="2" NCoef="0" IVar="-1" Cut="0.0000000000000000e+00" cType="1" res="-2.0507690496742725e-03" rms="4.1547840833663940e-01" purity="2.4312847852706909e-01" nType="-99"/>
          <Node pos="r" depth="2" NCoef="0" IVar="-1" Cut="0.0000000000000000e+00" cType="1" res="-5.3358112927526236e-04" rms="4.5956435799598694e-01" purity="4.1214460134506226e-01" nType="-99"/>
        </Node>
        <Node pos="r" depth="1" NCoef="0" IVar="1" Cut="1.3020579814910889e+00" cType="1" res="3.8857158273458481e-02" rms="4.5807638764381409e-01" purity="5.6088650226593018e-01" nType="0">
          <Node pos="l" depth="2" NCoef="0" IVar="-1" Cut="0.0000000000000000e+00" cType="1" res="7.5615907553583384e-04" rms="4.6216398477554321e-01" purity="6.2660276889801025e-01" nType="-99"/>
          <Node pos="r" depth="2" NCoef="0" IVar="-1" Cut="0.0000000000000000e+00" cType="1" res="-1.2063996400684118e-03" rms="4.2164704203605652e-01" purity="2.7070257067680359e-01" nType="-99"/>
        </Node>
      </Node>
    </BinaryTree>
    <BinaryTree type="DecisionTree" boostWeight="1.0000000000000000e+00" itree="375">
      <Node pos="s" depth="0" NCoef="0" IVar="1" Cut="1.4959722757339478e+00" cType="1" res="2.9512096196413040e-02" rms="4.5670771598815918e-01" purity="5.1695954799652100e-01" nType="0">
        <Node pos="l" depth="1" NCoef="0" IVar="0" Cut="5.8222131729125977e+00" cType="1" res="4.4003985822200775e-02" rms="4.6252238750457764e-01" purity="5.5970120429992676e-01" nType="0">
          <Node pos="l" depth="2" NCoef="0" IVar="-1" Cut="0.0000000000000000e+00" cType="1" res="-3.3886489109136164e-04" rms="4.5832771062850952e-01" purity="3.2813784480094910e-01" nType="-99"/>
          <Node pos="r" depth="2" NCoef="0" IVar="-1" Cut="0.0000000000000000e+00" cType="1" res="8.1318320007994771e-04" rms="4.6146759390830994e-01" purity="6.4773321151733398e-01" nType="-99"/>
        </Node>
        <Node pos="r" depth="1" NCoef="0" IVar="2" Cut="3.2256570434570312e+02" cType="1" res="-7.7133141458034515e-02" rms="3.9538502693176270e-01" purity="2.0242491364479065e-01" nType="0">
          <Node pos="l" depth="2" NCoef="0" IVar="-1" Cut="0.0000000000000000e+00" cType="1" res="-2.0958416280336678e-04" rms="4.3620112538337708e-01" purity="2.7036759257316589e-01" nType="-99"/>
          <Node pos="r" depth="2" NCoef="0" IVar="-1" Cut="0.0000000000000000e+00" cType="1" res="-3.2416200265288353e-03" rms="3.2882490754127502e-01" purity="1.2624582648277283e-01" nType="-99"/>
        </Node>
      </Node>
    </BinaryTree>
    <BinaryTree type="DecisionTree" boostWeight="1.0000000000000000e+00" itree="376">
      <Node pos="s" depth="0" NCoef="0" IVar="0" Cut="5.7942237854003906e+00" cType="1" res="1.4041183516383171e-02" rms="4.5308479666709900e-01" purity="5.0609976053237915e-01" nType="0">
        <Node pos="l" depth="1" NCoef="0" IVar="5" Cut="5.8576309680938721e-01" cType="1" res="-8.1084683537483215e-02" rms="4.1821712255477905e-01" purity="2.5789994001388550e-01" nType="0">
          <Node pos="l" depth="2" NCoef="0" IVar="-1" Cut="0.0000000000000000e+00" cType="1" res="-2.3176413960754871e-03" rms="3.9151927828788757e-01" purity="2.1240538358688354e-01" nType="-99"/>
          <Node pos="r" depth="2" NCoef="0" IVar="-1" Cut="0.0000000000000000e+00" cType="1" res="-5.2324053831398487e-04" rms="4.2851385474205017e-01" purity="2.8807222843170166e-01" nType="-99"/>
        </Node>
        <Node pos="r" depth="1" NCoef="0" IVar="3" Cut="7.1827445983886719e+01" cType="1" res="4.8367690294981003e-02" rms="4.6022278070449829e-01" purity="5.9566354751586914e-01" nType="0">
          <Node pos="l" depth="2" NCoef="0" IVar="-1" Cut="0.0000000000000000e+00" cType="1" res="7.4817639870161656e-06" rms="4.6979102492332458e-01" purity="5.3900617361068726e-01" nType="-99"/>
          <Node pos="r" depth="2" NCoef="0" IVar="-1" Cut="0.0000000000000000e+00" cType="1" res="1.0120774386450648e-03" rms="4.4929561018943787e-01" purity="6.3920176029205322e-01" nType="-99"/>
        </Node>
      </Node>
    </BinaryTree>
    <BinaryTree type="DecisionTree" boostWeight="1.0000000000000000e+00" itree="377">
      <Node pos="s" depth="0" NCoef="0" IVar="0" Cut="6.5229220390319824e+00" cType="1" res="1.8432028591632843e-02" rms="4.4691503047943115e-01" purity="5.1924228668212891e-01" nType="0">
        <Node pos="l" depth="1" NCoef="0" IVar="6" Cut="6.1456829833984375e+02" cType="1" res="-4.6103727072477341e-02" rms="4.4535496830940247e-01" purity="3.2667538523674011e-01" nType="0">
          <Node pos="l" depth="2" NCoef="0" IVar="-1" Cut="0.0000000000000000e+00" cType="1" res="-1.0245571611449122e-03" rms="4.3538096547126770e-01" purity="2.8917339444160461e-01" nType="-99"/>
          <Node pos="r" depth="2" NCoef="0" IVar="-1" Cut="0.0000000000000000e+00" cType="1" res="1.0419813916087151e-03" rms="4.7362345457077026e-01" purity="5.2321165800094604e-01" nType="-99"/>
        </Node>
        <Node pos="r" depth="1" NCoef="0" IVar="0" Cut="8.0213775634765625e+00" cType="1" res="6.8363592028617859e-02" rms="4.4169506430625916e-01" purity="6.6823202371597290e-01" nType="0">
          <Node pos="l" depth="2" NCoef="0" IVar="-1" Cut="0.0000000000000000e+00" cType="1" res="4.2629856034182012e-04" rms="4.5913097262382507e-01" purity="6.0600244998931885e-01" nType="-99"/>
          <Node pos="r" depth="2" NCoef="0" IVar="-1" Cut="0.0000000000000000e+00" cType="1" res="1.4131403295323253e-03" rms="4.0497431159019470e-01" purity="7.7245402336120605e-01" nType="-99"/>
        </Node>
      </Node>
    </BinaryTree>
    <BinaryTree type="DecisionTree" boostWeight="1.0000000000000000e+00" itree="378">
      <Node pos="s" depth="0" NCoef="0" IVar="6" Cut="3.4578555297851562e+02" cType="1" res="9.0022459626197815e-03" rms="4.5157331228256226e-01" purity="5.0316160917282104e-01" nType="0">
        <Node pos="l" depth="1" NCoef="0" IVar="6" Cut="3.0483447265625000e+02" cType="1" res="-1.2101638317108154e-01" rms="3.9372858405113220e-01" purity="2.7322828769683838e-01" nType="0">
          <Node pos="l" depth="2" NCoef="0" IVar="-1" Cut="0.0000000000000000e+00" cType="1" res="-3.6762470845133066e-03" rms="3.2692149281501770e-01" purity="1.3613304495811462e-01" nType="-99"/>
          <Node pos="r" depth="2" NCoef="0" IVar="-1" Cut="0.0000000000000000e+00" cType="1" res="-9.3506142729893327e-04" rms="4.1754543781280518e-01" purity="3.5120460391044617e-01" nType="-99"/>
        </Node>
        <Node pos="r" depth="1" NCoef="0" IVar="1" Cut="1.6078547239303589e+00" cType="1" res="2.9744634404778481e-02" rms="4.5671862363815308e-01" purity="5.3984373807907104e-01" nType="0">
          <Node pos="l" depth="2" NCoef="0" IVar="-1" Cut="0.0000000000000000e+00" cType="1" res="5.0357193686068058e-04" rms="4.6267381310462952e-01" purity="5.7083743810653687e-01" nType="-99"/>
          <Node pos="r" depth="2" NCoef="0" IVar="-1" Cut="0.0000000000000000e+00" cType="1" res="-2.5659936945885420e-03" rms="3.3895659446716309e-01" purity="1.4682601392269135e-01" nType="-99"/>
        </Node>
      </Node>
    </BinaryTree>
    <BinaryTree type="DecisionTree" boostWeight="1.0000000000000000e+00" itree="379">
      <Node pos="s" depth="0" NCoef="0" IVar="0" Cut="6.5422582626342773e+00" cType="1" res="5.1556476391851902e-03" rms="4.5064935088157654e-01" purity="4.9952068924903870e-01" nType="0">
        <Node pos="l" depth="1" NCoef="0" IVar="4" Cut="-1.0211832076311111e-01" cType="1" res="-4.3245986104011536e-02" rms="4.4722673296928406e-01" purity="3.3069863915443420e-01" nType="0">
          <Node pos="l" depth="2" NCoef="0" IVar="-1" Cut="0.0000000000000000e+00" cType="1" res="-2.8168510179966688e-03" rms="3.5284128785133362e-01" purity="1.6689738631248474e-01" nType="-99"/>
          <Node pos="r" depth="2" NCoef="0" IVar="-1" Cut="0.0000000000000000e+00" cType="1" res="-2.9401542269624770e-04" rms="4.5839500427246094e-01" purity="3.5919439792633057e-01" nType="-99"/>
        </Node>
        <Node pos="r" depth="1" NCoef="0" IVar="3" Cut="1.0120814514160156e+02" cType="1" res="4.6746235340833664e-02" rms="4.4942483305931091e-01" purity="6.4458614587783813e-01" nType="0">
          <Node pos="l" depth="2" NCoef="0" IVar="-1" Cut="0.0000000000000000e+00" cType="1" res="1.6821103054098785e-04" rms="4.5953702926635742e-01" purity="6.0715508460998535e-01" nType="-99"/>
          <Node pos="r" depth="2" NCoef="0" IVar="-1" Cut="0.0000000000000000e+00" cType="1" res="1.5033469535410404e-03" rms="4.1389033198356628e-01" purity="7.3368513584136963e-01" nType="-99"/>
        </Node>
      </Node>
    </BinaryTree>
    <BinaryTree type="DecisionTree" boostWeight="1.0000000000000000e+00" itree="380">
      <Node pos="s" depth="0" NCoef="0" IVar="0" Cut="5.8133692741394043e+00" cType="1" res="3.4319405676797032e-04" rms="4.4903385639190674e-01" purity="4.8861378431320190e-01" nType="0">
        <Node pos="l" depth="1" NCoef="0" IVar="4" Cut="1.1906430870294571e-01" cType="1" res="-7.9074472188949585e-02" rms="4.1932672262191772e-01" purity="2.5219714641571045e-01" nType="0">
          <Node pos="l" depth="2" NCoef="0" IVar="-1" Cut="0.0000000000000000e+00" cType="1" res="-8.8977493578568101e-04" rms="4.1892594099044800e-01" purity="2.6302874088287354e-01" nType="-99"/>
          <Node pos="r" depth="2" NCoef="0" IVar="-1" Cut="0.0000000000000000e+00" cType="1" res="-2.0948161836713552e-03" rms="4.1501834988594055e-01" purity="2.2313797473907471e-01" nType="-99"/>
        </Node>
        <Node pos="r" depth="1" NCoef="0" IVar="1" Cut="1.0413683652877808e+00" cType="1" res="3.1125508248806000e-02" rms="4.5633092522621155e-01" purity="5.8024889230728149e-01" nType="0">
          <Node pos="l" depth="2" NCoef="0" IVar="-1" Cut="0.0000000000000000e+00" cType="1" res="8.5275911260396242e-04" rms="4.4864672422409058e-01" purity="6.8150269985198975e-01" nType="-99"/>
          <Node pos="r" depth="2" NCoef="0" IVar="-1" Cut="0.0000000000000000e+00" cType="1" res="-6.5937731415033340e-04" rms="4.5927417278289795e-01" purity="4.0029233694076538e-01" nType="-99"/>
        </Node>
      </Node>
    </BinaryTree>
    <BinaryTree type="DecisionTree" boostWeight="1.0000000000000000e+00" itree="381">
      <Node pos="s" depth="0" NCoef="0" IVar="2" Cut="1.9363096618652344e+02" cType="1" res="5.1101581193506718e-03" rms="4.4878098368644714e-01" purity="5.0074535608291626e-01" nType="0">
        <Node pos="l" depth="1" NCoef="0" IVar="4" Cut="2.0999260246753693e-01" cType="1" res="-6.5920062363147736e-02" rms="4.5927459001541138e-01" purity="4.1011491417884827e-01" nType="0">
          <Node pos="l" depth="2" NCoef="0" IVar="-1" Cut="0.0000000000000000e+00" cType="1" res="-1.2704180553555489e-03" rms="4.5485419034957886e-01" purity="3.7279143929481506e-01" nType="-99"/>
          <Node pos="r" depth="2" NCoef="0" IVar="-1" Cut="0.0000000000000000e+00" cType="1" res="1.1670878157019615e-03" rms="4.4792976975440979e-01" purity="6.1776828765869141e-01" nType="-99"/>
        </Node>
        <Node pos="r" depth="1" NCoef="0" IVar="1" Cut="1.1808297634124756e+00" cType="1" res="5.4061107337474823e-02" rms="4.3470028042793274e-01" purity="5.6320387125015259e-01" nType="0">
          <Node pos="l" depth="2" NCoef="0" IVar="-1" Cut="0.0000000000000000e+00" cType="1" res="1.2380547123029828e-03" rms="4.2906093597412109e-01" purity="6.9990932941436768e-01" nType="-99"/>
          <Node pos="r" depth="2" NCoef="0" IVar="-1" Cut="0.0000000000000000e+00" cType="1" res="-6.1391427880153060e-04" rms="4.2869022488594055e-01" purity="3.2587471604347229e-01" nType="-99"/>
        </Node>
      </Node>
    </BinaryTree>
    <BinaryTree type="DecisionTree" boostWeight="1.0000000000000000e+00" itree="382">
      <Node pos="s" depth="0" NCoef="0" IVar="6" Cut="3.1702828979492188e+02" cType="1" res="3.9022034034132957e-03" rms="4.5464369654655457e-01" purity="4.9535664916038513e-01" nType="0">
        <Node pos="l" depth="1" NCoef="0" IVar="-1" Cut="0.0000000000000000e+00" cType="1" res="-2.4498030543327332e-03" rms="3.8434690237045288e-01" purity="2.2753781080245972e-01" nType="-99"/>
        <Node pos="r" depth="1" NCoef="0" IVar="1" Cut="1.6789146661758423e+00" cType="1" res="1.7090978100895882e-02" rms="4.5752927660942078e-01" purity="5.1760661602020264e-01" nType="0">
          <Node pos="l" depth="2" NCoef="0" IVar="-1" Cut="0.0000000000000000e+00" cType="1" res="3.3570834784768522e-04" rms="4.6376308798789978e-01" purity="5.4408633708953857e-01" nType="-99"/>
          <Node pos="r" depth="2" NCoef="0" IVar="-1" Cut="0.0000000000000000e+00" cType="1" res="-2.7433873619884253e-03" rms="3.2102790474891663e-01" purity="1.3299550116062164e-01" nType="-99"/>
        </Node>
      </Node>
    </BinaryTree>
    <BinaryTree type="DecisionTree" boostWeight="1.0000000000000000e+00" itree="383">
      <Node pos="s" depth="0" NCoef="0" IVar="1" Cut="1.0530666112899780e+00" cType="1" res="2.9610557481646538e-02" rms="4.5686998963356018e-01" purity="5.2077764272689819e-01" nType="0">
        <Node pos="l" depth="1" NCoef="0" IVar="2" Cut="1.8093421936035156e+02" cType="1" res="6.0408618301153183e-02" rms="4.5387446880340576e-01" purity="6.1277788877487183e-01" nType="0">
          <Node pos="l" depth="2" NCoef="0" IVar="-1" Cut="0.0000000000000000e+00" cType="1" res="2.6481968689040514e-06" rms="4.6229493618011475e-01" purity="5.0586640834808350e-01" nType="-99"/>
          <Node pos="r" depth="2" NCoef="0" IVar="-1" Cut="0.0000000000000000e+00" cType="1" res="1.2082511093467474e-03" rms="4.4200176000595093e-01" purity="6.9357484579086304e-01" nType="-99"/>
        </Node>
        <Node pos="r" depth="1" NCoef="0" IVar="3" Cut="8.0125000000000000e+01" cType="1" res="-2.4742949753999710e-02" rms="4.5707398653030396e-01" purity="3.5841238498687744e-01" nType="0">
          <Node pos="l" depth="2" NCoef="0" IVar="-1" Cut="0.0000000000000000e+00" cType="1" res="-1.3844465138390660e-03" rms="4.3165221810340881e-01" purity="2.7971252799034119e-01" nType="-99"/>
          <Node pos="r" depth="2" NCoef="0" IVar="-1" Cut="0.0000000000000000e+00" cType="1" res="5.2003626478835940e-04" rms="4.7382199764251709e-01" purity="4.3957728147506714e-01" nType="-99"/>
        </Node>
      </Node>
    </BinaryTree>
    <BinaryTree type="DecisionTree" boostWeight="1.0000000000000000e+00" itree="384">
      <Node pos="s" depth="0" NCoef="0" IVar="1" Cut="9.6942704916000366e-01" cType="1" res="2.2094543091952801e-03" rms="4.4875115156173706e-01" purity="4.8677715659141541e-01" nType="0">
        <Node pos="l" depth="1" NCoef="0" IVar="2" Cut="2.2703923034667969e+02" cType="1" res="4.3343987315893173e-02" rms="4.5326372981071472e-01" purity="5.9530788660049438e-01" nType="0">
          <Node pos="l" depth="2" NCoef="0" IVar="-1" Cut="0.0000000000000000e+00" cType="1" res="6.3927102019079030e-05" rms="4.6839717030525208e-01" purity="5.2319383621215820e-01" nType="-99"/>
          <Node pos="r" depth="2" NCoef="0" IVar="-1" Cut="0.0000000000000000e+00" cType="1" res="1.5378072857856750e-03" rms="4.0102025866508484e-01" purity="7.6641726493835449e-01" nType="-99"/>
        </Node>
        <Node pos="r" depth="1" NCoef="0" IVar="0" Cut="7.4054164886474609e+00" cType="1" res="-4.6880453824996948e-02" rms="4.3828174471855164e-01" purity="3.5725674033164978e-01" nType="0">
          <Node pos="l" depth="2" NCoef="0" IVar="-1" Cut="0.0000000000000000e+00" cType="1" res="-1.1713331332430243e-03" rms="4.2232468724250793e-01" purity="2.7304857969284058e-01" nType="-99"/>
          <Node pos="r" depth="2" NCoef="0" IVar="-1" Cut="0.0000000000000000e+00" cType="1" res="3.1080524786375463e-04" rms="4.7050142288208008e-01" purity="5.8074808120727539e-01" nType="-99"/>
        </Node>
      </Node>
    </BinaryTree>
    <BinaryTree type="DecisionTree" boostWeight="1.0000000000000000e+00" itree="385">
      <Node pos="s" depth="0" NCoef="0" IVar="0" Cut="8.2612848281860352e+00" cType="1" res="-7.8987339511513710e-03" rms="4.4960844516754150e-01" purity="4.8680168390274048e-01" nType="0">
        <Node pos="l" depth="1" NCoef="0" IVar="2" Cut="2.0362554931640625e+02" cType="1" res="-2.8574705123901367e-02" rms="4.5359116792678833e-01" purity="4.3281194567680359e-01" nType="0">
          <Node pos="l" depth="2" NCoef="0" IVar="-1" Cut="0.0000000000000000e+00" cType="1" res="-1.0142050450667739e-03" rms="4.5838356018066406e-01" purity="3.7671539187431335e-01" nType="-99"/>
          <Node pos="r" depth="2" NCoef="0" IVar="-1" Cut="0.0000000000000000e+00" cType="1" res="1.5924157924018800e-04" rms="4.4554281234741211e-01" purity="4.8020052909851074e-01" nType="-99"/>
        </Node>
        <Node pos="r" depth="1" NCoef="0" IVar="5" Cut="5.3363782167434692e-01" cType="1" res="9.8175071179866791e-02" rms="4.1261160373687744e-01" purity="7.6378488540649414e-01" nType="0">
          <Node pos="l" depth="2" NCoef="0" IVar="-1" Cut="0.0000000000000000e+00" cType="1" res="1.7506194999441504e-03" rms="3.6772143840789795e-01" purity="8.3699440956115723e-01" nType="-99"/>
          <Node pos="r" depth="2" NCoef="0" IVar="-1" Cut="0.0000000000000000e+00" cType="1" res="6.9615984102711082e-04" rms="4.4308009743690491e-01" purity="7.0135736465454102e-01" nType="-99"/>
        </Node>
      </Node>
    </BinaryTree>
    <BinaryTree type="DecisionTree" boostWeight="1.0000000000000000e+00" itree="386">
      <Node pos="s" depth="0" NCoef="0" IVar="1" Cut="6.9460582733154297e-01" cType="1" res="-2.1309789735823870e-03" rms="4.5153275132179260e-01" purity="4.8792684078216553e-01" nType="0">
        <Node pos="l" depth="1" NCoef="0" IVar="2" Cut="1.8471292114257812e+02" cType="1" res="6.8678379058837891e-02" rms="4.4793719053268433e-01" purity="6.2786072492599487e-01" nType="0">
          <Node pos="l" depth="2" NCoef="0" IVar="-1" Cut="0.0000000000000000e+00" cType="1" res="-6.2697836256120354e-05" rms="4.6705397963523865e-01" purity="5.0533783435821533e-01" nType="-99"/>
          <Node pos="r" depth="2" NCoef="0" IVar="-1" Cut="0.0000000000000000e+00" cType="1" res="1.6381648601964116e-03" rms="4.1372317075729370e-01" purity="7.5433766841888428e-01" nType="-99"/>
        </Node>
        <Node pos="r" depth="1" NCoef="0" IVar="3" Cut="9.8502647399902344e+01" cType="1" res="-3.2588873058557510e-02" rms="4.4965383410453796e-01" purity="4.2773583531379700e-01" nType="0">
          <Node pos="l" depth="2" NCoef="0" IVar="-1" Cut="0.0000000000000000e+00" cType="1" res="-9.3565188581123948e-04" rms="4.4826903939247131e-01" purity="3.7902963161468506e-01" nType="-99"/>
          <Node pos="r" depth="2" NCoef="0" IVar="-1" Cut="0.0000000000000000e+00" cType="1" res="6.1140325851738453e-04" rms="4.4286194443702698e-01" purity="5.4007917642593384e-01" nType="-99"/>
        </Node>
      </Node>
    </BinaryTree>
    <BinaryTree type="DecisionTree" boostWeight="1.0000000000000000e+00" itree="387">
      <Node pos="s" depth="0" NCoef="0" IVar="1" Cut="7.2925454378128052e-01" cType="1" res="1.5009677968919277e-02" rms="4.5299604535102844e-01" purity="5.0699001550674438e-01" nType="0">
        <Node pos="l" depth="1" NCoef="0" IVar="4" Cut="2.7698852121829987e-02" cType="1" res="8.4429010748863220e-02" rms="4.5410114526748657e-01" purity="6.4021152257919312e-01" nType="0">
          <Node pos="l" depth="2" NCoef="0" IVar="-1" Cut="0.0000000000000000e+00" cType="1" res="4.2426210711710155e-04" rms="4.6604990959167480e-01" purity="5.9274697303771973e-01" nType="-99"/>
          <Node pos="r" depth="2" NCoef="0" IVar="-1" Cut="0.0000000000000000e+00" cType="1" res="1.4200606383383274e-03" rms="4.4044733047485352e-01" purity="6.7831581830978394e-01" nType="-99"/>
        </Node>
        <Node pos="r" depth="1" NCoef="0" IVar="0" Cut="8.5056161880493164e+00" cType="1" res="-1.8178399652242661e-02" rms="4.4868788123130798e-01" purity="4.4329932332038879e-01" nType="0">
          <Node pos="l" depth="2" NCoef="0" IVar="-1" Cut="0.0000000000000000e+00" cType="1" res="-5.2836863324046135e-04" rms="4.5103454589843750e-01" purity="4.0023282170295715e-01" nType="-99"/>
          <Node pos="r" depth="2" NCoef="0" IVar="-1" Cut="0.0000000000000000e+00" cType="1" res="1.5179151669144630e-03" rms="4.0075057744979858e-01" purity="7.6279270648956299e-01" nType="-99"/>
        </Node>
      </Node>
    </BinaryTree>
    <BinaryTree type="DecisionTree" boostWeight="1.0000000000000000e+00" itree="388">
      <Node pos="s" depth="0" NCoef="0" IVar="0" Cut="7.7354307174682617e+00" cType="1" res="7.2819050401449203e-03" rms="4.5039781928062439e-01" purity="4.9886491894721985e-01" nType="0">
        <Node pos="l" depth="1" NCoef="0" IVar="1" Cut="9.9369293451309204e-01" cType="1" res="-1.7458489164710045e-02" rms="4.5729184150695801e-01" purity="4.2267724871635437e-01" nType="0">
          <Node pos="l" depth="2" NCoef="0" IVar="-1" Cut="0.0000000000000000e+00" cType="1" res="2.1905585890635848e-04" rms="4.6913909912109375e-01" purity="5.2227592468261719e-01" nType="-99"/>
          <Node pos="r" depth="2" NCoef="0" IVar="-1" Cut="0.0000000000000000e+00" cType="1" res="-1.0333680547773838e-03" rms="4.3656679987907410e-01" purity="2.9050999879837036e-01" nType="-99"/>
        </Node>
        <Node pos="r" depth="1" NCoef="0" IVar="7" Cut="8.8010899722576141e-02" cType="1" res="8.1748098134994507e-02" rms="4.2028051614761353e-01" purity="7.2818249464035034e-01" nType="0">
          <Node pos="l" depth="2" NCoef="0" IVar="-1" Cut="0.0000000000000000e+00" cType="1" res="1.3430359540507197e-03" rms="4.0222376585006714e-01" purity="7.7876758575439453e-01" nType="-99"/>
          <Node pos="r" depth="2" NCoef="0" IVar="-1" Cut="0.0000000000000000e+00" cType="1" res="-4.3821611325256526e-04" rms="4.5968669652938843e-01" purity="5.5280697345733643e-01" nType="-99"/>
        </Node>
      </Node>
    </BinaryTree>
    <BinaryTree type="DecisionTree" boostWeight="1.0000000000000000e+00" itree="389">
      <Node pos="s" depth="0" NCoef="0" IVar="3" Cut="1.0454970550537109e+02" cType="1" res="3.7024186458438635e-03" rms="4.5643237233161926e-01" purity="4.9618887901306152e-01" nType="0">
        <Node pos="l" depth="1" NCoef="0" IVar="4" Cut="1.2012912333011627e-01" cType="1" res="-2.0559847354888916e-02" rms="4.5693394541740417e-01" purity="4.6154701709747314e-01" nType="0">
          <Node pos="l" depth="2" NCoef="0" IVar="-1" Cut="0.0000000000000000e+00" cType="1" res="-5.8802438434213400e-04" rms="4.5152041316032410e-01" purity="4.2607110738754272e-01" nType="-99"/>
          <Node pos="r" depth="2" NCoef="0" IVar="-1" Cut="0.0000000000000000e+00" cType="1" res="5.3149316227063537e-04" rms="4.6559977531433105e-01" purity="5.5920320749282837e-01" nType="-99"/>
        </Node>
        <Node pos="r" depth="1" NCoef="0" IVar="0" Cut="5.8494429588317871e+00" cType="1" res="7.3202110826969147e-02" rms="4.4777435064315796e-01" purity="5.9542119503021240e-01" nType="0">
          <Node pos="l" depth="2" NCoef="0" IVar="-1" Cut="0.0000000000000000e+00" cType="1" res="-3.8301470340229571e-04" rms="4.5132541656494141e-01" purity="3.3781227469444275e-01" nType="-99"/>
          <Node pos="r" depth="2" NCoef="0" IVar="-1" Cut="0.0000000000000000e+00" cType="1" res="1.2115157442167401e-03" rms="4.4259893894195557e-01" purity="6.7072623968124390e-01" nType="-99"/>
        </Node>
      </Node>
    </BinaryTree>
    <BinaryTree type="DecisionTree" boostWeight="1.0000000000000000e+00" itree="390">
      <Node pos="s" depth="0" NCoef="0" IVar="2" Cut="1.6436091613769531e+02" cType="1" res="1.3312479481101036e-02" rms="4.5818561315536499e-01" purity="5.0429469347000122e-01" nType="0">
        <Node pos="l" depth="1" NCoef="0" IVar="3" Cut="5.1922710418701172e+01" cType="1" res="-6.2024731189012527e-02" rms="4.6312955021858215e-01" purity="4.1067603230476379e-01" nType="0">
          <Node pos="l" depth="2" NCoef="0" IVar="-1" Cut="0.0000000000000000e+00" cType="1" res="2.9499999527615728e-06" rms="4.6209850907325745e-01" purity="4.6610403060913086e-01" nType="-99"/>
          <Node pos="r" depth="2" NCoef="0" IVar="-1" Cut="0.0000000000000000e+00" cType="1" res="-1.8486271146684885e-03" rms="4.5309591293334961e-01" purity="3.4367388486862183e-01" nType="-99"/>
        </Node>
        <Node pos="r" depth="1" NCoef="0" IVar="2" Cut="4.1493930053710938e+02" cType="1" res="3.5456184297800064e-02" rms="4.5435300469398499e-01" purity="5.3181183338165283e-01" nType="0">
          <Node pos="l" depth="2" NCoef="0" IVar="-1" Cut="0.0000000000000000e+00" cType="1" res="5.9620087267830968e-04" rms="4.5822647213935852e-01" purity="5.5335026979446411e-01" nType="-99"/>
          <Node pos="r" depth="2" NCoef="0" IVar="-1" Cut="0.0000000000000000e+00" cType="1" res="-1.6238229582086205e-03" rms="3.8929662108421326e-01" purity="3.1239655613899231e-01" nType="-99"/>
        </Node>
      </Node>
    </BinaryTree>
    <BinaryTree type="DecisionTree" boostWeight="1.0000000000000000e+00" itree="391">
      <Node pos="s" depth="0" NCoef="0" IVar="7" Cut="-1.2429955415427685e-02" cType="1" res="1.3374801725149155e-02" rms="4.5678389072418213e-01" purity="5.0077617168426514e-01" nType="0">
        <Node pos="l" depth="1" NCoef="0" IVar="1" Cut="1.0285247564315796e+00" cType="1" res="6.5477430820465088e-02" rms="4.4999703764915466e-01" purity="5.8478689193725586e-01" nType="0">
          <Node pos="l" depth="2" NCoef="0" IVar="-1" Cut="0.0000000000000000e+00" cType="1" res="1.3067295076325536e-03" rms="4.3565285205841064e-01" purity="6.7080783843994141e-01" nType="-99"/>
          <Node pos="r" depth="2" NCoef="0" IVar="-1" Cut="0.0000000000000000e+00" cType="1" res="-7.5033138273283839e-04" rms="4.6101766824722290e-01" purity="3.8158372044563293e-01" nType="-99"/>
        </Node>
        <Node pos="r" depth="1" NCoef="0" IVar="4" Cut="-1.9464267417788506e-02" cType="1" res="-2.2308640182018280e-02" rms="4.5796701312065125e-01" purity="4.4323989748954773e-01" nType="0">
          <Node pos="l" depth="2" NCoef="0" IVar="-1" Cut="0.0000000000000000e+00" cType="1" res="-9.7783701494336128e-04" rms="4.4155809283256531e-01" purity="3.6989125609397888e-01" nType="-99"/>
          <Node pos="r" depth="2" NCoef="0" IVar="-1" Cut="0.0000000000000000e+00" cType="1" res="1.6466934175696224e-04" rms="4.6761208772659302e-01" purity="5.0139474868774414e-01" nType="-99"/>
        </Node>
      </Node>
    </BinaryTree>
    <BinaryTree type="DecisionTree" boostWeight="1.0000000000000000e+00" itree="392">
      <Node pos="s" depth="0" NCoef="0" IVar="3" Cut="9.2951118469238281e+01" cType="1" res="9.0789031237363815e-03" rms="4.6113139390945435e-01" purity="4.8853778839111328e-01" nType="0">
        <Node pos="l" depth="1" NCoef="0" IVar="2" Cut="2.8847122192382812e+02" cType="1" res="-1.9022680819034576e-02" rms="4.6104189753532410e-01" purity="4.4781681895256042e-01" nType="0">
          <Node pos="l" depth="2" NCoef="0" IVar="-1" Cut="0.0000000000000000e+00" cType="1" res="-2.4285865947604179e-05" rms="4.6531003713607788e-01" purity="4.7476419806480408e-01" nType="-99"/>
          <Node pos="r" depth="2" NCoef="0" IVar="-1" Cut="0.0000000000000000e+00" cType="1" res="-2.5481830816715956e-03" rms="4.0647655725479126e-01" purity="2.4895101785659790e-01" nType="-99"/>
        </Node>
        <Node pos="r" depth="1" NCoef="0" IVar="5" Cut="9.9188822507858276e-01" cType="1" res="6.7962333559989929e-02" rms="4.5573356747627258e-01" purity="5.7386368513107300e-01" nType="0">
          <Node pos="l" depth="2" NCoef="0" IVar="-1" Cut="0.0000000000000000e+00" cType="1" res="1.1591088259592652e-03" rms="4.5256978273391724e-01" purity="6.2228852510452271e-01" nType="-99"/>
          <Node pos="r" depth="2" NCoef="0" IVar="-1" Cut="0.0000000000000000e+00" cType="1" res="-4.8006064025685191e-04" rms="4.5436948537826538e-01" purity="3.8047775626182556e-01" nType="-99"/>
        </Node>
      </Node>
    </BinaryTree>
    <BinaryTree type="DecisionTree" boostWeight="1.0000000000000000e+00" itree="393">
      <Node pos="s" depth="0" NCoef="0" IVar="0" Cut="7.5320725440979004e+00" cType="1" res="1.7318613827228546e-02" rms="4.5193147659301758e-01" purity="5.0972485542297363e-01" nType="0">
        <Node pos="l" depth="1" NCoef="0" IVar="7" Cut="-6.4513407647609711e-02" cType="1" res="-1.1941067874431610e-02" rms="4.6138444542884827e-01" purity="4.1650834679603577e-01" nType="0">
          <Node pos="l" depth="2" NCoef="0" IVar="-1" Cut="0.0000000000000000e+00" cType="1" res="1.0643007699400187e-03" rms="4.7258597612380981e-01" purity="5.6081390380859375e-01" nType="-99"/>
          <Node pos="r" depth="2" NCoef="0" IVar="-1" Cut="0.0000000000000000e+00" cType="1" res="-3.6367718712426722e-04" rms="4.5785254240036011e-01" purity="3.9565828442573547e-01" nType="-99"/>
        </Node>
        <Node pos="r" depth="1" NCoef="0" IVar="7" Cut="7.7146075665950775e-02" cType="1" res="8.8296122848987579e-02" rms="4.1974326968193054e-01" purity="7.3584753274917603e-01" nType="0">
          <Node pos="l" depth="2" NCoef="0" IVar="-1" Cut="0.0000000000000000e+00" cType="1" res="1.3841650215908885e-03" rms="4.0130245685577393e-01" purity="7.7761393785476685e-01" nType="-99"/>
          <Node pos="r" depth="2" NCoef="0" IVar="-1" Cut="0.0000000000000000e+00" cType="1" res="-6.1963847838342190e-04" rms="4.7191131114959717e-01" purity="5.4658043384552002e-01" nType="-99"/>
        </Node>
      </Node>
    </BinaryTree>
    <BinaryTree type="DecisionTree" boostWeight="1.0000000000000000e+00" itree="394">
      <Node pos="s" depth="0" NCoef="0" IVar="1" Cut="1.5572205781936646e+00" cType="1" res="2.1754469722509384e-02" rms="4.5092546939849854e-01" purity="5.1329088211059570e-01" nType="0">
        <Node pos="l" depth="1" NCoef="0" IVar="2" Cut="2.0071286010742188e+02" cType="1" res="3.7075404077768326e-02" rms="4.5853391289710999e-01" purity="5.5252850055694580e-01" nType="0">
          <Node pos="l" depth="2" NCoef="0" IVar="-1" Cut="0.0000000000000000e+00" cType="1" res="-3.4834718098863959e-04" rms="4.6771198511123657e-01" purity="4.5232990384101868e-01" nType="-99"/>
          <Node pos="r" depth="2" NCoef="0" IVar="-1" Cut="0.0000000000000000e+00" cType="1" res="1.1153048835694790e-03" rms="4.4310227036476135e-01" purity="6.3811373710632324e-01" nType="-99"/>
        </Node>
        <Node pos="r" depth="1" NCoef="0" IVar="-1" Cut="0.0000000000000000e+00" cType="1" res="-2.5383413303643465e-03" rms="3.4088131785392761e-01" purity="1.4737163484096527e-01" nType="-99"/>
      </Node>
    </BinaryTree>
    <BinaryTree type="DecisionTree" boostWeight="1.0000000000000000e+00" itree="395">
      <Node pos="s" depth="0" NCoef="0" IVar="0" Cut="4.8464303016662598e+00" cType="1" res="5.8235744945704937e-03" rms="4.6094349026679993e-01" purity="4.9225717782974243e-01" nType="0">
        <Node pos="l" depth="1" NCoef="0" IVar="-1" Cut="0.0000000000000000e+00" cType="1" res="-2.7891362551599741e-03" rms="3.1450206041336060e-01" purity="1.1903969943523407e-01" nType="-99"/>
        <Node pos="r" depth="1" NCoef="0" IVar="2" Cut="4.7347921752929688e+02" cType="1" res="1.5278069302439690e-02" rms="4.6696457266807556e-01" purity="5.1560854911804199e-01" nType="0">
          <Node pos="l" depth="2" NCoef="0" IVar="-1" Cut="0.0000000000000000e+00" cType="1" res="2.9993371572345495e-04" rms="4.6945476531982422e-01" purity="5.3034150600433350e-01" nType="-99"/>
          <Node pos="r" depth="2" NCoef="0" IVar="-1" Cut="0.0000000000000000e+00" cType="1" res="-2.0269288215786219e-03" rms="4.0285858511924744e-01" purity="2.9052931070327759e-01" nType="-99"/>
        </Node>
      </Node>
    </BinaryTree>
    <BinaryTree type="DecisionTree" boostWeight="1.0000000000000000e+00" itree="396">
      <Node pos="s" depth="0" NCoef="0" IVar="0" Cut="7.4097919464111328e+00" cType="1" res="1.3180914334952831e-02" rms="4.4636020064353943e-01" purity="5.0676637887954712e-01" nType="0">
        <Node pos="l" depth="1" NCoef="0" IVar="2" Cut="2.0832670593261719e+02" cType="1" res="-2.0743684843182564e-02" rms="4.5487830042839050e-01" purity="4.0112897753715515e-01" nType="0">
          <Node pos="l" depth="2" NCoef="0" IVar="-1" Cut="0.0000000000000000e+00" cType="1" res="-9.1394572518765926e-04" rms="4.5586600899696350e-01" purity="3.4834319353103638e-01" nType="-99"/>
          <Node pos="r" depth="2" NCoef="0" IVar="-1" Cut="0.0000000000000000e+00" cType="1" res="3.4565775422379375e-04" rms="4.4913861155509949e-01" purity="4.5203590393066406e-01" nType="-99"/>
        </Node>
        <Node pos="r" depth="1" NCoef="0" IVar="5" Cut="8.5340511798858643e-01" cType="1" res="8.7569996714591980e-02" rms="4.1754817962646484e-01" purity="7.3840576410293579e-01" nType="0">
          <Node pos="l" depth="2" NCoef="0" IVar="-1" Cut="0.0000000000000000e+00" cType="1" res="1.3863289495930076e-03" rms="3.9438891410827637e-01" purity="7.8951495885848999e-01" nType="-99"/>
          <Node pos="r" depth="2" NCoef="0" IVar="-1" Cut="0.0000000000000000e+00" cType="1" res="-3.8484024116769433e-04" rms="4.7956520318984985e-01" purity="5.4101151227951050e-01" nType="-99"/>
        </Node>
      </Node>
    </BinaryTree>
    <BinaryTree type="DecisionTree" boostWeight="1.0000000000000000e+00" itree="397">
      <Node pos="s" depth="0" NCoef="0" IVar="1" Cut="1.0570029020309448e+00" cType="1" res="1.8968909978866577e-02" rms="4.5364981889724731e-01" purity="5.1168227195739746e-01" nType="0">
        <Node pos="l" depth="1" NCoef="0" IVar="2" Cut="2.2176992797851562e+02" cType="1" res="5.2724145352840424e-02" rms="4.5415088534355164e-01" purity="6.0796827077865601e-01" nType="0">
          <Node pos="l" depth="2" NCoef="0" IVar="-1" Cut="0.0000000000000000e+00" cType="1" res="1.1372307926649228e-04" rms="4.6451508998870850e-01" purity="5.3269571065902710e-01" nType="-99"/>
          <Node pos="r" depth="2" NCoef="0" IVar="-1" Cut="0.0000000000000000e+00" cType="1" res="1.4689801027998328e-03" rms="4.2458042502403259e-01" purity="7.4100559949874878e-01" nType="-99"/>
        </Node>
        <Node pos="r" depth="1" NCoef="0" IVar="2" Cut="4.2493121337890625e+02" cType="1" res="-4.0796980261802673e-02" rms="4.4654610753059387e-01" purity="3.4120151400566101e-01" nType="0">
          <Node pos="l" depth="2" NCoef="0" IVar="-1" Cut="0.0000000000000000e+00" cType="1" res="-3.4742336720228195e-04" rms="4.5726478099822998e-01" purity="3.6801731586456299e-01" nType="-99"/>
          <Node pos="r" depth="2" NCoef="0" IVar="-1" Cut="0.0000000000000000e+00" cType="1" res="-2.8001107275485992e-03" rms="3.5865101218223572e-01" purity="1.7903049290180206e-01" nType="-99"/>
        </Node>
      </Node>
    </BinaryTree>
    <BinaryTree type="DecisionTree" boostWeight="1.0000000000000000e+00" itree="398">
      <Node pos="s" depth="0" NCoef="0" IVar="3" Cut="1.0173237609863281e+02" cType="1" res="1.5011220239102840e-02" rms="4.5361247658729553e-01" purity="5.0466364622116089e-01" nType="0">
        <Node pos="l" depth="1" NCoef="0" IVar="1" Cut="6.8813061714172363e-01" cType="1" res="-9.3313064426183701e-03" rms="4.5380917191505432e-01" purity="4.6926441788673401e-01" nType="0">
          <Node pos="l" depth="2" NCoef="0" IVar="-1" Cut="0.0000000000000000e+00" cType="1" res="6.7187921376898885e-04" rms="4.4856876134872437e-01" purity="6.0671424865722656e-01" nType="-99"/>
          <Node pos="r" depth="2" NCoef="0" IVar="-1" Cut="0.0000000000000000e+00" cType="1" res="-5.5375922238454223e-04" rms="4.5288664102554321e-01" purity="4.0694424510002136e-01" nType="-99"/>
        </Node>
        <Node pos="r" depth="1" NCoef="0" IVar="5" Cut="9.4203615188598633e-01" cType="1" res="8.7376467883586884e-02" rms="4.4523626565933228e-01" purity="6.0989814996719360e-01" nType="0">
          <Node pos="l" depth="2" NCoef="0" IVar="-1" Cut="0.0000000000000000e+00" cType="1" res="1.5893024392426014e-03" rms="4.4191178679466248e-01" purity="6.7678594589233398e-01" nType="-99"/>
          <Node pos="r" depth="2" NCoef="0" IVar="-1" Cut="0.0000000000000000e+00" cType="1" res="-1.3669511536136270e-03" rms="4.1227784752845764e-01" purity="3.4208187460899353e-01" nType="-99"/>
        </Node>
      </Node>
    </BinaryTree>
    <BinaryTree type="DecisionTree" boostWeight="1.0000000000000000e+00" itree="399">
      <Node pos="s" depth="0" NCoef="0" IVar="3" Cut="1.0263854217529297e+02" cType="1" res="1.6626169905066490e-02" rms="4.5819646120071411e-01" purity="5.1108354330062866e-01" nType="0">
        <Node pos="l" depth="1" NCoef="0" IVar="4" Cut="-5.0512418150901794e-02" cType="1" res="-6.4665726386010647e-03" rms="4.5994699001312256e-01" purity="4.7885015606880188e-01" nType="0">
          <Node pos="l" depth="2" NCoef="0" IVar="-1" Cut="0.0000000000000000e+00" cType="1" res="-1.2914936523884535e-03" rms="4.4199886918067932e-01" purity="3.6527532339096069e-01" nType="-99"/>
          <Node pos="r" depth="2" NCoef="0" IVar="-1" Cut="0.0000000000000000e+00" cType="1" res="4.0029454976320267e-04" rms="4.6267294883728027e-01" purity="5.3049355745315552e-01" nType="-99"/>
        </Node>
        <Node pos="r" depth="1" NCoef="0" IVar="2" Cut="3.6333169555664062e+02" cType="1" res="8.6308076977729797e-02" rms="4.4567862153053284e-01" purity="6.0834717750549316e-01" nType="0">
          <Node pos="l" depth="2" NCoef="0" IVar="-1" Cut="0.0000000000000000e+00" cType="1" res="1.4713999116793275e-03" rms="4.3638482689857483e-01" purity="6.7037016153335571e-01" nType="-99"/>
          <Node pos="r" depth="2" NCoef="0" IVar="-1" Cut="0.0000000000000000e+00" cType="1" res="-4.1202767170034349e-04" rms="4.5180657505989075e-01" purity="4.3120422959327698e-01" nType="-99"/>
        </Node>
      </Node>
    </BinaryTree>
    <BinaryTree type="DecisionTree" boostWeight="1.0000000000000000e+00" itree="400">
      <Node pos="s" depth="0" NCoef="0" IVar="4" Cut="6.4422920346260071e-02" cType="1" res="-3.7418357096612453e-03" rms="4.5440626144409180e-01" purity="4.8441949486732483e-01" nType="0">
        <Node pos="l" depth="1" NCoef="0" IVar="2" Cut="2.0362554931640625e+02" cType="1" res="-3.1885363161563873e-02" rms="4.5212379097938538e-01" purity="4.3886846303939819e-01" nType="0">
          <Node pos="l" depth="2" NCoef="0" IVar="-1" Cut="0.0000000000000000e+00" cType="1" res="-1.1429663281887770e-03" rms="4.5404523611068726e-01" purity="3.7575638294219971e-01" nType="-99"/>
          <Node pos="r" depth="2" NCoef="0" IVar="-1" Cut="0.0000000000000000e+00" cType="1" res="5.5473716201959178e-05" rms="4.4725713133811951e-01" purity="4.8213562369346619e-01" nType="-99"/>
        </Node>
        <Node pos="r" depth="1" NCoef="0" IVar="5" Cut="8.3745062351226807e-01" cType="1" res="4.8270571976900101e-02" rms="4.5402637124061584e-01" purity="5.6860291957855225e-01" nType="0">
          <Node pos="l" depth="2" NCoef="0" IVar="-1" Cut="0.0000000000000000e+00" cType="1" res="1.1410067090764642e-03" rms="4.4820919632911682e-01" purity="6.3417100906372070e-01" nType="-99"/>
          <Node pos="r" depth="2" NCoef="0" IVar="-1" Cut="0.0000000000000000e+00" cType="1" res="-4.1547595174051821e-04" rms="4.5230874419212341e-01" purity="4.6175357699394226e-01" nType="-99"/>
        </Node>
      </Node>
    </BinaryTree>
    <BinaryTree type="DecisionTree" boostWeight="1.0000000000000000e+00" itree="401">
      <Node pos="s" depth="0" NCoef="0" IVar="0" Cut="4.9759259223937988e+00" cType="1" res="9.1938413679599762e-03" rms="4.5565786957740784e-01" purity="5.0304371118545532e-01" nType="0">
        <Node pos="l" depth="1" NCoef="0" IVar="-1" Cut="0.0000000000000000e+00" cType="1" res="-2.1571221295744181e-03" rms="3.5736179351806641e-01" purity="1.5884642302989960e-01" nType="-99"/>
        <Node pos="r" depth="1" NCoef="0" IVar="2" Cut="4.4684066772460938e+02" cType="1" res="1.9595548510551453e-02" rms="4.6145465970039368e-01" purity="5.3195464611053467e-01" nType="0">
          <Node pos="l" depth="2" NCoef="0" IVar="-1" Cut="0.0000000000000000e+00" cType="1" res="3.5376148298382759e-04" rms="4.6300274133682251e-01" purity="5.4659330844879150e-01" nType="-99"/>
          <Node pos="r" depth="2" NCoef="0" IVar="-1" Cut="0.0000000000000000e+00" cType="1" res="-2.0657146815210581e-03" rms="4.0903750061988831e-01" purity="2.9142653942108154e-01" nType="-99"/>
        </Node>
      </Node>
    </BinaryTree>
    <BinaryTree type="DecisionTree" boostWeight="1.0000000000000000e+00" itree="402">
      <Node pos="s" depth="0" NCoef="0" IVar="0" Cut="5.4469776153564453e+00" cType="1" res="9.5760039985179901e-03" rms="4.5551118254661560e-01" purity="5.0405275821685791e-01" nType="0">
        <Node pos="l" depth="1" NCoef="0" IVar="4" Cut="1.0271935909986496e-01" cType="1" res="-7.3172971606254578e-02" rms="4.0545183420181274e-01" purity="2.3970258235931396e-01" nType="0">
          <Node pos="l" depth="2" NCoef="0" IVar="-1" Cut="0.0000000000000000e+00" cType="1" res="-1.8273364985361695e-03" rms="3.7515324354171753e-01" purity="1.9109466671943665e-01" nType="-99"/>
          <Node pos="r" depth="2" NCoef="0" IVar="-1" Cut="0.0000000000000000e+00" cType="1" res="7.4728326580952853e-05" rms="4.5528373122215271e-01" purity="3.4623992443084717e-01" nType="-99"/>
        </Node>
        <Node pos="r" depth="1" NCoef="0" IVar="4" Cut="-1.0303551703691483e-01" cType="1" res="2.7168596163392067e-02" rms="4.6356031298637390e-01" purity="5.6025415658950806e-01" nType="0">
          <Node pos="l" depth="2" NCoef="0" IVar="-1" Cut="0.0000000000000000e+00" cType="1" res="-7.7427830547094345e-04" rms="4.6263584494590759e-01" purity="4.1424459218978882e-01" nType="-99"/>
          <Node pos="r" depth="2" NCoef="0" IVar="-1" Cut="0.0000000000000000e+00" cType="1" res="5.2889791550114751e-04" rms="4.6200728416442871e-01" purity="5.8923542499542236e-01" nType="-99"/>
        </Node>
      </Node>
    </BinaryTree>
    <BinaryTree type="DecisionTree" boostWeight="1.0000000000000000e+00" itree="403">
      <Node pos="s" depth="0" NCoef="0" IVar="1" Cut="1.6480380296707153e+00" cType="1" res="1.5086583793163300e-02" rms="4.5386290550231934e-01" purity="5.1013368368148804e-01" nType="0">
        <Node pos="l" depth="1" NCoef="0" IVar="3" Cut="9.6049278259277344e+01" cType="1" res="2.7341453358530998e-02" rms="4.6151655912399292e-01" purity="5.3926646709442139e-01" nType="0">
          <Node pos="l" depth="2" NCoef="0" IVar="-1" Cut="0.0000000000000000e+00" cType="1" res="4.7585821448592469e-05" rms="4.6638140082359314e-01" purity="4.9864649772644043e-01" nType="-99"/>
          <Node pos="r" depth="2" NCoef="0" IVar="-1" Cut="0.0000000000000000e+00" cType="1" res="1.0407353984192014e-03" rms="4.4373890757560730e-01" purity="6.4061450958251953e-01" nType="-99"/>
        </Node>
        <Node pos="r" depth="1" NCoef="0" IVar="-1" Cut="0.0000000000000000e+00" cType="1" res="-3.8060685619711876e-03" rms="2.7093914151191711e-01" purity="9.4705298542976379e-02" nType="-99"/>
      </Node>
    </BinaryTree>
    <BinaryTree type="DecisionTree" boostWeight="1.0000000000000000e+00" itree="404">
      <Node pos="s" depth="0" NCoef="0" IVar="0" Cut="8.8633403778076172e+00" cType="1" res="1.0569766163825989e-03" rms="4.4934654235839844e-01" purity="4.8943519592285156e-01" nType="0">
        <Node pos="l" depth="1" NCoef="0" IVar="3" Cut="1.0454970550537109e+02" cType="1" res="-1.2962517328560352e-02" rms="4.5301455259323120e-01" purity="4.5916700363159180e-01" nType="0">
          <Node pos="l" depth="2" NCoef="0" IVar="-1" Cut="0.0000000000000000e+00" cType="1" res="-4.9723288975656033e-04" rms="4.5397791266441345e-01" purity="4.2455193400382996e-01" nType="-99"/>
          <Node pos="r" depth="2" NCoef="0" IVar="-1" Cut="0.0000000000000000e+00" cType="1" res="8.0040446482598782e-04" rms="4.4159463047981262e-01" purity="5.6798940896987915e-01" nType="-99"/>
        </Node>
        <Node pos="r" depth="1" NCoef="0" IVar="-1" Cut="0.0000000000000000e+00" cType="1" res="1.7262490000575781e-03" rms="3.7480643391609192e-01" purity="8.1881725788116455e-01" nType="-99"/>
      </Node>
    </BinaryTree>
    <BinaryTree type="DecisionTree" boostWeight="1.0000000000000000e+00" itree="405">
      <Node pos="s" depth="0" NCoef="0" IVar="0" Cut="7.7594070434570312e+00" cType="1" res="1.2193311704322696e-03" rms="4.5367693901062012e-01" purity="4.9002453684806824e-01" nType="0">
        <Node pos="l" depth="1" NCoef="0" IVar="5" Cut="1.1045660972595215e+00" cType="1" res="-2.0321801304817200e-02" rms="4.5798194408416748e-01" purity="4.2029246687889099e-01" nType="0">
          <Node pos="l" depth="2" NCoef="0" IVar="-1" Cut="0.0000000000000000e+00" cType="1" res="-1.2465244799386710e-04" rms="4.6151548624038696e-01" purity="4.3857884407043457e-01" nType="-99"/>
          <Node pos="r" depth="2" NCoef="0" IVar="-1" Cut="0.0000000000000000e+00" cType="1" res="-2.1464785095304251e-03" rms="4.0320411324501038e-01" purity="2.3172923922538757e-01" nType="-99"/>
        </Node>
        <Node pos="r" depth="1" NCoef="0" IVar="5" Cut="8.7234008312225342e-01" cType="1" res="7.2609111666679382e-02" rms="4.3148761987686157e-01" purity="7.2112452983856201e-01" nType="0">
          <Node pos="l" depth="2" NCoef="0" IVar="-1" Cut="0.0000000000000000e+00" cType="1" res="1.1556880781427026e-03" rms="4.1586384177207947e-01" purity="7.6321256160736084e-01" nType="-99"/>
          <Node pos="r" depth="2" NCoef="0" IVar="-1" Cut="0.0000000000000000e+00" cType="1" res="-1.0711786308092996e-04" rms="4.7214570641517639e-01" purity="5.7733726501464844e-01" nType="-99"/>
        </Node>
      </Node>
    </BinaryTree>
    <BinaryTree type="DecisionTree" boostWeight="1.0000000000000000e+00" itree="406">
      <Node pos="s" depth="0" NCoef="0" IVar="6" Cut="3.2257806396484375e+02" cType="1" res="1.2695307843387127e-02" rms="4.5319262146949768e-01" purity="4.9949413537979126e-01" nType="0">
        <Node pos="l" depth="1" NCoef="0" IVar="-1" Cut="0.0000000000000000e+00" cType="1" res="-2.0069500897079706e-03" rms="3.8964420557022095e-01" purity="2.5717863440513611e-01" nType="-99"/>
        <Node pos="r" depth="1" NCoef="0" IVar="1" Cut="1.6901257038116455e+00" cType="1" res="2.6890972629189491e-02" rms="4.5657360553741455e-01" purity="5.2351748943328857e-01" nType="0">
          <Node pos="l" depth="2" NCoef="0" IVar="-1" Cut="0.0000000000000000e+00" cType="1" res="4.6828773338347673e-04" rms="4.6341228485107422e-01" purity="5.5106401443481445e-01" nType="-99"/>
          <Node pos="r" depth="2" NCoef="0" IVar="-1" Cut="0.0000000000000000e+00" cType="1" res="-3.5571346525102854e-03" rms="2.8195086121559143e-01" purity="9.7201757133007050e-02" nType="-99"/>
        </Node>
      </Node>
    </BinaryTree>
    <BinaryTree type="DecisionTree" boostWeight="1.0000000000000000e+00" itree="407">
      <Node pos="s" depth="0" NCoef="0" IVar="4" Cut="-3.1145634129643440e-02" cType="1" res="6.2636709772050381e-03" rms="4.5408391952514648e-01" purity="4.9921876192092896e-01" nType="0">
        <Node pos="l" depth="1" NCoef="0" IVar="6" Cut="3.9671014404296875e+02" cType="1" res="-5.3504016250371933e-02" rms="4.4621834158897400e-01" purity="4.0628302097320557e-01" nType="0">
          <Node pos="l" depth="2" NCoef="0" IVar="-1" Cut="0.0000000000000000e+00" cType="1" res="-2.0038306247442961e-03" rms="4.1448241472244263e-01" purity="2.5786536931991577e-01" nType="-99"/>
          <Node pos="r" depth="2" NCoef="0" IVar="-1" Cut="0.0000000000000000e+00" cType="1" res="-2.6342997443862259e-04" rms="4.5603284239768982e-01" purity="4.7412347793579102e-01" nType="-99"/>
        </Node>
        <Node pos="r" depth="1" NCoef="0" IVar="2" Cut="2.1034960937500000e+02" cType="1" res="4.4444009661674500e-02" rms="4.5494636893272400e-01" purity="5.5858725309371948e-01" nType="0">
          <Node pos="l" depth="2" NCoef="0" IVar="-1" Cut="0.0000000000000000e+00" cType="1" res="-1.6304325254168361e-04" rms="4.6020835638046265e-01" purity="4.7598728537559509e-01" nType="-99"/>
          <Node pos="r" depth="2" NCoef="0" IVar="-1" Cut="0.0000000000000000e+00" cType="1" res="1.3386898208409548e-03" rms="4.4011217355728149e-01" purity="6.5142565965652466e-01" nType="-99"/>
        </Node>
      </Node>
    </BinaryTree>
    <BinaryTree type="DecisionTree" boostWeight="1.0000000000000000e+00" itree="408">
      <Node pos="s" depth="0" NCoef="0" IVar="0" Cut="5.9110698699951172e+00" cType="1" res="4.6079531311988831e-03" rms="4.5527437329292297e-01" purity="4.9490529298782349e-01" nType="0">
        <Node pos="l" depth="1" NCoef="0" IVar="5" Cut="5.2405041456222534e-01" cType="1" res="-5.9190478175878525e-02" rms="4.2431911826133728e-01" purity="2.7679926156997681e-01" nType="0">
          <Node pos="l" depth="2" NCoef="0" IVar="-1" Cut="0.0000000000000000e+00" cType="1" res="-2.3417263291776180e-03" rms="3.8354155421257019e-01" purity="2.0842286944389343e-01" nType="-99"/>
          <Node pos="r" depth="2" NCoef="0" IVar="-1" Cut="0.0000000000000000e+00" cType="1" res="-3.4405378391966224e-04" rms="4.3320450186729431e-01" purity="3.0264961719512939e-01" nType="-99"/>
        </Node>
        <Node pos="r" depth="1" NCoef="0" IVar="4" Cut="-8.3570741117000580e-02" cType="1" res="3.2279465347528458e-02" rms="4.6535295248031616e-01" purity="5.8950507640838623e-01" nType="0">
          <Node pos="l" depth="2" NCoef="0" IVar="-1" Cut="0.0000000000000000e+00" cType="1" res="-5.7315512094646692e-04" rms="4.7257950901985168e-01" purity="4.7104075551033020e-01" nType="-99"/>
          <Node pos="r" depth="2" NCoef="0" IVar="-1" Cut="0.0000000000000000e+00" cType="1" res="6.3667848007753491e-04" rms="4.6129813790321350e-01" purity="6.2176686525344849e-01" nType="-99"/>
        </Node>
      </Node>
    </BinaryTree>
    <BinaryTree type="DecisionTree" boostWeight="1.0000000000000000e+00" itree="409">
      <Node pos="s" depth="0" NCoef="0" IVar="0" Cut="8.1917409896850586e+00" cType="1" res="-1.1407967656850815e-02" rms="4.5074078440666199e-01" purity="4.8443269729614258e-01" nType="0">
        <Node pos="l" depth="1" NCoef="0" IVar="1" Cut="7.6422226428985596e-01" cType="1" res="-2.9157636687159538e-02" rms="4.5724570751190186e-01" purity="4.3053603172302246e-01" nType="0">
          <Node pos="l" depth="2" NCoef="0" IVar="-1" Cut="0.0000000000000000e+00" cType="1" res="2.9701500898227096e-04" rms="4.6737751364707947e-01" purity="5.5378025770187378e-01" nType="-99"/>
          <Node pos="r" depth="2" NCoef="0" IVar="-1" Cut="0.0000000000000000e+00" cType="1" res="-8.2756055053323507e-04" rms="4.4905385375022888e-01" purity="3.6458548903465271e-01" nType="-99"/>
        </Node>
        <Node pos="r" depth="1" NCoef="0" IVar="3" Cut="8.6572685241699219e+01" cType="1" res="7.8229345381259918e-02" rms="4.0461546182632446e-01" purity="7.5661563873291016e-01" nType="0">
          <Node pos="l" depth="2" NCoef="0" IVar="-1" Cut="0.0000000000000000e+00" cType="1" res="-5.3657091484637931e-05" rms="4.4590404629707336e-01" purity="6.6947644948959351e-01" nType="-99"/>
          <Node pos="r" depth="2" NCoef="0" IVar="-1" Cut="0.0000000000000000e+00" cType="1" res="1.9999558571726084e-03" rms="3.2758963108062744e-01" purity="8.5562974214553833e-01" nType="-99"/>
        </Node>
      </Node>
    </BinaryTree>
    <BinaryTree type="DecisionTree" boostWeight="1.0000000000000000e+00" itree="410">
      <Node pos="s" depth="0" NCoef="0" IVar="2" Cut="1.9659182739257812e+02" cType="1" res="-1.1808518320322037e-02" rms="4.5719975233078003e-01" purity="4.7680965065956116e-01" nType="0">
        <Node pos="l" depth="1" NCoef="0" IVar="3" Cut="6.1245758056640625e+01" cType="1" res="-5.9179589152336121e-02" rms="4.6529462933540344e-01" purity="4.1177681088447571e-01" nType="0">
          <Node pos="l" depth="2" NCoef="0" IVar="-1" Cut="0.0000000000000000e+00" cType="1" res="-4.2517225665505975e-05" rms="4.6840137243270874e-01" purity="4.5545515418052673e-01" nType="-99"/>
          <Node pos="r" depth="2" NCoef="0" IVar="-1" Cut="0.0000000000000000e+00" cType="1" res="-1.6389595111832023e-03" rms="4.5332121849060059e-01" purity="3.6169859766960144e-01" nType="-99"/>
        </Node>
        <Node pos="r" depth="1" NCoef="0" IVar="1" Cut="1.2406201362609863e+00" cType="1" res="2.4111445993185043e-02" rms="4.4763538241386414e-01" purity="5.2612191438674927e-01" nType="0">
          <Node pos="l" depth="2" NCoef="0" IVar="-1" Cut="0.0000000000000000e+00" cType="1" res="7.7571597648784518e-04" rms="4.5328566431999207e-01" purity="6.4921575784683228e-01" nType="-99"/>
          <Node pos="r" depth="2" NCoef="0" IVar="-1" Cut="0.0000000000000000e+00" cType="1" res="-9.9122000392526388e-04" rms="4.2422544956207275e-01" purity="2.7577248215675354e-01" nType="-99"/>
        </Node>
      </Node>
    </BinaryTree>
    <BinaryTree type="DecisionTree" boostWeight="1.0000000000000000e+00" itree="411">
      <Node pos="s" depth="0" NCoef="0" IVar="0" Cut="7.6818304061889648e+00" cType="1" res="6.9740144535899162e-03" rms="4.5158162713050842e-01" purity="4.9505785107612610e-01" nType="0">
        <Node pos="l" depth="1" NCoef="0" IVar="2" Cut="1.4041648864746094e+02" cType="1" res="-2.1927384659647942e-02" rms="4.5681756734848022e-01" purity="4.1127881407737732e-01" nType="0">
          <Node pos="l" depth="2" NCoef="0" IVar="-1" Cut="0.0000000000000000e+00" cType="1" res="-1.9432826666161418e-03" rms="4.4254335761070251e-01" purity="2.6710027456283569e-01" nType="-99"/>
          <Node pos="r" depth="2" NCoef="0" IVar="-1" Cut="0.0000000000000000e+00" cType="1" res="-1.1493957572383806e-04" rms="4.5668676495552063e-01" purity="4.2843443155288696e-01" nType="-99"/>
        </Node>
        <Node pos="r" depth="1" NCoef="0" IVar="3" Cut="8.5791007995605469e+01" cType="1" res="9.0628765523433685e-02" rms="4.2513883113861084e-01" purity="7.3755508661270142e-01" nType="0">
          <Node pos="l" depth="2" NCoef="0" IVar="-1" Cut="0.0000000000000000e+00" cType="1" res="3.8316592690534890e-04" rms="4.5633497834205627e-01" purity="6.7561858892440796e-01" nType="-99"/>
          <Node pos="r" depth="2" NCoef="0" IVar="-1" Cut="0.0000000000000000e+00" cType="1" res="1.9515685271471739e-03" rms="3.7186992168426514e-01" purity="8.1195813417434692e-01" nType="-99"/>
        </Node>
      </Node>
    </BinaryTree>
    <BinaryTree type="DecisionTree" boostWeight="1.0000000000000000e+00" itree="412">
      <Node pos="s" depth="0" NCoef="0" IVar="6" Cut="4.0875607299804688e+02" cType="1" res="-5.2997138118371367e-04" rms="4.5247262716293335e-01" purity="4.8807361721992493e-01" nType="0">
        <Node pos="l" depth="1" NCoef="0" IVar="0" Cut="7.7834057807922363e+00" cType="1" res="-6.0474880039691925e-02" rms="4.3862485885620117e-01" purity="3.6369585990905762e-01" nType="0">
          <Node pos="l" depth="2" NCoef="0" IVar="-1" Cut="0.0000000000000000e+00" cType="1" res="-1.2519198935478926e-03" rms="4.3474265933036804e-01" purity="2.9456180334091187e-01" nType="-99"/>
          <Node pos="r" depth="2" NCoef="0" IVar="-1" Cut="0.0000000000000000e+00" cType="1" res="6.0357246547937393e-04" rms="4.3874248862266541e-01" purity="6.7661643028259277e-01" nType="-99"/>
        </Node>
        <Node pos="r" depth="1" NCoef="0" IVar="2" Cut="3.6527877807617188e+02" cType="1" res="3.4725628793239594e-02" rms="4.5676308870315552e-01" purity="5.6122434139251709e-01" nType="0">
          <Node pos="l" depth="2" NCoef="0" IVar="-1" Cut="0.0000000000000000e+00" cType="1" res="6.4313283655792475e-04" rms="4.5669609308242798e-01" purity="5.9214037656784058e-01" nType="-99"/>
          <Node pos="r" depth="2" NCoef="0" IVar="-1" Cut="0.0000000000000000e+00" cType="1" res="-1.0524238459765911e-03" rms="4.4290077686309814e-01" purity="3.8337281346321106e-01" nType="-99"/>
        </Node>
      </Node>
    </BinaryTree>
    <BinaryTree type="DecisionTree" boostWeight="1.0000000000000000e+00" itree="413">
      <Node pos="s" depth="0" NCoef="0" IVar="0" Cut="4.8464303016662598e+00" cType="1" res="8.1270197406411171e-03" rms="4.6018421649932861e-01" purity="4.9727731943130493e-01" nType="0">
        <Node pos="l" depth="1" NCoef="0" IVar="-1" Cut="0.0000000000000000e+00" cType="1" res="-2.3250195663422346e-03" rms="3.4047767519950867e-01" purity="1.4309148490428925e-01" nType="-99"/>
        <Node pos="r" depth="1" NCoef="0" IVar="2" Cut="4.7347921752929688e+02" cType="1" res="1.7164677381515503e-02" rms="4.6584039926528931e-01" purity="5.2137190103530884e-01" nType="0">
          <Node pos="l" depth="2" NCoef="0" IVar="-1" Cut="0.0000000000000000e+00" cType="1" res="3.0689509003423154e-04" rms="4.6792274713516235e-01" purity="5.3458333015441895e-01" nType="-99"/>
          <Node pos="r" depth="2" NCoef="0" IVar="-1" Cut="0.0000000000000000e+00" cType="1" res="-1.5621968777850270e-03" rms="4.1492122411727905e-01" purity="3.1519198417663574e-01" nType="-99"/>
        </Node>
      </Node>
    </BinaryTree>
    <BinaryTree type="DecisionTree" boostWeight="1.0000000000000000e+00" itree="414">
      <Node pos="s" depth="0" NCoef="0" IVar="0" Cut="4.8464303016662598e+00" cType="1" res="9.0451852884143591e-04" rms="4.5760595798492432e-01" purity="4.9517729878425598e-01" nType="0">
        <Node pos="l" depth="1" NCoef="0" IVar="-1" Cut="0.0000000000000000e+00" cType="1" res="-3.2254874240607023e-03" rms="2.9653272032737732e-01" purity="1.0553717613220215e-01" nType="-99"/>
        <Node pos="r" depth="1" NCoef="0" IVar="3" Cut="9.6226615905761719e+01" cType="1" res="1.0295399464666843e-02" rms="4.6360960602760315e-01" purity="5.1802486181259155e-01" nType="0">
          <Node pos="l" depth="2" NCoef="0" IVar="-1" Cut="0.0000000000000000e+00" cType="1" res="-1.8433338846080005e-04" rms="4.6838915348052979e-01" purity="4.8066624999046326e-01" nType="-99"/>
          <Node pos="r" depth="2" NCoef="0" IVar="-1" Cut="0.0000000000000000e+00" cType="1" res="8.4717432036995888e-04" rms="4.4691613316535950e-01" purity="6.0553932189941406e-01" nType="-99"/>
        </Node>
      </Node>
    </BinaryTree>
    <BinaryTree type="DecisionTree" boostWeight="1.0000000000000000e+00" itree="415">
      <Node pos="s" depth="0" NCoef="0" IVar="0" Cut="5.7942237854003906e+00" cType="1" res="4.6227006241679192e-03" rms="4.4908499717712402e-01" purity="4.9586436152458191e-01" nType="0">
        <Node pos="l" depth="1" NCoef="0" IVar="2" Cut="1.9786468505859375e+02" cType="1" res="-8.2813791930675507e-02" rms="4.1116687655448914e-01" purity="2.4189327657222748e-01" nType="0">
          <Node pos="l" depth="2" NCoef="0" IVar="-1" Cut="0.0000000000000000e+00" cType="1" res="-2.2337764967232943e-03" rms="3.8566094636917114e-01" purity="1.7975571751594543e-01" nType="-99"/>
          <Node pos="r" depth="2" NCoef="0" IVar="-1" Cut="0.0000000000000000e+00" cType="1" res="-4.2566607589833438e-04" rms="4.2803642153739929e-01" purity="3.0432111024856567e-01" nType="-99"/>
        </Node>
        <Node pos="r" depth="1" NCoef="0" IVar="4" Cut="2.0921665430068970e-01" cType="1" res="3.6360803991556168e-02" rms="4.5796856284141541e-01" purity="5.8805197477340698e-01" nType="0">
          <Node pos="l" depth="2" NCoef="0" IVar="-1" Cut="0.0000000000000000e+00" cType="1" res="2.8606713749468327e-04" rms="4.5945787429809570e-01" purity="5.6989991664886475e-01" nType="-99"/>
          <Node pos="r" depth="2" NCoef="0" IVar="-1" Cut="0.0000000000000000e+00" cType="1" res="1.7290828982368112e-03" rms="4.2425024509429932e-01" purity="7.5597655773162842e-01" nType="-99"/>
        </Node>
      </Node>
    </BinaryTree>
    <BinaryTree type="DecisionTree" boostWeight="1.0000000000000000e+00" itree="416">
      <Node pos="s" depth="0" NCoef="0" IVar="1" Cut="1.4242374897003174e+00" cType="1" res="1.3475880026817322e-02" rms="4.5441555976867676e-01" purity="5.0409603118896484e-01" nType="0">
        <Node pos="l" depth="1" NCoef="0" IVar="0" Cut="4.8415169715881348e+00" cType="1" res="2.9236663132905960e-02" rms="4.6155494451522827e-01" purity="5.5116212368011475e-01" nType="0">
          <Node pos="l" depth="2" NCoef="0" IVar="-1" Cut="0.0000000000000000e+00" cType="1" res="-2.1894529927521944e-03" rms="3.5051959753036499e-01" purity="1.5454459190368652e-01" nType="-99"/>
          <Node pos="r" depth="2" NCoef="0" IVar="-1" Cut="0.0000000000000000e+00" cType="1" res="4.8525969032198191e-04" rms="4.6658983826637268e-01" purity="5.7984602451324463e-01" nType="-99"/>
        </Node>
        <Node pos="r" depth="1" NCoef="0" IVar="2" Cut="2.7452545166015625e+02" cType="1" res="-8.7617434561252594e-02" rms="3.9081305265426636e-01" purity="2.0220308005809784e-01" nType="0">
          <Node pos="l" depth="2" NCoef="0" IVar="-1" Cut="0.0000000000000000e+00" cType="1" res="-4.5361701631918550e-04" rms="4.3907618522644043e-01" purity="2.7071806788444519e-01" nType="-99"/>
          <Node pos="r" depth="2" NCoef="0" IVar="-1" Cut="0.0000000000000000e+00" cType="1" res="-2.6870025321841240e-03" rms="3.4881448745727539e-01" purity="1.5642167627811432e-01" nType="-99"/>
        </Node>
      </Node>
    </BinaryTree>
    <BinaryTree type="DecisionTree" boostWeight="1.0000000000000000e+00" itree="417">
      <Node pos="s" depth="0" NCoef="0" IVar="1" Cut="1.5160460472106934e+00" cType="1" res="2.0366640761494637e-02" rms="4.5606407523155212e-01" purity="5.0763803720474243e-01" nType="0">
        <Node pos="l" depth="1" NCoef="0" IVar="2" Cut="1.8048753356933594e+02" cType="1" res="3.4808244556188583e-02" rms="4.6558010578155518e-01" purity="5.4951852560043335e-01" nType="0">
          <Node pos="l" depth="2" NCoef="0" IVar="-1" Cut="0.0000000000000000e+00" cType="1" res="-2.2010960674379021e-04" rms="4.7301116585731506e-01" purity="4.5904052257537842e-01" nType="-99"/>
          <Node pos="r" depth="2" NCoef="0" IVar="-1" Cut="0.0000000000000000e+00" cType="1" res="7.5808668043464422e-04" rms="4.5901000499725342e-01" purity="5.9873628616333008e-01" nType="-99"/>
        </Node>
        <Node pos="r" depth="1" NCoef="0" IVar="0" Cut="6.2969632148742676e+00" cType="1" res="-9.5925338566303253e-02" rms="3.4952396154403687e-01" purity="1.7039246857166290e-01" nType="0">
          <Node pos="l" depth="2" NCoef="0" IVar="-1" Cut="0.0000000000000000e+00" cType="1" res="-4.2325449176132679e-03" rms="2.0246349275112152e-01" purity="4.6532630920410156e-02" nType="-99"/>
          <Node pos="r" depth="2" NCoef="0" IVar="-1" Cut="0.0000000000000000e+00" cType="1" res="-6.4531876705586910e-04" rms="4.3884932994842529e-01" purity="2.8853139281272888e-01" nType="-99"/>
        </Node>
      </Node>
    </BinaryTree>
    <BinaryTree type="DecisionTree" boostWeight="1.0000000000000000e+00" itree="418">
      <Node pos="s" depth="0" NCoef="0" IVar="6" Cut="6.1942303466796875e+02" cType="1" res="2.2850517183542252e-02" rms="4.5373308658599854e-01" purity="5.1527017354965210e-01" nType="0">
        <Node pos="l" depth="1" NCoef="0" IVar="0" Cut="5.7914257049560547e+00" cType="1" res="1.5913937240839005e-03" rms="4.5285037159919739e-01" purity="4.7648945450782776e-01" nType="0">
          <Node pos="l" depth="2" NCoef="0" IVar="-1" Cut="0.0000000000000000e+00" cType="1" res="-1.1469213059172034e-03" rms="4.0552774071693420e-01" purity="2.3238961398601532e-01" nType="-99"/>
          <Node pos="r" depth="2" NCoef="0" IVar="-1" Cut="0.0000000000000000e+00" cType="1" res="3.5007280530408025e-04" rms="4.6618476510047913e-01" purity="5.6614285707473755e-01" nType="-99"/>
        </Node>
        <Node pos="r" depth="1" NCoef="0" IVar="2" Cut="3.5809735107421875e+02" cType="1" res="1.1093334853649139e-01" rms="4.4671946763992310e-01" purity="6.7595010995864868e-01" nType="0">
          <Node pos="l" depth="2" NCoef="0" IVar="-1" Cut="0.0000000000000000e+00" cType="1" res="1.6575275221839547e-03" rms="4.3512800335884094e-01" purity="7.3162049055099487e-01" nType="-99"/>
          <Node pos="r" depth="2" NCoef="0" IVar="-1" Cut="0.0000000000000000e+00" cType="1" res="5.4280943004414439e-04" rms="4.6312019228935242e-01" purity="5.5569988489151001e-01" nType="-99"/>
        </Node>
      </Node>
    </BinaryTree>
    <BinaryTree type="DecisionTree" boostWeight="1.0000000000000000e+00" itree="419">
      <Node pos="s" depth="0" NCoef="0" IVar="0" Cut="6.9958319664001465e+00" cType="1" res="-6.9035510532557964e-03" rms="4.4998595118522644e-01" purity="4.8396846652030945e-01" nType="0">
        <Node pos="l" depth="1" NCoef="0" IVar="1" Cut="1.2543956041336060e+00" cType="1" res="-4.7259766608476639e-02" rms="4.4843035936355591e-01" purity="3.4613946080207825e-01" nType="0">
          <Node pos="l" depth="2" NCoef="0" IVar="-1" Cut="0.0000000000000000e+00" cType="1" res="-2.9834575252607465e-04" rms="4.7611492872238159e-01" purity="4.1429156064987183e-01" nType="-99"/>
          <Node pos="r" depth="2" NCoef="0" IVar="-1" Cut="0.0000000000000000e+00" cType="1" res="-2.2830849047750235e-03" rms="3.5244095325469971e-01" purity="1.5670242905616760e-01" nType="-99"/>
        </Node>
        <Node pos="r" depth="1" NCoef="0" IVar="2" Cut="1.7096722412109375e+02" cType="1" res="4.9846775829792023e-02" rms="4.4602897763252258e-01" purity="6.7778849601745605e-01" nType="0">
          <Node pos="l" depth="2" NCoef="0" IVar="-1" Cut="0.0000000000000000e+00" cType="1" res="-2.1566383657045662e-04" rms="4.7339233756065369e-01" purity="6.0956078767776489e-01" nType="-99"/>
          <Node pos="r" depth="2" NCoef="0" IVar="-1" Cut="0.0000000000000000e+00" cType="1" res="8.7763147894293070e-04" rms="4.3436384201049805e-01" purity="7.0021927356719971e-01" nType="-99"/>
        </Node>
      </Node>
    </BinaryTree>
    <BinaryTree type="DecisionTree" boostWeight="1.0000000000000000e+00" itree="420">
      <Node pos="s" depth="0" NCoef="0" IVar="1" Cut="7.3861092329025269e-01" cType="1" res="1.4183917082846165e-02" rms="4.5142674446105957e-01" purity="5.0587195158004761e-01" nType="0">
        <Node pos="l" depth="1" NCoef="0" IVar="2" Cut="1.8471292114257812e+02" cType="1" res="7.6033025979995728e-02" rms="4.4543945789337158e-01" purity="6.3975006341934204e-01" nType="0">
          <Node pos="l" depth="2" NCoef="0" IVar="-1" Cut="0.0000000000000000e+00" cType="1" res="2.6486024580663070e-05" rms="4.7177818417549133e-01" purity="4.9768579006195068e-01" nType="-99"/>
          <Node pos="r" depth="2" NCoef="0" IVar="-1" Cut="0.0000000000000000e+00" cType="1" res="1.5732260653749108e-03" rms="4.1080358624458313e-01" purity="7.6254832744598389e-01" nType="-99"/>
        </Node>
        <Node pos="r" depth="1" NCoef="0" IVar="0" Cut="7.5141105651855469e+00" cType="1" res="-1.6519762575626373e-02" rms="4.5123174786567688e-01" purity="4.3941104412078857e-01" nType="0">
          <Node pos="l" depth="2" NCoef="0" IVar="-1" Cut="0.0000000000000000e+00" cType="1" res="-5.7980732526630163e-04" rms="4.4948780536651611e-01" purity="3.5577866435050964e-01" nType="-99"/>
          <Node pos="r" depth="2" NCoef="0" IVar="-1" Cut="0.0000000000000000e+00" cType="1" res="5.9076905017718673e-04" rms="4.4958707690238953e-01" purity="6.6684949398040771e-01" nType="-99"/>
        </Node>
      </Node>
    </BinaryTree>
    <BinaryTree type="DecisionTree" boostWeight="1.0000000000000000e+00" itree="421">
      <Node pos="s" depth="0" NCoef="0" IVar="0" Cut="4.8464303016662598e+00" cType="1" res="4.8863715492188931e-03" rms="4.5620259642601013e-01" purity="4.9250432848930359e-01" nType="0">
        <Node pos="l" depth="1" NCoef="0" IVar="-1" Cut="0.0000000000000000e+00" cType="1" res="-2.7315123006701469e-03" rms="3.2801851630210876e-01" purity="1.2053316831588745e-01" nType="-99"/>
        <Node pos="r" depth="1" NCoef="0" IVar="3" Cut="8.9174652099609375e+01" cType="1" res="1.4416821300983429e-02" rms="4.6138930320739746e-01" purity="5.1581448316574097e-01" nType="0">
          <Node pos="l" depth="2" NCoef="0" IVar="-1" Cut="0.0000000000000000e+00" cType="1" res="-1.9844430789817125e-04" rms="4.6261695027351379e-01" purity="4.7236108779907227e-01" nType="-99"/>
          <Node pos="r" depth="2" NCoef="0" IVar="-1" Cut="0.0000000000000000e+00" cType="1" res="8.3427713252604008e-04" rms="4.5459324121475220e-01" purity="5.9144103527069092e-01" nType="-99"/>
        </Node>
      </Node>
    </BinaryTree>
    <BinaryTree type="DecisionTree" boostWeight="1.0000000000000000e+00" itree="422">
      <Node pos="s" depth="0" NCoef="0" IVar="3" Cut="3.9311893463134766e+01" cType="1" res="-6.2999720685184002e-03" rms="4.5785310864448547e-01" purity="4.8284527659416199e-01" nType="0">
        <Node pos="l" depth="1" NCoef="0" IVar="0" Cut="6.5676937103271484e+00" cType="1" res="-1.0827317833900452e-01" rms="4.4221851229667664e-01" purity="3.4125900268554688e-01" nType="0">
          <Node pos="l" depth="2" NCoef="0" IVar="-1" Cut="0.0000000000000000e+00" cType="1" res="-2.0238943397998810e-03" rms="3.9954501390457153e-01" purity="2.1169874072074890e-01" nType="-99"/>
          <Node pos="r" depth="2" NCoef="0" IVar="-1" Cut="0.0000000000000000e+00" cType="1" res="-1.1982410214841366e-03" rms="4.8190522193908691e-01" purity="4.7486072778701782e-01" nType="-99"/>
        </Node>
        <Node pos="r" depth="1" NCoef="0" IVar="0" Cut="7.9912114143371582e+00" cType="1" res="5.6924433447420597e-03" rms="4.5816776156425476e-01" purity="4.9949631094932556e-01" nType="0">
          <Node pos="l" depth="2" NCoef="0" IVar="-1" Cut="0.0000000000000000e+00" cType="1" res="-1.6111361037474126e-04" rms="4.6644023060798645e-01" purity="4.3836900591850281e-01" nType="-99"/>
          <Node pos="r" depth="2" NCoef="0" IVar="-1" Cut="0.0000000000000000e+00" cType="1" res="9.4825925771147013e-04" rms="4.1577130556106567e-01" purity="7.4418258666992188e-01" nType="-99"/>
        </Node>
      </Node>
    </BinaryTree>
    <BinaryTree type="DecisionTree" boostWeight="1.0000000000000000e+00" itree="423">
      <Node pos="s" depth="0" NCoef="0" IVar="1" Cut="1.7218762636184692e+00" cType="1" res="2.5949228554964066e-02" rms="4.5735776424407959e-01" purity="5.1676011085510254e-01" nType="0">
        <Node pos="l" depth="1" NCoef="0" IVar="0" Cut="4.8955197334289551e+00" cType="1" res="3.4668654203414917e-02" rms="4.6336218714714050e-01" purity="5.3967964649200439e-01" nType="0">
          <Node pos="l" depth="2" NCoef="0" IVar="-1" Cut="0.0000000000000000e+00" cType="1" res="-2.0640899892896414e-03" rms="3.6626556515693665e-01" purity="1.6212275624275208e-01" nType="-99"/>
          <Node pos="r" depth="2" NCoef="0" IVar="-1" Cut="0.0000000000000000e+00" cType="1" res="5.2303576376289129e-04" rms="4.6692243218421936e-01" purity="5.6149542331695557e-01" nType="-99"/>
        </Node>
        <Node pos="r" depth="1" NCoef="0" IVar="-1" Cut="0.0000000000000000e+00" cType="1" res="-2.7276086620986462e-03" rms="3.0254510045051575e-01" purity="1.2602072954177856e-01" nType="-99"/>
      </Node>
    </BinaryTree>
    <BinaryTree type="DecisionTree" boostWeight="1.0000000000000000e+00" itree="424">
      <Node pos="s" depth="0" NCoef="0" IVar="5" Cut="9.7006845474243164e-01" cType="1" res="-9.8315160721540451e-03" rms="4.5052227377891541e-01" purity="4.8174363374710083e-01" nType="0">
        <Node pos="l" depth="1" NCoef="0" IVar="3" Cut="1.0308435821533203e+02" cType="1" res="1.2675308622419834e-02" rms="4.5428863167762756e-01" purity="5.2283757925033569e-01" nType="0">
          <Node pos="l" depth="2" NCoef="0" IVar="-1" Cut="0.0000000000000000e+00" cType="1" res="-9.0462970547378063e-05" rms="4.5517447590827942e-01" purity="4.8916703462600708e-01" nType="-99"/>
          <Node pos="r" depth="2" NCoef="0" IVar="-1" Cut="0.0000000000000000e+00" cType="1" res="9.1685599181801081e-04" rms="4.4626605510711670e-01" purity="6.2524670362472534e-01" nType="-99"/>
        </Node>
        <Node pos="r" depth="1" NCoef="0" IVar="7" Cut="-2.4232510477304459e-02" cType="1" res="-1.1820771545171738e-01" rms="4.1518205404281616e-01" purity="2.8386569023132324e-01" nType="0">
          <Node pos="l" depth="2" NCoef="0" IVar="-1" Cut="0.0000000000000000e+00" cType="1" res="-3.0918125994503498e-03" rms="3.9144158363342285e-01" purity="2.3029664158821106e-01" nType="-99"/>
          <Node pos="r" depth="2" NCoef="0" IVar="-1" Cut="0.0000000000000000e+00" cType="1" res="-1.2580442707985640e-03" rms="4.2182895541191101e-01" purity="3.1215015053749084e-01" nType="-99"/>
        </Node>
      </Node>
    </BinaryTree>
    <BinaryTree type="DecisionTree" boostWeight="1.0000000000000000e+00" itree="425">
      <Node pos="s" depth="0" NCoef="0" IVar="1" Cut="1.0570029020309448e+00" cType="1" res="4.2623016051948071e-03" rms="4.4607165455818176e-01" purity="4.9914914369583130e-01" nType="0">
        <Node pos="l" depth="1" NCoef="0" IVar="2" Cut="1.3174163818359375e+02" cType="1" res="3.8778722286224365e-02" rms="4.5384103059768677e-01" purity="5.9886252880096436e-01" nType="0">
          <Node pos="l" depth="2" NCoef="0" IVar="-1" Cut="0.0000000000000000e+00" cType="1" res="-1.1228041257709265e-03" rms="4.3904694914817810e-01" purity="3.8474184274673462e-01" nType="-99"/>
          <Node pos="r" depth="2" NCoef="0" IVar="-1" Cut="0.0000000000000000e+00" cType="1" res="6.3809950370341539e-04" rms="4.5333924889564514e-01" purity="6.2588447332382202e-01" nType="-99"/>
        </Node>
        <Node pos="r" depth="1" NCoef="0" IVar="3" Cut="9.9297988891601562e+01" cType="1" res="-5.5844981223344803e-02" rms="4.2557817697525024e-01" purity="3.2550716400146484e-01" nType="0">
          <Node pos="l" depth="2" NCoef="0" IVar="-1" Cut="0.0000000000000000e+00" cType="1" res="-1.6544495010748506e-03" rms="4.0700006484985352e-01" purity="2.6094079017639160e-01" nType="-99"/>
          <Node pos="r" depth="2" NCoef="0" IVar="-1" Cut="0.0000000000000000e+00" cType="1" res="3.6181914038024843e-04" rms="4.4695651531219482e-01" purity="4.4646266102790833e-01" nType="-99"/>
        </Node>
      </Node>
    </BinaryTree>
    <BinaryTree type="DecisionTree" boostWeight="1.0000000000000000e+00" itree="426">
      <Node pos="s" depth="0" NCoef="0" IVar="3" Cut="9.7317619323730469e+01" cType="1" res="9.0970247983932495e-03" rms="4.5225667953491211e-01" purity="4.9971368908882141e-01" nType="0">
        <Node pos="l" depth="1" NCoef="0" IVar="0" Cut="7.0640411376953125e+00" cType="1" res="-1.4564677141606808e-02" rms="4.5167103409767151e-01" purity="4.6097722649574280e-01" nType="0">
          <Node pos="l" depth="2" NCoef="0" IVar="-1" Cut="0.0000000000000000e+00" cType="1" res="-6.4254086464643478e-04" rms="4.4948965311050415e-01" purity="3.3942124247550964e-01" nType="-99"/>
          <Node pos="r" depth="2" NCoef="0" IVar="-1" Cut="0.0000000000000000e+00" cType="1" res="5.0752586685121059e-04" rms="4.4992074370384216e-01" purity="6.7128908634185791e-01" nType="-99"/>
        </Node>
        <Node pos="r" depth="1" NCoef="0" IVar="5" Cut="9.8220449686050415e-01" cType="1" res="6.5413087606430054e-02" rms="4.4865581393241882e-01" purity="5.9190839529037476e-01" nType="0">
          <Node pos="l" depth="2" NCoef="0" IVar="-1" Cut="0.0000000000000000e+00" cType="1" res="1.1092877248302102e-03" rms="4.4999715685844421e-01" purity="6.3781976699829102e-01" nType="-99"/>
          <Node pos="r" depth="2" NCoef="0" IVar="-1" Cut="0.0000000000000000e+00" cType="1" res="-7.3716224869713187e-04" rms="4.2312964797019958e-01" purity="3.8369691371917725e-01" nType="-99"/>
        </Node>
      </Node>
    </BinaryTree>
    <BinaryTree type="DecisionTree" boostWeight="1.0000000000000000e+00" itree="427">
      <Node pos="s" depth="0" NCoef="0" IVar="3" Cut="1.0454970550537109e+02" cType="1" res="2.8201478999108076e-03" rms="4.5245426893234253e-01" purity="4.9436405301094055e-01" nType="0">
        <Node pos="l" depth="1" NCoef="0" IVar="0" Cut="6.7364001274108887e+00" cType="1" res="-2.5576354935765266e-02" rms="4.5169639587402344e-01" purity="4.5131272077560425e-01" nType="0">
          <Node pos="l" depth="2" NCoef="0" IVar="-1" Cut="0.0000000000000000e+00" cType="1" res="-1.0821891482919455e-03" rms="4.3572446703910828e-01" purity="2.8891935944557190e-01" nType="-99"/>
          <Node pos="r" depth="2" NCoef="0" IVar="-1" Cut="0.0000000000000000e+00" cType="1" res="3.9151322562247515e-04" rms="4.6326056122779846e-01" purity="6.4429378509521484e-01" nType="-99"/>
        </Node>
        <Node pos="r" depth="1" NCoef="0" IVar="6" Cut="6.8830303955078125e+02" cType="1" res="8.4225557744503021e-02" rms="4.4468051195144653e-01" purity="6.1778098344802856e-01" nType="0">
          <Node pos="l" depth="2" NCoef="0" IVar="-1" Cut="0.0000000000000000e+00" cType="1" res="7.1793439565226436e-04" rms="4.4781517982482910e-01" purity="5.7366186380386353e-01" nType="-99"/>
          <Node pos="r" depth="2" NCoef="0" IVar="-1" Cut="0.0000000000000000e+00" cType="1" res="1.6364789335057139e-03" rms="4.3233847618103027e-01" purity="7.0639842748641968e-01" nType="-99"/>
        </Node>
      </Node>
    </BinaryTree>
    <BinaryTree type="DecisionTree" boostWeight="1.0000000000000000e+00" itree="428">
      <Node pos="s" depth="0" NCoef="0" IVar="0" Cut="6.9781455993652344e+00" cType="1" res="1.2804960831999779e-02" rms="4.4352450966835022e-01" purity="5.0906133651733398e-01" nType="0">
        <Node pos="l" depth="1" NCoef="0" IVar="7" Cut="-2.0301438868045807e-02" cType="1" res="-2.6419859379529953e-02" rms="4.5078644156455994e-01" purity="3.6631721258163452e-01" nType="0">
          <Node pos="l" depth="2" NCoef="0" IVar="-1" Cut="0.0000000000000000e+00" cType="1" res="3.3616877044551075e-04" rms="4.6981182694435120e-01" purity="4.4511079788208008e-01" nType="-99"/>
          <Node pos="r" depth="2" NCoef="0" IVar="-1" Cut="0.0000000000000000e+00" cType="1" res="-7.8475830378010869e-04" rms="4.3806359171867371e-01" purity="3.2552036643028259e-01" nType="-99"/>
        </Node>
        <Node pos="r" depth="1" NCoef="0" IVar="4" Cut="-5.8802586048841476e-02" cType="1" res="6.7828953266143799e-02" rms="4.2710396647453308e-01" purity="7.0930069684982300e-01" nType="0">
          <Node pos="l" depth="2" NCoef="0" IVar="-1" Cut="0.0000000000000000e+00" cType="1" res="-3.6142751923762262e-04" rms="4.5754328370094299e-01" purity="5.7073932886123657e-01" nType="-99"/>
          <Node pos="r" depth="2" NCoef="0" IVar="-1" Cut="0.0000000000000000e+00" cType="1" res="1.2225506361573935e-03" rms="4.0872728824615479e-01" purity="7.6293021440505981e-01" nType="-99"/>
        </Node>
      </Node>
    </BinaryTree>
    <BinaryTree type="DecisionTree" boostWeight="1.0000000000000000e+00" itree="429">
      <Node pos="s" depth="0" NCoef="0" IVar="5" Cut="1.0356820821762085e+00" cType="1" res="1.2320540845394135e-02" rms="4.4691556692123413e-01" purity="5.0544810295104980e-01" nType="0">
        <Node pos="l" depth="1" NCoef="0" IVar="0" Cut="5.7898058891296387e+00" cType="1" res="3.0203323811292648e-02" rms="4.4861507415771484e-01" purity="5.3598570823669434e-01" nType="0">
          <Node pos="l" depth="2" NCoef="0" IVar="-1" Cut="0.0000000000000000e+00" cType="1" res="-8.4444659296423197e-04" rms="4.2262971401214600e-01" purity="2.7211353182792664e-01" nType="-99"/>
          <Node pos="r" depth="2" NCoef="0" IVar="-1" Cut="0.0000000000000000e+00" cType="1" res="6.9968128809705377e-04" rms="4.5329958200454712e-01" purity="6.2237191200256348e-01" nType="-99"/>
        </Node>
        <Node pos="r" depth="1" NCoef="0" IVar="2" Cut="2.3875468444824219e+02" cType="1" res="-1.1561255902051926e-01" rms="4.1254183650016785e-01" purity="2.8698262572288513e-01" nType="0">
          <Node pos="l" depth="2" NCoef="0" IVar="-1" Cut="0.0000000000000000e+00" cType="1" res="-7.7947275713086128e-04" rms="4.3804401159286499e-01" purity="3.6637240648269653e-01" nType="-99"/>
          <Node pos="r" depth="2" NCoef="0" IVar="-1" Cut="0.0000000000000000e+00" cType="1" res="-3.3281163778156042e-03" rms="3.6607041954994202e-01" purity="1.9099533557891846e-01" nType="-99"/>
        </Node>
      </Node>
    </BinaryTree>
    <BinaryTree type="DecisionTree" boostWeight="1.0000000000000000e+00" itree="430">
      <Node pos="s" depth="0" NCoef="0" IVar="3" Cut="9.7804534912109375e+01" cType="1" res="-1.2778679374605417e-03" rms="4.5153269171714783e-01" purity="4.8739957809448242e-01" nType="0">
        <Node pos="l" depth="1" NCoef="0" IVar="0" Cut="8.0019769668579102e+00" cType="1" res="-2.6244137436151505e-02" rms="4.5296883583068848e-01" purity="4.4883808493614197e-01" nType="0">
          <Node pos="l" depth="2" NCoef="0" IVar="-1" Cut="0.0000000000000000e+00" cType="1" res="-6.1838835244998336e-04" rms="4.5342117547988892e-01" purity="3.8928180932998657e-01" nType="-99"/>
          <Node pos="r" depth="2" NCoef="0" IVar="-1" Cut="0.0000000000000000e+00" cType="1" res="7.4175675399601460e-04" rms="4.4082573056221008e-01" purity="7.1481961011886597e-01" nType="-99"/>
        </Node>
        <Node pos="r" depth="1" NCoef="0" IVar="1" Cut="8.1983333826065063e-01" cType="1" res="5.7548437267541885e-02" rms="4.4259664416313171e-01" purity="5.7825934886932373e-01" nType="0">
          <Node pos="l" depth="2" NCoef="0" IVar="-1" Cut="0.0000000000000000e+00" cType="1" res="1.5168689424172044e-03" rms="3.9237970113754272e-01" purity="7.8156441450119019e-01" nType="-99"/>
          <Node pos="r" depth="2" NCoef="0" IVar="-1" Cut="0.0000000000000000e+00" cType="1" res="3.7461923784576356e-04" rms="4.6024110913276672e-01" purity="4.8699262738227844e-01" nType="-99"/>
        </Node>
      </Node>
    </BinaryTree>
    <BinaryTree type="DecisionTree" boostWeight="1.0000000000000000e+00" itree="431">
      <Node pos="s" depth="0" NCoef="0" IVar="2" Cut="1.7749301147460938e+02" cType="1" res="-7.2682276368141174e-03" rms="4.5209509134292603e-01" purity="4.8488166928291321e-01" nType="0">
        <Node pos="l" depth="1" NCoef="0" IVar="6" Cut="4.2048886108398438e+02" cType="1" res="-6.7230299115180969e-02" rms="4.6422934532165527e-01" purity="4.0431436896324158e-01" nType="0">
          <Node pos="l" depth="2" NCoef="0" IVar="-1" Cut="0.0000000000000000e+00" cType="1" res="-3.9965583709999919e-04" rms="4.6915033459663391e-01" purity="4.1277122497558594e-01" nType="-99"/>
          <Node pos="r" depth="2" NCoef="0" IVar="-1" Cut="0.0000000000000000e+00" cType="1" res="-1.6539640491828322e-03" rms="4.4982886314392090e-01" purity="3.9076370000839233e-01" nType="-99"/>
        </Node>
        <Node pos="r" depth="1" NCoef="0" IVar="1" Cut="1.0888663530349731e+00" cType="1" res="2.0856108516454697e-02" rms="4.4350582361221313e-01" purity="5.2267056703567505e-01" nType="0">
          <Node pos="l" depth="2" NCoef="0" IVar="-1" Cut="0.0000000000000000e+00" cType="1" res="8.3417032146826386e-04" rms="4.4424247741699219e-01" purity="6.6484719514846802e-01" nType="-99"/>
          <Node pos="r" depth="2" NCoef="0" IVar="-1" Cut="0.0000000000000000e+00" cType="1" res="-7.8936450881883502e-04" rms="4.3274784088134766e-01" purity="3.1727448105812073e-01" nType="-99"/>
        </Node>
      </Node>
    </BinaryTree>
    <BinaryTree type="DecisionTree" boostWeight="1.0000000000000000e+00" itree="432">
      <Node pos="s" depth="0" NCoef="0" IVar="2" Cut="1.9506741333007812e+02" cType="1" res="1.4470924623310566e-02" rms="4.5777034759521484e-01" purity="5.0535017251968384e-01" nType="0">
        <Node pos="l" depth="1" NCoef="0" IVar="3" Cut="6.7947601318359375e+01" cType="1" res="-2.6428842917084694e-02" rms="4.7099834680557251e-01" purity="4.4576674699783325e-01" nType="0">
          <Node pos="l" depth="2" NCoef="0" IVar="-1" Cut="0.0000000000000000e+00" cType="1" res="1.9704086298588663e-04" rms="4.7607192397117615e-01" purity="4.8457610607147217e-01" nType="-99"/>
          <Node pos="r" depth="2" NCoef="0" IVar="-1" Cut="0.0000000000000000e+00" cType="1" res="-1.4171025250107050e-03" rms="4.5025122165679932e-01" purity="3.7136909365653992e-01" nType="-99"/>
        </Node>
        <Node pos="r" depth="1" NCoef="0" IVar="1" Cut="1.0203638076782227e+00" cType="1" res="4.4272135943174362e-02" rms="4.4552755355834961e-01" purity="5.4876500368118286e-01" nType="0">
          <Node pos="l" depth="2" NCoef="0" IVar="-1" Cut="0.0000000000000000e+00" cType="1" res="1.1646860511973500e-03" rms="4.3757629394531250e-01" purity="7.1612381935119629e-01" nType="-99"/>
          <Node pos="r" depth="2" NCoef="0" IVar="-1" Cut="0.0000000000000000e+00" cType="1" res="-1.9272306235507131e-04" rms="4.4650408625602722e-01" purity="3.7463915348052979e-01" nType="-99"/>
        </Node>
      </Node>
    </BinaryTree>
    <BinaryTree type="DecisionTree" boostWeight="1.0000000000000000e+00" itree="433">
      <Node pos="s" depth="0" NCoef="0" IVar="1" Cut="8.8519948720932007e-01" cType="1" res="2.9743616469204426e-03" rms="4.5694854855537415e-01" purity="4.9689096212387085e-01" nType="0">
        <Node pos="l" depth="1" NCoef="0" IVar="2" Cut="1.5638414001464844e+02" cType="1" res="4.3170340359210968e-02" rms="4.5290634036064148e-01" purity="6.0992139577865601e-01" nType="0">
          <Node pos="l" depth="2" NCoef="0" IVar="-1" Cut="0.0000000000000000e+00" cType="1" res="-4.9808208132162690e-04" rms="4.6519854664802551e-01" purity="4.6141016483306885e-01" nType="-99"/>
          <Node pos="r" depth="2" NCoef="0" IVar="-1" Cut="0.0000000000000000e+00" cType="1" res="8.7582116248086095e-04" rms="4.4394236803054810e-01" purity="6.6746705770492554e-01" nType="-99"/>
        </Node>
        <Node pos="r" depth="1" NCoef="0" IVar="2" Cut="3.2599780273437500e+02" cType="1" res="-3.4615416079759598e-02" rms="4.5751217007637024e-01" purity="3.9118909835815430e-01" nType="0">
          <Node pos="l" depth="2" NCoef="0" IVar="-1" Cut="0.0000000000000000e+00" cType="1" res="-1.8098941654898226e-04" rms="4.6844017505645752e-01" purity="4.2405307292938232e-01" nType="-99"/>
          <Node pos="r" depth="2" NCoef="0" IVar="-1" Cut="0.0000000000000000e+00" cType="1" res="-1.7869595903903246e-03" rms="4.1076496243476868e-01" purity="2.8109917044639587e-01" nType="-99"/>
        </Node>
      </Node>
    </BinaryTree>
    <BinaryTree type="DecisionTree" boostWeight="1.0000000000000000e+00" itree="434">
      <Node pos="s" depth="0" NCoef="0" IVar="3" Cut="4.6720394134521484e+01" cType="1" res="2.0270062610507011e-02" rms="4.5348978042602539e-01" purity="5.1311820745468140e-01" nType="0">
        <Node pos="l" depth="1" NCoef="0" IVar="0" Cut="5.7914257049560547e+00" cType="1" res="-6.4470946788787842e-02" rms="4.5028683543205261e-01" purity="3.9571970701217651e-01" nType="0">
          <Node pos="l" depth="2" NCoef="0" IVar="-1" Cut="0.0000000000000000e+00" cType="1" res="-2.7969251386821270e-03" rms="3.4362241625785828e-01" purity="1.4639043807983398e-01" nType="-99"/>
          <Node pos="r" depth="2" NCoef="0" IVar="-1" Cut="0.0000000000000000e+00" cType="1" res="-2.9541464755311608e-04" rms="4.8092284798622131e-01" purity="4.9713453650474548e-01" nType="-99"/>
        </Node>
        <Node pos="r" depth="1" NCoef="0" IVar="5" Cut="1.0162911415100098e+00" cType="1" res="3.7932123988866806e-02" rms="4.5215889811515808e-01" purity="5.3758680820465088e-01" nType="0">
          <Node pos="l" depth="2" NCoef="0" IVar="-1" Cut="0.0000000000000000e+00" cType="1" res="6.8175984779372811e-04" rms="4.5453894138336182e-01" purity="5.6910610198974609e-01" nType="-99"/>
          <Node pos="r" depth="2" NCoef="0" IVar="-1" Cut="0.0000000000000000e+00" cType="1" res="-1.1606663465499878e-03" rms="4.1803345084190369e-01" purity="3.2221722602844238e-01" nType="-99"/>
        </Node>
      </Node>
    </BinaryTree>
    <BinaryTree type="DecisionTree" boostWeight="1.0000000000000000e+00" itree="435">
      <Node pos="s" depth="0" NCoef="0" IVar="1" Cut="1.0620512962341309e+00" cType="1" res="1.8532533198595047e-02" rms="4.5530354976654053e-01" purity="5.1306581497192383e-01" nType="0">
        <Node pos="l" depth="1" NCoef="0" IVar="2" Cut="2.1185667419433594e+02" cType="1" res="4.6598035842180252e-02" rms="4.5714730024337769e-01" purity="6.0668772459030151e-01" nType="0">
          <Node pos="l" depth="2" NCoef="0" IVar="-1" Cut="0.0000000000000000e+00" cType="1" res="9.6538235084153712e-05" rms="4.6565595269203186e-01" purity="5.3482311964035034e-01" nType="-99"/>
          <Node pos="r" depth="2" NCoef="0" IVar="-1" Cut="0.0000000000000000e+00" cType="1" res="1.2202425859868526e-03" rms="4.3699234724044800e-01" purity="7.1777993440628052e-01" nType="-99"/>
        </Node>
        <Node pos="r" depth="1" NCoef="0" IVar="7" Cut="-7.8304205089807510e-03" cType="1" res="-3.1623017042875290e-02" rms="4.4762891530990601e-01" purity="3.4575504064559937e-01" nType="0">
          <Node pos="l" depth="2" NCoef="0" IVar="-1" Cut="0.0000000000000000e+00" cType="1" res="-1.4922292903065681e-03" rms="4.4534909725189209e-01" purity="3.2813265919685364e-01" nType="-99"/>
          <Node pos="r" depth="2" NCoef="0" IVar="-1" Cut="0.0000000000000000e+00" cType="1" res="5.1180591981392354e-05" rms="4.4466590881347656e-01" purity="3.5455995798110962e-01" nType="-99"/>
        </Node>
      </Node>
    </BinaryTree>
    <BinaryTree type="DecisionTree" boostWeight="1.0000000000000000e+00" itree="436">
      <Node pos="s" depth="0" NCoef="0" IVar="2" Cut="1.2833381652832031e+02" cType="1" res="1.2239209376275539e-02" rms="4.5270350575447083e-01" purity="5.0002932548522949e-01" nType="0">
        <Node pos="l" depth="1" NCoef="0" IVar="-1" Cut="0.0000000000000000e+00" cType="1" res="-1.8858879338949919e-03" rms="4.4077181816101074e-01" purity="3.3542063832283020e-01" nType="-99"/>
        <Node pos="r" depth="1" NCoef="0" IVar="4" Cut="-8.4055684506893158e-02" cType="1" res="2.2857606410980225e-02" rms="4.5171850919723511e-01" purity="5.1198500394821167e-01" nType="0">
          <Node pos="l" depth="2" NCoef="0" IVar="-1" Cut="0.0000000000000000e+00" cType="1" res="-6.0298870084807277e-04" rms="4.2639765143394470e-01" purity="4.0673631429672241e-01" nType="-99"/>
          <Node pos="r" depth="2" NCoef="0" IVar="-1" Cut="0.0000000000000000e+00" cType="1" res="5.2954442799091339e-04" rms="4.5723220705986023e-01" purity="5.4348576068878174e-01" nType="-99"/>
        </Node>
      </Node>
    </BinaryTree>
    <BinaryTree type="DecisionTree" boostWeight="1.0000000000000000e+00" itree="437">
      <Node pos="s" depth="0" NCoef="0" IVar="1" Cut="7.0265620946884155e-01" cType="1" res="1.5213004080578685e-03" rms="4.5261994004249573e-01" purity="4.9066749215126038e-01" nType="0">
        <Node pos="l" depth="1" NCoef="0" IVar="7" Cut="-4.0690239518880844e-02" cType="1" res="6.2612146139144897e-02" rms="4.5014464855194092e-01" purity="6.3075703382492065e-01" nType="0">
          <Node pos="l" depth="2" NCoef="0" IVar="-1" Cut="0.0000000000000000e+00" cType="1" res="1.8168606329709291e-03" rms="4.1091546416282654e-01" purity="7.4551773071289062e-01" nType="-99"/>
          <Node pos="r" depth="2" NCoef="0" IVar="-1" Cut="0.0000000000000000e+00" cType="1" res="2.3259336012415588e-04" rms="4.5860919356346130e-01" purity="5.8278805017471313e-01" nType="-99"/>
        </Node>
        <Node pos="r" depth="1" NCoef="0" IVar="0" Cut="7.4097919464111328e+00" cType="1" res="-2.6080841198563576e-02" rms="4.5102807879447937e-01" purity="4.2737203836441040e-01" nType="0">
          <Node pos="l" depth="2" NCoef="0" IVar="-1" Cut="0.0000000000000000e+00" cType="1" res="-8.8286679238080978e-04" rms="4.4578981399536133e-01" purity="3.2716217637062073e-01" nType="-99"/>
          <Node pos="r" depth="2" NCoef="0" IVar="-1" Cut="0.0000000000000000e+00" cType="1" res="7.2408659616485238e-04" rms="4.5252439379692078e-01" purity="6.7579632997512817e-01" nType="-99"/>
        </Node>
      </Node>
    </BinaryTree>
    <BinaryTree type="DecisionTree" boostWeight="1.0000000000000000e+00" itree="438">
      <Node pos="s" depth="0" NCoef="0" IVar="0" Cut="7.9912114143371582e+00" cType="1" res="3.2756975851953030e-03" rms="4.5336583256721497e-01" purity="4.9787154793739319e-01" nType="0">
        <Node pos="l" depth="1" NCoef="0" IVar="0" Cut="4.9884033203125000e+00" cType="1" res="-1.3345918618142605e-02" rms="4.6226781606674194e-01" purity="4.3428069353103638e-01" nType="0">
          <Node pos="l" depth="2" NCoef="0" IVar="-1" Cut="0.0000000000000000e+00" cType="1" res="-2.2786662448197603e-03" rms="3.4024801850318909e-01" purity="1.5015634894371033e-01" nType="-99"/>
          <Node pos="r" depth="2" NCoef="0" IVar="-1" Cut="0.0000000000000000e+00" cType="1" res="-9.4498036560253240e-06" rms="4.7254157066345215e-01" purity="4.6665298938751221e-01" nType="-99"/>
        </Node>
        <Node pos="r" depth="1" NCoef="0" IVar="3" Cut="8.6479705810546875e+01" cType="1" res="6.6601589322090149e-02" rms="4.1161131858825684e-01" purity="7.4014323949813843e-01" nType="0">
          <Node pos="l" depth="2" NCoef="0" IVar="-1" Cut="0.0000000000000000e+00" cType="1" res="2.2279386757872999e-04" rms="4.4391217827796936e-01" purity="6.7804390192031860e-01" nType="-99"/>
          <Node pos="r" depth="2" NCoef="0" IVar="-1" Cut="0.0000000000000000e+00" cType="1" res="1.4709435636177659e-03" rms="3.6506220698356628e-01" purity="8.0892866849899292e-01" nType="-99"/>
        </Node>
      </Node>
    </BinaryTree>
    <BinaryTree type="DecisionTree" boostWeight="1.0000000000000000e+00" itree="439">
      <Node pos="s" depth="0" NCoef="0" IVar="3" Cut="9.5436431884765625e+01" cType="1" res="1.3169208541512489e-02" rms="4.5445549488067627e-01" purity="5.0116711854934692e-01" nType="0">
        <Node pos="l" depth="1" NCoef="0" IVar="4" Cut="5.5522833019495010e-02" cType="1" res="-8.7171280756592751e-03" rms="4.5175951719284058e-01" purity="4.6761360764503479e-01" nType="0">
          <Node pos="l" depth="2" NCoef="0" IVar="-1" Cut="0.0000000000000000e+00" cType="1" res="-6.5108481794595718e-04" rms="4.4007164239883423e-01" purity="4.0575721859931946e-01" nType="-99"/>
          <Node pos="r" depth="2" NCoef="0" IVar="-1" Cut="0.0000000000000000e+00" cType="1" res="6.4786616712808609e-04" rms="4.6333208680152893e-01" purity="5.6735956668853760e-01" nType="-99"/>
        </Node>
        <Node pos="r" depth="1" NCoef="0" IVar="6" Cut="5.4551861572265625e+02" cType="1" res="6.7010506987571716e-02" rms="4.5657721161842346e-01" purity="5.8371019363403320e-01" nType="0">
          <Node pos="l" depth="2" NCoef="0" IVar="-1" Cut="0.0000000000000000e+00" cType="1" res="1.3249999028630555e-04" rms="4.6117272973060608e-01" purity="4.7522613406181335e-01" nType="-99"/>
          <Node pos="r" depth="2" NCoef="0" IVar="-1" Cut="0.0000000000000000e+00" cType="1" res="1.4183666789904237e-03" rms="4.4647923111915588e-01" purity="6.7918610572814941e-01" nType="-99"/>
        </Node>
      </Node>
    </BinaryTree>
    <BinaryTree type="DecisionTree" boostWeight="1.0000000000000000e+00" itree="440">
      <Node pos="s" depth="0" NCoef="0" IVar="1" Cut="1.5819377899169922e+00" cType="1" res="2.9113430064171553e-03" rms="4.5159980654716492e-01" purity="4.8964458703994751e-01" nType="0">
        <Node pos="l" depth="1" NCoef="0" IVar="2" Cut="2.1797380065917969e+02" cType="1" res="1.5110203064978123e-02" rms="4.5962247252464294e-01" purity="5.2568459510803223e-01" nType="0">
          <Node pos="l" depth="2" NCoef="0" IVar="-1" Cut="0.0000000000000000e+00" cType="1" res="-2.0519220561254770e-04" rms="4.5904096961021423e-01" purity="4.6673837304115295e-01" nType="-99"/>
          <Node pos="r" depth="2" NCoef="0" IVar="-1" Cut="0.0000000000000000e+00" cType="1" res="6.6853879252448678e-04" rms="4.5747944712638855e-01" purity="5.9683728218078613e-01" nType="-99"/>
        </Node>
        <Node pos="r" depth="1" NCoef="0" IVar="-1" Cut="0.0000000000000000e+00" cType="1" res="-2.3729526437819004e-03" rms="3.4965845942497253e-01" purity="1.5644858777523041e-01" nType="-99"/>
      </Node>
    </BinaryTree>
    <BinaryTree type="DecisionTree" boostWeight="1.0000000000000000e+00" itree="441">
      <Node pos="s" depth="0" NCoef="0" IVar="0" Cut="8.6951684951782227e+00" cType="1" res="-1.6094485297799110e-02" rms="4.5328009128570557e-01" purity="4.8182332515716553e-01" nType="0">
        <Node pos="l" depth="1" NCoef="0" IVar="1" Cut="6.8915438652038574e-01" cType="1" res="-3.0987916514277458e-02" rms="4.5700180530548096e-01" purity="4.4527941942214966e-01" nType="0">
          <Node pos="l" depth="2" NCoef="0" IVar="-1" Cut="0.0000000000000000e+00" cType="1" res="3.9174518315121531e-04" rms="4.6571415662765503e-01" purity="5.7511693239212036e-01" nType="-99"/>
          <Node pos="r" depth="2" NCoef="0" IVar="-1" Cut="0.0000000000000000e+00" cType="1" res="-7.9772988101467490e-04" rms="4.5096075534820557e-01" purity="3.9345648884773254e-01" nType="-99"/>
        </Node>
        <Node pos="r" depth="1" NCoef="0" IVar="-1" Cut="0.0000000000000000e+00" cType="1" res="1.2941729510203004e-03" rms="3.9790996909141541e-01" purity="7.9453498125076294e-01" nType="-99"/>
      </Node>
    </BinaryTree>
    <BinaryTree type="DecisionTree" boostWeight="1.0000000000000000e+00" itree="442">
      <Node pos="s" depth="0" NCoef="0" IVar="1" Cut="6.3692426681518555e-01" cType="1" res="1.2997289188206196e-02" rms="4.6117007732391357e-01" purity="5.0738096237182617e-01" nType="0">
        <Node pos="l" depth="1" NCoef="0" IVar="1" Cut="4.8428153991699219e-01" cType="1" res="8.4437087178230286e-02" rms="4.5964890718460083e-01" purity="6.5731340646743774e-01" nType="0">
          <Node pos="l" depth="2" NCoef="0" IVar="-1" Cut="0.0000000000000000e+00" cType="1" res="2.7876975946128368e-04" rms="4.4539880752563477e-01" purity="6.0836350917816162e-01" nType="-99"/>
          <Node pos="r" depth="2" NCoef="0" IVar="-1" Cut="0.0000000000000000e+00" cType="1" res="1.5145462239161134e-03" rms="4.6510830521583557e-01" purity="6.9844466447830200e-01" nType="-99"/>
        </Node>
        <Node pos="r" depth="1" NCoef="0" IVar="2" Cut="1.5374024963378906e+02" cType="1" res="-1.1072914116084576e-02" rms="4.5918494462966919e-01" purity="4.5686432719230652e-01" nType="0">
          <Node pos="l" depth="2" NCoef="0" IVar="-1" Cut="0.0000000000000000e+00" cType="1" res="-1.4354115119203925e-03" rms="4.5913335680961609e-01" purity="3.4301185607910156e-01" nType="-99"/>
          <Node pos="r" depth="2" NCoef="0" IVar="-1" Cut="0.0000000000000000e+00" cType="1" res="6.2214836361818016e-05" rms="4.5734500885009766e-01" purity="4.7624143958091736e-01" nType="-99"/>
        </Node>
      </Node>
    </BinaryTree>
    <BinaryTree type="DecisionTree" boostWeight="1.0000000000000000e+00" itree="443">
      <Node pos="s" depth="0" NCoef="0" IVar="6" Cut="3.4869012451171875e+02" cType="1" res="-1.1885568499565125e-02" rms="4.5042085647583008e-01" purity="4.7346112132072449e-01" nType="0">
        <Node pos="l" depth="1" NCoef="0" IVar="2" Cut="1.6770892333984375e+02" cType="1" res="-9.8442249000072479e-02" rms="4.0467157959938049e-01" purity="2.7748757600784302e-01" nType="0">
          <Node pos="l" depth="2" NCoef="0" IVar="-1" Cut="0.0000000000000000e+00" cType="1" res="-4.5009661698713899e-04" rms="4.3318027257919312e-01" purity="3.7906023859977722e-01" nType="-99"/>
          <Node pos="r" depth="2" NCoef="0" IVar="-1" Cut="0.0000000000000000e+00" cType="1" res="-3.2141907140612602e-03" rms="3.5031276941299438e-01" purity="1.5377250313758850e-01" nType="-99"/>
        </Node>
        <Node pos="r" depth="1" NCoef="0" IVar="2" Cut="1.9786468505859375e+02" cType="1" res="5.1081571727991104e-03" rms="4.5694604516029358e-01" purity="5.1193672418594360e-01" nType="0">
          <Node pos="l" depth="2" NCoef="0" IVar="-1" Cut="0.0000000000000000e+00" cType="1" res="-6.1281584203243256e-04" rms="4.6803340315818787e-01" purity="4.4335556030273438e-01" nType="-99"/>
          <Node pos="r" depth="2" NCoef="0" IVar="-1" Cut="0.0000000000000000e+00" cType="1" res="4.8916199011728168e-04" rms="4.4702818989753723e-01" purity="5.5343288183212280e-01" nType="-99"/>
        </Node>
      </Node>
    </BinaryTree>
    <BinaryTree type="DecisionTree" boostWeight="1.0000000000000000e+00" itree="444">
      <Node pos="s" depth="0" NCoef="0" IVar="6" Cut="3.1995004272460938e+02" cType="1" res="3.1372881494462490e-04" rms="4.5734149217605591e-01" purity="4.9356284737586975e-01" nType="0">
        <Node pos="l" depth="1" NCoef="0" IVar="-1" Cut="0.0000000000000000e+00" cType="1" res="-1.5912411035969853e-03" rms="4.1596120595932007e-01" purity="2.7221089601516724e-01" nType="-99"/>
        <Node pos="r" depth="1" NCoef="0" IVar="0" Cut="7.5141105651855469e+00" cType="1" res="9.9234329536557198e-03" rms="4.5993244647979736e-01" purity="5.1462930440902710e-01" nType="0">
          <Node pos="l" depth="2" NCoef="0" IVar="-1" Cut="0.0000000000000000e+00" cType="1" res="-1.1803072266047820e-04" rms="4.7012463212013245e-01" purity="4.3001553416252136e-01" nType="-99"/>
          <Node pos="r" depth="2" NCoef="0" IVar="-1" Cut="0.0000000000000000e+00" cType="1" res="6.5291550708934665e-04" rms="4.3275329470634460e-01" purity="7.0744746923446655e-01" nType="-99"/>
        </Node>
      </Node>
    </BinaryTree>
    <BinaryTree type="DecisionTree" boostWeight="1.0000000000000000e+00" itree="445">
      <Node pos="s" depth="0" NCoef="0" IVar="1" Cut="1.1632668972015381e+00" cType="1" res="2.3411672562360764e-02" rms="4.5118138194084167e-01" purity="5.1152414083480835e-01" nType="0">
        <Node pos="l" depth="1" NCoef="0" IVar="2" Cut="1.9358525085449219e+02" cType="1" res="4.8463679850101471e-02" rms="4.5893746614456177e-01" purity="5.9418940544128418e-01" nType="0">
          <Node pos="l" depth="2" NCoef="0" IVar="-1" Cut="0.0000000000000000e+00" cType="1" res="8.5563799075316638e-05" rms="4.7304388880729675e-01" purity="5.0281560420989990e-01" nType="-99"/>
          <Node pos="r" depth="2" NCoef="0" IVar="-1" Cut="0.0000000000000000e+00" cType="1" res="1.0647366289049387e-03" rms="4.4066083431243896e-01" purity="6.8486016988754272e-01" nType="-99"/>
        </Node>
        <Node pos="r" depth="1" NCoef="0" IVar="0" Cut="6.1197323799133301e+00" cType="1" res="-3.8464955985546112e-02" rms="4.2514780163764954e-01" purity="3.0734685063362122e-01" nType="0">
          <Node pos="l" depth="2" NCoef="0" IVar="-1" Cut="0.0000000000000000e+00" cType="1" res="-2.3029781877994537e-03" rms="3.3338308334350586e-01" purity="1.3424023985862732e-01" nType="-99"/>
          <Node pos="r" depth="2" NCoef="0" IVar="-1" Cut="0.0000000000000000e+00" cType="1" res="1.7864047549664974e-04" rms="4.7347974777221680e-01" purity="4.3102610111236572e-01" nType="-99"/>
        </Node>
      </Node>
    </BinaryTree>
    <BinaryTree type="DecisionTree" boostWeight="1.0000000000000000e+00" itree="446">
      <Node pos="s" depth="0" NCoef="0" IVar="4" Cut="-1.1781410127878189e-01" cType="1" res="8.8959969580173492e-03" rms="4.5624759793281555e-01" purity="5.0537508726119995e-01" nType="0">
        <Node pos="l" depth="1" NCoef="0" IVar="-1" Cut="0.0000000000000000e+00" cType="1" res="-1.5463279560208321e-03" rms="4.2079180479049683e-01" purity="3.2472440600395203e-01" nType="-99"/>
        <Node pos="r" depth="1" NCoef="0" IVar="0" Cut="8.9629125595092773e+00" cType="1" res="2.0610965788364410e-02" rms="4.5833319425582886e-01" purity="5.2470469474792480e-01" nType="0">
          <Node pos="l" depth="2" NCoef="0" IVar="-1" Cut="0.0000000000000000e+00" cType="1" res="1.0910145647358149e-04" rms="4.6527954936027527e-01" purity="4.9371534585952759e-01" nType="-99"/>
          <Node pos="r" depth="2" NCoef="0" IVar="-1" Cut="0.0000000000000000e+00" cType="1" res="1.5987189253792167e-03" rms="3.5925057530403137e-01" purity="8.3718895912170410e-01" nType="-99"/>
        </Node>
      </Node>
    </BinaryTree>
    <BinaryTree type="DecisionTree" boostWeight="1.0000000000000000e+00" itree="447">
      <Node pos="s" depth="0" NCoef="0" IVar="4" Cut="-5.9708915650844574e-03" cType="1" res="5.6627844460308552e-03" rms="4.5837691426277161e-01" purity="4.9435275793075562e-01" nType="0">
        <Node pos="l" depth="1" NCoef="0" IVar="5" Cut="9.9001646041870117e-01" cType="1" res="-3.7597157061100006e-02" rms="4.4955551624298096e-01" purity="4.2665430903434753e-01" nType="0">
          <Node pos="l" depth="2" NCoef="0" IVar="-1" Cut="0.0000000000000000e+00" cType="1" res="-2.4690027930773795e-04" rms="4.6032431721687317e-01" purity="4.6038055419921875e-01" nType="-99"/>
          <Node pos="r" depth="2" NCoef="0" IVar="-1" Cut="0.0000000000000000e+00" cType="1" res="-3.1908978708088398e-03" rms="3.2870125770568848e-01" purity="1.8007606267929077e-01" nType="-99"/>
        </Node>
        <Node pos="r" depth="1" NCoef="0" IVar="0" Cut="4.9794888496398926e+00" cType="1" res="4.5322515070438385e-02" rms="4.6277806162834167e-01" purity="5.5641710758209229e-01" nType="0">
          <Node pos="l" depth="2" NCoef="0" IVar="-1" Cut="0.0000000000000000e+00" cType="1" res="-1.3403412885963917e-03" rms="3.9965087175369263e-01" purity="2.0544566214084625e-01" nType="-99"/>
          <Node pos="r" depth="2" NCoef="0" IVar="-1" Cut="0.0000000000000000e+00" cType="1" res="7.3898350819945335e-04" rms="4.6770277619361877e-01" purity="5.9929847717285156e-01" nType="-99"/>
        </Node>
      </Node>
    </BinaryTree>
    <BinaryTree type="DecisionTree" boostWeight="1.0000000000000000e+00" itree="448">
      <Node pos="s" depth="0" NCoef="0" IVar="1" Cut="1.0570029020309448e+00" cType="1" res="5.6671947240829468e-03" rms="4.4838187098503113e-01" purity="4.9974590539932251e-01" nType="0">
        <Node pos="l" depth="1" NCoef="0" IVar="4" Cut="-1.7175519838929176e-02" cType="1" res="4.6605281531810760e-02" rms="4.5552378892898560e-01" purity="6.0620844364166260e-01" nType="0">
          <Node pos="l" depth="2" NCoef="0" IVar="-1" Cut="0.0000000000000000e+00" cType="1" res="-2.3567621246911585e-04" rms="4.6272373199462891e-01" purity="5.3561806678771973e-01" nType="-99"/>
          <Node pos="r" depth="2" NCoef="0" IVar="-1" Cut="0.0000000000000000e+00" cType="1" res="9.5215998589992523e-04" rms="4.4783431291580200e-01" purity="6.4312636852264404e-01" nType="-99"/>
        </Node>
        <Node pos="r" depth="1" NCoef="0" IVar="0" Cut="7.4287104606628418e+00" cType="1" res="-6.5305754542350769e-02" rms="4.2651116847991943e-01" purity="3.1517535448074341e-01" nType="0">
          <Node pos="l" depth="2" NCoef="0" IVar="-1" Cut="0.0000000000000000e+00" cType="1" res="-1.6470078844577074e-03" rms="4.0243083238601685e-01" purity="2.3481054604053497e-01" nType="-99"/>
          <Node pos="r" depth="2" NCoef="0" IVar="-1" Cut="0.0000000000000000e+00" cType="1" res="3.8960354868322611e-04" rms="4.7792953252792358e-01" purity="5.5260062217712402e-01" nType="-99"/>
        </Node>
      </Node>
    </BinaryTree>
    <BinaryTree type="DecisionTree" boostWeight="1.0000000000000000e+00" itree="449">
      <Node pos="s" depth="0" NCoef="0" IVar="7" Cut="-4.8660341650247574e-02" cType="1" res="-1.1102198623120785e-03" rms="4.4881516695022583e-01" purity="4.8480436205863953e-01" nType="0">
        <Node pos="l" depth="1" NCoef="0" IVar="1" Cut="7.7752196788787842e-01" cType="1" res="6.9774016737937927e-02" rms="4.3590277433395386e-01" purity="6.1226546764373779e-01" nType="0">
          <Node pos="l" depth="2" NCoef="0" IVar="-1" Cut="0.0000000000000000e+00" cType="1" res="1.8105690833181143e-03" rms="4.1215154528617859e-01" purity="7.3944234848022461e-01" nType="-99"/>
          <Node pos="r" depth="2" NCoef="0" IVar="-1" Cut="0.0000000000000000e+00" cType="1" res="-3.0724355019629002e-04" rms="4.3886619806289673e-01" purity="4.8667973279953003e-01" nType="-99"/>
        </Node>
        <Node pos="r" depth="1" NCoef="0" IVar="2" Cut="1.4041648864746094e+02" cType="1" res="-1.8787555396556854e-02" rms="4.5024263858795166e-01" purity="4.5301774144172668e-01" nType="0">
          <Node pos="l" depth="2" NCoef="0" IVar="-1" Cut="0.0000000000000000e+00" cType="1" res="-1.5001918654888868e-03" rms="4.5803213119506836e-01" purity="3.4162938594818115e-01" nType="-99"/>
          <Node pos="r" depth="2" NCoef="0" IVar="-1" Cut="0.0000000000000000e+00" cType="1" res="-8.4951781900599599e-05" rms="4.4770926237106323e-01" purity="4.6865850687026978e-01" nType="-99"/>
        </Node>
      </Node>
    </BinaryTree>
    <BinaryTree type="DecisionTree" boostWeight="1.0000000000000000e+00" itree="450">
      <Node pos="s" depth="0" NCoef="0" IVar="3" Cut="1.0454970550537109e+02" cType="1" res="1.4181799255311489e-02" rms="4.5198196172714233e-01" purity="5.0464469194412231e-01" nType="0">
        <Node pos="l" depth="1" NCoef="0" IVar="2" Cut="3.3782278442382812e+02" cType="1" res="-4.8072286881506443e-03" rms="4.5414498448371887e-01" purity="4.7148075699806213e-01" nType="0">
          <Node pos="l" depth="2" NCoef="0" IVar="-1" Cut="0.0000000000000000e+00" cType="1" res="7.7952914580237120e-05" rms="4.5898446440696716e-01" purity="4.9004808068275452e-01" nType="-99"/>
          <Node pos="r" depth="2" NCoef="0" IVar="-1" Cut="0.0000000000000000e+00" cType="1" res="-2.3443894460797310e-03" rms="3.7153634428977966e-01" purity="2.5710648298263550e-01" nType="-99"/>
        </Node>
        <Node pos="r" depth="1" NCoef="0" IVar="1" Cut="8.9979118108749390e-01" cType="1" res="7.5926981866359711e-02" rms="4.3923753499984741e-01" purity="6.1248123645782471e-01" nType="0">
          <Node pos="l" depth="2" NCoef="0" IVar="-1" Cut="0.0000000000000000e+00" cType="1" res="1.5854081138968468e-03" rms="3.8775533437728882e-01" purity="7.9332071542739868e-01" nType="-99"/>
          <Node pos="r" depth="2" NCoef="0" IVar="-1" Cut="0.0000000000000000e+00" cType="1" res="4.4971029274165630e-04" rms="4.6882164478302002e-01" purity="4.8030212521553040e-01" nType="-99"/>
        </Node>
      </Node>
    </BinaryTree>
    <BinaryTree type="DecisionTree" boostWeight="1.0000000000000000e+00" itree="451">
      <Node pos="s" depth="0" NCoef="0" IVar="2" Cut="3.5288992309570312e+02" cType="1" res="-1.1332422494888306e-02" rms="4.4958260655403137e-01" purity="4.8099079728126526e-01" nType="0">
        <Node pos="l" depth="1" NCoef="0" IVar="2" Cut="1.9213903808593750e+02" cType="1" res="4.5712934806942940e-03" rms="4.5431268215179443e-01" purity="5.0658816099166870e-01" nType="0">
          <Node pos="l" depth="2" NCoef="0" IVar="-1" Cut="0.0000000000000000e+00" cType="1" res="-7.5152091449126601e-04" rms="4.5768758654594421e-01" purity="4.1515973210334778e-01" nType="-99"/>
          <Node pos="r" depth="2" NCoef="0" IVar="-1" Cut="0.0000000000000000e+00" cType="1" res="6.9708010414615273e-04" rms="4.4518086314201355e-01" purity="5.8124995231628418e-01" nType="-99"/>
        </Node>
        <Node pos="r" depth="1" NCoef="0" IVar="5" Cut="7.2947180271148682e-01" cType="1" res="-1.2644326686859131e-01" rms="3.9509168267250061e-01" purity="2.9571780562400818e-01" nType="0">
          <Node pos="l" depth="2" NCoef="0" IVar="-1" Cut="0.0000000000000000e+00" cType="1" res="-8.4108067676424980e-04" rms="4.3518862128257751e-01" purity="4.3582797050476074e-01" nType="-99"/>
          <Node pos="r" depth="2" NCoef="0" IVar="-1" Cut="0.0000000000000000e+00" cType="1" res="-3.6512911319732666e-03" rms="3.4744700789451599e-01" purity="1.7824985086917877e-01" nType="-99"/>
        </Node>
      </Node>
    </BinaryTree>
    <BinaryTree type="DecisionTree" boostWeight="1.0000000000000000e+00" itree="452">
      <Node pos="s" depth="0" NCoef="0" IVar="6" Cut="4.5751992797851562e+02" cType="1" res="7.2616040706634521e-03" rms="4.5226919651031494e-01" purity="4.9878370761871338e-01" nType="0">
        <Node pos="l" depth="1" NCoef="0" IVar="6" Cut="3.1287655639648438e+02" cType="1" res="-3.4424677491188049e-02" rms="4.4894269108772278e-01" purity="4.1052865982055664e-01" nType="0">
          <Node pos="l" depth="2" NCoef="0" IVar="-1" Cut="0.0000000000000000e+00" cType="1" res="-2.3820917122066021e-03" rms="3.7919831275939941e-01" purity="2.1150819957256317e-01" nType="-99"/>
          <Node pos="r" depth="2" NCoef="0" IVar="-1" Cut="0.0000000000000000e+00" cType="1" res="-2.3038026120048016e-04" rms="4.5691928267478943e-01" purity="4.4270431995391846e-01" nType="-99"/>
        </Node>
        <Node pos="r" depth="1" NCoef="0" IVar="1" Cut="1.0944136381149292e+00" cType="1" res="4.9022171646356583e-02" rms="4.5173653960227966e-01" purity="5.8719605207443237e-01" nType="0">
          <Node pos="l" depth="2" NCoef="0" IVar="-1" Cut="0.0000000000000000e+00" cType="1" res="8.9002511231228709e-04" rms="4.5105978846549988e-01" purity="6.7006838321685791e-01" nType="-99"/>
          <Node pos="r" depth="2" NCoef="0" IVar="-1" Cut="0.0000000000000000e+00" cType="1" res="-2.9166223248466849e-04" rms="4.4591689109802246e-01" purity="3.8161224126815796e-01" nType="-99"/>
        </Node>
      </Node>
    </BinaryTree>
    <BinaryTree type="DecisionTree" boostWeight="1.0000000000000000e+00" itree="453">
      <Node pos="s" depth="0" NCoef="0" IVar="1" Cut="1.3916972875595093e+00" cType="1" res="1.3201133348047733e-02" rms="4.4673740863800049e-01" purity="5.0532251596450806e-01" nType="0">
        <Node pos="l" depth="1" NCoef="0" IVar="0" Cut="6.3101048469543457e+00" cType="1" res="2.9174210503697395e-02" rms="4.5399060845375061e-01" purity="5.5793440341949463e-01" nType="0">
          <Node pos="l" depth="2" NCoef="0" IVar="-1" Cut="0.0000000000000000e+00" cType="1" res="-2.6355098816566169e-04" rms="4.6140226721763611e-01" purity="3.6477378010749817e-01" nType="-99"/>
          <Node pos="r" depth="2" NCoef="0" IVar="-1" Cut="0.0000000000000000e+00" cType="1" res="7.1042403578758240e-04" rms="4.4628036022186279e-01" purity="6.8262052536010742e-01" nType="-99"/>
        </Node>
        <Node pos="r" depth="1" NCoef="0" IVar="2" Cut="2.7452545166015625e+02" cType="1" res="-7.8285582363605499e-02" rms="3.9028730988502502e-01" purity="2.0398494601249695e-01" nType="0">
          <Node pos="l" depth="2" NCoef="0" IVar="-1" Cut="0.0000000000000000e+00" cType="1" res="2.7762580430135131e-04" rms="4.4467249512672424e-01" purity="3.0212891101837158e-01" nType="-99"/>
          <Node pos="r" depth="2" NCoef="0" IVar="-1" Cut="0.0000000000000000e+00" cType="1" res="-3.2947722356766462e-03" rms="3.2274591922760010e-01" purity="1.2693990767002106e-01" nType="-99"/>
        </Node>
      </Node>
    </BinaryTree>
    <BinaryTree type="DecisionTree" boostWeight="1.0000000000000000e+00" itree="454">
      <Node pos="s" depth="0" NCoef="0" IVar="0" Cut="7.6818304061889648e+00" cType="1" res="4.3828948400914669e-03" rms="4.5364791154861450e-01" purity="4.9318993091583252e-01" nType="0">
        <Node pos="l" depth="1" NCoef="0" IVar="3" Cut="1.3639863586425781e+02" cType="1" res="-1.8439024686813354e-02" rms="4.5993661880493164e-01" purity="4.1409057378768921e-01" nType="0">
          <Node pos="l" depth="2" NCoef="0" IVar="-1" Cut="0.0000000000000000e+00" cType="1" res="-3.7313185748644173e-04" rms="4.5858639478683472e-01" purity="4.0357583761215210e-01" nType="-99"/>
          <Node pos="r" depth="2" NCoef="0" IVar="-1" Cut="0.0000000000000000e+00" cType="1" res="1.0176012292504311e-03" rms="4.6271961927413940e-01" purity="5.3586417436599731e-01" nType="-99"/>
        </Node>
        <Node pos="r" depth="1" NCoef="0" IVar="4" Cut="-8.4490798413753510e-02" cType="1" res="7.0009097456932068e-02" rms="4.2833513021469116e-01" purity="7.2064632177352905e-01" nType="0">
          <Node pos="l" depth="2" NCoef="0" IVar="-1" Cut="0.0000000000000000e+00" cType="1" res="-8.6174259195104241e-04" rms="4.7340095043182373e-01" purity="5.3045475482940674e-01" nType="-99"/>
          <Node pos="r" depth="2" NCoef="0" IVar="-1" Cut="0.0000000000000000e+00" cType="1" res="1.2671902077272534e-03" rms="4.0732714533805847e-01" purity="7.7246111631393433e-01" nType="-99"/>
        </Node>
      </Node>
    </BinaryTree>
    <BinaryTree type="DecisionTree" boostWeight="1.0000000000000000e+00" itree="455">
      <Node pos="s" depth="0" NCoef="0" IVar="1" Cut="1.0570029020309448e+00" cType="1" res="2.3895025253295898e-02" rms="4.5408463478088379e-01" purity="5.1731050014495850e-01" nType="0">
        <Node pos="l" depth="1" NCoef="0" IVar="2" Cut="2.6547171020507812e+02" cType="1" res="5.1332294940948486e-02" rms="4.5773288607597351e-01" purity="6.1060070991516113e-01" nType="0">
          <Node pos="l" depth="2" NCoef="0" IVar="-1" Cut="0.0000000000000000e+00" cType="1" res="3.5618603578768671e-04" rms="4.6468007564544678e-01" purity="5.7261443138122559e-01" nType="-99"/>
          <Node pos="r" depth="2" NCoef="0" IVar="-1" Cut="0.0000000000000000e+00" cType="1" res="1.5953030670061707e-03" rms="4.1826257109642029e-01" purity="7.6096087694168091e-01" nType="-99"/>
        </Node>
        <Node pos="r" depth="1" NCoef="0" IVar="0" Cut="6.1354551315307617e+00" cType="1" res="-2.6625793427228928e-02" rms="4.4286468625068665e-01" purity="3.4553331136703491e-01" nType="0">
          <Node pos="l" depth="2" NCoef="0" IVar="-1" Cut="0.0000000000000000e+00" cType="1" res="-1.4029974117875099e-03" rms="3.8621157407760620e-01" purity="2.0215287804603577e-01" nType="-99"/>
          <Node pos="r" depth="2" NCoef="0" IVar="-1" Cut="0.0000000000000000e+00" cType="1" res="1.1875230848090723e-04" rms="4.7632074356079102e-01" purity="4.4850009679794312e-01" nType="-99"/>
        </Node>
      </Node>
    </BinaryTree>
    <BinaryTree type="DecisionTree" boostWeight="1.0000000000000000e+00" itree="456">
      <Node pos="s" depth="0" NCoef="0" IVar="1" Cut="1.0371713638305664e+00" cType="1" res="4.7561642713844776e-03" rms="4.4807118177413940e-01" purity="4.9420738220214844e-01" nType="0">
        <Node pos="l" depth="1" NCoef="0" IVar="0" Cut="6.5572171211242676e+00" cType="1" res="3.7212997674942017e-02" rms="4.5039263367652893e-01" purity="5.9311228990554810e-01" nType="0">
          <Node pos="l" depth="2" NCoef="0" IVar="-1" Cut="0.0000000000000000e+00" cType="1" res="-2.1174433641135693e-04" rms="4.7294318675994873e-01" purity="4.0051576495170593e-01" nType="-99"/>
          <Node pos="r" depth="2" NCoef="0" IVar="-1" Cut="0.0000000000000000e+00" cType="1" res="9.3423534417524934e-04" rms="4.2654359340667725e-01" purity="7.4756711721420288e-01" nType="-99"/>
        </Node>
        <Node pos="r" depth="1" NCoef="0" IVar="0" Cut="8.1244316101074219e+00" cType="1" res="-4.7877881675958633e-02" rms="4.3921145796775818e-01" purity="3.3381685614585876e-01" nType="0">
          <Node pos="l" depth="2" NCoef="0" IVar="-1" Cut="0.0000000000000000e+00" cType="1" res="-1.1312643764540553e-03" rms="4.3354147672653198e-01" purity="2.8022024035453796e-01" nType="-99"/>
          <Node pos="r" depth="2" NCoef="0" IVar="-1" Cut="0.0000000000000000e+00" cType="1" res="8.1211538054049015e-04" rms="4.5246258378028870e-01" purity="6.3328695297241211e-01" nType="-99"/>
        </Node>
      </Node>
    </BinaryTree>
    <BinaryTree type="DecisionTree" boostWeight="1.0000000000000000e+00" itree="457">
      <Node pos="s" depth="0" NCoef="0" IVar="5" Cut="1.0345016717910767e+00" cType="1" res="-1.2801201082766056e-03" rms="4.5119038224220276e-01" purity="4.8636955022811890e-01" nType="0">
        <Node pos="l" depth="1" NCoef="0" IVar="3" Cut="4.8693347930908203e+01" cType="1" res="1.1647058650851250e-02" rms="4.5428195595741272e-01" purity="5.1042288541793823e-01" nType="0">
          <Node pos="l" depth="2" NCoef="0" IVar="-1" Cut="0.0000000000000000e+00" cType="1" res="-8.7729538790881634e-04" rms="4.4851797819137573e-01" purity="4.0478581190109253e-01" nType="-99"/>
          <Node pos="r" depth="2" NCoef="0" IVar="-1" Cut="0.0000000000000000e+00" cType="1" res="3.9616209687665105e-04" rms="4.5370161533355713e-01" purity="5.3732824325561523e-01" nType="-99"/>
        </Node>
        <Node pos="r" depth="1" NCoef="0" IVar="-1" Cut="0.0000000000000000e+00" cType="1" res="-1.9582686945796013e-03" rms="4.0429165959358215e-01" purity="2.7034407854080200e-01" nType="-99"/>
      </Node>
    </BinaryTree>
    <BinaryTree type="DecisionTree" boostWeight="1.0000000000000000e+00" itree="458">
      <Node pos="s" depth="0" NCoef="0" IVar="1" Cut="6.8976837396621704e-01" cType="1" res="1.2181669473648071e-02" rms="4.5387700200080872e-01" purity="4.9839764833450317e-01" nType="0">
        <Node pos="l" depth="1" NCoef="0" IVar="2" Cut="2.0532493591308594e+02" cType="1" res="6.3170231878757477e-02" rms="4.4796597957611084e-01" purity="6.3082367181777954e-01" nType="0">
          <Node pos="l" depth="2" NCoef="0" IVar="-1" Cut="0.0000000000000000e+00" cType="1" res="2.2832151444163173e-04" rms="4.6945637464523315e-01" purity="5.4231554269790649e-01" nType="-99"/>
          <Node pos="r" depth="2" NCoef="0" IVar="-1" Cut="0.0000000000000000e+00" cType="1" res="1.5547570073977113e-03" rms="4.0146240592002869e-01" purity="7.7240210771560669e-01" nType="-99"/>
        </Node>
        <Node pos="r" depth="1" NCoef="0" IVar="4" Cut="1.7096732556819916e-01" cType="1" res="-8.4767797961831093e-03" rms="4.5462515950202942e-01" purity="4.4474411010742188e-01" nType="0">
          <Node pos="l" depth="2" NCoef="0" IVar="-1" Cut="0.0000000000000000e+00" cType="1" res="-3.0882298597134650e-04" rms="4.4983723759651184e-01" purity="4.2713946104049683e-01" nType="-99"/>
          <Node pos="r" depth="2" NCoef="0" IVar="-1" Cut="0.0000000000000000e+00" cType="1" res="1.2746056308969855e-03" rms="4.7792887687683105e-01" purity="5.9499233961105347e-01" nType="-99"/>
        </Node>
      </Node>
    </BinaryTree>
    <BinaryTree type="DecisionTree" boostWeight="1.0000000000000000e+00" itree="459">
      <Node pos="s" depth="0" NCoef="0" IVar="0" Cut="7.0600094795227051e+00" cType="1" res="1.4810463413596153e-02" rms="4.4908738136291504e-01" purity="5.0434637069702148e-01" nType="0">
        <Node pos="l" depth="1" NCoef="0" IVar="4" Cut="1.5325541794300079e-01" cType="1" res="-1.8597600981593132e-02" rms="4.5523148775100708e-01" purity="3.7612029910087585e-01" nType="0">
          <Node pos="l" depth="2" NCoef="0" IVar="-1" Cut="0.0000000000000000e+00" cType="1" res="-5.2777194650843740e-04" rms="4.4821771979331970e-01" purity="3.5111862421035767e-01" nType="-99"/>
          <Node pos="r" depth="2" NCoef="0" IVar="-1" Cut="0.0000000000000000e+00" cType="1" res="9.4614335102960467e-04" rms="4.7759047150611877e-01" purity="5.0187265872955322e-01" nType="-99"/>
        </Node>
        <Node pos="r" depth="1" NCoef="0" IVar="4" Cut="-4.4618949294090271e-02" cType="1" res="6.7199163138866425e-02" rms="4.3413329124450684e-01" purity="7.0542353391647339e-01" nType="0">
          <Node pos="l" depth="2" NCoef="0" IVar="-1" Cut="0.0000000000000000e+00" cType="1" res="9.2000307631678879e-05" rms="4.6704101562500000e-01" purity="5.9638160467147827e-01" nType="-99"/>
          <Node pos="r" depth="2" NCoef="0" IVar="-1" Cut="0.0000000000000000e+00" cType="1" res="1.2197335017845035e-03" rms="4.0974360704421997e-01" purity="7.6887446641921997e-01" nType="-99"/>
        </Node>
      </Node>
    </BinaryTree>
    <BinaryTree type="DecisionTree" boostWeight="1.0000000000000000e+00" itree="460">
      <Node pos="s" depth="0" NCoef="0" IVar="1" Cut="1.7022836208343506e+00" cType="1" res="7.5826710090041161e-03" rms="4.5224922895431519e-01" purity="5.0069010257720947e-01" nType="0">
        <Node pos="l" depth="1" NCoef="0" IVar="2" Cut="2.0902705383300781e+02" cType="1" res="1.7193349078297615e-02" rms="4.5904731750488281e-01" purity="5.2449363470077515e-01" nType="0">
          <Node pos="l" depth="2" NCoef="0" IVar="-1" Cut="0.0000000000000000e+00" cType="1" res="-3.6321612424217165e-04" rms="4.5907971262931824e-01" purity="4.5375642180442810e-01" nType="-99"/>
          <Node pos="r" depth="2" NCoef="0" IVar="-1" Cut="0.0000000000000000e+00" cType="1" res="7.8145164297893643e-04" rms="4.5473545789718628e-01" purity="5.9298318624496460e-01" nType="-99"/>
        </Node>
        <Node pos="r" depth="1" NCoef="0" IVar="-1" Cut="0.0000000000000000e+00" cType="1" res="-4.3889917433261871e-03" rms="2.4704211950302124e-01" purity="7.1237623691558838e-02" nType="-99"/>
      </Node>
    </BinaryTree>
    <BinaryTree type="DecisionTree" boostWeight="1.0000000000000000e+00" itree="461">
      <Node pos="s" depth="0" NCoef="0" IVar="0" Cut="6.5376625061035156e+00" cType="1" res="1.2354103848338127e-02" rms="4.4912156462669373e-01" purity="5.0055152177810669e-01" nType="0">
        <Node pos="l" depth="1" NCoef="0" IVar="4" Cut="1.9948115944862366e-01" cType="1" res="-3.2978329807519913e-02" rms="4.4497856497764587e-01" purity="3.2809713482856750e-01" nType="0">
          <Node pos="l" depth="2" NCoef="0" IVar="-1" Cut="0.0000000000000000e+00" cType="1" res="-7.2996417293325067e-04" rms="4.3848714232444763e-01" purity="3.0523693561553955e-01" nType="-99"/>
          <Node pos="r" depth="2" NCoef="0" IVar="-1" Cut="0.0000000000000000e+00" cType="1" res="1.1000239755958319e-03" rms="4.7315818071365356e-01" purity="5.0223910808563232e-01" nType="-99"/>
        </Node>
        <Node pos="r" depth="1" NCoef="0" IVar="4" Cut="-3.9972640573978424e-02" cType="1" res="5.2297700196504593e-02" rms="4.4896307587623596e-01" purity="6.5250551700592041e-01" nType="0">
          <Node pos="l" depth="2" NCoef="0" IVar="-1" Cut="0.0000000000000000e+00" cType="1" res="3.2493480830453336e-05" rms="4.6109020709991455e-01" purity="5.6678068637847900e-01" nType="-99"/>
          <Node pos="r" depth="2" NCoef="0" IVar="-1" Cut="0.0000000000000000e+00" cType="1" res="9.7018433734774590e-04" rms="4.3863517045974731e-01" purity="7.0479863882064819e-01" nType="-99"/>
        </Node>
      </Node>
    </BinaryTree>
    <BinaryTree type="DecisionTree" boostWeight="1.0000000000000000e+00" itree="462">
      <Node pos="s" depth="0" NCoef="0" IVar="0" Cut="5.0841131210327148e+00" cType="1" res="8.2920892164111137e-03" rms="4.4863799214363098e-01" purity="4.9679642915725708e-01" nType="0">
        <Node pos="l" depth="1" NCoef="0" IVar="5" Cut="7.1531093120574951e-01" cType="1" res="-1.1016920953989029e-01" rms="3.6052718758583069e-01" purity="1.5595053136348724e-01" nType="0">
          <Node pos="l" depth="2" NCoef="0" IVar="-1" Cut="0.0000000000000000e+00" cType="1" res="-3.3277629408985376e-03" rms="3.0607020854949951e-01" purity="1.0920315980911255e-01" nType="-99"/>
          <Node pos="r" depth="2" NCoef="0" IVar="-1" Cut="0.0000000000000000e+00" cType="1" res="-8.4918376524001360e-04" rms="3.9737007021903992e-01" purity="2.0291084051132202e-01" nType="-99"/>
        </Node>
        <Node pos="r" depth="1" NCoef="0" IVar="1" Cut="1.5889188051223755e+00" cType="1" res="2.2511657327413559e-02" rms="4.5601257681846619e-01" purity="5.3771001100540161e-01" nType="0">
          <Node pos="l" depth="2" NCoef="0" IVar="-1" Cut="0.0000000000000000e+00" cType="1" res="4.1924093966372311e-04" rms="4.6120217442512512e-01" purity="5.7609057426452637e-01" nType="-99"/>
          <Node pos="r" depth="2" NCoef="0" IVar="-1" Cut="0.0000000000000000e+00" cType="1" res="-1.8545396160334349e-03" rms="3.8562673330307007e-01" purity="1.7387582361698151e-01" nType="-99"/>
        </Node>
      </Node>
    </BinaryTree>
    <BinaryTree type="DecisionTree" boostWeight="1.0000000000000000e+00" itree="463">
      <Node pos="s" depth="0" NCoef="0" IVar="3" Cut="8.9296096801757812e+01" cType="1" res="6.9027761928737164e-03" rms="4.4948637485504150e-01" purity="5.0621777772903442e-01" nType="0">
        <Node pos="l" depth="1" NCoef="0" IVar="4" Cut="-1.0048040747642517e-01" cType="1" res="-1.8009884282946587e-02" rms="4.5235458016395569e-01" purity="4.6202415227890015e-01" nType="0">
          <Node pos="l" depth="2" NCoef="0" IVar="-1" Cut="0.0000000000000000e+00" cType="1" res="-2.0984276197850704e-03" rms="3.9584407210350037e-01" purity="2.7307760715484619e-01" nType="-99"/>
          <Node pos="r" depth="2" NCoef="0" IVar="-1" Cut="0.0000000000000000e+00" cType="1" res="-8.8128326751757413e-06" rms="4.5790952444076538e-01" purity="4.9088826775550842e-01" nType="-99"/>
        </Node>
        <Node pos="r" depth="1" NCoef="0" IVar="0" Cut="7.7407159805297852e+00" cType="1" res="5.3824756294488907e-02" rms="4.4022211432456970e-01" purity="5.8945471048355103e-01" nType="0">
          <Node pos="l" depth="2" NCoef="0" IVar="-1" Cut="0.0000000000000000e+00" cType="1" res="2.4051204673014581e-04" rms="4.5709121227264404e-01" purity="4.9290850758552551e-01" nType="-99"/>
          <Node pos="r" depth="2" NCoef="0" IVar="-1" Cut="0.0000000000000000e+00" cType="1" res="1.5304901171475649e-03" rms="3.9497861266136169e-01" purity="7.8290903568267822e-01" nType="-99"/>
        </Node>
      </Node>
    </BinaryTree>
    <BinaryTree type="DecisionTree" boostWeight="1.0000000000000000e+00" itree="464">
      <Node pos="s" depth="0" NCoef="0" IVar="0" Cut="6.5155191421508789e+00" cType="1" res="1.1199659667909145e-02" rms="4.4651243090629578e-01" purity="5.0764787197113037e-01" nType="0">
        <Node pos="l" depth="1" NCoef="0" IVar="4" Cut="-6.7280367016792297e-02" cType="1" res="-3.9998695254325867e-02" rms="4.4435220956802368e-01" purity="3.2004714012145996e-01" nType="0">
          <Node pos="l" depth="2" NCoef="0" IVar="-1" Cut="0.0000000000000000e+00" cType="1" res="-1.7463528783991933e-03" rms="3.9543697237968445e-01" purity="2.2136740386486053e-01" nType="-99"/>
          <Node pos="r" depth="2" NCoef="0" IVar="-1" Cut="0.0000000000000000e+00" cType="1" res="-1.8604124488774687e-04" rms="4.6033200621604919e-01" purity="3.6053222417831421e-01" nType="-99"/>
        </Node>
        <Node pos="r" depth="1" NCoef="0" IVar="4" Cut="4.5407690107822418e-02" cType="1" res="5.2108790725469589e-02" rms="4.4400790333747864e-01" purity="6.5754693746566772e-01" nType="0">
          <Node pos="l" depth="2" NCoef="0" IVar="-1" Cut="0.0000000000000000e+00" cType="1" res="2.5424471823498607e-04" rms="4.5680302381515503e-01" purity="5.9686851501464844e-01" nType="-99"/>
          <Node pos="r" depth="2" NCoef="0" IVar="-1" Cut="0.0000000000000000e+00" cType="1" res="1.1757072061300278e-03" rms="4.1962885856628418e-01" purity="7.4848157167434692e-01" nType="-99"/>
        </Node>
      </Node>
    </BinaryTree>
    <BinaryTree type="DecisionTree" boostWeight="1.0000000000000000e+00" itree="465">
      <Node pos="s" depth="0" NCoef="0" IVar="0" Cut="8.2019634246826172e+00" cType="1" res="2.2038945928215981e-02" rms="4.5281508564949036e-01" purity="5.1247221231460571e-01" nType="0">
        <Node pos="l" depth="1" NCoef="0" IVar="2" Cut="4.2535742187500000e+02" cType="1" res="2.5775646790862083e-03" rms="4.6472129225730896e-01" purity="4.5375043153762817e-01" nType="0">
          <Node pos="l" depth="2" NCoef="0" IVar="-1" Cut="0.0000000000000000e+00" cType="1" res="1.6418847371824086e-04" rms="4.6986511349678040e-01" purity="4.7076922655105591e-01" nType="-99"/>
          <Node pos="r" depth="2" NCoef="0" IVar="-1" Cut="0.0000000000000000e+00" cType="1" res="-2.0219243597239256e-03" rms="3.7681499123573303e-01" purity="2.4809107184410095e-01" nType="-99"/>
        </Node>
        <Node pos="r" depth="1" NCoef="0" IVar="1" Cut="1.0222175121307373e+00" cType="1" res="1.1578197032213211e-01" rms="3.7657415866851807e-01" purity="7.9532772302627563e-01" nType="0">
          <Node pos="l" depth="2" NCoef="0" IVar="-1" Cut="0.0000000000000000e+00" cType="1" res="1.8081325106322765e-03" rms="3.3295008540153503e-01" purity="8.7186044454574585e-01" nType="-99"/>
          <Node pos="r" depth="2" NCoef="0" IVar="-1" Cut="0.0000000000000000e+00" cType="1" res="5.8285775594413280e-04" rms="4.5237830281257629e-01" purity="6.2254333496093750e-01" nType="-99"/>
        </Node>
      </Node>
    </BinaryTree>
    <BinaryTree type="DecisionTree" boostWeight="1.0000000000000000e+00" itree="466">
      <Node pos="s" depth="0" NCoef="0" IVar="0" Cut="4.7934036254882812e+00" cType="1" res="1.0610271245241165e-02" rms="4.5445427298545837e-01" purity="5.0508886575698853e-01" nType="0">
        <Node pos="l" depth="1" NCoef="0" IVar="-1" Cut="0.0000000000000000e+00" cType="1" res="-3.1125650275498629e-03" rms="2.8067433834075928e-01" purity="1.0526388883590698e-01" nType="-99"/>
        <Node pos="r" depth="1" NCoef="0" IVar="4" Cut="-3.3730302006006241e-02" cType="1" res="1.9092274829745293e-02" rms="4.6055713295936584e-01" purity="5.2691560983657837e-01" nType="0">
          <Node pos="l" depth="2" NCoef="0" IVar="-1" Cut="0.0000000000000000e+00" cType="1" res="-3.3338286448270082e-04" rms="4.4921922683715820e-01" purity="4.5085835456848145e-01" nType="-99"/>
          <Node pos="r" depth="2" NCoef="0" IVar="-1" Cut="0.0000000000000000e+00" cType="1" res="5.6193483760580420e-04" rms="4.6534278988838196e-01" purity="5.7349437475204468e-01" nType="-99"/>
        </Node>
      </Node>
    </BinaryTree>
    <BinaryTree type="DecisionTree" boostWeight="1.0000000000000000e+00" itree="467">
      <Node pos="s" depth="0" NCoef="0" IVar="1" Cut="9.3911272287368774e-01" cType="1" res="1.0603641159832478e-02" rms="4.5088258385658264e-01" purity="5.0178182125091553e-01" nType="0">
        <Node pos="l" depth="1" NCoef="0" IVar="2" Cut="1.4821667480468750e+02" cType="1" res="5.3930770605802536e-02" rms="4.5323020219802856e-01" purity="6.1380416154861450e-01" nType="0">
          <Node pos="l" depth="2" NCoef="0" IVar="-1" Cut="0.0000000000000000e+00" cType="1" res="-4.4527294812723994e-04" rms="4.7217383980751038e-01" purity="4.5923507213592529e-01" nType="-99"/>
          <Node pos="r" depth="2" NCoef="0" IVar="-1" Cut="0.0000000000000000e+00" cType="1" res="8.8057282846421003e-04" rms="4.4596996903419495e-01" purity="6.5048217773437500e-01" nType="-99"/>
        </Node>
        <Node pos="r" depth="1" NCoef="0" IVar="0" Cut="8.2024202346801758e+00" cType="1" res="-4.1900124400854111e-02" rms="4.4237041473388672e-01" purity="3.6603334546089172e-01" nType="0">
          <Node pos="l" depth="2" NCoef="0" IVar="-1" Cut="0.0000000000000000e+00" cType="1" res="-9.1820879606530070e-04" rms="4.3669897317886353e-01" purity="3.2161623239517212e-01" nType="-99"/>
          <Node pos="r" depth="2" NCoef="0" IVar="-1" Cut="0.0000000000000000e+00" cType="1" res="8.2425656728446484e-04" rms="4.6179527044296265e-01" purity="6.4490813016891479e-01" nType="-99"/>
        </Node>
      </Node>
    </BinaryTree>
    <BinaryTree type="DecisionTree" boostWeight="1.0000000000000000e+00" itree="468">
      <Node pos="s" depth="0" NCoef="0" IVar="1" Cut="1.3358553647994995e+00" cType="1" res="1.3599270023405552e-02" rms="4.4927906990051270e-01" purity="5.0444740056991577e-01" nType="0">
        <Node pos="l" depth="1" NCoef="0" IVar="2" Cut="2.2176992797851562e+02" cType="1" res="3.0082829296588898e-02" rms="4.5722040534019470e-01" purity="5.6465166807174683e-01" nType="0">
          <Node pos="l" depth="2" NCoef="0" IVar="-1" Cut="0.0000000000000000e+00" cType="1" res="-2.9836146495654248e-05" rms="4.6268102526664734e-01" purity="4.9835130572319031e-01" nType="-99"/>
          <Node pos="r" depth="2" NCoef="0" IVar="-1" Cut="0.0000000000000000e+00" cType="1" res="9.3123450642451644e-04" rms="4.4495210051536560e-01" purity="6.6102355718612671e-01" nType="-99"/>
        </Node>
        <Node pos="r" depth="1" NCoef="0" IVar="4" Cut="-8.8951624929904938e-02" cType="1" res="-6.1663750559091568e-02" rms="4.0258812904357910e-01" purity="2.2955812513828278e-01" nType="0">
          <Node pos="l" depth="2" NCoef="0" IVar="-1" Cut="0.0000000000000000e+00" cType="1" res="-2.7126157656311989e-03" rms="3.3756351470947266e-01" purity="1.4307065308094025e-01" nType="-99"/>
          <Node pos="r" depth="2" NCoef="0" IVar="-1" Cut="0.0000000000000000e+00" cType="1" res="-4.0113378781825304e-04" rms="4.3277129530906677e-01" purity="2.8209081292152405e-01" nType="-99"/>
        </Node>
      </Node>
    </BinaryTree>
    <BinaryTree type="DecisionTree" boostWeight="1.0000000000000000e+00" itree="469">
      <Node pos="s" depth="0" NCoef="0" IVar="1" Cut="6.5687406063079834e-01" cType="1" res="1.1530734598636627e-02" rms="4.5426318049430847e-01" purity="4.9918147921562195e-01" nType="0">
        <Node pos="l" depth="1" NCoef="0" IVar="1" Cut="4.8460507392883301e-01" cType="1" res="7.5933136045932770e-02" rms="4.5565828680992126e-01" purity="6.4202243089675903e-01" nType="0">
          <Node pos="l" depth="2" NCoef="0" IVar="-1" Cut="0.0000000000000000e+00" cType="1" res="-1.0227285383734852e-04" rms="4.4901373982429504e-01" purity="5.5786114931106567e-01" nType="-99"/>
          <Node pos="r" depth="2" NCoef="0" IVar="-1" Cut="0.0000000000000000e+00" cType="1" res="1.5679553616791964e-03" rms="4.5016863942146301e-01" purity="7.0646589994430542e-01" nType="-99"/>
        </Node>
        <Node pos="r" depth="1" NCoef="0" IVar="1" Cut="1.7065966129302979e+00" cType="1" res="-1.4370511285960674e-02" rms="4.5111584663391113e-01" purity="4.4173392653465271e-01" nType="0">
          <Node pos="l" depth="2" NCoef="0" IVar="-1" Cut="0.0000000000000000e+00" cType="1" res="-1.3729624697589315e-05" rms="4.6307495236396790e-01" purity="4.7436022758483887e-01" nType="-99"/>
          <Node pos="r" depth="2" NCoef="0" IVar="-1" Cut="0.0000000000000000e+00" cType="1" res="-4.2608575895428658e-03" rms="2.2556029260158539e-01" purity="6.3604854047298431e-02" nType="-99"/>
        </Node>
      </Node>
    </BinaryTree>
    <BinaryTree type="DecisionTree" boostWeight="1.0000000000000000e+00" itree="470">
      <Node pos="s" depth="0" NCoef="0" IVar="7" Cut="-1.5086044557392597e-02" cType="1" res="1.4870306476950645e-02" rms="4.5687609910964966e-01" purity="5.0479608774185181e-01" nType="0">
        <Node pos="l" depth="1" NCoef="0" IVar="1" Cut="1.0392731428146362e+00" cType="1" res="5.3381115198135376e-02" rms="4.4842997193336487e-01" purity="5.7619494199752808e-01" nType="0">
          <Node pos="l" depth="2" NCoef="0" IVar="-1" Cut="0.0000000000000000e+00" cType="1" res="1.0550469160079956e-03" rms="4.3878847360610962e-01" purity="6.6007125377655029e-01" nType="-99"/>
          <Node pos="r" depth="2" NCoef="0" IVar="-1" Cut="0.0000000000000000e+00" cType="1" res="-3.6551069933921099e-04" rms="4.5858895778656006e-01" purity="3.9539310336112976e-01" nType="-99"/>
        </Node>
        <Node pos="r" depth="1" NCoef="0" IVar="2" Cut="3.6553775024414062e+02" cType="1" res="-8.4817400202155113e-03" rms="4.6035605669021606e-01" purity="4.6150144934654236e-01" nType="0">
          <Node pos="l" depth="2" NCoef="0" IVar="-1" Cut="0.0000000000000000e+00" cType="1" res="9.8765332950279117e-05" rms="4.6793708205223083e-01" purity="4.8920539021492004e-01" nType="-99"/>
          <Node pos="r" depth="2" NCoef="0" IVar="-1" Cut="0.0000000000000000e+00" cType="1" res="-2.0084003917872906e-03" rms="3.8560840487480164e-01" purity="2.6855692267417908e-01" nType="-99"/>
        </Node>
      </Node>
    </BinaryTree>
    <BinaryTree type="DecisionTree" boostWeight="1.0000000000000000e+00" itree="471">
      <Node pos="s" depth="0" NCoef="0" IVar="0" Cut="7.6818304061889648e+00" cType="1" res="1.6434094868600368e-04" rms="4.5244923233985901e-01" purity="4.8642945289611816e-01" nType="0">
        <Node pos="l" depth="1" NCoef="0" IVar="2" Cut="2.0404885864257812e+02" cType="1" res="-2.3957934230566025e-02" rms="4.5733550190925598e-01" purity="4.0466350317001343e-01" nType="0">
          <Node pos="l" depth="2" NCoef="0" IVar="-1" Cut="0.0000000000000000e+00" cType="1" res="-9.5911347307264805e-04" rms="4.5569664239883423e-01" purity="3.4946116805076599e-01" nType="-99"/>
          <Node pos="r" depth="2" NCoef="0" IVar="-1" Cut="0.0000000000000000e+00" cType="1" res="2.3374191368930042e-04" rms="4.5477268099784851e-01" purity="4.5200654864311218e-01" nType="-99"/>
        </Node>
        <Node pos="r" depth="1" NCoef="0" IVar="7" Cut="-3.9736885577440262e-02" cType="1" res="6.9770105183124542e-02" rms="4.3053308129310608e-01" purity="7.2236841917037964e-01" nType="0">
          <Node pos="l" depth="2" NCoef="0" IVar="-1" Cut="0.0000000000000000e+00" cType="1" res="1.6787174390628934e-03" rms="3.5380706191062927e-01" purity="8.5193055868148804e-01" nType="-99"/>
          <Node pos="r" depth="2" NCoef="0" IVar="-1" Cut="0.0000000000000000e+00" cType="1" res="5.3626002045348287e-04" rms="4.5407128334045410e-01" purity="6.7207205295562744e-01" nType="-99"/>
        </Node>
      </Node>
    </BinaryTree>
    <BinaryTree type="DecisionTree" boostWeight="1.0000000000000000e+00" itree="472">
      <Node pos="s" depth="0" NCoef="0" IVar="6" Cut="4.0290216064453125e+02" cType="1" res="1.8668733537197113e-02" rms="4.5411360263824463e-01" purity="5.0963455438613892e-01" nType="0">
        <Node pos="l" depth="1" NCoef="0" IVar="3" Cut="4.3647045135498047e+01" cType="1" res="-3.8064517080783844e-02" rms="4.5156225562095642e-01" purity="3.8032540678977966e-01" nType="0">
          <Node pos="l" depth="2" NCoef="0" IVar="-1" Cut="0.0000000000000000e+00" cType="1" res="-1.9127193372696638e-03" rms="4.4118285179138184e-01" purity="2.9167780280113220e-01" nType="-99"/>
          <Node pos="r" depth="2" NCoef="0" IVar="-1" Cut="0.0000000000000000e+00" cType="1" res="-1.7664988990873098e-04" rms="4.5137149095535278e-01" purity="4.0566831827163696e-01" nType="-99"/>
        </Node>
        <Node pos="r" depth="1" NCoef="0" IVar="2" Cut="1.6887626647949219e+02" cType="1" res="4.5385953038930893e-02" rms="4.5285513997077942e-01" purity="5.7052963972091675e-01" nType="0">
          <Node pos="l" depth="2" NCoef="0" IVar="-1" Cut="0.0000000000000000e+00" cType="1" res="-4.5575026888400316e-04" rms="4.7391021251678467e-01" purity="4.5073875784873962e-01" nType="-99"/>
          <Node pos="r" depth="2" NCoef="0" IVar="-1" Cut="0.0000000000000000e+00" cType="1" res="8.0512475688010454e-04" rms="4.4571375846862793e-01" purity="5.9821820259094238e-01" nType="-99"/>
        </Node>
      </Node>
    </BinaryTree>
    <BinaryTree type="DecisionTree" boostWeight="1.0000000000000000e+00" itree="473">
      <Node pos="s" depth="0" NCoef="0" IVar="0" Cut="8.6780824661254883e+00" cType="1" res="-2.2288451436907053e-03" rms="4.5131394267082214e-01" purity="4.9207487702369690e-01" nType="0">
        <Node pos="l" depth="1" NCoef="0" IVar="4" Cut="1.9876286387443542e-01" cType="1" res="-1.9024770706892014e-02" rms="4.5699125528335571e-01" purity="4.5248311758041382e-01" nType="0">
          <Node pos="l" depth="2" NCoef="0" IVar="-1" Cut="0.0000000000000000e+00" cType="1" res="-3.9737395127303898e-04" rms="4.5299500226974487e-01" purity="4.3822857737541199e-01" nType="-99"/>
          <Node pos="r" depth="2" NCoef="0" IVar="-1" Cut="0.0000000000000000e+00" cType="1" res="9.3993387417867780e-04" rms="4.8271593451499939e-01" purity="5.8908230066299438e-01" nType="-99"/>
        </Node>
        <Node pos="r" depth="1" NCoef="0" IVar="-1" Cut="0.0000000000000000e+00" cType="1" res="1.6107796691358089e-03" rms="3.7596955895423889e-01" purity="8.1184911727905273e-01" nType="-99"/>
      </Node>
    </BinaryTree>
    <BinaryTree type="DecisionTree" boostWeight="1.0000000000000000e+00" itree="474">
      <Node pos="s" depth="0" NCoef="0" IVar="4" Cut="6.8721055984497070e-02" cType="1" res="-6.6350575070828199e-04" rms="4.5610690116882324e-01" purity="4.9072113633155823e-01" nType="0">
        <Node pos="l" depth="1" NCoef="0" IVar="5" Cut="1.0016487836837769e+00" cType="1" res="-2.9449483379721642e-02" rms="4.5343941450119019e-01" purity="4.4541868567466736e-01" nType="0">
          <Node pos="l" depth="2" NCoef="0" IVar="-1" Cut="0.0000000000000000e+00" cType="1" res="-1.6698332910891622e-04" rms="4.6036991477012634e-01" purity="4.7710227966308594e-01" nType="-99"/>
          <Node pos="r" depth="2" NCoef="0" IVar="-1" Cut="0.0000000000000000e+00" cType="1" res="-2.3793624714016914e-03" rms="3.8670951128005981e-01" purity="2.3516668379306793e-01" nType="-99"/>
        </Node>
        <Node pos="r" depth="1" NCoef="0" IVar="0" Cut="6.0280838012695312e+00" cType="1" res="5.0390090793371201e-02" rms="4.5635551214218140e-01" purity="5.7106757164001465e-01" nType="0">
          <Node pos="l" depth="2" NCoef="0" IVar="-1" Cut="0.0000000000000000e+00" cType="1" res="-1.3967153790872544e-04" rms="4.6152603626251221e-01" purity="3.6418154835700989e-01" nType="-99"/>
          <Node pos="r" depth="2" NCoef="0" IVar="-1" Cut="0.0000000000000000e+00" cType="1" res="9.7611901583150029e-04" rms="4.5000424981117249e-01" purity="6.8535828590393066e-01" nType="-99"/>
        </Node>
      </Node>
    </BinaryTree>
    <BinaryTree type="DecisionTree" boostWeight="1.0000000000000000e+00" itree="475">
      <Node pos="s" depth="0" NCoef="0" IVar="0" Cut="8.2634620666503906e+00" cType="1" res="-4.0652374736964703e-03" rms="4.5356872677803040e-01" purity="4.9121776223182678e-01" nType="0">
        <Node pos="l" depth="1" NCoef="0" IVar="2" Cut="2.1044929504394531e+02" cType="1" res="-2.3331915959715843e-02" rms="4.6110132336616516e-01" purity="4.4011694192886353e-01" nType="0">
          <Node pos="l" depth="2" NCoef="0" IVar="-1" Cut="0.0000000000000000e+00" cType="1" res="-8.3644851110875607e-04" rms="4.5977124571800232e-01" purity="3.9165219664573669e-01" nType="-99"/>
          <Node pos="r" depth="2" NCoef="0" IVar="-1" Cut="0.0000000000000000e+00" cType="1" res="2.4159210443031043e-04" rms="4.5882654190063477e-01" purity="4.8983377218246460e-01" nType="-99"/>
        </Node>
        <Node pos="r" depth="1" NCoef="0" IVar="3" Cut="8.6479705810546875e+01" cType="1" res="1.0457294434309006e-01" rms="3.9112627506256104e-01" purity="7.7935773134231567e-01" nType="0">
          <Node pos="l" depth="2" NCoef="0" IVar="-1" Cut="0.0000000000000000e+00" cType="1" res="7.0138287264853716e-04" rms="4.0891158580780029e-01" purity="7.3657703399658203e-01" nType="-99"/>
          <Node pos="r" depth="2" NCoef="0" IVar="-1" Cut="0.0000000000000000e+00" cType="1" res="1.9580572843551636e-03" rms="3.6003091931343079e-01" purity="8.3112782239913940e-01" nType="-99"/>
        </Node>
      </Node>
    </BinaryTree>
    <BinaryTree type="DecisionTree" boostWeight="1.0000000000000000e+00" itree="476">
      <Node pos="s" depth="0" NCoef="0" IVar="0" Cut="5.6537408828735352e+00" cType="1" res="-1.2028229684801772e-04" rms="4.5416301488876343e-01" purity="4.8955109715461731e-01" nType="0">
        <Node pos="l" depth="1" NCoef="0" IVar="7" Cut="1.5698904171586037e-02" cType="1" res="-7.7118352055549622e-02" rms="4.0938255190849304e-01" purity="2.4220368266105652e-01" nType="0">
          <Node pos="l" depth="2" NCoef="0" IVar="-1" Cut="0.0000000000000000e+00" cType="1" res="-2.4049068451859057e-04" rms="4.4450560212135315e-01" purity="3.1697314977645874e-01" nType="-99"/>
          <Node pos="r" depth="2" NCoef="0" IVar="-1" Cut="0.0000000000000000e+00" cType="1" res="-2.5110298302024603e-03" rms="3.6155539751052856e-01" purity="1.6800740361213684e-01" nType="-99"/>
        </Node>
        <Node pos="r" depth="1" NCoef="0" IVar="4" Cut="-5.2503857761621475e-02" cType="1" res="2.2688392549753189e-02" rms="4.6415790915489197e-01" purity="5.6282132863998413e-01" nType="0">
          <Node pos="l" depth="2" NCoef="0" IVar="-1" Cut="0.0000000000000000e+00" cType="1" res="-4.6656132326461375e-04" rms="4.7256794571876526e-01" purity="4.5977228879928589e-01" nType="-99"/>
          <Node pos="r" depth="2" NCoef="0" IVar="-1" Cut="0.0000000000000000e+00" cType="1" res="6.1657285550609231e-04" rms="4.5725682377815247e-01" purity="6.1397892236709595e-01" nType="-99"/>
        </Node>
      </Node>
    </BinaryTree>
    <BinaryTree type="DecisionTree" boostWeight="1.0000000000000000e+00" itree="477">
      <Node pos="s" depth="0" NCoef="0" IVar="5" Cut="1.1573834419250488e+00" cType="1" res="1.4761729165911674e-02" rms="4.4895410537719727e-01" purity="5.0487953424453735e-01" nType="0">
        <Node pos="l" depth="1" NCoef="0" IVar="2" Cut="3.6553775024414062e+02" cType="1" res="2.4572243914008141e-02" rms="4.5004835724830627e-01" purity="5.2086514234542847e-01" nType="0">
          <Node pos="l" depth="2" NCoef="0" IVar="-1" Cut="0.0000000000000000e+00" cType="1" res="4.5533737284131348e-04" rms="4.5433446764945984e-01" purity="5.4029178619384766e-01" nType="-99"/>
          <Node pos="r" depth="2" NCoef="0" IVar="-1" Cut="0.0000000000000000e+00" cType="1" res="-1.1940361000597477e-03" rms="3.9936316013336182e-01" purity="3.5714843869209290e-01" nType="-99"/>
        </Node>
        <Node pos="r" depth="1" NCoef="0" IVar="-1" Cut="0.0000000000000000e+00" cType="1" res="-2.6010333094745874e-03" rms="3.9213806390762329e-01" purity="2.2725006937980652e-01" nType="-99"/>
      </Node>
    </BinaryTree>
    <BinaryTree type="DecisionTree" boostWeight="1.0000000000000000e+00" itree="478">
      <Node pos="s" depth="0" NCoef="0" IVar="0" Cut="4.7845592498779297e+00" cType="1" res="5.3061582148075104e-03" rms="4.4702607393264771e-01" purity="4.9864220619201660e-01" nType="0">
        <Node pos="l" depth="1" NCoef="0" IVar="-1" Cut="0.0000000000000000e+00" cType="1" res="-3.2610234338790178e-03" rms="2.8888529539108276e-01" purity="9.5872841775417328e-02" nType="-99"/>
        <Node pos="r" depth="1" NCoef="0" IVar="4" Cut="2.2192391753196716e-01" cType="1" res="1.4570731669664383e-02" rms="4.5260381698608398e-01" purity="5.2153253555297852e-01" nType="0">
          <Node pos="l" depth="2" NCoef="0" IVar="-1" Cut="0.0000000000000000e+00" cType="1" res="6.2866354710422456e-05" rms="4.5249494910240173e-01" purity="5.0808507204055786e-01" nType="-99"/>
          <Node pos="r" depth="2" NCoef="0" IVar="-1" Cut="0.0000000000000000e+00" cType="1" res="1.7004554392769933e-03" rms="4.3107289075851440e-01" purity="7.1253705024719238e-01" nType="-99"/>
        </Node>
      </Node>
    </BinaryTree>
    <BinaryTree type="DecisionTree" boostWeight="1.0000000000000000e+00" itree="479">
      <Node pos="s" depth="0" NCoef="0" IVar="0" Cut="5.5817012786865234e+00" cType="1" res="1.5169225633144379e-02" rms="4.5105564594268799e-01" purity="5.0560885667800903e-01" nType="0">
        <Node pos="l" depth="1" NCoef="0" IVar="6" Cut="3.5273348999023438e+02" cType="1" res="-6.4593672752380371e-02" rms="4.0289047360420227e-01" purity="2.4296915531158447e-01" nType="0">
          <Node pos="l" depth="2" NCoef="0" IVar="-1" Cut="0.0000000000000000e+00" cType="1" res="-3.4605537075549364e-03" rms="2.6217100024223328e-01" purity="7.7150739729404449e-02" nType="-99"/>
          <Node pos="r" depth="2" NCoef="0" IVar="-1" Cut="0.0000000000000000e+00" cType="1" res="-3.4177236375398934e-04" rms="4.3694624304771423e-01" purity="3.0521684885025024e-01" nType="-99"/>
        </Node>
        <Node pos="r" depth="1" NCoef="0" IVar="6" Cut="6.6199804687500000e+02" cType="1" res="3.5454098135232925e-02" rms="4.6030619740486145e-01" purity="5.7240206003189087e-01" nType="0">
          <Node pos="l" depth="2" NCoef="0" IVar="-1" Cut="0.0000000000000000e+00" cType="1" res="2.5449198437854648e-04" rms="4.6044892072677612e-01" purity="5.4998815059661865e-01" nType="-99"/>
          <Node pos="r" depth="2" NCoef="0" IVar="-1" Cut="0.0000000000000000e+00" cType="1" res="1.4624219620600343e-03" rms="4.4870409369468689e-01" purity="7.0731037855148315e-01" nType="-99"/>
        </Node>
      </Node>
    </BinaryTree>
    <BinaryTree type="DecisionTree" boostWeight="1.0000000000000000e+00" itree="480">
      <Node pos="s" depth="0" NCoef="0" IVar="2" Cut="1.4401451110839844e+02" cType="1" res="1.2450526468455791e-02" rms="4.5542874932289124e-01" purity="5.0500512123107910e-01" nType="0">
        <Node pos="l" depth="1" NCoef="0" IVar="7" Cut="1.0691559873521328e-02" cType="1" res="-7.7043026685714722e-02" rms="4.6269381046295166e-01" purity="3.7402328848838806e-01" nType="0">
          <Node pos="l" depth="2" NCoef="0" IVar="-1" Cut="0.0000000000000000e+00" cType="1" res="-4.0717955562286079e-04" rms="4.5221176743507385e-01" purity="4.3204709887504578e-01" nType="-99"/>
          <Node pos="r" depth="2" NCoef="0" IVar="-1" Cut="0.0000000000000000e+00" cType="1" res="-1.5643463702872396e-03" rms="4.6759006381034851e-01" purity="3.2885718345642090e-01" nType="-99"/>
        </Node>
        <Node pos="r" depth="1" NCoef="0" IVar="1" Cut="1.0570029020309448e+00" cType="1" res="2.6371793821454048e-02" rms="4.5270088315010071e-01" purity="5.2538013458251953e-01" nType="0">
          <Node pos="l" depth="2" NCoef="0" IVar="-1" Cut="0.0000000000000000e+00" cType="1" res="7.0355419302359223e-04" rms="4.4976338744163513e-01" purity="6.3611769676208496e-01" nType="-99"/>
          <Node pos="r" depth="2" NCoef="0" IVar="-1" Cut="0.0000000000000000e+00" cType="1" res="-4.2303613736294210e-04" rms="4.5232549309730530e-01" purity="3.4389999508857727e-01" nType="-99"/>
        </Node>
      </Node>
    </BinaryTree>
    <BinaryTree type="DecisionTree" boostWeight="1.0000000000000000e+00" itree="481">
      <Node pos="s" depth="0" NCoef="0" IVar="6" Cut="3.1702828979492188e+02" cType="1" res="-3.6067666951566935e-03" rms="4.4948962330818176e-01" purity="4.8521739244461060e-01" nType="0">
        <Node pos="l" depth="1" NCoef="0" IVar="-1" Cut="0.0000000000000000e+00" cType="1" res="-2.2549650166183710e-03" rms="3.8697469234466553e-01" purity="2.1500045061111450e-01" nType="-99"/>
        <Node pos="r" depth="1" NCoef="0" IVar="4" Cut="2.1912443637847900e-01" cType="1" res="8.9714089408516884e-03" rms="4.5276230573654175e-01" purity="5.1015305519104004e-01" nType="0">
          <Node pos="l" depth="2" NCoef="0" IVar="-1" Cut="0.0000000000000000e+00" cType="1" res="-1.7872409443953075e-05" rms="4.5077058672904968e-01" purity="4.9754357337951660e-01" nType="-99"/>
          <Node pos="r" depth="2" NCoef="0" IVar="-1" Cut="0.0000000000000000e+00" cType="1" res="1.5865555033087730e-03" rms="4.5750892162322998e-01" purity="6.7003744840621948e-01" nType="-99"/>
        </Node>
      </Node>
    </BinaryTree>
    <BinaryTree type="DecisionTree" boostWeight="1.0000000000000000e+00" itree="482">
      <Node pos="s" depth="0" NCoef="0" IVar="1" Cut="1.5784938335418701e+00" cType="1" res="1.3722065836191177e-02" rms="4.5194280147552490e-01" purity="5.0847244262695312e-01" nType="0">
        <Node pos="l" depth="1" NCoef="0" IVar="3" Cut="1.0906505584716797e+02" cType="1" res="2.5892317295074463e-02" rms="4.5981341600418091e-01" purity="5.4303210973739624e-01" nType="0">
          <Node pos="l" depth="2" NCoef="0" IVar="-1" Cut="0.0000000000000000e+00" cType="1" res="1.0379045852459967e-04" rms="4.6371158957481384e-01" purity="5.1031488180160522e-01" nType="-99"/>
          <Node pos="r" depth="2" NCoef="0" IVar="-1" Cut="0.0000000000000000e+00" cType="1" res="1.1718871537595987e-03" rms="4.3699538707733154e-01" purity="6.7299908399581909e-01" nType="-99"/>
        </Node>
        <Node pos="r" depth="1" NCoef="0" IVar="-1" Cut="0.0000000000000000e+00" cType="1" res="-2.3621732834726572e-03" rms="3.3696228265762329e-01" purity="1.5398897230625153e-01" nType="-99"/>
      </Node>
    </BinaryTree>
    <BinaryTree type="DecisionTree" boostWeight="1.0000000000000000e+00" itree="483">
      <Node pos="s" depth="0" NCoef="0" IVar="1" Cut="1.0570029020309448e+00" cType="1" res="4.4084745459258556e-03" rms="4.4891467690467834e-01" purity="5.0265920162200928e-01" nType="0">
        <Node pos="l" depth="1" NCoef="0" IVar="0" Cut="5.6209969520568848e+00" cType="1" res="2.9522497206926346e-02" rms="4.5391303300857544e-01" purity="5.9588444232940674e-01" nType="0">
          <Node pos="l" depth="2" NCoef="0" IVar="-1" Cut="0.0000000000000000e+00" cType="1" res="-8.7029271526262164e-04" rms="4.3389502167701721e-01" purity="2.9619583487510681e-01" nType="-99"/>
          <Node pos="r" depth="2" NCoef="0" IVar="-1" Cut="0.0000000000000000e+00" cType="1" res="5.8233621530234814e-04" rms="4.5568722486495972e-01" purity="6.6134864091873169e-01" nType="-99"/>
        </Node>
        <Node pos="r" depth="1" NCoef="0" IVar="2" Cut="3.0201974487304688e+02" cType="1" res="-4.2439572513103485e-02" rms="4.3558594584465027e-01" purity="3.2875558733940125e-01" nType="0">
          <Node pos="l" depth="2" NCoef="0" IVar="-1" Cut="0.0000000000000000e+00" cType="1" res="-1.8023911979980767e-04" rms="4.5218533277511597e-01" purity="3.7050613760948181e-01" nType="-99"/>
          <Node pos="r" depth="2" NCoef="0" IVar="-1" Cut="0.0000000000000000e+00" cType="1" res="-1.9401171011850238e-03" rms="3.9122268557548523e-01" purity="2.4152424931526184e-01" nType="-99"/>
        </Node>
      </Node>
    </BinaryTree>
    <BinaryTree type="DecisionTree" boostWeight="1.0000000000000000e+00" itree="484">
      <Node pos="s" depth="0" NCoef="0" IVar="0" Cut="5.9434676170349121e+00" cType="1" res="-5.9848334640264511e-03" rms="4.4334456324577332e-01" purity="4.9183577299118042e-01" nType="0">
        <Node pos="l" depth="1" NCoef="0" IVar="4" Cut="1.2711830437183380e-01" cType="1" res="-7.3548600077629089e-02" rms="4.1287806630134583e-01" purity="2.4581231176853180e-01" nType="0">
          <Node pos="l" depth="2" NCoef="0" IVar="-1" Cut="0.0000000000000000e+00" cType="1" res="-1.5965787461027503e-03" rms="3.9147284626960754e-01" purity="2.1156039834022522e-01" nType="-99"/>
          <Node pos="r" depth="2" NCoef="0" IVar="-1" Cut="0.0000000000000000e+00" cType="1" res="-2.7476249670144171e-05" rms="4.6563488245010376e-01" purity="3.5153418779373169e-01" nType="-99"/>
        </Node>
        <Node pos="r" depth="1" NCoef="0" IVar="4" Cut="-8.8684961199760437e-02" cType="1" res="2.1861312910914421e-02" rms="4.5238134264945984e-01" purity="5.9323334693908691e-01" nType="0">
          <Node pos="l" depth="2" NCoef="0" IVar="-1" Cut="0.0000000000000000e+00" cType="1" res="-1.0736763942986727e-03" rms="4.4346526265144348e-01" purity="4.2989477515220642e-01" nType="-99"/>
          <Node pos="r" depth="2" NCoef="0" IVar="-1" Cut="0.0000000000000000e+00" cType="1" res="5.6103040697053075e-04" rms="4.5129397511482239e-01" purity="6.3442647457122803e-01" nType="-99"/>
        </Node>
      </Node>
    </BinaryTree>
    <BinaryTree type="DecisionTree" boostWeight="1.0000000000000000e+00" itree="485">
      <Node pos="s" depth="0" NCoef="0" IVar="1" Cut="1.2416101694107056e+00" cType="1" res="-4.2659160681068897e-03" rms="4.4796639680862427e-01" purity="4.8627534508705139e-01" nType="0">
        <Node pos="l" depth="1" NCoef="0" IVar="2" Cut="2.0341061401367188e+02" cType="1" res="1.5556280501186848e-02" rms="4.5662152767181396e-01" purity="5.5715751647949219e-01" nType="0">
          <Node pos="l" depth="2" NCoef="0" IVar="-1" Cut="0.0000000000000000e+00" cType="1" res="-3.3716257894411683e-04" rms="4.5627880096435547e-01" purity="4.7306662797927856e-01" nType="-99"/>
          <Node pos="r" depth="2" NCoef="0" IVar="-1" Cut="0.0000000000000000e+00" cType="1" res="7.5701042078435421e-04" rms="4.5236983895301819e-01" purity="6.5002238750457764e-01" nType="-99"/>
        </Node>
        <Node pos="r" depth="1" NCoef="0" IVar="2" Cut="2.7872720336914062e+02" cType="1" res="-7.2544910013675690e-02" rms="4.0949928760528564e-01" purity="2.4211665987968445e-01" nType="0">
          <Node pos="l" depth="2" NCoef="0" IVar="-1" Cut="0.0000000000000000e+00" cType="1" res="-3.6936218384653330e-04" rms="4.4764736294746399e-01" purity="2.8888830542564392e-01" nType="-99"/>
          <Node pos="r" depth="2" NCoef="0" IVar="-1" Cut="0.0000000000000000e+00" cType="1" res="-2.5962628424167633e-03" rms="3.5204902291297913e-01" purity="1.8859322369098663e-01" nType="-99"/>
        </Node>
      </Node>
    </BinaryTree>
    <BinaryTree type="DecisionTree" boostWeight="1.0000000000000000e+00" itree="486">
      <Node pos="s" depth="0" NCoef="0" IVar="3" Cut="9.3047409057617188e+01" cType="1" res="3.8082730025053024e-03" rms="4.5223197340965271e-01" purity="4.9678346514701843e-01" nType="0">
        <Node pos="l" depth="1" NCoef="0" IVar="0" Cut="8.0207614898681641e+00" cType="1" res="-2.2824743762612343e-02" rms="4.5044729113578796e-01" purity="4.5494347810745239e-01" nType="0">
          <Node pos="l" depth="2" NCoef="0" IVar="-1" Cut="0.0000000000000000e+00" cType="1" res="-5.7676533469930291e-04" rms="4.4991561770439148e-01" purity="3.9543029665946960e-01" nType="-99"/>
          <Node pos="r" depth="2" NCoef="0" IVar="-1" Cut="0.0000000000000000e+00" cType="1" res="7.5697834836319089e-04" rms="4.4267246127128601e-01" purity="7.1580684185028076e-01" nType="-99"/>
        </Node>
        <Node pos="r" depth="1" NCoef="0" IVar="3" Cut="1.1336130523681641e+02" cType="1" res="5.9759106487035751e-02" rms="4.5086306333541870e-01" purity="5.8468127250671387e-01" nType="0">
          <Node pos="l" depth="2" NCoef="0" IVar="-1" Cut="0.0000000000000000e+00" cType="1" res="1.3449323596432805e-03" rms="4.3757450580596924e-01" purity="6.1553150415420532e-01" nType="-99"/>
          <Node pos="r" depth="2" NCoef="0" IVar="-1" Cut="0.0000000000000000e+00" cType="1" res="3.0509327189065516e-04" rms="4.5736682415008545e-01" purity="5.6106269359588623e-01" nType="-99"/>
        </Node>
      </Node>
    </BinaryTree>
    <BinaryTree type="DecisionTree" boostWeight="1.0000000000000000e+00" itree="487">
      <Node pos="s" depth="0" NCoef="0" IVar="2" Cut="1.3579537963867188e+02" cType="1" res="9.9717630073428154e-03" rms="4.5197868347167969e-01" purity="5.0081890821456909e-01" nType="0">
        <Node pos="l" depth="1" NCoef="0" IVar="-1" Cut="0.0000000000000000e+00" cType="1" res="-1.8420004053041339e-03" rms="4.3741714954376221e-01" purity="3.2889577746391296e-01" nType="-99"/>
        <Node pos="r" depth="1" NCoef="0" IVar="6" Cut="6.4020996093750000e+02" cType="1" res="2.3935908451676369e-02" rms="4.5108824968338013e-01" purity="5.1825571060180664e-01" nType="0">
          <Node pos="l" depth="2" NCoef="0" IVar="-1" Cut="0.0000000000000000e+00" cType="1" res="8.8328495621681213e-05" rms="4.5161023736000061e-01" purity="4.8769021034240723e-01" nType="-99"/>
          <Node pos="r" depth="2" NCoef="0" IVar="-1" Cut="0.0000000000000000e+00" cType="1" res="1.3255919329822063e-03" rms="4.3833279609680176e-01" purity="6.7196100950241089e-01" nType="-99"/>
        </Node>
      </Node>
    </BinaryTree>
    <BinaryTree type="DecisionTree" boostWeight="1.0000000000000000e+00" itree="488">
      <Node pos="s" depth="0" NCoef="0" IVar="3" Cut="9.2664489746093750e+01" cType="1" res="2.2552176378667355e-03" rms="4.5563587546348572e-01" purity="4.9678105115890503e-01" nType="0">
        <Node pos="l" depth="1" NCoef="0" IVar="1" Cut="1.0438799858093262e+00" cType="1" res="-2.2348664700984955e-02" rms="4.5492357015609741e-01" purity="4.5989441871643066e-01" nType="0">
          <Node pos="l" depth="2" NCoef="0" IVar="-1" Cut="0.0000000000000000e+00" cType="1" res="7.4019088060595095e-05" rms="4.6841910481452942e-01" purity="5.4260557889938354e-01" nType="-99"/>
          <Node pos="r" depth="2" NCoef="0" IVar="-1" Cut="0.0000000000000000e+00" cType="1" res="-1.4376983745023608e-03" rms="4.1609910130500793e-01" purity="2.7452391386032104e-01" nType="-99"/>
        </Node>
        <Node pos="r" depth="1" NCoef="0" IVar="0" Cut="5.7813005447387695e+00" cType="1" res="5.5076640099287033e-02" rms="4.5266631245613098e-01" purity="5.7597208023071289e-01" nType="0">
          <Node pos="l" depth="2" NCoef="0" IVar="-1" Cut="0.0000000000000000e+00" cType="1" res="-4.3778200051747262e-04" rms="4.3222635984420776e-01" purity="3.1356522440910339e-01" nType="-99"/>
          <Node pos="r" depth="2" NCoef="0" IVar="-1" Cut="0.0000000000000000e+00" cType="1" res="9.5907109789550304e-04" rms="4.5533046126365662e-01" purity="6.4585351943969727e-01" nType="-99"/>
        </Node>
      </Node>
    </BinaryTree>
    <BinaryTree type="DecisionTree" boostWeight="1.0000000000000000e+00" itree="489">
      <Node pos="s" depth="0" NCoef="0" IVar="1" Cut="1.0331401824951172e+00" cType="1" res="1.6694696620106697e-02" rms="4.4407913088798523e-01" purity="5.0351160764694214e-01" nType="0">
        <Node pos="l" depth="1" NCoef="0" IVar="2" Cut="1.8635404968261719e+02" cType="1" res="5.7190995663404465e-02" rms="4.4672814011573792e-01" purity="6.1361861228942871e-01" nType="0">
          <Node pos="l" depth="2" NCoef="0" IVar="-1" Cut="0.0000000000000000e+00" cType="1" res="6.7196677264291793e-05" rms="4.6973678469657898e-01" purity="4.9449193477630615e-01" nType="-99"/>
          <Node pos="r" depth="2" NCoef="0" IVar="-1" Cut="0.0000000000000000e+00" cType="1" res="1.1857949430122972e-03" rms="4.2110577225685120e-01" purity="7.1543300151824951e-01" nType="-99"/>
        </Node>
        <Node pos="r" depth="1" NCoef="0" IVar="0" Cut="8.1146745681762695e+00" cType="1" res="-4.4155035167932510e-02" rms="4.3300533294677734e-01" purity="3.3806484937667847e-01" nType="0">
          <Node pos="l" depth="2" NCoef="0" IVar="-1" Cut="0.0000000000000000e+00" cType="1" res="-1.1190488003194332e-03" rms="4.2436343431472778e-01" purity="2.8089126944541931e-01" nType="-99"/>
          <Node pos="r" depth="2" NCoef="0" IVar="-1" Cut="0.0000000000000000e+00" cType="1" res="1.0738205164670944e-03" rms="4.5521783828735352e-01" purity="6.5321254730224609e-01" nType="-99"/>
        </Node>
      </Node>
    </BinaryTree>
    <BinaryTree type="DecisionTree" boostWeight="1.0000000000000000e+00" itree="490">
      <Node pos="s" depth="0" NCoef="0" IVar="1" Cut="1.4966695308685303e+00" cType="1" res="4.5463638380169868e-03" rms="4.4640627503395081e-01" purity="5.0590664148330688e-01" nType="0">
        <Node pos="l" depth="1" NCoef="0" IVar="3" Cut="9.5118164062500000e+01" cType="1" res="1.7983809113502502e-02" rms="4.5605805516242981e-01" purity="5.4786723852157593e-01" nType="0">
          <Node pos="l" depth="2" NCoef="0" IVar="-1" Cut="0.0000000000000000e+00" cType="1" res="-1.1446259304648265e-04" rms="4.5925039052963257e-01" purity="4.9490800499916077e-01" nType="-99"/>
          <Node pos="r" depth="2" NCoef="0" IVar="-1" Cut="0.0000000000000000e+00" cType="1" res="9.8376465030014515e-04" rms="4.4177368283271790e-01" purity="6.7418003082275391e-01" nType="-99"/>
        </Node>
        <Node pos="r" depth="1" NCoef="0" IVar="1" Cut="1.7669318914413452e+00" cType="1" res="-1.0691857337951660e-01" rms="3.3630758523941040e-01" purity="1.5783952176570892e-01" nType="0">
          <Node pos="l" depth="2" NCoef="0" IVar="-1" Cut="0.0000000000000000e+00" cType="1" res="-1.2394592631608248e-03" rms="3.8932093977928162e-01" purity="2.2398842871189117e-01" nType="-99"/>
          <Node pos="r" depth="2" NCoef="0" IVar="-1" Cut="0.0000000000000000e+00" cType="1" res="-3.7473067641258240e-03" rms="2.5818747282028198e-01" purity="8.4864258766174316e-02" nType="-99"/>
        </Node>
      </Node>
    </BinaryTree>
    <BinaryTree type="DecisionTree" boostWeight="1.0000000000000000e+00" itree="491">
      <Node pos="s" depth="0" NCoef="0" IVar="0" Cut="7.5135331153869629e+00" cType="1" res="3.9937265217304230e-02" rms="4.4996324181556702e-01" purity="5.3215867280960083e-01" nType="0">
        <Node pos="l" depth="1" NCoef="0" IVar="1" Cut="1.5737978219985962e+00" cType="1" res="2.0604973658919334e-02" rms="4.5929878950119019e-01" purity="4.4893786311149597e-01" nType="0">
          <Node pos="l" depth="2" NCoef="0" IVar="-1" Cut="0.0000000000000000e+00" cType="1" res="4.1134902858175337e-04" rms="4.7221127152442932e-01" purity="4.8824971914291382e-01" nType="-99"/>
          <Node pos="r" depth="2" NCoef="0" IVar="-1" Cut="0.0000000000000000e+00" cType="1" res="-1.8572014523670077e-03" rms="3.2243481278419495e-01" purity="1.3463018834590912e-01" nType="-99"/>
        </Node>
        <Node pos="r" depth="1" NCoef="0" IVar="3" Cut="8.4330581665039062e+01" cType="1" res="8.9128769934177399e-02" rms="4.2130395770072937e-01" purity="7.4391627311706543e-01" nType="0">
          <Node pos="l" depth="2" NCoef="0" IVar="-1" Cut="0.0000000000000000e+00" cType="1" res="7.2982924757525325e-04" rms="4.3688952922821045e-01" purity="7.0977854728698730e-01" nType="-99"/>
          <Node pos="r" depth="2" NCoef="0" IVar="-1" Cut="0.0000000000000000e+00" cType="1" res="1.6262830467894673e-03" rms="3.9350336790084839e-01" purity="7.9367756843566895e-01" nType="-99"/>
        </Node>
      </Node>
    </BinaryTree>
    <BinaryTree type="DecisionTree" boostWeight="1.0000000000000000e+00" itree="492">
      <Node pos="s" depth="0" NCoef="0" IVar="0" Cut="4.7934036254882812e+00" cType="1" res="1.0878784814849496e-03" rms="4.5114758610725403e-01" purity="4.9297082424163818e-01" nType="0">
        <Node pos="l" depth="1" NCoef="0" IVar="-1" Cut="0.0000000000000000e+00" cType="1" res="-3.9380299858748913e-03" rms="2.4137951433658600e-01" purity="6.9299213588237762e-02" nType="-99"/>
        <Node pos="r" depth="1" NCoef="0" IVar="6" Cut="3.3738400268554688e+02" cType="1" res="1.1837164871394634e-02" rms="4.5820239186286926e-01" purity="5.1777386665344238e-01" nType="0">
          <Node pos="l" depth="2" NCoef="0" IVar="-1" Cut="0.0000000000000000e+00" cType="1" res="-1.1697087902575731e-03" rms="4.3891203403472900e-01" purity="3.0843585729598999e-01" nType="-99"/>
          <Node pos="r" depth="2" NCoef="0" IVar="-1" Cut="0.0000000000000000e+00" cType="1" res="2.9247513157315552e-04" rms="4.5922717452049255e-01" purity="5.4337680339813232e-01" nType="-99"/>
        </Node>
      </Node>
    </BinaryTree>
    <BinaryTree type="DecisionTree" boostWeight="1.0000000000000000e+00" itree="493">
      <Node pos="s" depth="0" NCoef="0" IVar="1" Cut="1.3382086753845215e+00" cType="1" res="3.9563579484820366e-03" rms="4.4844189286231995e-01" purity="5.0026899576187134e-01" nType="0">
        <Node pos="l" depth="1" NCoef="0" IVar="2" Cut="2.2045501708984375e+02" cType="1" res="2.3373095318675041e-02" rms="4.5934483408927917e-01" purity="5.6317120790481567e-01" nType="0">
          <Node pos="l" depth="2" NCoef="0" IVar="-1" Cut="0.0000000000000000e+00" cType="1" res="-1.6402039909735322e-04" rms="4.6655237674713135e-01" purity="4.9166259169578552e-01" nType="-99"/>
          <Node pos="r" depth="2" NCoef="0" IVar="-1" Cut="0.0000000000000000e+00" cType="1" res="9.1654463903978467e-04" rms="4.4370213150978088e-01" purity="6.6527944803237915e-01" nType="-99"/>
        </Node>
        <Node pos="r" depth="1" NCoef="0" IVar="0" Cut="6.0295214653015137e+00" cType="1" res="-8.5763521492481232e-02" rms="3.8154208660125732e-01" purity="2.0961347222328186e-01" nType="0">
          <Node pos="l" depth="2" NCoef="0" IVar="-1" Cut="0.0000000000000000e+00" cType="1" res="-3.6086346954107285e-03" rms="2.4929013848304749e-01" purity="6.8649217486381531e-02" nType="-99"/>
          <Node pos="r" depth="2" NCoef="0" IVar="-1" Cut="0.0000000000000000e+00" cType="1" res="-8.5085607133805752e-04" rms="4.4120949506759644e-01" purity="2.9757145047187805e-01" nType="-99"/>
        </Node>
      </Node>
    </BinaryTree>
    <BinaryTree type="DecisionTree" boostWeight="1.0000000000000000e+00" itree="494">
      <Node pos="s" depth="0" NCoef="0" IVar="1" Cut="1.0570029020309448e+00" cType="1" res="1.0904429480433464e-02" rms="4.4743415713310242e-01" purity="5.1168322563171387e-01" nType="0">
        <Node pos="l" depth="1" NCoef="0" IVar="2" Cut="1.9647842407226562e+02" cType="1" res="3.9243701845407486e-02" rms="4.5235437154769897e-01" purity="6.1059212684631348e-01" nType="0">
          <Node pos="l" depth="2" NCoef="0" IVar="-1" Cut="0.0000000000000000e+00" cType="1" res="-1.7767364624887705e-04" rms="4.6731051802635193e-01" purity="4.9466636776924133e-01" nType="-99"/>
          <Node pos="r" depth="2" NCoef="0" IVar="-1" Cut="0.0000000000000000e+00" cType="1" res="1.0868784738704562e-03" rms="4.3051928281784058e-01" purity="7.2527462244033813e-01" nType="-99"/>
        </Node>
        <Node pos="r" depth="1" NCoef="0" IVar="0" Cut="6.8663520812988281e+00" cType="1" res="-4.1137378662824631e-02" rms="4.3345609307289124e-01" purity="3.3004847168922424e-01" nType="0">
          <Node pos="l" depth="2" NCoef="0" IVar="-1" Cut="0.0000000000000000e+00" cType="1" res="-1.5497246058657765e-03" rms="3.9475044608116150e-01" purity="2.1025864779949188e-01" nType="-99"/>
          <Node pos="r" depth="2" NCoef="0" IVar="-1" Cut="0.0000000000000000e+00" cType="1" res="3.5242125159129500e-04" rms="4.8004072904586792e-01" purity="5.1768636703491211e-01" nType="-99"/>
        </Node>
      </Node>
    </BinaryTree>
    <BinaryTree type="DecisionTree" boostWeight="1.0000000000000000e+00" itree="495">
      <Node pos="s" depth="0" NCoef="0" IVar="7" Cut="5.2622184157371521e-02" cType="1" res="2.2196181816980243e-04" rms="4.5677301287651062e-01" purity="4.9028661847114563e-01" nType="0">
        <Node pos="l" depth="1" NCoef="0" IVar="4" Cut="7.6361618936061859e-02" cType="1" res="2.3072861135005951e-02" rms="4.5490914583206177e-01" purity="5.2925908565521240e-01" nType="0">
          <Node pos="l" depth="2" NCoef="0" IVar="-1" Cut="0.0000000000000000e+00" cType="1" res="2.0392173610161990e-05" rms="4.5424130558967590e-01" purity="4.9461740255355835e-01" nType="-99"/>
          <Node pos="r" depth="2" NCoef="0" IVar="-1" Cut="0.0000000000000000e+00" cType="1" res="9.8129373509436846e-04" rms="4.5182418823242188e-01" purity="6.2002772092819214e-01" nType="-99"/>
        </Node>
        <Node pos="r" depth="1" NCoef="0" IVar="6" Cut="3.5917120361328125e+02" cType="1" res="-4.8688232898712158e-02" rms="4.5691227912902832e-01" purity="4.0686973929405212e-01" nType="0">
          <Node pos="l" depth="2" NCoef="0" IVar="-1" Cut="0.0000000000000000e+00" cType="1" res="4.1537161450833082e-04" rms="4.5619001984596252e-01" purity="3.9402073621749878e-01" nType="-99"/>
          <Node pos="r" depth="2" NCoef="0" IVar="-1" Cut="0.0000000000000000e+00" cType="1" res="-9.4794778851792216e-04" rms="4.5521810650825500e-01" purity="4.0987029671669006e-01" nType="-99"/>
        </Node>
      </Node>
    </BinaryTree>
    <BinaryTree type="DecisionTree" boostWeight="1.0000000000000000e+00" itree="496">
      <Node pos="s" depth="0" NCoef="0" IVar="5" Cut="4.9959596991539001e-01" cType="1" res="1.4168053865432739e-02" rms="4.5679861307144165e-01" purity="5.0714308023452759e-01" nType="0">
        <Node pos="l" depth="1" NCoef="0" IVar="2" Cut="2.3804243469238281e+02" cType="1" res="7.4732676148414612e-02" rms="4.4810181856155396e-01" purity="6.2610977888107300e-01" nType="0">
          <Node pos="l" depth="2" NCoef="0" IVar="-1" Cut="0.0000000000000000e+00" cType="1" res="3.9341289084404707e-04" rms="4.5861974358558655e-01" purity="5.6782108545303345e-01" nType="-99"/>
          <Node pos="r" depth="2" NCoef="0" IVar="-1" Cut="0.0000000000000000e+00" cType="1" res="2.0119394175708294e-03" rms="4.0951627492904663e-01" purity="7.5406408309936523e-01" nType="-99"/>
        </Node>
        <Node pos="r" depth="1" NCoef="0" IVar="4" Cut="1.4052183926105499e-01" cType="1" res="-1.4271336607635021e-02" rms="4.5807111263275146e-01" purity="4.5127972960472107e-01" nType="0">
          <Node pos="l" depth="2" NCoef="0" IVar="-1" Cut="0.0000000000000000e+00" cType="1" res="-4.8204476479440928e-04" rms="4.5108556747436523e-01" purity="4.2030194401741028e-01" nType="-99"/>
          <Node pos="r" depth="2" NCoef="0" IVar="-1" Cut="0.0000000000000000e+00" cType="1" res="6.1636761529371142e-04" rms="4.7473183274269104e-01" purity="5.5305010080337524e-01" nType="-99"/>
        </Node>
      </Node>
    </BinaryTree>
    <BinaryTree type="DecisionTree" boostWeight="1.0000000000000000e+00" itree="497">
      <Node pos="s" depth="0" NCoef="0" IVar="0" Cut="5.0460381507873535e+00" cType="1" res="1.2482195161283016e-02" rms="4.5053228735923767e-01" purity="5.0159198045730591e-01" nType="0">
        <Node pos="l" depth="1" NCoef="0" IVar="-1" Cut="0.0000000000000000e+00" cType="1" res="-1.7360118217766285e-03" rms="3.6301264166831970e-01" purity="1.7337766289710999e-01" nType="-99"/>
        <Node pos="r" depth="1" NCoef="0" IVar="3" Cut="8.0361244201660156e+01" cType="1" res="2.3761959746479988e-02" rms="4.5752435922622681e-01" purity="5.3689843416213989e-01" nType="0">
          <Node pos="l" depth="2" NCoef="0" IVar="-1" Cut="0.0000000000000000e+00" cType="1" res="-7.7869583037681878e-05" rms="4.6833175420761108e-01" purity="4.8858490586280823e-01" nType="-99"/>
          <Node pos="r" depth="2" NCoef="0" IVar="-1" Cut="0.0000000000000000e+00" cType="1" res="7.8400358324870467e-04" rms="4.4046118855476379e-01" purity="5.9845399856567383e-01" nType="-99"/>
        </Node>
      </Node>
    </BinaryTree>
    <BinaryTree type="DecisionTree" boostWeight="1.0000000000000000e+00" itree="498">
      <Node pos="s" depth="0" NCoef="0" IVar="0" Cut="7.6285724639892578e+00" cType="1" res="-8.4903743118047714e-03" rms="4.4586414098739624e-01" purity="4.8655694723129272e-01" nType="0">
        <Node pos="l" depth="1" NCoef="0" IVar="2" Cut="2.0404885864257812e+02" cType="1" res="-3.7577338516712189e-02" rms="4.4726368784904480e-01" purity="3.9464545249938965e-01" nType="0">
          <Node pos="l" depth="2" NCoef="0" IVar="-1" Cut="0.0000000000000000e+00" cType="1" res="-1.2880070134997368e-03" rms="4.4790813326835632e-01" purity="3.1950423121452332e-01" nType="-99"/>
          <Node pos="r" depth="2" NCoef="0" IVar="-1" Cut="0.0000000000000000e+00" cType="1" res="1.3854865392204374e-04" rms="4.4121733307838440e-01" purity="4.6015548706054688e-01" nType="-99"/>
        </Node>
        <Node pos="r" depth="1" NCoef="0" IVar="2" Cut="2.8321395874023438e+02" cType="1" res="6.6335558891296387e-02" rms="4.3336355686187744e-01" purity="7.2299832105636597e-01" nType="0">
          <Node pos="l" depth="2" NCoef="0" IVar="-1" Cut="0.0000000000000000e+00" cType="1" res="1.0249423794448376e-03" rms="4.2407637834548950e-01" purity="7.4789291620254517e-01" nType="-99"/>
          <Node pos="r" depth="2" NCoef="0" IVar="-1" Cut="0.0000000000000000e+00" cType="1" res="-4.9158326874021441e-05" rms="4.5701658725738525e-01" purity="6.3739353418350220e-01" nType="-99"/>
        </Node>
      </Node>
    </BinaryTree>
    <BinaryTree type="DecisionTree" boostWeight="1.0000000000000000e+00" itree="499">
      <Node pos="s" depth="0" NCoef="0" IVar="4" Cut="2.1724298596382141e-01" cType="1" res="1.7701093107461929e-02" rms="4.5195335149765015e-01" purity="5.0071132183074951e-01" nType="0">
        <Node pos="l" depth="1" NCoef="0" IVar="2" Cut="2.0081936645507812e+02" cType="1" res="4.3333587236702442e-03" rms="4.5280337333679199e-01" purity="4.8138475418090820e-01" nType="0">
          <Node pos="l" depth="2" NCoef="0" IVar="-1" Cut="0.0000000000000000e+00" cType="1" res="-6.1105389613658190e-04" rms="4.5433643460273743e-01" purity="4.1448673605918884e-01" nType="-99"/>
          <Node pos="r" depth="2" NCoef="0" IVar="-1" Cut="0.0000000000000000e+00" cType="1" res="5.3413060959428549e-04" rms="4.4836688041687012e-01" purity="5.2860063314437866e-01" nType="-99"/>
        </Node>
        <Node pos="r" depth="1" NCoef="0" IVar="-1" Cut="0.0000000000000000e+00" cType="1" res="1.8954975530505180e-03" rms="4.1487222909927368e-01" purity="7.1368175745010376e-01" nType="-99"/>
      </Node>
    </BinaryTree>
    <BinaryTree type="DecisionTree" boostWeight="1.0000000000000000e+00" itree="500">
      <Node pos="s" depth="0" NCoef="0" IVar="2" Cut="2.0664326477050781e+02" cType="1" res="6.6674798727035522e-03" rms="4.5475482940673828e-01" purity="5.0069689750671387e-01" nType="0">
        <Node pos="l" depth="1" NCoef="0" IVar="0" Cut="7.5846614837646484e+00" cType="1" res="-2.9504265636205673e-02" rms="4.5552870631217957e-01" purity="4.4666489958763123e-01" nType="0">
          <Node pos="l" depth="2" NCoef="0" IVar="-1" Cut="0.0000000000000000e+00" cType="1" res="-8.7249942589551210e-04" rms="4.5732864737510681e-01" purity="3.4791713953018188e-01" nType="-99"/>
          <Node pos="r" depth="2" NCoef="0" IVar="-1" Cut="0.0000000000000000e+00" cType="1" res="8.2148920046165586e-04" rms="4.3418300151824951e-01" purity="7.2870963811874390e-01" nType="-99"/>
        </Node>
        <Node pos="r" depth="1" NCoef="0" IVar="2" Cut="3.3882577514648438e+02" cType="1" res="3.8333944976329803e-02" rms="4.5170459151268005e-01" purity="5.4799914360046387e-01" nType="0">
          <Node pos="l" depth="2" NCoef="0" IVar="-1" Cut="0.0000000000000000e+00" cType="1" res="8.2232034765183926e-04" rms="4.5215472579002380e-01" purity="5.9483242034912109e-01" nType="-99"/>
          <Node pos="r" depth="2" NCoef="0" IVar="-1" Cut="0.0000000000000000e+00" cType="1" res="-5.3083884995430708e-04" rms="4.4213798642158508e-01" purity="4.0910047292709351e-01" nType="-99"/>
        </Node>
      </Node>
    </BinaryTree>
    <BinaryTree type="DecisionTree" boostWeight="1.0000000000000000e+00" itree="501">
      <Node pos="s" depth="0" NCoef="0" IVar="1" Cut="8.7782001495361328e-01" cType="1" res="2.3531319573521614e-02" rms="4.5044082403182983e-01" purity="5.1732826232910156e-01" nType="0">
        <Node pos="l" depth="1" NCoef="0" IVar="2" Cut="1.7852641296386719e+02" cType="1" res="7.1616970002651215e-02" rms="4.4178384542465210e-01" purity="6.4053428173065186e-01" nType="0">
          <Node pos="l" depth="2" NCoef="0" IVar="-1" Cut="0.0000000000000000e+00" cType="1" res="3.8511898310389370e-05" rms="4.7530707716941833e-01" purity="4.9821904301643372e-01" nType="-99"/>
          <Node pos="r" depth="2" NCoef="0" IVar="-1" Cut="0.0000000000000000e+00" cType="1" res="1.4118753606453538e-03" rms="4.0817162394523621e-01" purity="7.4511492252349854e-01" nType="-99"/>
        </Node>
        <Node pos="r" depth="1" NCoef="0" IVar="0" Cut="7.4961113929748535e+00" cType="1" res="-2.0019071176648140e-02" rms="4.5376387238502502e-01" purity="4.0574267506599426e-01" nType="0">
          <Node pos="l" depth="2" NCoef="0" IVar="-1" Cut="0.0000000000000000e+00" cType="1" res="-7.0059217978268862e-04" rms="4.5182061195373535e-01" purity="3.2154303789138794e-01" nType="-99"/>
          <Node pos="r" depth="2" NCoef="0" IVar="-1" Cut="0.0000000000000000e+00" cType="1" res="6.9589406484737992e-04" rms="4.5087340474128723e-01" purity="6.4609807729721069e-01" nType="-99"/>
        </Node>
      </Node>
    </BinaryTree>
    <BinaryTree type="DecisionTree" boostWeight="1.0000000000000000e+00" itree="502">
      <Node pos="s" depth="0" NCoef="0" IVar="0" Cut="4.7934036254882812e+00" cType="1" res="1.7334042116999626e-02" rms="4.5266693830490112e-01" purity="5.1216214895248413e-01" nType="0">
        <Node pos="l" depth="1" NCoef="0" IVar="-1" Cut="0.0000000000000000e+00" cType="1" res="-3.4691495820879936e-03" rms="2.7907931804656982e-01" purity="8.0721005797386169e-02" nType="-99"/>
        <Node pos="r" depth="1" NCoef="0" IVar="2" Cut="4.4684066772460938e+02" cType="1" res="2.7457853779196739e-02" rms="4.5846310257911682e-01" purity="5.3659504652023315e-01" nType="0">
          <Node pos="l" depth="2" NCoef="0" IVar="-1" Cut="0.0000000000000000e+00" cType="1" res="4.7128557343967259e-04" rms="4.6025586128234863e-01" purity="5.5299091339111328e-01" nType="-99"/>
          <Node pos="r" depth="2" NCoef="0" IVar="-1" Cut="0.0000000000000000e+00" cType="1" res="-2.4527178611606359e-03" rms="3.8915491104125977e-01" purity="2.5655114650726318e-01" nType="-99"/>
        </Node>
      </Node>
    </BinaryTree>
    <BinaryTree type="DecisionTree" boostWeight="1.0000000000000000e+00" itree="503">
      <Node pos="s" depth="0" NCoef="0" IVar="0" Cut="6.9914793968200684e+00" cType="1" res="1.1770399287343025e-02" rms="4.5379075407981873e-01" purity="5.0992667675018311e-01" nType="0">
        <Node pos="l" depth="1" NCoef="0" IVar="6" Cut="4.0961053466796875e+02" cType="1" res="-1.2825948186218739e-02" rms="4.5688325166702271e-01" purity="3.8424336910247803e-01" nType="0">
          <Node pos="l" depth="2" NCoef="0" IVar="-1" Cut="0.0000000000000000e+00" cType="1" res="-9.1457267990335822e-04" rms="4.2906534671783447e-01" purity="2.8480067849159241e-01" nType="-99"/>
          <Node pos="r" depth="2" NCoef="0" IVar="-1" Cut="0.0000000000000000e+00" cType="1" res="2.4145963834598660e-04" rms="4.7163435816764832e-01" purity="4.4983285665512085e-01" nType="-99"/>
        </Node>
        <Node pos="r" depth="1" NCoef="0" IVar="2" Cut="3.5428448486328125e+02" cType="1" res="4.6616412699222565e-02" rms="4.4706255197525024e-01" purity="6.8798404932022095e-01" nType="0">
          <Node pos="l" depth="2" NCoef="0" IVar="-1" Cut="0.0000000000000000e+00" cType="1" res="7.7514385338872671e-04" rms="4.3936678767204285e-01" purity="7.1414911746978760e-01" nType="-99"/>
          <Node pos="r" depth="2" NCoef="0" IVar="-1" Cut="0.0000000000000000e+00" cType="1" res="-1.0424992069602013e-03" rms="4.8278877139091492e-01" purity="5.0047188997268677e-01" nType="-99"/>
        </Node>
      </Node>
    </BinaryTree>
    <BinaryTree type="DecisionTree" boostWeight="1.0000000000000000e+00" itree="504">
      <Node pos="s" depth="0" NCoef="0" IVar="3" Cut="4.8581645965576172e+01" cType="1" res="-1.3206514995545149e-04" rms="4.4937309622764587e-01" purity="4.9287489056587219e-01" nType="0">
        <Node pos="l" depth="1" NCoef="0" IVar="5" Cut="5.6997650861740112e-01" cType="1" res="-8.5157737135887146e-02" rms="4.3249699473381042e-01" purity="3.6447325348854065e-01" nType="0">
          <Node pos="l" depth="2" NCoef="0" IVar="-1" Cut="0.0000000000000000e+00" cType="1" res="4.0473378248861991e-06" rms="4.5379400253295898e-01" purity="4.9867641925811768e-01" nType="-99"/>
          <Node pos="r" depth="2" NCoef="0" IVar="-1" Cut="0.0000000000000000e+00" cType="1" res="-2.2808350622653961e-03" rms="4.0683791041374207e-01" purity="2.7189689874649048e-01" nType="-99"/>
        </Node>
        <Node pos="r" depth="1" NCoef="0" IVar="4" Cut="1.5965974330902100e-01" cType="1" res="1.9530799239873886e-02" rms="4.5090955495834351e-01" purity="5.2256876230239868e-01" nType="0">
          <Node pos="l" depth="2" NCoef="0" IVar="-1" Cut="0.0000000000000000e+00" cType="1" res="5.4321291827363893e-05" rms="4.4830772280693054e-01" purity="5.0008642673492432e-01" nType="-99"/>
          <Node pos="r" depth="2" NCoef="0" IVar="-1" Cut="0.0000000000000000e+00" cType="1" res="1.2597152963280678e-03" rms="4.5556092262268066e-01" purity="6.5092146396636963e-01" nType="-99"/>
        </Node>
      </Node>
    </BinaryTree>
    <BinaryTree type="DecisionTree" boostWeight="1.0000000000000000e+00" itree="505">
      <Node pos="s" depth="0" NCoef="0" IVar="2" Cut="2.0314521789550781e+02" cType="1" res="2.3003924638032913e-02" rms="4.4940513372421265e-01" purity="5.1848310232162476e-01" nType="0">
        <Node pos="l" depth="1" NCoef="0" IVar="4" Cut="1.0752391070127487e-01" cType="1" res="-1.8424259498715401e-02" rms="4.5733994245529175e-01" purity="4.5548149943351746e-01" nType="0">
          <Node pos="l" depth="2" NCoef="0" IVar="-1" Cut="0.0000000000000000e+00" cType="1" res="-7.6874147634953260e-04" rms="4.5147117972373962e-01" purity="3.9948654174804688e-01" nType="-99"/>
          <Node pos="r" depth="2" NCoef="0" IVar="-1" Cut="0.0000000000000000e+00" cType="1" res="6.3617865089327097e-04" rms="4.5929065346717834e-01" purity="5.5621725320816040e-01" nType="-99"/>
        </Node>
        <Node pos="r" depth="1" NCoef="0" IVar="3" Cut="6.5858085632324219e+01" cType="1" res="5.7802807539701462e-02" rms="4.3962350487709045e-01" purity="5.7140338420867920e-01" nType="0">
          <Node pos="l" depth="2" NCoef="0" IVar="-1" Cut="0.0000000000000000e+00" cType="1" res="-3.1907283118925989e-04" rms="4.2409995198249817e-01" purity="4.3995660543441772e-01" nType="-99"/>
          <Node pos="r" depth="2" NCoef="0" IVar="-1" Cut="0.0000000000000000e+00" cType="1" res="1.0882285423576832e-03" rms="4.4145894050598145e-01" purity="6.1432379484176636e-01" nType="-99"/>
        </Node>
      </Node>
    </BinaryTree>
    <BinaryTree type="DecisionTree" boostWeight="1.0000000000000000e+00" itree="506">
      <Node pos="s" depth="0" NCoef="0" IVar="1" Cut="1.5846358537673950e+00" cType="1" res="1.4361637644469738e-02" rms="4.5060086250305176e-01" purity="5.0785714387893677e-01" nType="0">
        <Node pos="l" depth="1" NCoef="0" IVar="2" Cut="1.3174163818359375e+02" cType="1" res="2.5516718626022339e-02" rms="4.5967537164688110e-01" purity="5.4494869709014893e-01" nType="0">
          <Node pos="l" depth="2" NCoef="0" IVar="-1" Cut="0.0000000000000000e+00" cType="1" res="-1.0042819194495678e-03" rms="4.6632462739944458e-01" purity="3.9173424243927002e-01" nType="-99"/>
          <Node pos="r" depth="2" NCoef="0" IVar="-1" Cut="0.0000000000000000e+00" cType="1" res="4.4219789560884237e-04" rms="4.5788794755935669e-01" purity="5.5988371372222900e-01" nType="-99"/>
        </Node>
        <Node pos="r" depth="1" NCoef="0" IVar="-1" Cut="0.0000000000000000e+00" cType="1" res="-2.0269269589334726e-03" rms="3.3425244688987732e-01" purity="1.5400131046772003e-01" nType="-99"/>
      </Node>
    </BinaryTree>
    <BinaryTree type="DecisionTree" boostWeight="1.0000000000000000e+00" itree="507">
      <Node pos="s" depth="0" NCoef="0" IVar="0" Cut="5.0742864608764648e+00" cType="1" res="1.2165226042270660e-02" rms="4.5118495821952820e-01" purity="5.0798964500427246e-01" nType="0">
        <Node pos="l" depth="1" NCoef="0" IVar="-1" Cut="0.0000000000000000e+00" cType="1" res="-1.5842501306906343e-03" rms="3.7560221552848816e-01" purity="1.7897325754165649e-01" nType="-99"/>
        <Node pos="r" depth="1" NCoef="0" IVar="3" Cut="4.3514793395996094e+01" cType="1" res="2.2461008280515671e-02" rms="4.5749580860137939e-01" purity="5.4385954141616821e-01" nType="0">
          <Node pos="l" depth="2" NCoef="0" IVar="-1" Cut="0.0000000000000000e+00" cType="1" res="-7.8456220217049122e-04" rms="4.5299988985061646e-01" purity="4.2862337827682495e-01" nType="-99"/>
          <Node pos="r" depth="2" NCoef="0" IVar="-1" Cut="0.0000000000000000e+00" cType="1" res="4.3576917960308492e-04" rms="4.5696738362312317e-01" purity="5.6142294406890869e-01" nType="-99"/>
        </Node>
      </Node>
    </BinaryTree>
    <BinaryTree type="DecisionTree" boostWeight="1.0000000000000000e+00" itree="508">
      <Node pos="s" depth="0" NCoef="0" IVar="0" Cut="6.0563321113586426e+00" cType="1" res="1.9432154949754477e-03" rms="4.5183134078979492e-01" purity="4.9574100971221924e-01" nType="0">
        <Node pos="l" depth="1" NCoef="0" IVar="1" Cut="7.5632619857788086e-01" cType="1" res="-4.0377143770456314e-02" rms="4.3428716063499451e-01" purity="2.9514580965042114e-01" nType="0">
          <Node pos="l" depth="2" NCoef="0" IVar="-1" Cut="0.0000000000000000e+00" cType="1" res="3.1593366293236613e-04" rms="4.8538067936897278e-01" purity="4.2509439587593079e-01" nType="-99"/>
          <Node pos="r" depth="2" NCoef="0" IVar="-1" Cut="0.0000000000000000e+00" cType="1" res="-1.2916189152747393e-03" rms="3.9850813150405884e-01" purity="2.2291170060634613e-01" nType="-99"/>
        </Node>
        <Node pos="r" depth="1" NCoef="0" IVar="7" Cut="-2.4733977392315865e-02" cType="1" res="2.2765686735510826e-02" rms="4.5878735184669495e-01" purity="5.9443783760070801e-01" nType="0">
          <Node pos="l" depth="2" NCoef="0" IVar="-1" Cut="0.0000000000000000e+00" cType="1" res="8.0871803220361471e-04" rms="4.4435670971870422e-01" purity="6.7674618959426880e-01" nType="-99"/>
          <Node pos="r" depth="2" NCoef="0" IVar="-1" Cut="0.0000000000000000e+00" cType="1" res="1.0003772104028030e-06" rms="4.6442925930023193e-01" purity="5.5198770761489868e-01" nType="-99"/>
        </Node>
      </Node>
    </BinaryTree>
    <BinaryTree type="DecisionTree" boostWeight="1.0000000000000000e+00" itree="509">
      <Node pos="s" depth="0" NCoef="0" IVar="3" Cut="8.9471191406250000e+01" cType="1" res="1.6411677002906799e-02" rms="4.5157852768898010e-01" purity="5.1546609401702881e-01" nType="0">
        <Node pos="l" depth="1" NCoef="0" IVar="0" Cut="5.0713934898376465e+00" cType="1" res="-1.1289205402135849e-02" rms="4.5465606451034546e-01" purity="4.6480739116668701e-01" nType="0">
          <Node pos="l" depth="2" NCoef="0" IVar="-1" Cut="0.0000000000000000e+00" cType="1" res="-2.2987946867942810e-03" rms="3.3743774890899658e-01" purity="1.3658706843852997e-01" nType="-99"/>
          <Node pos="r" depth="2" NCoef="0" IVar="-1" Cut="0.0000000000000000e+00" cType="1" res="3.1202172976918519e-05" rms="4.6559137105941772e-01" purity="5.0630211830139160e-01" nType="-99"/>
        </Node>
        <Node pos="r" depth="1" NCoef="0" IVar="0" Cut="8.2636709213256836e+00" cType="1" res="6.8983659148216248e-02" rms="4.4091951847076416e-01" purity="6.1160844564437866e-01" nType="0">
          <Node pos="l" depth="2" NCoef="0" IVar="-1" Cut="0.0000000000000000e+00" cType="1" res="4.6304435818456113e-04" rms="4.6425530314445496e-01" purity="5.3000682592391968e-01" nType="-99"/>
          <Node pos="r" depth="2" NCoef="0" IVar="-1" Cut="0.0000000000000000e+00" cType="1" res="2.1300632506608963e-03" rms="3.3597040176391602e-01" purity="8.6951780319213867e-01" nType="-99"/>
        </Node>
      </Node>
    </BinaryTree>
    <BinaryTree type="DecisionTree" boostWeight="1.0000000000000000e+00" itree="510">
      <Node pos="s" depth="0" NCoef="0" IVar="2" Cut="1.9659182739257812e+02" cType="1" res="1.0441349819302559e-02" rms="4.5268943905830383e-01" purity="4.9957826733589172e-01" nType="0">
        <Node pos="l" depth="1" NCoef="0" IVar="0" Cut="8.0143289566040039e+00" cType="1" res="-4.1738297790288925e-02" rms="4.6078920364379883e-01" purity="4.2550703883171082e-01" nType="0">
          <Node pos="l" depth="2" NCoef="0" IVar="-1" Cut="0.0000000000000000e+00" cType="1" res="-9.1407657600939274e-04" rms="4.6480455994606018e-01" purity="3.6039242148399353e-01" nType="-99"/>
          <Node pos="r" depth="2" NCoef="0" IVar="-1" Cut="0.0000000000000000e+00" cType="1" res="1.1513071367517114e-03" rms="4.1130965948104858e-01" purity="7.6926237344741821e-01" nType="-99"/>
        </Node>
        <Node pos="r" depth="1" NCoef="0" IVar="6" Cut="7.9944586181640625e+02" cType="1" res="4.7522213310003281e-02" rms="4.4312515854835510e-01" purity="5.5221611261367798e-01" nType="0">
          <Node pos="l" depth="2" NCoef="0" IVar="-1" Cut="0.0000000000000000e+00" cType="1" res="4.0936394361779094e-04" rms="4.4146713614463806e-01" purity="5.3117573261260986e-01" nType="-99"/>
          <Node pos="r" depth="2" NCoef="0" IVar="-1" Cut="0.0000000000000000e+00" cType="1" res="2.1301461383700371e-03" rms="4.3206885457038879e-01" purity="7.2671777009963989e-01" nType="-99"/>
        </Node>
      </Node>
    </BinaryTree>
    <BinaryTree type="DecisionTree" boostWeight="1.0000000000000000e+00" itree="511">
      <Node pos="s" depth="0" NCoef="0" IVar="6" Cut="6.2466125488281250e+02" cType="1" res="1.4948571100831032e-02" rms="4.5031052827835083e-01" purity="5.0650894641876221e-01" nType="0">
        <Node pos="l" depth="1" NCoef="0" IVar="6" Cut="3.1419726562500000e+02" cType="1" res="-2.6817109901458025e-03" rms="4.4716182351112366e-01" purity="4.7479248046875000e-01" nType="0">
          <Node pos="l" depth="2" NCoef="0" IVar="-1" Cut="0.0000000000000000e+00" cType="1" res="-2.1173334680497646e-03" rms="4.0069580078125000e-01" purity="2.2760501503944397e-01" nType="-99"/>
          <Node pos="r" depth="2" NCoef="0" IVar="-1" Cut="0.0000000000000000e+00" cType="1" res="1.1368478590156883e-04" rms="4.4929593801498413e-01" purity="4.9654507637023926e-01" nType="-99"/>
        </Node>
        <Node pos="r" depth="1" NCoef="0" IVar="3" Cut="9.1852684020996094e+01" cType="1" res="9.3463733792304993e-02" rms="4.5586788654327393e-01" purity="6.4775598049163818e-01" nType="0">
          <Node pos="l" depth="2" NCoef="0" IVar="-1" Cut="0.0000000000000000e+00" cType="1" res="-7.3265502578578889e-05" rms="4.7102844715118408e-01" purity="5.3680515289306641e-01" nType="-99"/>
          <Node pos="r" depth="2" NCoef="0" IVar="-1" Cut="0.0000000000000000e+00" cType="1" res="1.6335822874680161e-03" rms="4.4154179096221924e-01" purity="6.9803994894027710e-01" nType="-99"/>
        </Node>
      </Node>
    </BinaryTree>
    <BinaryTree type="DecisionTree" boostWeight="1.0000000000000000e+00" itree="512">
      <Node pos="s" depth="0" NCoef="0" IVar="0" Cut="5.7879457473754883e+00" cType="1" res="1.7078427597880363e-02" rms="4.4744163751602173e-01" purity="5.0916010141372681e-01" nType="0">
        <Node pos="l" depth="1" NCoef="0" IVar="7" Cut="1.8821287900209427e-02" cType="1" res="-5.6257162243127823e-02" rms="4.1575136780738831e-01" purity="2.5569152832031250e-01" nType="0">
          <Node pos="l" depth="2" NCoef="0" IVar="-1" Cut="0.0000000000000000e+00" cType="1" res="-2.0157379913143814e-04" rms="4.4979295134544373e-01" purity="3.1138846278190613e-01" nType="-99"/>
          <Node pos="r" depth="2" NCoef="0" IVar="-1" Cut="0.0000000000000000e+00" cType="1" res="-1.6743205487728119e-03" rms="3.7504839897155762e-01" purity="2.0147091150283813e-01" nType="-99"/>
        </Node>
        <Node pos="r" depth="1" NCoef="0" IVar="2" Cut="1.9618669128417969e+02" cType="1" res="4.2618356645107269e-02" rms="4.5519816875457764e-01" purity="5.9743332862854004e-01" nType="0">
          <Node pos="l" depth="2" NCoef="0" IVar="-1" Cut="0.0000000000000000e+00" cType="1" res="-5.2006751502631232e-05" rms="4.6941608190536499e-01" purity="5.4685932397842407e-01" nType="-99"/>
          <Node pos="r" depth="2" NCoef="0" IVar="-1" Cut="0.0000000000000000e+00" cType="1" res="9.2570303240790963e-04" rms="4.4287544488906860e-01" purity="6.3075065612792969e-01" nType="-99"/>
        </Node>
      </Node>
    </BinaryTree>
    <BinaryTree type="DecisionTree" boostWeight="1.0000000000000000e+00" itree="513">
      <Node pos="s" depth="0" NCoef="0" IVar="1" Cut="1.0582216978073120e+00" cType="1" res="1.9395926967263222e-02" rms="4.5087537169456482e-01" purity="5.0893074274063110e-01" nType="0">
        <Node pos="l" depth="1" NCoef="0" IVar="2" Cut="2.1574763488769531e+02" cType="1" res="4.9435626715421677e-02" rms="4.5550882816314697e-01" purity="6.0677331686019897e-01" nType="0">
          <Node pos="l" depth="2" NCoef="0" IVar="-1" Cut="0.0000000000000000e+00" cType="1" res="2.9677720158360898e-04" rms="4.6427339315414429e-01" purity="5.3858846426010132e-01" nType="-99"/>
          <Node pos="r" depth="2" NCoef="0" IVar="-1" Cut="0.0000000000000000e+00" cType="1" res="1.1283389758318663e-03" rms="4.3573829531669617e-01" purity="7.2910887002944946e-01" nType="-99"/>
        </Node>
        <Node pos="r" depth="1" NCoef="0" IVar="2" Cut="3.4405169677734375e+02" cType="1" res="-3.4547600895166397e-02" rms="4.3728327751159668e-01" purity="3.3323085308074951e-01" nType="0">
          <Node pos="l" depth="2" NCoef="0" IVar="-1" Cut="0.0000000000000000e+00" cType="1" res="-9.2573740403167903e-05" rms="4.5265129208564758e-01" purity="3.7335047125816345e-01" nType="-99"/>
          <Node pos="r" depth="2" NCoef="0" IVar="-1" Cut="0.0000000000000000e+00" cType="1" res="-2.0874298643320799e-03" rms="3.7884339690208435e-01" purity="2.1922947466373444e-01" nType="-99"/>
        </Node>
      </Node>
    </BinaryTree>
    <BinaryTree type="DecisionTree" boostWeight="1.0000000000000000e+00" itree="514">
      <Node pos="s" depth="0" NCoef="0" IVar="1" Cut="7.0265620946884155e-01" cType="1" res="1.3004622422158718e-02" rms="4.5407313108444214e-01" purity="5.0653105974197388e-01" nType="0">
        <Node pos="l" depth="1" NCoef="0" IVar="2" Cut="1.7084970092773438e+02" cType="1" res="8.2530051469802856e-02" rms="4.5301318168640137e-01" purity="6.5247219800949097e-01" nType="0">
          <Node pos="l" depth="2" NCoef="0" IVar="-1" Cut="0.0000000000000000e+00" cType="1" res="3.0632803100161254e-04" rms="4.8932409286499023e-01" purity="5.1438218355178833e-01" nType="-99"/>
          <Node pos="r" depth="2" NCoef="0" IVar="-1" Cut="0.0000000000000000e+00" cType="1" res="1.3988479040563107e-03" rms="4.2254078388214111e-01" purity="7.4521505832672119e-01" nType="-99"/>
        </Node>
        <Node pos="r" depth="1" NCoef="0" IVar="3" Cut="9.3668045043945312e+01" cType="1" res="-1.8627492710947990e-02" rms="4.5102107524871826e-01" purity="4.4013187289237976e-01" nType="0">
          <Node pos="l" depth="2" NCoef="0" IVar="-1" Cut="0.0000000000000000e+00" cType="1" res="-7.5395347084850073e-04" rms="4.4886204600334167e-01" purity="3.8436233997344971e-01" nType="-99"/>
          <Node pos="r" depth="2" NCoef="0" IVar="-1" Cut="0.0000000000000000e+00" cType="1" res="5.1330117275938392e-04" rms="4.4895032048225403e-01" purity="5.3450888395309448e-01" nType="-99"/>
        </Node>
      </Node>
    </BinaryTree>
    <BinaryTree type="DecisionTree" boostWeight="1.0000000000000000e+00" itree="515">
      <Node pos="s" depth="0" NCoef="0" IVar="0" Cut="7.2885541915893555e+00" cType="1" res="7.8899515792727470e-03" rms="4.4763267040252686e-01" purity="4.9864330887794495e-01" nType="0">
        <Node pos="l" depth="1" NCoef="0" IVar="6" Cut="6.8469091796875000e+02" cType="1" res="-2.4060867726802826e-02" rms="4.5213779807090759e-01" purity="3.8286691904067993e-01" nType="0">
          <Node pos="l" depth="2" NCoef="0" IVar="-1" Cut="0.0000000000000000e+00" cType="1" res="-5.5657094344496727e-04" rms="4.4811728596687317e-01" purity="3.5464313626289368e-01" nType="-99"/>
          <Node pos="r" depth="2" NCoef="0" IVar="-1" Cut="0.0000000000000000e+00" cType="1" res="9.9171616602689028e-04" rms="4.6541768312454224e-01" purity="5.7967680692672729e-01" nType="-99"/>
        </Node>
        <Node pos="r" depth="1" NCoef="0" IVar="6" Cut="5.3697503662109375e+02" cType="1" res="6.7925140261650085e-02" rms="4.3270772695541382e-01" purity="7.1618568897247314e-01" nType="0">
          <Node pos="l" depth="2" NCoef="0" IVar="-1" Cut="0.0000000000000000e+00" cType="1" res="3.9516913238912821e-04" rms="4.5519682765007019e-01" purity="6.6599524021148682e-01" nType="-99"/>
          <Node pos="r" depth="2" NCoef="0" IVar="-1" Cut="0.0000000000000000e+00" cType="1" res="1.6159538645297289e-03" rms="3.8037967681884766e-01" purity="8.0703526735305786e-01" nType="-99"/>
        </Node>
      </Node>
    </BinaryTree>
    <BinaryTree type="DecisionTree" boostWeight="1.0000000000000000e+00" itree="516">
      <Node pos="s" depth="0" NCoef="0" IVar="3" Cut="1.0543370056152344e+02" cType="1" res="1.1416928842663765e-02" rms="4.5116999745368958e-01" purity="5.1556795835494995e-01" nType="0">
        <Node pos="l" depth="1" NCoef="0" IVar="4" Cut="1.9468393921852112e-01" cType="1" res="-1.0727754794061184e-02" rms="4.5222622156143188e-01" purity="4.7580379247665405e-01" nType="0">
          <Node pos="l" depth="2" NCoef="0" IVar="-1" Cut="0.0000000000000000e+00" cType="1" res="-4.0219802758656442e-04" rms="4.5086076855659485e-01" purity="4.4938692450523376e-01" nType="-99"/>
          <Node pos="r" depth="2" NCoef="0" IVar="-1" Cut="0.0000000000000000e+00" cType="1" res="1.3925335370004177e-03" rms="4.3874359130859375e-01" purity="6.7017465829849243e-01" nType="-99"/>
        </Node>
        <Node pos="r" depth="1" NCoef="0" IVar="5" Cut="6.3568264245986938e-01" cType="1" res="7.3525421321392059e-02" rms="4.4231811165809631e-01" purity="6.2709325551986694e-01" nType="0">
          <Node pos="l" depth="2" NCoef="0" IVar="-1" Cut="0.0000000000000000e+00" cType="1" res="1.5022601000964642e-03" rms="4.0692567825317383e-01" purity="7.4110448360443115e-01" nType="-99"/>
          <Node pos="r" depth="2" NCoef="0" IVar="-1" Cut="0.0000000000000000e+00" cType="1" res="4.4973735930398107e-04" rms="4.6398836374282837e-01" purity="5.3940194845199585e-01" nType="-99"/>
        </Node>
      </Node>
    </BinaryTree>
    <BinaryTree type="DecisionTree" boostWeight="1.0000000000000000e+00" itree="517">
      <Node pos="s" depth="0" NCoef="0" IVar="1" Cut="1.1227794885635376e+00" cType="1" res="1.2802164070308208e-02" rms="4.4995728135108948e-01" purity="5.1185059547424316e-01" nType="0">
        <Node pos="l" depth="1" NCoef="0" IVar="2" Cut="1.2674655151367188e+02" cType="1" res="3.8779694586992264e-02" rms="4.5520061254501343e-01" purity="6.0236126184463501e-01" nType="0">
          <Node pos="l" depth="2" NCoef="0" IVar="-1" Cut="0.0000000000000000e+00" cType="1" res="-1.3632824411615729e-03" rms="4.5055371522903442e-01" purity="3.8400360941886902e-01" nType="-99"/>
          <Node pos="r" depth="2" NCoef="0" IVar="-1" Cut="0.0000000000000000e+00" cType="1" res="6.5112696029245853e-04" rms="4.5305150747299194e-01" purity="6.2647974491119385e-01" nType="-99"/>
        </Node>
        <Node pos="r" depth="1" NCoef="0" IVar="6" Cut="5.4016766357421875e+02" cType="1" res="-4.9198426306247711e-02" rms="4.3090540170669556e-01" purity="2.9582855105400085e-01" nType="0">
          <Node pos="l" depth="2" NCoef="0" IVar="-1" Cut="0.0000000000000000e+00" cType="1" res="-1.3831491814926267e-03" rms="4.1451635956764221e-01" purity="2.4941539764404297e-01" nType="-99"/>
          <Node pos="r" depth="2" NCoef="0" IVar="-1" Cut="0.0000000000000000e+00" cType="1" res="5.8533804258331656e-04" rms="4.6635225415229797e-01" purity="4.3799290060997009e-01" nType="-99"/>
        </Node>
      </Node>
    </BinaryTree>
    <BinaryTree type="DecisionTree" boostWeight="1.0000000000000000e+00" itree="518">
      <Node pos="s" depth="0" NCoef="0" IVar="0" Cut="5.0493650436401367e+00" cType="1" res="2.9180055484175682e-02" rms="4.4937360286712646e-01" purity="5.2401512861251831e-01" nType="0">
        <Node pos="l" depth="1" NCoef="0" IVar="-1" Cut="0.0000000000000000e+00" cType="1" res="-1.4299653703346848e-03" rms="3.7413325905799866e-01" purity="1.8326397240161896e-01" nType="-99"/>
        <Node pos="r" depth="1" NCoef="0" IVar="0" Cut="8.5530080795288086e+00" cType="1" res="4.0331382304430008e-02" rms="4.5522344112396240e-01" purity="5.6023442745208740e-01" nType="0">
          <Node pos="l" depth="2" NCoef="0" IVar="-1" Cut="0.0000000000000000e+00" cType="1" res="3.7173711461946368e-04" rms="4.6387511491775513e-01" purity="5.2347630262374878e-01" nType="-99"/>
          <Node pos="r" depth="2" NCoef="0" IVar="-1" Cut="0.0000000000000000e+00" cType="1" res="1.3641995610669255e-03" rms="3.8914000988006592e-01" purity="7.9232549667358398e-01" nType="-99"/>
        </Node>
      </Node>
    </BinaryTree>
    <BinaryTree type="DecisionTree" boostWeight="1.0000000000000000e+00" itree="519">
      <Node pos="s" depth="0" NCoef="0" IVar="1" Cut="7.6422226428985596e-01" cType="1" res="-8.4288548678159714e-03" rms="4.4933265447616577e-01" purity="4.7812420129776001e-01" nType="0">
        <Node pos="l" depth="1" NCoef="0" IVar="2" Cut="1.9647842407226562e+02" cType="1" res="3.7829209119081497e-02" rms="4.5294302701950073e-01" purity="6.0234397649765015e-01" nType="0">
          <Node pos="l" depth="2" NCoef="0" IVar="-1" Cut="0.0000000000000000e+00" cType="1" res="-2.3336894810199738e-04" rms="4.7072449326515198e-01" purity="4.8098811507225037e-01" nType="-99"/>
          <Node pos="r" depth="2" NCoef="0" IVar="-1" Cut="0.0000000000000000e+00" cType="1" res="1.2843899894505739e-03" rms="4.1862839460372925e-01" purity="7.5544923543930054e-01" nType="-99"/>
        </Node>
        <Node pos="r" depth="1" NCoef="0" IVar="1" Cut="1.6291034221649170e+00" cType="1" res="-3.6467108875513077e-02" rms="4.4479456543922424e-01" purity="4.0283122658729553e-01" nType="0">
          <Node pos="l" depth="2" NCoef="0" IVar="-1" Cut="0.0000000000000000e+00" cType="1" res="-3.3763985265977681e-04" rms="4.5995175838470459e-01" purity="4.4500824809074402e-01" nType="-99"/>
          <Node pos="r" depth="2" NCoef="0" IVar="-1" Cut="0.0000000000000000e+00" cType="1" res="-3.1750022899359465e-03" rms="3.0100706219673157e-01" purity="9.8942302167415619e-02" nType="-99"/>
        </Node>
      </Node>
    </BinaryTree>
    <BinaryTree type="DecisionTree" boostWeight="1.0000000000000000e+00" itree="520">
      <Node pos="s" depth="0" NCoef="0" IVar="0" Cut="5.0493650436401367e+00" cType="1" res="2.2560045123100281e-02" rms="4.5248976349830627e-01" purity="5.2007746696472168e-01" nType="0">
        <Node pos="l" depth="1" NCoef="0" IVar="-1" Cut="0.0000000000000000e+00" cType="1" res="-1.7903929110616446e-03" rms="3.5857668519020081e-01" purity="1.6461266577243805e-01" nType="-99"/>
        <Node pos="r" depth="1" NCoef="0" IVar="6" Cut="3.3824154663085938e+02" cType="1" res="3.4384135156869888e-02" rms="4.5948278903961182e-01" purity="5.5680644512176514e-01" nType="0">
          <Node pos="l" depth="2" NCoef="0" IVar="-1" Cut="0.0000000000000000e+00" cType="1" res="-1.2974456185474992e-03" rms="4.2942914366722107e-01" purity="3.0534970760345459e-01" nType="-99"/>
          <Node pos="r" depth="2" NCoef="0" IVar="-1" Cut="0.0000000000000000e+00" cType="1" res="6.1365321744233370e-04" rms="4.6076011657714844e-01" purity="5.8686685562133789e-01" nType="-99"/>
        </Node>
      </Node>
    </BinaryTree>
    <BinaryTree type="DecisionTree" boostWeight="1.0000000000000000e+00" itree="521">
      <Node pos="s" depth="0" NCoef="0" IVar="0" Cut="4.9427175521850586e+00" cType="1" res="1.8151549622416496e-02" rms="4.5112302899360657e-01" purity="5.1569139957427979e-01" nType="0">
        <Node pos="l" depth="1" NCoef="0" IVar="-1" Cut="0.0000000000000000e+00" cType="1" res="-2.0660082809627056e-03" rms="3.3519372344017029e-01" purity="1.4710851013660431e-01" nType="-99"/>
        <Node pos="r" depth="1" NCoef="0" IVar="2" Cut="1.2288110351562500e+02" cType="1" res="2.7287671342492104e-02" rms="4.5718392729759216e-01" purity="5.4286587238311768e-01" nType="0">
          <Node pos="l" depth="2" NCoef="0" IVar="-1" Cut="0.0000000000000000e+00" cType="1" res="-1.5242099761962891e-03" rms="4.6492105722427368e-01" purity="3.6519443988800049e-01" nType="-99"/>
          <Node pos="r" depth="2" NCoef="0" IVar="-1" Cut="0.0000000000000000e+00" cType="1" res="4.6033578109927475e-04" rms="4.5528429746627808e-01" purity="5.5381768941879272e-01" nType="-99"/>
        </Node>
      </Node>
    </BinaryTree>
    <BinaryTree type="DecisionTree" boostWeight="1.0000000000000000e+00" itree="522">
      <Node pos="s" depth="0" NCoef="0" IVar="5" Cut="4.1012486815452576e-01" cType="1" res="-1.2131814844906330e-02" rms="4.4750824570655823e-01" purity="4.7548428177833557e-01" nType="0">
        <Node pos="l" depth="1" NCoef="0" IVar="6" Cut="4.1051068115234375e+02" cType="1" res="5.1201865077018738e-02" rms="4.5173081755638123e-01" purity="5.9080862998962402e-01" nType="0">
          <Node pos="l" depth="2" NCoef="0" IVar="-1" Cut="0.0000000000000000e+00" cType="1" res="-2.1046616893727332e-04" rms="4.6445125341415405e-01" purity="4.5037916302680969e-01" nType="-99"/>
          <Node pos="r" depth="2" NCoef="0" IVar="-1" Cut="0.0000000000000000e+00" cType="1" res="1.0814745910465717e-03" rms="4.3973445892333984e-01" purity="6.7059522867202759e-01" nType="-99"/>
        </Node>
        <Node pos="r" depth="1" NCoef="0" IVar="7" Cut="7.8213557600975037e-02" cType="1" res="-2.8066726401448250e-02" rms="4.4502264261245728e-01" purity="4.4646835327148438e-01" nType="0">
          <Node pos="l" depth="2" NCoef="0" IVar="-1" Cut="0.0000000000000000e+00" cType="1" res="-8.1348000094294548e-05" rms="4.5312687754631042e-01" purity="4.8866853117942810e-01" nType="-99"/>
          <Node pos="r" depth="2" NCoef="0" IVar="-1" Cut="0.0000000000000000e+00" cType="1" res="-1.5218643238767982e-03" rms="4.1096264123916626e-01" purity="3.1400501728057861e-01" nType="-99"/>
        </Node>
      </Node>
    </BinaryTree>
    <BinaryTree type="DecisionTree" boostWeight="1.0000000000000000e+00" itree="523">
      <Node pos="s" depth="0" NCoef="0" IVar="0" Cut="6.5422582626342773e+00" cType="1" res="8.8000260293483734e-03" rms="4.5203763246536255e-01" purity="5.1124888658523560e-01" nType="0">
        <Node pos="l" depth="1" NCoef="0" IVar="6" Cut="3.6697723388671875e+02" cType="1" res="-3.2996587455272675e-02" rms="4.5038565993309021e-01" purity="3.3481183648109436e-01" nType="0">
          <Node pos="l" depth="2" NCoef="0" IVar="-1" Cut="0.0000000000000000e+00" cType="1" res="-1.5661916695535183e-03" rms="4.0278479456901550e-01" purity="2.1105431020259857e-01" nType="-99"/>
          <Node pos="r" depth="2" NCoef="0" IVar="-1" Cut="0.0000000000000000e+00" cType="1" res="-1.2652794248424470e-04" rms="4.6469724178314209e-01" purity="3.8100251555442810e-01" nType="-99"/>
        </Node>
        <Node pos="r" depth="1" NCoef="0" IVar="4" Cut="1.6095422208309174e-01" cType="1" res="4.2401548475027084e-02" rms="4.5055857300758362e-01" purity="6.5309184789657593e-01" nType="0">
          <Node pos="l" depth="2" NCoef="0" IVar="-1" Cut="0.0000000000000000e+00" cType="1" res="3.5220387508161366e-04" rms="4.5655766129493713e-01" purity="6.2633728981018066e-01" nType="-99"/>
          <Node pos="r" depth="2" NCoef="0" IVar="-1" Cut="0.0000000000000000e+00" cType="1" res="1.1743693612515926e-03" rms="4.1830742359161377e-01" purity="7.6861268281936646e-01" nType="-99"/>
        </Node>
      </Node>
    </BinaryTree>
    <BinaryTree type="DecisionTree" boostWeight="1.0000000000000000e+00" itree="524">
      <Node pos="s" depth="0" NCoef="0" IVar="2" Cut="3.2719439697265625e+02" cType="1" res="1.5205741859972477e-02" rms="4.5554909110069275e-01" purity="5.0776022672653198e-01" nType="0">
        <Node pos="l" depth="1" NCoef="0" IVar="2" Cut="2.1492814636230469e+02" cType="1" res="2.7713194489479065e-02" rms="4.6270412206649780e-01" purity="5.2958768606185913e-01" nType="0">
          <Node pos="l" depth="2" NCoef="0" IVar="-1" Cut="0.0000000000000000e+00" cType="1" res="1.7108130123233423e-05" rms="4.6659976243972778e-01" purity="4.8318815231323242e-01" nType="-99"/>
          <Node pos="r" depth="2" NCoef="0" IVar="-1" Cut="0.0000000000000000e+00" cType="1" res="8.9704687707126141e-04" rms="4.5336306095123291e-01" purity="6.0291057825088501e-01" nType="-99"/>
        </Node>
        <Node pos="r" depth="1" NCoef="0" IVar="1" Cut="1.1413179636001587e+00" cType="1" res="-5.4291598498821259e-02" rms="4.0659445524215698e-01" purity="3.8647663593292236e-01" nType="0">
          <Node pos="l" depth="2" NCoef="0" IVar="-1" Cut="0.0000000000000000e+00" cType="1" res="7.5731234392151237e-04" rms="4.4050627946853638e-01" purity="6.6296106576919556e-01" nType="-99"/>
          <Node pos="r" depth="2" NCoef="0" IVar="-1" Cut="0.0000000000000000e+00" cType="1" res="-2.5727455504238605e-03" rms="3.6101961135864258e-01" purity="1.9459040462970734e-01" nType="-99"/>
        </Node>
      </Node>
    </BinaryTree>
    <BinaryTree type="DecisionTree" boostWeight="1.0000000000000000e+00" itree="525">
      <Node pos="s" depth="0" NCoef="0" IVar="0" Cut="7.9715576171875000e+00" cType="1" res="1.8484061583876610e-02" rms="4.4856032729148865e-01" purity="5.1378315687179565e-01" nType="0">
        <Node pos="l" depth="1" NCoef="0" IVar="1" Cut="9.0210902690887451e-01" cType="1" res="-2.6792350690811872e-03" rms="4.5691323280334473e-01" purity="4.4436129927635193e-01" nType="0">
          <Node pos="l" depth="2" NCoef="0" IVar="-1" Cut="0.0000000000000000e+00" cType="1" res="3.2920017838478088e-04" rms="4.6588817238807678e-01" purity="5.5096375942230225e-01" nType="-99"/>
          <Node pos="r" depth="2" NCoef="0" IVar="-1" Cut="0.0000000000000000e+00" cType="1" res="-4.3346956954337656e-04" rms="4.4737169146537781e-01" purity="3.5235777497291565e-01" nType="-99"/>
        </Node>
        <Node pos="r" depth="1" NCoef="0" IVar="5" Cut="7.9839986562728882e-01" cType="1" res="9.6621595323085785e-02" rms="4.0684461593627930e-01" purity="7.7009737491607666e-01" nType="0">
          <Node pos="l" depth="2" NCoef="0" IVar="-1" Cut="0.0000000000000000e+00" cType="1" res="1.4620444271713495e-03" rms="3.8019180297851562e-01" purity="8.1723976135253906e-01" nType="-99"/>
          <Node pos="r" depth="2" NCoef="0" IVar="-1" Cut="0.0000000000000000e+00" cType="1" res="5.3883256623521447e-04" rms="4.5927470922470093e-01" purity="6.5868753194808960e-01" nType="-99"/>
        </Node>
      </Node>
    </BinaryTree>
    <BinaryTree type="DecisionTree" boostWeight="1.0000000000000000e+00" itree="526">
      <Node pos="s" depth="0" NCoef="0" IVar="6" Cut="3.3568411254882812e+02" cType="1" res="9.5058511942625046e-03" rms="4.4890919327735901e-01" purity="5.0508308410644531e-01" nType="0">
        <Node pos="l" depth="1" NCoef="0" IVar="5" Cut="7.2088217735290527e-01" cType="1" res="-8.8440723717212677e-02" rms="3.9900553226470947e-01" purity="2.7528589963912964e-01" nType="0">
          <Node pos="l" depth="2" NCoef="0" IVar="-1" Cut="0.0000000000000000e+00" cType="1" res="-3.9348832797259092e-04" rms="4.3904611468315125e-01" purity="3.7965163588523865e-01" nType="-99"/>
          <Node pos="r" depth="2" NCoef="0" IVar="-1" Cut="0.0000000000000000e+00" cType="1" res="-2.7012682985514402e-03" rms="3.4187290072441101e-01" purity="1.6688372194766998e-01" nType="-99"/>
        </Node>
        <Node pos="r" depth="1" NCoef="0" IVar="7" Cut="-6.5065942704677582e-02" cType="1" res="2.3146448656916618e-02" rms="4.5375132560729980e-01" purity="5.3708595037460327e-01" nType="0">
          <Node pos="l" depth="2" NCoef="0" IVar="-1" Cut="0.0000000000000000e+00" cType="1" res="1.1736711021512747e-03" rms="4.2725959420204163e-01" purity="6.6975182294845581e-01" nType="-99"/>
          <Node pos="r" depth="2" NCoef="0" IVar="-1" Cut="0.0000000000000000e+00" cType="1" res="1.3089130516164005e-04" rms="4.5690858364105225e-01" purity="5.1406949758529663e-01" nType="-99"/>
        </Node>
      </Node>
    </BinaryTree>
    <BinaryTree type="DecisionTree" boostWeight="1.0000000000000000e+00" itree="527">
      <Node pos="s" depth="0" NCoef="0" IVar="0" Cut="5.0841131210327148e+00" cType="1" res="1.9622291438281536e-03" rms="4.4875684380531311e-01" purity="4.9497655034065247e-01" nType="0">
        <Node pos="l" depth="1" NCoef="0" IVar="5" Cut="7.0165860652923584e-01" cType="1" res="-8.9891880750656128e-02" rms="3.5700979828834534e-01" purity="1.6097219288349152e-01" nType="0">
          <Node pos="l" depth="2" NCoef="0" IVar="-1" Cut="0.0000000000000000e+00" cType="1" res="-2.8214855119585991e-03" rms="2.9580289125442505e-01" purity="1.1787592619657516e-01" nType="-99"/>
          <Node pos="r" depth="2" NCoef="0" IVar="-1" Cut="0.0000000000000000e+00" cType="1" res="-5.7365745306015015e-04" rms="3.9680165052413940e-01" purity="2.0168185234069824e-01" nType="-99"/>
        </Node>
        <Node pos="r" depth="1" NCoef="0" IVar="4" Cut="-4.0771536529064178e-02" cType="1" res="1.2660380452871323e-02" rms="4.5705112814903259e-01" purity="5.3387767076492310e-01" nType="0">
          <Node pos="l" depth="2" NCoef="0" IVar="-1" Cut="0.0000000000000000e+00" cType="1" res="-3.5736052086576819e-04" rms="4.5923113822937012e-01" purity="4.4835251569747925e-01" nType="-99"/>
          <Node pos="r" depth="2" NCoef="0" IVar="-1" Cut="0.0000000000000000e+00" cType="1" res="4.3077516602352262e-04" rms="4.5430460572242737e-01" purity="5.8371216058731079e-01" nType="-99"/>
        </Node>
      </Node>
    </BinaryTree>
    <BinaryTree type="DecisionTree" boostWeight="1.0000000000000000e+00" itree="528">
      <Node pos="s" depth="0" NCoef="0" IVar="1" Cut="1.4354777336120605e+00" cType="1" res="2.6542490348219872e-02" rms="4.4607084989547729e-01" purity="5.2251660823822021e-01" nType="0">
        <Node pos="l" depth="1" NCoef="0" IVar="6" Cut="3.4520169067382812e+02" cType="1" res="3.9536654949188232e-02" rms="4.5337876677513123e-01" purity="5.6905138492584229e-01" nType="0">
          <Node pos="l" depth="2" NCoef="0" IVar="-1" Cut="0.0000000000000000e+00" cType="1" res="-5.7218217989429832e-04" rms="4.3588545918464661e-01" purity="3.6504086852073669e-01" nType="-99"/>
          <Node pos="r" depth="2" NCoef="0" IVar="-1" Cut="0.0000000000000000e+00" cType="1" res="6.4933212706819177e-04" rms="4.5487093925476074e-01" purity="6.0416996479034424e-01" nType="-99"/>
        </Node>
        <Node pos="r" depth="1" NCoef="0" IVar="4" Cut="-6.7127525806427002e-02" cType="1" res="-6.2604516744613647e-02" rms="3.8049775362014771e-01" purity="2.0326282083988190e-01" nType="0">
          <Node pos="l" depth="2" NCoef="0" IVar="-1" Cut="0.0000000000000000e+00" cType="1" res="-2.8103177901357412e-03" rms="3.3500200510025024e-01" purity="1.4116607606410980e-01" nType="-99"/>
          <Node pos="r" depth="2" NCoef="0" IVar="-1" Cut="0.0000000000000000e+00" cType="1" res="5.4960023589956108e-06" rms="4.1361913084983826e-01" purity="2.6820030808448792e-01" nType="-99"/>
        </Node>
      </Node>
    </BinaryTree>
    <BinaryTree type="DecisionTree" boostWeight="1.0000000000000000e+00" itree="529">
      <Node pos="s" depth="0" NCoef="0" IVar="1" Cut="1.1329823732376099e+00" cType="1" res="1.0205676779150963e-02" rms="4.4673380255699158e-01" purity="5.0531232357025146e-01" nType="0">
        <Node pos="l" depth="1" NCoef="0" IVar="2" Cut="2.1797380065917969e+02" cType="1" res="3.2806672155857086e-02" rms="4.5233899354934692e-01" purity="5.8908832073211670e-01" nType="0">
          <Node pos="l" depth="2" NCoef="0" IVar="-1" Cut="0.0000000000000000e+00" cType="1" res="-1.9880391482729465e-04" rms="4.6594274044036865e-01" purity="4.9643573164939880e-01" nType="-99"/>
          <Node pos="r" depth="2" NCoef="0" IVar="-1" Cut="0.0000000000000000e+00" cType="1" res="1.3031854759901762e-03" rms="4.1920125484466553e-01" purity="7.3337298631668091e-01" nType="-99"/>
        </Node>
        <Node pos="r" depth="1" NCoef="0" IVar="7" Cut="9.1963589191436768e-02" cType="1" res="-4.4475693255662918e-02" rms="4.2796328663825989e-01" purity="3.0262270569801331e-01" nType="0">
          <Node pos="l" depth="2" NCoef="0" IVar="-1" Cut="0.0000000000000000e+00" cType="1" res="-1.0317492706235498e-04" rms="4.4679751992225647e-01" purity="3.5382124781608582e-01" nType="-99"/>
          <Node pos="r" depth="2" NCoef="0" IVar="-1" Cut="0.0000000000000000e+00" cType="1" res="-3.2504207920283079e-03" rms="3.3899280428886414e-01" purity="1.4573396742343903e-01" nType="-99"/>
        </Node>
      </Node>
    </BinaryTree>
    <BinaryTree type="DecisionTree" boostWeight="1.0000000000000000e+00" itree="530">
      <Node pos="s" depth="0" NCoef="0" IVar="0" Cut="8.1917409896850586e+00" cType="1" res="3.3090719953179359e-03" rms="4.5151591300964355e-01" purity="4.9770793318748474e-01" nType="0">
        <Node pos="l" depth="1" NCoef="0" IVar="6" Cut="6.8251275634765625e+02" cType="1" res="-1.1143952608108521e-02" rms="4.6124526858329773e-01" purity="4.4313672184944153e-01" nType="0">
          <Node pos="l" depth="2" NCoef="0" IVar="-1" Cut="0.0000000000000000e+00" cType="1" res="-3.2380674383603036e-04" rms="4.5875978469848633e-01" purity="4.1863355040550232e-01" nType="-99"/>
          <Node pos="r" depth="2" NCoef="0" IVar="-1" Cut="0.0000000000000000e+00" cType="1" res="9.0992718469351530e-04" rms="4.6912920475006104e-01" purity="6.1470496654510498e-01" nType="-99"/>
        </Node>
        <Node pos="r" depth="1" NCoef="0" IVar="1" Cut="1.0222175121307373e+00" cType="1" res="7.5214840471744537e-02" rms="3.9175856113433838e-01" purity="7.6920700073242188e-01" nType="0">
          <Node pos="l" depth="2" NCoef="0" IVar="-1" Cut="0.0000000000000000e+00" cType="1" res="1.4236901188269258e-03" rms="3.5260501503944397e-01" purity="8.5433125495910645e-01" nType="-99"/>
          <Node pos="r" depth="2" NCoef="0" IVar="-1" Cut="0.0000000000000000e+00" cType="1" res="-1.3019920152146369e-04" rms="4.5512956380844116e-01" purity="5.8139550685882568e-01" nType="-99"/>
        </Node>
      </Node>
    </BinaryTree>
    <BinaryTree type="DecisionTree" boostWeight="1.0000000000000000e+00" itree="531">
      <Node pos="s" depth="0" NCoef="0" IVar="0" Cut="9.0375308990478516e+00" cType="1" res="2.9684028122574091e-03" rms="4.5369222760200500e-01" purity="4.9651181697845459e-01" nType="0">
        <Node pos="l" depth="1" NCoef="0" IVar="4" Cut="-7.2416245937347412e-02" cType="1" res="-7.6927072368562222e-03" rms="4.5888978242874146e-01" purity="4.6992236375808716e-01" nType="0">
          <Node pos="l" depth="2" NCoef="0" IVar="-1" Cut="0.0000000000000000e+00" cType="1" res="-9.8182482179254293e-04" rms="4.3713381886482239e-01" purity="3.6146181821823120e-01" nType="-99"/>
          <Node pos="r" depth="2" NCoef="0" IVar="-1" Cut="0.0000000000000000e+00" cType="1" res="1.7440420924685895e-04" rms="4.6485355496406555e-01" purity="5.0974613428115845e-01" nType="-99"/>
        </Node>
        <Node pos="r" depth="1" NCoef="0" IVar="-1" Cut="0.0000000000000000e+00" cType="1" res="1.6930641140788794e-03" rms="3.5486358404159546e-01" purity="8.3383542299270630e-01" nType="-99"/>
      </Node>
    </BinaryTree>
    <BinaryTree type="DecisionTree" boostWeight="1.0000000000000000e+00" itree="532">
      <Node pos="s" depth="0" NCoef="0" IVar="0" Cut="4.8270730972290039e+00" cType="1" res="1.1636137031018734e-02" rms="4.4780749082565308e-01" purity="5.0753378868103027e-01" nType="0">
        <Node pos="l" depth="1" NCoef="0" IVar="-1" Cut="0.0000000000000000e+00" cType="1" res="-2.5048009119927883e-03" rms="3.1055641174316406e-01" purity="1.1608043313026428e-01" nType="-99"/>
        <Node pos="r" depth="1" NCoef="0" IVar="1" Cut="7.9770708084106445e-01" cType="1" res="2.0320134237408638e-02" rms="4.5412388443946838e-01" purity="5.3351587057113647e-01" nType="0">
          <Node pos="l" depth="2" NCoef="0" IVar="-1" Cut="0.0000000000000000e+00" cType="1" res="7.4257119558751583e-04" rms="4.4595092535018921e-01" purity="6.5346866846084595e-01" nType="-99"/>
          <Node pos="r" depth="2" NCoef="0" IVar="-1" Cut="0.0000000000000000e+00" cType="1" res="-1.0675656812964007e-04" rms="4.5720341801643372e-01" purity="4.5520246028900146e-01" nType="-99"/>
        </Node>
      </Node>
    </BinaryTree>
    <BinaryTree type="DecisionTree" boostWeight="1.0000000000000000e+00" itree="533">
      <Node pos="s" depth="0" NCoef="0" IVar="0" Cut="8.0198917388916016e+00" cType="1" res="1.0850149206817150e-02" rms="4.4710582494735718e-01" purity="4.9884781241416931e-01" nType="0">
        <Node pos="l" depth="1" NCoef="0" IVar="3" Cut="4.7388221740722656e+01" cType="1" res="-1.1607516556978226e-02" rms="4.5775380730628967e-01" purity="4.3076691031455994e-01" nType="0">
          <Node pos="l" depth="2" NCoef="0" IVar="-1" Cut="0.0000000000000000e+00" cType="1" res="-1.1920713586732745e-03" rms="4.2725503444671631e-01" purity="3.2529532909393311e-01" nType="-99"/>
          <Node pos="r" depth="2" NCoef="0" IVar="-1" Cut="0.0000000000000000e+00" cType="1" res="5.0696031394181773e-05" rms="4.6294534206390381e-01" purity="4.5449712872505188e-01" nType="-99"/>
        </Node>
        <Node pos="r" depth="1" NCoef="0" IVar="6" Cut="5.0373831176757812e+02" cType="1" res="1.0554690659046173e-01" rms="3.8494426012039185e-01" purity="7.8592330217361450e-01" nType="0">
          <Node pos="l" depth="2" NCoef="0" IVar="-1" Cut="0.0000000000000000e+00" cType="1" res="1.6920681810006499e-03" rms="3.7985295057296753e-01" purity="7.8995412588119507e-01" nType="-99"/>
          <Node pos="r" depth="2" NCoef="0" IVar="-1" Cut="0.0000000000000000e+00" cType="1" res="8.2850013859570026e-04" rms="3.8626885414123535e-01" purity="7.8163892030715942e-01" nType="-99"/>
        </Node>
      </Node>
    </BinaryTree>
    <BinaryTree type="DecisionTree" boostWeight="1.0000000000000000e+00" itree="534">
      <Node pos="s" depth="0" NCoef="0" IVar="0" Cut="4.8318352699279785e+00" cType="1" res="1.0811413638293743e-02" rms="4.5033404231071472e-01" purity="5.0572752952575684e-01" nType="0">
        <Node pos="l" depth="1" NCoef="0" IVar="-1" Cut="0.0000000000000000e+00" cType="1" res="-2.0977845415472984e-03" rms="3.3108645677566528e-01" purity="1.3797439634799957e-01" nType="-99"/>
        <Node pos="r" depth="1" NCoef="0" IVar="4" Cut="2.0157691836357117e-01" cType="1" res="1.7893064767122269e-02" rms="4.5586016774177551e-01" purity="5.2883833646774292e-01" nType="0">
          <Node pos="l" depth="2" NCoef="0" IVar="-1" Cut="0.0000000000000000e+00" cType="1" res="1.0360300802858546e-04" rms="4.5529937744140625e-01" purity="5.1541697978973389e-01" nType="-99"/>
          <Node pos="r" depth="2" NCoef="0" IVar="-1" Cut="0.0000000000000000e+00" cType="1" res="1.3086413964629173e-03" rms="4.5021870732307434e-01" purity="6.5700048208236694e-01" nType="-99"/>
        </Node>
      </Node>
    </BinaryTree>
    <BinaryTree type="DecisionTree" boostWeight="1.0000000000000000e+00" itree="535">
      <Node pos="s" depth="0" NCoef="0" IVar="0" Cut="4.7845592498779297e+00" cType="1" res="1.1217266321182251e-02" rms="4.5770311355590820e-01" purity="4.9894046783447266e-01" nType="0">
        <Node pos="l" depth="1" NCoef="0" IVar="-1" Cut="0.0000000000000000e+00" cType="1" res="-1.9357681740075350e-03" rms="3.4904736280441284e-01" purity="1.5041750669479370e-01" nType="-99"/>
        <Node pos="r" depth="1" NCoef="0" IVar="4" Cut="-1.2116276472806931e-01" cType="1" res="1.8490089103579521e-02" rms="4.6296885609626770e-01" purity="5.2165323495864868e-01" nType="0">
          <Node pos="l" depth="2" NCoef="0" IVar="-1" Cut="0.0000000000000000e+00" cType="1" res="-1.1955222580581903e-03" rms="4.3881759047508240e-01" purity="3.4815636277198792e-01" nType="-99"/>
          <Node pos="r" depth="2" NCoef="0" IVar="-1" Cut="0.0000000000000000e+00" cType="1" res="3.4599663922563195e-04" rms="4.6407255530357361e-01" purity="5.3688657283782959e-01" nType="-99"/>
        </Node>
      </Node>
    </BinaryTree>
    <BinaryTree type="DecisionTree" boostWeight="1.0000000000000000e+00" itree="536">
      <Node pos="s" depth="0" NCoef="0" IVar="2" Cut="2.0081936645507812e+02" cType="1" res="-9.2006789054721594e-04" rms="4.4547751545906067e-01" purity="4.9715092778205872e-01" nType="0">
        <Node pos="l" depth="1" NCoef="0" IVar="3" Cut="4.3663677215576172e+01" cType="1" res="-4.6605829149484634e-02" rms="4.5895457267761230e-01" purity="4.2849928140640259e-01" nType="0">
          <Node pos="l" depth="2" NCoef="0" IVar="-1" Cut="0.0000000000000000e+00" cType="1" res="-2.1422067657113075e-03" rms="4.3633115291595459e-01" purity="3.1200128793716431e-01" nType="-99"/>
          <Node pos="r" depth="2" NCoef="0" IVar="-1" Cut="0.0000000000000000e+00" cType="1" res="-1.7781055066734552e-04" rms="4.6179914474487305e-01" purity="4.6797358989715576e-01" nType="-99"/>
        </Node>
        <Node pos="r" depth="1" NCoef="0" IVar="1" Cut="1.1673500537872314e+00" cType="1" res="3.3629197627305984e-02" rms="4.3181049823760986e-01" purity="5.4906785488128662e-01" nType="0">
          <Node pos="l" depth="2" NCoef="0" IVar="-1" Cut="0.0000000000000000e+00" cType="1" res="9.6270948415622115e-04" rms="4.3667426705360413e-01" purity="6.9609773159027100e-01" nType="-99"/>
          <Node pos="r" depth="2" NCoef="0" IVar="-1" Cut="0.0000000000000000e+00" cType="1" res="-7.5313868001103401e-04" rms="4.1178166866302490e-01" purity="2.9887828230857849e-01" nType="-99"/>
        </Node>
      </Node>
    </BinaryTree>
    <BinaryTree type="DecisionTree" boostWeight="1.0000000000000000e+00" itree="537">
      <Node pos="s" depth="0" NCoef="0" IVar="1" Cut="6.8976837396621704e-01" cType="1" res="1.1045985855162144e-02" rms="4.5185565948486328e-01" purity="5.1017862558364868e-01" nType="0">
        <Node pos="l" depth="1" NCoef="0" IVar="4" Cut="1.9353643059730530e-01" cType="1" res="6.4198821783065796e-02" rms="4.5119854807853699e-01" purity="6.4246684312820435e-01" nType="0">
          <Node pos="l" depth="2" NCoef="0" IVar="-1" Cut="0.0000000000000000e+00" cType="1" res="3.7253682967275381e-04" rms="4.5244970917701721e-01" purity="6.0949224233627319e-01" nType="-99"/>
          <Node pos="r" depth="2" NCoef="0" IVar="-1" Cut="0.0000000000000000e+00" cType="1" res="1.8839961849153042e-03" rms="4.2584797739982605e-01" purity="7.6067149639129639e-01" nType="-99"/>
        </Node>
        <Node pos="r" depth="1" NCoef="0" IVar="0" Cut="8.2019634246826172e+00" cType="1" res="-1.1379851959645748e-02" rms="4.5025438070297241e-01" purity="4.5436462759971619e-01" nType="0">
          <Node pos="l" depth="2" NCoef="0" IVar="-1" Cut="0.0000000000000000e+00" cType="1" res="-4.0699879173189402e-04" rms="4.5438897609710693e-01" purity="4.0004798769950867e-01" nType="-99"/>
          <Node pos="r" depth="2" NCoef="0" IVar="-1" Cut="0.0000000000000000e+00" cType="1" res="9.8311551846563816e-04" rms="4.1599503159523010e-01" purity="7.3915755748748779e-01" nType="-99"/>
        </Node>
      </Node>
    </BinaryTree>
    <BinaryTree type="DecisionTree" boostWeight="1.0000000000000000e+00" itree="538">
      <Node pos="s" depth="0" NCoef="0" IVar="2" Cut="1.7779244995117188e+02" cType="1" res="4.9305055290460587e-03" rms="4.5094236731529236e-01" purity="4.9258154630661011e-01" nType="0">
        <Node pos="l" depth="1" NCoef="0" IVar="6" Cut="4.4649539184570312e+02" cType="1" res="-4.8726528882980347e-02" rms="4.6976915001869202e-01" purity="4.0722033381462097e-01" nType="0">
          <Node pos="l" depth="2" NCoef="0" IVar="-1" Cut="0.0000000000000000e+00" cType="1" res="-1.9242454436607659e-04" rms="4.6644374728202820e-01" purity="4.2049521207809448e-01" nType="-99"/>
          <Node pos="r" depth="2" NCoef="0" IVar="-1" Cut="0.0000000000000000e+00" cType="1" res="-1.7966269515454769e-03" rms="4.6669444441795349e-01" purity="3.7254652380943298e-01" nType="-99"/>
        </Node>
        <Node pos="r" depth="1" NCoef="0" IVar="1" Cut="8.5386157035827637e-01" cType="1" res="3.1716778874397278e-02" rms="4.3879479169845581e-01" purity="5.3519493341445923e-01" nType="0">
          <Node pos="l" depth="2" NCoef="0" IVar="-1" Cut="0.0000000000000000e+00" cType="1" res="1.2064198963344097e-03" rms="4.1870933771133423e-01" purity="7.2601771354675293e-01" nType="-99"/>
          <Node pos="r" depth="2" NCoef="0" IVar="-1" Cut="0.0000000000000000e+00" cType="1" res="-1.7883260443340987e-04" rms="4.4535681605339050e-01" purity="4.1520509123802185e-01" nType="-99"/>
        </Node>
      </Node>
    </BinaryTree>
    <BinaryTree type="DecisionTree" boostWeight="1.0000000000000000e+00" itree="539">
      <Node pos="s" depth="0" NCoef="0" IVar="0" Cut="7.7761125564575195e+00" cType="1" res="-2.2161994129419327e-02" rms="4.4869330525398254e-01" purity="4.7297471761703491e-01" nType="0">
        <Node pos="l" depth="1" NCoef="0" IVar="2" Cut="3.9302331542968750e+02" cType="1" res="-4.0845975279808044e-02" rms="4.5428085327148438e-01" purity="3.9488995075225830e-01" nType="0">
          <Node pos="l" depth="2" NCoef="0" IVar="-1" Cut="0.0000000000000000e+00" cType="1" res="-4.1496095946058631e-04" rms="4.6129485964775085e-01" purity="4.1126048564910889e-01" nType="-99"/>
          <Node pos="r" depth="2" NCoef="0" IVar="-1" Cut="0.0000000000000000e+00" cType="1" res="-2.5484594516456127e-03" rms="3.6491242051124573e-01" purity="2.3606453835964203e-01" nType="-99"/>
        </Node>
        <Node pos="r" depth="1" NCoef="0" IVar="4" Cut="-6.9610200822353363e-02" cType="1" res="3.4279603511095047e-02" rms="4.2643171548843384e-01" purity="7.0885741710662842e-01" nType="0">
          <Node pos="l" depth="2" NCoef="0" IVar="-1" Cut="0.0000000000000000e+00" cType="1" res="-4.9684068653732538e-04" rms="4.6390053629875183e-01" purity="5.6901627779006958e-01" nType="-99"/>
          <Node pos="r" depth="2" NCoef="0" IVar="-1" Cut="0.0000000000000000e+00" cType="1" res="7.9569831723347306e-04" rms="4.0675953030586243e-01" purity="7.6542675495147705e-01" nType="-99"/>
        </Node>
      </Node>
    </BinaryTree>
    <BinaryTree type="DecisionTree" boostWeight="1.0000000000000000e+00" itree="540">
      <Node pos="s" depth="0" NCoef="0" IVar="2" Cut="1.7779244995117188e+02" cType="1" res="-2.4545231834053993e-02" rms="4.4891846179962158e-01" purity="4.6955740451812744e-01" nType="0">
        <Node pos="l" depth="1" NCoef="0" IVar="2" Cut="1.4366275024414062e+02" cType="1" res="-8.6891785264015198e-02" rms="4.4898951053619385e-01" purity="3.7375098466873169e-01" nType="0">
          <Node pos="l" depth="2" NCoef="0" IVar="-1" Cut="0.0000000000000000e+00" cType="1" res="-2.3692024406045675e-03" rms="4.3017336726188660e-01" purity="2.9285469651222229e-01" nType="-99"/>
          <Node pos="r" depth="2" NCoef="0" IVar="-1" Cut="0.0000000000000000e+00" cType="1" res="-5.6827429216355085e-04" rms="4.5500630140304565e-01" purity="4.2518129944801331e-01" nType="-99"/>
        </Node>
        <Node pos="r" depth="1" NCoef="0" IVar="1" Cut="6.4701777696609497e-01" cType="1" res="3.8463876117020845e-03" rms="4.4600734114646912e-01" purity="5.1318609714508057e-01" nType="0">
          <Node pos="l" depth="2" NCoef="0" IVar="-1" Cut="0.0000000000000000e+00" cType="1" res="1.1197468265891075e-03" rms="4.2402097582817078e-01" purity="7.3727589845657349e-01" nType="-99"/>
          <Node pos="r" depth="2" NCoef="0" IVar="-1" Cut="0.0000000000000000e+00" cType="1" res="-2.7367717120796442e-04" rms="4.4866365194320679e-01" purity="4.5459890365600586e-01" nType="-99"/>
        </Node>
      </Node>
    </BinaryTree>
    <BinaryTree type="DecisionTree" boostWeight="1.0000000000000000e+00" itree="541">
      <Node pos="s" depth="0" NCoef="0" IVar="0" Cut="7.7758688926696777e+00" cType="1" res="8.7161958217620850e-03" rms="4.4853058457374573e-01" purity="5.0909751653671265e-01" nType="0">
        <Node pos="l" depth="1" NCoef="0" IVar="0" Cut="4.8341488838195801e+00" cType="1" res="-1.0802150703966618e-02" rms="4.5839676260948181e-01" purity="4.3010410666465759e-01" nType="0">
          <Node pos="l" depth="2" NCoef="0" IVar="-1" Cut="0.0000000000000000e+00" cType="1" res="-2.7050522621721029e-03" rms="2.9829826951026917e-01" purity="1.0616552084684372e-01" nType="-99"/>
          <Node pos="r" depth="2" NCoef="0" IVar="-1" Cut="0.0000000000000000e+00" cType="1" res="-6.5088202063634526e-06" rms="4.6801555156707764e-01" purity="4.5756897330284119e-01" nType="-99"/>
        </Node>
        <Node pos="r" depth="1" NCoef="0" IVar="5" Cut="8.2495146989822388e-01" cType="1" res="6.7976467311382294e-02" rms="4.1151458024978638e-01" purity="7.4893176555633545e-01" nType="0">
          <Node pos="l" depth="2" NCoef="0" IVar="-1" Cut="0.0000000000000000e+00" cType="1" res="1.1197491548955441e-03" rms="3.9407470822334290e-01" purity="7.9209226369857788e-01" nType="-99"/>
          <Node pos="r" depth="2" NCoef="0" IVar="-1" Cut="0.0000000000000000e+00" cType="1" res="-2.1362621919251978e-04" rms="4.5823925733566284e-01" purity="5.9626632928848267e-01" nType="-99"/>
        </Node>
      </Node>
    </BinaryTree>
    <BinaryTree type="DecisionTree" boostWeight="1.0000000000000000e+00" itree="542">
      <Node pos="s" depth="0" NCoef="0" IVar="0" Cut="4.8781452178955078e+00" cType="1" res="2.1153029054403305e-02" rms="4.5372220873832703e-01" purity="5.1710295677185059e-01" nType="0">
        <Node pos="l" depth="1" NCoef="0" IVar="-1" Cut="0.0000000000000000e+00" cType="1" res="-2.8740547131747007e-03" rms="2.8031289577484131e-01" purity="9.6273928880691528e-02" nType="-99"/>
        <Node pos="r" depth="1" NCoef="0" IVar="0" Cut="8.0803442001342773e+00" cType="1" res="3.0412137508392334e-02" rms="4.6118813753128052e-01" purity="5.4434728622436523e-01" nType="0">
          <Node pos="l" depth="2" NCoef="0" IVar="-1" Cut="0.0000000000000000e+00" cType="1" res="2.0937543013133109e-04" rms="4.7113803029060364e-01" purity="4.9013870954513550e-01" nType="-99"/>
          <Node pos="r" depth="2" NCoef="0" IVar="-1" Cut="0.0000000000000000e+00" cType="1" res="1.0638348758220673e-03" rms="4.1412374377250671e-01" purity="7.6153838634490967e-01" nType="-99"/>
        </Node>
      </Node>
    </BinaryTree>
    <BinaryTree type="DecisionTree" boostWeight="1.0000000000000000e+00" itree="543">
      <Node pos="s" depth="0" NCoef="0" IVar="4" Cut="-1.9464267417788506e-02" cType="1" res="-4.8063206486403942e-03" rms="4.5059794187545776e-01" purity="4.8194456100463867e-01" nType="0">
        <Node pos="l" depth="1" NCoef="0" IVar="0" Cut="7.6495499610900879e+00" cType="1" res="-4.8194013535976410e-02" rms="4.4470050930976868e-01" purity="4.0458866953849792e-01" nType="0">
          <Node pos="l" depth="2" NCoef="0" IVar="-1" Cut="0.0000000000000000e+00" cType="1" res="-1.1641951277852058e-03" rms="4.3531766533851624e-01" purity="3.1328174471855164e-01" nType="-99"/>
          <Node pos="r" depth="2" NCoef="0" IVar="-1" Cut="0.0000000000000000e+00" cType="1" res="3.5301918978802860e-04" rms="4.6068185567855835e-01" purity="6.5158563852310181e-01" nType="-99"/>
        </Node>
        <Node pos="r" depth="1" NCoef="0" IVar="3" Cut="3.9311893463134766e+01" cType="1" res="2.6776207610964775e-02" rms="4.5223239064216614e-01" purity="5.3825300931930542e-01" nType="0">
          <Node pos="l" depth="2" NCoef="0" IVar="-1" Cut="0.0000000000000000e+00" cType="1" res="-1.3133774045854807e-03" rms="4.1692149639129639e-01" purity="3.7056550383567810e-01" nType="-99"/>
          <Node pos="r" depth="2" NCoef="0" IVar="-1" Cut="0.0000000000000000e+00" cType="1" res="4.9402803415432572e-04" rms="4.5425218343734741e-01" purity="5.5729919672012329e-01" nType="-99"/>
        </Node>
      </Node>
    </BinaryTree>
    <BinaryTree type="DecisionTree" boostWeight="1.0000000000000000e+00" itree="544">
      <Node pos="s" depth="0" NCoef="0" IVar="0" Cut="5.9434676170349121e+00" cType="1" res="9.0663284063339233e-03" rms="4.4547984004020691e-01" purity="5.0304794311523438e-01" nType="0">
        <Node pos="l" depth="1" NCoef="0" IVar="1" Cut="6.4748322963714600e-01" cType="1" res="-4.5669190585613251e-02" rms="4.2177981138229370e-01" purity="2.7960294485092163e-01" nType="0">
          <Node pos="l" depth="2" NCoef="0" IVar="-1" Cut="0.0000000000000000e+00" cType="1" res="7.5802567880600691e-04" rms="4.7419282793998718e-01" purity="4.6957483887672424e-01" nType="-99"/>
          <Node pos="r" depth="2" NCoef="0" IVar="-1" Cut="0.0000000000000000e+00" cType="1" res="-1.2844994198530912e-03" rms="4.0022087097167969e-01" purity="2.2517038881778717e-01" nType="-99"/>
        </Node>
        <Node pos="r" depth="1" NCoef="0" IVar="1" Cut="1.4064118862152100e+00" cType="1" res="3.3988174051046371e-02" rms="4.5368009805679321e-01" purity="6.0478562116622925e-01" nType="0">
          <Node pos="l" depth="2" NCoef="0" IVar="-1" Cut="0.0000000000000000e+00" cType="1" res="5.4190953960642219e-04" rms="4.5251438021659851e-01" purity="6.5640157461166382e-01" nType="-99"/>
          <Node pos="r" depth="2" NCoef="0" IVar="-1" Cut="0.0000000000000000e+00" cType="1" res="-6.5083988010883331e-04" rms="4.5443108677864075e-01" purity="2.8542315959930420e-01" nType="-99"/>
        </Node>
      </Node>
    </BinaryTree>
    <BinaryTree type="DecisionTree" boostWeight="1.0000000000000000e+00" itree="545">
      <Node pos="s" depth="0" NCoef="0" IVar="0" Cut="5.8222131729125977e+00" cType="1" res="7.7247628942131996e-03" rms="4.5132774114608765e-01" purity="5.0286000967025757e-01" nType="0">
        <Node pos="l" depth="1" NCoef="0" IVar="2" Cut="2.2050073242187500e+02" cType="1" res="-6.4467266201972961e-02" rms="4.0547925233840942e-01" purity="2.4498306214809418e-01" nType="0">
          <Node pos="l" depth="2" NCoef="0" IVar="-1" Cut="0.0000000000000000e+00" cType="1" res="-1.6753720119595528e-03" rms="3.9717060327529907e-01" purity="2.0315615832805634e-01" nType="-99"/>
          <Node pos="r" depth="2" NCoef="0" IVar="-1" Cut="0.0000000000000000e+00" cType="1" res="-2.5342605658806860e-04" rms="4.1113981604576111e-01" purity="3.0027332901954651e-01" nType="-99"/>
        </Node>
        <Node pos="r" depth="1" NCoef="0" IVar="2" Cut="3.4848065185546875e+02" cType="1" res="3.1977590173482895e-02" rms="4.6320065855979919e-01" purity="5.8949345350265503e-01" nType="0">
          <Node pos="l" depth="2" NCoef="0" IVar="-1" Cut="0.0000000000000000e+00" cType="1" res="5.3533719619736075e-04" rms="4.6445351839065552e-01" purity="6.1061322689056396e-01" nType="-99"/>
          <Node pos="r" depth="2" NCoef="0" IVar="-1" Cut="0.0000000000000000e+00" cType="1" res="-7.5825885869562626e-04" rms="4.4519540667533875e-01" purity="4.3837508559226990e-01" nType="-99"/>
        </Node>
      </Node>
    </BinaryTree>
    <BinaryTree type="DecisionTree" boostWeight="1.0000000000000000e+00" itree="546">
      <Node pos="s" depth="0" NCoef="0" IVar="1" Cut="5.8998274803161621e-01" cType="1" res="1.5499243512749672e-02" rms="4.5230889320373535e-01" purity="5.0744301080703735e-01" nType="0">
        <Node pos="l" depth="1" NCoef="0" IVar="7" Cut="6.5320916473865509e-02" cType="1" res="8.2506239414215088e-02" rms="4.4861778616905212e-01" purity="6.5169984102249146e-01" nType="0">
          <Node pos="l" depth="2" NCoef="0" IVar="-1" Cut="0.0000000000000000e+00" cType="1" res="3.9197196019813418e-04" rms="4.5170867443084717e-01" purity="6.1235529184341431e-01" nType="-99"/>
          <Node pos="r" depth="2" NCoef="0" IVar="-1" Cut="0.0000000000000000e+00" cType="1" res="2.0773140713572502e-03" rms="4.2057019472122192e-01" purity="7.3950046300888062e-01" nType="-99"/>
        </Node>
        <Node pos="r" depth="1" NCoef="0" IVar="1" Cut="1.5279614925384521e+00" cType="1" res="-1.8857389222830534e-03" rms="4.5164030790328979e-01" purity="4.7001555562019348e-01" nType="0">
          <Node pos="l" depth="2" NCoef="0" IVar="-1" Cut="0.0000000000000000e+00" cType="1" res="1.1950008774874732e-04" rms="4.6330395340919495e-01" purity="5.1546102762222290e-01" nType="-99"/>
          <Node pos="r" depth="2" NCoef="0" IVar="-1" Cut="0.0000000000000000e+00" cType="1" res="-1.6168291913345456e-03" rms="3.5975766181945801e-01" purity="1.7814980447292328e-01" nType="-99"/>
        </Node>
      </Node>
    </BinaryTree>
    <BinaryTree type="DecisionTree" boostWeight="1.0000000000000000e+00" itree="547">
      <Node pos="s" depth="0" NCoef="0" IVar="0" Cut="5.8133692741394043e+00" cType="1" res="1.2375468388199806e-02" rms="4.5161509513854980e-01" purity="5.0358778238296509e-01" nType="0">
        <Node pos="l" depth="1" NCoef="0" IVar="5" Cut="9.3967521190643311e-01" cType="1" res="-3.5621121525764465e-02" rms="4.2355629801750183e-01" purity="2.7213102579116821e-01" nType="0">
          <Node pos="l" depth="2" NCoef="0" IVar="-1" Cut="0.0000000000000000e+00" cType="1" res="-1.4087569434195757e-04" rms="4.4540518522262573e-01" purity="3.1049251556396484e-01" nType="-99"/>
          <Node pos="r" depth="2" NCoef="0" IVar="-1" Cut="0.0000000000000000e+00" cType="1" res="-2.2960279602557421e-03" rms="3.2858523726463318e-01" purity="1.4723610877990723e-01" nType="-99"/>
        </Node>
        <Node pos="r" depth="1" NCoef="0" IVar="4" Cut="-3.5291116684675217e-02" cType="1" res="3.0895248055458069e-02" rms="4.6065115928649902e-01" purity="5.9289681911468506e-01" nType="0">
          <Node pos="l" depth="2" NCoef="0" IVar="-1" Cut="0.0000000000000000e+00" cType="1" res="-7.9618630479671992e-06" rms="4.6884867548942566e-01" purity="5.1519203186035156e-01" nType="-99"/>
          <Node pos="r" depth="2" NCoef="0" IVar="-1" Cut="0.0000000000000000e+00" cType="1" res="6.2584778061136603e-04" rms="4.5422074198722839e-01" purity="6.4235568046569824e-01" nType="-99"/>
        </Node>
      </Node>
    </BinaryTree>
    <BinaryTree type="DecisionTree" boostWeight="1.0000000000000000e+00" itree="548">
      <Node pos="s" depth="0" NCoef="0" IVar="1" Cut="7.6422226428985596e-01" cType="1" res="-2.4112453684210777e-03" rms="4.5454508066177368e-01" purity="4.8755472898483276e-01" nType="0">
        <Node pos="l" depth="1" NCoef="0" IVar="2" Cut="1.6196865844726562e+02" cType="1" res="6.4259640872478485e-02" rms="4.4808009266853333e-01" purity="6.3966381549835205e-01" nType="0">
          <Node pos="l" depth="2" NCoef="0" IVar="-1" Cut="0.0000000000000000e+00" cType="1" res="1.8838858522940427e-05" rms="4.6787604689598083e-01" purity="5.0187212228775024e-01" nType="-99"/>
          <Node pos="r" depth="2" NCoef="0" IVar="-1" Cut="0.0000000000000000e+00" cType="1" res="1.1774809099733829e-03" rms="4.3317693471908569e-01" purity="7.1446031332015991e-01" nType="-99"/>
        </Node>
        <Node pos="r" depth="1" NCoef="0" IVar="7" Cut="1.1029209196567535e-01" cType="1" res="-4.0239658206701279e-02" rms="4.5383825898170471e-01" purity="4.0124949812889099e-01" nType="0">
          <Node pos="l" depth="2" NCoef="0" IVar="-1" Cut="0.0000000000000000e+00" cType="1" res="-3.7585425889119506e-04" rms="4.5827761292457581e-01" purity="4.2108851671218872e-01" nType="-99"/>
          <Node pos="r" depth="2" NCoef="0" IVar="-1" Cut="0.0000000000000000e+00" cType="1" res="-1.8244086531922221e-03" rms="4.2218828201293945e-01" purity="2.9522246122360229e-01" nType="-99"/>
        </Node>
      </Node>
    </BinaryTree>
    <BinaryTree type="DecisionTree" boostWeight="1.0000000000000000e+00" itree="549">
      <Node pos="s" depth="0" NCoef="0" IVar="0" Cut="5.7714858055114746e+00" cType="1" res="2.1219744812697172e-03" rms="4.4874680042266846e-01" purity="4.9901357293128967e-01" nType="0">
        <Node pos="l" depth="1" NCoef="0" IVar="7" Cut="-2.1897882223129272e-02" cType="1" res="-5.7656887918710709e-02" rms="4.1613277792930603e-01" purity="2.6377338171005249e-01" nType="0">
          <Node pos="l" depth="2" NCoef="0" IVar="-1" Cut="0.0000000000000000e+00" cType="1" res="-1.9436029251664877e-03" rms="3.8938221335411072e-01" purity="2.1954832971096039e-01" nType="-99"/>
          <Node pos="r" depth="2" NCoef="0" IVar="-1" Cut="0.0000000000000000e+00" cType="1" res="-4.6920034219510853e-04" rms="4.2256242036819458e-01" purity="2.8073954582214355e-01" nType="-99"/>
        </Node>
        <Node pos="r" depth="1" NCoef="0" IVar="5" Cut="1.0861233472824097e+00" cType="1" res="2.3962995037436485e-02" rms="4.5814508199691772e-01" purity="5.8496177196502686e-01" nType="0">
          <Node pos="l" depth="2" NCoef="0" IVar="-1" Cut="0.0000000000000000e+00" cType="1" res="4.2019097600132227e-04" rms="4.5801755785942078e-01" purity="6.0366314649581909e-01" nType="-99"/>
          <Node pos="r" depth="2" NCoef="0" IVar="-1" Cut="0.0000000000000000e+00" cType="1" res="-1.5414271038025618e-03" rms="4.4174084067344666e-01" purity="3.4097558259963989e-01" nType="-99"/>
        </Node>
      </Node>
    </BinaryTree>
    <BinaryTree type="DecisionTree" boostWeight="1.0000000000000000e+00" itree="550">
      <Node pos="s" depth="0" NCoef="0" IVar="5" Cut="3.0142822861671448e-01" cType="1" res="2.6357686147093773e-03" rms="4.4889321923255920e-01" purity="5.0047391653060913e-01" nType="0">
        <Node pos="l" depth="1" NCoef="0" IVar="-1" Cut="0.0000000000000000e+00" cType="1" res="1.0416600853204727e-03" rms="4.3793830275535583e-01" purity="6.4447247982025146e-01" nType="-99"/>
        <Node pos="r" depth="1" NCoef="0" IVar="7" Cut="8.1972606480121613e-02" cType="1" res="-6.4743990078568459e-03" rms="4.4914609193801880e-01" purity="4.8466947674751282e-01" nType="0">
          <Node pos="l" depth="2" NCoef="0" IVar="-1" Cut="0.0000000000000000e+00" cType="1" res="1.4759496843907982e-04" rms="4.5158046483993530e-01" purity="5.1745593547821045e-01" nType="-99"/>
          <Node pos="r" depth="2" NCoef="0" IVar="-1" Cut="0.0000000000000000e+00" cType="1" res="-1.0364156914874911e-03" rms="4.3484398722648621e-01" purity="3.7001359462738037e-01" nType="-99"/>
        </Node>
      </Node>
    </BinaryTree>
    <BinaryTree type="DecisionTree" boostWeight="1.0000000000000000e+00" itree="551">
      <Node pos="s" depth="0" NCoef="0" IVar="3" Cut="4.6720394134521484e+01" cType="1" res="1.0020918212831020e-02" rms="4.5135542750358582e-01" purity="5.0218820571899414e-01" nType="0">
        <Node pos="l" depth="1" NCoef="0" IVar="3" Cut="3.7137638092041016e+01" cType="1" res="-7.3384284973144531e-02" rms="4.4504272937774658e-01" purity="3.8083267211914062e-01" nType="0">
          <Node pos="l" depth="2" NCoef="0" IVar="-1" Cut="0.0000000000000000e+00" cType="1" res="-1.7801078502088785e-03" rms="4.1792148351669312e-01" purity="3.1444749236106873e-01" nType="-99"/>
          <Node pos="r" depth="2" NCoef="0" IVar="-1" Cut="0.0000000000000000e+00" cType="1" res="-4.2179515003226697e-04" rms="4.6501725912094116e-01" purity="4.4302266836166382e-01" nType="-99"/>
        </Node>
        <Node pos="r" depth="1" NCoef="0" IVar="2" Cut="3.4790997314453125e+02" cType="1" res="2.7392769232392311e-02" rms="4.5072123408317566e-01" purity="5.2746444940567017e-01" nType="0">
          <Node pos="l" depth="2" NCoef="0" IVar="-1" Cut="0.0000000000000000e+00" cType="1" res="5.2880396833643317e-04" rms="4.5184555649757385e-01" purity="5.5401283502578735e-01" nType="-99"/>
          <Node pos="r" depth="2" NCoef="0" IVar="-1" Cut="0.0000000000000000e+00" cType="1" res="-8.1583776045590639e-04" rms="4.3593171238899231e-01" purity="3.7910836935043335e-01" nType="-99"/>
        </Node>
      </Node>
    </BinaryTree>
    <BinaryTree type="DecisionTree" boostWeight="1.0000000000000000e+00" itree="552">
      <Node pos="s" depth="0" NCoef="0" IVar="0" Cut="6.5324907302856445e+00" cType="1" res="5.8672074228525162e-03" rms="4.4506600499153137e-01" purity="5.0032538175582886e-01" nType="0">
        <Node pos="l" depth="1" NCoef="0" IVar="3" Cut="4.1845973968505859e+01" cType="1" res="-4.3497689068317413e-02" rms="4.3756455183029175e-01" purity="3.1385582685470581e-01" nType="0">
          <Node pos="l" depth="2" NCoef="0" IVar="-1" Cut="0.0000000000000000e+00" cType="1" res="-3.0108906794339418e-03" rms="3.5617592930793762e-01" purity="1.5676032006740570e-01" nType="-99"/>
          <Node pos="r" depth="2" NCoef="0" IVar="-1" Cut="0.0000000000000000e+00" cType="1" res="-3.9641631883569062e-04" rms="4.4423368573188782e-01" purity="3.3386579155921936e-01" nType="-99"/>
        </Node>
        <Node pos="r" depth="1" NCoef="0" IVar="7" Cut="1.1733929812908173e-01" cType="1" res="4.7282636165618896e-02" rms="4.4707810878753662e-01" purity="6.5676683187484741e-01" nType="0">
          <Node pos="l" depth="2" NCoef="0" IVar="-1" Cut="0.0000000000000000e+00" cType="1" res="7.2652380913496017e-04" rms="4.4487386941909790e-01" purity="6.8041402101516724e-01" nType="-99"/>
          <Node pos="r" depth="2" NCoef="0" IVar="-1" Cut="0.0000000000000000e+00" cType="1" res="-5.9142772806808352e-04" rms="4.5223560929298401e-01" purity="4.8992100358009338e-01" nType="-99"/>
        </Node>
      </Node>
    </BinaryTree>
    <BinaryTree type="DecisionTree" boostWeight="1.0000000000000000e+00" itree="553">
      <Node pos="s" depth="0" NCoef="0" IVar="1" Cut="1.7502545118331909e+00" cType="1" res="5.5155702866613865e-03" rms="4.4952267408370972e-01" purity="4.9058637022972107e-01" nType="0">
        <Node pos="l" depth="1" NCoef="0" IVar="0" Cut="5.0460381507873535e+00" cType="1" res="1.4022753573954105e-02" rms="4.5675703883171082e-01" purity="5.1346039772033691e-01" nType="0">
          <Node pos="l" depth="2" NCoef="0" IVar="-1" Cut="0.0000000000000000e+00" cType="1" res="-1.2820778647437692e-03" rms="3.8188844919204712e-01" purity="1.9769899547100067e-01" nType="-99"/>
          <Node pos="r" depth="2" NCoef="0" IVar="-1" Cut="0.0000000000000000e+00" cType="1" res="3.0285070533864200e-04" rms="4.6367704868316650e-01" purity="5.5026096105575562e-01" nType="-99"/>
        </Node>
        <Node pos="r" depth="1" NCoef="0" IVar="-1" Cut="0.0000000000000000e+00" cType="1" res="-4.2127356864511967e-03" rms="2.3373349010944366e-01" purity="6.7321911454200745e-02" nType="-99"/>
      </Node>
    </BinaryTree>
    <BinaryTree type="DecisionTree" boostWeight="1.0000000000000000e+00" itree="554">
      <Node pos="s" depth="0" NCoef="0" IVar="3" Cut="8.6875579833984375e+01" cType="1" res="8.9976312592625618e-03" rms="4.4965180754661560e-01" purity="5.0519239902496338e-01" nType="0">
        <Node pos="l" depth="1" NCoef="0" IVar="4" Cut="1.0752391070127487e-01" cType="1" res="-1.8786879256367683e-02" rms="4.5515924692153931e-01" purity="4.5610433816909790e-01" nType="0">
          <Node pos="l" depth="2" NCoef="0" IVar="-1" Cut="0.0000000000000000e+00" cType="1" res="-6.5677706152200699e-04" rms="4.4624957442283630e-01" purity="4.1701492667198181e-01" nType="-99"/>
          <Node pos="r" depth="2" NCoef="0" IVar="-1" Cut="0.0000000000000000e+00" cType="1" res="5.7295308215543628e-04" rms="4.6900412440299988e-01" purity="5.4760509729385376e-01" nType="-99"/>
        </Node>
        <Node pos="r" depth="1" NCoef="0" IVar="0" Cut="8.1959409713745117e+00" cType="1" res="5.5467266589403152e-02" rms="4.3635055422782898e-01" purity="5.8729225397109985e-01" nType="0">
          <Node pos="l" depth="2" NCoef="0" IVar="-1" Cut="0.0000000000000000e+00" cType="1" res="4.1106448043137789e-04" rms="4.4900891184806824e-01" purity="5.2469307184219360e-01" nType="-99"/>
          <Node pos="r" depth="2" NCoef="0" IVar="-1" Cut="0.0000000000000000e+00" cType="1" res="1.9075566669926047e-03" rms="3.6584338545799255e-01" purity="8.4016960859298706e-01" nType="-99"/>
        </Node>
      </Node>
    </BinaryTree>
    <BinaryTree type="DecisionTree" boostWeight="1.0000000000000000e+00" itree="555">
      <Node pos="s" depth="0" NCoef="0" IVar="1" Cut="9.2783582210540771e-01" cType="1" res="1.3862776570022106e-02" rms="4.4903385639190674e-01" purity="5.1215863227844238e-01" nType="0">
        <Node pos="l" depth="1" NCoef="0" IVar="2" Cut="1.8530302429199219e+02" cType="1" res="4.6543449163436890e-02" rms="4.4721490144729614e-01" purity="6.2488353252410889e-01" nType="0">
          <Node pos="l" depth="2" NCoef="0" IVar="-1" Cut="0.0000000000000000e+00" cType="1" res="-1.1052034096792340e-05" rms="4.6646052598953247e-01" purity="5.0245028734207153e-01" nType="-99"/>
          <Node pos="r" depth="2" NCoef="0" IVar="-1" Cut="0.0000000000000000e+00" cType="1" res="1.0415861615911126e-03" rms="4.2609056830406189e-01" purity="7.2875386476516724e-01" nType="-99"/>
        </Node>
        <Node pos="r" depth="1" NCoef="0" IVar="1" Cut="1.7035360336303711e+00" cType="1" res="-2.3285273462533951e-02" rms="4.4820809364318848e-01" purity="3.8402456045150757e-01" nType="0">
          <Node pos="l" depth="2" NCoef="0" IVar="-1" Cut="0.0000000000000000e+00" cType="1" res="-1.6359331493731588e-04" rms="4.6347391605377197e-01" purity="4.1977888345718384e-01" nType="-99"/>
          <Node pos="r" depth="2" NCoef="0" IVar="-1" Cut="0.0000000000000000e+00" cType="1" res="-3.1411186791956425e-03" rms="2.7832093834877014e-01" purity="9.2905469238758087e-02" nType="-99"/>
        </Node>
      </Node>
    </BinaryTree>
    <BinaryTree type="DecisionTree" boostWeight="1.0000000000000000e+00" itree="556">
      <Node pos="s" depth="0" NCoef="0" IVar="2" Cut="2.0729290771484375e+02" cType="1" res="2.3380964994430542e-02" rms="4.5160076022148132e-01" purity="5.1662880182266235e-01" nType="0">
        <Node pos="l" depth="1" NCoef="0" IVar="0" Cut="7.9515218734741211e+00" cType="1" res="-1.1787929572165012e-02" rms="4.6107503771781921e-01" purity="4.6735662221908569e-01" nType="0">
          <Node pos="l" depth="2" NCoef="0" IVar="-1" Cut="0.0000000000000000e+00" cType="1" res="-4.0958760655485094e-04" rms="4.6733242273330688e-01" purity="4.0774500370025635e-01" nType="-99"/>
          <Node pos="r" depth="2" NCoef="0" IVar="-1" Cut="0.0000000000000000e+00" cType="1" res="1.0449840920045972e-03" rms="4.1494834423065186e-01" purity="7.6437520980834961e-01" nType="-99"/>
        </Node>
        <Node pos="r" depth="1" NCoef="0" IVar="2" Cut="3.1053207397460938e+02" cType="1" res="5.5487595498561859e-02" rms="4.4032853841781616e-01" purity="5.6161069869995117e-01" nType="0">
          <Node pos="l" depth="2" NCoef="0" IVar="-1" Cut="0.0000000000000000e+00" cType="1" res="1.1825675610452890e-03" rms="4.3894371390342712e-01" purity="6.3099420070648193e-01" nType="-99"/>
          <Node pos="r" depth="2" NCoef="0" IVar="-1" Cut="0.0000000000000000e+00" cType="1" res="-3.2298281439580023e-04" rms="4.3312108516693115e-01" purity="4.2301243543624878e-01" nType="-99"/>
        </Node>
      </Node>
    </BinaryTree>
    <BinaryTree type="DecisionTree" boostWeight="1.0000000000000000e+00" itree="557">
      <Node pos="s" depth="0" NCoef="0" IVar="4" Cut="2.2885976731777191e-01" cType="1" res="1.0944953188300133e-02" rms="4.4756174087524414e-01" purity="5.0714105367660522e-01" nType="0">
        <Node pos="l" depth="1" NCoef="0" IVar="0" Cut="7.4764747619628906e+00" cType="1" res="1.5573275741189718e-03" rms="4.4649061560630798e-01" purity="4.9339473247528076e-01" nType="0">
          <Node pos="l" depth="2" NCoef="0" IVar="-1" Cut="0.0000000000000000e+00" cType="1" res="-2.5607386487536132e-04" rms="4.5539653301239014e-01" purity="4.0112376213073730e-01" nType="-99"/>
          <Node pos="r" depth="2" NCoef="0" IVar="-1" Cut="0.0000000000000000e+00" cType="1" res="6.3146260799840093e-04" rms="4.2029997706413269e-01" purity="7.1642851829528809e-01" nType="-99"/>
        </Node>
        <Node pos="r" depth="1" NCoef="0" IVar="-1" Cut="0.0000000000000000e+00" cType="1" res="1.6055263113230467e-03" rms="4.4073989987373352e-01" purity="7.0759302377700806e-01" nType="-99"/>
      </Node>
    </BinaryTree>
    <BinaryTree type="DecisionTree" boostWeight="1.0000000000000000e+00" itree="558">
      <Node pos="s" depth="0" NCoef="0" IVar="0" Cut="7.7005014419555664e+00" cType="1" res="2.2331555373966694e-03" rms="4.5111539959907532e-01" purity="4.8923698067665100e-01" nType="0">
        <Node pos="l" depth="1" NCoef="0" IVar="1" Cut="1.5838510990142822e+00" cType="1" res="-1.4817361719906330e-02" rms="4.5953729748725891e-01" purity="4.1210907697677612e-01" nType="0">
          <Node pos="l" depth="2" NCoef="0" IVar="-1" Cut="0.0000000000000000e+00" cType="1" res="-5.7134748203679919e-05" rms="4.7361308336257935e-01" purity="4.4675755500793457e-01" nType="-99"/>
          <Node pos="r" depth="2" NCoef="0" IVar="-1" Cut="0.0000000000000000e+00" cType="1" res="-2.9679448343813419e-03" rms="2.8220167756080627e-01" purity="9.2315077781677246e-02" nType="-99"/>
        </Node>
        <Node pos="r" depth="1" NCoef="0" IVar="2" Cut="2.8241143798828125e+02" cType="1" res="5.6011993438005447e-02" rms="4.1893425583839417e-01" purity="7.3250502347946167e-01" nType="0">
          <Node pos="l" depth="2" NCoef="0" IVar="-1" Cut="0.0000000000000000e+00" cType="1" res="1.0567025747150183e-03" rms="4.0432730317115784e-01" purity="7.7176415920257568e-01" nType="-99"/>
          <Node pos="r" depth="2" NCoef="0" IVar="-1" Cut="0.0000000000000000e+00" cType="1" res="-6.9722731132060289e-04" rms="4.4926702976226807e-01" purity="6.0149174928665161e-01" nType="-99"/>
        </Node>
      </Node>
    </BinaryTree>
    <BinaryTree type="DecisionTree" boostWeight="1.0000000000000000e+00" itree="559">
      <Node pos="s" depth="0" NCoef="0" IVar="0" Cut="4.8329377174377441e+00" cType="1" res="1.4063378795981407e-02" rms="4.5327651500701904e-01" purity="5.0842791795730591e-01" nType="0">
        <Node pos="l" depth="1" NCoef="0" IVar="-1" Cut="0.0000000000000000e+00" cType="1" res="-2.2141342051327229e-03" rms="3.1870988011360168e-01" purity="1.2211478501558304e-01" nType="-99"/>
        <Node pos="r" depth="1" NCoef="0" IVar="4" Cut="-1.2142584472894669e-01" cType="1" res="2.1865980699658394e-02" rms="4.5948362350463867e-01" purity="5.3324699401855469e-01" nType="0">
          <Node pos="l" depth="2" NCoef="0" IVar="-1" Cut="0.0000000000000000e+00" cType="1" res="-9.3810987891629338e-04" rms="4.4334369897842407e-01" purity="3.6204436421394348e-01" nType="-99"/>
          <Node pos="r" depth="2" NCoef="0" IVar="-1" Cut="0.0000000000000000e+00" cType="1" res="3.7785366293974221e-04" rms="4.6017453074455261e-01" purity="5.4931670427322388e-01" nType="-99"/>
        </Node>
      </Node>
    </BinaryTree>
    <BinaryTree type="DecisionTree" boostWeight="1.0000000000000000e+00" itree="560">
      <Node pos="s" depth="0" NCoef="0" IVar="1" Cut="1.0570029020309448e+00" cType="1" res="8.7942434474825859e-03" rms="4.4764932990074158e-01" purity="5.0338792800903320e-01" nType="0">
        <Node pos="l" depth="1" NCoef="0" IVar="2" Cut="1.9917829895019531e+02" cType="1" res="4.0884122252464294e-02" rms="4.5295658707618713e-01" purity="6.0718762874603271e-01" nType="0">
          <Node pos="l" depth="2" NCoef="0" IVar="-1" Cut="0.0000000000000000e+00" cType="1" res="2.5232482585124671e-05" rms="4.6350249648094177e-01" purity="5.0604212284088135e-01" nType="-99"/>
          <Node pos="r" depth="2" NCoef="0" IVar="-1" Cut="0.0000000000000000e+00" cType="1" res="9.8882708698511124e-04" rms="4.3762060999870300e-01" purity="7.1523648500442505e-01" nType="-99"/>
        </Node>
        <Node pos="r" depth="1" NCoef="0" IVar="2" Cut="3.1869952392578125e+02" cType="1" res="-4.6722870320081711e-02" rms="4.3273201584815979e-01" purity="3.2380914688110352e-01" nType="0">
          <Node pos="l" depth="2" NCoef="0" IVar="-1" Cut="0.0000000000000000e+00" cType="1" res="-2.2627053840551525e-04" rms="4.4832977652549744e-01" purity="3.6648604273796082e-01" nType="-99"/>
          <Node pos="r" depth="2" NCoef="0" IVar="-1" Cut="0.0000000000000000e+00" cType="1" res="-2.2021909244358540e-03" rms="3.8226851820945740e-01" purity="2.2159180045127869e-01" nType="-99"/>
        </Node>
      </Node>
    </BinaryTree>
    <BinaryTree type="DecisionTree" boostWeight="1.0000000000000000e+00" itree="561">
      <Node pos="s" depth="0" NCoef="0" IVar="7" Cut="-4.8572964966297150e-02" cType="1" res="-1.6983159584924579e-03" rms="4.5325133204460144e-01" purity="4.9185934662818909e-01" nType="0">
        <Node pos="l" depth="1" NCoef="0" IVar="1" Cut="1.0355989933013916e+00" cType="1" res="4.7849241644144058e-02" rms="4.3267703056335449e-01" purity="5.8964651823043823e-01" nType="0">
          <Node pos="l" depth="2" NCoef="0" IVar="-1" Cut="0.0000000000000000e+00" cType="1" res="1.0722976876422763e-03" rms="4.1527658700942993e-01" purity="6.8278133869171143e-01" nType="-99"/>
          <Node pos="r" depth="2" NCoef="0" IVar="-1" Cut="0.0000000000000000e+00" cType="1" res="-1.1269107926636934e-03" rms="4.5659807324409485e-01" purity="3.2753434777259827e-01" nType="-99"/>
        </Node>
        <Node pos="r" depth="1" NCoef="0" IVar="4" Cut="1.5952499210834503e-01" cType="1" res="-1.4541915617883205e-02" rms="4.5755907893180847e-01" purity="4.6651118993759155e-01" nType="0">
          <Node pos="l" depth="2" NCoef="0" IVar="-1" Cut="0.0000000000000000e+00" cType="1" res="-4.4109023292548954e-04" rms="4.5608463883399963e-01" purity="4.3222874402999878e-01" nType="-99"/>
          <Node pos="r" depth="2" NCoef="0" IVar="-1" Cut="0.0000000000000000e+00" cType="1" res="5.9824425261467695e-04" rms="4.5775750279426575e-01" purity="5.9602618217468262e-01" nType="-99"/>
        </Node>
      </Node>
    </BinaryTree>
    <BinaryTree type="DecisionTree" boostWeight="1.0000000000000000e+00" itree="562">
      <Node pos="s" depth="0" NCoef="0" IVar="1" Cut="1.6996632814407349e+00" cType="1" res="2.8845737688243389e-03" rms="4.4692593812942505e-01" purity="4.9308499693870544e-01" nType="0">
        <Node pos="l" depth="1" NCoef="0" IVar="2" Cut="1.5705335998535156e+02" cType="1" res="1.0346692986786366e-02" rms="4.5421236753463745e-01" purity="5.1626378297805786e-01" nType="0">
          <Node pos="l" depth="2" NCoef="0" IVar="-1" Cut="0.0000000000000000e+00" cType="1" res="-8.7487691780552268e-04" rms="4.5669716596603394e-01" purity="3.9875987172126770e-01" nType="-99"/>
          <Node pos="r" depth="2" NCoef="0" IVar="-1" Cut="0.0000000000000000e+00" cType="1" res="3.8412885623984039e-04" rms="4.5149612426757812e-01" purity="5.4693412780761719e-01" nType="-99"/>
        </Node>
        <Node pos="r" depth="1" NCoef="0" IVar="-1" Cut="0.0000000000000000e+00" cType="1" res="-3.6035757511854172e-03" rms="2.4876327812671661e-01" purity="7.4183136224746704e-02" nType="-99"/>
      </Node>
    </BinaryTree>
    <BinaryTree type="DecisionTree" boostWeight="1.0000000000000000e+00" itree="563">
      <Node pos="s" depth="0" NCoef="0" IVar="0" Cut="7.7570734024047852e+00" cType="1" res="1.3085939921438694e-02" rms="4.5242512226104736e-01" purity="5.0665956735610962e-01" nType="0">
        <Node pos="l" depth="1" NCoef="0" IVar="4" Cut="-1.2240627408027649e-01" cType="1" res="-8.2128029316663742e-03" rms="4.6221718192100525e-01" purity="4.2698937654495239e-01" nType="0">
          <Node pos="l" depth="2" NCoef="0" IVar="-1" Cut="0.0000000000000000e+00" cType="1" res="-2.4638646282255650e-03" rms="3.5330802202224731e-01" purity="2.1364881098270416e-01" nType="-99"/>
          <Node pos="r" depth="2" NCoef="0" IVar="-1" Cut="0.0000000000000000e+00" cType="1" res="4.5297343604033813e-05" rms="4.6923351287841797e-01" purity="4.4655680656433105e-01" nType="-99"/>
        </Node>
        <Node pos="r" depth="1" NCoef="0" IVar="2" Cut="2.8756246948242188e+02" cType="1" res="7.5720600783824921e-02" rms="4.1604459285736084e-01" purity="7.4095094203948975e-01" nType="0">
          <Node pos="l" depth="2" NCoef="0" IVar="-1" Cut="0.0000000000000000e+00" cType="1" res="1.1820640647783875e-03" rms="3.9890539646148682e-01" purity="7.8167533874511719e-01" nType="-99"/>
          <Node pos="r" depth="2" NCoef="0" IVar="-1" Cut="0.0000000000000000e+00" cType="1" res="4.6067794755799696e-05" rms="4.5927217602729797e-01" purity="6.1062175035476685e-01" nType="-99"/>
        </Node>
      </Node>
    </BinaryTree>
    <BinaryTree type="DecisionTree" boostWeight="1.0000000000000000e+00" itree="564">
      <Node pos="s" depth="0" NCoef="0" IVar="7" Cut="3.1954281032085419e-02" cType="1" res="1.3933142647147179e-02" rms="4.5283734798431396e-01" purity="5.0797110795974731e-01" nType="0">
        <Node pos="l" depth="1" NCoef="0" IVar="5" Cut="5.4405891895294189e-01" cType="1" res="4.2328167706727982e-02" rms="4.5229172706604004e-01" purity="5.6147682666778564e-01" nType="0">
          <Node pos="l" depth="2" NCoef="0" IVar="-1" Cut="0.0000000000000000e+00" cType="1" res="1.0797161376103759e-03" rms="4.2308568954467773e-01" purity="6.7364692687988281e-01" nType="-99"/>
          <Node pos="r" depth="2" NCoef="0" IVar="-1" Cut="0.0000000000000000e+00" cType="1" res="1.5883272862993181e-04" rms="4.6742951869964600e-01" purity="4.8996445536613464e-01" nType="-99"/>
        </Node>
        <Node pos="r" depth="1" NCoef="0" IVar="3" Cut="9.9067253112792969e+01" cType="1" res="-2.9899284243583679e-02" rms="4.5017570257186890e-01" purity="4.2537605762481689e-01" nType="0">
          <Node pos="l" depth="2" NCoef="0" IVar="-1" Cut="0.0000000000000000e+00" cType="1" res="-9.6743612084537745e-04" rms="4.5088529586791992e-01" purity="3.7948733568191528e-01" nType="-99"/>
          <Node pos="r" depth="2" NCoef="0" IVar="-1" Cut="0.0000000000000000e+00" cType="1" res="8.9513050625100732e-04" rms="4.3412187695503235e-01" purity="5.4737830162048340e-01" nType="-99"/>
        </Node>
      </Node>
    </BinaryTree>
    <BinaryTree type="DecisionTree" boostWeight="1.0000000000000000e+00" itree="565">
      <Node pos="s" depth="0" NCoef="0" IVar="0" Cut="4.7934036254882812e+00" cType="1" res="5.0010755658149719e-03" rms="4.5147749781608582e-01" purity="4.9527961015701294e-01" nType="0">
        <Node pos="l" depth="1" NCoef="0" IVar="-1" Cut="0.0000000000000000e+00" cType="1" res="-3.0348405707627535e-03" rms="2.8572314977645874e-01" purity="9.7491644322872162e-02" nType="-99"/>
        <Node pos="r" depth="1" NCoef="0" IVar="4" Cut="2.2239810228347778e-01" cType="1" res="1.2899527326226234e-02" rms="4.5742186903953552e-01" purity="5.1682114601135254e-01" nType="0">
          <Node pos="l" depth="2" NCoef="0" IVar="-1" Cut="0.0000000000000000e+00" cType="1" res="4.9604183004703373e-05" rms="4.5707675814628601e-01" purity="5.0333100557327271e-01" nType="-99"/>
          <Node pos="r" depth="2" NCoef="0" IVar="-1" Cut="0.0000000000000000e+00" cType="1" res="1.4783663209527731e-03" rms="4.4554728269577026e-01" purity="6.8911266326904297e-01" nType="-99"/>
        </Node>
      </Node>
    </BinaryTree>
    <BinaryTree type="DecisionTree" boostWeight="1.0000000000000000e+00" itree="566">
      <Node pos="s" depth="0" NCoef="0" IVar="0" Cut="5.0460381507873535e+00" cType="1" res="9.4153517857193947e-03" rms="4.5016345381736755e-01" purity="5.0158917903900146e-01" nType="0">
        <Node pos="l" depth="1" NCoef="0" IVar="-1" Cut="0.0000000000000000e+00" cType="1" res="-1.6792356036603451e-03" rms="3.5669940710067749e-01" purity="1.6420000791549683e-01" nType="-99"/>
        <Node pos="r" depth="1" NCoef="0" IVar="3" Cut="4.3069820404052734e+01" cType="1" res="1.9043909385800362e-02" rms="4.5751807093620300e-01" purity="5.3594362735748291e-01" nType="0">
          <Node pos="l" depth="2" NCoef="0" IVar="-1" Cut="0.0000000000000000e+00" cType="1" res="-8.2400353858247399e-04" rms="4.5595291256904602e-01" purity="4.0117004513740540e-01" nType="-99"/>
          <Node pos="r" depth="2" NCoef="0" IVar="-1" Cut="0.0000000000000000e+00" cType="1" res="3.9677985478192568e-04" rms="4.5659363269805908e-01" purity="5.5594259500503540e-01" nType="-99"/>
        </Node>
      </Node>
    </BinaryTree>
    <BinaryTree type="DecisionTree" boostWeight="1.0000000000000000e+00" itree="567">
      <Node pos="s" depth="0" NCoef="0" IVar="0" Cut="8.8407392501831055e+00" cType="1" res="1.4107394032180309e-02" rms="4.4797354936599731e-01" purity="5.0836509466171265e-01" nType="0">
        <Node pos="l" depth="1" NCoef="0" IVar="2" Cut="4.4684066772460938e+02" cType="1" res="4.0731048211455345e-03" rms="4.5381456613540649e-01" purity="4.7793439030647278e-01" nType="0">
          <Node pos="l" depth="2" NCoef="0" IVar="-1" Cut="0.0000000000000000e+00" cType="1" res="1.5109567902982235e-04" rms="4.5634803175926208e-01" purity="4.9234622716903687e-01" nType="-99"/>
          <Node pos="r" depth="2" NCoef="0" IVar="-1" Cut="0.0000000000000000e+00" cType="1" res="-2.1776026114821434e-03" rms="3.9188465476036072e-01" purity="2.4687956273555756e-01" nType="-99"/>
        </Node>
        <Node pos="r" depth="1" NCoef="0" IVar="-1" Cut="0.0000000000000000e+00" cType="1" res="1.4686932554468513e-03" rms="3.6728173494338989e-01" purity="8.2103019952774048e-01" nType="-99"/>
      </Node>
    </BinaryTree>
    <BinaryTree type="DecisionTree" boostWeight="1.0000000000000000e+00" itree="568">
      <Node pos="s" depth="0" NCoef="0" IVar="3" Cut="4.5178272247314453e+01" cType="1" res="9.1315638273954391e-03" rms="4.5443198084831238e-01" purity="5.0250178575515747e-01" nType="0">
        <Node pos="l" depth="1" NCoef="0" IVar="3" Cut="3.7082466125488281e+01" cType="1" res="-7.0704951882362366e-02" rms="4.4660693407058716e-01" purity="3.7373071908950806e-01" nType="0">
          <Node pos="l" depth="2" NCoef="0" IVar="-1" Cut="0.0000000000000000e+00" cType="1" res="-1.7841267399489880e-03" rms="4.1778683662414551e-01" purity="3.1873625516891479e-01" nType="-99"/>
          <Node pos="r" depth="2" NCoef="0" IVar="-1" Cut="0.0000000000000000e+00" cType="1" res="-2.6991651975549757e-04" rms="4.7410556674003601e-01" purity="4.3998214602470398e-01" nType="-99"/>
        </Node>
        <Node pos="r" depth="1" NCoef="0" IVar="1" Cut="1.2220846414566040e+00" cType="1" res="2.3403542116284370e-02" rms="4.5434096455574036e-01" purity="5.2552157640457153e-01" nType="0">
          <Node pos="l" depth="2" NCoef="0" IVar="-1" Cut="0.0000000000000000e+00" cType="1" res="5.1726296078413725e-04" rms="4.5965221524238586e-01" purity="6.0524344444274902e-01" nType="-99"/>
          <Node pos="r" depth="2" NCoef="0" IVar="-1" Cut="0.0000000000000000e+00" cType="1" res="-5.8821577113121748e-04" rms="4.3275865912437439e-01" purity="2.8234148025512695e-01" nType="-99"/>
        </Node>
      </Node>
    </BinaryTree>
    <BinaryTree type="DecisionTree" boostWeight="1.0000000000000000e+00" itree="569">
      <Node pos="s" depth="0" NCoef="0" IVar="3" Cut="9.5336288452148438e+01" cType="1" res="2.5159404613077641e-03" rms="4.5376792550086975e-01" purity="4.9757912755012512e-01" nType="0">
        <Node pos="l" depth="1" NCoef="0" IVar="4" Cut="5.8204695582389832e-02" cType="1" res="-1.9766848534345627e-02" rms="4.5513111352920532e-01" purity="4.6020558476448059e-01" nType="0">
          <Node pos="l" depth="2" NCoef="0" IVar="-1" Cut="0.0000000000000000e+00" cType="1" res="-9.1731140855699778e-04" rms="4.4651654362678528e-01" purity="3.9059954881668091e-01" nType="-99"/>
          <Node pos="r" depth="2" NCoef="0" IVar="-1" Cut="0.0000000000000000e+00" cType="1" res="6.2501156935468316e-04" rms="4.5957708358764648e-01" purity="5.6797355413436890e-01" nType="-99"/>
        </Node>
        <Node pos="r" depth="1" NCoef="0" IVar="0" Cut="7.2263455390930176e+00" cType="1" res="5.6566216051578522e-02" rms="4.4584092497825623e-01" purity="5.8823430538177490e-01" nType="0">
          <Node pos="l" depth="2" NCoef="0" IVar="-1" Cut="0.0000000000000000e+00" cType="1" res="2.1447068138513714e-04" rms="4.7057721018791199e-01" purity="4.5372506976127625e-01" nType="-99"/>
          <Node pos="r" depth="2" NCoef="0" IVar="-1" Cut="0.0000000000000000e+00" cType="1" res="1.4599456917494535e-03" rms="4.0182957053184509e-01" purity="7.7645212411880493e-01" nType="-99"/>
        </Node>
      </Node>
    </BinaryTree>
    <BinaryTree type="DecisionTree" boostWeight="1.0000000000000000e+00" itree="570">
      <Node pos="s" depth="0" NCoef="0" IVar="0" Cut="7.4097919464111328e+00" cType="1" res="1.2186552397906780e-02" rms="4.4349613785743713e-01" purity="5.1131260395050049e-01" nType="0">
        <Node pos="l" depth="1" NCoef="0" IVar="5" Cut="9.4414961338043213e-01" cType="1" res="-1.1985231190919876e-02" rms="4.5728546380996704e-01" purity="4.0430915355682373e-01" nType="0">
          <Node pos="l" depth="2" NCoef="0" IVar="-1" Cut="0.0000000000000000e+00" cType="1" res="5.8283127145841718e-05" rms="4.6531471610069275e-01" purity="4.3721830844879150e-01" nType="-99"/>
          <Node pos="r" depth="2" NCoef="0" IVar="-1" Cut="0.0000000000000000e+00" cType="1" res="-1.2710978044196963e-03" rms="4.1630464792251587e-01" purity="2.7010262012481689e-01" nType="-99"/>
        </Node>
        <Node pos="r" depth="1" NCoef="0" IVar="5" Cut="4.9120318889617920e-01" cType="1" res="6.3067488372325897e-02" rms="4.0831831097602844e-01" purity="7.3655182123184204e-01" nType="0">
          <Node pos="l" depth="2" NCoef="0" IVar="-1" Cut="0.0000000000000000e+00" cType="1" res="1.6505041858181357e-03" rms="3.4137430787086487e-01" purity="8.5210621356964111e-01" nType="-99"/>
          <Node pos="r" depth="2" NCoef="0" IVar="-1" Cut="0.0000000000000000e+00" cType="1" res="2.9143798747099936e-04" rms="4.3723511695861816e-01" purity="6.6983783245086670e-01" nType="-99"/>
        </Node>
      </Node>
    </BinaryTree>
    <BinaryTree type="DecisionTree" boostWeight="1.0000000000000000e+00" itree="571">
      <Node pos="s" depth="0" NCoef="0" IVar="2" Cut="1.2685646820068359e+02" cType="1" res="-2.5205225683748722e-03" rms="4.5534914731979370e-01" purity="4.9002891778945923e-01" nType="0">
        <Node pos="l" depth="1" NCoef="0" IVar="-1" Cut="0.0000000000000000e+00" cType="1" res="-1.4524980215355754e-03" rms="4.3809735774993896e-01" purity="3.6470419168472290e-01" nType="-99"/>
        <Node pos="r" depth="1" NCoef="0" IVar="1" Cut="7.5169026851654053e-01" cType="1" res="4.9943551421165466e-03" rms="4.5570027828216553e-01" purity="4.9929776787757874e-01" nType="0">
          <Node pos="l" depth="2" NCoef="0" IVar="-1" Cut="0.0000000000000000e+00" cType="1" res="5.7335721794515848e-04" rms="4.4969716668128967e-01" purity="6.3326811790466309e-01" nType="-99"/>
          <Node pos="r" depth="2" NCoef="0" IVar="-1" Cut="0.0000000000000000e+00" cType="1" res="-2.3745460202917457e-04" rms="4.5723390579223633e-01" purity="4.3037205934524536e-01" nType="-99"/>
        </Node>
      </Node>
    </BinaryTree>
    <BinaryTree type="DecisionTree" boostWeight="1.0000000000000000e+00" itree="572">
      <Node pos="s" depth="0" NCoef="0" IVar="1" Cut="1.1488115787506104e+00" cType="1" res="6.9347759708762169e-03" rms="4.4161677360534668e-01" purity="5.0150483846664429e-01" nType="0">
        <Node pos="l" depth="1" NCoef="0" IVar="7" Cut="-4.8751063644886017e-02" cType="1" res="3.3849749714136124e-02" rms="4.4919693470001221e-01" purity="5.9654569625854492e-01" nType="0">
          <Node pos="l" depth="2" NCoef="0" IVar="-1" Cut="0.0000000000000000e+00" cType="1" res="1.2651771539822221e-03" rms="4.1047206521034241e-01" purity="6.8811398744583130e-01" nType="-99"/>
          <Node pos="r" depth="2" NCoef="0" IVar="-1" Cut="0.0000000000000000e+00" cType="1" res="1.0236146044917405e-04" rms="4.5950657129287720e-01" purity="5.6385761499404907e-01" nType="-99"/>
        </Node>
        <Node pos="r" depth="1" NCoef="0" IVar="6" Cut="5.8936364746093750e+02" cType="1" res="-5.5213078856468201e-02" rms="4.1701140999794006e-01" purity="2.8205126523971558e-01" nType="0">
          <Node pos="l" depth="2" NCoef="0" IVar="-1" Cut="0.0000000000000000e+00" cType="1" res="-1.3527314877137542e-03" rms="4.0486201643943787e-01" purity="2.5006115436553955e-01" nType="-99"/>
          <Node pos="r" depth="2" NCoef="0" IVar="-1" Cut="0.0000000000000000e+00" cType="1" res="6.8020966136828065e-04" rms="4.5532110333442688e-01" purity="4.3113487958908081e-01" nType="-99"/>
        </Node>
      </Node>
    </BinaryTree>
    <BinaryTree type="DecisionTree" boostWeight="1.0000000000000000e+00" itree="573">
      <Node pos="s" depth="0" NCoef="0" IVar="0" Cut="5.7918081283569336e+00" cType="1" res="5.8664735406637192e-03" rms="4.4626513123512268e-01" purity="4.9526187777519226e-01" nType="0">
        <Node pos="l" depth="1" NCoef="0" IVar="6" Cut="6.1502917480468750e+02" cType="1" res="-4.8644300550222397e-02" rms="4.1060993075370789e-01" purity="2.5496456027030945e-01" nType="0">
          <Node pos="l" depth="2" NCoef="0" IVar="-1" Cut="0.0000000000000000e+00" cType="1" res="-1.2765513965860009e-03" rms="3.9179846644401550e-01" purity="2.1229293942451477e-01" nType="-99"/>
          <Node pos="r" depth="2" NCoef="0" IVar="-1" Cut="0.0000000000000000e+00" cType="1" res="7.1404536720365286e-04" rms="4.6844366192817688e-01" purity="4.3536153435707092e-01" nType="-99"/>
        </Node>
        <Node pos="r" depth="1" NCoef="0" IVar="4" Cut="6.0545917600393295e-02" cType="1" res="2.6079891249537468e-02" rms="4.5713379979133606e-01" purity="5.8436775207519531e-01" nType="0">
          <Node pos="l" depth="2" NCoef="0" IVar="-1" Cut="0.0000000000000000e+00" cType="1" res="7.4525974014250096e-06" rms="4.6140542626380920e-01" purity="5.3854262828826904e-01" nType="-99"/>
          <Node pos="r" depth="2" NCoef="0" IVar="-1" Cut="0.0000000000000000e+00" cType="1" res="8.6714158533141017e-04" rms="4.4543340802192688e-01" purity="6.6829085350036621e-01" nType="-99"/>
        </Node>
      </Node>
    </BinaryTree>
    <BinaryTree type="DecisionTree" boostWeight="1.0000000000000000e+00" itree="574">
      <Node pos="s" depth="0" NCoef="0" IVar="0" Cut="4.7934036254882812e+00" cType="1" res="1.2904186733067036e-03" rms="4.4642099738121033e-01" purity="4.9331212043762207e-01" nType="0">
        <Node pos="l" depth="1" NCoef="0" IVar="-1" Cut="0.0000000000000000e+00" cType="1" res="-3.1749138142913580e-03" rms="2.6830235123634338e-01" purity="8.2563646137714386e-02" nType="-99"/>
        <Node pos="r" depth="1" NCoef="0" IVar="0" Cut="7.2697458267211914e+00" cType="1" res="9.5798065885901451e-03" rms="4.5291748642921448e-01" purity="5.1633936166763306e-01" nType="0">
          <Node pos="l" depth="2" NCoef="0" IVar="-1" Cut="0.0000000000000000e+00" cType="1" res="-1.8429150804877281e-04" rms="4.6485796570777893e-01" purity="4.0567749738693237e-01" nType="-99"/>
          <Node pos="r" depth="2" NCoef="0" IVar="-1" Cut="0.0000000000000000e+00" cType="1" res="6.3591910293325782e-04" rms="4.2745277285575867e-01" purity="7.1517884731292725e-01" nType="-99"/>
        </Node>
      </Node>
    </BinaryTree>
    <BinaryTree type="DecisionTree" boostWeight="1.0000000000000000e+00" itree="575">
      <Node pos="s" depth="0" NCoef="0" IVar="3" Cut="4.6832096099853516e+01" cType="1" res="2.0411738660186529e-03" rms="4.5558986067771912e-01" purity="4.9591246247291565e-01" nType="0">
        <Node pos="l" depth="1" NCoef="0" IVar="4" Cut="-2.3110566660761833e-02" cType="1" res="-7.9047024250030518e-02" rms="4.5588567852973938e-01" purity="3.5097479820251465e-01" nType="0">
          <Node pos="l" depth="2" NCoef="0" IVar="-1" Cut="0.0000000000000000e+00" cType="1" res="1.4418875798583031e-04" rms="4.6875873208045959e-01" purity="4.0610668063163757e-01" nType="-99"/>
          <Node pos="r" depth="2" NCoef="0" IVar="-1" Cut="0.0000000000000000e+00" cType="1" res="-2.0508775487542152e-03" rms="4.3729421496391296e-01" purity="3.1460127234458923e-01" nType="-99"/>
        </Node>
        <Node pos="r" depth="1" NCoef="0" IVar="2" Cut="1.8319946289062500e+02" cType="1" res="1.7720820382237434e-02" rms="4.5386418700218201e-01" purity="5.2393835783004761e-01" nType="0">
          <Node pos="l" depth="2" NCoef="0" IVar="-1" Cut="0.0000000000000000e+00" cType="1" res="-3.9944594027474523e-04" rms="4.6768999099731445e-01" purity="4.3408396840095520e-01" nType="-99"/>
          <Node pos="r" depth="2" NCoef="0" IVar="-1" Cut="0.0000000000000000e+00" cType="1" res="5.0776347052305937e-04" rms="4.4634243845939636e-01" purity="5.6175649166107178e-01" nType="-99"/>
        </Node>
      </Node>
    </BinaryTree>
    <BinaryTree type="DecisionTree" boostWeight="1.0000000000000000e+00" itree="576">
      <Node pos="s" depth="0" NCoef="0" IVar="2" Cut="3.0149725341796875e+02" cType="1" res="5.1363446982577443e-04" rms="4.5432338118553162e-01" purity="4.9072325229644775e-01" nType="0">
        <Node pos="l" depth="1" NCoef="0" IVar="0" Cut="5.0180315971374512e+00" cType="1" res="1.4310530386865139e-02" rms="4.5874375104904175e-01" purity="5.1487958431243896e-01" nType="0">
          <Node pos="l" depth="2" NCoef="0" IVar="-1" Cut="0.0000000000000000e+00" cType="1" res="-2.2096957545727491e-03" rms="3.4071680903434753e-01" purity="1.3442975282669067e-01" nType="-99"/>
          <Node pos="r" depth="2" NCoef="0" IVar="-1" Cut="0.0000000000000000e+00" cType="1" res="3.2788942917250097e-04" rms="4.6698832511901855e-01" purity="5.5212092399597168e-01" nType="-99"/>
        </Node>
        <Node pos="r" depth="1" NCoef="0" IVar="1" Cut="1.0526543855667114e+00" cType="1" res="-6.3834123313426971e-02" rms="4.2726713418960571e-01" purity="3.7806016206741333e-01" nType="0">
          <Node pos="l" depth="2" NCoef="0" IVar="-1" Cut="0.0000000000000000e+00" cType="1" res="3.4161334042437375e-04" rms="4.7356230020523071e-01" purity="6.5587723255157471e-01" nType="-99"/>
          <Node pos="r" depth="2" NCoef="0" IVar="-1" Cut="0.0000000000000000e+00" cType="1" res="-1.9917031750082970e-03" rms="3.9484292268753052e-01" purity="2.4078293144702911e-01" nType="-99"/>
        </Node>
      </Node>
    </BinaryTree>
    <BinaryTree type="DecisionTree" boostWeight="1.0000000000000000e+00" itree="577">
      <Node pos="s" depth="0" NCoef="0" IVar="2" Cut="1.8357952880859375e+02" cType="1" res="2.2983316332101822e-02" rms="4.4775059819221497e-01" purity="5.1556408405303955e-01" nType="0">
        <Node pos="l" depth="1" NCoef="0" IVar="3" Cut="5.9068805694580078e+01" cType="1" res="-2.4923382326960564e-02" rms="4.6056005358695984e-01" purity="4.3336096405982971e-01" nType="0">
          <Node pos="l" depth="2" NCoef="0" IVar="-1" Cut="0.0000000000000000e+00" cType="1" res="2.0776058954652399e-04" rms="4.6632161736488342e-01" purity="4.7007763385772705e-01" nType="-99"/>
          <Node pos="r" depth="2" NCoef="0" IVar="-1" Cut="0.0000000000000000e+00" cType="1" res="-1.0947133414447308e-03" rms="4.4636741280555725e-01" purity="3.8290303945541382e-01" nType="-99"/>
        </Node>
        <Node pos="r" depth="1" NCoef="0" IVar="2" Cut="4.6667282104492188e+02" cType="1" res="4.9381185322999954e-02" rms="4.3830120563507080e-01" purity="5.6086015701293945e-01" nType="0">
          <Node pos="l" depth="2" NCoef="0" IVar="-1" Cut="0.0000000000000000e+00" cType="1" res="8.3223212277516723e-04" rms="4.3785685300827026e-01" purity="5.8967453241348267e-01" nType="-99"/>
          <Node pos="r" depth="2" NCoef="0" IVar="-1" Cut="0.0000000000000000e+00" cType="1" res="-2.1996328141540289e-03" rms="4.0772801637649536e-01" purity="2.4812313914299011e-01" nType="-99"/>
        </Node>
      </Node>
    </BinaryTree>
    <BinaryTree type="DecisionTree" boostWeight="1.0000000000000000e+00" itree="578">
      <Node pos="s" depth="0" NCoef="0" IVar="4" Cut="2.2246465086936951e-01" cType="1" res="-8.3980131894350052e-03" rms="4.4328284263610840e-01" purity="4.8287117481231689e-01" nType="0">
        <Node pos="l" depth="1" NCoef="0" IVar="2" Cut="2.0362554931640625e+02" cType="1" res="-2.0568579435348511e-02" rms="4.4128620624542236e-01" purity="4.6776419878005981e-01" nType="0">
          <Node pos="l" depth="2" NCoef="0" IVar="-1" Cut="0.0000000000000000e+00" cType="1" res="-8.1992946797981858e-04" rms="4.4530692696571350e-01" purity="4.0567842125892639e-01" nType="-99"/>
          <Node pos="r" depth="2" NCoef="0" IVar="-1" Cut="0.0000000000000000e+00" cType="1" res="1.3124181714374572e-04" rms="4.3580788373947144e-01" purity="5.1519054174423218e-01" nType="-99"/>
        </Node>
        <Node pos="r" depth="1" NCoef="0" IVar="-1" Cut="0.0000000000000000e+00" cType="1" res="1.7326254164800048e-03" rms="4.3769267201423645e-01" purity="6.8536645174026489e-01" nType="-99"/>
      </Node>
    </BinaryTree>
    <BinaryTree type="DecisionTree" boostWeight="1.0000000000000000e+00" itree="579">
      <Node pos="s" depth="0" NCoef="0" IVar="2" Cut="1.7675578308105469e+02" cType="1" res="2.7935993857681751e-03" rms="4.4831967353820801e-01" purity="4.9526935815811157e-01" nType="0">
        <Node pos="l" depth="1" NCoef="0" IVar="4" Cut="1.8712788820266724e-01" cType="1" res="-4.5259963721036911e-02" rms="4.5809590816497803e-01" purity="4.1853150725364685e-01" nType="0">
          <Node pos="l" depth="2" NCoef="0" IVar="-1" Cut="0.0000000000000000e+00" cType="1" res="-1.0006446391344070e-03" rms="4.4942718744277954e-01" purity="3.8635966181755066e-01" nType="-99"/>
          <Node pos="r" depth="2" NCoef="0" IVar="-1" Cut="0.0000000000000000e+00" cType="1" res="1.1592017253860831e-03" rms="4.7340583801269531e-01" purity="5.7409679889678955e-01" nType="-99"/>
        </Node>
        <Node pos="r" depth="1" NCoef="0" IVar="1" Cut="6.4715903997421265e-01" cType="1" res="2.5087323039770126e-02" rms="4.4194021821022034e-01" purity="5.3087073564529419e-01" nType="0">
          <Node pos="l" depth="2" NCoef="0" IVar="-1" Cut="0.0000000000000000e+00" cType="1" res="1.4543920988216996e-03" rms="3.9259821176528931e-01" purity="7.7425765991210938e-01" nType="-99"/>
          <Node pos="r" depth="2" NCoef="0" IVar="-1" Cut="0.0000000000000000e+00" cType="1" res="5.8839270877797389e-07" rms="4.5044118165969849e-01" purity="4.6797740459442139e-01" nType="-99"/>
        </Node>
      </Node>
    </BinaryTree>
    <BinaryTree type="DecisionTree" boostWeight="1.0000000000000000e+00" itree="580">
      <Node pos="s" depth="0" NCoef="0" IVar="1" Cut="1.7022836208343506e+00" cType="1" res="5.7313889265060425e-03" rms="4.5167902112007141e-01" purity="4.9386203289031982e-01" nType="0">
        <Node pos="l" depth="1" NCoef="0" IVar="2" Cut="1.5672227478027344e+02" cType="1" res="1.3003849424421787e-02" rms="4.5824790000915527e-01" purity="5.1612693071365356e-01" nType="0">
          <Node pos="l" depth="2" NCoef="0" IVar="-1" Cut="0.0000000000000000e+00" cType="1" res="-6.6718232119455934e-04" rms="4.5286047458648682e-01" purity="4.0358203649520874e-01" nType="-99"/>
          <Node pos="r" depth="2" NCoef="0" IVar="-1" Cut="0.0000000000000000e+00" cType="1" res="3.6771534360013902e-04" rms="4.5823922753334045e-01" purity="5.4410046339035034e-01" nType="-99"/>
        </Node>
        <Node pos="r" depth="1" NCoef="0" IVar="-1" Cut="0.0000000000000000e+00" cType="1" res="-3.0585334170609713e-03" rms="2.8914529085159302e-01" purity="1.0794521868228912e-01" nType="-99"/>
      </Node>
    </BinaryTree>
    <BinaryTree type="DecisionTree" boostWeight="1.0000000000000000e+00" itree="581">
      <Node pos="s" depth="0" NCoef="0" IVar="6" Cut="4.7488909912109375e+02" cType="1" res="1.0682174935936928e-02" rms="4.5262959599494934e-01" purity="5.0040304660797119e-01" nType="0">
        <Node pos="l" depth="1" NCoef="0" IVar="2" Cut="2.8370162963867188e+02" cType="1" res="-1.6866900026798248e-02" rms="4.5251670479774475e-01" purity="4.2393916845321655e-01" nType="0">
          <Node pos="l" depth="2" NCoef="0" IVar="-1" Cut="0.0000000000000000e+00" cType="1" res="-4.1179246181854978e-05" rms="4.6174159646034241e-01" purity="4.5510637760162354e-01" nType="-99"/>
          <Node pos="r" depth="2" NCoef="0" IVar="-1" Cut="0.0000000000000000e+00" cType="1" res="-2.6238660793751478e-03" rms="3.5009557008743286e-01" purity="1.7192292213439941e-01" nType="-99"/>
        </Node>
        <Node pos="r" depth="1" NCoef="0" IVar="2" Cut="1.7581796264648438e+02" cType="1" res="4.3385222554206848e-02" rms="4.5058232545852661e-01" purity="5.9117203950881958e-01" nType="0">
          <Node pos="l" depth="2" NCoef="0" IVar="-1" Cut="0.0000000000000000e+00" cType="1" res="-1.0094143217429519e-03" rms="4.8648479580879211e-01" purity="4.3416017293930054e-01" nType="-99"/>
          <Node pos="r" depth="2" NCoef="0" IVar="-1" Cut="0.0000000000000000e+00" cType="1" res="8.7954540504142642e-04" rms="4.3926393985748291e-01" purity="6.2194383144378662e-01" nType="-99"/>
        </Node>
      </Node>
    </BinaryTree>
    <BinaryTree type="DecisionTree" boostWeight="1.0000000000000000e+00" itree="582">
      <Node pos="s" depth="0" NCoef="0" IVar="0" Cut="7.0547242164611816e+00" cType="1" res="1.3868369860574603e-03" rms="4.5041736960411072e-01" purity="4.9772772192955017e-01" nType="0">
        <Node pos="l" depth="1" NCoef="0" IVar="6" Cut="4.2681127929687500e+02" cType="1" res="-2.3130230605602264e-02" rms="4.5354494452476501e-01" purity="3.6360901594161987e-01" nType="0">
          <Node pos="l" depth="2" NCoef="0" IVar="-1" Cut="0.0000000000000000e+00" cType="1" res="-1.0083422530442476e-03" rms="4.2448785901069641e-01" purity="2.6882320642471313e-01" nType="-99"/>
          <Node pos="r" depth="2" NCoef="0" IVar="-1" Cut="0.0000000000000000e+00" cType="1" res="1.9171903841197491e-04" rms="4.7450643777847290e-01" purity="4.4716748595237732e-01" nType="-99"/>
        </Node>
        <Node pos="r" depth="1" NCoef="0" IVar="7" Cut="-3.7527438253164291e-02" cType="1" res="3.6102257668972015e-02" rms="4.4363981485366821e-01" purity="6.8763571977615356e-01" nType="0">
          <Node pos="l" depth="2" NCoef="0" IVar="-1" Cut="0.0000000000000000e+00" cType="1" res="1.2968907831236720e-03" rms="3.8424289226531982e-01" purity="8.0278760194778442e-01" nType="-99"/>
          <Node pos="r" depth="2" NCoef="0" IVar="-1" Cut="0.0000000000000000e+00" cType="1" res="5.0601516704773530e-05" rms="4.6467640995979309e-01" purity="6.3515764474868774e-01" nType="-99"/>
        </Node>
      </Node>
    </BinaryTree>
    <BinaryTree type="DecisionTree" boostWeight="1.0000000000000000e+00" itree="583">
      <Node pos="s" depth="0" NCoef="0" IVar="0" Cut="4.8507637977600098e+00" cType="1" res="2.4834085255861282e-02" rms="4.5196509361267090e-01" purity="5.1992714405059814e-01" nType="0">
        <Node pos="l" depth="1" NCoef="0" IVar="-1" Cut="0.0000000000000000e+00" cType="1" res="-1.8720512744039297e-03" rms="3.1345054507255554e-01" purity="1.3487142324447632e-01" nType="-99"/>
        <Node pos="r" depth="1" NCoef="0" IVar="4" Cut="2.2573563456535339e-01" cType="1" res="3.1521186232566833e-02" rms="4.5822972059249878e-01" purity="5.4345637559890747e-01" nType="0">
          <Node pos="l" depth="2" NCoef="0" IVar="-1" Cut="0.0000000000000000e+00" cType="1" res="3.0715129105374217e-04" rms="4.5720267295837402e-01" purity="5.3126949071884155e-01" nType="-99"/>
          <Node pos="r" depth="2" NCoef="0" IVar="-1" Cut="0.0000000000000000e+00" cType="1" res="1.4827369013801217e-03" rms="4.5859169960021973e-01" purity="7.0701038837432861e-01" nType="-99"/>
        </Node>
      </Node>
    </BinaryTree>
    <BinaryTree type="DecisionTree" boostWeight="1.0000000000000000e+00" itree="584">
      <Node pos="s" depth="0" NCoef="0" IVar="3" Cut="9.2490379333496094e+01" cType="1" res="7.2651734808459878e-04" rms="4.4884860515594482e-01" purity="5.0202882289886475e-01" nType="0">
        <Node pos="l" depth="1" NCoef="0" IVar="2" Cut="1.1860668945312500e+02" cType="1" res="-3.2697342336177826e-02" rms="4.5035618543624878e-01" purity="4.4024664163589478e-01" nType="0">
          <Node pos="l" depth="2" NCoef="0" IVar="-1" Cut="0.0000000000000000e+00" cType="1" res="-2.6796120218932629e-03" rms="3.9964389801025391e-01" purity="2.6853936910629272e-01" nType="-99"/>
          <Node pos="r" depth="2" NCoef="0" IVar="-1" Cut="0.0000000000000000e+00" cType="1" res="-2.7210076223127544e-04" rms="4.5228147506713867e-01" purity="4.5513567328453064e-01" nType="-99"/>
        </Node>
        <Node pos="r" depth="1" NCoef="0" IVar="2" Cut="2.1532424926757812e+02" cType="1" res="6.8852744996547699e-02" rms="4.3793126940727234e-01" purity="6.2795644998550415e-01" nType="0">
          <Node pos="l" depth="2" NCoef="0" IVar="-1" Cut="0.0000000000000000e+00" cType="1" res="-5.3633115021511912e-04" rms="4.2590284347534180e-01" purity="5.2116805315017700e-01" nType="-99"/>
          <Node pos="r" depth="2" NCoef="0" IVar="-1" Cut="0.0000000000000000e+00" cType="1" res="1.2155582662671804e-03" rms="4.3673422932624817e-01" purity="6.5272855758666992e-01" nType="-99"/>
        </Node>
      </Node>
    </BinaryTree>
    <BinaryTree type="DecisionTree" boostWeight="1.0000000000000000e+00" itree="585">
      <Node pos="s" depth="0" NCoef="0" IVar="2" Cut="2.1765357971191406e+02" cType="1" res="8.9096726151183248e-04" rms="4.5365867018699646e-01" purity="4.9831354618072510e-01" nType="0">
        <Node pos="l" depth="1" NCoef="0" IVar="0" Cut="6.7862634658813477e+00" cType="1" res="-2.6163090020418167e-02" rms="4.5666369795799255e-01" purity="4.6515858173370361e-01" nType="0">
          <Node pos="l" depth="2" NCoef="0" IVar="-1" Cut="0.0000000000000000e+00" cType="1" res="-9.5021544257178903e-04" rms="4.4395947456359863e-01" purity="3.0361875891685486e-01" nType="-99"/>
          <Node pos="r" depth="2" NCoef="0" IVar="-1" Cut="0.0000000000000000e+00" cType="1" res="2.4127041979227215e-04" rms="4.6643096208572388e-01" purity="6.4881825447082520e-01" nType="-99"/>
        </Node>
        <Node pos="r" depth="1" NCoef="0" IVar="3" Cut="9.4872528076171875e+01" cType="1" res="3.0623959377408028e-02" rms="4.4845435023307800e-01" purity="5.3475159406661987e-01" nType="0">
          <Node pos="l" depth="2" NCoef="0" IVar="-1" Cut="0.0000000000000000e+00" cType="1" res="-8.2214908616151661e-05" rms="4.5866486430168152e-01" purity="4.7108668088912964e-01" nType="-99"/>
          <Node pos="r" depth="2" NCoef="0" IVar="-1" Cut="0.0000000000000000e+00" cType="1" res="8.7508541764691472e-04" rms="4.3586531281471252e-01" purity="5.9463781118392944e-01" nType="-99"/>
        </Node>
      </Node>
    </BinaryTree>
    <BinaryTree type="DecisionTree" boostWeight="1.0000000000000000e+00" itree="586">
      <Node pos="s" depth="0" NCoef="0" IVar="6" Cut="7.7318792724609375e+02" cType="1" res="1.5659945085644722e-02" rms="4.5207476615905762e-01" purity="5.1056236028671265e-01" nType="0">
        <Node pos="l" depth="1" NCoef="0" IVar="6" Cut="3.4321191406250000e+02" cType="1" res="5.1346989348530769e-03" rms="4.5380982756614685e-01" purity="4.9217095971107483e-01" nType="0">
          <Node pos="l" depth="2" NCoef="0" IVar="-1" Cut="0.0000000000000000e+00" cType="1" res="-1.0607272852212191e-03" rms="4.2591926455497742e-01" purity="3.0190438032150269e-01" nType="-99"/>
          <Node pos="r" depth="2" NCoef="0" IVar="-1" Cut="0.0000000000000000e+00" cType="1" res="2.3928261362016201e-04" rms="4.5731827616691589e-01" purity="5.2569073438644409e-01" nType="-99"/>
        </Node>
        <Node pos="r" depth="1" NCoef="0" IVar="-1" Cut="0.0000000000000000e+00" cType="1" res="1.4927565352991223e-03" rms="4.1826793551445007e-01" purity="7.0156872272491455e-01" nType="-99"/>
      </Node>
    </BinaryTree>
    <BinaryTree type="DecisionTree" boostWeight="1.0000000000000000e+00" itree="587">
      <Node pos="s" depth="0" NCoef="0" IVar="1" Cut="1.5925588607788086e+00" cType="1" res="2.7751424349844456e-03" rms="4.4931912422180176e-01" purity="4.9595639109611511e-01" nType="0">
        <Node pos="l" depth="1" NCoef="0" IVar="3" Cut="1.0078439331054688e+02" cType="1" res="1.1569117195904255e-02" rms="4.5934036374092102e-01" purity="5.3267824649810791e-01" nType="0">
          <Node pos="l" depth="2" NCoef="0" IVar="-1" Cut="0.0000000000000000e+00" cType="1" res="-1.2415804667398334e-04" rms="4.6264815330505371e-01" purity="4.8747241497039795e-01" nType="-99"/>
          <Node pos="r" depth="2" NCoef="0" IVar="-1" Cut="0.0000000000000000e+00" cType="1" res="8.8121328735724092e-04" rms="4.4436666369438171e-01" purity="6.6122418642044067e-01" nType="-99"/>
        </Node>
        <Node pos="r" depth="1" NCoef="0" IVar="-1" Cut="0.0000000000000000e+00" cType="1" res="-1.9175367197021842e-03" rms="3.2609632611274719e-01" purity="1.4252212643623352e-01" nType="-99"/>
      </Node>
    </BinaryTree>
    <BinaryTree type="DecisionTree" boostWeight="1.0000000000000000e+00" itree="588">
      <Node pos="s" depth="0" NCoef="0" IVar="0" Cut="8.5260524749755859e+00" cType="1" res="6.1848466284573078e-03" rms="4.5067858695983887e-01" purity="5.0285488367080688e-01" nType="0">
        <Node pos="l" depth="1" NCoef="0" IVar="3" Cut="1.0367720794677734e+02" cType="1" res="-5.9313126839697361e-03" rms="4.5692229270935059e-01" purity="4.6424281597137451e-01" nType="0">
          <Node pos="l" depth="2" NCoef="0" IVar="-1" Cut="0.0000000000000000e+00" cType="1" res="-3.0847149901092052e-04" rms="4.5696070790290833e-01" purity="4.3451544642448425e-01" nType="-99"/>
          <Node pos="r" depth="2" NCoef="0" IVar="-1" Cut="0.0000000000000000e+00" cType="1" res="5.7862815447151661e-04" rms="4.5319518446922302e-01" purity="5.5208343267440796e-01" nType="-99"/>
        </Node>
        <Node pos="r" depth="1" NCoef="0" IVar="-1" Cut="0.0000000000000000e+00" cType="1" res="1.1905920691788197e-03" rms="3.9022412896156311e-01" purity="7.8750538825988770e-01" nType="-99"/>
      </Node>
    </BinaryTree>
    <BinaryTree type="DecisionTree" boostWeight="1.0000000000000000e+00" itree="589">
      <Node pos="s" depth="0" NCoef="0" IVar="0" Cut="8.7495622634887695e+00" cType="1" res="-1.1922742240130901e-02" rms="4.4985249638557434e-01" purity="4.7883158922195435e-01" nType="0">
        <Node pos="l" depth="1" NCoef="0" IVar="4" Cut="6.4214713871479034e-02" cType="1" res="-2.2364832460880280e-02" rms="4.5323824882507324e-01" purity="4.4890034198760986e-01" nType="0">
          <Node pos="l" depth="2" NCoef="0" IVar="-1" Cut="0.0000000000000000e+00" cType="1" res="-6.5069406991824508e-04" rms="4.4273021817207336e-01" purity="4.0326276421546936e-01" nType="-99"/>
          <Node pos="r" depth="2" NCoef="0" IVar="-1" Cut="0.0000000000000000e+00" cType="1" res="2.4801780818961561e-04" rms="4.6871668100357056e-01" purity="5.3130787611007690e-01" nType="-99"/>
        </Node>
        <Node pos="r" depth="1" NCoef="0" IVar="-1" Cut="0.0000000000000000e+00" cType="1" res="1.1535906232893467e-03" rms="4.0081945061683655e-01" purity="7.7331775426864624e-01" nType="-99"/>
      </Node>
    </BinaryTree>
    <BinaryTree type="DecisionTree" boostWeight="1.0000000000000000e+00" itree="590">
      <Node pos="s" depth="0" NCoef="0" IVar="1" Cut="4.4191971421241760e-01" cType="1" res="2.6472392491996288e-03" rms="4.5124647021293640e-01" purity="4.9545121192932129e-01" nType="0">
        <Node pos="l" depth="1" NCoef="0" IVar="-1" Cut="0.0000000000000000e+00" cType="1" res="1.0865053627640009e-03" rms="4.1794580221176147e-01" purity="6.8380683660507202e-01" nType="-99"/>
        <Node pos="r" depth="1" NCoef="0" IVar="3" Cut="4.1509334564208984e+01" cType="1" res="-6.8081188946962357e-03" rms="4.5353013277053833e-01" purity="4.7583681344985962e-01" nType="0">
          <Node pos="l" depth="2" NCoef="0" IVar="-1" Cut="0.0000000000000000e+00" cType="1" res="-1.1490713804960251e-03" rms="4.3095827102661133e-01" purity="3.7045133113861084e-01" nType="-99"/>
          <Node pos="r" depth="2" NCoef="0" IVar="-1" Cut="0.0000000000000000e+00" cType="1" res="2.6544246793491766e-05" rms="4.5547327399253845e-01" purity="4.8885491490364075e-01" nType="-99"/>
        </Node>
      </Node>
    </BinaryTree>
    <BinaryTree type="DecisionTree" boostWeight="1.0000000000000000e+00" itree="591">
      <Node pos="s" depth="0" NCoef="0" IVar="6" Cut="7.0141198730468750e+02" cType="1" res="1.4384982176125050e-02" rms="4.4627892971038818e-01" purity="5.0972700119018555e-01" nType="0">
        <Node pos="l" depth="1" NCoef="0" IVar="1" Cut="1.1555961370468140e+00" cType="1" res="2.4536023847758770e-03" rms="4.4544345140457153e-01" purity="4.8772257566452026e-01" nType="0">
          <Node pos="l" depth="2" NCoef="0" IVar="-1" Cut="0.0000000000000000e+00" cType="1" res="3.4657752257771790e-04" rms="4.5258417725563049e-01" purity="5.7468944787979126e-01" nType="-99"/>
          <Node pos="r" depth="2" NCoef="0" IVar="-1" Cut="0.0000000000000000e+00" cType="1" res="-1.0039948392659426e-03" rms="4.2131727933883667e-01" purity="2.7786138653755188e-01" nType="-99"/>
        </Node>
        <Node pos="r" depth="1" NCoef="0" IVar="7" Cut="4.5427206903696060e-02" cType="1" res="1.0112382471561432e-01" rms="4.4274419546127319e-01" purity="6.6969513893127441e-01" nType="0">
          <Node pos="l" depth="2" NCoef="0" IVar="-1" Cut="0.0000000000000000e+00" cType="1" res="3.4548604162409902e-04" rms="4.4500905275344849e-01" purity="6.3261729478836060e-01" nType="-99"/>
          <Node pos="r" depth="2" NCoef="0" IVar="-1" Cut="0.0000000000000000e+00" cType="1" res="2.0463236141949892e-03" rms="4.2659512162208557e-01" purity="7.0862901210784912e-01" nType="-99"/>
        </Node>
      </Node>
    </BinaryTree>
    <BinaryTree type="DecisionTree" boostWeight="1.0000000000000000e+00" itree="592">
      <Node pos="s" depth="0" NCoef="0" IVar="2" Cut="3.1790335083007812e+02" cType="1" res="9.2161661013960838e-03" rms="4.5432901382446289e-01" purity="5.0002872943878174e-01" nType="0">
        <Node pos="l" depth="1" NCoef="0" IVar="2" Cut="1.9641668701171875e+02" cType="1" res="2.5149470195174217e-02" rms="4.5578277111053467e-01" purity="5.2359139919281006e-01" nType="0">
          <Node pos="l" depth="2" NCoef="0" IVar="-1" Cut="0.0000000000000000e+00" cType="1" res="-1.8191622802987695e-04" rms="4.5861452817916870e-01" purity="4.4539275765419006e-01" nType="-99"/>
          <Node pos="r" depth="2" NCoef="0" IVar="-1" Cut="0.0000000000000000e+00" cType="1" res="8.4230047650635242e-04" rms="4.4926396012306213e-01" purity="6.0480338335037231e-01" nType="-99"/>
        </Node>
        <Node pos="r" depth="1" NCoef="0" IVar="5" Cut="6.3763570785522461e-01" cType="1" res="-6.8104483187198639e-02" rms="4.3907162547111511e-01" purity="3.8568443059921265e-01" nType="0">
          <Node pos="l" depth="2" NCoef="0" IVar="-1" Cut="0.0000000000000000e+00" cType="1" res="1.7026250134222209e-04" rms="4.6591576933860779e-01" purity="5.4497307538986206e-01" nType="-99"/>
          <Node pos="r" depth="2" NCoef="0" IVar="-1" Cut="0.0000000000000000e+00" cType="1" res="-1.9257883541285992e-03" rms="4.1831180453300476e-01" purity="3.0283421277999878e-01" nType="-99"/>
        </Node>
      </Node>
    </BinaryTree>
    <BinaryTree type="DecisionTree" boostWeight="1.0000000000000000e+00" itree="593">
      <Node pos="s" depth="0" NCoef="0" IVar="3" Cut="1.5004611206054688e+02" cType="1" res="2.4988375604152679e-02" rms="4.5489701628684998e-01" purity="5.1607781648635864e-01" nType="0">
        <Node pos="l" depth="1" NCoef="0" IVar="6" Cut="3.1542971801757812e+02" cType="1" res="1.4378457330167294e-02" rms="4.5726326107978821e-01" purity="5.0205856561660767e-01" nType="0">
          <Node pos="l" depth="2" NCoef="0" IVar="-1" Cut="0.0000000000000000e+00" cType="1" res="-1.5353187918663025e-03" rms="4.0453383326530457e-01" purity="2.4466058611869812e-01" nType="-99"/>
          <Node pos="r" depth="2" NCoef="0" IVar="-1" Cut="0.0000000000000000e+00" cType="1" res="2.9719539452344179e-04" rms="4.6013006567955017e-01" purity="5.2210468053817749e-01" nType="-99"/>
        </Node>
        <Node pos="r" depth="1" NCoef="0" IVar="-1" Cut="0.0000000000000000e+00" cType="1" res="2.2558758500963449e-03" rms="3.8151353597640991e-01" purity="7.3126119375228882e-01" nType="-99"/>
      </Node>
    </BinaryTree>
    <BinaryTree type="DecisionTree" boostWeight="1.0000000000000000e+00" itree="594">
      <Node pos="s" depth="0" NCoef="0" IVar="0" Cut="7.6344795227050781e+00" cType="1" res="3.9640683680772781e-03" rms="4.4665560126304626e-01" purity="4.9366530776023865e-01" nType="0">
        <Node pos="l" depth="1" NCoef="0" IVar="3" Cut="5.0817543029785156e+01" cType="1" res="-1.6255229711532593e-02" rms="4.5291173458099365e-01" purity="4.0857344865798950e-01" nType="0">
          <Node pos="l" depth="2" NCoef="0" IVar="-1" Cut="0.0000000000000000e+00" cType="1" res="-9.8342238925397396e-04" rms="4.2746815085411072e-01" purity="3.2695722579956055e-01" nType="-99"/>
          <Node pos="r" depth="2" NCoef="0" IVar="-1" Cut="0.0000000000000000e+00" cType="1" res="-1.9625204004114494e-05" rms="4.5927470922470093e-01" purity="4.3317371606826782e-01" nType="-99"/>
        </Node>
        <Node pos="r" depth="1" NCoef="0" IVar="6" Cut="5.0321728515625000e+02" cType="1" res="6.0839198529720306e-02" rms="4.2342165112495422e-01" purity="7.3302137851715088e-01" nType="0">
          <Node pos="l" depth="2" NCoef="0" IVar="-1" Cut="0.0000000000000000e+00" cType="1" res="1.1372861918061972e-03" rms="4.1313844919204712e-01" purity="7.4549895524978638e-01" nType="-99"/>
          <Node pos="r" depth="2" NCoef="0" IVar="-1" Cut="0.0000000000000000e+00" cType="1" res="7.6418560638558120e-05" rms="4.3373072147369385e-01" purity="7.1304440498352051e-01" nType="-99"/>
        </Node>
      </Node>
    </BinaryTree>
    <BinaryTree type="DecisionTree" boostWeight="1.0000000000000000e+00" itree="595">
      <Node pos="s" depth="0" NCoef="0" IVar="2" Cut="1.6346498107910156e+02" cType="1" res="9.4572948291897774e-03" rms="4.5306864380836487e-01" purity="5.0530517101287842e-01" nType="0">
        <Node pos="l" depth="1" NCoef="0" IVar="2" Cut="1.3191604614257812e+02" cType="1" res="-5.8930426836013794e-02" rms="4.4921797513961792e-01" purity="3.9372020959854126e-01" nType="0">
          <Node pos="l" depth="2" NCoef="0" IVar="-1" Cut="0.0000000000000000e+00" cType="1" res="-2.0881656091660261e-03" rms="4.3236005306243896e-01" purity="3.0449950695037842e-01" nType="-99"/>
          <Node pos="r" depth="2" NCoef="0" IVar="-1" Cut="0.0000000000000000e+00" cType="1" res="-2.0606128964573145e-04" rms="4.5189458131790161e-01" purity="4.4103929400444031e-01" nType="-99"/>
        </Node>
        <Node pos="r" depth="1" NCoef="0" IVar="1" Cut="6.4981210231781006e-01" cType="1" res="3.0928526073694229e-02" rms="4.5214226841926575e-01" purity="5.4033875465393066e-01" nType="0">
          <Node pos="l" depth="2" NCoef="0" IVar="-1" Cut="0.0000000000000000e+00" cType="1" res="1.1128881014883518e-03" rms="4.3304738402366638e-01" purity="7.2868341207504272e-01" nType="-99"/>
          <Node pos="r" depth="2" NCoef="0" IVar="-1" Cut="0.0000000000000000e+00" cType="1" res="1.7899512022268027e-04" rms="4.5580488443374634e-01" purity="4.8711606860160828e-01" nType="-99"/>
        </Node>
      </Node>
    </BinaryTree>
    <BinaryTree type="DecisionTree" boostWeight="1.0000000000000000e+00" itree="596">
      <Node pos="s" depth="0" NCoef="0" IVar="2" Cut="1.2994856262207031e+02" cType="1" res="-1.3181653805077076e-02" rms="4.5129629969596863e-01" purity="4.8419964313507080e-01" nType="0">
        <Node pos="l" depth="1" NCoef="0" IVar="-1" Cut="0.0000000000000000e+00" cType="1" res="-1.7103514401242137e-03" rms="4.3307942152023315e-01" purity="3.3670693635940552e-01" nType="-99"/>
        <Node pos="r" depth="1" NCoef="0" IVar="1" Cut="1.3681998252868652e+00" cType="1" res="-3.4405929036438465e-03" rms="4.5166724920272827e-01" purity="4.9765625596046448e-01" nType="0">
          <Node pos="l" depth="2" NCoef="0" IVar="-1" Cut="0.0000000000000000e+00" cType="1" res="1.2675026664510369e-04" rms="4.6511310338973999e-01" purity="5.5842268466949463e-01" nType="-99"/>
          <Node pos="r" depth="2" NCoef="0" IVar="-1" Cut="0.0000000000000000e+00" cType="1" res="-1.2410307535901666e-03" rms="3.7872496247291565e-01" purity="2.2187472879886627e-01" nType="-99"/>
        </Node>
      </Node>
    </BinaryTree>
    <BinaryTree type="DecisionTree" boostWeight="1.0000000000000000e+00" itree="597">
      <Node pos="s" depth="0" NCoef="0" IVar="6" Cut="4.8522341918945312e+02" cType="1" res="8.6301704868674278e-03" rms="4.5139524340629578e-01" purity="5.0376981496810913e-01" nType="0">
        <Node pos="l" depth="1" NCoef="0" IVar="6" Cut="3.1427639770507812e+02" cType="1" res="3.3970966935157776e-02" rms="4.5260792970657349e-01" purity="4.8858788609504700e-01" nType="0">
          <Node pos="l" depth="2" NCoef="0" IVar="-1" Cut="0.0000000000000000e+00" cType="1" res="-1.5296587953343987e-03" rms="3.9004138112068176e-01" purity="2.5635477900505066e-01" nType="-99"/>
          <Node pos="r" depth="2" NCoef="0" IVar="-1" Cut="0.0000000000000000e+00" cType="1" res="6.6865031840279698e-04" rms="4.5738914608955383e-01" purity="5.1835036277770996e-01" nType="-99"/>
        </Node>
        <Node pos="r" depth="1" NCoef="0" IVar="0" Cut="6.5444941520690918e+00" cType="1" res="-2.7824118733406067e-02" rms="4.4713303446769714e-01" purity="5.2561002969741821e-01" nType="0">
          <Node pos="l" depth="2" NCoef="0" IVar="-1" Cut="0.0000000000000000e+00" cType="1" res="-1.1954791843891144e-03" rms="4.4434103369712830e-01" purity="3.3213409781455994e-01" nType="-99"/>
          <Node pos="r" depth="2" NCoef="0" IVar="-1" Cut="0.0000000000000000e+00" cType="1" res="1.6687599418219179e-04" rms="4.4446983933448792e-01" purity="6.5629649162292480e-01" nType="-99"/>
        </Node>
      </Node>
    </BinaryTree>
    <BinaryTree type="DecisionTree" boostWeight="1.0000000000000000e+00" itree="598">
      <Node pos="s" depth="0" NCoef="0" IVar="3" Cut="3.5309761047363281e+01" cType="1" res="1.4747161418199539e-02" rms="4.5114880800247192e-01" purity="5.0598239898681641e-01" nType="0">
        <Node pos="l" depth="1" NCoef="0" IVar="-1" Cut="0.0000000000000000e+00" cType="1" res="-1.7823007656261325e-03" rms="4.0206506848335266e-01" purity="2.9718899726867676e-01" nType="-99"/>
        <Node pos="r" depth="1" NCoef="0" IVar="1" Cut="1.6456961631774902e+00" cType="1" res="2.3493615910410881e-02" rms="4.5293354988098145e-01" purity="5.2006375789642334e-01" nType="0">
          <Node pos="l" depth="2" NCoef="0" IVar="-1" Cut="0.0000000000000000e+00" cType="1" res="4.1088022408075631e-04" rms="4.6172687411308289e-01" purity="5.5105966329574585e-01" nType="-99"/>
          <Node pos="r" depth="2" NCoef="0" IVar="-1" Cut="0.0000000000000000e+00" cType="1" res="-2.1187921520322561e-03" rms="2.9997038841247559e-01" purity="1.3020975887775421e-01" nType="-99"/>
        </Node>
      </Node>
    </BinaryTree>
    <BinaryTree type="DecisionTree" boostWeight="1.0000000000000000e+00" itree="599">
      <Node pos="s" depth="0" NCoef="0" IVar="0" Cut="5.3748230934143066e+00" cType="1" res="6.8085542879998684e-03" rms="4.4720926880836487e-01" purity="5.0049567222595215e-01" nType="0">
        <Node pos="l" depth="1" NCoef="0" IVar="2" Cut="1.9506741333007812e+02" cType="1" res="-7.7380225062370300e-02" rms="3.8223367929458618e-01" purity="1.9680789113044739e-01" nType="0">
          <Node pos="l" depth="2" NCoef="0" IVar="-1" Cut="0.0000000000000000e+00" cType="1" res="-2.9582732822746038e-03" rms="3.0952158570289612e-01" purity="1.0289561748504639e-01" nType="-99"/>
          <Node pos="r" depth="2" NCoef="0" IVar="-1" Cut="0.0000000000000000e+00" cType="1" res="-8.8216038420796394e-06" rms="4.2871832847595215e-01" purity="2.8941014409065247e-01" nType="-99"/>
        </Node>
        <Node pos="r" depth="1" NCoef="0" IVar="0" Cut="9.1274366378784180e+00" cType="1" res="2.3277260363101959e-02" rms="4.5703488588333130e-01" purity="5.5990195274353027e-01" nType="0">
          <Node pos="l" depth="2" NCoef="0" IVar="-1" Cut="0.0000000000000000e+00" cType="1" res="1.8487668421585113e-04" rms="4.6304965019226074e-01" purity="5.3609508275985718e-01" nType="-99"/>
          <Node pos="r" depth="2" NCoef="0" IVar="-1" Cut="0.0000000000000000e+00" cType="1" res="1.5109181404113770e-03" rms="3.7040159106254578e-01" purity="8.2370126247406006e-01" nType="-99"/>
        </Node>
      </Node>
    </BinaryTree>
    <BinaryTree type="DecisionTree" boostWeight="1.0000000000000000e+00" itree="600">
      <Node pos="s" depth="0" NCoef="0" IVar="4" Cut="1.9948384165763855e-01" cType="1" res="-1.5857251128181815e-03" rms="4.5311933755874634e-01" purity="4.9221515655517578e-01" nType="0">
        <Node pos="l" depth="1" NCoef="0" IVar="6" Cut="7.0821185302734375e+02" cType="1" res="-1.0680239647626877e-02" rms="4.5072239637374878e-01" purity="4.7771501541137695e-01" nType="0">
          <Node pos="l" depth="2" NCoef="0" IVar="-1" Cut="0.0000000000000000e+00" cType="1" res="-2.5910517433658242e-04" rms="4.5009264349937439e-01" purity="4.5806500315666199e-01" nType="-99"/>
          <Node pos="r" depth="2" NCoef="0" IVar="-1" Cut="0.0000000000000000e+00" cType="1" res="6.8939966149628162e-04" rms="4.5076912641525269e-01" purity="6.3280588388442993e-01" nType="-99"/>
        </Node>
        <Node pos="r" depth="1" NCoef="0" IVar="6" Cut="4.5049029541015625e+02" cType="1" res="7.1100123226642609e-02" rms="4.6549731492996216e-01" purity="6.0810399055480957e-01" nType="0">
          <Node pos="l" depth="2" NCoef="0" IVar="-1" Cut="0.0000000000000000e+00" cType="1" res="1.3040946796536446e-03" rms="4.5659321546554565e-01" purity="6.0213905572891235e-01" nType="-99"/>
          <Node pos="r" depth="2" NCoef="0" IVar="-1" Cut="0.0000000000000000e+00" cType="1" res="3.5790554829873145e-04" rms="4.7157701849937439e-01" purity="6.1476868391036987e-01" nType="-99"/>
        </Node>
      </Node>
    </BinaryTree>
    <BinaryTree type="DecisionTree" boostWeight="1.0000000000000000e+00" itree="601">
      <Node pos="s" depth="0" NCoef="0" IVar="2" Cut="2.1044929504394531e+02" cType="1" res="2.2974533494561911e-03" rms="4.5285317301750183e-01" purity="4.9485194683074951e-01" nType="0">
        <Node pos="l" depth="1" NCoef="0" IVar="6" Cut="4.6830361938476562e+02" cType="1" res="-3.1524863094091415e-02" rms="4.6488794684410095e-01" purity="4.4823122024536133e-01" nType="0">
          <Node pos="l" depth="2" NCoef="0" IVar="-1" Cut="0.0000000000000000e+00" cType="1" res="3.4840606531361118e-05" rms="4.5551767945289612e-01" purity="4.5864659547805786e-01" nType="-99"/>
          <Node pos="r" depth="2" NCoef="0" IVar="-1" Cut="0.0000000000000000e+00" cType="1" res="-1.5402950812131166e-03" rms="4.7710523009300232e-01" purity="4.2105221748352051e-01" nType="-99"/>
        </Node>
        <Node pos="r" depth="1" NCoef="0" IVar="1" Cut="1.0702981948852539e+00" cType="1" res="3.7451907992362976e-02" rms="4.3723142147064209e-01" purity="5.4330891370773315e-01" nType="0">
          <Node pos="l" depth="2" NCoef="0" IVar="-1" Cut="0.0000000000000000e+00" cType="1" res="9.1161573072895408e-04" rms="4.3400201201438904e-01" purity="7.1929132938385010e-01" nType="-99"/>
          <Node pos="r" depth="2" NCoef="0" IVar="-1" Cut="0.0000000000000000e+00" cType="1" res="4.7120665840338916e-06" rms="4.3738955259323120e-01" purity="3.6373606324195862e-01" nType="-99"/>
        </Node>
      </Node>
    </BinaryTree>
    <BinaryTree type="DecisionTree" boostWeight="1.0000000000000000e+00" itree="602">
      <Node pos="s" depth="0" NCoef="0" IVar="1" Cut="1.3709684610366821e+00" cType="1" res="4.7619864344596863e-03" rms="4.4602087140083313e-01" purity="5.0139474868774414e-01" nType="0">
        <Node pos="l" depth="1" NCoef="0" IVar="3" Cut="1.2036439514160156e+02" cType="1" res="1.9845819100737572e-02" rms="4.5621261000633240e-01" purity="5.5993980169296265e-01" nType="0">
          <Node pos="l" depth="2" NCoef="0" IVar="-1" Cut="0.0000000000000000e+00" cType="1" res="7.5108335295226425e-05" rms="4.6089178323745728e-01" purity="5.3397649526596069e-01" nType="-99"/>
          <Node pos="r" depth="2" NCoef="0" IVar="-1" Cut="0.0000000000000000e+00" cType="1" res="1.3451568083837628e-03" rms="4.1264384984970093e-01" purity="7.3060381412506104e-01" nType="-99"/>
        </Node>
        <Node pos="r" depth="1" NCoef="0" IVar="4" Cut="-7.9696342349052429e-02" cType="1" res="-7.0476792752742767e-02" rms="3.8245555758476257e-01" purity="2.0936948060989380e-01" nType="0">
          <Node pos="l" depth="2" NCoef="0" IVar="-1" Cut="0.0000000000000000e+00" cType="1" res="-2.8218072839081287e-03" rms="3.2611671090126038e-01" purity="1.3467651605606079e-01" nType="-99"/>
          <Node pos="r" depth="2" NCoef="0" IVar="-1" Cut="0.0000000000000000e+00" cType="1" res="-3.1081051565706730e-04" rms="4.2149281501770020e-01" purity="2.7900475263595581e-01" nType="-99"/>
        </Node>
      </Node>
    </BinaryTree>
    <BinaryTree type="DecisionTree" boostWeight="1.0000000000000000e+00" itree="603">
      <Node pos="s" depth="0" NCoef="0" IVar="2" Cut="1.3174163818359375e+02" cType="1" res="1.5284047462046146e-02" rms="4.5312198996543884e-01" purity="5.0206398963928223e-01" nType="0">
        <Node pos="l" depth="1" NCoef="0" IVar="-1" Cut="0.0000000000000000e+00" cType="1" res="-1.1577282566577196e-03" rms="4.2951303720474243e-01" purity="3.6192432045936584e-01" nType="-99"/>
        <Node pos="r" depth="1" NCoef="0" IVar="4" Cut="1.7117241024971008e-01" cType="1" res="2.4789825081825256e-02" rms="4.5416986942291260e-01" purity="5.1543456315994263e-01" nType="0">
          <Node pos="l" depth="2" NCoef="0" IVar="-1" Cut="0.0000000000000000e+00" cType="1" res="1.7129618208855391e-04" rms="4.5434036850929260e-01" purity="4.9344828724861145e-01" nType="-99"/>
          <Node pos="r" depth="2" NCoef="0" IVar="-1" Cut="0.0000000000000000e+00" cType="1" res="1.2081109452992678e-03" rms="4.4570595026016235e-01" purity="6.5349113941192627e-01" nType="-99"/>
        </Node>
      </Node>
    </BinaryTree>
    <BinaryTree type="DecisionTree" boostWeight="1.0000000000000000e+00" itree="604">
      <Node pos="s" depth="0" NCoef="0" IVar="6" Cut="6.7359674072265625e+02" cType="1" res="1.0457007214426994e-02" rms="4.5231139659881592e-01" purity="4.9724563956260681e-01" nType="0">
        <Node pos="l" depth="1" NCoef="0" IVar="2" Cut="2.7399108886718750e+02" cType="1" res="-1.2987562222406268e-03" rms="4.5137768983840942e-01" purity="4.7349578142166138e-01" nType="0">
          <Node pos="l" depth="2" NCoef="0" IVar="-1" Cut="0.0000000000000000e+00" cType="1" res="2.2329900821205229e-04" rms="4.5956969261169434e-01" purity="5.0450181961059570e-01" nType="-99"/>
          <Node pos="r" depth="2" NCoef="0" IVar="-1" Cut="0.0000000000000000e+00" cType="1" res="-1.3605917338281870e-03" rms="4.0561065077781677e-01" purity="3.4177970886230469e-01" nType="-99"/>
        </Node>
        <Node pos="r" depth="1" NCoef="0" IVar="5" Cut="6.0589593648910522e-01" cType="1" res="8.1945374608039856e-02" rms="4.5140406489372253e-01" purity="6.4167165756225586e-01" nType="0">
          <Node pos="l" depth="2" NCoef="0" IVar="-1" Cut="0.0000000000000000e+00" cType="1" res="1.6305599128827453e-03" rms="4.1549161076545715e-01" purity="7.4634557962417603e-01" nType="-99"/>
          <Node pos="r" depth="2" NCoef="0" IVar="-1" Cut="0.0000000000000000e+00" cType="1" res="3.7228359724394977e-04" rms="4.7652870416641235e-01" purity="5.4279363155364990e-01" nType="-99"/>
        </Node>
      </Node>
    </BinaryTree>
    <BinaryTree type="DecisionTree" boostWeight="1.0000000000000000e+00" itree="605">
      <Node pos="s" depth="0" NCoef="0" IVar="0" Cut="4.8313832283020020e+00" cType="1" res="9.7708627581596375e-03" rms="4.5131424069404602e-01" purity="4.9833354353904724e-01" nType="0">
        <Node pos="l" depth="1" NCoef="0" IVar="-1" Cut="0.0000000000000000e+00" cType="1" res="-1.9206000724807382e-03" rms="3.3805459737777710e-01" purity="1.4109405875205994e-01" nType="-99"/>
        <Node pos="r" depth="1" NCoef="0" IVar="2" Cut="3.6553775024414062e+02" cType="1" res="1.6999544575810432e-02" rms="4.5746129751205444e-01" purity="5.2379375696182251e-01" nType="0">
          <Node pos="l" depth="2" NCoef="0" IVar="-1" Cut="0.0000000000000000e+00" cType="1" res="3.2715726410970092e-04" rms="4.6111962199211121e-01" purity="5.4288089275360107e-01" nType="-99"/>
          <Node pos="r" depth="2" NCoef="0" IVar="-1" Cut="0.0000000000000000e+00" cType="1" res="-9.0962357353419065e-04" rms="4.1778966784477234e-01" purity="3.6031901836395264e-01" nType="-99"/>
        </Node>
      </Node>
    </BinaryTree>
    <BinaryTree type="DecisionTree" boostWeight="1.0000000000000000e+00" itree="606">
      <Node pos="s" depth="0" NCoef="0" IVar="0" Cut="7.4540228843688965e+00" cType="1" res="4.4348492519930005e-04" rms="4.4867640733718872e-01" purity="4.9376583099365234e-01" nType="0">
        <Node pos="l" depth="1" NCoef="0" IVar="2" Cut="1.3608456420898438e+02" cType="1" res="-2.0661994814872742e-02" rms="4.5134904980659485e-01" purity="3.9501664042472839e-01" nType="0">
          <Node pos="l" depth="2" NCoef="0" IVar="-1" Cut="0.0000000000000000e+00" cType="1" res="-2.8031570836901665e-03" rms="3.7512609362602234e-01" purity="1.9985684752464294e-01" nType="-99"/>
          <Node pos="r" depth="2" NCoef="0" IVar="-1" Cut="0.0000000000000000e+00" cType="1" res="-7.1308968472294509e-05" rms="4.5544329285621643e-01" purity="4.1464942693710327e-01" nType="-99"/>
        </Node>
        <Node pos="r" depth="1" NCoef="0" IVar="1" Cut="1.2824494838714600e+00" cType="1" res="4.8398751765489578e-02" rms="4.3878591060638428e-01" purity="7.1814101934432983e-01" nType="0">
          <Node pos="l" depth="2" NCoef="0" IVar="-1" Cut="0.0000000000000000e+00" cType="1" res="3.1723553547635674e-04" rms="4.2667332291603088e-01" purity="7.4219334125518799e-01" nType="-99"/>
          <Node pos="r" depth="2" NCoef="0" IVar="-1" Cut="0.0000000000000000e+00" cType="1" res="1.8511044327169657e-03" rms="4.7509288787841797e-01" purity="6.0975325107574463e-01" nType="-99"/>
        </Node>
      </Node>
    </BinaryTree>
    <BinaryTree type="DecisionTree" boostWeight="1.0000000000000000e+00" itree="607">
      <Node pos="s" depth="0" NCoef="0" IVar="3" Cut="1.0660724639892578e+02" cType="1" res="1.1049702763557434e-02" rms="4.4389867782592773e-01" purity="5.1091915369033813e-01" nType="0">
        <Node pos="l" depth="1" NCoef="0" IVar="4" Cut="-2.8649985790252686e-02" cType="1" res="-7.2082797996699810e-03" rms="4.4711253046989441e-01" purity="4.7435453534126282e-01" nType="0">
          <Node pos="l" depth="2" NCoef="0" IVar="-1" Cut="0.0000000000000000e+00" cType="1" res="-8.3894998533651233e-04" rms="4.2811897397041321e-01" purity="3.8937965035438538e-01" nType="-99"/>
          <Node pos="r" depth="2" NCoef="0" IVar="-1" Cut="0.0000000000000000e+00" cType="1" res="3.1894270796328783e-04" rms="4.5603081583976746e-01" purity="5.2887552976608276e-01" nType="-99"/>
        </Node>
        <Node pos="r" depth="1" NCoef="0" IVar="1" Cut="9.0258830785751343e-01" cType="1" res="7.3946453630924225e-02" rms="4.2670476436614990e-01" purity="6.3688039779663086e-01" nType="0">
          <Node pos="l" depth="2" NCoef="0" IVar="-1" Cut="0.0000000000000000e+00" cType="1" res="1.6579523216933012e-03" rms="3.7211942672729492e-01" purity="8.1449109315872192e-01" nType="-99"/>
          <Node pos="r" depth="2" NCoef="0" IVar="-1" Cut="0.0000000000000000e+00" cType="1" res="3.2620842102915049e-04" rms="4.5996177196502686e-01" purity="4.9418926239013672e-01" nType="-99"/>
        </Node>
      </Node>
    </BinaryTree>
    <BinaryTree type="DecisionTree" boostWeight="1.0000000000000000e+00" itree="608">
      <Node pos="s" depth="0" NCoef="0" IVar="2" Cut="2.0379609680175781e+02" cType="1" res="1.3711555860936642e-02" rms="4.5058092474937439e-01" purity="5.0817966461181641e-01" nType="0">
        <Node pos="l" depth="1" NCoef="0" IVar="4" Cut="-6.6563740372657776e-02" cType="1" res="-2.6714639738202095e-02" rms="4.5759236812591553e-01" purity="4.4374749064445496e-01" nType="0">
          <Node pos="l" depth="2" NCoef="0" IVar="-1" Cut="0.0000000000000000e+00" cType="1" res="-1.8867906183004379e-03" rms="4.1485553979873657e-01" purity="3.1037250161170959e-01" nType="-99"/>
          <Node pos="r" depth="2" NCoef="0" IVar="-1" Cut="0.0000000000000000e+00" cType="1" res="4.1144274291582406e-05" rms="4.6529102325439453e-01" purity="4.8319777846336365e-01" nType="-99"/>
        </Node>
        <Node pos="r" depth="1" NCoef="0" IVar="3" Cut="6.8649963378906250e+01" cType="1" res="4.5822374522686005e-02" rms="4.4230768084526062e-01" purity="5.5935853719711304e-01" nType="0">
          <Node pos="l" depth="2" NCoef="0" IVar="-1" Cut="0.0000000000000000e+00" cType="1" res="-5.4863822879269719e-04" rms="4.4133916497230530e-01" purity="4.3751981854438782e-01" nType="-99"/>
          <Node pos="r" depth="2" NCoef="0" IVar="-1" Cut="0.0000000000000000e+00" cType="1" res="1.0085331741720438e-03" rms="4.3888759613037109e-01" purity="6.0303664207458496e-01" nType="-99"/>
        </Node>
      </Node>
    </BinaryTree>
    <BinaryTree type="DecisionTree" boostWeight="1.0000000000000000e+00" itree="609">
      <Node pos="s" depth="0" NCoef="0" IVar="2" Cut="3.1790335083007812e+02" cType="1" res="9.6620898693799973e-03" rms="4.5305472612380981e-01" purity="5.0894218683242798e-01" nType="0">
        <Node pos="l" depth="1" NCoef="0" IVar="3" Cut="3.9760841369628906e+01" cType="1" res="2.2624328732490540e-02" rms="4.5544898509979248e-01" purity="5.3079831600189209e-01" nType="0">
          <Node pos="l" depth="2" NCoef="0" IVar="-1" Cut="0.0000000000000000e+00" cType="1" res="-1.0791645618155599e-03" rms="4.2765679955482483e-01" purity="3.6928638815879822e-01" nType="-99"/>
          <Node pos="r" depth="2" NCoef="0" IVar="-1" Cut="0.0000000000000000e+00" cType="1" res="4.2666424997150898e-04" rms="4.5726922154426575e-01" purity="5.4938000440597534e-01" nType="-99"/>
        </Node>
        <Node pos="r" depth="1" NCoef="0" IVar="6" Cut="6.6497479248046875e+02" cType="1" res="-6.4207836985588074e-02" rms="4.3179646134376526e-01" purity="3.8438749313354492e-01" nType="0">
          <Node pos="l" depth="2" NCoef="0" IVar="-1" Cut="0.0000000000000000e+00" cType="1" res="-2.2152760066092014e-03" rms="3.9270415902137756e-01" purity="2.7955135703086853e-01" nType="-99"/>
          <Node pos="r" depth="2" NCoef="0" IVar="-1" Cut="0.0000000000000000e+00" cType="1" res="2.3461686214432120e-04" rms="4.7079935669898987e-01" purity="5.3525543212890625e-01" nType="-99"/>
        </Node>
      </Node>
    </BinaryTree>
    <BinaryTree type="DecisionTree" boostWeight="1.0000000000000000e+00" itree="610">
      <Node pos="s" depth="0" NCoef="0" IVar="2" Cut="2.0362554931640625e+02" cType="1" res="5.3311097435653210e-03" rms="4.5119366049766541e-01" purity="4.9540704488754272e-01" nType="0">
        <Node pos="l" depth="1" NCoef="0" IVar="3" Cut="7.8594001770019531e+01" cType="1" res="-3.4399207681417465e-02" rms="4.5247805118560791e-01" purity="4.3489155173301697e-01" nType="0">
          <Node pos="l" depth="2" NCoef="0" IVar="-1" Cut="0.0000000000000000e+00" cType="1" res="-6.5590349549893290e-05" rms="4.5501834154129028e-01" purity="4.5864269137382507e-01" nType="-99"/>
          <Node pos="r" depth="2" NCoef="0" IVar="-1" Cut="0.0000000000000000e+00" cType="1" res="-1.6355931293219328e-03" rms="4.3373584747314453e-01" purity="3.6570689082145691e-01" nType="-99"/>
        </Node>
        <Node pos="r" depth="1" NCoef="0" IVar="6" Cut="7.2120745849609375e+02" cType="1" res="3.8445234298706055e-02" rms="4.4743284583091736e-01" purity="5.4584509134292603e-01" nType="0">
          <Node pos="l" depth="2" NCoef="0" IVar="-1" Cut="0.0000000000000000e+00" cType="1" res="3.2344606006518006e-04" rms="4.4862183928489685e-01" purity="5.1804053783416748e-01" nType="-99"/>
          <Node pos="r" depth="2" NCoef="0" IVar="-1" Cut="0.0000000000000000e+00" cType="1" res="1.3520970242097974e-03" rms="4.3537241220474243e-01" purity="6.6903895139694214e-01" nType="-99"/>
        </Node>
      </Node>
    </BinaryTree>
    <BinaryTree type="DecisionTree" boostWeight="1.0000000000000000e+00" itree="611">
      <Node pos="s" depth="0" NCoef="0" IVar="3" Cut="1.0660724639892578e+02" cType="1" res="6.4039416611194611e-03" rms="4.5303541421890259e-01" purity="4.9432763457298279e-01" nType="0">
        <Node pos="l" depth="1" NCoef="0" IVar="6" Cut="4.8403668212890625e+02" cType="1" res="-2.0732279866933823e-02" rms="4.5587065815925598e-01" purity="4.5289984345436096e-01" nType="0">
          <Node pos="l" depth="2" NCoef="0" IVar="-1" Cut="0.0000000000000000e+00" cType="1" res="5.1757197070401162e-05" rms="4.5946505665779114e-01" purity="4.4570362567901611e-01" nType="-99"/>
          <Node pos="r" depth="2" NCoef="0" IVar="-1" Cut="0.0000000000000000e+00" cType="1" res="-1.0180037934333086e-03" rms="4.4299641251564026e-01" purity="4.6882733702659607e-01" nType="-99"/>
        </Node>
        <Node pos="r" depth="1" NCoef="0" IVar="2" Cut="3.6209292602539062e+02" cType="1" res="9.8933719098567963e-02" rms="4.3055933713912964e-01" purity="6.3558912277221680e-01" nType="0">
          <Node pos="l" depth="2" NCoef="0" IVar="-1" Cut="0.0000000000000000e+00" cType="1" res="1.7547678435221314e-03" rms="4.2536658048629761e-01" purity="7.0525503158569336e-01" nType="-99"/>
          <Node pos="r" depth="2" NCoef="0" IVar="-1" Cut="0.0000000000000000e+00" cType="1" res="-5.6413834681734443e-04" rms="4.1807094216346741e-01" purity="4.2082279920578003e-01" nType="-99"/>
        </Node>
      </Node>
    </BinaryTree>
    <BinaryTree type="DecisionTree" boostWeight="1.0000000000000000e+00" itree="612">
      <Node pos="s" depth="0" NCoef="0" IVar="4" Cut="1.9419237971305847e-01" cType="1" res="2.0159063569735736e-04" rms="4.5655897259712219e-01" purity="4.9342313408851624e-01" nType="0">
        <Node pos="l" depth="1" NCoef="0" IVar="7" Cut="5.3671762347221375e-02" cType="1" res="-7.5521548278629780e-03" rms="4.5376276969909668e-01" purity="4.8013913631439209e-01" nType="0">
          <Node pos="l" depth="2" NCoef="0" IVar="-1" Cut="0.0000000000000000e+00" cType="1" res="9.5933995908126235e-05" rms="4.6042755246162415e-01" purity="5.1598417758941650e-01" nType="-99"/>
          <Node pos="r" depth="2" NCoef="0" IVar="-1" Cut="0.0000000000000000e+00" cType="1" res="-7.8579509863629937e-04" rms="4.3000936508178711e-01" purity="3.7215417623519897e-01" nType="-99"/>
        </Node>
        <Node pos="r" depth="1" NCoef="0" IVar="-1" Cut="0.0000000000000000e+00" cType="1" res="8.0655288184061646e-04" rms="4.7471478581428528e-01" purity="6.0748994350433350e-01" nType="-99"/>
      </Node>
    </BinaryTree>
    <BinaryTree type="DecisionTree" boostWeight="1.0000000000000000e+00" itree="613">
      <Node pos="s" depth="0" NCoef="0" IVar="0" Cut="8.2656564712524414e+00" cType="1" res="1.1297061108052731e-02" rms="4.4853654503822327e-01" purity="4.9914899468421936e-01" nType="0">
        <Node pos="l" depth="1" NCoef="0" IVar="4" Cut="1.9876286387443542e-01" cType="1" res="-1.3933628797531128e-03" rms="4.5669195055961609e-01" purity="4.4607892632484436e-01" nType="0">
          <Node pos="l" depth="2" NCoef="0" IVar="-1" Cut="0.0000000000000000e+00" cType="1" res="-1.4601511065848172e-04" rms="4.5519158244132996e-01" purity="4.2972460389137268e-01" nType="-99"/>
          <Node pos="r" depth="2" NCoef="0" IVar="-1" Cut="0.0000000000000000e+00" cType="1" res="9.5978967146947980e-04" rms="4.6222946047782898e-01" purity="5.8739888668060303e-01" nType="-99"/>
        </Node>
        <Node pos="r" depth="1" NCoef="0" IVar="7" Cut="3.1087117269635201e-02" cType="1" res="7.6651394367218018e-02" rms="3.9757430553436279e-01" purity="7.7245414257049561e-01" nType="0">
          <Node pos="l" depth="2" NCoef="0" IVar="-1" Cut="0.0000000000000000e+00" cType="1" res="1.4812521403655410e-03" rms="3.6973527073860168e-01" purity="8.3571964502334595e-01" nType="-99"/>
          <Node pos="r" depth="2" NCoef="0" IVar="-1" Cut="0.0000000000000000e+00" cType="1" res="-5.2037225941603538e-06" rms="4.3588748574256897e-01" purity="6.5112698078155518e-01" nType="-99"/>
        </Node>
      </Node>
    </BinaryTree>
    <BinaryTree type="DecisionTree" boostWeight="1.0000000000000000e+00" itree="614">
      <Node pos="s" depth="0" NCoef="0" IVar="2" Cut="1.9659182739257812e+02" cType="1" res="3.4144239034503698e-03" rms="4.4730138778686523e-01" purity="4.9193781614303589e-01" nType="0">
        <Node pos="l" depth="1" NCoef="0" IVar="0" Cut="5.4273562431335449e+00" cType="1" res="-3.9310004562139511e-02" rms="4.4845101237297058e-01" purity="4.2305818200111389e-01" nType="0">
          <Node pos="l" depth="2" NCoef="0" IVar="-1" Cut="0.0000000000000000e+00" cType="1" res="-3.1488640233874321e-03" rms="2.9871523380279541e-01" purity="9.9723719060420990e-02" nType="-99"/>
          <Node pos="r" depth="2" NCoef="0" IVar="-1" Cut="0.0000000000000000e+00" cType="1" res="-1.0768424544949085e-04" rms="4.7440224885940552e-01" purity="5.0565195083618164e-01" nType="-99"/>
        </Node>
        <Node pos="r" depth="1" NCoef="0" IVar="5" Cut="9.2867684364318848e-01" cType="1" res="3.2622314989566803e-02" rms="4.4415485858917236e-01" purity="5.3902631998062134e-01" nType="0">
          <Node pos="l" depth="2" NCoef="0" IVar="-1" Cut="0.0000000000000000e+00" cType="1" res="6.9495115894824266e-04" rms="4.5076328516006470e-01" purity="5.9323638677597046e-01" nType="-99"/>
          <Node pos="r" depth="2" NCoef="0" IVar="-1" Cut="0.0000000000000000e+00" cType="1" res="-5.8101239847019315e-04" rms="4.1335240006446838e-01" purity="3.5341927409172058e-01" nType="-99"/>
        </Node>
      </Node>
    </BinaryTree>
    <BinaryTree type="DecisionTree" boostWeight="1.0000000000000000e+00" itree="615">
      <Node pos="s" depth="0" NCoef="0" IVar="2" Cut="1.3174163818359375e+02" cType="1" res="6.3551566563546658e-03" rms="4.4940811395645142e-01" purity="4.9207484722137451e-01" nType="0">
        <Node pos="l" depth="1" NCoef="0" IVar="-1" Cut="0.0000000000000000e+00" cType="1" res="-1.6809526132419705e-03" rms="4.3488979339599609e-01" purity="3.3324104547500610e-01" nType="-99"/>
        <Node pos="r" depth="1" NCoef="0" IVar="1" Cut="6.4811658859252930e-01" cType="1" res="1.7071420326828957e-02" rms="4.4906112551689148e-01" purity="5.0592797994613647e-01" nType="0">
          <Node pos="l" depth="2" NCoef="0" IVar="-1" Cut="0.0000000000000000e+00" cType="1" res="8.9508399832993746e-04" rms="4.4375604391098022e-01" purity="6.8206447362899780e-01" nType="-99"/>
          <Node pos="r" depth="2" NCoef="0" IVar="-1" Cut="0.0000000000000000e+00" cType="1" res="1.7951491827261634e-05" rms="4.4923743605613708e-01" purity="4.5719635486602783e-01" nType="-99"/>
        </Node>
      </Node>
    </BinaryTree>
    <BinaryTree type="DecisionTree" boostWeight="1.0000000000000000e+00" itree="616">
      <Node pos="s" depth="0" NCoef="0" IVar="0" Cut="4.8453984260559082e+00" cType="1" res="5.0924243405461311e-03" rms="4.5432782173156738e-01" purity="4.9584278464317322e-01" nType="0">
        <Node pos="l" depth="1" NCoef="0" IVar="-1" Cut="0.0000000000000000e+00" cType="1" res="-2.5113672018051147e-03" rms="3.0854681134223938e-01" purity="1.1445663869380951e-01" nType="-99"/>
        <Node pos="r" depth="1" NCoef="0" IVar="1" Cut="1.6632355451583862e+00" cType="1" res="1.2882722541689873e-02" rms="4.6097111701965332e-01" purity="5.2016663551330566e-01" nType="0">
          <Node pos="l" depth="2" NCoef="0" IVar="-1" Cut="0.0000000000000000e+00" cType="1" res="2.5542869116179645e-04" rms="4.6715638041496277e-01" purity="5.4506069421768188e-01" nType="-99"/>
          <Node pos="r" depth="2" NCoef="0" IVar="-1" Cut="0.0000000000000000e+00" cType="1" res="-2.7344860136508942e-03" rms="3.2407227158546448e-01" purity="1.1746432632207870e-01" nType="-99"/>
        </Node>
      </Node>
    </BinaryTree>
    <BinaryTree type="DecisionTree" boostWeight="1.0000000000000000e+00" itree="617">
      <Node pos="s" depth="0" NCoef="0" IVar="0" Cut="7.0253906250000000e+00" cType="1" res="4.8443744890391827e-03" rms="4.4741258025169373e-01" purity="5.0446194410324097e-01" nType="0">
        <Node pos="l" depth="1" NCoef="0" IVar="5" Cut="3.8465547561645508e-01" cType="1" res="-2.9797591269016266e-02" rms="4.5220223069190979e-01" purity="3.5202401876449585e-01" nType="0">
          <Node pos="l" depth="2" NCoef="0" IVar="-1" Cut="0.0000000000000000e+00" cType="1" res="-1.7879848601296544e-03" rms="4.4427493214607239e-01" purity="2.9515770077705383e-01" nType="-99"/>
          <Node pos="r" depth="2" NCoef="0" IVar="-1" Cut="0.0000000000000000e+00" cType="1" res="-1.9800034351646900e-04" rms="4.5150813460350037e-01" purity="3.6152014136314392e-01" nType="-99"/>
        </Node>
        <Node pos="r" depth="1" NCoef="0" IVar="2" Cut="3.1687521362304688e+02" cType="1" res="5.1288221031427383e-02" rms="4.3661803007125854e-01" purity="7.0883274078369141e-01" nType="0">
          <Node pos="l" depth="2" NCoef="0" IVar="-1" Cut="0.0000000000000000e+00" cType="1" res="8.5179944289848208e-04" rms="4.2987608909606934e-01" purity="7.3704665899276733e-01" nType="-99"/>
          <Node pos="r" depth="2" NCoef="0" IVar="-1" Cut="0.0000000000000000e+00" cType="1" res="-9.6456770552322268e-04" rms="4.6075579524040222e-01" purity="5.2789086103439331e-01" nType="-99"/>
        </Node>
      </Node>
    </BinaryTree>
    <BinaryTree type="DecisionTree" boostWeight="1.0000000000000000e+00" itree="618">
      <Node pos="s" depth="0" NCoef="0" IVar="6" Cut="3.2713757324218750e+02" cType="1" res="-6.8526249378919601e-03" rms="4.4828611612319946e-01" purity="4.9118360877037048e-01" nType="0">
        <Node pos="l" depth="1" NCoef="0" IVar="-1" Cut="0.0000000000000000e+00" cType="1" res="-1.9754613749682903e-03" rms="3.9025434851646423e-01" purity="2.2157394886016846e-01" nType="-99"/>
        <Node pos="r" depth="1" NCoef="0" IVar="0" Cut="5.0841131210327148e+00" cType="1" res="2.3242477327585220e-03" rms="4.5149639248847961e-01" purity="5.1333343982696533e-01" nType="0">
          <Node pos="l" depth="2" NCoef="0" IVar="-1" Cut="0.0000000000000000e+00" cType="1" res="-1.9938242621719837e-03" rms="3.4102186560630798e-01" purity="1.5051107108592987e-01" nType="-99"/>
          <Node pos="r" depth="2" NCoef="0" IVar="-1" Cut="0.0000000000000000e+00" cType="1" res="1.6198153025470674e-04" rms="4.5972853899002075e-01" purity="5.4924279451370239e-01" nType="-99"/>
        </Node>
      </Node>
    </BinaryTree>
    <BinaryTree type="DecisionTree" boostWeight="1.0000000000000000e+00" itree="619">
      <Node pos="s" depth="0" NCoef="0" IVar="3" Cut="9.7340881347656250e+01" cType="1" res="1.0569767095148563e-02" rms="4.5280352234840393e-01" purity="5.0561112165451050e-01" nType="0">
        <Node pos="l" depth="1" NCoef="0" IVar="2" Cut="2.5257234191894531e+02" cType="1" res="-1.1599943973124027e-02" rms="4.5546436309814453e-01" purity="4.6061018109321594e-01" nType="0">
          <Node pos="l" depth="2" NCoef="0" IVar="-1" Cut="0.0000000000000000e+00" cType="1" res="6.0194815887371078e-05" rms="4.6300566196441650e-01" purity="4.8226675391197205e-01" nType="-99"/>
          <Node pos="r" depth="2" NCoef="0" IVar="-1" Cut="0.0000000000000000e+00" cType="1" res="-1.3025535736232996e-03" rms="4.1773718595504761e-01" purity="3.7410521507263184e-01" nType="-99"/>
        </Node>
        <Node pos="r" depth="1" NCoef="0" IVar="5" Cut="9.4960904121398926e-01" cType="1" res="6.4209938049316406e-02" rms="4.4172072410583496e-01" purity="6.1449199914932251e-01" nType="0">
          <Node pos="l" depth="2" NCoef="0" IVar="-1" Cut="0.0000000000000000e+00" cType="1" res="1.3011622941121459e-03" rms="4.3250668048858643e-01" purity="6.8221604824066162e-01" nType="-99"/>
          <Node pos="r" depth="2" NCoef="0" IVar="-1" Cut="0.0000000000000000e+00" cType="1" res="-1.2340089306235313e-03" rms="4.4730824232101440e-01" purity="3.6010155081748962e-01" nType="-99"/>
        </Node>
      </Node>
    </BinaryTree>
    <BinaryTree type="DecisionTree" boostWeight="1.0000000000000000e+00" itree="620">
      <Node pos="s" depth="0" NCoef="0" IVar="0" Cut="5.0841131210327148e+00" cType="1" res="3.5651254002004862e-03" rms="4.5054292678833008e-01" purity="5.0075769424438477e-01" nType="0">
        <Node pos="l" depth="1" NCoef="0" IVar="-1" Cut="0.0000000000000000e+00" cType="1" res="-2.1082339808344841e-03" rms="3.3775073289871216e-01" purity="1.4233359694480896e-01" nType="-99"/>
        <Node pos="r" depth="1" NCoef="0" IVar="6" Cut="7.3803173828125000e+02" cType="1" res="1.4392334967851639e-02" rms="4.5895397663116455e-01" purity="5.3677111864089966e-01" nType="0">
          <Node pos="l" depth="2" NCoef="0" IVar="-1" Cut="0.0000000000000000e+00" cType="1" res="5.3207666496746242e-05" rms="4.5801410079002380e-01" purity="5.1892942190170288e-01" nType="-99"/>
          <Node pos="r" depth="2" NCoef="0" IVar="-1" Cut="0.0000000000000000e+00" cType="1" res="1.0888745309785008e-03" rms="4.5844426751136780e-01" purity="6.7336380481719971e-01" nType="-99"/>
        </Node>
      </Node>
    </BinaryTree>
    <BinaryTree type="DecisionTree" boostWeight="1.0000000000000000e+00" itree="621">
      <Node pos="s" depth="0" NCoef="0" IVar="0" Cut="6.2331948280334473e+00" cType="1" res="1.5830540796741843e-03" rms="4.4862145185470581e-01" purity="4.9487757682800293e-01" nType="0">
        <Node pos="l" depth="1" NCoef="0" IVar="3" Cut="4.2044319152832031e+01" cType="1" res="-3.3639114350080490e-02" rms="4.3657830357551575e-01" purity="2.9966178536415100e-01" nType="0">
          <Node pos="l" depth="2" NCoef="0" IVar="-1" Cut="0.0000000000000000e+00" cType="1" res="-2.6398436166346073e-03" rms="3.3891448378562927e-01" purity="1.4307256042957306e-01" nType="-99"/>
          <Node pos="r" depth="2" NCoef="0" IVar="-1" Cut="0.0000000000000000e+00" cType="1" res="-2.6441976660862565e-04" rms="4.4735383987426758e-01" purity="3.2328268885612488e-01" nType="-99"/>
        </Node>
        <Node pos="r" depth="1" NCoef="0" IVar="7" Cut="7.5134761631488800e-02" cType="1" res="2.3296939209103584e-02" rms="4.5452940464019775e-01" purity="6.1522489786148071e-01" nType="0">
          <Node pos="l" depth="2" NCoef="0" IVar="-1" Cut="0.0000000000000000e+00" cType="1" res="5.8019568677991629e-04" rms="4.4632726907730103e-01" purity="6.5508794784545898e-01" nType="-99"/>
          <Node pos="r" depth="2" NCoef="0" IVar="-1" Cut="0.0000000000000000e+00" cType="1" res="-7.6346710557118058e-04" rms="4.7302439808845520e-01" purity="4.7931981086730957e-01" nType="-99"/>
        </Node>
      </Node>
    </BinaryTree>
    <BinaryTree type="DecisionTree" boostWeight="1.0000000000000000e+00" itree="622">
      <Node pos="s" depth="0" NCoef="0" IVar="3" Cut="3.5282920837402344e+01" cType="1" res="1.1560686863958836e-02" rms="4.5244932174682617e-01" purity="5.0537908077239990e-01" nType="0">
        <Node pos="l" depth="1" NCoef="0" IVar="-1" Cut="0.0000000000000000e+00" cType="1" res="-1.7943978309631348e-03" rms="4.1747555136680603e-01" purity="3.0518832802772522e-01" nType="-99"/>
        <Node pos="r" depth="1" NCoef="0" IVar="6" Cut="7.0224676513671875e+02" cType="1" res="1.9461186602711678e-02" rms="4.5337256789207458e-01" purity="5.1787316799163818e-01" nType="0">
          <Node pos="l" depth="2" NCoef="0" IVar="-1" Cut="0.0000000000000000e+00" cType="1" res="1.2209385749883950e-04" rms="4.5480757951736450e-01" purity="4.9561271071434021e-01" nType="-99"/>
          <Node pos="r" depth="2" NCoef="0" IVar="-1" Cut="0.0000000000000000e+00" cType="1" res="1.1857873760163784e-03" rms="4.3426352739334106e-01" purity="6.8701922893524170e-01" nType="-99"/>
        </Node>
      </Node>
    </BinaryTree>
    <BinaryTree type="DecisionTree" boostWeight="1.0000000000000000e+00" itree="623">
      <Node pos="s" depth="0" NCoef="0" IVar="2" Cut="2.0362554931640625e+02" cType="1" res="3.3490003552287817e-03" rms="4.4966149330139160e-01" purity="4.9579685926437378e-01" nType="0">
        <Node pos="l" depth="1" NCoef="0" IVar="3" Cut="7.8666069030761719e+01" cType="1" res="-2.9873134568333626e-02" rms="4.6232050657272339e-01" purity="4.4547188282012939e-01" nType="0">
          <Node pos="l" depth="2" NCoef="0" IVar="-1" Cut="0.0000000000000000e+00" cType="1" res="-6.1130980611778796e-05" rms="4.6587935090065002e-01" purity="4.6315211057662964e-01" nType="-99"/>
          <Node pos="r" depth="2" NCoef="0" IVar="-1" Cut="0.0000000000000000e+00" cType="1" res="-1.5836051898077130e-03" rms="4.3907165527343750e-01" purity="3.8482901453971863e-01" nType="-99"/>
        </Node>
        <Node pos="r" depth="1" NCoef="0" IVar="1" Cut="9.8568421602249146e-01" cType="1" res="3.2039333134889603e-02" rms="4.3640485405921936e-01" purity="5.3925704956054688e-01" nType="0">
          <Node pos="l" depth="2" NCoef="0" IVar="-1" Cut="0.0000000000000000e+00" cType="1" res="1.1401406954973936e-03" rms="4.1837027668952942e-01" purity="7.4425315856933594e-01" nType="-99"/>
          <Node pos="r" depth="2" NCoef="0" IVar="-1" Cut="0.0000000000000000e+00" cType="1" res="-1.9771643565036356e-04" rms="4.4451317191123962e-01" purity="3.8196066021919250e-01" nType="-99"/>
        </Node>
      </Node>
    </BinaryTree>
    <BinaryTree type="DecisionTree" boostWeight="1.0000000000000000e+00" itree="624">
      <Node pos="s" depth="0" NCoef="0" IVar="5" Cut="1.0345016717910767e+00" cType="1" res="2.3240137845277786e-02" rms="4.5528051257133484e-01" purity="5.2129369974136353e-01" nType="0">
        <Node pos="l" depth="1" NCoef="0" IVar="2" Cut="2.1765357971191406e+02" cType="1" res="3.4523464739322662e-02" rms="4.5532327890396118e-01" purity="5.4782366752624512e-01" nType="0">
          <Node pos="l" depth="2" NCoef="0" IVar="-1" Cut="0.0000000000000000e+00" cType="1" res="6.2434897699858993e-05" rms="4.6132180094718933e-01" purity="5.0038594007492065e-01" nType="-99"/>
          <Node pos="r" depth="2" NCoef="0" IVar="-1" Cut="0.0000000000000000e+00" cType="1" res="9.3176111113280058e-04" rms="4.4564619660377502e-01" purity="6.0365557670593262e-01" nType="-99"/>
        </Node>
        <Node pos="r" depth="1" NCoef="0" IVar="4" Cut="6.1277586966753006e-02" cType="1" res="-5.7971186935901642e-02" rms="4.4664141535758972e-01" purity="3.3034533262252808e-01" nType="0">
          <Node pos="l" depth="2" NCoef="0" IVar="-1" Cut="0.0000000000000000e+00" cType="1" res="-1.7891678726300597e-03" rms="4.0398108959197998e-01" purity="2.3874482512474060e-01" nType="-99"/>
          <Node pos="r" depth="2" NCoef="0" IVar="-1" Cut="0.0000000000000000e+00" cType="1" res="2.0345916709629819e-05" rms="4.9507394433021545e-01" purity="4.6068143844604492e-01" nType="-99"/>
        </Node>
      </Node>
    </BinaryTree>
    <BinaryTree type="DecisionTree" boostWeight="1.0000000000000000e+00" itree="625">
      <Node pos="s" depth="0" NCoef="0" IVar="0" Cut="8.0177249908447266e+00" cType="1" res="-1.4361732173711061e-03" rms="4.4572478532791138e-01" purity="4.9864172935485840e-01" nType="0">
        <Node pos="l" depth="1" NCoef="0" IVar="0" Cut="5.8924713134765625e+00" cType="1" res="-1.9450439140200615e-02" rms="4.5531529188156128e-01" purity="4.2770183086395264e-01" nType="0">
          <Node pos="l" depth="2" NCoef="0" IVar="-1" Cut="0.0000000000000000e+00" cType="1" res="-9.2478166334331036e-04" rms="4.0727996826171875e-01" purity="2.5233483314514160e-01" nType="-99"/>
          <Node pos="r" depth="2" NCoef="0" IVar="-1" Cut="0.0000000000000000e+00" cType="1" res="1.2273360880499240e-05" rms="4.7893530130386353e-01" purity="5.2601253986358643e-01" nType="-99"/>
        </Node>
        <Node pos="r" depth="1" NCoef="0" IVar="7" Cut="6.5764226019382477e-02" cType="1" res="6.4685918390750885e-02" rms="4.0173208713531494e-01" purity="7.5902950763702393e-01" nType="0">
          <Node pos="l" depth="2" NCoef="0" IVar="-1" Cut="0.0000000000000000e+00" cType="1" res="1.1396425543352962e-03" rms="3.8676035404205322e-01" purity="7.9912871122360229e-01" nType="-99"/>
          <Node pos="r" depth="2" NCoef="0" IVar="-1" Cut="0.0000000000000000e+00" cType="1" res="-6.8799672590103000e-05" rms="4.3400019407272339e-01" purity="6.4487200975418091e-01" nType="-99"/>
        </Node>
      </Node>
    </BinaryTree>
    <BinaryTree type="DecisionTree" boostWeight="1.0000000000000000e+00" itree="626">
      <Node pos="s" depth="0" NCoef="0" IVar="5" Cut="4.5969226956367493e-01" cType="1" res="6.1869123019278049e-03" rms="4.4974100589752197e-01" purity="5.0183427333831787e-01" nType="0">
        <Node pos="l" depth="1" NCoef="0" IVar="7" Cut="-4.2777691036462784e-02" cType="1" res="5.6900940835475922e-02" rms="4.4455084204673767e-01" purity="6.1573630571365356e-01" nType="0">
          <Node pos="l" depth="2" NCoef="0" IVar="-1" Cut="0.0000000000000000e+00" cType="1" res="1.7273252597078681e-03" rms="3.7534934282302856e-01" purity="7.5281935930252075e-01" nType="-99"/>
          <Node pos="r" depth="2" NCoef="0" IVar="-1" Cut="0.0000000000000000e+00" cType="1" res="2.5972689036279917e-04" rms="4.6359962224960327e-01" purity="5.6257218122482300e-01" nType="-99"/>
        </Node>
        <Node pos="r" depth="1" NCoef="0" IVar="4" Cut="2.1152608096599579e-01" cType="1" res="-1.2351445853710175e-02" rms="4.5019975304603577e-01" purity="4.6019768714904785e-01" nType="0">
          <Node pos="l" depth="2" NCoef="0" IVar="-1" Cut="0.0000000000000000e+00" cType="1" res="-2.9689221992157400e-04" rms="4.4688832759857178e-01" purity="4.4409289956092834e-01" nType="-99"/>
          <Node pos="r" depth="2" NCoef="0" IVar="-1" Cut="0.0000000000000000e+00" cType="1" res="9.2774187214672565e-04" rms="4.7396153211593628e-01" purity="6.2501907348632812e-01" nType="-99"/>
        </Node>
      </Node>
    </BinaryTree>
    <BinaryTree type="DecisionTree" boostWeight="1.0000000000000000e+00" itree="627">
      <Node pos="s" depth="0" NCoef="0" IVar="3" Cut="4.3181526184082031e+01" cType="1" res="5.4851598106324673e-03" rms="4.5013687014579773e-01" purity="5.0234824419021606e-01" nType="0">
        <Node pos="l" depth="1" NCoef="0" IVar="6" Cut="3.9534384155273438e+02" cType="1" res="-6.4799517393112183e-02" rms="4.3550828099250793e-01" purity="3.8869512081146240e-01" nType="0">
          <Node pos="l" depth="2" NCoef="0" IVar="-1" Cut="0.0000000000000000e+00" cType="1" res="-2.4123759940266609e-03" rms="3.9324176311492920e-01" purity="2.6313841342926025e-01" nType="-99"/>
          <Node pos="r" depth="2" NCoef="0" IVar="-1" Cut="0.0000000000000000e+00" cType="1" res="2.0008702995255589e-04" rms="4.5868840813636780e-01" purity="5.0967973470687866e-01" nType="-99"/>
        </Node>
        <Node pos="r" depth="1" NCoef="0" IVar="0" Cut="4.9573187828063965e+00" cType="1" res="1.6870185732841492e-02" rms="4.5143330097198486e-01" purity="5.2075827121734619e-01" nType="0">
          <Node pos="l" depth="2" NCoef="0" IVar="-1" Cut="0.0000000000000000e+00" cType="1" res="-1.2827278114855289e-03" rms="3.4561029076576233e-01" purity="1.7664198577404022e-01" nType="-99"/>
          <Node pos="r" depth="2" NCoef="0" IVar="-1" Cut="0.0000000000000000e+00" cType="1" res="3.1033070990815759e-04" rms="4.5869544148445129e-01" purity="5.5027455091476440e-01" nType="-99"/>
        </Node>
      </Node>
    </BinaryTree>
    <BinaryTree type="DecisionTree" boostWeight="1.0000000000000000e+00" itree="628">
      <Node pos="s" depth="0" NCoef="0" IVar="4" Cut="1.8186499178409576e-01" cType="1" res="2.7170402463525534e-03" rms="4.5180603861808777e-01" purity="4.9215298891067505e-01" nType="0">
        <Node pos="l" depth="1" NCoef="0" IVar="7" Cut="7.0138968527317047e-02" cType="1" res="-6.4547811634838581e-03" rms="4.4907110929489136e-01" purity="4.7902953624725342e-01" nType="0">
          <Node pos="l" depth="2" NCoef="0" IVar="-1" Cut="0.0000000000000000e+00" cType="1" res="1.2849003542214632e-04" rms="4.5232322812080383e-01" purity="5.1834034919738770e-01" nType="-99"/>
          <Node pos="r" depth="2" NCoef="0" IVar="-1" Cut="0.0000000000000000e+00" cType="1" res="-1.1089900508522987e-03" rms="4.3077695369720459e-01" purity="3.2852831482887268e-01" nType="-99"/>
        </Node>
        <Node pos="r" depth="1" NCoef="0" IVar="-1" Cut="0.0000000000000000e+00" cType="1" res="9.9218287505209446e-04" rms="4.6720895171165466e-01" purity="6.0378003120422363e-01" nType="-99"/>
      </Node>
    </BinaryTree>
    <BinaryTree type="DecisionTree" boostWeight="1.0000000000000000e+00" itree="629">
      <Node pos="s" depth="0" NCoef="0" IVar="0" Cut="5.5479817390441895e+00" cType="1" res="9.3238130211830139e-03" rms="4.4797477126121521e-01" purity="4.9947032332420349e-01" nType="0">
        <Node pos="l" depth="1" NCoef="0" IVar="4" Cut="6.6100396215915680e-02" cType="1" res="-5.1599610596895218e-02" rms="4.0110680460929871e-01" purity="2.4086122214794159e-01" nType="0">
          <Node pos="l" depth="2" NCoef="0" IVar="-1" Cut="0.0000000000000000e+00" cType="1" res="-1.6745291650295258e-03" rms="3.5388383269309998e-01" purity="1.7698474228382111e-01" nType="-99"/>
          <Node pos="r" depth="2" NCoef="0" IVar="-1" Cut="0.0000000000000000e+00" cType="1" res="2.3579622211400419e-04" rms="4.6202340722084045e-01" purity="3.4821012616157532e-01" nType="-99"/>
        </Node>
        <Node pos="r" depth="1" NCoef="0" IVar="3" Cut="4.4160316467285156e+01" cType="1" res="2.6052184402942657e-02" rms="4.5859485864639282e-01" purity="5.7047927379608154e-01" nType="0">
          <Node pos="l" depth="2" NCoef="0" IVar="-1" Cut="0.0000000000000000e+00" cType="1" res="-6.6693068947643042e-04" rms="4.7413045167922974e-01" purity="4.3420189619064331e-01" nType="-99"/>
          <Node pos="r" depth="2" NCoef="0" IVar="-1" Cut="0.0000000000000000e+00" cType="1" res="4.9038382712751627e-04" rms="4.5469218492507935e-01" purity="5.9344971179962158e-01" nType="-99"/>
        </Node>
      </Node>
    </BinaryTree>
    <BinaryTree type="DecisionTree" boostWeight="1.0000000000000000e+00" itree="630">
      <Node pos="s" depth="0" NCoef="0" IVar="6" Cut="6.2466125488281250e+02" cType="1" res="8.3672543987631798e-03" rms="4.4857829809188843e-01" purity="4.9936789274215698e-01" nType="0">
        <Node pos="l" depth="1" NCoef="0" IVar="4" Cut="-7.1605853736400604e-02" cType="1" res="-8.4578478708863258e-03" rms="4.4450789690017700e-01" purity="4.6827700734138489e-01" nType="0">
          <Node pos="l" depth="2" NCoef="0" IVar="-1" Cut="0.0000000000000000e+00" cType="1" res="-1.2749612797051668e-03" rms="4.2394047975540161e-01" purity="3.3135384321212769e-01" nType="-99"/>
          <Node pos="r" depth="2" NCoef="0" IVar="-1" Cut="0.0000000000000000e+00" cType="1" res="2.3882363166194409e-04" rms="4.4861304759979248e-01" purity="5.1716756820678711e-01" nType="-99"/>
        </Node>
        <Node pos="r" depth="1" NCoef="0" IVar="0" Cut="6.0155992507934570e+00" cType="1" res="8.6561523377895355e-02" rms="4.5900660753250122e-01" purity="6.4386230707168579e-01" nType="0">
          <Node pos="l" depth="2" NCoef="0" IVar="-1" Cut="0.0000000000000000e+00" cType="1" res="2.4543199688196182e-03" rms="4.5115298032760620e-01" purity="6.4234685897827148e-01" nType="-99"/>
          <Node pos="r" depth="2" NCoef="0" IVar="-1" Cut="0.0000000000000000e+00" cType="1" res="3.1432253308594227e-04" rms="4.4992980360984802e-01" purity="6.4461696147918701e-01" nType="-99"/>
        </Node>
      </Node>
    </BinaryTree>
    <BinaryTree type="DecisionTree" boostWeight="1.0000000000000000e+00" itree="631">
      <Node pos="s" depth="0" NCoef="0" IVar="6" Cut="3.1702828979492188e+02" cType="1" res="-2.0587728358805180e-03" rms="4.4744694232940674e-01" purity="4.9371135234832764e-01" nType="0">
        <Node pos="l" depth="1" NCoef="0" IVar="-1" Cut="0.0000000000000000e+00" cType="1" res="-2.7617891319096088e-03" rms="3.6130604147911072e-01" purity="1.8478749692440033e-01" nType="-99"/>
        <Node pos="r" depth="1" NCoef="0" IVar="6" Cut="6.0517779541015625e+02" cType="1" res="1.0234072804450989e-02" rms="4.5108729600906372e-01" purity="5.1756429672241211e-01" nType="0">
          <Node pos="l" depth="2" NCoef="0" IVar="-1" Cut="0.0000000000000000e+00" cType="1" res="-7.7702847192995250e-05" rms="4.5208251476287842e-01" purity="4.8140046000480652e-01" nType="-99"/>
          <Node pos="r" depth="2" NCoef="0" IVar="-1" Cut="0.0000000000000000e+00" cType="1" res="8.9201738592237234e-04" rms="4.4225570559501648e-01" purity="6.5281236171722412e-01" nType="-99"/>
        </Node>
      </Node>
    </BinaryTree>
    <BinaryTree type="DecisionTree" boostWeight="1.0000000000000000e+00" itree="632">
      <Node pos="s" depth="0" NCoef="0" IVar="2" Cut="1.9659182739257812e+02" cType="1" res="8.2822795957326889e-03" rms="4.5421242713928223e-01" purity="4.9832329154014587e-01" nType="0">
        <Node pos="l" depth="1" NCoef="0" IVar="3" Cut="7.5999557495117188e+01" cType="1" res="-2.8379557654261589e-02" rms="4.6345540881156921e-01" purity="4.3851894140243530e-01" nType="0">
          <Node pos="l" depth="2" NCoef="0" IVar="-1" Cut="0.0000000000000000e+00" cType="1" res="2.0628232960007153e-05" rms="4.6234869956970215e-01" purity="4.6484559774398804e-01" nType="-99"/>
          <Node pos="r" depth="2" NCoef="0" IVar="-1" Cut="0.0000000000000000e+00" cType="1" res="-1.7042347462847829e-03" rms="4.5368677377700806e-01" purity="3.5344961285591125e-01" nType="-99"/>
        </Node>
        <Node pos="r" depth="1" NCoef="0" IVar="2" Cut="4.6273794555664062e+02" cType="1" res="3.6068651825189590e-02" rms="4.4507250189781189e-01" purity="5.4364955425262451e-01" nType="0">
          <Node pos="l" depth="2" NCoef="0" IVar="-1" Cut="0.0000000000000000e+00" cType="1" res="6.7309709265828133e-04" rms="4.4421890377998352e-01" purity="5.7583737373352051e-01" nType="-99"/>
          <Node pos="r" depth="2" NCoef="0" IVar="-1" Cut="0.0000000000000000e+00" cType="1" res="-1.8040591385215521e-03" rms="4.3181639909744263e-01" purity="2.6044115424156189e-01" nType="-99"/>
        </Node>
      </Node>
    </BinaryTree>
    <BinaryTree type="DecisionTree" boostWeight="1.0000000000000000e+00" itree="633">
      <Node pos="s" depth="0" NCoef="0" IVar="3" Cut="4.1797218322753906e+01" cType="1" res="-4.1390992701053619e-03" rms="4.5279225707054138e-01" purity="4.8135739564895630e-01" nType="0">
        <Node pos="l" depth="1" NCoef="0" IVar="4" Cut="2.6462495326995850e-02" cType="1" res="-8.2211636006832123e-02" rms="4.3007054924964905e-01" purity="3.7387481331825256e-01" nType="0">
          <Node pos="l" depth="2" NCoef="0" IVar="-1" Cut="0.0000000000000000e+00" cType="1" res="-2.0298785530030727e-03" rms="4.1789934039115906e-01" purity="2.8336071968078613e-01" nType="-99"/>
          <Node pos="r" depth="2" NCoef="0" IVar="-1" Cut="0.0000000000000000e+00" cType="1" res="-4.6054215636104345e-04" rms="4.3663114309310913e-01" purity="4.6541512012481689e-01" nType="-99"/>
        </Node>
        <Node pos="r" depth="1" NCoef="0" IVar="5" Cut="1.0036841630935669e+00" cType="1" res="6.5187052823603153e-03" rms="4.5476764440536499e-01" purity="4.9603003263473511e-01" nType="0">
          <Node pos="l" depth="2" NCoef="0" IVar="-1" Cut="0.0000000000000000e+00" cType="1" res="2.3418365162797272e-04" rms="4.5718407630920410e-01" purity="5.2370846271514893e-01" nType="-99"/>
          <Node pos="r" depth="2" NCoef="0" IVar="-1" Cut="0.0000000000000000e+00" cType="1" res="-9.7588053904473782e-04" rms="4.3388000130653381e-01" purity="3.2912048697471619e-01" nType="-99"/>
        </Node>
      </Node>
    </BinaryTree>
    <BinaryTree type="DecisionTree" boostWeight="1.0000000000000000e+00" itree="634">
      <Node pos="s" depth="0" NCoef="0" IVar="3" Cut="3.2996765136718750e+01" cType="1" res="1.5264933928847313e-02" rms="4.5699843764305115e-01" purity="5.0538092851638794e-01" nType="0">
        <Node pos="l" depth="1" NCoef="0" IVar="-1" Cut="0.0000000000000000e+00" cType="1" res="-1.7694060225039721e-03" rms="4.1281679272651672e-01" purity="3.0115303397178650e-01" nType="-99"/>
        <Node pos="r" depth="1" NCoef="0" IVar="1" Cut="1.7502545118331909e+00" cType="1" res="2.2368716076016426e-02" rms="4.5811647176742554e-01" purity="5.1616507768630981e-01" nType="0">
          <Node pos="l" depth="2" NCoef="0" IVar="-1" Cut="0.0000000000000000e+00" cType="1" res="3.5955035127699375e-04" rms="4.6346700191497803e-01" purity="5.3728985786437988e-01" nType="-99"/>
          <Node pos="r" depth="2" NCoef="0" IVar="-1" Cut="0.0000000000000000e+00" cType="1" res="-1.6321154544129968e-03" rms="3.4159621596336365e-01" purity="1.5324187278747559e-01" nType="-99"/>
        </Node>
      </Node>
    </BinaryTree>
    <BinaryTree type="DecisionTree" boostWeight="1.0000000000000000e+00" itree="635">
      <Node pos="s" depth="0" NCoef="0" IVar="2" Cut="3.7163040161132812e+02" cType="1" res="1.3118647970259190e-02" rms="4.5024958252906799e-01" purity="5.1178783178329468e-01" nType="0">
        <Node pos="l" depth="1" NCoef="0" IVar="3" Cut="3.5937671661376953e+01" cType="1" res="2.2541899234056473e-02" rms="4.5330262184143066e-01" purity="5.3268402814865112e-01" nType="0">
          <Node pos="l" depth="2" NCoef="0" IVar="-1" Cut="0.0000000000000000e+00" cType="1" res="-1.4761239290237427e-03" rms="4.1170775890350342e-01" purity="3.5073778033256531e-01" nType="-99"/>
          <Node pos="r" depth="2" NCoef="0" IVar="-1" Cut="0.0000000000000000e+00" cType="1" res="4.1399031761102378e-04" rms="4.5511212944984436e-01" purity="5.4690897464752197e-01" nType="-99"/>
        </Node>
        <Node pos="r" depth="1" NCoef="0" IVar="4" Cut="-8.9859023690223694e-02" cType="1" res="-6.8290680646896362e-02" rms="4.1412341594696045e-01" purity="3.3126157522201538e-01" nType="0">
          <Node pos="l" depth="2" NCoef="0" IVar="-1" Cut="0.0000000000000000e+00" cType="1" res="-6.0301739722490311e-04" rms="3.9814272522926331e-01" purity="3.0045062303543091e-01" nType="-99"/>
          <Node pos="r" depth="2" NCoef="0" IVar="-1" Cut="0.0000000000000000e+00" cType="1" res="-1.6728275222703815e-03" rms="4.2679426074028015e-01" purity="3.6277335882186890e-01" nType="-99"/>
        </Node>
      </Node>
    </BinaryTree>
    <BinaryTree type="DecisionTree" boostWeight="1.0000000000000000e+00" itree="636">
      <Node pos="s" depth="0" NCoef="0" IVar="6" Cut="7.2361108398437500e+02" cType="1" res="1.8547298386693001e-02" rms="4.5608130097389221e-01" purity="5.1233088970184326e-01" nType="0">
        <Node pos="l" depth="1" NCoef="0" IVar="0" Cut="6.5893487930297852e+00" cType="1" res="1.0180855169892311e-02" rms="4.5542103052139282e-01" purity="4.9488651752471924e-01" nType="0">
          <Node pos="l" depth="2" NCoef="0" IVar="-1" Cut="0.0000000000000000e+00" cType="1" res="-1.8972334510181099e-04" rms="4.5334550738334656e-01" purity="3.4443122148513794e-01" nType="-99"/>
          <Node pos="r" depth="2" NCoef="0" IVar="-1" Cut="0.0000000000000000e+00" cType="1" res="4.2599064181558788e-04" rms="4.5629376173019409e-01" purity="6.4760494232177734e-01" nType="-99"/>
        </Node>
        <Node pos="r" depth="1" NCoef="0" IVar="1" Cut="8.9485126733779907e-01" cType="1" res="8.7514802813529968e-02" rms="4.5567291975021362e-01" purity="6.5613108873367310e-01" nType="0">
          <Node pos="l" depth="2" NCoef="0" IVar="-1" Cut="0.0000000000000000e+00" cType="1" res="5.6288583436980844e-04" rms="4.2938277125358582e-01" purity="6.9303417205810547e-01" nType="-99"/>
          <Node pos="r" depth="2" NCoef="0" IVar="-1" Cut="0.0000000000000000e+00" cType="1" res="1.6152906464412808e-03" rms="4.7832676768302917e-01" purity="6.1530721187591553e-01" nType="-99"/>
        </Node>
      </Node>
    </BinaryTree>
    <BinaryTree type="DecisionTree" boostWeight="1.0000000000000000e+00" itree="637">
      <Node pos="s" depth="0" NCoef="0" IVar="1" Cut="4.6659168601036072e-01" cType="1" res="9.6642216667532921e-03" rms="4.5070776343345642e-01" purity="5.0430876016616821e-01" nType="0">
        <Node pos="l" depth="1" NCoef="0" IVar="-1" Cut="0.0000000000000000e+00" cType="1" res="1.2141090119257569e-03" rms="4.0622004866600037e-01" purity="7.0681285858154297e-01" nType="-99"/>
        <Node pos="r" depth="1" NCoef="0" IVar="4" Cut="-1.3397075235843658e-01" cType="1" res="1.4425579865928739e-04" rms="4.5408868789672852e-01" purity="4.8300248384475708e-01" nType="0">
          <Node pos="l" depth="2" NCoef="0" IVar="-1" Cut="0.0000000000000000e+00" cType="1" res="-1.6745453467592597e-03" rms="4.1831484436988831e-01" purity="2.5894069671630859e-01" nType="-99"/>
          <Node pos="r" depth="2" NCoef="0" IVar="-1" Cut="0.0000000000000000e+00" cType="1" res="8.0188452557194978e-05" rms="4.5544540882110596e-01" purity="4.9619904160499573e-01" nType="-99"/>
        </Node>
      </Node>
    </BinaryTree>
    <BinaryTree type="DecisionTree" boostWeight="1.0000000000000000e+00" itree="638">
      <Node pos="s" depth="0" NCoef="0" IVar="0" Cut="5.7714858055114746e+00" cType="1" res="9.7353020682930946e-03" rms="4.4615319371223450e-01" purity="4.9809774756431580e-01" nType="0">
        <Node pos="l" depth="1" NCoef="0" IVar="1" Cut="6.6623711585998535e-01" cType="1" res="-5.8928418904542923e-02" rms="4.0329855680465698e-01" purity="2.4494110047817230e-01" nType="0">
          <Node pos="l" depth="2" NCoef="0" IVar="-1" Cut="0.0000000000000000e+00" cType="1" res="3.4875431447289884e-04" rms="4.8292028903961182e-01" purity="4.1373398900032043e-01" nType="-99"/>
          <Node pos="r" depth="2" NCoef="0" IVar="-1" Cut="0.0000000000000000e+00" cType="1" res="-1.6012975247576833e-03" rms="3.6940920352935791e-01" purity="1.8989063799381256e-01" nType="-99"/>
        </Node>
        <Node pos="r" depth="1" NCoef="0" IVar="4" Cut="1.2030977010726929e-01" cType="1" res="3.4504614770412445e-02" rms="4.5811590552330017e-01" purity="5.8941984176635742e-01" nType="0">
          <Node pos="l" depth="2" NCoef="0" IVar="-1" Cut="0.0000000000000000e+00" cType="1" res="2.2675561194773763e-04" rms="4.6294236183166504e-01" purity="5.5577635765075684e-01" nType="-99"/>
          <Node pos="r" depth="2" NCoef="0" IVar="-1" Cut="0.0000000000000000e+00" cType="1" res="1.1406434932723641e-03" rms="4.3366223573684692e-01" purity="7.1532487869262695e-01" nType="-99"/>
        </Node>
      </Node>
    </BinaryTree>
    <BinaryTree type="DecisionTree" boostWeight="1.0000000000000000e+00" itree="639">
      <Node pos="s" depth="0" NCoef="0" IVar="2" Cut="2.0379609680175781e+02" cType="1" res="-8.4204273298382759e-03" rms="4.4851064682006836e-01" purity="4.8542529344558716e-01" nType="0">
        <Node pos="l" depth="1" NCoef="0" IVar="6" Cut="4.6993444824218750e+02" cType="1" res="-3.9980702102184296e-02" rms="4.4575721025466919e-01" purity="4.3501466512680054e-01" nType="0">
          <Node pos="l" depth="2" NCoef="0" IVar="-1" Cut="0.0000000000000000e+00" cType="1" res="-1.2977496953681111e-04" rms="4.3947786092758179e-01" purity="4.4252109527587891e-01" nType="-99"/>
          <Node pos="r" depth="2" NCoef="0" IVar="-1" Cut="0.0000000000000000e+00" cType="1" res="-1.5830140328034759e-03" rms="4.5228627324104309e-01" purity="4.1548073291778564e-01" nType="-99"/>
        </Node>
        <Node pos="r" depth="1" NCoef="0" IVar="2" Cut="2.4806387329101562e+02" cType="1" res="1.9678479060530663e-02" rms="4.4908541440963745e-01" purity="5.3030717372894287e-01" nType="0">
          <Node pos="l" depth="2" NCoef="0" IVar="-1" Cut="0.0000000000000000e+00" cType="1" res="9.2478166334331036e-04" rms="4.4754853844642639e-01" purity="6.2371444702148438e-01" nType="-99"/>
          <Node pos="r" depth="2" NCoef="0" IVar="-1" Cut="0.0000000000000000e+00" cType="1" res="-1.7282459884881973e-04" rms="4.4697576761245728e-01" purity="4.7645801305770874e-01" nType="-99"/>
        </Node>
      </Node>
    </BinaryTree>
    <BinaryTree type="DecisionTree" boostWeight="1.0000000000000000e+00" itree="640">
      <Node pos="s" depth="0" NCoef="0" IVar="5" Cut="8.9000034332275391e-01" cType="1" res="5.1653585396707058e-03" rms="4.4893670082092285e-01" purity="4.9895474314689636e-01" nType="0">
        <Node pos="l" depth="1" NCoef="0" IVar="0" Cut="8.3148975372314453e+00" cType="1" res="2.3316839709877968e-02" rms="4.4812437891960144e-01" purity="5.4155611991882324e-01" nType="0">
          <Node pos="l" depth="2" NCoef="0" IVar="-1" Cut="0.0000000000000000e+00" cType="1" res="1.0874943836824968e-04" rms="4.5779520273208618e-01" purity="4.9374222755432129e-01" nType="-99"/>
          <Node pos="r" depth="2" NCoef="0" IVar="-1" Cut="0.0000000000000000e+00" cType="1" res="1.3100701617076993e-03" rms="3.7846732139587402e-01" purity="8.0982518196105957e-01" nType="-99"/>
        </Node>
        <Node pos="r" depth="1" NCoef="0" IVar="0" Cut="7.0555925369262695e+00" cType="1" res="-6.2593817710876465e-02" rms="4.4546958804130554e-01" purity="3.3992460370063782e-01" nType="0">
          <Node pos="l" depth="2" NCoef="0" IVar="-1" Cut="0.0000000000000000e+00" cType="1" res="-5.9879489708691835e-04" rms="4.3116882443428040e-01" purity="2.9169306159019470e-01" nType="-99"/>
          <Node pos="r" depth="2" NCoef="0" IVar="-1" Cut="0.0000000000000000e+00" cType="1" res="-1.6931154532358050e-03" rms="4.6903362870216370e-01" purity="4.3943461775779724e-01" nType="-99"/>
        </Node>
      </Node>
    </BinaryTree>
    <BinaryTree type="DecisionTree" boostWeight="1.0000000000000000e+00" itree="641">
      <Node pos="s" depth="0" NCoef="0" IVar="7" Cut="1.6315883025527000e-02" cType="1" res="1.5713084489107132e-02" rms="4.4827291369438171e-01" purity="5.1251786947250366e-01" nType="0">
        <Node pos="l" depth="1" NCoef="0" IVar="0" Cut="6.3472604751586914e+00" cType="1" res="4.7482643276453018e-02" rms="4.5404621958732605e-01" purity="5.7370519638061523e-01" nType="0">
          <Node pos="l" depth="2" NCoef="0" IVar="-1" Cut="0.0000000000000000e+00" cType="1" res="1.1854700278490782e-03" rms="4.7912734746932983e-01" purity="4.6856734156608582e-01" nType="-99"/>
          <Node pos="r" depth="2" NCoef="0" IVar="-1" Cut="0.0000000000000000e+00" cType="1" res="1.6371617675758898e-04" rms="4.3136644363403320e-01" purity="6.5112566947937012e-01" nType="-99"/>
        </Node>
        <Node pos="r" depth="1" NCoef="0" IVar="4" Cut="1.6070817410945892e-01" cType="1" res="-2.0977156236767769e-02" rms="4.3865767121315002e-01" purity="4.4185334444046021e-01" nType="0">
          <Node pos="l" depth="2" NCoef="0" IVar="-1" Cut="0.0000000000000000e+00" cType="1" res="-7.7360018622130156e-04" rms="4.2949637770652771e-01" purity="3.7928676605224609e-01" nType="-99"/>
          <Node pos="r" depth="2" NCoef="0" IVar="-1" Cut="0.0000000000000000e+00" cType="1" res="5.5551924742758274e-04" rms="4.5166793465614319e-01" purity="5.8193641901016235e-01" nType="-99"/>
        </Node>
      </Node>
    </BinaryTree>
    <BinaryTree type="DecisionTree" boostWeight="1.0000000000000000e+00" itree="642">
      <Node pos="s" depth="0" NCoef="0" IVar="0" Cut="8.5726308822631836e+00" cType="1" res="-1.7779940739274025e-02" rms="4.4575566053390503e-01" purity="4.7412520647048950e-01" nType="0">
        <Node pos="l" depth="1" NCoef="0" IVar="7" Cut="8.2946397364139557e-02" cType="1" res="-3.0916916206479073e-02" rms="4.5080313086509705e-01" purity="4.3384209275245667e-01" nType="0">
          <Node pos="l" depth="2" NCoef="0" IVar="-1" Cut="0.0000000000000000e+00" cType="1" res="-2.2121894289739430e-04" rms="4.6047267317771912e-01" purity="4.6013090014457703e-01" nType="-99"/>
          <Node pos="r" depth="2" NCoef="0" IVar="-1" Cut="0.0000000000000000e+00" cType="1" res="-1.3096905313432217e-03" rms="4.1010618209838867e-01" purity="3.3975285291671753e-01" nType="-99"/>
        </Node>
        <Node pos="r" depth="1" NCoef="0" IVar="-1" Cut="0.0000000000000000e+00" cType="1" res="1.0764277540147305e-03" rms="3.8972523808479309e-01" purity="7.8652536869049072e-01" nType="-99"/>
      </Node>
    </BinaryTree>
    <BinaryTree type="DecisionTree" boostWeight="1.0000000000000000e+00" itree="643">
      <Node pos="s" depth="0" NCoef="0" IVar="4" Cut="-3.8928665220737457e-02" cType="1" res="2.7865482494235039e-02" rms="4.5167556405067444e-01" purity="5.1915574073791504e-01" nType="0">
        <Node pos="l" depth="1" NCoef="0" IVar="6" Cut="4.7488909912109375e+02" cType="1" res="-5.3605325520038605e-03" rms="4.4976061582565308e-01" purity="4.3770730495452881e-01" nType="0">
          <Node pos="l" depth="2" NCoef="0" IVar="-1" Cut="0.0000000000000000e+00" cType="1" res="-6.7991501418873668e-04" rms="4.4503515958786011e-01" purity="3.5204866528511047e-01" nType="-99"/>
          <Node pos="r" depth="2" NCoef="0" IVar="-1" Cut="0.0000000000000000e+00" cType="1" res="5.9965788386762142e-04" rms="4.5083802938461304e-01" purity="5.4796826839447021e-01" nType="-99"/>
        </Node>
        <Node pos="r" depth="1" NCoef="0" IVar="1" Cut="4.7274890542030334e-01" cType="1" res="4.9116082489490509e-02" rms="4.5161619782447815e-01" purity="5.7124829292297363e-01" nType="0">
          <Node pos="l" depth="2" NCoef="0" IVar="-1" Cut="0.0000000000000000e+00" cType="1" res="-7.0953305112197995e-05" rms="4.3138447403907776e-01" purity="5.8303898572921753e-01" nType="-99"/>
          <Node pos="r" depth="2" NCoef="0" IVar="-1" Cut="0.0000000000000000e+00" cType="1" res="7.2119955439120531e-04" rms="4.5400947332382202e-01" purity="5.6947606801986694e-01" nType="-99"/>
        </Node>
      </Node>
    </BinaryTree>
    <BinaryTree type="DecisionTree" boostWeight="1.0000000000000000e+00" itree="644">
      <Node pos="s" depth="0" NCoef="0" IVar="2" Cut="1.2994856262207031e+02" cType="1" res="4.9246642738580704e-03" rms="4.4642847776412964e-01" purity="4.9973875284194946e-01" nType="0">
        <Node pos="l" depth="1" NCoef="0" IVar="-1" Cut="0.0000000000000000e+00" cType="1" res="-2.0653312094509602e-03" rms="4.2334514856338501e-01" purity="3.0775487422943115e-01" nType="-99"/>
        <Node pos="r" depth="1" NCoef="0" IVar="4" Cut="1.8732570111751556e-01" cType="1" res="1.6024084761738777e-02" rms="4.4618859887123108e-01" purity="5.1434910297393799e-01" nType="0">
          <Node pos="l" depth="2" NCoef="0" IVar="-1" Cut="0.0000000000000000e+00" cType="1" res="6.8627414293587208e-05" rms="4.4470840692520142e-01" purity="4.9565979838371277e-01" nType="-99"/>
          <Node pos="r" depth="2" NCoef="0" IVar="-1" Cut="0.0000000000000000e+00" cType="1" res="1.2642669025808573e-03" rms="4.4806271791458130e-01" purity="6.6609752178192139e-01" nType="-99"/>
        </Node>
      </Node>
    </BinaryTree>
    <BinaryTree type="DecisionTree" boostWeight="1.0000000000000000e+00" itree="645">
      <Node pos="s" depth="0" NCoef="0" IVar="4" Cut="-1.0296770185232162e-01" cType="1" res="1.5077218413352966e-02" rms="4.5016032457351685e-01" purity="5.0989586114883423e-01" nType="0">
        <Node pos="l" depth="1" NCoef="0" IVar="0" Cut="7.2806835174560547e+00" cType="1" res="-6.3226997852325439e-02" rms="4.3206614255905151e-01" purity="3.6349174380302429e-01" nType="0">
          <Node pos="l" depth="2" NCoef="0" IVar="-1" Cut="0.0000000000000000e+00" cType="1" res="-2.1907307673245668e-03" rms="3.9257040619850159e-01" purity="2.0248122513294220e-01" nType="-99"/>
          <Node pos="r" depth="2" NCoef="0" IVar="-1" Cut="0.0000000000000000e+00" cType="1" res="3.1901852344162762e-04" rms="4.7428736090660095e-01" purity="6.1719268560409546e-01" nType="-99"/>
        </Node>
        <Node pos="r" depth="1" NCoef="0" IVar="2" Cut="1.8034016418457031e+02" cType="1" res="2.9439307749271393e-02" rms="4.5193064212799072e-01" purity="5.3674840927124023e-01" nType="0">
          <Node pos="l" depth="2" NCoef="0" IVar="-1" Cut="0.0000000000000000e+00" cType="1" res="-2.2073165746405721e-04" rms="4.5477834343910217e-01" purity="4.4905912876129150e-01" nType="-99"/>
          <Node pos="r" depth="2" NCoef="0" IVar="-1" Cut="0.0000000000000000e+00" cType="1" res="7.1323564043268561e-04" rms="4.4830051064491272e-01" purity="5.8520400524139404e-01" nType="-99"/>
        </Node>
      </Node>
    </BinaryTree>
    <BinaryTree type="DecisionTree" boostWeight="1.0000000000000000e+00" itree="646">
      <Node pos="s" depth="0" NCoef="0" IVar="1" Cut="1.6996632814407349e+00" cType="1" res="1.5988525003194809e-02" rms="4.4708606600761414e-01" purity="5.0950515270233154e-01" nType="0">
        <Node pos="l" depth="1" NCoef="0" IVar="5" Cut="8.5340511798858643e-01" cType="1" res="2.6154924184083939e-02" rms="4.5570775866508484e-01" purity="5.3942793607711792e-01" nType="0">
          <Node pos="l" depth="2" NCoef="0" IVar="-1" Cut="0.0000000000000000e+00" cType="1" res="5.3550436859950423e-04" rms="4.5646163821220398e-01" purity="5.7529002428054810e-01" nType="-99"/>
          <Node pos="r" depth="2" NCoef="0" IVar="-1" Cut="0.0000000000000000e+00" cType="1" res="-3.4632507595233619e-04" rms="4.4960939884185791e-01" purity="4.2985570430755615e-01" nType="-99"/>
        </Node>
        <Node pos="r" depth="1" NCoef="0" IVar="-1" Cut="0.0000000000000000e+00" cType="1" res="-3.6831849720329046e-03" rms="2.4914771318435669e-01" purity="7.0902630686759949e-02" nType="-99"/>
      </Node>
    </BinaryTree>
    <BinaryTree type="DecisionTree" boostWeight="1.0000000000000000e+00" itree="647">
      <Node pos="s" depth="0" NCoef="0" IVar="2" Cut="1.3174163818359375e+02" cType="1" res="-6.8814707919955254e-03" rms="4.4419828057289124e-01" purity="4.9345377087593079e-01" nType="0">
        <Node pos="l" depth="1" NCoef="0" IVar="-1" Cut="0.0000000000000000e+00" cType="1" res="-2.2079348564147949e-03" rms="4.1551357507705688e-01" purity="3.1349372863769531e-01" nType="-99"/>
        <Node pos="r" depth="1" NCoef="0" IVar="0" Cut="5.0841131210327148e+00" cType="1" res="4.8364475369453430e-03" rms="4.4445827603340149e-01" purity="5.0829339027404785e-01" nType="0">
          <Node pos="l" depth="2" NCoef="0" IVar="-1" Cut="0.0000000000000000e+00" cType="1" res="-1.8008818151429296e-03" rms="3.3560255169868469e-01" purity="1.5789225697517395e-01" nType="-99"/>
          <Node pos="r" depth="2" NCoef="0" IVar="-1" Cut="0.0000000000000000e+00" cType="1" res="2.1504799951799214e-04" rms="4.5435336232185364e-01" purity="5.5030912160873413e-01" nType="-99"/>
        </Node>
      </Node>
    </BinaryTree>
    <BinaryTree type="DecisionTree" boostWeight="1.0000000000000000e+00" itree="648">
      <Node pos="s" depth="0" NCoef="0" IVar="4" Cut="-1.3514779508113861e-01" cType="1" res="7.2558079846203327e-03" rms="4.4973477721214294e-01" purity="5.0208973884582520e-01" nType="0">
        <Node pos="l" depth="1" NCoef="0" IVar="-1" Cut="0.0000000000000000e+00" cType="1" res="-2.0092588383704424e-03" rms="4.1028276085853577e-01" purity="2.7040880918502808e-01" nType="-99"/>
        <Node pos="r" depth="1" NCoef="0" IVar="5" Cut="1.1535097360610962e+00" cType="1" res="1.4342165552079678e-02" rms="4.5077592134475708e-01" purity="5.1499181985855103e-01" nType="0">
          <Node pos="l" depth="2" NCoef="0" IVar="-1" Cut="0.0000000000000000e+00" cType="1" res="2.8994350577704608e-04" rms="4.5162758231163025e-01" purity="5.3002774715423584e-01" nType="-99"/>
          <Node pos="r" depth="2" NCoef="0" IVar="-1" Cut="0.0000000000000000e+00" cType="1" res="-1.7332355491816998e-03" rms="4.1934293508529663e-01" purity="2.7817624807357788e-01" nType="-99"/>
        </Node>
      </Node>
    </BinaryTree>
    <BinaryTree type="DecisionTree" boostWeight="1.0000000000000000e+00" itree="649">
      <Node pos="s" depth="0" NCoef="0" IVar="0" Cut="5.8432431221008301e+00" cType="1" res="1.3086976483464241e-02" rms="4.4890370965003967e-01" purity="5.0008606910705566e-01" nType="0">
        <Node pos="l" depth="1" NCoef="0" IVar="7" Cut="-3.1433980911970139e-03" cType="1" res="-3.6180473864078522e-02" rms="4.2590099573135376e-01" purity="2.7930271625518799e-01" nType="0">
          <Node pos="l" depth="2" NCoef="0" IVar="-1" Cut="0.0000000000000000e+00" cType="1" res="7.1862369077280164e-04" rms="4.6689161658287048e-01" purity="3.8829743862152100e-01" nType="-99"/>
          <Node pos="r" depth="2" NCoef="0" IVar="-1" Cut="0.0000000000000000e+00" cType="1" res="-1.9253042992204428e-03" rms="3.7450596690177917e-01" purity="1.9103068113327026e-01" nType="-99"/>
        </Node>
        <Node pos="r" depth="1" NCoef="0" IVar="4" Cut="2.8748339042067528e-02" cType="1" res="3.3960029482841492e-02" rms="4.5670112967491150e-01" purity="5.9362488985061646e-01" nType="0">
          <Node pos="l" depth="2" NCoef="0" IVar="-1" Cut="0.0000000000000000e+00" cType="1" res="2.7803378543467261e-05" rms="4.6433922648429871e-01" purity="5.3165376186370850e-01" nType="-99"/>
          <Node pos="r" depth="2" NCoef="0" IVar="-1" Cut="0.0000000000000000e+00" cType="1" res="9.0637139510363340e-04" rms="4.4338381290435791e-01" purity="6.7306852340698242e-01" nType="-99"/>
        </Node>
      </Node>
    </BinaryTree>
    <BinaryTree type="DecisionTree" boostWeight="1.0000000000000000e+00" itree="650">
      <Node pos="s" depth="0" NCoef="0" IVar="2" Cut="4.4213116455078125e+02" cType="1" res="1.5145879238843918e-02" rms="4.5150744915008545e-01" purity="5.1243650913238525e-01" nType="0">
        <Node pos="l" depth="1" NCoef="0" IVar="3" Cut="3.4671520233154297e+01" cType="1" res="2.4214720353484154e-02" rms="4.5443049073219299e-01" purity="5.3040522336959839e-01" nType="0">
          <Node pos="l" depth="2" NCoef="0" IVar="-1" Cut="0.0000000000000000e+00" cType="1" res="-2.1312339231371880e-03" rms="3.8125184178352356e-01" purity="2.8049951791763306e-01" nType="-99"/>
          <Node pos="r" depth="2" NCoef="0" IVar="-1" Cut="0.0000000000000000e+00" cType="1" res="4.2581825982779264e-04" rms="4.5667740702629089e-01" purity="5.4466193914413452e-01" nType="-99"/>
        </Node>
        <Node pos="r" depth="1" NCoef="0" IVar="-1" Cut="0.0000000000000000e+00" cType="1" res="-2.8148069977760315e-03" rms="3.6329716444015503e-01" purity="2.0149806141853333e-01" nType="-99"/>
      </Node>
    </BinaryTree>
    <BinaryTree type="DecisionTree" boostWeight="1.0000000000000000e+00" itree="651">
      <Node pos="s" depth="0" NCoef="0" IVar="7" Cut="-4.0297616273164749e-02" cType="1" res="1.0776893468573689e-03" rms="4.5295724272727966e-01" purity="4.9853271245956421e-01" nType="0">
        <Node pos="l" depth="1" NCoef="0" IVar="1" Cut="9.5248079299926758e-01" cType="1" res="4.5820631086826324e-02" rms="4.4861677289009094e-01" purity="5.9932214021682739e-01" nType="0">
          <Node pos="l" depth="2" NCoef="0" IVar="-1" Cut="0.0000000000000000e+00" cType="1" res="1.1431189486756921e-03" rms="4.3204334378242493e-01" purity="6.9306159019470215e-01" nType="-99"/>
          <Node pos="r" depth="2" NCoef="0" IVar="-1" Cut="0.0000000000000000e+00" cType="1" res="-7.4900698382407427e-04" rms="4.6524986624717712e-01" purity="4.0891462564468384e-01" nType="-99"/>
        </Node>
        <Node pos="r" depth="1" NCoef="0" IVar="2" Cut="1.2994856262207031e+02" cType="1" res="-1.4662829227745533e-02" rms="4.5342576503753662e-01" purity="4.6307510137557983e-01" nType="0">
          <Node pos="l" depth="2" NCoef="0" IVar="-1" Cut="0.0000000000000000e+00" cType="1" res="-1.2711739400401711e-03" rms="4.4501224160194397e-01" purity="3.5048452019691467e-01" nType="-99"/>
          <Node pos="r" depth="2" NCoef="0" IVar="-1" Cut="0.0000000000000000e+00" cType="1" res="-1.2023088493151590e-04" rms="4.5357188582420349e-01" purity="4.7216165065765381e-01" nType="-99"/>
        </Node>
      </Node>
    </BinaryTree>
    <BinaryTree type="DecisionTree" boostWeight="1.0000000000000000e+00" itree="652">
      <Node pos="s" depth="0" NCoef="0" IVar="1" Cut="8.5386157035827637e-01" cType="1" res="7.1858479641377926e-03" rms="4.5265710353851318e-01" purity="5.0221496820449829e-01" nType="0">
        <Node pos="l" depth="1" NCoef="0" IVar="2" Cut="1.4489006042480469e+02" cType="1" res="3.4601777791976929e-02" rms="4.5501181483268738e-01" purity="6.0653203725814819e-01" nType="0">
          <Node pos="l" depth="2" NCoef="0" IVar="-1" Cut="0.0000000000000000e+00" cType="1" res="-8.0190814333036542e-04" rms="4.8534110188484192e-01" purity="3.8952523469924927e-01" nType="-99"/>
          <Node pos="r" depth="2" NCoef="0" IVar="-1" Cut="0.0000000000000000e+00" cType="1" res="6.7710259463638067e-04" rms="4.4533914327621460e-01" purity="6.5458458662033081e-01" nType="-99"/>
        </Node>
        <Node pos="r" depth="1" NCoef="0" IVar="1" Cut="1.4264369010925293e+00" cType="1" res="-1.6321633011102676e-02" rms="4.4929811358451843e-01" purity="4.1276949644088745e-01" nType="0">
          <Node pos="l" depth="2" NCoef="0" IVar="-1" Cut="0.0000000000000000e+00" cType="1" res="-5.2658986533060670e-04" rms="4.5357397198677063e-01" purity="4.5393204689025879e-01" nType="-99"/>
          <Node pos="r" depth="2" NCoef="0" IVar="-1" Cut="0.0000000000000000e+00" cType="1" res="7.6358526712283492e-04" rms="4.3288943171501160e-01" purity="3.0817201733589172e-01" nType="-99"/>
        </Node>
      </Node>
    </BinaryTree>
    <BinaryTree type="DecisionTree" boostWeight="1.0000000000000000e+00" itree="653">
      <Node pos="s" depth="0" NCoef="0" IVar="2" Cut="3.2944262695312500e+02" cType="1" res="1.0751623660326004e-02" rms="4.5096343755722046e-01" purity="5.0683939456939697e-01" nType="0">
        <Node pos="l" depth="1" NCoef="0" IVar="2" Cut="1.2982620239257812e+02" cType="1" res="2.2243291139602661e-02" rms="4.5448675751686096e-01" purity="5.2958822250366211e-01" nType="0">
          <Node pos="l" depth="2" NCoef="0" IVar="-1" Cut="0.0000000000000000e+00" cType="1" res="-1.1954028159379959e-03" rms="4.4959935545921326e-01" purity="3.6004781723022461e-01" nType="-99"/>
          <Node pos="r" depth="2" NCoef="0" IVar="-1" Cut="0.0000000000000000e+00" cType="1" res="4.1913773748092353e-04" rms="4.5367354154586792e-01" purity="5.4563313722610474e-01" nType="-99"/>
        </Node>
        <Node pos="r" depth="1" NCoef="0" IVar="2" Cut="3.8929418945312500e+02" cType="1" res="-5.5434834212064743e-02" rms="4.2409056425094604e-01" purity="3.7581723928451538e-01" nType="0">
          <Node pos="l" depth="2" NCoef="0" IVar="-1" Cut="0.0000000000000000e+00" cType="1" res="-2.0118204411119223e-03" rms="4.4532763957977295e-01" purity="3.5070857405662537e-01" nType="-99"/>
          <Node pos="r" depth="2" NCoef="0" IVar="-1" Cut="0.0000000000000000e+00" cType="1" res="-3.4036525175906718e-04" rms="4.0835201740264893e-01" purity="3.8870683312416077e-01" nType="-99"/>
        </Node>
      </Node>
    </BinaryTree>
    <BinaryTree type="DecisionTree" boostWeight="1.0000000000000000e+00" itree="654">
      <Node pos="s" depth="0" NCoef="0" IVar="5" Cut="6.6761928796768188e-01" cType="1" res="3.7694457918405533e-02" rms="4.5347011089324951e-01" purity="5.3048837184906006e-01" nType="0">
        <Node pos="l" depth="1" NCoef="0" IVar="0" Cut="5.7942237854003906e+00" cType="1" res="1.0751294903457165e-02" rms="4.4892960786819458e-01" purity="5.4738759994506836e-01" nType="0">
          <Node pos="l" depth="2" NCoef="0" IVar="-1" Cut="0.0000000000000000e+00" cType="1" res="-1.0950817959383130e-03" rms="4.3437626957893372e-01" purity="2.6033753156661987e-01" nType="-99"/>
          <Node pos="r" depth="2" NCoef="0" IVar="-1" Cut="0.0000000000000000e+00" cType="1" res="4.5345487887971103e-04" rms="4.5019015669822693e-01" purity="6.3712918758392334e-01" nType="-99"/>
        </Node>
        <Node pos="r" depth="1" NCoef="0" IVar="5" Cut="1.1807941198348999e+00" cType="1" res="6.6242828965187073e-02" rms="4.5650020241737366e-01" purity="5.1258242130279541e-01" nType="0">
          <Node pos="l" depth="2" NCoef="0" IVar="-1" Cut="0.0000000000000000e+00" cType="1" res="1.0982723906636238e-03" rms="4.5388936996459961e-01" purity="5.3405654430389404e-01" nType="-99"/>
          <Node pos="r" depth="2" NCoef="0" IVar="-1" Cut="0.0000000000000000e+00" cType="1" res="-1.1383402161300182e-03" rms="4.5673322677612305e-01" purity="3.2502487301826477e-01" nType="-99"/>
        </Node>
      </Node>
    </BinaryTree>
    <BinaryTree type="DecisionTree" boostWeight="1.0000000000000000e+00" itree="655">
      <Node pos="s" depth="0" NCoef="0" IVar="2" Cut="4.7908444213867188e+02" cType="1" res="8.3135310560464859e-03" rms="4.5064499974250793e-01" purity="4.9485656619071960e-01" nType="0">
        <Node pos="l" depth="1" NCoef="0" IVar="6" Cut="6.5847601318359375e+02" cType="1" res="1.7268007621169090e-02" rms="4.5356136560440063e-01" purity="5.1185137033462524e-01" nType="0">
          <Node pos="l" depth="2" NCoef="0" IVar="-1" Cut="0.0000000000000000e+00" cType="1" res="5.2121446060482413e-05" rms="4.5433467626571655e-01" purity="4.8306778073310852e-01" nType="-99"/>
          <Node pos="r" depth="2" NCoef="0" IVar="-1" Cut="0.0000000000000000e+00" cType="1" res="1.4199680881574750e-03" rms="4.3541043996810913e-01" purity="7.2294974327087402e-01" nType="-99"/>
        </Node>
        <Node pos="r" depth="1" NCoef="0" IVar="-1" Cut="0.0000000000000000e+00" cType="1" res="-2.8662926051765680e-03" rms="3.6205351352691650e-01" purity="1.9778004288673401e-01" nType="-99"/>
      </Node>
    </BinaryTree>
    <BinaryTree type="DecisionTree" boostWeight="1.0000000000000000e+00" itree="656">
      <Node pos="s" depth="0" NCoef="0" IVar="4" Cut="9.7275726497173309e-02" cType="1" res="3.4553986042737961e-03" rms="4.4590109586715698e-01" purity="4.9378752708435059e-01" nType="0">
        <Node pos="l" depth="1" NCoef="0" IVar="0" Cut="7.9495811462402344e+00" cType="1" res="-1.3324747793376446e-02" rms="4.3928760290145874e-01" purity="4.6191412210464478e-01" nType="0">
          <Node pos="l" depth="2" NCoef="0" IVar="-1" Cut="0.0000000000000000e+00" cType="1" res="-4.4758952572010458e-04" rms="4.4470098614692688e-01" purity="3.8844889402389526e-01" nType="-99"/>
          <Node pos="r" depth="2" NCoef="0" IVar="-1" Cut="0.0000000000000000e+00" cType="1" res="7.1353325620293617e-04" rms="4.1131439805030823e-01" purity="7.3784458637237549e-01" nType="-99"/>
        </Node>
        <Node pos="r" depth="1" NCoef="0" IVar="5" Cut="7.3259323835372925e-01" cType="1" res="4.6542845666408539e-02" rms="4.5965251326560974e-01" purity="5.7563090324401855e-01" nType="0">
          <Node pos="l" depth="2" NCoef="0" IVar="-1" Cut="0.0000000000000000e+00" cType="1" res="-7.3134797275997698e-05" rms="4.4797137379646301e-01" purity="5.5255043506622314e-01" nType="-99"/>
          <Node pos="r" depth="2" NCoef="0" IVar="-1" Cut="0.0000000000000000e+00" cType="1" res="1.1144300224259496e-03" rms="4.6469160914421082e-01" purity="5.9450358152389526e-01" nType="-99"/>
        </Node>
      </Node>
    </BinaryTree>
    <BinaryTree type="DecisionTree" boostWeight="1.0000000000000000e+00" itree="657">
      <Node pos="s" depth="0" NCoef="0" IVar="0" Cut="4.8464303016662598e+00" cType="1" res="2.2221932187676430e-02" rms="4.4927710294723511e-01" purity="5.2186310291290283e-01" nType="0">
        <Node pos="l" depth="1" NCoef="0" IVar="-1" Cut="0.0000000000000000e+00" cType="1" res="-2.7767424471676350e-03" rms="2.8584325313568115e-01" purity="9.3590542674064636e-02" nType="-99"/>
        <Node pos="r" depth="1" NCoef="0" IVar="2" Cut="1.4031163024902344e+02" cType="1" res="3.0400058254599571e-02" rms="4.5549088716506958e-01" purity="5.4631757736206055e-01" nType="0">
          <Node pos="l" depth="2" NCoef="0" IVar="-1" Cut="0.0000000000000000e+00" cType="1" res="-7.6236797031015158e-04" rms="4.6554657816886902e-01" purity="3.8895276188850403e-01" nType="-99"/>
          <Node pos="r" depth="2" NCoef="0" IVar="-1" Cut="0.0000000000000000e+00" cType="1" res="5.2668573334813118e-04" rms="4.5319548249244690e-01" purity="5.6482553482055664e-01" nType="-99"/>
        </Node>
      </Node>
    </BinaryTree>
    <BinaryTree type="DecisionTree" boostWeight="1.0000000000000000e+00" itree="658">
      <Node pos="s" depth="0" NCoef="0" IVar="1" Cut="1.2525517940521240e+00" cType="1" res="2.1835166960954666e-02" rms="4.3898043036460876e-01" purity="5.2112352848052979e-01" nType="0">
        <Node pos="l" depth="1" NCoef="0" IVar="2" Cut="1.6418383789062500e+02" cType="1" res="4.0353108197450638e-02" rms="4.4810959696769714e-01" purity="5.9615135192871094e-01" nType="0">
          <Node pos="l" depth="2" NCoef="0" IVar="-1" Cut="0.0000000000000000e+00" cType="1" res="-1.1978140537394211e-04" rms="4.7485196590423584e-01" purity="4.7178277373313904e-01" nType="-99"/>
          <Node pos="r" depth="2" NCoef="0" IVar="-1" Cut="0.0000000000000000e+00" cType="1" res="7.2038790676742792e-04" rms="4.3637421727180481e-01" purity="6.4211761951446533e-01" nType="-99"/>
        </Node>
        <Node pos="r" depth="1" NCoef="0" IVar="0" Cut="5.8381094932556152e+00" cType="1" res="-4.0530443191528320e-02" rms="4.0048128366470337e-01" purity="2.6844096183776855e-01" nType="0">
          <Node pos="l" depth="2" NCoef="0" IVar="-1" Cut="0.0000000000000000e+00" cType="1" res="-3.8316482678055763e-03" rms="2.1521779894828796e-01" purity="5.2850868552923203e-02" nType="-99"/>
          <Node pos="r" depth="2" NCoef="0" IVar="-1" Cut="0.0000000000000000e+00" cType="1" res="4.5584234612761065e-05" rms="4.5399031043052673e-01" purity="3.6627301573753357e-01" nType="-99"/>
        </Node>
      </Node>
    </BinaryTree>
    <BinaryTree type="DecisionTree" boostWeight="1.0000000000000000e+00" itree="659">
      <Node pos="s" depth="0" NCoef="0" IVar="0" Cut="8.4379529953002930e+00" cType="1" res="4.4018290936946869e-03" rms="4.4155690073966980e-01" purity="5.0031787157058716e-01" nType="0">
        <Node pos="l" depth="1" NCoef="0" IVar="6" Cut="4.1207980346679688e+02" cType="1" res="-1.1903719976544380e-02" rms="4.4885343313217163e-01" purity="4.5077165961265564e-01" nType="0">
          <Node pos="l" depth="2" NCoef="0" IVar="-1" Cut="0.0000000000000000e+00" cType="1" res="-7.7343900920823216e-04" rms="4.4430807232856750e-01" purity="3.4195402264595032e-01" nType="-99"/>
          <Node pos="r" depth="2" NCoef="0" IVar="-1" Cut="0.0000000000000000e+00" cType="1" res="2.0963147107977420e-04" rms="4.4979429244995117e-01" purity="5.2479290962219238e-01" nType="-99"/>
        </Node>
        <Node pos="r" depth="1" NCoef="0" IVar="3" Cut="8.6479705810546875e+01" cType="1" res="1.0648362338542938e-01" rms="3.7711140513420105e-01" purity="8.1050437688827515e-01" nType="0">
          <Node pos="l" depth="2" NCoef="0" IVar="-1" Cut="0.0000000000000000e+00" cType="1" res="8.2240340998396277e-04" rms="4.0176337957382202e-01" purity="7.6274126768112183e-01" nType="-99"/>
          <Node pos="r" depth="2" NCoef="0" IVar="-1" Cut="0.0000000000000000e+00" cType="1" res="1.9689865875989199e-03" rms="3.4338778257369995e-01" purity="8.6128973960876465e-01" nType="-99"/>
        </Node>
      </Node>
    </BinaryTree>
    <BinaryTree type="DecisionTree" boostWeight="1.0000000000000000e+00" itree="660">
      <Node pos="s" depth="0" NCoef="0" IVar="6" Cut="7.0881512451171875e+02" cType="1" res="1.5990870073437691e-02" rms="4.5125249028205872e-01" purity="5.0727516412734985e-01" nType="0">
        <Node pos="l" depth="1" NCoef="0" IVar="0" Cut="7.7167963981628418e+00" cType="1" res="2.9802899807691574e-03" rms="4.5040056109428406e-01" purity="4.8415902256965637e-01" nType="0">
          <Node pos="l" depth="2" NCoef="0" IVar="-1" Cut="0.0000000000000000e+00" cType="1" res="-2.9319603345356882e-04" rms="4.6101394295692444e-01" purity="4.0017852187156677e-01" nType="-99"/>
          <Node pos="r" depth="2" NCoef="0" IVar="-1" Cut="0.0000000000000000e+00" cType="1" res="9.8499725572764874e-04" rms="4.0533354878425598e-01" purity="7.5310885906219482e-01" nType="-99"/>
        </Node>
        <Node pos="r" depth="1" NCoef="0" IVar="7" Cut="4.9474578350782394e-02" cType="1" res="1.1291672289371490e-01" rms="4.4575288891792297e-01" purity="6.7948520183563232e-01" nType="0">
          <Node pos="l" depth="2" NCoef="0" IVar="-1" Cut="0.0000000000000000e+00" cType="1" res="6.9575425004586577e-04" rms="4.4102689623832703e-01" purity="6.5255820751190186e-01" nType="-99"/>
          <Node pos="r" depth="2" NCoef="0" IVar="-1" Cut="0.0000000000000000e+00" cType="1" res="1.9797061104327440e-03" rms="4.4297197461128235e-01" purity="7.0816397666931152e-01" nType="-99"/>
        </Node>
      </Node>
    </BinaryTree>
    <BinaryTree type="DecisionTree" boostWeight="1.0000000000000000e+00" itree="661">
      <Node pos="s" depth="0" NCoef="0" IVar="0" Cut="5.5704059600830078e+00" cType="1" res="6.2939636409282684e-03" rms="4.4828149676322937e-01" purity="5.0831156969070435e-01" nType="0">
        <Node pos="l" depth="1" NCoef="0" IVar="2" Cut="1.7287812805175781e+02" cType="1" res="-5.2058596163988113e-02" rms="3.9909130334854126e-01" purity="2.4825273454189301e-01" nType="0">
          <Node pos="l" depth="2" NCoef="0" IVar="-1" Cut="0.0000000000000000e+00" cType="1" res="-1.7268112860620022e-03" rms="3.8041621446609497e-01" purity="1.7611271142959595e-01" nType="-99"/>
          <Node pos="r" depth="2" NCoef="0" IVar="-1" Cut="0.0000000000000000e+00" cType="1" res="-4.1066869744099677e-04" rms="4.0734651684761047e-01" purity="2.9075542092323303e-01" nType="-99"/>
        </Node>
        <Node pos="r" depth="1" NCoef="0" IVar="6" Cut="7.0764367675781250e+02" cType="1" res="2.0345982164144516e-02" rms="4.5823192596435547e-01" purity="5.7093697786331177e-01" nType="0">
          <Node pos="l" depth="2" NCoef="0" IVar="-1" Cut="0.0000000000000000e+00" cType="1" res="1.1582524894038215e-04" rms="4.5884412527084351e-01" purity="5.5003368854522705e-01" nType="-99"/>
          <Node pos="r" depth="2" NCoef="0" IVar="-1" Cut="0.0000000000000000e+00" cType="1" res="1.2516718124970794e-03" rms="4.4523727893829346e-01" purity="7.2184634208679199e-01" nType="-99"/>
        </Node>
      </Node>
    </BinaryTree>
    <BinaryTree type="DecisionTree" boostWeight="1.0000000000000000e+00" itree="662">
      <Node pos="s" depth="0" NCoef="0" IVar="7" Cut="1.7697456479072571e-01" cType="1" res="4.4744885526597500e-03" rms="4.4698214530944824e-01" purity="4.9880334734916687e-01" nType="0">
        <Node pos="l" depth="1" NCoef="0" IVar="0" Cut="8.5510120391845703e+00" cType="1" res="-2.6284081395715475e-03" rms="4.4445601105690002e-01" purity="4.9588492512702942e-01" nType="0">
          <Node pos="l" depth="2" NCoef="0" IVar="-1" Cut="0.0000000000000000e+00" cType="1" res="-1.7953585484065115e-04" rms="4.5029872655868530e-01" purity="4.5950895547866821e-01" nType="-99"/>
          <Node pos="r" depth="2" NCoef="0" IVar="-1" Cut="0.0000000000000000e+00" cType="1" res="1.1440684320405126e-03" rms="3.7967827916145325e-01" purity="8.0559772253036499e-01" nType="-99"/>
        </Node>
        <Node pos="r" depth="1" NCoef="0" IVar="-1" Cut="0.0000000000000000e+00" cType="1" res="1.7301910556852818e-03" rms="4.7202911972999573e-01" purity="5.4950380325317383e-01" nType="-99"/>
      </Node>
    </BinaryTree>
    <BinaryTree type="DecisionTree" boostWeight="1.0000000000000000e+00" itree="663">
      <Node pos="s" depth="0" NCoef="0" IVar="3" Cut="9.5336288452148438e+01" cType="1" res="-1.2632263824343681e-02" rms="4.4904664158821106e-01" purity="4.8454827070236206e-01" nType="0">
        <Node pos="l" depth="1" NCoef="0" IVar="4" Cut="6.8721055984497070e-02" cType="1" res="-3.1325023621320724e-02" rms="4.5246583223342896e-01" purity="4.4563010334968567e-01" nType="0">
          <Node pos="l" depth="2" NCoef="0" IVar="-1" Cut="0.0000000000000000e+00" cType="1" res="-7.6582940528169274e-04" rms="4.4690665602684021e-01" purity="3.9962455630302429e-01" nType="-99"/>
          <Node pos="r" depth="2" NCoef="0" IVar="-1" Cut="0.0000000000000000e+00" cType="1" res="9.6480463980697095e-05" rms="4.5950034260749817e-01" purity="5.2633804082870483e-01" nType="-99"/>
        </Node>
        <Node pos="r" depth="1" NCoef="0" IVar="2" Cut="3.6802343750000000e+02" cType="1" res="2.8811994940042496e-02" rms="4.3853890895843506e-01" purity="5.7083493471145630e-01" nType="0">
          <Node pos="l" depth="2" NCoef="0" IVar="-1" Cut="0.0000000000000000e+00" cType="1" res="6.7612720886245370e-04" rms="4.4540107250213623e-01" purity="6.2146735191345215e-01" nType="-99"/>
          <Node pos="r" depth="2" NCoef="0" IVar="-1" Cut="0.0000000000000000e+00" cType="1" res="-9.4073388027027249e-04" rms="4.0013182163238525e-01" purity="3.8536855578422546e-01" nType="-99"/>
        </Node>
      </Node>
    </BinaryTree>
    <BinaryTree type="DecisionTree" boostWeight="1.0000000000000000e+00" itree="664">
      <Node pos="s" depth="0" NCoef="0" IVar="3" Cut="9.7340881347656250e+01" cType="1" res="1.4779850607737899e-03" rms="4.4741407036781311e-01" purity="4.9698877334594727e-01" nType="0">
        <Node pos="l" depth="1" NCoef="0" IVar="3" Cut="3.7283885955810547e+01" cType="1" res="-2.1491516381502151e-02" rms="4.4925913214683533e-01" purity="4.5456799864768982e-01" nType="0">
          <Node pos="l" depth="2" NCoef="0" IVar="-1" Cut="0.0000000000000000e+00" cType="1" res="-2.2236488293856382e-03" rms="4.3195834755897522e-01" purity="2.8452271223068237e-01" nType="-99"/>
          <Node pos="r" depth="2" NCoef="0" IVar="-1" Cut="0.0000000000000000e+00" cType="1" res="-1.1476620420580730e-04" rms="4.4939348101615906e-01" purity="4.7439196705818176e-01" nType="-99"/>
        </Node>
        <Node pos="r" depth="1" NCoef="0" IVar="2" Cut="3.5372961425781250e+02" cType="1" res="5.2568614482879639e-02" rms="4.3899390101432800e-01" purity="5.9134435653686523e-01" nType="0">
          <Node pos="l" depth="2" NCoef="0" IVar="-1" Cut="0.0000000000000000e+00" cType="1" res="1.0490723652765155e-03" rms="4.3614235520362854e-01" purity="6.4032530784606934e-01" nType="-99"/>
          <Node pos="r" depth="2" NCoef="0" IVar="-1" Cut="0.0000000000000000e+00" cType="1" res="-7.9978816211223602e-04" rms="4.3317762017250061e-01" purity="4.2084637284278870e-01" nType="-99"/>
        </Node>
      </Node>
    </BinaryTree>
    <BinaryTree type="DecisionTree" boostWeight="1.0000000000000000e+00" itree="665">
      <Node pos="s" depth="0" NCoef="0" IVar="7" Cut="5.5602837353944778e-02" cType="1" res="1.0048854164779186e-03" rms="4.4700509309768677e-01" purity="5.0222116708755493e-01" nType="0">
        <Node pos="l" depth="1" NCoef="0" IVar="0" Cut="6.2752146720886230e+00" cType="1" res="1.9578302279114723e-02" rms="4.4796934723854065e-01" purity="5.3787553310394287e-01" nType="0">
          <Node pos="l" depth="2" NCoef="0" IVar="-1" Cut="0.0000000000000000e+00" cType="1" res="-2.3273796250578016e-04" rms="4.4941094517707825e-01" purity="3.3834114670753479e-01" nType="-99"/>
          <Node pos="r" depth="2" NCoef="0" IVar="-1" Cut="0.0000000000000000e+00" cType="1" res="5.1279144827276468e-04" rms="4.4572180509567261e-01" purity="6.5791654586791992e-01" nType="-99"/>
        </Node>
        <Node pos="r" depth="1" NCoef="0" IVar="1" Cut="6.0141849517822266e-01" cType="1" res="-3.7211854010820389e-02" rms="4.4256925582885742e-01" purity="4.2885857820510864e-01" nType="0">
          <Node pos="l" depth="2" NCoef="0" IVar="-1" Cut="0.0000000000000000e+00" cType="1" res="9.0192042989656329e-04" rms="4.5047232508659363e-01" purity="6.5686732530593872e-01" nType="-99"/>
          <Node pos="r" depth="2" NCoef="0" IVar="-1" Cut="0.0000000000000000e+00" cType="1" res="-1.0520706418901682e-03" rms="4.3492642045021057e-01" purity="3.6484754085540771e-01" nType="-99"/>
        </Node>
      </Node>
    </BinaryTree>
    <BinaryTree type="DecisionTree" boostWeight="1.0000000000000000e+00" itree="666">
      <Node pos="s" depth="0" NCoef="0" IVar="4" Cut="2.0932203531265259e-01" cType="1" res="3.6055468954145908e-03" rms="4.5182687044143677e-01" purity="5.0510555505752563e-01" nType="0">
        <Node pos="l" depth="1" NCoef="0" IVar="7" Cut="-8.1561684608459473e-02" cType="1" res="-5.2386415190994740e-03" rms="4.5331734418869019e-01" purity="4.8912534117698669e-01" nType="0">
          <Node pos="l" depth="2" NCoef="0" IVar="-1" Cut="0.0000000000000000e+00" cType="1" res="-1.4382462250068784e-03" rms="4.2957666516304016e-01" purity="4.6668830513954163e-01" nType="-99"/>
          <Node pos="r" depth="2" NCoef="0" IVar="-1" Cut="0.0000000000000000e+00" cType="1" res="3.2842195651028305e-05" rms="4.5418199896812439e-01" purity="4.9084579944610596e-01" nType="-99"/>
        </Node>
        <Node pos="r" depth="1" NCoef="0" IVar="-1" Cut="0.0000000000000000e+00" cType="1" res="1.1554985539987683e-03" rms="4.2483231425285339e-01" purity="6.7318081855773926e-01" nType="-99"/>
      </Node>
    </BinaryTree>
    <BinaryTree type="DecisionTree" boostWeight="1.0000000000000000e+00" itree="667">
      <Node pos="s" depth="0" NCoef="0" IVar="1" Cut="9.4350087642669678e-01" cType="1" res="-1.2546022422611713e-02" rms="4.4250082969665527e-01" purity="4.7893157601356506e-01" nType="0">
        <Node pos="l" depth="1" NCoef="0" IVar="7" Cut="-4.0180206298828125e-02" cType="1" res="1.4149962924420834e-02" rms="4.4733187556266785e-01" purity="5.8662706613540649e-01" nType="0">
          <Node pos="l" depth="2" NCoef="0" IVar="-1" Cut="0.0000000000000000e+00" cType="1" res="1.1859909864142537e-03" rms="4.0971735119819641e-01" purity="6.9009524583816528e-01" nType="-99"/>
          <Node pos="r" depth="2" NCoef="0" IVar="-1" Cut="0.0000000000000000e+00" cType="1" res="-1.8489871581550688e-04" rms="4.5614382624626160e-01" purity="5.5074453353881836e-01" nType="-99"/>
        </Node>
        <Node pos="r" depth="1" NCoef="0" IVar="1" Cut="1.7335511445999146e+00" cType="1" res="-4.3487861752510071e-02" rms="4.3478849530220032e-01" purity="3.5410773754119873e-01" nType="0">
          <Node pos="l" depth="2" NCoef="0" IVar="-1" Cut="0.0000000000000000e+00" cType="1" res="-4.6145435771904886e-04" rms="4.5282664895057678e-01" purity="3.9262294769287109e-01" nType="-99"/>
          <Node pos="r" depth="2" NCoef="0" IVar="-1" Cut="0.0000000000000000e+00" cType="1" res="-4.2725545354187489e-03" rms="2.3559078574180603e-01" purity="5.6222286075353622e-02" nType="-99"/>
        </Node>
      </Node>
    </BinaryTree>
    <BinaryTree type="DecisionTree" boostWeight="1.0000000000000000e+00" itree="668">
      <Node pos="s" depth="0" NCoef="0" IVar="3" Cut="1.0261617279052734e+02" cType="1" res="-9.4780381768941879e-03" rms="4.5057234168052673e-01" purity="4.8526307940483093e-01" nType="0">
        <Node pos="l" depth="1" NCoef="0" IVar="3" Cut="8.3903533935546875e+01" cType="1" res="-3.0932469293475151e-02" rms="4.5380884408950806e-01" purity="4.4452759623527527e-01" nType="0">
          <Node pos="l" depth="2" NCoef="0" IVar="-1" Cut="0.0000000000000000e+00" cType="1" res="-1.5583333151880652e-04" rms="4.5534208416938782e-01" purity="4.5502188801765442e-01" nType="-99"/>
          <Node pos="r" depth="2" NCoef="0" IVar="-1" Cut="0.0000000000000000e+00" cType="1" res="-1.7198529094457626e-03" rms="4.3567425012588501e-01" purity="3.9634093642234802e-01" nType="-99"/>
        </Node>
        <Node pos="r" depth="1" NCoef="0" IVar="5" Cut="8.3528143167495728e-01" cType="1" res="5.2360992878675461e-02" rms="4.3523320555686951e-01" purity="6.0267686843872070e-01" nType="0">
          <Node pos="l" depth="2" NCoef="0" IVar="-1" Cut="0.0000000000000000e+00" cType="1" res="1.1329196859151125e-03" rms="4.2993634939193726e-01" purity="6.8228840827941895e-01" nType="-99"/>
          <Node pos="r" depth="2" NCoef="0" IVar="-1" Cut="0.0000000000000000e+00" cType="1" res="-6.1798846581950784e-04" rms="4.3502762913703918e-01" purity="3.9671200513839722e-01" nType="-99"/>
        </Node>
      </Node>
    </BinaryTree>
    <BinaryTree type="DecisionTree" boostWeight="1.0000000000000000e+00" itree="669">
      <Node pos="s" depth="0" NCoef="0" IVar="6" Cut="6.6433428955078125e+02" cType="1" res="9.8813546355813742e-04" rms="4.4677200913429260e-01" purity="4.9124684929847717e-01" nType="0">
        <Node pos="l" depth="1" NCoef="0" IVar="4" Cut="-1.1976116895675659e-01" cType="1" res="-1.5699068084359169e-02" rms="4.4621920585632324e-01" purity="4.5985350012779236e-01" nType="0">
          <Node pos="l" depth="2" NCoef="0" IVar="-1" Cut="0.0000000000000000e+00" cType="1" res="-2.4095105472952127e-03" rms="3.6739659309387207e-01" purity="2.2066278755664825e-01" nType="-99"/>
          <Node pos="r" depth="2" NCoef="0" IVar="-1" Cut="0.0000000000000000e+00" cType="1" res="-4.8326401156373322e-05" rms="4.5161521434783936e-01" purity="4.8389270901679993e-01" nType="-99"/>
        </Node>
        <Node pos="r" depth="1" NCoef="0" IVar="3" Cut="1.0860713195800781e+02" cType="1" res="1.0957638919353485e-01" rms="4.3498733639717102e-01" purity="6.9553202390670776e-01" nType="0">
          <Node pos="l" depth="2" NCoef="0" IVar="-1" Cut="0.0000000000000000e+00" cType="1" res="3.3184897620230913e-04" rms="4.6734264492988586e-01" purity="5.9634548425674438e-01" nType="-99"/>
          <Node pos="r" depth="2" NCoef="0" IVar="-1" Cut="0.0000000000000000e+00" cType="1" res="2.2215333301573992e-03" rms="3.9090609550476074e-01" purity="7.8137171268463135e-01" nType="-99"/>
        </Node>
      </Node>
    </BinaryTree>
    <BinaryTree type="DecisionTree" boostWeight="1.0000000000000000e+00" itree="670">
      <Node pos="s" depth="0" NCoef="0" IVar="2" Cut="2.2045501708984375e+02" cType="1" res="-4.2582261376082897e-03" rms="4.4898289442062378e-01" purity="4.9714073538780212e-01" nType="0">
        <Node pos="l" depth="1" NCoef="0" IVar="3" Cut="6.2536117553710938e+01" cType="1" res="-3.0961563810706139e-02" rms="4.5734292268753052e-01" purity="4.5168855786323547e-01" nType="0">
          <Node pos="l" depth="2" NCoef="0" IVar="-1" Cut="0.0000000000000000e+00" cType="1" res="8.2588201621547341e-05" rms="4.5495685935020447e-01" purity="4.6670502424240112e-01" nType="-99"/>
          <Node pos="r" depth="2" NCoef="0" IVar="-1" Cut="0.0000000000000000e+00" cType="1" res="-9.2415662948042154e-04" rms="4.5661121606826782e-01" purity="4.3594205379486084e-01" nType="-99"/>
        </Node>
        <Node pos="r" depth="1" NCoef="0" IVar="1" Cut="6.6017508506774902e-01" cType="1" res="2.5225784629583359e-02" rms="4.3767923116683960e-01" purity="5.4732596874237061e-01" nType="0">
          <Node pos="l" depth="2" NCoef="0" IVar="-1" Cut="0.0000000000000000e+00" cType="1" res="1.5649015549570322e-03" rms="3.8293579220771790e-01" purity="8.1116163730621338e-01" nType="-99"/>
          <Node pos="r" depth="2" NCoef="0" IVar="-1" Cut="0.0000000000000000e+00" cType="1" res="6.8550439209502656e-06" rms="4.4599795341491699e-01" purity="4.8526427149772644e-01" nType="-99"/>
        </Node>
      </Node>
    </BinaryTree>
    <BinaryTree type="DecisionTree" boostWeight="1.0000000000000000e+00" itree="671">
      <Node pos="s" depth="0" NCoef="0" IVar="3" Cut="1.0554098510742188e+02" cType="1" res="1.0395897552371025e-02" rms="4.5370030403137207e-01" purity="5.0734615325927734e-01" nType="0">
        <Node pos="l" depth="1" NCoef="0" IVar="2" Cut="3.1084005737304688e+02" cType="1" res="-1.0489025153219700e-02" rms="4.5887774229049683e-01" purity="4.6747958660125732e-01" nType="0">
          <Node pos="l" depth="2" NCoef="0" IVar="-1" Cut="0.0000000000000000e+00" cType="1" res="-1.5505378542002290e-05" rms="4.6393316984176636e-01" purity="4.8520624637603760e-01" nType="-99"/>
          <Node pos="r" depth="2" NCoef="0" IVar="-1" Cut="0.0000000000000000e+00" cType="1" res="-1.4761021593585610e-03" rms="4.0848410129547119e-01" purity="3.2526391744613647e-01" nType="-99"/>
        </Node>
        <Node pos="r" depth="1" NCoef="0" IVar="7" Cut="-7.6320799998939037e-03" cType="1" res="7.2734706103801727e-02" rms="4.3191772699356079e-01" purity="6.2634283304214478e-01" nType="0">
          <Node pos="l" depth="2" NCoef="0" IVar="-1" Cut="0.0000000000000000e+00" cType="1" res="9.5189416242646985e-06" rms="4.3770354986190796e-01" purity="6.0880869626998901e-01" nType="-99"/>
          <Node pos="r" depth="2" NCoef="0" IVar="-1" Cut="0.0000000000000000e+00" cType="1" res="1.4836178161203861e-03" rms="4.2243999242782593e-01" purity="6.3696712255477905e-01" nType="-99"/>
        </Node>
      </Node>
    </BinaryTree>
    <BinaryTree type="DecisionTree" boostWeight="1.0000000000000000e+00" itree="672">
      <Node pos="s" depth="0" NCoef="0" IVar="6" Cut="3.4578555297851562e+02" cType="1" res="2.2217535879462957e-03" rms="4.4517627358436584e-01" purity="4.9541270732879639e-01" nType="0">
        <Node pos="l" depth="1" NCoef="0" IVar="7" Cut="4.3660465627908707e-02" cType="1" res="-6.9073729217052460e-02" rms="4.2276698350906372e-01" purity="2.9317897558212280e-01" nType="0">
          <Node pos="l" depth="2" NCoef="0" IVar="-1" Cut="0.0000000000000000e+00" cType="1" res="-2.2543768864125013e-03" rms="4.0176850557327271e-01" purity="2.2674332559108734e-01" nType="-99"/>
          <Node pos="r" depth="2" NCoef="0" IVar="-1" Cut="0.0000000000000000e+00" cType="1" res="7.8878673957660794e-04" rms="4.3038004636764526e-01" purity="4.0821912884712219e-01" nType="-99"/>
        </Node>
        <Node pos="r" depth="1" NCoef="0" IVar="7" Cut="2.9925286769866943e-02" cType="1" res="1.5682669356465340e-02" rms="4.4801035523414612e-01" purity="5.3359538316726685e-01" nType="0">
          <Node pos="l" depth="2" NCoef="0" IVar="-1" Cut="0.0000000000000000e+00" cType="1" res="5.9119617799296975e-04" rms="4.4032138586044312e-01" purity="5.9868192672729492e-01" nType="-99"/>
          <Node pos="r" depth="2" NCoef="0" IVar="-1" Cut="0.0000000000000000e+00" cType="1" res="-4.3930881656706333e-04" rms="4.5545545220375061e-01" purity="4.3540894985198975e-01" nType="-99"/>
        </Node>
      </Node>
    </BinaryTree>
    <BinaryTree type="DecisionTree" boostWeight="1.0000000000000000e+00" itree="673">
      <Node pos="s" depth="0" NCoef="0" IVar="1" Cut="6.8976837396621704e-01" cType="1" res="-8.4832506254315376e-03" rms="4.5339095592498779e-01" purity="4.8109576106071472e-01" nType="0">
        <Node pos="l" depth="1" NCoef="0" IVar="1" Cut="5.4432135820388794e-01" cType="1" res="3.0567603185772896e-02" rms="4.6379268169403076e-01" purity="5.9717208147048950e-01" nType="0">
          <Node pos="l" depth="2" NCoef="0" IVar="-1" Cut="0.0000000000000000e+00" cType="1" res="-5.1315047312527895e-04" rms="4.5033690333366394e-01" purity="5.4293894767761230e-01" nType="-99"/>
          <Node pos="r" depth="2" NCoef="0" IVar="-1" Cut="0.0000000000000000e+00" cType="1" res="1.1232844553887844e-03" rms="4.6672171354293823e-01" purity="6.4770275354385376e-01" nType="-99"/>
        </Node>
        <Node pos="r" depth="1" NCoef="0" IVar="4" Cut="-1.2276284396648407e-01" cType="1" res="-2.4843256920576096e-02" rms="4.4795089960098267e-01" purity="4.3246662616729736e-01" nType="0">
          <Node pos="l" depth="2" NCoef="0" IVar="-1" Cut="0.0000000000000000e+00" cType="1" res="-2.5263051502406597e-03" rms="3.9083942770957947e-01" purity="2.1473555266857147e-01" nType="-99"/>
          <Node pos="r" depth="2" NCoef="0" IVar="-1" Cut="0.0000000000000000e+00" cType="1" res="-1.9616560894064605e-04" rms="4.5190453529357910e-01" purity="4.5440760254859924e-01" nType="-99"/>
        </Node>
      </Node>
    </BinaryTree>
    <BinaryTree type="DecisionTree" boostWeight="1.0000000000000000e+00" itree="674">
      <Node pos="s" depth="0" NCoef="0" IVar="4" Cut="1.7617872357368469e-01" cType="1" res="1.2082648463547230e-02" rms="4.4940438866615295e-01" purity="5.0692492723464966e-01" nType="0">
        <Node pos="l" depth="1" NCoef="0" IVar="5" Cut="1.0861233472824097e+00" cType="1" res="1.8085697665810585e-03" rms="4.4728347659111023e-01" purity="4.8840284347534180e-01" nType="0">
          <Node pos="l" depth="2" NCoef="0" IVar="-1" Cut="0.0000000000000000e+00" cType="1" res="1.5077709394972771e-04" rms="4.4843399524688721e-01" purity="5.1006537675857544e-01" nType="-99"/>
          <Node pos="r" depth="2" NCoef="0" IVar="-1" Cut="0.0000000000000000e+00" cType="1" res="-1.4917312655597925e-03" rms="4.2588773369789124e-01" purity="2.8278678655624390e-01" nType="-99"/>
        </Node>
        <Node pos="r" depth="1" NCoef="0" IVar="5" Cut="7.5397443771362305e-01" cType="1" res="7.4089996516704559e-02" rms="4.5712170004844666e-01" purity="6.1871176958084106e-01" nType="0">
          <Node pos="l" depth="2" NCoef="0" IVar="-1" Cut="0.0000000000000000e+00" cType="1" res="3.0435496591962874e-04" rms="4.4191056489944458e-01" purity="6.0652679204940796e-01" nType="-99"/>
          <Node pos="r" depth="2" NCoef="0" IVar="-1" Cut="0.0000000000000000e+00" cType="1" res="1.4648122014477849e-03" rms="4.6598488092422485e-01" purity="6.3000476360321045e-01" nType="-99"/>
        </Node>
      </Node>
    </BinaryTree>
    <BinaryTree type="DecisionTree" boostWeight="1.0000000000000000e+00" itree="675">
      <Node pos="s" depth="0" NCoef="0" IVar="4" Cut="2.0218014717102051e-01" cType="1" res="1.2573350220918655e-02" rms="4.4602975249290466e-01" purity="5.1066672801971436e-01" nType="0">
        <Node pos="l" depth="1" NCoef="0" IVar="2" Cut="2.2045501708984375e+02" cType="1" res="3.7827924825251102e-04" rms="4.4510680437088013e-01" purity="4.9261838197708130e-01" nType="0">
          <Node pos="l" depth="2" NCoef="0" IVar="-1" Cut="0.0000000000000000e+00" cType="1" res="-4.9426045734435320e-04" rms="4.5564359426498413e-01" purity="4.4033223390579224e-01" nType="-99"/>
          <Node pos="r" depth="2" NCoef="0" IVar="-1" Cut="0.0000000000000000e+00" cType="1" res="5.4180540610104799e-04" rms="4.3099671602249146e-01" purity="5.4510182142257690e-01" nType="-99"/>
        </Node>
        <Node pos="r" depth="1" NCoef="0" IVar="6" Cut="4.5049029541015625e+02" cType="1" res="1.0771942883729935e-01" rms="4.4175389409065247e-01" purity="6.5147989988327026e-01" nType="0">
          <Node pos="l" depth="2" NCoef="0" IVar="-1" Cut="0.0000000000000000e+00" cType="1" res="1.1595708783715963e-03" rms="4.4434708356857300e-01" purity="6.1603611707687378e-01" nType="-99"/>
          <Node pos="r" depth="2" NCoef="0" IVar="-1" Cut="0.0000000000000000e+00" cType="1" res="1.3681941200047731e-03" rms="4.3879163265228271e-01" purity="6.8947356939315796e-01" nType="-99"/>
        </Node>
      </Node>
    </BinaryTree>
    <BinaryTree type="DecisionTree" boostWeight="1.0000000000000000e+00" itree="676">
      <Node pos="s" depth="0" NCoef="0" IVar="4" Cut="6.4422920346260071e-02" cType="1" res="-2.0474297925829887e-02" rms="4.4683781266212463e-01" purity="4.6779024600982666e-01" nType="0">
        <Node pos="l" depth="1" NCoef="0" IVar="0" Cut="8.1043004989624023e+00" cType="1" res="-4.4720295816659927e-02" rms="4.4457015395164490e-01" purity="4.1967341303825378e-01" nType="0">
          <Node pos="l" depth="2" NCoef="0" IVar="-1" Cut="0.0000000000000000e+00" cType="1" res="-9.3754770932719111e-04" rms="4.4654783606529236e-01" purity="3.5062599182128906e-01" nType="-99"/>
          <Node pos="r" depth="2" NCoef="0" IVar="-1" Cut="0.0000000000000000e+00" cType="1" res="4.7363017802126706e-04" rms="4.2642635107040405e-01" purity="7.2237318754196167e-01" nType="-99"/>
        </Node>
        <Node pos="r" depth="1" NCoef="0" IVar="0" Cut="6.1257786750793457e+00" cType="1" res="2.2927019745111465e-02" rms="4.4760081171989441e-01" purity="5.5392134189605713e-01" nType="0">
          <Node pos="l" depth="2" NCoef="0" IVar="-1" Cut="0.0000000000000000e+00" cType="1" res="-5.0253415247425437e-04" rms="4.5089763402938843e-01" purity="3.3260628581047058e-01" nType="-99"/>
          <Node pos="r" depth="2" NCoef="0" IVar="-1" Cut="0.0000000000000000e+00" cType="1" res="7.1954872692003846e-04" rms="4.4185006618499756e-01" purity="6.9029229879379272e-01" nType="-99"/>
        </Node>
      </Node>
    </BinaryTree>
    <BinaryTree type="DecisionTree" boostWeight="1.0000000000000000e+00" itree="677">
      <Node pos="s" depth="0" NCoef="0" IVar="2" Cut="3.2723684692382812e+02" cType="1" res="1.0868462733924389e-02" rms="4.5057851076126099e-01" purity="5.0453794002532959e-01" nType="0">
        <Node pos="l" depth="1" NCoef="0" IVar="2" Cut="2.1532685852050781e+02" cType="1" res="2.3135986179113388e-02" rms="4.5628094673156738e-01" purity="5.2744722366333008e-01" nType="0">
          <Node pos="l" depth="2" NCoef="0" IVar="-1" Cut="0.0000000000000000e+00" cType="1" res="-2.0543775463011116e-05" rms="4.5791918039321899e-01" purity="4.7503674030303955e-01" nType="-99"/>
          <Node pos="r" depth="2" NCoef="0" IVar="-1" Cut="0.0000000000000000e+00" cType="1" res="8.2527275662869215e-04" rms="4.5076003670692444e-01" purity="6.1223447322845459e-01" nType="-99"/>
        </Node>
        <Node pos="r" depth="1" NCoef="0" IVar="1" Cut="1.1512651443481445e+00" cType="1" res="-6.1952542513608932e-02" rms="4.0758726000785828e-01" purity="3.6854681372642517e-01" nType="0">
          <Node pos="l" depth="2" NCoef="0" IVar="-1" Cut="0.0000000000000000e+00" cType="1" res="6.0830393340438604e-04" rms="4.4982600212097168e-01" purity="6.6889882087707520e-01" nType="-99"/>
          <Node pos="r" depth="2" NCoef="0" IVar="-1" Cut="0.0000000000000000e+00" cType="1" res="-2.5904399808496237e-03" rms="3.6310729384422302e-01" purity="1.8338029086589813e-01" nType="-99"/>
        </Node>
      </Node>
    </BinaryTree>
    <BinaryTree type="DecisionTree" boostWeight="1.0000000000000000e+00" itree="678">
      <Node pos="s" depth="0" NCoef="0" IVar="5" Cut="8.7687134742736816e-01" cType="1" res="6.5131136216223240e-03" rms="4.5019486546516418e-01" purity="4.9734854698181152e-01" nType="0">
        <Node pos="l" depth="1" NCoef="0" IVar="5" Cut="7.9568833112716675e-01" cType="1" res="2.3141203448176384e-02" rms="4.5311677455902100e-01" purity="5.4017239809036255e-01" nType="0">
          <Node pos="l" depth="2" NCoef="0" IVar="-1" Cut="0.0000000000000000e+00" cType="1" res="1.4420718071050942e-04" rms="4.5186614990234375e-01" purity="5.3204584121704102e-01" nType="-99"/>
          <Node pos="r" depth="2" NCoef="0" IVar="-1" Cut="0.0000000000000000e+00" cType="1" res="1.3030904810875654e-03" rms="4.5309790968894958e-01" purity="5.9437417984008789e-01" nType="-99"/>
        </Node>
        <Node pos="r" depth="1" NCoef="0" IVar="2" Cut="3.2502026367187500e+02" cType="1" res="-4.7577757388353348e-02" rms="4.3619295954704285e-01" purity="3.5804343223571777e-01" nType="0">
          <Node pos="l" depth="2" NCoef="0" IVar="-1" Cut="0.0000000000000000e+00" cType="1" res="-2.1495146211236715e-04" rms="4.4963765144348145e-01" purity="4.0920537710189819e-01" nType="-99"/>
          <Node pos="r" depth="2" NCoef="0" IVar="-1" Cut="0.0000000000000000e+00" cType="1" res="-3.4401391167193651e-03" rms="3.6151108145713806e-01" purity="1.7665739357471466e-01" nType="-99"/>
        </Node>
      </Node>
    </BinaryTree>
    <BinaryTree type="DecisionTree" boostWeight="1.0000000000000000e+00" itree="679">
      <Node pos="s" depth="0" NCoef="0" IVar="4" Cut="2.2536458075046539e-01" cType="1" res="2.2177230566740036e-02" rms="4.5191377401351929e-01" purity="5.2183341979980469e-01" nType="0">
        <Node pos="l" depth="1" NCoef="0" IVar="7" Cut="7.8648909926414490e-02" cType="1" res="1.3792172074317932e-02" rms="4.5324519276618958e-01" purity="5.0818383693695068e-01" nType="0">
          <Node pos="l" depth="2" NCoef="0" IVar="-1" Cut="0.0000000000000000e+00" cType="1" res="3.7822924787178636e-04" rms="4.5632553100585938e-01" purity="5.4164779186248779e-01" nType="-99"/>
          <Node pos="r" depth="2" NCoef="0" IVar="-1" Cut="0.0000000000000000e+00" cType="1" res="-7.9965899931266904e-04" rms="4.3336251378059387e-01" purity="3.6124643683433533e-01" nType="-99"/>
        </Node>
        <Node pos="r" depth="1" NCoef="0" IVar="-1" Cut="0.0000000000000000e+00" cType="1" res="1.4415855985134840e-03" rms="4.2033535242080688e-01" purity="6.9521003961563110e-01" nType="-99"/>
      </Node>
    </BinaryTree>
    <BinaryTree type="DecisionTree" boostWeight="1.0000000000000000e+00" itree="680">
      <Node pos="s" depth="0" NCoef="0" IVar="3" Cut="9.7340881347656250e+01" cType="1" res="8.5178082808852196e-03" rms="4.4649296998977661e-01" purity="5.0838571786880493e-01" nType="0">
        <Node pos="l" depth="1" NCoef="0" IVar="3" Cut="3.7288501739501953e+01" cType="1" res="-1.4273285865783691e-02" rms="4.5123976469039917e-01" purity="4.6350678801536560e-01" nType="0">
          <Node pos="l" depth="2" NCoef="0" IVar="-1" Cut="0.0000000000000000e+00" cType="1" res="-1.9105678657069802e-03" rms="4.0374356508255005e-01" purity="3.1660062074661255e-01" nType="-99"/>
          <Node pos="r" depth="2" NCoef="0" IVar="-1" Cut="0.0000000000000000e+00" cType="1" res="-1.3323299299372593e-06" rms="4.5498037338256836e-01" purity="4.8220601677894592e-01" nType="-99"/>
        </Node>
        <Node pos="r" depth="1" NCoef="0" IVar="6" Cut="5.8887194824218750e+02" cType="1" res="6.0243405401706696e-02" rms="4.3108025193214417e-01" purity="6.1024081707000732e-01" nType="0">
          <Node pos="l" depth="2" NCoef="0" IVar="-1" Cut="0.0000000000000000e+00" cType="1" res="3.4257658990100026e-04" rms="4.3553054332733154e-01" purity="5.3189611434936523e-01" nType="-99"/>
          <Node pos="r" depth="2" NCoef="0" IVar="-1" Cut="0.0000000000000000e+00" cType="1" res="1.3192088808864355e-03" rms="4.2168858647346497e-01" purity="7.0553767681121826e-01" nType="-99"/>
        </Node>
      </Node>
    </BinaryTree>
    <BinaryTree type="DecisionTree" boostWeight="1.0000000000000000e+00" itree="681">
      <Node pos="s" depth="0" NCoef="0" IVar="2" Cut="2.9480755615234375e+02" cType="1" res="-4.3346113525331020e-03" rms="4.4720062613487244e-01" purity="4.8757743835449219e-01" nType="0">
        <Node pos="l" depth="1" NCoef="0" IVar="3" Cut="4.1618164062500000e+01" cType="1" res="1.3010370545089245e-02" rms="4.5479467511177063e-01" purity="5.1445317268371582e-01" nType="0">
          <Node pos="l" depth="2" NCoef="0" IVar="-1" Cut="0.0000000000000000e+00" cType="1" res="-1.2833059299737215e-03" rms="4.3139600753784180e-01" purity="3.6446309089660645e-01" nType="-99"/>
          <Node pos="r" depth="2" NCoef="0" IVar="-1" Cut="0.0000000000000000e+00" cType="1" res="3.6153814289718866e-04" rms="4.5631429553031921e-01" purity="5.3665888309478760e-01" nType="-99"/>
        </Node>
        <Node pos="r" depth="1" NCoef="0" IVar="1" Cut="1.0570029020309448e+00" cType="1" res="-7.1264781057834625e-02" rms="4.0977570414543152e-01" purity="3.8387033343315125e-01" nType="0">
          <Node pos="l" depth="2" NCoef="0" IVar="-1" Cut="0.0000000000000000e+00" cType="1" res="1.0288458724971861e-04" rms="4.5609265565872192e-01" purity="6.7798584699630737e-01" nType="-99"/>
          <Node pos="r" depth="2" NCoef="0" IVar="-1" Cut="0.0000000000000000e+00" cType="1" res="-2.1600315812975168e-03" rms="3.7435477972030640e-01" purity="2.1995355188846588e-01" nType="-99"/>
        </Node>
      </Node>
    </BinaryTree>
    <BinaryTree type="DecisionTree" boostWeight="1.0000000000000000e+00" itree="682">
      <Node pos="s" depth="0" NCoef="0" IVar="5" Cut="3.4135180711746216e-01" cType="1" res="-5.0025717355310917e-03" rms="4.5137664675712585e-01" purity="4.9309894442558289e-01" nType="0">
        <Node pos="l" depth="1" NCoef="0" IVar="1" Cut="5.0054502487182617e-01" cType="1" res="-7.6018884778022766e-02" rms="4.5308119058609009e-01" purity="4.9149924516677856e-01" nType="0">
          <Node pos="l" depth="2" NCoef="0" IVar="-1" Cut="0.0000000000000000e+00" cType="1" res="-1.5232954865496140e-05" rms="4.4881817698478699e-01" purity="6.1743444204330444e-01" nType="-99"/>
          <Node pos="r" depth="2" NCoef="0" IVar="-1" Cut="0.0000000000000000e+00" cType="1" res="-2.1382323466241360e-03" rms="4.4579610228538513e-01" purity="3.7370905280113220e-01" nType="-99"/>
        </Node>
        <Node pos="r" depth="1" NCoef="0" IVar="2" Cut="2.5434161376953125e+02" cType="1" res="5.3029167465865612e-03" rms="4.5019894838333130e-01" purity="4.9333107471466064e-01" nType="0">
          <Node pos="l" depth="2" NCoef="0" IVar="-1" Cut="0.0000000000000000e+00" cType="1" res="3.2215710962191224e-04" rms="4.5566475391387939e-01" purity="5.1537495851516724e-01" nType="-99"/>
          <Node pos="r" depth="2" NCoef="0" IVar="-1" Cut="0.0000000000000000e+00" cType="1" res="-4.8129481729120016e-04" rms="4.3704062700271606e-01" purity="4.5072674751281738e-01" nType="-99"/>
        </Node>
      </Node>
    </BinaryTree>
    <BinaryTree type="DecisionTree" boostWeight="1.0000000000000000e+00" itree="683">
      <Node pos="s" depth="0" NCoef="0" IVar="6" Cut="7.0458294677734375e+02" cType="1" res="2.7366396039724350e-02" rms="4.5367264747619629e-01" purity="5.2276450395584106e-01" nType="0">
        <Node pos="l" depth="1" NCoef="0" IVar="0" Cut="5.5817012786865234e+00" cType="1" res="1.6047839075326920e-02" rms="4.5596998929977417e-01" purity="4.9885335564613342e-01" nType="0">
          <Node pos="l" depth="2" NCoef="0" IVar="-1" Cut="0.0000000000000000e+00" cType="1" res="-8.1131199840456247e-04" rms="4.1158938407897949e-01" purity="2.2067543864250183e-01" nType="-99"/>
          <Node pos="r" depth="2" NCoef="0" IVar="-1" Cut="0.0000000000000000e+00" cType="1" res="3.9636460132896900e-04" rms="4.6509248018264771e-01" purity="5.6779313087463379e-01" nType="-99"/>
        </Node>
        <Node pos="r" depth="1" NCoef="0" IVar="2" Cut="3.1899542236328125e+02" cType="1" res="1.0824550688266754e-01" rms="4.2828631401062012e-01" purity="6.9362658262252808e-01" nType="0">
          <Node pos="l" depth="2" NCoef="0" IVar="-1" Cut="0.0000000000000000e+00" cType="1" res="1.7288101371377707e-03" rms="4.0569755434989929e-01" purity="7.7681821584701538e-01" nType="-99"/>
          <Node pos="r" depth="2" NCoef="0" IVar="-1" Cut="0.0000000000000000e+00" cType="1" res="7.9465098679065704e-04" rms="4.4619140028953552e-01" purity="6.0692256689071655e-01" nType="-99"/>
        </Node>
      </Node>
    </BinaryTree>
    <BinaryTree type="DecisionTree" boostWeight="1.0000000000000000e+00" itree="684">
      <Node pos="s" depth="0" NCoef="0" IVar="3" Cut="1.0454970550537109e+02" cType="1" res="-6.9345361553132534e-03" rms="4.4627353549003601e-01" purity="4.8910072445869446e-01" nType="0">
        <Node pos="l" depth="1" NCoef="0" IVar="0" Cut="8.0384054183959961e+00" cType="1" res="-2.8705157339572906e-02" rms="4.4720995426177979e-01" purity="4.5122304558753967e-01" nType="0">
          <Node pos="l" depth="2" NCoef="0" IVar="-1" Cut="0.0000000000000000e+00" cType="1" res="-6.1979639576748013e-04" rms="4.5180860161781311e-01" purity="3.9061051607131958e-01" nType="-99"/>
          <Node pos="r" depth="2" NCoef="0" IVar="-1" Cut="0.0000000000000000e+00" cType="1" res="5.9938972117379308e-04" rms="4.1654601693153381e-01" purity="7.4051254987716675e-01" nType="-99"/>
        </Node>
        <Node pos="r" depth="1" NCoef="0" IVar="2" Cut="2.5596084594726562e+02" cType="1" res="5.9374019503593445e-02" rms="4.3677377700805664e-01" purity="6.0446804761886597e-01" nType="0">
          <Node pos="l" depth="2" NCoef="0" IVar="-1" Cut="0.0000000000000000e+00" cType="1" res="4.1435625462327152e-05" rms="4.3413454294204712e-01" purity="6.0584789514541626e-01" nType="-99"/>
          <Node pos="r" depth="2" NCoef="0" IVar="-1" Cut="0.0000000000000000e+00" cType="1" res="1.1736914748325944e-03" rms="4.3538519740104675e-01" purity="6.0378402471542358e-01" nType="-99"/>
        </Node>
      </Node>
    </BinaryTree>
    <BinaryTree type="DecisionTree" boostWeight="1.0000000000000000e+00" itree="685">
      <Node pos="s" depth="0" NCoef="0" IVar="7" Cut="8.2424320280551910e-02" cType="1" res="-8.3489734679460526e-03" rms="4.4756865501403809e-01" purity="4.8686102032661438e-01" nType="0">
        <Node pos="l" depth="1" NCoef="0" IVar="6" Cut="3.5235003662109375e+02" cType="1" res="1.0426927357912064e-02" rms="4.4969910383224487e-01" purity="5.1591151952743530e-01" nType="0">
          <Node pos="l" depth="2" NCoef="0" IVar="-1" Cut="0.0000000000000000e+00" cType="1" res="-1.2105695204809308e-03" rms="4.2052114009857178e-01" purity="2.9332688450813293e-01" nType="-99"/>
          <Node pos="r" depth="2" NCoef="0" IVar="-1" Cut="0.0000000000000000e+00" cType="1" res="3.6641341284848750e-04" rms="4.5316100120544434e-01" purity="5.5975311994552612e-01" nType="-99"/>
        </Node>
        <Node pos="r" depth="1" NCoef="0" IVar="5" Cut="5.5605894327163696e-01" cType="1" res="-7.8346364200115204e-02" rms="4.3240883946418762e-01" purity="3.7855944037437439e-01" nType="0">
          <Node pos="l" depth="2" NCoef="0" IVar="-1" Cut="0.0000000000000000e+00" cType="1" res="1.5715733752585948e-04" rms="4.5232093334197998e-01" purity="5.4602682590484619e-01" nType="-99"/>
          <Node pos="r" depth="2" NCoef="0" IVar="-1" Cut="0.0000000000000000e+00" cType="1" res="-2.3486493155360222e-03" rms="4.0705189108848572e-01" purity="2.6506721973419189e-01" nType="-99"/>
        </Node>
      </Node>
    </BinaryTree>
    <BinaryTree type="DecisionTree" boostWeight="1.0000000000000000e+00" itree="686">
      <Node pos="s" depth="0" NCoef="0" IVar="0" Cut="8.8407392501831055e+00" cType="1" res="2.3172395303845406e-02" rms="4.5059514045715332e-01" purity="5.1609683036804199e-01" nType="0">
        <Node pos="l" depth="1" NCoef="0" IVar="4" Cut="-4.8479329794645309e-02" cType="1" res="1.4421980828046799e-02" rms="4.5697334408760071e-01" purity="4.8712766170501709e-01" nType="0">
          <Node pos="l" depth="2" NCoef="0" IVar="-1" Cut="0.0000000000000000e+00" cType="1" res="-3.2730898237787187e-04" rms="4.4834223389625549e-01" purity="4.0867030620574951e-01" nType="-99"/>
          <Node pos="r" depth="2" NCoef="0" IVar="-1" Cut="0.0000000000000000e+00" cType="1" res="4.3726578587666154e-04" rms="4.6022036671638489e-01" purity="5.2789568901062012e-01" nType="-99"/>
        </Node>
        <Node pos="r" depth="1" NCoef="0" IVar="-1" Cut="0.0000000000000000e+00" cType="1" res="1.5274921897798777e-03" rms="3.5923278331756592e-01" purity="8.3554482460021973e-01" nType="-99"/>
      </Node>
    </BinaryTree>
    <BinaryTree type="DecisionTree" boostWeight="1.0000000000000000e+00" itree="687">
      <Node pos="s" depth="0" NCoef="0" IVar="0" Cut="8.9935073852539062e+00" cType="1" res="-8.2667339593172073e-03" rms="4.4881629943847656e-01" purity="4.9010345339775085e-01" nType="0">
        <Node pos="l" depth="1" NCoef="0" IVar="4" Cut="3.8189139217138290e-02" cType="1" res="-1.8778821453452110e-02" rms="4.5452624559402466e-01" purity="4.5848020911216736e-01" nType="0">
          <Node pos="l" depth="2" NCoef="0" IVar="-1" Cut="0.0000000000000000e+00" cType="1" res="-1.3095767826598603e-05" rms="4.5577028393745422e-01" purity="4.4764614105224609e-01" nType="-99"/>
          <Node pos="r" depth="2" NCoef="0" IVar="-1" Cut="0.0000000000000000e+00" cType="1" res="-6.1028526397421956e-04" rms="4.5142272114753723e-01" purity="4.7436544299125671e-01" nType="-99"/>
        </Node>
        <Node pos="r" depth="1" NCoef="0" IVar="-1" Cut="0.0000000000000000e+00" cType="1" res="1.2980411993339658e-03" rms="3.6458951234817505e-01" purity="8.2633912563323975e-01" nType="-99"/>
      </Node>
    </BinaryTree>
    <BinaryTree type="DecisionTree" boostWeight="1.0000000000000000e+00" itree="688">
      <Node pos="s" depth="0" NCoef="0" IVar="4" Cut="-5.2672900259494781e-02" cType="1" res="-7.8612575307488441e-03" rms="4.5052134990692139e-01" purity="4.7985950112342834e-01" nType="0">
        <Node pos="l" depth="1" NCoef="0" IVar="3" Cut="9.5336288452148438e+01" cType="1" res="-5.5571980774402618e-02" rms="4.3766188621520996e-01" purity="3.9577049016952515e-01" nType="0">
          <Node pos="l" depth="2" NCoef="0" IVar="-1" Cut="0.0000000000000000e+00" cType="1" res="-1.4385709073394537e-03" rms="4.3395608663558960e-01" purity="3.3821183443069458e-01" nType="-99"/>
          <Node pos="r" depth="2" NCoef="0" IVar="-1" Cut="0.0000000000000000e+00" cType="1" res="2.4663106887601316e-04" rms="4.3547397851943970e-01" purity="5.0708717107772827e-01" nType="-99"/>
        </Node>
        <Node pos="r" depth="1" NCoef="0" IVar="2" Cut="3.2526531982421875e+02" cType="1" res="1.5194368548691273e-02" rms="4.5481562614440918e-01" purity="5.2049446105957031e-01" nType="0">
          <Node pos="l" depth="2" NCoef="0" IVar="-1" Cut="0.0000000000000000e+00" cType="1" res="2.9813891160301864e-04" rms="4.5940238237380981e-01" purity="5.3185129165649414e-01" nType="-99"/>
          <Node pos="r" depth="2" NCoef="0" IVar="-1" Cut="0.0000000000000000e+00" cType="1" res="-8.0516573507338762e-04" rms="4.0777671337127686e-01" purity="4.2367994785308838e-01" nType="-99"/>
        </Node>
      </Node>
    </BinaryTree>
    <BinaryTree type="DecisionTree" boostWeight="1.0000000000000000e+00" itree="689">
      <Node pos="s" depth="0" NCoef="0" IVar="0" Cut="8.9269418716430664e+00" cType="1" res="-6.7279706709086895e-03" rms="4.4671234488487244e-01" purity="4.8932716250419617e-01" nType="0">
        <Node pos="l" depth="1" NCoef="0" IVar="1" Cut="4.4068667292594910e-01" cType="1" res="-1.5641624107956886e-02" rms="4.5273905992507935e-01" purity="4.5933076739311218e-01" nType="0">
          <Node pos="l" depth="2" NCoef="0" IVar="-1" Cut="0.0000000000000000e+00" cType="1" res="7.0140691241249442e-04" rms="4.3627187609672546e-01" purity="6.3969695568084717e-01" nType="-99"/>
          <Node pos="r" depth="2" NCoef="0" IVar="-1" Cut="0.0000000000000000e+00" cType="1" res="-3.2744047348387539e-04" rms="4.5373460650444031e-01" purity="4.4060435891151428e-01" nType="-99"/>
        </Node>
        <Node pos="r" depth="1" NCoef="0" IVar="-1" Cut="0.0000000000000000e+00" cType="1" res="1.0949159041047096e-03" rms="3.6535552144050598e-01" purity="8.0242818593978882e-01" nType="-99"/>
      </Node>
    </BinaryTree>
    <BinaryTree type="DecisionTree" boostWeight="1.0000000000000000e+00" itree="690">
      <Node pos="s" depth="0" NCoef="0" IVar="0" Cut="4.8415169715881348e+00" cType="1" res="-2.2316786926239729e-03" rms="4.5201945304870605e-01" purity="4.9173343181610107e-01" nType="0">
        <Node pos="l" depth="1" NCoef="0" IVar="-1" Cut="0.0000000000000000e+00" cType="1" res="-2.3939111270010471e-03" rms="3.1040820479393005e-01" purity="1.2156067043542862e-01" nType="-99"/>
        <Node pos="r" depth="1" NCoef="0" IVar="0" Cut="8.9174814224243164e+00" cType="1" res="5.2330167964100838e-03" rms="4.5958274602890015e-01" purity="5.1823210716247559e-01" nType="0">
          <Node pos="l" depth="2" NCoef="0" IVar="-1" Cut="0.0000000000000000e+00" cType="1" res="-2.3950693503138609e-05" rms="4.6485081315040588e-01" purity="4.9404320120811462e-01" nType="-99"/>
          <Node pos="r" depth="2" NCoef="0" IVar="-1" Cut="0.0000000000000000e+00" cType="1" res="1.1500702239573002e-03" rms="3.8286006450653076e-01" purity="8.0249214172363281e-01" nType="-99"/>
        </Node>
      </Node>
    </BinaryTree>
    <BinaryTree type="DecisionTree" boostWeight="1.0000000000000000e+00" itree="691">
      <Node pos="s" depth="0" NCoef="0" IVar="2" Cut="3.5992538452148438e+02" cType="1" res="2.0478509366512299e-02" rms="4.5176208019256592e-01" purity="5.1588636636734009e-01" nType="0">
        <Node pos="l" depth="1" NCoef="0" IVar="2" Cut="1.4414447021484375e+02" cType="1" res="3.1340420246124268e-02" rms="4.5355454087257385e-01" purity="5.3630256652832031e-01" nType="0">
          <Node pos="l" depth="2" NCoef="0" IVar="-1" Cut="0.0000000000000000e+00" cType="1" res="-6.0045358259230852e-04" rms="4.6245256066322327e-01" purity="3.9803874492645264e-01" nType="-99"/>
          <Node pos="r" depth="2" NCoef="0" IVar="-1" Cut="0.0000000000000000e+00" cType="1" res="5.7362002553418279e-04" rms="4.5073431730270386e-01" purity="5.6025290489196777e-01" nType="-99"/>
        </Node>
        <Node pos="r" depth="1" NCoef="0" IVar="0" Cut="6.6944627761840820e+00" cType="1" res="-6.4520902931690216e-02" rms="4.2806810140609741e-01" purity="3.5612019896507263e-01" nType="0">
          <Node pos="l" depth="2" NCoef="0" IVar="-1" Cut="0.0000000000000000e+00" cType="1" res="-1.2835294000979047e-05" rms="3.9849841594696045e-01" purity="3.3604493737220764e-01" nType="-99"/>
          <Node pos="r" depth="2" NCoef="0" IVar="-1" Cut="0.0000000000000000e+00" cType="1" res="-2.4841092526912689e-03" rms="4.4980075955390930e-01" purity="3.8112321496009827e-01" nType="-99"/>
        </Node>
      </Node>
    </BinaryTree>
    <BinaryTree type="DecisionTree" boostWeight="1.0000000000000000e+00" itree="692">
      <Node pos="s" depth="0" NCoef="0" IVar="4" Cut="-5.1984049379825592e-02" cType="1" res="-1.2723764404654503e-02" rms="4.5082339644432068e-01" purity="4.8258444666862488e-01" nType="0">
        <Node pos="l" depth="1" NCoef="0" IVar="5" Cut="5.8849686384201050e-01" cType="1" res="-4.2394004762172699e-02" rms="4.4859853386878967e-01" purity="4.0651160478591919e-01" nType="0">
          <Node pos="l" depth="2" NCoef="0" IVar="-1" Cut="0.0000000000000000e+00" cType="1" res="-1.2869520578533411e-03" rms="4.4526630640029907e-01" purity="4.2927595973014832e-01" nType="-99"/>
          <Node pos="r" depth="2" NCoef="0" IVar="-1" Cut="0.0000000000000000e+00" cType="1" res="1.5617498138453811e-04" rms="4.4587865471839905e-01" purity="3.8373306393623352e-01" nType="-99"/>
        </Node>
        <Node pos="r" depth="1" NCoef="0" IVar="0" Cut="8.2019634246826172e+00" cType="1" res="2.0740428008139133e-03" rms="4.5120030641555786e-01" purity="5.2052527666091919e-01" nType="0">
          <Node pos="l" depth="2" NCoef="0" IVar="-1" Cut="0.0000000000000000e+00" cType="1" res="-1.0962889064103365e-04" rms="4.5943716168403625e-01" purity="4.7448554635047913e-01" nType="-99"/>
          <Node pos="r" depth="2" NCoef="0" IVar="-1" Cut="0.0000000000000000e+00" cType="1" res="8.3202129462733865e-04" rms="3.9368733763694763e-01" purity="7.9216229915618896e-01" nType="-99"/>
        </Node>
      </Node>
    </BinaryTree>
    <BinaryTree type="DecisionTree" boostWeight="1.0000000000000000e+00" itree="693">
      <Node pos="s" depth="0" NCoef="0" IVar="0" Cut="6.8876471519470215e+00" cType="1" res="8.0549251288175583e-03" rms="4.4071844220161438e-01" purity="5.0750023126602173e-01" nType="0">
        <Node pos="l" depth="1" NCoef="0" IVar="3" Cut="1.1988357543945312e+02" cType="1" res="-1.9369663670659065e-02" rms="4.4363114237785339e-01" purity="3.6230811476707458e-01" nType="0">
          <Node pos="l" depth="2" NCoef="0" IVar="-1" Cut="0.0000000000000000e+00" cType="1" res="-5.1825639093294740e-04" rms="4.3833687901496887e-01" purity="3.3525601029396057e-01" nType="-99"/>
          <Node pos="r" depth="2" NCoef="0" IVar="-1" Cut="0.0000000000000000e+00" cType="1" res="9.2092988779768348e-04" rms="4.6081256866455078e-01" purity="5.0922948122024536e-01" nType="-99"/>
        </Node>
        <Node pos="r" depth="1" NCoef="0" IVar="6" Cut="6.0079028320312500e+02" cType="1" res="4.2273912578821182e-02" rms="4.3463706970214844e-01" purity="6.8866336345672607e-01" nType="0">
          <Node pos="l" depth="2" NCoef="0" IVar="-1" Cut="0.0000000000000000e+00" cType="1" res="3.1806385959498584e-04" rms="4.4500106573104858e-01" purity="6.5765506029129028e-01" nType="-99"/>
          <Node pos="r" depth="2" NCoef="0" IVar="-1" Cut="0.0000000000000000e+00" cType="1" res="1.4111569616943598e-03" rms="3.8582220673561096e-01" purity="8.0618965625762939e-01" nType="-99"/>
        </Node>
      </Node>
    </BinaryTree>
    <BinaryTree type="DecisionTree" boostWeight="1.0000000000000000e+00" itree="694">
      <Node pos="s" depth="0" NCoef="0" IVar="2" Cut="3.1790335083007812e+02" cType="1" res="1.3119286857545376e-02" rms="4.4852957129478455e-01" purity="5.0956302881240845e-01" nType="0">
        <Node pos="l" depth="1" NCoef="0" IVar="2" Cut="1.4440245056152344e+02" cType="1" res="2.7236597612500191e-02" rms="4.5434123277664185e-01" purity="5.3404581546783447e-01" nType="0">
          <Node pos="l" depth="2" NCoef="0" IVar="-1" Cut="0.0000000000000000e+00" cType="1" res="-1.1231773532927036e-03" rms="4.5717814564704895e-01" purity="3.5746189951896667e-01" nType="-99"/>
          <Node pos="r" depth="2" NCoef="0" IVar="-1" Cut="0.0000000000000000e+00" cType="1" res="5.8062589960172772e-04" rms="4.5135056972503662e-01" purity="5.6464701890945435e-01" nType="-99"/>
        </Node>
        <Node pos="r" depth="1" NCoef="0" IVar="1" Cut="1.0174552202224731e+00" cType="1" res="-5.7804707437753677e-02" rms="4.1083577275276184e-01" purity="3.8656380772590637e-01" nType="0">
          <Node pos="l" depth="2" NCoef="0" IVar="-1" Cut="0.0000000000000000e+00" cType="1" res="5.9072859585285187e-04" rms="4.5126420259475708e-01" purity="7.0098096132278442e-01" nType="-99"/>
          <Node pos="r" depth="2" NCoef="0" IVar="-1" Cut="0.0000000000000000e+00" cType="1" res="-2.2863668855279684e-03" rms="3.7351921200752258e-01" purity="2.0785069465637207e-01" nType="-99"/>
        </Node>
      </Node>
    </BinaryTree>
    <BinaryTree type="DecisionTree" boostWeight="1.0000000000000000e+00" itree="695">
      <Node pos="s" depth="0" NCoef="0" IVar="3" Cut="4.5289974212646484e+01" cType="1" res="2.2375581320375204e-03" rms="4.4942715764045715e-01" purity="4.9790272116661072e-01" nType="0">
        <Node pos="l" depth="1" NCoef="0" IVar="4" Cut="8.0618314445018768e-02" cType="1" res="-7.3393784463405609e-02" rms="4.4536730647087097e-01" purity="3.6830100417137146e-01" nType="0">
          <Node pos="l" depth="2" NCoef="0" IVar="-1" Cut="0.0000000000000000e+00" cType="1" res="-1.8697225023061037e-03" rms="4.2980274558067322e-01" purity="2.9879575967788696e-01" nType="-99"/>
          <Node pos="r" depth="2" NCoef="0" IVar="-1" Cut="0.0000000000000000e+00" cType="1" res="2.3456355847883970e-04" rms="4.6098861098289490e-01" purity="5.0356072187423706e-01" nType="-99"/>
        </Node>
        <Node pos="r" depth="1" NCoef="0" IVar="2" Cut="2.1774450683593750e+02" cType="1" res="1.5554000623524189e-02" rms="4.4882059097290039e-01" purity="5.2072179317474365e-01" nType="0">
          <Node pos="l" depth="2" NCoef="0" IVar="-1" Cut="0.0000000000000000e+00" cType="1" res="-1.8013989028986543e-04" rms="4.5314767956733704e-01" purity="4.8056152462959290e-01" nType="-99"/>
          <Node pos="r" depth="2" NCoef="0" IVar="-1" Cut="0.0000000000000000e+00" cType="1" res="5.7978415861725807e-04" rms="4.4318598508834839e-01" purity="5.5699229240417480e-01" nType="-99"/>
        </Node>
      </Node>
    </BinaryTree>
    <BinaryTree type="DecisionTree" boostWeight="1.0000000000000000e+00" itree="696">
      <Node pos="s" depth="0" NCoef="0" IVar="1" Cut="7.6422226428985596e-01" cType="1" res="5.6970800505951047e-04" rms="4.4875034689903259e-01" purity="4.9447727203369141e-01" nType="0">
        <Node pos="l" depth="1" NCoef="0" IVar="2" Cut="1.4694618225097656e+02" cType="1" res="4.1268359869718552e-02" rms="4.5868068933486938e-01" purity="6.1661142110824585e-01" nType="0">
          <Node pos="l" depth="2" NCoef="0" IVar="-1" Cut="0.0000000000000000e+00" cType="1" res="-8.3145324606448412e-04" rms="4.7632500529289246e-01" purity="4.0934300422668457e-01" nType="-99"/>
          <Node pos="r" depth="2" NCoef="0" IVar="-1" Cut="0.0000000000000000e+00" cType="1" res="8.2117092097178102e-04" rms="4.5043396949768066e-01" purity="6.6798919439315796e-01" nType="-99"/>
        </Node>
        <Node pos="r" depth="1" NCoef="0" IVar="0" Cut="6.9806189537048340e+00" cType="1" res="-2.2297274321317673e-02" rms="4.4142988324165344e-01" purity="4.2585486173629761e-01" nType="0">
          <Node pos="l" depth="2" NCoef="0" IVar="-1" Cut="0.0000000000000000e+00" cType="1" res="-7.8087224392220378e-04" rms="4.2945480346679688e-01" purity="2.9464894533157349e-01" nType="-99"/>
          <Node pos="r" depth="2" NCoef="0" IVar="-1" Cut="0.0000000000000000e+00" cType="1" res="2.4654832668602467e-04" rms="4.5630568265914917e-01" purity="6.2946802377700806e-01" nType="-99"/>
        </Node>
      </Node>
    </BinaryTree>
    <BinaryTree type="DecisionTree" boostWeight="1.0000000000000000e+00" itree="697">
      <Node pos="s" depth="0" NCoef="0" IVar="4" Cut="-7.1525141596794128e-02" cType="1" res="5.5832085199654102e-03" rms="4.5220676064491272e-01" purity="4.9967241287231445e-01" nType="0">
        <Node pos="l" depth="1" NCoef="0" IVar="6" Cut="4.1439199829101562e+02" cType="1" res="-5.9732172638177872e-02" rms="4.2994961142539978e-01" purity="3.7303528189659119e-01" nType="0">
          <Node pos="l" depth="2" NCoef="0" IVar="-1" Cut="0.0000000000000000e+00" cType="1" res="-2.1233775187283754e-03" rms="3.9928385615348816e-01" purity="2.2407464683055878e-01" nType="-99"/>
          <Node pos="r" depth="2" NCoef="0" IVar="-1" Cut="0.0000000000000000e+00" cType="1" res="-3.8318539736792445e-04" rms="4.4227650761604309e-01" purity="4.5415544509887695e-01" nType="-99"/>
        </Node>
        <Node pos="r" depth="1" NCoef="0" IVar="1" Cut="4.5704060792922974e-01" cType="1" res="2.7580311521887779e-02" rms="4.5736509561538696e-01" purity="5.4232162237167358e-01" nType="0">
          <Node pos="l" depth="2" NCoef="0" IVar="-1" Cut="0.0000000000000000e+00" cType="1" res="-5.7843094691634178e-04" rms="4.4119530916213989e-01" purity="5.5670130252838135e-01" nType="-99"/>
          <Node pos="r" depth="2" NCoef="0" IVar="-1" Cut="0.0000000000000000e+00" cType="1" res="4.7195673687383533e-04" rms="4.5845735073089600e-01" purity="5.4063808917999268e-01" nType="-99"/>
        </Node>
      </Node>
    </BinaryTree>
    <BinaryTree type="DecisionTree" boostWeight="1.0000000000000000e+00" itree="698">
      <Node pos="s" depth="0" NCoef="0" IVar="5" Cut="3.1769615411758423e-01" cType="1" res="2.1287266165018082e-02" rms="4.4887322187423706e-01" purity="5.2017760276794434e-01" nType="0">
        <Node pos="l" depth="1" NCoef="0" IVar="-1" Cut="0.0000000000000000e+00" cType="1" res="-1.0721563594415784e-03" rms="4.6678191423416138e-01" purity="4.9213889241218567e-01" nType="-99"/>
        <Node pos="r" depth="1" NCoef="0" IVar="5" Cut="8.5172975063323975e-01" cType="1" res="3.2319895923137665e-02" rms="4.4548270106315613e-01" purity="5.2326297760009766e-01" nType="0">
          <Node pos="l" depth="2" NCoef="0" IVar="-1" Cut="0.0000000000000000e+00" cType="1" res="6.7663163645192981e-04" rms="4.4353336095809937e-01" purity="5.7821983098983765e-01" nType="-99"/>
          <Node pos="r" depth="2" NCoef="0" IVar="-1" Cut="0.0000000000000000e+00" cType="1" res="-2.8333885711617768e-04" rms="4.4613274931907654e-01" purity="3.8912600278854370e-01" nType="-99"/>
        </Node>
      </Node>
    </BinaryTree>
    <BinaryTree type="DecisionTree" boostWeight="1.0000000000000000e+00" itree="699">
      <Node pos="s" depth="0" NCoef="0" IVar="1" Cut="7.6885819435119629e-01" cType="1" res="8.0249188467860222e-03" rms="4.4274160265922546e-01" purity="5.0261294841766357e-01" nType="0">
        <Node pos="l" depth="1" NCoef="0" IVar="2" Cut="2.0854618835449219e+02" cType="1" res="4.2726323008537292e-02" rms="4.4097301363945007e-01" purity="6.2656003236770630e-01" nType="0">
          <Node pos="l" depth="2" NCoef="0" IVar="-1" Cut="0.0000000000000000e+00" cType="1" res="-2.6947876904159784e-05" rms="4.6263873577117920e-01" purity="5.1762145757675171e-01" nType="-99"/>
          <Node pos="r" depth="2" NCoef="0" IVar="-1" Cut="0.0000000000000000e+00" cType="1" res="1.3918878976255655e-03" rms="3.9614322781562805e-01" purity="7.9227524995803833e-01" nType="-99"/>
        </Node>
        <Node pos="r" depth="1" NCoef="0" IVar="4" Cut="-7.4044696986675262e-02" cType="1" res="-1.2611644342541695e-02" rms="4.4250151515007019e-01" purity="4.2890292406082153e-01" nType="0">
          <Node pos="l" depth="2" NCoef="0" IVar="-1" Cut="0.0000000000000000e+00" cType="1" res="-8.7341031758114696e-04" rms="4.2525398731231689e-01" purity="3.2639828324317932e-01" nType="-99"/>
          <Node pos="r" depth="2" NCoef="0" IVar="-1" Cut="0.0000000000000000e+00" cType="1" res="7.0072717790026218e-05" rms="4.4852766394615173e-01" purity="4.7276672720909119e-01" nType="-99"/>
        </Node>
      </Node>
    </BinaryTree>
    <BinaryTree type="DecisionTree" boostWeight="1.0000000000000000e+00" itree="700">
      <Node pos="s" depth="0" NCoef="0" IVar="3" Cut="4.6832096099853516e+01" cType="1" res="-1.5464993193745613e-02" rms="4.4699102640151978e-01" purity="4.8100686073303223e-01" nType="0">
        <Node pos="l" depth="1" NCoef="0" IVar="2" Cut="1.6352738952636719e+02" cType="1" res="-1.0573077946901321e-01" rms="4.1978710889816284e-01" purity="3.2859313488006592e-01" nType="0">
          <Node pos="l" depth="2" NCoef="0" IVar="-1" Cut="0.0000000000000000e+00" cType="1" res="-7.2757579619064927e-04" rms="4.3358081579208374e-01" purity="3.7565103173255920e-01" nType="-99"/>
          <Node pos="r" depth="2" NCoef="0" IVar="-1" Cut="0.0000000000000000e+00" cType="1" res="-2.7388171292841434e-03" rms="3.9567127823829651e-01" purity="2.7866154909133911e-01" nType="-99"/>
        </Node>
        <Node pos="r" depth="1" NCoef="0" IVar="2" Cut="1.9094494628906250e+02" cType="1" res="3.1703480053693056e-03" rms="4.5015507936477661e-01" purity="5.1247268915176392e-01" nType="0">
          <Node pos="l" depth="2" NCoef="0" IVar="-1" Cut="0.0000000000000000e+00" cType="1" res="-6.1539467424154282e-04" rms="4.5607486367225647e-01" purity="4.2944273352622986e-01" nType="-99"/>
          <Node pos="r" depth="2" NCoef="0" IVar="-1" Cut="0.0000000000000000e+00" cType="1" res="3.7675228668376803e-04" rms="4.4526177644729614e-01" purity="5.5309206247329712e-01" nType="-99"/>
        </Node>
      </Node>
    </BinaryTree>
    <BinaryTree type="DecisionTree" boostWeight="1.0000000000000000e+00" itree="701">
      <Node pos="s" depth="0" NCoef="0" IVar="0" Cut="7.7570734024047852e+00" cType="1" res="4.5531312935054302e-03" rms="4.4575846195220947e-01" purity="4.9737963080406189e-01" nType="0">
        <Node pos="l" depth="1" NCoef="0" IVar="4" Cut="7.4612550437450409e-02" cType="1" res="-1.3345593586564064e-02" rms="4.5451316237449646e-01" purity="4.1876262426376343e-01" nType="0">
          <Node pos="l" depth="2" NCoef="0" IVar="-1" Cut="0.0000000000000000e+00" cType="1" res="-5.7310570264235139e-04" rms="4.4977211952209473e-01" purity="3.6540594696998596e-01" nType="-99"/>
          <Node pos="r" depth="2" NCoef="0" IVar="-1" Cut="0.0000000000000000e+00" cType="1" res="4.9369380576536059e-04" rms="4.5943024754524231e-01" purity="5.2582877874374390e-01" nType="-99"/>
        </Node>
        <Node pos="r" depth="1" NCoef="0" IVar="3" Cut="1.0023315429687500e+02" cType="1" res="6.2018319964408875e-02" rms="4.1117548942565918e-01" purity="7.4978524446487427e-01" nType="0">
          <Node pos="l" depth="2" NCoef="0" IVar="-1" Cut="0.0000000000000000e+00" cType="1" res="4.3092016130685806e-04" rms="4.3664336204528809e-01" purity="7.0583641529083252e-01" nType="-99"/>
          <Node pos="r" depth="2" NCoef="0" IVar="-1" Cut="0.0000000000000000e+00" cType="1" res="1.6894998261705041e-03" rms="3.3771336078643799e-01" purity="8.4986305236816406e-01" nType="-99"/>
        </Node>
      </Node>
    </BinaryTree>
    <BinaryTree type="DecisionTree" boostWeight="1.0000000000000000e+00" itree="702">
      <Node pos="s" depth="0" NCoef="0" IVar="3" Cut="3.9196342468261719e+01" cType="1" res="8.7445584358647466e-04" rms="4.4584980607032776e-01" purity="4.8961448669433594e-01" nType="0">
        <Node pos="l" depth="1" NCoef="0" IVar="6" Cut="3.8725579833984375e+02" cType="1" res="-8.7098345160484314e-02" rms="4.1196399927139282e-01" purity="3.2151100039482117e-01" nType="0">
          <Node pos="l" depth="2" NCoef="0" IVar="-1" Cut="0.0000000000000000e+00" cType="1" res="-1.4615261461585760e-03" rms="4.0036517381668091e-01" purity="2.7585494518280029e-01" nType="-99"/>
          <Node pos="r" depth="2" NCoef="0" IVar="-1" Cut="0.0000000000000000e+00" cType="1" res="-1.2482604943215847e-03" rms="4.2325109243392944e-01" purity="3.6726871132850647e-01" nType="-99"/>
        </Node>
        <Node pos="r" depth="1" NCoef="0" IVar="3" Cut="6.0293365478515625e+01" cType="1" res="1.0557096451520920e-02" rms="4.4837015867233276e-01" purity="5.0811660289764404e-01" nType="0">
          <Node pos="l" depth="2" NCoef="0" IVar="-1" Cut="0.0000000000000000e+00" cType="1" res="7.9264235682785511e-04" rms="4.4794139266014099e-01" purity="5.2940535545349121e-01" nType="-99"/>
          <Node pos="r" depth="2" NCoef="0" IVar="-1" Cut="0.0000000000000000e+00" cType="1" res="-1.4444513362832367e-04" rms="4.4684898853302002e-01" purity="4.9925467371940613e-01" nType="-99"/>
        </Node>
      </Node>
    </BinaryTree>
    <BinaryTree type="DecisionTree" boostWeight="1.0000000000000000e+00" itree="703">
      <Node pos="s" depth="0" NCoef="0" IVar="0" Cut="8.9102210998535156e+00" cType="1" res="1.9679956603795290e-03" rms="4.5287770032882690e-01" purity="4.9605634808540344e-01" nType="0">
        <Node pos="l" depth="1" NCoef="0" IVar="5" Cut="7.5231677293777466e-01" cType="1" res="-8.0917254090309143e-03" rms="4.5993351936340332e-01" purity="4.6578672528266907e-01" nType="0">
          <Node pos="l" depth="2" NCoef="0" IVar="-1" Cut="0.0000000000000000e+00" cType="1" res="-4.3531696428544819e-04" rms="4.5549249649047852e-01" purity="4.8485997319221497e-01" nType="-99"/>
          <Node pos="r" depth="2" NCoef="0" IVar="-1" Cut="0.0000000000000000e+00" cType="1" res="4.0549214463680983e-04" rms="4.6397587656974792e-01" purity="4.3814340233802795e-01" nType="-99"/>
        </Node>
        <Node pos="r" depth="1" NCoef="0" IVar="-1" Cut="0.0000000000000000e+00" cType="1" res="1.4500663382932544e-03" rms="3.4398677945137024e-01" purity="8.3785277605056763e-01" nType="-99"/>
      </Node>
    </BinaryTree>
    <BinaryTree type="DecisionTree" boostWeight="1.0000000000000000e+00" itree="704">
      <Node pos="s" depth="0" NCoef="0" IVar="1" Cut="9.3206864595413208e-01" cType="1" res="5.5652316659688950e-03" rms="4.4005775451660156e-01" purity="4.9588266015052795e-01" nType="0">
        <Node pos="l" depth="1" NCoef="0" IVar="0" Cut="5.2568683624267578e+00" cType="1" res="4.2874526232481003e-02" rms="4.4305545091629028e-01" purity="6.1174690723419189e-01" nType="0">
          <Node pos="l" depth="2" NCoef="0" IVar="-1" Cut="0.0000000000000000e+00" cType="1" res="-9.7153033129870892e-04" rms="4.0898531675338745e-01" purity="2.4805065989494324e-01" nType="-99"/>
          <Node pos="r" depth="2" NCoef="0" IVar="-1" Cut="0.0000000000000000e+00" cType="1" res="7.0542830508202314e-04" rms="4.4578757882118225e-01" purity="6.6452264785766602e-01" nType="-99"/>
        </Node>
        <Node pos="r" depth="1" NCoef="0" IVar="0" Cut="6.9463043212890625e+00" cType="1" res="-3.4569092094898224e-02" rms="4.3323770165443420e-01" purity="3.7124526500701904e-01" nType="0">
          <Node pos="l" depth="2" NCoef="0" IVar="-1" Cut="0.0000000000000000e+00" cType="1" res="-1.1024421546608210e-03" rms="4.1227030754089355e-01" purity="2.4775776267051697e-01" nType="-99"/>
          <Node pos="r" depth="2" NCoef="0" IVar="-1" Cut="0.0000000000000000e+00" cType="1" res="1.7842148372437805e-04" rms="4.6128821372985840e-01" purity="5.7233947515487671e-01" nType="-99"/>
        </Node>
      </Node>
    </BinaryTree>
    <BinaryTree type="DecisionTree" boostWeight="1.0000000000000000e+00" itree="705">
      <Node pos="s" depth="0" NCoef="0" IVar="3" Cut="9.5118164062500000e+01" cType="1" res="4.7611095942556858e-03" rms="4.5001062750816345e-01" purity="4.9744889140129089e-01" nType="0">
        <Node pos="l" depth="1" NCoef="0" IVar="3" Cut="7.5081489562988281e+01" cType="1" res="-1.4778081327676773e-02" rms="4.5290958881378174e-01" purity="4.5103108882904053e-01" nType="0">
          <Node pos="l" depth="2" NCoef="0" IVar="-1" Cut="0.0000000000000000e+00" cType="1" res="9.3279355496633798e-05" rms="4.4999486207962036e-01" purity="4.6669703722000122e-01" nType="-99"/>
          <Node pos="r" depth="2" NCoef="0" IVar="-1" Cut="0.0000000000000000e+00" cType="1" res="-1.1475732317194343e-03" rms="4.5533302426338196e-01" purity="4.0131285786628723e-01" nType="-99"/>
        </Node>
        <Node pos="r" depth="1" NCoef="0" IVar="3" Cut="1.1233863067626953e+02" cType="1" res="4.5435413718223572e-02" rms="4.4114798307418823e-01" purity="5.9407585859298706e-01" nType="0">
          <Node pos="l" depth="2" NCoef="0" IVar="-1" Cut="0.0000000000000000e+00" cType="1" res="1.2826948659494519e-03" rms="4.3090897798538208e-01" purity="6.3514649868011475e-01" nType="-99"/>
          <Node pos="r" depth="2" NCoef="0" IVar="-1" Cut="0.0000000000000000e+00" cType="1" res="2.1065425244159997e-04" rms="4.4384011626243591e-01" purity="5.7137703895568848e-01" nType="-99"/>
        </Node>
      </Node>
    </BinaryTree>
    <BinaryTree type="DecisionTree" boostWeight="1.0000000000000000e+00" itree="706">
      <Node pos="s" depth="0" NCoef="0" IVar="1" Cut="7.6422226428985596e-01" cType="1" res="1.2637119740247726e-02" rms="4.4808161258697510e-01" purity="5.0793981552124023e-01" nType="0">
        <Node pos="l" depth="1" NCoef="0" IVar="4" Cut="-7.0174179971218109e-02" cType="1" res="5.2454072982072830e-02" rms="4.4123363494873047e-01" purity="6.3656032085418701e-01" nType="0">
          <Node pos="l" depth="2" NCoef="0" IVar="-1" Cut="0.0000000000000000e+00" cType="1" res="1.5216090250760317e-03" rms="4.0670195221900940e-01" purity="7.2084110975265503e-01" nType="-99"/>
          <Node pos="r" depth="2" NCoef="0" IVar="-1" Cut="0.0000000000000000e+00" cType="1" res="3.8909242721274495e-04" rms="4.4722789525985718e-01" purity="6.1503797769546509e-01" nType="-99"/>
        </Node>
        <Node pos="r" depth="1" NCoef="0" IVar="7" Cut="-4.2058102786540985e-02" cType="1" res="-1.0638176463544369e-02" rms="4.5040938258171082e-01" purity="4.3275377154350281e-01" nType="0">
          <Node pos="l" depth="2" NCoef="0" IVar="-1" Cut="0.0000000000000000e+00" cType="1" res="-8.2410522736608982e-04" rms="4.4187748432159424e-01" purity="4.4129636883735657e-01" nType="-99"/>
          <Node pos="r" depth="2" NCoef="0" IVar="-1" Cut="0.0000000000000000e+00" cType="1" res="3.2337582524633035e-05" rms="4.5170539617538452e-01" purity="4.3054148554801941e-01" nType="-99"/>
        </Node>
      </Node>
    </BinaryTree>
    <BinaryTree type="DecisionTree" boostWeight="1.0000000000000000e+00" itree="707">
      <Node pos="s" depth="0" NCoef="0" IVar="0" Cut="6.5376625061035156e+00" cType="1" res="1.4558978378772736e-02" rms="4.4952577352523804e-01" purity="5.0694727897644043e-01" nType="0">
        <Node pos="l" depth="1" NCoef="0" IVar="1" Cut="1.0184875726699829e+00" cType="1" res="-1.3038509525358677e-02" rms="4.4030269980430603e-01" purity="3.3780351281166077e-01" nType="0">
          <Node pos="l" depth="2" NCoef="0" IVar="-1" Cut="0.0000000000000000e+00" cType="1" res="2.5367480702698231e-04" rms="4.7094118595123291e-01" purity="4.3872806429862976e-01" nType="-99"/>
          <Node pos="r" depth="2" NCoef="0" IVar="-1" Cut="0.0000000000000000e+00" cType="1" res="-9.2937820591032505e-04" rms="3.9919811487197876e-01" purity="2.2274503111839294e-01" nType="-99"/>
        </Node>
        <Node pos="r" depth="1" NCoef="0" IVar="7" Cut="-5.6028958410024643e-02" cType="1" res="3.7891298532485962e-02" rms="4.5587682723999023e-01" purity="6.4995002746582031e-01" nType="0">
          <Node pos="l" depth="2" NCoef="0" IVar="-1" Cut="0.0000000000000000e+00" cType="1" res="1.2726309942081571e-03" rms="3.9642068743705750e-01" purity="7.6922523975372314e-01" nType="-99"/>
          <Node pos="r" depth="2" NCoef="0" IVar="-1" Cut="0.0000000000000000e+00" cType="1" res="2.6721539325080812e-04" rms="4.6837010979652405e-01" purity="6.1939215660095215e-01" nType="-99"/>
        </Node>
      </Node>
    </BinaryTree>
    <BinaryTree type="DecisionTree" boostWeight="1.0000000000000000e+00" itree="708">
      <Node pos="s" depth="0" NCoef="0" IVar="4" Cut="7.2856523096561432e-02" cType="1" res="9.1547472402453423e-03" rms="4.5166367292404175e-01" purity="4.9977746605873108e-01" nType="0">
        <Node pos="l" depth="1" NCoef="0" IVar="6" Cut="6.5528552246093750e+02" cType="1" res="-1.0582926683127880e-02" rms="4.4822677969932556e-01" purity="4.5378229022026062e-01" nType="0">
          <Node pos="l" depth="2" NCoef="0" IVar="-1" Cut="0.0000000000000000e+00" cType="1" res="-3.8841326022520661e-04" rms="4.4877004623413086e-01" purity="4.1692522168159485e-01" nType="-99"/>
          <Node pos="r" depth="2" NCoef="0" IVar="-1" Cut="0.0000000000000000e+00" cType="1" res="9.5204333774745464e-04" rms="4.3572592735290527e-01" purity="6.4391553401947021e-01" nType="-99"/>
        </Node>
        <Node pos="r" depth="1" NCoef="0" IVar="1" Cut="7.0974296331405640e-01" cType="1" res="4.6631205826997757e-02" rms="4.5577222108840942e-01" purity="5.8710992336273193e-01" nType="0">
          <Node pos="l" depth="2" NCoef="0" IVar="-1" Cut="0.0000000000000000e+00" cType="1" res="-1.2587050150614232e-04" rms="4.4824990630149841e-01" purity="5.8760827779769897e-01" nType="-99"/>
          <Node pos="r" depth="2" NCoef="0" IVar="-1" Cut="0.0000000000000000e+00" cType="1" res="1.0805884376168251e-03" rms="4.5685335993766785e-01" purity="5.8675533533096313e-01" nType="-99"/>
        </Node>
      </Node>
    </BinaryTree>
    <BinaryTree type="DecisionTree" boostWeight="1.0000000000000000e+00" itree="709">
      <Node pos="s" depth="0" NCoef="0" IVar="5" Cut="1.1907494068145752e+00" cType="1" res="8.8604632765054703e-03" rms="4.4864550232887268e-01" purity="4.9412557482719421e-01" nType="0">
        <Node pos="l" depth="1" NCoef="0" IVar="0" Cut="4.8329377174377441e+00" cType="1" res="1.5773797407746315e-02" rms="4.4957876205444336e-01" purity="5.0739467144012451e-01" nType="0">
          <Node pos="l" depth="2" NCoef="0" IVar="-1" Cut="0.0000000000000000e+00" cType="1" res="-1.6992451855912805e-03" rms="3.3359247446060181e-01" purity="1.3950768113136292e-01" nType="-99"/>
          <Node pos="r" depth="2" NCoef="0" IVar="-1" Cut="0.0000000000000000e+00" cType="1" res="2.9449412249960005e-04" rms="4.5601582527160645e-01" purity="5.3368645906448364e-01" nType="-99"/>
        </Node>
        <Node pos="r" depth="1" NCoef="0" IVar="-1" Cut="0.0000000000000000e+00" cType="1" res="-2.0702308975160122e-03" rms="4.1023951768875122e-01" purity="2.4746726453304291e-01" nType="-99"/>
      </Node>
    </BinaryTree>
    <BinaryTree type="DecisionTree" boostWeight="1.0000000000000000e+00" itree="710">
      <Node pos="s" depth="0" NCoef="0" IVar="0" Cut="5.0177297592163086e+00" cType="1" res="1.8697129562497139e-02" rms="4.4318318367004395e-01" purity="5.2005779743194580e-01" nType="0">
        <Node pos="l" depth="1" NCoef="0" IVar="-1" Cut="0.0000000000000000e+00" cType="1" res="-1.4985816087573767e-03" rms="3.4536996483802795e-01" purity="1.5922209620475769e-01" nType="-99"/>
        <Node pos="r" depth="1" NCoef="0" IVar="5" Cut="1.0759361982345581e+00" cType="1" res="2.7805671095848083e-02" rms="4.5086726546287537e-01" purity="5.5643504858016968e-01" nType="0">
          <Node pos="l" depth="2" NCoef="0" IVar="-1" Cut="0.0000000000000000e+00" cType="1" res="4.7008518595248461e-04" rms="4.5064803957939148e-01" purity="5.7783102989196777e-01" nType="-99"/>
          <Node pos="r" depth="2" NCoef="0" IVar="-1" Cut="0.0000000000000000e+00" cType="1" res="-8.7453424930572510e-04" rms="4.4415813684463501e-01" purity="3.4653311967849731e-01" nType="-99"/>
        </Node>
      </Node>
    </BinaryTree>
    <BinaryTree type="DecisionTree" boostWeight="1.0000000000000000e+00" itree="711">
      <Node pos="s" depth="0" NCoef="0" IVar="2" Cut="2.0362554931640625e+02" cType="1" res="-1.2218554504215717e-02" rms="4.4049909710884094e-01" purity="4.8250016570091248e-01" nType="0">
        <Node pos="l" depth="1" NCoef="0" IVar="4" Cut="2.0735368132591248e-01" cType="1" res="-5.4220888763666153e-02" rms="4.4506952166557312e-01" purity="4.1908034682273865e-01" nType="0">
          <Node pos="l" depth="2" NCoef="0" IVar="-1" Cut="0.0000000000000000e+00" cType="1" res="-1.0881813941523433e-03" rms="4.4082137942314148e-01" purity="3.8411816954612732e-01" nType="-99"/>
          <Node pos="r" depth="2" NCoef="0" IVar="-1" Cut="0.0000000000000000e+00" cType="1" res="9.3012303113937378e-04" rms="4.4459804892539978e-01" purity="6.0680341720581055e-01" nType="-99"/>
        </Node>
        <Node pos="r" depth="1" NCoef="0" IVar="2" Cut="3.9885113525390625e+02" cType="1" res="2.2726757451891899e-02" rms="4.3357020616531372e-01" purity="5.3526443243026733e-01" nType="0">
          <Node pos="l" depth="2" NCoef="0" IVar="-1" Cut="0.0000000000000000e+00" cType="1" res="5.7738262694329023e-04" rms="4.3872550129890442e-01" purity="5.8114647865295410e-01" nType="-99"/>
          <Node pos="r" depth="2" NCoef="0" IVar="-1" Cut="0.0000000000000000e+00" cType="1" res="-1.7551679629832506e-03" rms="3.8212051987648010e-01" purity="2.6717171072959900e-01" nType="-99"/>
        </Node>
      </Node>
    </BinaryTree>
    <BinaryTree type="DecisionTree" boostWeight="1.0000000000000000e+00" itree="712">
      <Node pos="s" depth="0" NCoef="0" IVar="4" Cut="-1.0445281118154526e-01" cType="1" res="1.0977883823215961e-02" rms="4.5498871803283691e-01" purity="5.0332832336425781e-01" nType="0">
        <Node pos="l" depth="1" NCoef="0" IVar="5" Cut="6.5957313776016235e-01" cType="1" res="-7.1354150772094727e-02" rms="4.4163575768470764e-01" purity="3.3520424365997314e-01" nType="0">
          <Node pos="l" depth="2" NCoef="0" IVar="-1" Cut="0.0000000000000000e+00" cType="1" res="-2.0417715422809124e-03" rms="4.5031630992889404e-01" purity="3.5298007726669312e-01" nType="-99"/>
          <Node pos="r" depth="2" NCoef="0" IVar="-1" Cut="0.0000000000000000e+00" cType="1" res="1.8512165115680546e-04" rms="4.1640570759773254e-01" purity="3.1283506751060486e-01" nType="-99"/>
        </Node>
        <Node pos="r" depth="1" NCoef="0" IVar="5" Cut="7.8119945526123047e-01" cType="1" res="2.4536935612559319e-02" rms="4.5572611689567566e-01" purity="5.3101623058319092e-01" nType="0">
          <Node pos="l" depth="2" NCoef="0" IVar="-1" Cut="0.0000000000000000e+00" cType="1" res="5.3285743342712522e-04" rms="4.5266178250312805e-01" purity="5.8457624912261963e-01" nType="-99"/>
          <Node pos="r" depth="2" NCoef="0" IVar="-1" Cut="0.0000000000000000e+00" cType="1" res="-1.0362087778048590e-04" rms="4.5958015322685242e-01" purity="4.3319162726402283e-01" nType="-99"/>
        </Node>
      </Node>
    </BinaryTree>
    <BinaryTree type="DecisionTree" boostWeight="1.0000000000000000e+00" itree="713">
      <Node pos="s" depth="0" NCoef="0" IVar="0" Cut="7.6818304061889648e+00" cType="1" res="-5.0118472427129745e-03" rms="4.4976007938385010e-01" purity="4.9057811498641968e-01" nType="0">
        <Node pos="l" depth="1" NCoef="0" IVar="2" Cut="3.0149725341796875e+02" cType="1" res="-2.6580918580293655e-02" rms="4.5742294192314148e-01" purity="4.0213620662689209e-01" nType="0">
          <Node pos="l" depth="2" NCoef="0" IVar="-1" Cut="0.0000000000000000e+00" cType="1" res="-1.6127753769978881e-04" rms="4.6986842155456543e-01" purity="4.2243456840515137e-01" nType="-99"/>
          <Node pos="r" depth="2" NCoef="0" IVar="-1" Cut="0.0000000000000000e+00" cType="1" res="-1.4743064530193806e-03" rms="3.9543217420578003e-01" purity="3.1740501523017883e-01" nType="-99"/>
        </Node>
        <Node pos="r" depth="1" NCoef="0" IVar="3" Cut="8.6808113098144531e+01" cType="1" res="5.3557019680738449e-02" rms="4.2274585366249084e-01" purity="7.3073422908782959e-01" nType="0">
          <Node pos="l" depth="2" NCoef="0" IVar="-1" Cut="0.0000000000000000e+00" cType="1" res="1.0826768993865699e-04" rms="4.5271134376525879e-01" purity="6.7985212802886963e-01" nType="-99"/>
          <Node pos="r" depth="2" NCoef="0" IVar="-1" Cut="0.0000000000000000e+00" cType="1" res="1.5771184116601944e-03" rms="3.6397749185562134e-01" purity="8.0593574047088623e-01" nType="-99"/>
        </Node>
      </Node>
    </BinaryTree>
    <BinaryTree type="DecisionTree" boostWeight="1.0000000000000000e+00" itree="714">
      <Node pos="s" depth="0" NCoef="0" IVar="7" Cut="9.1743513941764832e-02" cType="1" res="9.3541713431477547e-04" rms="4.4845908880233765e-01" purity="5.0090408325195312e-01" nType="0">
        <Node pos="l" depth="1" NCoef="0" IVar="2" Cut="1.7692416381835938e+02" cType="1" res="1.4589150436222553e-02" rms="4.4922080636024475e-01" purity="5.2738201618194580e-01" nType="0">
          <Node pos="l" depth="2" NCoef="0" IVar="-1" Cut="0.0000000000000000e+00" cType="1" res="-4.3654226465150714e-04" rms="4.6924579143524170e-01" purity="4.3534487485885620e-01" nType="-99"/>
          <Node pos="r" depth="2" NCoef="0" IVar="-1" Cut="0.0000000000000000e+00" cType="1" res="4.7276416444219649e-04" rms="4.3864750862121582e-01" purity="5.6722581386566162e-01" nType="-99"/>
        </Node>
        <Node pos="r" depth="1" NCoef="0" IVar="3" Cut="8.2765251159667969e+01" cType="1" res="-5.9338241815567017e-02" rms="4.4004678726196289e-01" purity="3.8401842117309570e-01" nType="0">
          <Node pos="l" depth="2" NCoef="0" IVar="-1" Cut="0.0000000000000000e+00" cType="1" res="-1.4879003865644336e-03" rms="4.3742200732231140e-01" purity="3.2956796884536743e-01" nType="-99"/>
          <Node pos="r" depth="2" NCoef="0" IVar="-1" Cut="0.0000000000000000e+00" cType="1" res="-6.5307736804243177e-05" rms="4.3853181600570679e-01" purity="4.6921551227569580e-01" nType="-99"/>
        </Node>
      </Node>
    </BinaryTree>
    <BinaryTree type="DecisionTree" boostWeight="1.0000000000000000e+00" itree="715">
      <Node pos="s" depth="0" NCoef="0" IVar="5" Cut="4.9940493702888489e-01" cType="1" res="7.6729310676455498e-03" rms="4.5394691824913025e-01" purity="5.0553399324417114e-01" nType="0">
        <Node pos="l" depth="1" NCoef="0" IVar="0" Cut="5.5765371322631836e+00" cType="1" res="4.7025095671415329e-02" rms="4.4355240464210510e-01" purity="6.0149073600769043e-01" nType="0">
          <Node pos="l" depth="2" NCoef="0" IVar="-1" Cut="0.0000000000000000e+00" cType="1" res="-1.0772084351629019e-03" rms="4.1312766075134277e-01" purity="2.4824674427509308e-01" nType="-99"/>
          <Node pos="r" depth="2" NCoef="0" IVar="-1" Cut="0.0000000000000000e+00" cType="1" res="8.2773010944947600e-04" rms="4.4580632448196411e-01" purity="6.6694498062133789e-01" nType="-99"/>
        </Node>
        <Node pos="r" depth="1" NCoef="0" IVar="5" Cut="7.4581223726272583e-01" cType="1" res="-1.2258692644536495e-02" rms="4.5783323049545288e-01" purity="4.5693248510360718e-01" nType="0">
          <Node pos="l" depth="2" NCoef="0" IVar="-1" Cut="0.0000000000000000e+00" cType="1" res="-6.9928413722664118e-04" rms="4.5935526490211487e-01" purity="4.7031003236770630e-01" nType="-99"/>
          <Node pos="r" depth="2" NCoef="0" IVar="-1" Cut="0.0000000000000000e+00" cType="1" res="2.2335237008519471e-04" rms="4.5469030737876892e-01" purity="4.4704192876815796e-01" nType="-99"/>
        </Node>
      </Node>
    </BinaryTree>
    <BinaryTree type="DecisionTree" boostWeight="1.0000000000000000e+00" itree="716">
      <Node pos="s" depth="0" NCoef="0" IVar="5" Cut="1.0861233472824097e+00" cType="1" res="1.1930870823562145e-02" rms="4.4641777873039246e-01" purity="5.0860321521759033e-01" nType="0">
        <Node pos="l" depth="1" NCoef="0" IVar="2" Cut="1.4041648864746094e+02" cType="1" res="2.2550910711288452e-02" rms="4.4875726103782654e-01" purity="5.3007990121841431e-01" nType="0">
          <Node pos="l" depth="2" NCoef="0" IVar="-1" Cut="0.0000000000000000e+00" cType="1" res="-1.1210414813831449e-03" rms="4.5787635445594788e-01" purity="3.6390191316604614e-01" nType="-99"/>
          <Node pos="r" depth="2" NCoef="0" IVar="-1" Cut="0.0000000000000000e+00" cType="1" res="4.8113975208252668e-04" rms="4.4570025801658630e-01" purity="5.5231958627700806e-01" nType="-99"/>
        </Node>
        <Node pos="r" depth="1" NCoef="0" IVar="-1" Cut="0.0000000000000000e+00" cType="1" res="-1.5891083749011159e-03" rms="4.0572002530097961e-01" purity="2.8747686743736267e-01" nType="-99"/>
      </Node>
    </BinaryTree>
    <BinaryTree type="DecisionTree" boostWeight="1.0000000000000000e+00" itree="717">
      <Node pos="s" depth="0" NCoef="0" IVar="7" Cut="-8.1602390855550766e-03" cType="1" res="-9.6832569688558578e-03" rms="4.4917482137680054e-01" purity="4.8061716556549072e-01" nType="0">
        <Node pos="l" depth="1" NCoef="0" IVar="6" Cut="3.4385086059570312e+02" cType="1" res="2.2720407694578171e-02" rms="4.5547145605087280e-01" purity="5.5864012241363525e-01" nType="0">
          <Node pos="l" depth="2" NCoef="0" IVar="-1" Cut="0.0000000000000000e+00" cType="1" res="-1.2183657381683588e-03" rms="4.3487310409545898e-01" purity="3.1884694099426270e-01" nType="-99"/>
          <Node pos="r" depth="2" NCoef="0" IVar="-1" Cut="0.0000000000000000e+00" cType="1" res="5.6526594562456012e-04" rms="4.5638957619667053e-01" purity="6.0613000392913818e-01" nType="-99"/>
        </Node>
        <Node pos="r" depth="1" NCoef="0" IVar="4" Cut="2.1582545340061188e-01" cType="1" res="-3.2914604991674423e-02" rms="4.4314974546432495e-01" purity="4.2467975616455078e-01" nType="0">
          <Node pos="l" depth="2" NCoef="0" IVar="-1" Cut="0.0000000000000000e+00" cType="1" res="-6.4719701185822487e-04" rms="4.4231832027435303e-01" purity="3.9944639801979065e-01" nType="-99"/>
          <Node pos="r" depth="2" NCoef="0" IVar="-1" Cut="0.0000000000000000e+00" cType="1" res="6.0208549257367849e-04" rms="4.4121599197387695e-01" purity="6.2191450595855713e-01" nType="-99"/>
        </Node>
      </Node>
    </BinaryTree>
    <BinaryTree type="DecisionTree" boostWeight="1.0000000000000000e+00" itree="718">
      <Node pos="s" depth="0" NCoef="0" IVar="3" Cut="4.5178272247314453e+01" cType="1" res="-4.2092134244740009e-03" rms="4.4476398825645447e-01" purity="4.8882585763931274e-01" nType="0">
        <Node pos="l" depth="1" NCoef="0" IVar="1" Cut="8.7178206443786621e-01" cType="1" res="-8.0820217728614807e-02" rms="4.2865231633186340e-01" purity="3.6304920911788940e-01" nType="0">
          <Node pos="l" depth="2" NCoef="0" IVar="-1" Cut="0.0000000000000000e+00" cType="1" res="-2.0596266258507967e-03" rms="4.2135012149810791e-01" purity="3.5949695110321045e-01" nType="-99"/>
          <Node pos="r" depth="2" NCoef="0" IVar="-1" Cut="0.0000000000000000e+00" cType="1" res="-2.0289201347623020e-04" rms="4.2713123559951782e-01" purity="3.6723709106445312e-01" nType="-99"/>
        </Node>
        <Node pos="r" depth="1" NCoef="0" IVar="5" Cut="5.4686456918716431e-01" cType="1" res="9.7383810207247734e-03" rms="4.4622176885604858e-01" purity="5.1172441244125366e-01" nType="0">
          <Node pos="l" depth="2" NCoef="0" IVar="-1" Cut="0.0000000000000000e+00" cType="1" res="6.1253469903022051e-04" rms="4.2918518185615540e-01" purity="6.1586821079254150e-01" nType="-99"/>
          <Node pos="r" depth="2" NCoef="0" IVar="-1" Cut="0.0000000000000000e+00" cType="1" res="-1.6618956578895450e-04" rms="4.5384466648101807e-01" purity="4.5470765233039856e-01" nType="-99"/>
        </Node>
      </Node>
    </BinaryTree>
    <BinaryTree type="DecisionTree" boostWeight="1.0000000000000000e+00" itree="719">
      <Node pos="s" depth="0" NCoef="0" IVar="5" Cut="1.1384364366531372e+00" cType="1" res="3.4182725939899683e-03" rms="4.5108541846275330e-01" purity="4.9906754493713379e-01" nType="0">
        <Node pos="l" depth="1" NCoef="0" IVar="3" Cut="4.0678153991699219e+01" cType="1" res="1.0511662811040878e-02" rms="4.5144951343536377e-01" purity="5.1851177215576172e-01" nType="0">
          <Node pos="l" depth="2" NCoef="0" IVar="-1" Cut="0.0000000000000000e+00" cType="1" res="-9.0191030176356435e-04" rms="4.3257054686546326e-01" purity="3.8076671957969666e-01" nType="-99"/>
          <Node pos="r" depth="2" NCoef="0" IVar="-1" Cut="0.0000000000000000e+00" cType="1" res="2.6942093973048031e-04" rms="4.5299354195594788e-01" purity="5.3656744956970215e-01" nType="-99"/>
        </Node>
        <Node pos="r" depth="1" NCoef="0" IVar="-1" Cut="0.0000000000000000e+00" cType="1" res="-1.6330414218828082e-03" rms="4.3564793467521667e-01" purity="2.4331441521644592e-01" nType="-99"/>
      </Node>
    </BinaryTree>
    <BinaryTree type="DecisionTree" boostWeight="1.0000000000000000e+00" itree="720">
      <Node pos="s" depth="0" NCoef="0" IVar="0" Cut="5.9562425613403320e+00" cType="1" res="1.5855314210057259e-02" rms="4.4339650869369507e-01" purity="5.1243507862091064e-01" nType="0">
        <Node pos="l" depth="1" NCoef="0" IVar="4" Cut="-3.8740481249988079e-03" cType="1" res="-3.7971500307321548e-02" rms="4.2323639988899231e-01" purity="2.7768385410308838e-01" nType="0">
          <Node pos="l" depth="2" NCoef="0" IVar="-1" Cut="0.0000000000000000e+00" cType="1" res="1.6220980614889413e-04" rms="4.3138942122459412e-01" purity="2.9807686805725098e-01" nType="-99"/>
          <Node pos="r" depth="2" NCoef="0" IVar="-1" Cut="0.0000000000000000e+00" cType="1" res="-1.3530279975384474e-03" rms="4.0883633494377136e-01" purity="2.5667005777359009e-01" nType="-99"/>
        </Node>
        <Node pos="r" depth="1" NCoef="0" IVar="1" Cut="8.5386157035827637e-01" cType="1" res="3.8588792085647583e-02" rms="4.4970983266830444e-01" purity="6.1158108711242676e-01" nType="0">
          <Node pos="l" depth="2" NCoef="0" IVar="-1" Cut="0.0000000000000000e+00" cType="1" res="8.8709156261757016e-04" rms="4.2460912466049194e-01" purity="7.3650985956192017e-01" nType="-99"/>
          <Node pos="r" depth="2" NCoef="0" IVar="-1" Cut="0.0000000000000000e+00" cType="1" res="1.4062115224078298e-04" rms="4.6736139059066772e-01" purity="5.0939470529556274e-01" nType="-99"/>
        </Node>
      </Node>
    </BinaryTree>
    <BinaryTree type="DecisionTree" boostWeight="1.0000000000000000e+00" itree="721">
      <Node pos="s" depth="0" NCoef="0" IVar="4" Cut="6.0786783695220947e-02" cType="1" res="1.3408241793513298e-02" rms="4.5102819800376892e-01" purity="5.0352364778518677e-01" nType="0">
        <Node pos="l" depth="1" NCoef="0" IVar="0" Cut="8.0472908020019531e+00" cType="1" res="-2.4509862996637821e-03" rms="4.4677621126174927e-01" purity="4.6430242061614990e-01" nType="0">
          <Node pos="l" depth="2" NCoef="0" IVar="-1" Cut="0.0000000000000000e+00" cType="1" res="-2.1450693020597100e-04" rms="4.4891938567161560e-01" purity="4.0241327881813049e-01" nType="-99"/>
          <Node pos="r" depth="2" NCoef="0" IVar="-1" Cut="0.0000000000000000e+00" cType="1" res="6.7942315945401788e-04" rms="4.3368947505950928e-01" purity="7.2437971830368042e-01" nType="-99"/>
        </Node>
        <Node pos="r" depth="1" NCoef="0" IVar="3" Cut="9.7628822326660156e+01" cType="1" res="4.2674180120229721e-02" rms="4.5732957124710083e-01" purity="5.7590085268020630e-01" nType="0">
          <Node pos="l" depth="2" NCoef="0" IVar="-1" Cut="0.0000000000000000e+00" cType="1" res="8.5453916108235717e-04" rms="4.5925575494766235e-01" purity="5.7301467657089233e-01" nType="-99"/>
          <Node pos="r" depth="2" NCoef="0" IVar="-1" Cut="0.0000000000000000e+00" cType="1" res="-4.1363772470504045e-04" rms="4.4361054897308350e-01" purity="5.8447724580764771e-01" nType="-99"/>
        </Node>
      </Node>
    </BinaryTree>
    <BinaryTree type="DecisionTree" boostWeight="1.0000000000000000e+00" itree="722">
      <Node pos="s" depth="0" NCoef="0" IVar="5" Cut="8.5360956192016602e-01" cType="1" res="-8.8136112317442894e-03" rms="4.4623389840126038e-01" purity="4.8362556099891663e-01" nType="0">
        <Node pos="l" depth="1" NCoef="0" IVar="5" Cut="8.0093556642532349e-01" cType="1" res="1.1154534295201302e-02" rms="4.4982555508613586e-01" purity="5.3587758541107178e-01" nType="0">
          <Node pos="l" depth="2" NCoef="0" IVar="-1" Cut="0.0000000000000000e+00" cType="1" res="-1.7284069144807290e-06" rms="4.5048865675926208e-01" purity="5.2919054031372070e-01" nType="-99"/>
          <Node pos="r" depth="2" NCoef="0" IVar="-1" Cut="0.0000000000000000e+00" cType="1" res="1.6107641858980060e-03" rms="4.2613753676414490e-01" purity="6.0431033372879028e-01" nType="-99"/>
        </Node>
        <Node pos="r" depth="1" NCoef="0" IVar="1" Cut="1.1345059871673584e+00" cType="1" res="-6.4979381859302521e-02" rms="4.3104070425033569e-01" purity="3.3665266633033752e-01" nType="0">
          <Node pos="l" depth="2" NCoef="0" IVar="-1" Cut="0.0000000000000000e+00" cType="1" res="-1.6087020048871636e-04" rms="4.7256377339363098e-01" purity="5.0338500738143921e-01" nType="-99"/>
          <Node pos="r" depth="2" NCoef="0" IVar="-1" Cut="0.0000000000000000e+00" cType="1" res="-2.0706790965050459e-03" rms="3.8623192906379700e-01" purity="1.9356080889701843e-01" nType="-99"/>
        </Node>
      </Node>
    </BinaryTree>
    <BinaryTree type="DecisionTree" boostWeight="1.0000000000000000e+00" itree="723">
      <Node pos="s" depth="0" NCoef="0" IVar="3" Cut="9.5436431884765625e+01" cType="1" res="1.3069825945422053e-03" rms="4.4510805606842041e-01" purity="4.9580892920494080e-01" nType="0">
        <Node pos="l" depth="1" NCoef="0" IVar="3" Cut="3.7626552581787109e+01" cType="1" res="-2.5670584291219711e-02" rms="4.4659569859504700e-01" purity="4.4941839575767517e-01" nType="0">
          <Node pos="l" depth="2" NCoef="0" IVar="-1" Cut="0.0000000000000000e+00" cType="1" res="-2.0479841623455286e-03" rms="4.3149220943450928e-01" purity="2.9581338167190552e-01" nType="-99"/>
          <Node pos="r" depth="2" NCoef="0" IVar="-1" Cut="0.0000000000000000e+00" cType="1" res="-1.5557462756987661e-04" rms="4.4688928127288818e-01" purity="4.7157752513885498e-01" nType="-99"/>
        </Node>
        <Node pos="r" depth="1" NCoef="0" IVar="2" Cut="3.9838146972656250e+02" cType="1" res="5.9503167867660522e-02" rms="4.3623706698417664e-01" purity="5.9588283300399780e-01" nType="0">
          <Node pos="l" depth="2" NCoef="0" IVar="-1" Cut="0.0000000000000000e+00" cType="1" res="1.0153860785067081e-03" rms="4.3623822927474976e-01" purity="6.3891494274139404e-01" nType="-99"/>
          <Node pos="r" depth="2" NCoef="0" IVar="-1" Cut="0.0000000000000000e+00" cType="1" res="-4.2514398228377104e-04" rms="4.2576503753662109e-01" purity="3.9406394958496094e-01" nType="-99"/>
        </Node>
      </Node>
    </BinaryTree>
    <BinaryTree type="DecisionTree" boostWeight="1.0000000000000000e+00" itree="724">
      <Node pos="s" depth="0" NCoef="0" IVar="4" Cut="-1.8095489591360092e-02" cType="1" res="1.5164122916758060e-02" rms="4.4766941666603088e-01" purity="5.1158678531646729e-01" nType="0">
        <Node pos="l" depth="1" NCoef="0" IVar="5" Cut="4.3083605170249939e-01" cType="1" res="-1.9752684980630875e-02" rms="4.4604599475860596e-01" purity="4.4000998139381409e-01" nType="0">
          <Node pos="l" depth="2" NCoef="0" IVar="-1" Cut="0.0000000000000000e+00" cType="1" res="6.0966709861531854e-04" rms="4.4931632280349731e-01" purity="5.9723800420761108e-01" nType="-99"/>
          <Node pos="r" depth="2" NCoef="0" IVar="-1" Cut="0.0000000000000000e+00" cType="1" res="-7.7264412539079785e-04" rms="4.4118073582649231e-01" purity="3.7045738101005554e-01" nType="-99"/>
        </Node>
        <Node pos="r" depth="1" NCoef="0" IVar="6" Cut="3.3274096679687500e+02" cType="1" res="4.2936518788337708e-02" rms="4.4701331853866577e-01" purity="5.6851810216903687e-01" nType="0">
          <Node pos="l" depth="2" NCoef="0" IVar="-1" Cut="0.0000000000000000e+00" cType="1" res="-1.2055247789248824e-03" rms="4.4810432195663452e-01" purity="2.7114471793174744e-01" nType="-99"/>
          <Node pos="r" depth="2" NCoef="0" IVar="-1" Cut="0.0000000000000000e+00" cType="1" res="7.1166042471304536e-04" rms="4.4489052891731262e-01" purity="6.0077905654907227e-01" nType="-99"/>
        </Node>
      </Node>
    </BinaryTree>
    <BinaryTree type="DecisionTree" boostWeight="1.0000000000000000e+00" itree="725">
      <Node pos="s" depth="0" NCoef="0" IVar="3" Cut="5.9061466217041016e+01" cType="1" res="9.7606210038065910e-03" rms="4.5473480224609375e-01" purity="5.0558978319168091e-01" nType="0">
        <Node pos="l" depth="1" NCoef="0" IVar="3" Cut="3.6212844848632812e+01" cType="1" res="4.7924444079399109e-02" rms="4.5789554715156555e-01" purity="5.0719052553176880e-01" nType="0">
          <Node pos="l" depth="2" NCoef="0" IVar="-1" Cut="0.0000000000000000e+00" cType="1" res="-1.1601207079365849e-03" rms="4.1507112979888916e-01" purity="3.3342224359512329e-01" nType="-99"/>
          <Node pos="r" depth="2" NCoef="0" IVar="-1" Cut="0.0000000000000000e+00" cType="1" res="9.9819456227123737e-04" rms="4.6302518248558044e-01" purity="5.4980623722076416e-01" nType="-99"/>
        </Node>
        <Node pos="r" depth="1" NCoef="0" IVar="5" Cut="8.0036526918411255e-01" cType="1" res="-8.8162086904048920e-03" rms="4.5202383399009705e-01" purity="5.0481063127517700e-01" nType="0">
          <Node pos="l" depth="2" NCoef="0" IVar="-1" Cut="0.0000000000000000e+00" cType="1" res="-4.5839397353120148e-04" rms="4.4747254252433777e-01" purity="5.1948779821395874e-01" nType="-99"/>
          <Node pos="r" depth="2" NCoef="0" IVar="-1" Cut="0.0000000000000000e+00" cType="1" res="5.2209093701094389e-04" rms="4.5660087466239929e-01" purity="4.7834300994873047e-01" nType="-99"/>
        </Node>
      </Node>
    </BinaryTree>
    <BinaryTree type="DecisionTree" boostWeight="1.0000000000000000e+00" itree="726">
      <Node pos="s" depth="0" NCoef="0" IVar="3" Cut="1.0660724639892578e+02" cType="1" res="1.6558812931180000e-02" rms="4.4328233599662781e-01" purity="5.1305490732192993e-01" nType="0">
        <Node pos="l" depth="1" NCoef="0" IVar="0" Cut="6.0314364433288574e+00" cType="1" res="1.7017682694131508e-05" rms="4.4704744219779968e-01" purity="4.8020970821380615e-01" nType="0">
          <Node pos="l" depth="2" NCoef="0" IVar="-1" Cut="0.0000000000000000e+00" cType="1" res="-6.3731818227097392e-04" rms="4.2084065079689026e-01" purity="2.6886337995529175e-01" nType="-99"/>
          <Node pos="r" depth="2" NCoef="0" IVar="-1" Cut="0.0000000000000000e+00" cType="1" res="2.6819988852366805e-04" rms="4.5866343379020691e-01" purity="5.9010916948318481e-01" nType="-99"/>
        </Node>
        <Node pos="r" depth="1" NCoef="0" IVar="6" Cut="4.8579669189453125e+02" cType="1" res="6.9592639803886414e-02" rms="4.2668733000755310e-01" purity="6.1835831403732300e-01" nType="0">
          <Node pos="l" depth="2" NCoef="0" IVar="-1" Cut="0.0000000000000000e+00" cType="1" res="-9.4884127611294389e-04" rms="3.9284801483154297e-01" purity="4.1082054376602173e-01" nType="-99"/>
          <Node pos="r" depth="2" NCoef="0" IVar="-1" Cut="0.0000000000000000e+00" cType="1" res="1.4768540859222412e-03" rms="4.2846518754959106e-01" purity="6.8633729219436646e-01" nType="-99"/>
        </Node>
      </Node>
    </BinaryTree>
    <BinaryTree type="DecisionTree" boostWeight="1.0000000000000000e+00" itree="727">
      <Node pos="s" depth="0" NCoef="0" IVar="0" Cut="4.8464303016662598e+00" cType="1" res="1.5926683321595192e-02" rms="4.4803410768508911e-01" purity="5.1268005371093750e-01" nType="0">
        <Node pos="l" depth="1" NCoef="0" IVar="-1" Cut="0.0000000000000000e+00" cType="1" res="-3.0076671391725540e-03" rms="2.6388829946517944e-01" purity="8.6066797375679016e-02" nType="-99"/>
        <Node pos="r" depth="1" NCoef="0" IVar="0" Cut="5.6691460609436035e+00" cType="1" res="2.4710262194275856e-02" rms="4.5530819892883301e-01" purity="5.3846764564514160e-01" nType="0">
          <Node pos="l" depth="2" NCoef="0" IVar="-1" Cut="0.0000000000000000e+00" cType="1" res="-4.6972732525318861e-04" rms="4.3284487724304199e-01" purity="2.8483495116233826e-01" nType="-99"/>
          <Node pos="r" depth="2" NCoef="0" IVar="-1" Cut="0.0000000000000000e+00" cType="1" res="4.5148356002755463e-04" rms="4.5885089039802551e-01" purity="5.8854311704635620e-01" nType="-99"/>
        </Node>
      </Node>
    </BinaryTree>
    <BinaryTree type="DecisionTree" boostWeight="1.0000000000000000e+00" itree="728">
      <Node pos="s" depth="0" NCoef="0" IVar="1" Cut="1.5784938335418701e+00" cType="1" res="2.9360251501202583e-03" rms="4.4987002015113831e-01" purity="4.9854207038879395e-01" nType="0">
        <Node pos="l" depth="1" NCoef="0" IVar="2" Cut="2.0362554931640625e+02" cType="1" res="1.0721955448389053e-02" rms="4.5813971757888794e-01" purity="5.2990746498107910e-01" nType="0">
          <Node pos="l" depth="2" NCoef="0" IVar="-1" Cut="0.0000000000000000e+00" cType="1" res="-2.3801412316970527e-04" rms="4.5768547058105469e-01" purity="4.6087956428527832e-01" nType="-99"/>
          <Node pos="r" depth="2" NCoef="0" IVar="-1" Cut="0.0000000000000000e+00" cType="1" res="4.8567002522759140e-04" rms="4.5695784687995911e-01" purity="5.9266805648803711e-01" nType="-99"/>
        </Node>
        <Node pos="r" depth="1" NCoef="0" IVar="-1" Cut="0.0000000000000000e+00" cType="1" res="-2.1400020923465490e-03" rms="3.2928827404975891e-01" purity="1.4174644649028778e-01" nType="-99"/>
      </Node>
    </BinaryTree>
    <BinaryTree type="DecisionTree" boostWeight="1.0000000000000000e+00" itree="729">
      <Node pos="s" depth="0" NCoef="0" IVar="4" Cut="-3.6241706460714340e-02" cType="1" res="1.2049949727952480e-02" rms="4.4399404525756836e-01" purity="5.0813072919845581e-01" nType="0">
        <Node pos="l" depth="1" NCoef="0" IVar="7" Cut="9.2133201658725739e-02" cType="1" res="-2.2882550954818726e-02" rms="4.4853287935256958e-01" purity="4.2791506648063660e-01" nType="0">
          <Node pos="l" depth="2" NCoef="0" IVar="-1" Cut="0.0000000000000000e+00" cType="1" res="-5.2041508752154186e-05" rms="4.5885294675827026e-01" purity="4.6044760942459106e-01" nType="-99"/>
          <Node pos="r" depth="2" NCoef="0" IVar="-1" Cut="0.0000000000000000e+00" cType="1" res="-1.5777455409988761e-03" rms="4.0151959657669067e-01" purity="3.1048586964607239e-01" nType="-99"/>
        </Node>
        <Node pos="r" depth="1" NCoef="0" IVar="0" Cut="7.0388107299804688e+00" cType="1" res="3.4100346267223358e-02" rms="4.3967840075492859e-01" purity="5.5876511335372925e-01" nType="0">
          <Node pos="l" depth="2" NCoef="0" IVar="-1" Cut="0.0000000000000000e+00" cType="1" res="2.7902480724151246e-05" rms="4.6252113580703735e-01" purity="4.0689665079116821e-01" nType="-99"/>
          <Node pos="r" depth="2" NCoef="0" IVar="-1" Cut="0.0000000000000000e+00" cType="1" res="9.7906100563704967e-04" rms="4.0133792161941528e-01" purity="7.7099424600601196e-01" nType="-99"/>
        </Node>
      </Node>
    </BinaryTree>
    <BinaryTree type="DecisionTree" boostWeight="1.0000000000000000e+00" itree="730">
      <Node pos="s" depth="0" NCoef="0" IVar="7" Cut="-1.2934755533933640e-02" cType="1" res="1.4003571122884750e-02" rms="4.4518712162971497e-01" purity="5.1777595281600952e-01" nType="0">
        <Node pos="l" depth="1" NCoef="0" IVar="1" Cut="1.2450330257415771e+00" cType="1" res="5.2858196198940277e-02" rms="4.4332915544509888e-01" purity="5.9287267923355103e-01" nType="0">
          <Node pos="l" depth="2" NCoef="0" IVar="-1" Cut="0.0000000000000000e+00" cType="1" res="8.4292533574625850e-04" rms="4.4218030571937561e-01" purity="6.3421690464019775e-01" nType="-99"/>
          <Node pos="r" depth="2" NCoef="0" IVar="-1" Cut="0.0000000000000000e+00" cType="1" res="-8.3016831194981933e-04" rms="4.3685376644134521e-01" purity="3.0857795476913452e-01" nType="-99"/>
        </Node>
        <Node pos="r" depth="1" NCoef="0" IVar="3" Cut="8.5979743957519531e+01" cType="1" res="-1.1938760988414288e-02" rms="4.4453662633895874e-01" purity="4.6763566136360168e-01" nType="0">
          <Node pos="l" depth="2" NCoef="0" IVar="-1" Cut="0.0000000000000000e+00" cType="1" res="-6.3431030139327049e-04" rms="4.5597365498542786e-01" purity="4.1960611939430237e-01" nType="-99"/>
          <Node pos="r" depth="2" NCoef="0" IVar="-1" Cut="0.0000000000000000e+00" cType="1" res="5.4269982501864433e-04" rms="4.2104360461235046e-01" purity="5.4305577278137207e-01" nType="-99"/>
        </Node>
      </Node>
    </BinaryTree>
    <BinaryTree type="DecisionTree" boostWeight="1.0000000000000000e+00" itree="731">
      <Node pos="s" depth="0" NCoef="0" IVar="0" Cut="8.4961843490600586e+00" cType="1" res="-9.6308793872594833e-03" rms="4.5105591416358948e-01" purity="4.8128238320350647e-01" nType="0">
        <Node pos="l" depth="1" NCoef="0" IVar="2" Cut="3.2459304809570312e+02" cType="1" res="-2.0531214773654938e-02" rms="4.5698997378349304e-01" purity="4.4087126851081848e-01" nType="0">
          <Node pos="l" depth="2" NCoef="0" IVar="-1" Cut="0.0000000000000000e+00" cType="1" res="-1.1935946531593800e-04" rms="4.6579954028129578e-01" purity="4.6599045395851135e-01" nType="-99"/>
          <Node pos="r" depth="2" NCoef="0" IVar="-1" Cut="0.0000000000000000e+00" cType="1" res="-1.4470310416072607e-03" rms="4.0182569622993469e-01" purity="3.0849450826644897e-01" nType="-99"/>
        </Node>
        <Node pos="r" depth="1" NCoef="0" IVar="-1" Cut="0.0000000000000000e+00" cType="1" res="9.4884220743551850e-04" rms="3.9575713872909546e-01" purity="7.7791869640350342e-01" nType="-99"/>
      </Node>
    </BinaryTree>
    <BinaryTree type="DecisionTree" boostWeight="1.0000000000000000e+00" itree="732">
      <Node pos="s" depth="0" NCoef="0" IVar="7" Cut="5.5913804098963737e-03" cType="1" res="-7.6684245141223073e-04" rms="4.4748577475547791e-01" purity="4.8878109455108643e-01" nType="0">
        <Node pos="l" depth="1" NCoef="0" IVar="1" Cut="6.5823286771774292e-01" cType="1" res="-3.4722108393907547e-02" rms="4.4688296318054199e-01" purity="4.8887273669242859e-01" nType="0">
          <Node pos="l" depth="2" NCoef="0" IVar="-1" Cut="0.0000000000000000e+00" cType="1" res="7.4588914867490530e-04" rms="4.1494429111480713e-01" purity="6.6885900497436523e-01" nType="-99"/>
          <Node pos="r" depth="2" NCoef="0" IVar="-1" Cut="0.0000000000000000e+00" cType="1" res="-1.0305917821824551e-03" rms="4.5313119888305664e-01" purity="4.1979587078094482e-01" nType="-99"/>
        </Node>
        <Node pos="r" depth="1" NCoef="0" IVar="1" Cut="1.4077080488204956e+00" cType="1" res="2.7419297024607658e-02" rms="4.4602635502815247e-01" purity="4.8870503902435303e-01" nType="0">
          <Node pos="l" depth="2" NCoef="0" IVar="-1" Cut="0.0000000000000000e+00" cType="1" res="5.9040414635092020e-04" rms="4.6198904514312744e-01" purity="5.6734848022460938e-01" nType="-99"/>
          <Node pos="r" depth="2" NCoef="0" IVar="-1" Cut="0.0000000000000000e+00" cType="1" res="-8.8905164739117026e-04" rms="3.7550458312034607e-01" purity="2.0860888063907623e-01" nType="-99"/>
        </Node>
      </Node>
    </BinaryTree>
    <BinaryTree type="DecisionTree" boostWeight="1.0000000000000000e+00" itree="733">
      <Node pos="s" depth="0" NCoef="0" IVar="4" Cut="-6.6692982800304890e-03" cType="1" res="1.1091556400060654e-02" rms="4.5012527704238892e-01" purity="5.1023715734481812e-01" nType="0">
        <Node pos="l" depth="1" NCoef="0" IVar="3" Cut="5.0881855010986328e+01" cType="1" res="-2.2439287975430489e-02" rms="4.5265701413154602e-01" purity="4.4102066755294800e-01" nType="0">
          <Node pos="l" depth="2" NCoef="0" IVar="-1" Cut="0.0000000000000000e+00" cType="1" res="-1.2699448270723224e-03" rms="4.2990320920944214e-01" purity="3.5646021366119385e-01" nType="-99"/>
          <Node pos="r" depth="2" NCoef="0" IVar="-1" Cut="0.0000000000000000e+00" cType="1" res="-1.0363388719270006e-04" rms="4.5684495568275452e-01" purity="4.6189060807228088e-01" nType="-99"/>
        </Node>
        <Node pos="r" depth="1" NCoef="0" IVar="0" Cut="5.0716977119445801e+00" cType="1" res="3.9986923336982727e-02" rms="4.4591403007507324e-01" purity="5.6988483667373657e-01" nType="0">
          <Node pos="l" depth="2" NCoef="0" IVar="-1" Cut="0.0000000000000000e+00" cType="1" res="-1.7026480054482818e-03" rms="3.5950881242752075e-01" purity="1.6987760365009308e-01" nType="-99"/>
          <Node pos="r" depth="2" NCoef="0" IVar="-1" Cut="0.0000000000000000e+00" cType="1" res="6.7764479899778962e-04" rms="4.5232734084129333e-01" purity="6.1514282226562500e-01" nType="-99"/>
        </Node>
      </Node>
    </BinaryTree>
    <BinaryTree type="DecisionTree" boostWeight="1.0000000000000000e+00" itree="734">
      <Node pos="s" depth="0" NCoef="0" IVar="2" Cut="1.9078379821777344e+02" cType="1" res="-2.2872830741107464e-03" rms="4.4391268491744995e-01" purity="5.0082999467849731e-01" nType="0">
        <Node pos="l" depth="1" NCoef="0" IVar="3" Cut="7.1144660949707031e+01" cType="1" res="-4.6580616384744644e-02" rms="4.5274683833122253e-01" purity="4.2415085434913635e-01" nType="0">
          <Node pos="l" depth="2" NCoef="0" IVar="-1" Cut="0.0000000000000000e+00" cType="1" res="-1.8254859605804086e-04" rms="4.5554172992706299e-01" purity="4.6008735895156860e-01" nType="-99"/>
          <Node pos="r" depth="2" NCoef="0" IVar="-1" Cut="0.0000000000000000e+00" cType="1" res="-2.0209196954965591e-03" rms="4.3112981319427490e-01" purity="3.2111850380897522e-01" nType="-99"/>
        </Node>
        <Node pos="r" depth="1" NCoef="0" IVar="0" Cut="7.6818304061889648e+00" cType="1" res="2.5994407013058662e-02" rms="4.3583041429519653e-01" purity="5.4979038238525391e-01" nType="0">
          <Node pos="l" depth="2" NCoef="0" IVar="-1" Cut="0.0000000000000000e+00" cType="1" res="5.9909820265602320e-05" rms="4.4731733202934265e-01" purity="4.5703983306884766e-01" nType="-99"/>
          <Node pos="r" depth="2" NCoef="0" IVar="-1" Cut="0.0000000000000000e+00" cType="1" res="1.0613246122375131e-03" rms="4.0208652615547180e-01" purity="7.7294290065765381e-01" nType="-99"/>
        </Node>
      </Node>
    </BinaryTree>
    <BinaryTree type="DecisionTree" boostWeight="1.0000000000000000e+00" itree="735">
      <Node pos="s" depth="0" NCoef="0" IVar="6" Cut="3.2257806396484375e+02" cType="1" res="3.7094510626047850e-03" rms="4.4526147842407227e-01" purity="5.0013405084609985e-01" nType="0">
        <Node pos="l" depth="1" NCoef="0" IVar="-1" Cut="0.0000000000000000e+00" cType="1" res="-1.6048874240368605e-03" rms="3.8102984428405762e-01" purity="2.4467051029205322e-01" nType="-99"/>
        <Node pos="r" depth="1" NCoef="0" IVar="2" Cut="1.6236036682128906e+02" cType="1" res="1.3497852720320225e-02" rms="4.4972816109657288e-01" purity="5.2464395761489868e-01" nType="0">
          <Node pos="l" depth="2" NCoef="0" IVar="-1" Cut="0.0000000000000000e+00" cType="1" res="-7.3941424489021301e-04" rms="4.7448492050170898e-01" purity="4.1294690966606140e-01" nType="-99"/>
          <Node pos="r" depth="2" NCoef="0" IVar="-1" Cut="0.0000000000000000e+00" cType="1" res="3.9698358159512281e-04" rms="4.4217702746391296e-01" purity="5.5089592933654785e-01" nType="-99"/>
        </Node>
      </Node>
    </BinaryTree>
    <BinaryTree type="DecisionTree" boostWeight="1.0000000000000000e+00" itree="736">
      <Node pos="s" depth="0" NCoef="0" IVar="7" Cut="8.0931447446346283e-02" cType="1" res="1.1609015055000782e-03" rms="4.4927433133125305e-01" purity="4.9613738059997559e-01" nType="0">
        <Node pos="l" depth="1" NCoef="0" IVar="7" Cut="4.0985369123518467e-03" cType="1" res="2.0117424428462982e-02" rms="4.5139786601066589e-01" purity="5.3148263692855835e-01" nType="0">
          <Node pos="l" depth="2" NCoef="0" IVar="-1" Cut="0.0000000000000000e+00" cType="1" res="-8.7716049165464938e-05" rms="4.4229859113693237e-01" purity="5.2655005455017090e-01" nType="-99"/>
          <Node pos="r" depth="2" NCoef="0" IVar="-1" Cut="0.0000000000000000e+00" cType="1" res="7.5234356336295605e-04" rms="4.6120706200599670e-01" purity="5.3834342956542969e-01" nType="-99"/>
        </Node>
        <Node pos="r" depth="1" NCoef="0" IVar="4" Cut="1.9864243268966675e-01" cType="1" res="-6.5257944166660309e-02" rms="4.3528792262077332e-01" purity="3.7229639291763306e-01" nType="0">
          <Node pos="l" depth="2" NCoef="0" IVar="-1" Cut="0.0000000000000000e+00" cType="1" res="-1.4578115660697222e-03" rms="4.1347286105155945e-01" purity="3.0720564723014832e-01" nType="-99"/>
          <Node pos="r" depth="2" NCoef="0" IVar="-1" Cut="0.0000000000000000e+00" cType="1" res="-1.3729782949667424e-04" rms="4.7501671314239502e-01" purity="5.1445752382278442e-01" nType="-99"/>
        </Node>
      </Node>
    </BinaryTree>
    <BinaryTree type="DecisionTree" boostWeight="1.0000000000000000e+00" itree="737">
      <Node pos="s" depth="0" NCoef="0" IVar="6" Cut="6.3966436767578125e+02" cType="1" res="1.9299846142530441e-02" rms="4.5123952627182007e-01" purity="5.1689022779464722e-01" nType="0">
        <Node pos="l" depth="1" NCoef="0" IVar="6" Cut="4.9874856567382812e+02" cType="1" res="9.3614077195525169e-03" rms="4.5336836576461792e-01" purity="4.9008995294570923e-01" nType="0">
          <Node pos="l" depth="2" NCoef="0" IVar="-1" Cut="0.0000000000000000e+00" cType="1" res="3.5971184843219817e-04" rms="4.5349386334419250e-01" purity="4.8036137223243713e-01" nType="-99"/>
          <Node pos="r" depth="2" NCoef="0" IVar="-1" Cut="0.0000000000000000e+00" cType="1" res="-6.1975105199962854e-04" rms="4.4871380925178528e-01" purity="5.2064698934555054e-01" nType="-99"/>
        </Node>
        <Node pos="r" depth="1" NCoef="0" IVar="2" Cut="3.9038330078125000e+02" cType="1" res="6.5875291824340820e-02" rms="4.3813234567642212e-01" purity="6.4248663187026978e-01" nType="0">
          <Node pos="l" depth="2" NCoef="0" IVar="-1" Cut="0.0000000000000000e+00" cType="1" res="1.1187406489625573e-03" rms="4.2233940958976746e-01" purity="7.0847171545028687e-01" nType="-99"/>
          <Node pos="r" depth="2" NCoef="0" IVar="-1" Cut="0.0000000000000000e+00" cType="1" res="-2.5268578610848635e-05" rms="4.6742057800292969e-01" purity="4.8223873972892761e-01" nType="-99"/>
        </Node>
      </Node>
    </BinaryTree>
    <BinaryTree type="DecisionTree" boostWeight="1.0000000000000000e+00" itree="738">
      <Node pos="s" depth="0" NCoef="0" IVar="3" Cut="3.5282920837402344e+01" cType="1" res="-3.9474903605878353e-03" rms="4.4322609901428223e-01" purity="4.9534073472023010e-01" nType="0">
        <Node pos="l" depth="1" NCoef="0" IVar="-1" Cut="0.0000000000000000e+00" cType="1" res="-2.6054093614220619e-03" rms="3.7239059805870056e-01" purity="2.3662242293357849e-01" nType="-99"/>
        <Node pos="r" depth="1" NCoef="0" IVar="5" Cut="5.5014014244079590e-01" cType="1" res="5.1174927502870560e-03" rms="4.4569513201713562e-01" purity="5.1144766807556152e-01" nType="0">
          <Node pos="l" depth="2" NCoef="0" IVar="-1" Cut="0.0000000000000000e+00" cType="1" res="4.8626627540215850e-04" rms="4.3238514661788940e-01" purity="6.0742861032485962e-01" nType="-99"/>
          <Node pos="r" depth="2" NCoef="0" IVar="-1" Cut="0.0000000000000000e+00" cType="1" res="-2.1092667884659022e-04" rms="4.5218151807785034e-01" purity="4.5488452911376953e-01" nType="-99"/>
        </Node>
      </Node>
    </BinaryTree>
    <BinaryTree type="DecisionTree" boostWeight="1.0000000000000000e+00" itree="739">
      <Node pos="s" depth="0" NCoef="0" IVar="4" Cut="1.8280856311321259e-01" cType="1" res="1.5356761403381824e-02" rms="4.4893455505371094e-01" purity="5.1436829566955566e-01" nType="0">
        <Node pos="l" depth="1" NCoef="0" IVar="3" Cut="3.9311893463134766e+01" cType="1" res="7.4718017131090164e-03" rms="4.4472751021385193e-01" purity="5.0160133838653564e-01" nType="0">
          <Node pos="l" depth="2" NCoef="0" IVar="-1" Cut="0.0000000000000000e+00" cType="1" res="-9.0140319662168622e-04" rms="4.0758916735649109e-01" purity="3.6868217587471008e-01" nType="-99"/>
          <Node pos="r" depth="2" NCoef="0" IVar="-1" Cut="0.0000000000000000e+00" cType="1" res="2.1497198031283915e-04" rms="4.4830682873725891e-01" purity="5.1765781641006470e-01" nType="-99"/>
        </Node>
        <Node pos="r" depth="1" NCoef="0" IVar="3" Cut="6.7365707397460938e+01" cType="1" res="7.2673238813877106e-02" rms="4.7448363900184631e-01" purity="6.0717272758483887e-01" nType="0">
          <Node pos="l" depth="2" NCoef="0" IVar="-1" Cut="0.0000000000000000e+00" cType="1" res="1.6537831397727132e-03" rms="4.7022053599357605e-01" purity="6.2647414207458496e-01" nType="-99"/>
          <Node pos="r" depth="2" NCoef="0" IVar="-1" Cut="0.0000000000000000e+00" cType="1" res="-5.3169518650975078e-05" rms="4.6752724051475525e-01" purity="5.8529496192932129e-01" nType="-99"/>
        </Node>
      </Node>
    </BinaryTree>
    <BinaryTree type="DecisionTree" boostWeight="1.0000000000000000e+00" itree="740">
      <Node pos="s" depth="0" NCoef="0" IVar="0" Cut="4.7591357231140137e+00" cType="1" res="1.6989087453112006e-03" rms="4.4923159480094910e-01" purity="5.0206255912780762e-01" nType="0">
        <Node pos="l" depth="1" NCoef="0" IVar="-1" Cut="0.0000000000000000e+00" cType="1" res="-3.1478472519665956e-03" rms="2.6963052153587341e-01" purity="8.2690149545669556e-02" nType="-99"/>
        <Node pos="r" depth="1" NCoef="0" IVar="4" Cut="1.7624345421791077e-01" cType="1" res="9.0062106028199196e-03" rms="4.5571795105934143e-01" purity="5.2453869581222534e-01" nType="0">
          <Node pos="l" depth="2" NCoef="0" IVar="-1" Cut="0.0000000000000000e+00" cType="1" res="-4.3990527046844363e-05" rms="4.5537018775939941e-01" purity="5.0553512573242188e-01" nType="-99"/>
          <Node pos="r" depth="2" NCoef="0" IVar="-1" Cut="0.0000000000000000e+00" cType="1" res="9.7078317776322365e-04" rms="4.5124787092208862e-01" purity="6.3394594192504883e-01" nType="-99"/>
        </Node>
      </Node>
    </BinaryTree>
    <BinaryTree type="DecisionTree" boostWeight="1.0000000000000000e+00" itree="741">
      <Node pos="s" depth="0" NCoef="0" IVar="1" Cut="8.1983333826065063e-01" cType="1" res="2.6941375108435750e-04" rms="4.4706565141677856e-01" purity="4.9780473113059998e-01" nType="0">
        <Node pos="l" depth="1" NCoef="0" IVar="2" Cut="1.8117781066894531e+02" cType="1" res="3.7006024271249771e-02" rms="4.4383105635643005e-01" purity="6.2058830261230469e-01" nType="0">
          <Node pos="l" depth="2" NCoef="0" IVar="-1" Cut="0.0000000000000000e+00" cType="1" res="-6.7096952989231795e-05" rms="4.6545091271400452e-01" purity="5.0290471315383911e-01" nType="-99"/>
          <Node pos="r" depth="2" NCoef="0" IVar="-1" Cut="0.0000000000000000e+00" cType="1" res="9.1720483032986522e-04" rms="4.2122113704681396e-01" purity="7.2075235843658447e-01" nType="-99"/>
        </Node>
        <Node pos="r" depth="1" NCoef="0" IVar="7" Cut="1.1088025569915771e-01" cType="1" res="-2.5112319737672806e-02" rms="4.4752877950668335e-01" purity="4.1297215223312378e-01" nType="0">
          <Node pos="l" depth="2" NCoef="0" IVar="-1" Cut="0.0000000000000000e+00" cType="1" res="-1.6650476027280092e-04" rms="4.5288696885108948e-01" purity="4.4084364175796509e-01" nType="-99"/>
          <Node pos="r" depth="2" NCoef="0" IVar="-1" Cut="0.0000000000000000e+00" cType="1" res="-1.7459886148571968e-03" rms="4.1020289063453674e-01" purity="2.6373627781867981e-01" nType="-99"/>
        </Node>
      </Node>
    </BinaryTree>
    <BinaryTree type="DecisionTree" boostWeight="1.0000000000000000e+00" itree="742">
      <Node pos="s" depth="0" NCoef="0" IVar="0" Cut="4.7934036254882812e+00" cType="1" res="9.9314460530877113e-03" rms="4.6029639244079590e-01" purity="4.9894687533378601e-01" nType="0">
        <Node pos="l" depth="1" NCoef="0" IVar="-1" Cut="0.0000000000000000e+00" cType="1" res="-2.3479706142097712e-03" rms="3.0574053525924683e-01" purity="1.0717543214559555e-01" nType="-99"/>
        <Node pos="r" depth="1" NCoef="0" IVar="5" Cut="7.4285948276519775e-01" cType="1" res="1.6555335372686386e-02" rms="4.6690577268600464e-01" purity="5.2185356616973877e-01" nType="0">
          <Node pos="l" depth="2" NCoef="0" IVar="-1" Cut="0.0000000000000000e+00" cType="1" res="-5.6098138884408399e-05" rms="4.6949344873428345e-01" purity="5.3476238250732422e-01" nType="-99"/>
          <Node pos="r" depth="2" NCoef="0" IVar="-1" Cut="0.0000000000000000e+00" cType="1" res="6.6048139706254005e-04" rms="4.6126529574394226e-01" purity="5.0261110067367554e-01" nType="-99"/>
        </Node>
      </Node>
    </BinaryTree>
    <BinaryTree type="DecisionTree" boostWeight="1.0000000000000000e+00" itree="743">
      <Node pos="s" depth="0" NCoef="0" IVar="3" Cut="3.5282920837402344e+01" cType="1" res="-2.8195081278681755e-02" rms="4.5506906509399414e-01" purity="4.6734064817428589e-01" nType="0">
        <Node pos="l" depth="1" NCoef="0" IVar="-1" Cut="0.0000000000000000e+00" cType="1" res="-2.3239571601152420e-03" rms="3.8720104098320007e-01" purity="2.7024915814399719e-01" nType="-99"/>
        <Node pos="r" depth="1" NCoef="0" IVar="1" Cut="6.8568921089172363e-01" cType="1" res="-2.1212724968791008e-02" rms="4.5814886689186096e-01" purity="4.7985363006591797e-01" nType="0">
          <Node pos="l" depth="2" NCoef="0" IVar="-1" Cut="0.0000000000000000e+00" cType="1" res="9.4883755082264543e-05" rms="4.5158103108406067e-01" purity="6.1008352041244507e-01" nType="-99"/>
          <Node pos="r" depth="2" NCoef="0" IVar="-1" Cut="0.0000000000000000e+00" cType="1" res="-4.7992283361963928e-04" rms="4.6034380793571472e-01" purity="4.2506760358810425e-01" nType="-99"/>
        </Node>
      </Node>
    </BinaryTree>
    <BinaryTree type="DecisionTree" boostWeight="1.0000000000000000e+00" itree="744">
      <Node pos="s" depth="0" NCoef="0" IVar="0" Cut="6.8283720016479492e+00" cType="1" res="-3.0116541311144829e-03" rms="4.4254970550537109e-01" purity="4.9820643663406372e-01" nType="0">
        <Node pos="l" depth="1" NCoef="0" IVar="4" Cut="2.9985584318637848e-02" cType="1" res="-3.3363487571477890e-02" rms="4.4479566812515259e-01" purity="3.4653326869010925e-01" nType="0">
          <Node pos="l" depth="2" NCoef="0" IVar="-1" Cut="0.0000000000000000e+00" cType="1" res="-1.2313484912738204e-03" rms="4.1729411482810974e-01" purity="2.7357929944992065e-01" nType="-99"/>
          <Node pos="r" depth="2" NCoef="0" IVar="-1" Cut="0.0000000000000000e+00" cType="1" res="2.2904518118593842e-04" rms="4.6887898445129395e-01" purity="4.2916032671928406e-01" nType="-99"/>
        </Node>
        <Node pos="r" depth="1" NCoef="0" IVar="3" Cut="5.5731452941894531e+01" cType="1" res="3.2540231943130493e-02" rms="4.3723315000534058e-01" purity="6.7586511373519897e-01" nType="0">
          <Node pos="l" depth="2" NCoef="0" IVar="-1" Cut="0.0000000000000000e+00" cType="1" res="-5.7271518744528294e-04" rms="4.6458786725997925e-01" purity="5.7513403892517090e-01" nType="-99"/>
          <Node pos="r" depth="2" NCoef="0" IVar="-1" Cut="0.0000000000000000e+00" cType="1" res="8.0008560325950384e-04" rms="4.2261263728141785e-01" purity="7.1453267335891724e-01" nType="-99"/>
        </Node>
      </Node>
    </BinaryTree>
    <BinaryTree type="DecisionTree" boostWeight="1.0000000000000000e+00" itree="745">
      <Node pos="s" depth="0" NCoef="0" IVar="2" Cut="2.0362554931640625e+02" cType="1" res="1.0520068928599358e-02" rms="4.5107126235961914e-01" purity="5.0001722574234009e-01" nType="0">
        <Node pos="l" depth="1" NCoef="0" IVar="3" Cut="7.5887268066406250e+01" cType="1" res="-2.2687721997499466e-02" rms="4.5966079831123352e-01" purity="4.4732609391212463e-01" nType="0">
          <Node pos="l" depth="2" NCoef="0" IVar="-1" Cut="0.0000000000000000e+00" cType="1" res="1.0539167124079540e-04" rms="4.6484318375587463e-01" purity="4.7174307703971863e-01" nType="-99"/>
          <Node pos="r" depth="2" NCoef="0" IVar="-1" Cut="0.0000000000000000e+00" cType="1" res="-1.5195974847301841e-03" rms="4.3221211433410645e-01" purity="3.7664201855659485e-01" nType="-99"/>
        </Node>
        <Node pos="r" depth="1" NCoef="0" IVar="2" Cut="3.0164370727539062e+02" cType="1" res="3.8693644106388092e-02" rms="4.4170022010803223e-01" purity="5.4472059011459351e-01" nType="0">
          <Node pos="l" depth="2" NCoef="0" IVar="-1" Cut="0.0000000000000000e+00" cType="1" res="9.4271585112437606e-04" rms="4.5117834210395813e-01" purity="6.1196732521057129e-01" nType="-99"/>
          <Node pos="r" depth="2" NCoef="0" IVar="-1" Cut="0.0000000000000000e+00" cType="1" res="-2.8143130475655198e-04" rms="4.1927134990692139e-01" purity="4.3112349510192871e-01" nType="-99"/>
        </Node>
      </Node>
    </BinaryTree>
    <BinaryTree type="DecisionTree" boostWeight="1.0000000000000000e+00" itree="746">
      <Node pos="s" depth="0" NCoef="0" IVar="0" Cut="7.7117547988891602e+00" cType="1" res="-9.7182095050811768e-03" rms="4.4525662064552307e-01" purity="4.8618698120117188e-01" nType="0">
        <Node pos="l" depth="1" NCoef="0" IVar="2" Cut="2.0379609680175781e+02" cType="1" res="-2.5000143796205521e-02" rms="4.5202529430389404e-01" purity="4.0937563776969910e-01" nType="0">
          <Node pos="l" depth="2" NCoef="0" IVar="-1" Cut="0.0000000000000000e+00" cType="1" res="-6.9922121474519372e-04" rms="4.5623886585235596e-01" purity="3.6544418334960938e-01" nType="-99"/>
          <Node pos="r" depth="2" NCoef="0" IVar="-1" Cut="0.0000000000000000e+00" cType="1" res="3.4664697068365058e-06" rms="4.4650688767433167e-01" purity="4.5132485032081604e-01" nType="-99"/>
        </Node>
        <Node pos="r" depth="1" NCoef="0" IVar="1" Cut="6.6819030046463013e-01" cType="1" res="3.8058370351791382e-02" rms="4.1982513666152954e-01" purity="7.2632563114166260e-01" nType="0">
          <Node pos="l" depth="2" NCoef="0" IVar="-1" Cut="0.0000000000000000e+00" cType="1" res="1.4111014315858483e-03" rms="3.4489479660987854e-01" purity="8.6283516883850098e-01" nType="-99"/>
          <Node pos="r" depth="2" NCoef="0" IVar="-1" Cut="0.0000000000000000e+00" cType="1" res="1.2007918121526018e-04" rms="4.4614872336387634e-01" purity="6.6553312540054321e-01" nType="-99"/>
        </Node>
      </Node>
    </BinaryTree>
    <BinaryTree type="DecisionTree" boostWeight="1.0000000000000000e+00" itree="747">
      <Node pos="s" depth="0" NCoef="0" IVar="5" Cut="4.5836725831031799e-01" cType="1" res="1.8357999622821808e-02" rms="4.5121544599533081e-01" purity="5.1412236690521240e-01" nType="0">
        <Node pos="l" depth="1" NCoef="0" IVar="7" Cut="8.3360172808170319e-02" cType="1" res="6.2055293470621109e-02" rms="4.4532427191734314e-01" purity="6.1795455217361450e-01" nType="0">
          <Node pos="l" depth="2" NCoef="0" IVar="-1" Cut="0.0000000000000000e+00" cType="1" res="4.8046873416751623e-04" rms="4.3676120042800903e-01" purity="6.1592346429824829e-01" nType="-99"/>
          <Node pos="r" depth="2" NCoef="0" IVar="-1" Cut="0.0000000000000000e+00" cType="1" res="1.6753813251852989e-03" rms="4.6290561556816101e-01" purity="6.2419623136520386e-01" nType="-99"/>
        </Node>
        <Node pos="r" depth="1" NCoef="0" IVar="5" Cut="6.5298700332641602e-01" cType="1" res="2.6970235630869865e-03" rms="4.5228165388107300e-01" purity="4.7690925002098083e-01" nType="0">
          <Node pos="l" depth="2" NCoef="0" IVar="-1" Cut="0.0000000000000000e+00" cType="1" res="-4.5831594616174698e-04" rms="4.5412045717239380e-01" purity="4.9905860424041748e-01" nType="-99"/>
          <Node pos="r" depth="2" NCoef="0" IVar="-1" Cut="0.0000000000000000e+00" cType="1" res="3.0710300779901445e-04" rms="4.5018362998962402e-01" purity="4.6543124318122864e-01" nType="-99"/>
        </Node>
      </Node>
    </BinaryTree>
    <BinaryTree type="DecisionTree" boostWeight="1.0000000000000000e+00" itree="748">
      <Node pos="s" depth="0" NCoef="0" IVar="4" Cut="-5.5086880922317505e-02" cType="1" res="4.7731231898069382e-03" rms="4.4826796650886536e-01" purity="5.0267463922500610e-01" nType="0">
        <Node pos="l" depth="1" NCoef="0" IVar="3" Cut="1.1993012237548828e+02" cType="1" res="-4.2455099523067474e-02" rms="4.4693991541862488e-01" purity="3.9748844504356384e-01" nType="0">
          <Node pos="l" depth="2" NCoef="0" IVar="-1" Cut="0.0000000000000000e+00" cType="1" res="-1.0569141013547778e-03" rms="4.3772360682487488e-01" purity="3.5649374127388000e-01" nType="-99"/>
          <Node pos="r" depth="2" NCoef="0" IVar="-1" Cut="0.0000000000000000e+00" cType="1" res="9.8574906587600708e-04" rms="4.6677443385124207e-01" purity="5.7099109888076782e-01" nType="-99"/>
        </Node>
        <Node pos="r" depth="1" NCoef="0" IVar="5" Cut="5.6292390823364258e-01" cType="1" res="2.5547288358211517e-02" rms="4.4727447628974915e-01" purity="5.4894268512725830e-01" nType="0">
          <Node pos="l" depth="2" NCoef="0" IVar="-1" Cut="0.0000000000000000e+00" cType="1" res="8.5802865214645863e-04" rms="4.2884430289268494e-01" purity="6.3710409402847290e-01" nType="-99"/>
          <Node pos="r" depth="2" NCoef="0" IVar="-1" Cut="0.0000000000000000e+00" cType="1" res="1.7272923287237063e-05" rms="4.5535558462142944e-01" purity="5.0009566545486450e-01" nType="-99"/>
        </Node>
      </Node>
    </BinaryTree>
    <BinaryTree type="DecisionTree" boostWeight="1.0000000000000000e+00" itree="749">
      <Node pos="s" depth="0" NCoef="0" IVar="0" Cut="4.8503117561340332e+00" cType="1" res="-7.9906918108463287e-03" rms="4.4829434156417847e-01" purity="4.8925128579139709e-01" nType="0">
        <Node pos="l" depth="1" NCoef="0" IVar="-1" Cut="0.0000000000000000e+00" cType="1" res="-2.2498394828289747e-03" rms="2.9531121253967285e-01" purity="1.0670739412307739e-01" nType="-99"/>
        <Node pos="r" depth="1" NCoef="0" IVar="3" Cut="3.9196342468261719e+01" cType="1" res="-2.2539426572620869e-03" rms="4.5563581585884094e-01" purity="5.1342880725860596e-01" nType="0">
          <Node pos="l" depth="2" NCoef="0" IVar="-1" Cut="0.0000000000000000e+00" cType="1" res="-1.2082005850970745e-03" rms="4.1506969928741455e-01" purity="3.6658433079719543e-01" nType="-99"/>
          <Node pos="r" depth="2" NCoef="0" IVar="-1" Cut="0.0000000000000000e+00" cType="1" res="6.4087616920005530e-05" rms="4.5860850811004639e-01" purity="5.2716249227523804e-01" nType="-99"/>
        </Node>
      </Node>
    </BinaryTree>
    <BinaryTree type="DecisionTree" boostWeight="1.0000000000000000e+00" itree="750">
      <Node pos="s" depth="0" NCoef="0" IVar="2" Cut="3.1179821777343750e+02" cType="1" res="-6.4171180129051208e-03" rms="4.4743683934211731e-01" purity="4.8400068283081055e-01" nType="0">
        <Node pos="l" depth="1" NCoef="0" IVar="0" Cut="4.8453984260559082e+00" cType="1" res="5.9444028884172440e-03" rms="4.5335212349891663e-01" purity="5.0537782907485962e-01" nType="0">
          <Node pos="l" depth="2" NCoef="0" IVar="-1" Cut="0.0000000000000000e+00" cType="1" res="-2.6295457500964403e-03" rms="2.8362572193145752e-01" purity="9.1644689440727234e-02" nType="-99"/>
          <Node pos="r" depth="2" NCoef="0" IVar="-1" Cut="0.0000000000000000e+00" cType="1" res="1.8384042778052390e-04" rms="4.6170094609260559e-01" purity="5.3409379720687866e-01" nType="-99"/>
        </Node>
        <Node pos="r" depth="1" NCoef="0" IVar="4" Cut="-3.9380352944135666e-02" cType="1" res="-6.9234237074851990e-02" rms="4.1036567091941833e-01" purity="3.7536913156509399e-01" nType="0">
          <Node pos="l" depth="2" NCoef="0" IVar="-1" Cut="0.0000000000000000e+00" cType="1" res="-2.7294752653688192e-03" rms="3.7267318367958069e-01" purity="2.4421715736389160e-01" nType="-99"/>
          <Node pos="r" depth="2" NCoef="0" IVar="-1" Cut="0.0000000000000000e+00" cType="1" res="1.5598806203342974e-04" rms="4.3236562609672546e-01" purity="5.1312768459320068e-01" nType="-99"/>
        </Node>
      </Node>
    </BinaryTree>
    <BinaryTree type="DecisionTree" boostWeight="1.0000000000000000e+00" itree="751">
      <Node pos="s" depth="0" NCoef="0" IVar="0" Cut="4.8764820098876953e+00" cType="1" res="-2.4996974389068782e-04" rms="4.5321735739707947e-01" purity="4.9489676952362061e-01" nType="0">
        <Node pos="l" depth="1" NCoef="0" IVar="-1" Cut="0.0000000000000000e+00" cType="1" res="-2.2788699716329575e-03" rms="2.9768407344818115e-01" purity="1.1204189807176590e-01" nType="-99"/>
        <Node pos="r" depth="1" NCoef="0" IVar="1" Cut="1.2000933885574341e+00" cType="1" res="6.4646000973880291e-03" rms="4.6146732568740845e-01" purity="5.2187883853912354e-01" nType="0">
          <Node pos="l" depth="2" NCoef="0" IVar="-1" Cut="0.0000000000000000e+00" cType="1" res="-1.0138633660972118e-04" rms="4.6232765913009644e-01" purity="5.7747536897659302e-01" nType="-99"/>
          <Node pos="r" depth="2" NCoef="0" IVar="-1" Cut="0.0000000000000000e+00" cType="1" res="6.9700618041679263e-04" rms="4.5713686943054199e-01" purity="3.7861713767051697e-01" nType="-99"/>
        </Node>
      </Node>
    </BinaryTree>
    <BinaryTree type="DecisionTree" boostWeight="1.0000000000000000e+00" itree="752">
      <Node pos="s" depth="0" NCoef="0" IVar="1" Cut="1.7066442966461182e+00" cType="1" res="2.7094915509223938e-02" rms="4.5142781734466553e-01" purity="5.2151226997375488e-01" nType="0">
        <Node pos="l" depth="1" NCoef="0" IVar="3" Cut="1.0308435821533203e+02" cType="1" res="3.3092390745878220e-02" rms="4.5748168230056763e-01" purity="5.4340320825576782e-01" nType="0">
          <Node pos="l" depth="2" NCoef="0" IVar="-1" Cut="0.0000000000000000e+00" cType="1" res="2.1764676785096526e-04" rms="4.5991650223731995e-01" purity="5.0446099042892456e-01" nType="-99"/>
          <Node pos="r" depth="2" NCoef="0" IVar="-1" Cut="0.0000000000000000e+00" cType="1" res="1.0416411096230149e-03" rms="4.4669651985168457e-01" purity="6.5787696838378906e-01" nType="-99"/>
        </Node>
        <Node pos="r" depth="1" NCoef="0" IVar="-1" Cut="0.0000000000000000e+00" cType="1" res="-2.1832925267517567e-03" rms="2.9987579584121704e-01" purity="1.1942890286445618e-01" nType="-99"/>
      </Node>
    </BinaryTree>
    <BinaryTree type="DecisionTree" boostWeight="1.0000000000000000e+00" itree="753">
      <Node pos="s" depth="0" NCoef="0" IVar="2" Cut="2.1062890625000000e+02" cType="1" res="1.4580663992092013e-03" rms="4.5858976244926453e-01" purity="4.9318662285804749e-01" nType="0">
        <Node pos="l" depth="1" NCoef="0" IVar="5" Cut="3.0142822861671448e-01" cType="1" res="-2.6195222511887550e-02" rms="4.5858433842658997e-01" purity="4.4721969962120056e-01" nType="0">
          <Node pos="l" depth="2" NCoef="0" IVar="-1" Cut="0.0000000000000000e+00" cType="1" res="-1.9882218912243843e-03" rms="4.5444220304489136e-01" purity="3.3429092168807983e-01" nType="-99"/>
          <Node pos="r" depth="2" NCoef="0" IVar="-1" Cut="0.0000000000000000e+00" cType="1" res="-1.6468232206534594e-04" rms="4.5719468593597412e-01" purity="4.6104040741920471e-01" nType="-99"/>
        </Node>
        <Node pos="r" depth="1" NCoef="0" IVar="2" Cut="3.1622311401367188e+02" cType="1" res="2.8300724923610687e-02" rms="4.5699736475944519e-01" purity="5.3780609369277954e-01" nType="0">
          <Node pos="l" depth="2" NCoef="0" IVar="-1" Cut="0.0000000000000000e+00" cType="1" res="7.9898856347426772e-04" rms="4.5901870727539062e-01" purity="6.0507386922836304e-01" nType="-99"/>
          <Node pos="r" depth="2" NCoef="0" IVar="-1" Cut="0.0000000000000000e+00" cType="1" res="-4.9679441144689918e-04" rms="4.4718959927558899e-01" purity="4.1228923201560974e-01" nType="-99"/>
        </Node>
      </Node>
    </BinaryTree>
    <BinaryTree type="DecisionTree" boostWeight="1.0000000000000000e+00" itree="754">
      <Node pos="s" depth="0" NCoef="0" IVar="2" Cut="1.9078379821777344e+02" cType="1" res="9.2245182022452354e-03" rms="4.4539606571197510e-01" purity="5.0172042846679688e-01" nType="0">
        <Node pos="l" depth="1" NCoef="0" IVar="2" Cut="1.7355010986328125e+02" cType="1" res="-2.9610192403197289e-02" rms="4.5501810312271118e-01" purity="4.2607757449150085e-01" nType="0">
          <Node pos="l" depth="2" NCoef="0" IVar="-1" Cut="0.0000000000000000e+00" cType="1" res="-1.9994538888568059e-05" rms="4.5752176642417908e-01" purity="4.4349768757820129e-01" nType="-99"/>
          <Node pos="r" depth="2" NCoef="0" IVar="-1" Cut="0.0000000000000000e+00" cType="1" res="-1.7109961481764913e-03" rms="4.3491914868354797e-01" purity="3.7043040990829468e-01" nType="-99"/>
        </Node>
        <Node pos="r" depth="1" NCoef="0" IVar="5" Cut="8.4253638982772827e-01" cType="1" res="3.4678034484386444e-02" rms="4.3710726499557495e-01" purity="5.5129915475845337e-01" nType="0">
          <Node pos="l" depth="2" NCoef="0" IVar="-1" Cut="0.0000000000000000e+00" cType="1" res="7.6815148349851370e-04" rms="4.3745416402816772e-01" purity="6.1478102207183838e-01" nType="-99"/>
          <Node pos="r" depth="2" NCoef="0" IVar="-1" Cut="0.0000000000000000e+00" cType="1" res="-2.6392805739305913e-04" rms="4.3186232447624207e-01" purity="4.1404798626899719e-01" nType="-99"/>
        </Node>
      </Node>
    </BinaryTree>
    <BinaryTree type="DecisionTree" boostWeight="1.0000000000000000e+00" itree="755">
      <Node pos="s" depth="0" NCoef="0" IVar="4" Cut="2.1912443637847900e-01" cType="1" res="-1.1326086707413197e-02" rms="4.4908323884010315e-01" purity="4.8462668061256409e-01" nType="0">
        <Node pos="l" depth="1" NCoef="0" IVar="2" Cut="2.0919897460937500e+02" cType="1" res="-1.9622469320893288e-02" rms="4.4926756620407104e-01" purity="4.6990832686424255e-01" nType="0">
          <Node pos="l" depth="2" NCoef="0" IVar="-1" Cut="0.0000000000000000e+00" cType="1" res="-6.5028737299144268e-04" rms="4.5171400904655457e-01" purity="4.1774484515190125e-01" nType="-99"/>
          <Node pos="r" depth="2" NCoef="0" IVar="-1" Cut="0.0000000000000000e+00" cType="1" res="5.0276339607080445e-05" rms="4.4591674208641052e-01" purity="5.1300048828125000e-01" nType="-99"/>
        </Node>
        <Node pos="r" depth="1" NCoef="0" IVar="-1" Cut="0.0000000000000000e+00" cType="1" res="9.3048601411283016e-04" rms="4.3644368648529053e-01" purity="6.4891928434371948e-01" nType="-99"/>
      </Node>
    </BinaryTree>
    <BinaryTree type="DecisionTree" boostWeight="1.0000000000000000e+00" itree="756">
      <Node pos="s" depth="0" NCoef="0" IVar="5" Cut="1.0356820821762085e+00" cType="1" res="-2.6601713034324348e-04" rms="4.4116625189781189e-01" purity="4.9564209580421448e-01" nType="0">
        <Node pos="l" depth="1" NCoef="0" IVar="2" Cut="1.4326498413085938e+02" cType="1" res="1.2263285927474499e-02" rms="4.4294038414955139e-01" purity="5.2524226903915405e-01" nType="0">
          <Node pos="l" depth="2" NCoef="0" IVar="-1" Cut="0.0000000000000000e+00" cType="1" res="-1.0967333801090717e-03" rms="4.3830603361129761e-01" purity="3.6458659172058105e-01" nType="-99"/>
          <Node pos="r" depth="2" NCoef="0" IVar="-1" Cut="0.0000000000000000e+00" cType="1" res="3.4891656832769513e-04" rms="4.4204890727996826e-01" purity="5.5010432004928589e-01" nType="-99"/>
        </Node>
        <Node pos="r" depth="1" NCoef="0" IVar="7" Cut="-2.7950131334364414e-03" cType="1" res="-9.5667511224746704e-02" rms="4.1519603133201599e-01" purity="2.7025893330574036e-01" nType="0">
          <Node pos="l" depth="2" NCoef="0" IVar="-1" Cut="0.0000000000000000e+00" cType="1" res="-3.3939387649297714e-03" rms="3.7388205528259277e-01" purity="1.8925155699253082e-01" nType="-99"/>
          <Node pos="r" depth="2" NCoef="0" IVar="-1" Cut="0.0000000000000000e+00" cType="1" res="-7.3033159424085170e-05" rms="4.2701247334480286e-01" purity="3.3975562453269958e-01" nType="-99"/>
        </Node>
      </Node>
    </BinaryTree>
    <BinaryTree type="DecisionTree" boostWeight="1.0000000000000000e+00" itree="757">
      <Node pos="s" depth="0" NCoef="0" IVar="4" Cut="3.0506677925586700e-02" cType="1" res="-2.9204972088336945e-03" rms="4.4643613696098328e-01" purity="4.9296447634696960e-01" nType="0">
        <Node pos="l" depth="1" NCoef="0" IVar="2" Cut="2.7807775878906250e+02" cType="1" res="-2.9306555166840553e-02" rms="4.4012844562530518e-01" purity="4.3796947598457336e-01" nType="0">
          <Node pos="l" depth="2" NCoef="0" IVar="-1" Cut="0.0000000000000000e+00" cType="1" res="-7.1570544969290495e-04" rms="4.3866237998008728e-01" purity="4.2607766389846802e-01" nType="-99"/>
          <Node pos="r" depth="2" NCoef="0" IVar="-1" Cut="0.0000000000000000e+00" cType="1" res="2.4990711244754493e-04" rms="4.3974381685256958e-01" purity="4.6334382891654968e-01" nType="-99"/>
        </Node>
        <Node pos="r" depth="1" NCoef="0" IVar="7" Cut="-4.9127452075481415e-02" cType="1" res="3.1534835696220398e-02" rms="4.5222920179367065e-01" purity="5.6477785110473633e-01" nType="0">
          <Node pos="l" depth="2" NCoef="0" IVar="-1" Cut="0.0000000000000000e+00" cType="1" res="1.4405634719878435e-03" rms="4.0633788704872131e-01" purity="6.9469922780990601e-01" nType="-99"/>
          <Node pos="r" depth="2" NCoef="0" IVar="-1" Cut="0.0000000000000000e+00" cType="1" res="1.4496642688754946e-04" rms="4.6012157201766968e-01" purity="5.3382658958435059e-01" nType="-99"/>
        </Node>
      </Node>
    </BinaryTree>
    <BinaryTree type="DecisionTree" boostWeight="1.0000000000000000e+00" itree="758">
      <Node pos="s" depth="0" NCoef="0" IVar="6" Cut="7.0821185302734375e+02" cType="1" res="7.6242638751864433e-03" rms="4.5080462098121643e-01" purity="4.9911439418792725e-01" nType="0">
        <Node pos="l" depth="1" NCoef="0" IVar="4" Cut="6.4422920346260071e-02" cType="1" res="-2.6012610178440809e-03" rms="4.5025271177291870e-01" purity="4.7814953327178955e-01" nType="0">
          <Node pos="l" depth="2" NCoef="0" IVar="-1" Cut="0.0000000000000000e+00" cType="1" res="-3.8709453656338155e-04" rms="4.4080683588981628e-01" purity="4.3038642406463623e-01" nType="-99"/>
          <Node pos="r" depth="2" NCoef="0" IVar="-1" Cut="0.0000000000000000e+00" cType="1" res="5.3316843695938587e-04" rms="4.6366816759109497e-01" purity="5.6502503156661987e-01" nType="-99"/>
        </Node>
        <Node pos="r" depth="1" NCoef="0" IVar="0" Cut="6.6892957687377930e+00" cType="1" res="9.0833634138107300e-02" rms="4.4665092229843140e-01" purity="6.6971462965011597e-01" nType="0">
          <Node pos="l" depth="2" NCoef="0" IVar="-1" Cut="0.0000000000000000e+00" cType="1" res="1.9739202689379454e-03" rms="4.5238018035888672e-01" purity="6.1824828386306763e-01" nType="-99"/>
          <Node pos="r" depth="2" NCoef="0" IVar="-1" Cut="0.0000000000000000e+00" cType="1" res="3.1159303034655750e-04" rms="4.3074229359626770e-01" purity="7.1543031930923462e-01" nType="-99"/>
        </Node>
      </Node>
    </BinaryTree>
    <BinaryTree type="DecisionTree" boostWeight="1.0000000000000000e+00" itree="759">
      <Node pos="s" depth="0" NCoef="0" IVar="7" Cut="-5.0839517265558243e-02" cType="1" res="3.1395949190482497e-04" rms="4.5219090580940247e-01" purity="4.8779660463333130e-01" nType="0">
        <Node pos="l" depth="1" NCoef="0" IVar="6" Cut="5.1420123291015625e+02" cType="1" res="5.4350879043340683e-02" rms="4.4088938832283020e-01" purity="5.9766948223114014e-01" nType="0">
          <Node pos="l" depth="2" NCoef="0" IVar="-1" Cut="0.0000000000000000e+00" cType="1" res="-6.8104855017736554e-05" rms="4.5588898658752441e-01" purity="4.9261349439620972e-01" nType="-99"/>
          <Node pos="r" depth="2" NCoef="0" IVar="-1" Cut="0.0000000000000000e+00" cType="1" res="2.0626646000891924e-03" rms="3.8094609975814819e-01" purity="8.1158536672592163e-01" nType="-99"/>
        </Node>
        <Node pos="r" depth="1" NCoef="0" IVar="5" Cut="1.0672206878662109e+00" cType="1" res="-1.2362797744572163e-02" rms="4.5387080311775208e-01" purity="4.6202105283737183e-01" nType="0">
          <Node pos="l" depth="2" NCoef="0" IVar="-1" Cut="0.0000000000000000e+00" cType="1" res="-2.9148845351301134e-04" rms="4.5307600498199463e-01" purity="4.6573978662490845e-01" nType="-99"/>
          <Node pos="r" depth="2" NCoef="0" IVar="-1" Cut="0.0000000000000000e+00" cType="1" res="8.0412795068696141e-04" rms="4.5470917224884033e-01" purity="4.3167537450790405e-01" nType="-99"/>
        </Node>
      </Node>
    </BinaryTree>
    <BinaryTree type="DecisionTree" boostWeight="1.0000000000000000e+00" itree="760">
      <Node pos="s" depth="0" NCoef="0" IVar="4" Cut="5.8822583407163620e-02" cType="1" res="1.0415866039693356e-02" rms="4.4903025031089783e-01" purity="4.9995326995849609e-01" nType="0">
        <Node pos="l" depth="1" NCoef="0" IVar="3" Cut="9.3326499938964844e+01" cType="1" res="-7.3319412767887115e-03" rms="4.4519945979118347e-01" purity="4.5505386590957642e-01" nType="0">
          <Node pos="l" depth="2" NCoef="0" IVar="-1" Cut="0.0000000000000000e+00" cType="1" res="-5.3242046851664782e-04" rms="4.4131672382354736e-01" purity="4.0486925840377808e-01" nType="-99"/>
          <Node pos="r" depth="2" NCoef="0" IVar="-1" Cut="0.0000000000000000e+00" cType="1" res="6.4443959854543209e-04" rms="4.4724324345588684e-01" purity="5.4678565263748169e-01" nType="-99"/>
        </Node>
        <Node pos="r" depth="1" NCoef="0" IVar="3" Cut="9.6109405517578125e+01" cType="1" res="4.1066724807024002e-02" rms="4.5393919944763184e-01" purity="5.7749551534652710e-01" nType="0">
          <Node pos="l" depth="2" NCoef="0" IVar="-1" Cut="0.0000000000000000e+00" cType="1" res="9.2311523621901870e-04" rms="4.5020332932472229e-01" purity="5.9457933902740479e-01" nType="-99"/>
          <Node pos="r" depth="2" NCoef="0" IVar="-1" Cut="0.0000000000000000e+00" cType="1" res="-1.1696502333506942e-03" rms="4.4742503762245178e-01" purity="5.1427519321441650e-01" nType="-99"/>
        </Node>
      </Node>
    </BinaryTree>
    <BinaryTree type="DecisionTree" boostWeight="1.0000000000000000e+00" itree="761">
      <Node pos="s" depth="0" NCoef="0" IVar="1" Cut="1.7204909324645996e+00" cType="1" res="-1.0151663795113564e-02" rms="4.4711035490036011e-01" purity="4.9513140320777893e-01" nType="0">
        <Node pos="l" depth="1" NCoef="0" IVar="3" Cut="1.0554098510742188e+02" cType="1" res="-3.0568931251764297e-03" rms="4.5530059933662415e-01" purity="5.1994484663009644e-01" nType="0">
          <Node pos="l" depth="2" NCoef="0" IVar="-1" Cut="0.0000000000000000e+00" cType="1" res="-2.6711140526458621e-04" rms="4.5722663402557373e-01" purity="4.8108264803886414e-01" nType="-99"/>
          <Node pos="r" depth="2" NCoef="0" IVar="-1" Cut="0.0000000000000000e+00" cType="1" res="7.0517288986593485e-04" rms="4.4397136569023132e-01" purity="6.5331465005874634e-01" nType="-99"/>
        </Node>
        <Node pos="r" depth="1" NCoef="0" IVar="-1" Cut="0.0000000000000000e+00" cType="1" res="-4.2240452021360397e-03" rms="2.2265037894248962e-01" purity="4.8270881175994873e-02" nType="-99"/>
      </Node>
    </BinaryTree>
    <BinaryTree type="DecisionTree" boostWeight="1.0000000000000000e+00" itree="762">
      <Node pos="s" depth="0" NCoef="0" IVar="0" Cut="5.0903763771057129e+00" cType="1" res="1.3151988387107849e-02" rms="4.4682756066322327e-01" purity="5.1465725898742676e-01" nType="0">
        <Node pos="l" depth="1" NCoef="0" IVar="-1" Cut="0.0000000000000000e+00" cType="1" res="-1.1423574760556221e-03" rms="3.7174662947654724e-01" purity="1.8058212101459503e-01" nType="-99"/>
        <Node pos="r" depth="1" NCoef="0" IVar="5" Cut="1.0911220312118530e+00" cType="1" res="2.0933816209435463e-02" rms="4.5370519161224365e-01" purity="5.5162715911865234e-01" nType="0">
          <Node pos="l" depth="2" NCoef="0" IVar="-1" Cut="0.0000000000000000e+00" cType="1" res="3.7597020855173469e-04" rms="4.5365077257156372e-01" purity="5.7251894474029541e-01" nType="-99"/>
          <Node pos="r" depth="2" NCoef="0" IVar="-1" Cut="0.0000000000000000e+00" cType="1" res="-1.1155445827171206e-03" rms="4.4418418407440186e-01" purity="3.1388050317764282e-01" nType="-99"/>
        </Node>
      </Node>
    </BinaryTree>
    <BinaryTree type="DecisionTree" boostWeight="1.0000000000000000e+00" itree="763">
      <Node pos="s" depth="0" NCoef="0" IVar="1" Cut="1.7116189002990723e+00" cType="1" res="2.1886972244828939e-03" rms="4.4501864910125732e-01" purity="5.0108772516250610e-01" nType="0">
        <Node pos="l" depth="1" NCoef="0" IVar="7" Cut="-6.8444713950157166e-02" cType="1" res="8.3998646587133408e-03" rms="4.5244616270065308e-01" purity="5.2446430921554565e-01" nType="0">
          <Node pos="l" depth="2" NCoef="0" IVar="-1" Cut="0.0000000000000000e+00" cType="1" res="1.0036964667961001e-03" rms="4.2427459359169006e-01" purity="6.4385813474655151e-01" nType="-99"/>
          <Node pos="r" depth="2" NCoef="0" IVar="-1" Cut="0.0000000000000000e+00" cType="1" res="-3.2412775908596814e-05" rms="4.5554590225219727e-01" purity="5.0653839111328125e-01" nType="-99"/>
        </Node>
        <Node pos="r" depth="1" NCoef="0" IVar="-1" Cut="0.0000000000000000e+00" cType="1" res="-3.5315374843776226e-03" rms="2.4575939774513245e-01" purity="6.7449904978275299e-02" nType="-99"/>
      </Node>
    </BinaryTree>
    <BinaryTree type="DecisionTree" boostWeight="1.0000000000000000e+00" itree="764">
      <Node pos="s" depth="0" NCoef="0" IVar="0" Cut="5.0146689414978027e+00" cType="1" res="1.6452750191092491e-02" rms="4.5512855052947998e-01" purity="5.0938314199447632e-01" nType="0">
        <Node pos="l" depth="1" NCoef="0" IVar="-1" Cut="0.0000000000000000e+00" cType="1" res="-1.5455821994692087e-03" rms="3.4648644924163818e-01" purity="1.5300771594047546e-01" nType="-99"/>
        <Node pos="r" depth="1" NCoef="0" IVar="6" Cut="4.1207980346679688e+02" cType="1" res="2.4299815297126770e-02" rms="4.6294486522674561e-01" purity="5.4177206754684448e-01" nType="0">
          <Node pos="l" depth="2" NCoef="0" IVar="-1" Cut="0.0000000000000000e+00" cType="1" res="-1.5434427768923342e-04" rms="4.5706397294998169e-01" purity="4.3452903628349304e-01" nType="-99"/>
          <Node pos="r" depth="2" NCoef="0" IVar="-1" Cut="0.0000000000000000e+00" cType="1" res="5.7623651809990406e-04" rms="4.6507555246353149e-01" purity="6.0407489538192749e-01" nType="-99"/>
        </Node>
      </Node>
    </BinaryTree>
    <BinaryTree type="DecisionTree" boostWeight="1.0000000000000000e+00" itree="765">
      <Node pos="s" depth="0" NCoef="0" IVar="2" Cut="2.0164746093750000e+02" cType="1" res="1.0486290557309985e-03" rms="4.4558078050613403e-01" purity="4.9217310547828674e-01" nType="0">
        <Node pos="l" depth="1" NCoef="0" IVar="3" Cut="7.4367691040039062e+01" cType="1" res="-3.1115155667066574e-02" rms="4.5461529493331909e-01" purity="4.3172484636306763e-01" nType="0">
          <Node pos="l" depth="2" NCoef="0" IVar="-1" Cut="0.0000000000000000e+00" cType="1" res="-5.1129194616805762e-05" rms="4.5862242579460144e-01" purity="4.4705945253372192e-01" nType="-99"/>
          <Node pos="r" depth="2" NCoef="0" IVar="-1" Cut="0.0000000000000000e+00" cType="1" res="-1.6031347913667560e-03" rms="4.3017783761024475e-01" purity="3.8277664780616760e-01" nType="-99"/>
        </Node>
        <Node pos="r" depth="1" NCoef="0" IVar="7" Cut="8.6579151451587677e-02" cType="1" res="2.7244579046964645e-02" rms="4.3633657693862915e-01" purity="5.4140543937683105e-01" nType="0">
          <Node pos="l" depth="2" NCoef="0" IVar="-1" Cut="0.0000000000000000e+00" cType="1" res="5.6502962252125144e-04" rms="4.4020065665245056e-01" purity="5.8064788579940796e-01" nType="-99"/>
          <Node pos="r" depth="2" NCoef="0" IVar="-1" Cut="0.0000000000000000e+00" cType="1" res="-4.7252135118469596e-04" rms="4.1532042622566223e-01" purity="3.8055732846260071e-01" nType="-99"/>
        </Node>
      </Node>
    </BinaryTree>
    <BinaryTree type="DecisionTree" boostWeight="1.0000000000000000e+00" itree="766">
      <Node pos="s" depth="0" NCoef="0" IVar="3" Cut="9.5336288452148438e+01" cType="1" res="1.4358903281390667e-03" rms="4.5140880346298218e-01" purity="5.0014913082122803e-01" nType="0">
        <Node pos="l" depth="1" NCoef="0" IVar="3" Cut="3.5001548767089844e+01" cType="1" res="-1.5783578157424927e-02" rms="4.6025064587593079e-01" purity="4.5513296127319336e-01" nType="0">
          <Node pos="l" depth="2" NCoef="0" IVar="-1" Cut="0.0000000000000000e+00" cType="1" res="-1.9929285626858473e-03" rms="3.9571535587310791e-01" purity="2.7666500210762024e-01" nType="-99"/>
          <Node pos="r" depth="2" NCoef="0" IVar="-1" Cut="0.0000000000000000e+00" cType="1" res="-7.4495059379842132e-05" rms="4.6432855725288391e-01" purity="4.7141429781913757e-01" nType="-99"/>
        </Node>
        <Node pos="r" depth="1" NCoef="0" IVar="5" Cut="4.6728786826133728e-01" cType="1" res="4.0226232260465622e-02" rms="4.2829748988151550e-01" purity="6.0155719518661499e-01" nType="0">
          <Node pos="l" depth="2" NCoef="0" IVar="-1" Cut="0.0000000000000000e+00" cType="1" res="1.5250014839693904e-03" rms="3.7850379943847656e-01" purity="7.5093507766723633e-01" nType="-99"/>
          <Node pos="r" depth="2" NCoef="0" IVar="-1" Cut="0.0000000000000000e+00" cType="1" res="1.6136522754095495e-04" rms="4.4175735116004944e-01" purity="5.4662638902664185e-01" nType="-99"/>
        </Node>
      </Node>
    </BinaryTree>
    <BinaryTree type="DecisionTree" boostWeight="1.0000000000000000e+00" itree="767">
      <Node pos="s" depth="0" NCoef="0" IVar="3" Cut="9.5336288452148438e+01" cType="1" res="1.7779067158699036e-02" rms="4.5238822698593140e-01" purity="5.1859515905380249e-01" nType="0">
        <Node pos="l" depth="1" NCoef="0" IVar="6" Cut="5.0904864501953125e+02" cType="1" res="9.2789082555100322e-04" rms="4.5775654911994934e-01" purity="4.7617784142494202e-01" nType="0">
          <Node pos="l" depth="2" NCoef="0" IVar="-1" Cut="0.0000000000000000e+00" cType="1" res="3.1555132591165602e-04" rms="4.5600783824920654e-01" purity="4.7667205333709717e-01" nType="-99"/>
          <Node pos="r" depth="2" NCoef="0" IVar="-1" Cut="0.0000000000000000e+00" cType="1" res="-9.7686308436095715e-04" rms="4.5593312382698059e-01" purity="4.7460117936134338e-01" nType="-99"/>
        </Node>
        <Node pos="r" depth="1" NCoef="0" IVar="2" Cut="3.5225942993164062e+02" cType="1" res="5.5594697594642639e-02" rms="4.3774801492691040e-01" purity="6.1378371715545654e-01" nType="0">
          <Node pos="l" depth="2" NCoef="0" IVar="-1" Cut="0.0000000000000000e+00" cType="1" res="1.0312946978956461e-03" rms="4.3030762672424316e-01" purity="6.7223852872848511e-01" nType="-99"/>
          <Node pos="r" depth="2" NCoef="0" IVar="-1" Cut="0.0000000000000000e+00" cType="1" res="-3.9027523598633707e-04" rms="4.5263448357582092e-01" purity="4.1775479912757874e-01" nType="-99"/>
        </Node>
      </Node>
    </BinaryTree>
    <BinaryTree type="DecisionTree" boostWeight="1.0000000000000000e+00" itree="768">
      <Node pos="s" depth="0" NCoef="0" IVar="1" Cut="1.7129412889480591e+00" cType="1" res="5.3884484805166721e-04" rms="4.4255280494689941e-01" purity="4.9597451090812683e-01" nType="0">
        <Node pos="l" depth="1" NCoef="0" IVar="3" Cut="9.5025726318359375e+01" cType="1" res="6.5418980084359646e-03" rms="4.5005643367767334e-01" purity="5.1983851194381714e-01" nType="0">
          <Node pos="l" depth="2" NCoef="0" IVar="-1" Cut="0.0000000000000000e+00" cType="1" res="-1.4694343553856015e-04" rms="4.5143932104110718e-01" purity="4.7077929973602295e-01" nType="-99"/>
          <Node pos="r" depth="2" NCoef="0" IVar="-1" Cut="0.0000000000000000e+00" cType="1" res="6.1094999546185136e-04" rms="4.4438305497169495e-01" purity="6.3053154945373535e-01" nType="-99"/>
        </Node>
        <Node pos="r" depth="1" NCoef="0" IVar="-1" Cut="0.0000000000000000e+00" cType="1" res="-3.0638768803328276e-03" rms="2.6203814148902893e-01" purity="8.3402380347251892e-02" nType="-99"/>
      </Node>
    </BinaryTree>
    <BinaryTree type="DecisionTree" boostWeight="1.0000000000000000e+00" itree="769">
      <Node pos="s" depth="0" NCoef="0" IVar="4" Cut="-8.9061312377452850e-02" cType="1" res="-7.0061895530670881e-04" rms="4.5417135953903198e-01" purity="4.8732000589370728e-01" nType="0">
        <Node pos="l" depth="1" NCoef="0" IVar="3" Cut="7.9029266357421875e+01" cType="1" res="3.9951078593730927e-02" rms="4.4830107688903809e-01" purity="4.6757957339286804e-01" nType="0">
          <Node pos="l" depth="2" NCoef="0" IVar="-1" Cut="0.0000000000000000e+00" cType="1" res="4.5825672714272514e-06" rms="4.4840034842491150e-01" purity="4.0409770607948303e-01" nType="-99"/>
          <Node pos="r" depth="2" NCoef="0" IVar="-1" Cut="0.0000000000000000e+00" cType="1" res="1.1784428497776389e-03" rms="4.4395661354064941e-01" purity="5.3921496868133545e-01" nType="-99"/>
        </Node>
        <Node pos="r" depth="1" NCoef="0" IVar="5" Cut="7.3962950706481934e-01" cType="1" res="-1.2159556150436401e-02" rms="4.5515695214271545e-01" purity="4.9288448691368103e-01" nType="0">
          <Node pos="l" depth="2" NCoef="0" IVar="-1" Cut="0.0000000000000000e+00" cType="1" res="-5.7780538918450475e-04" rms="4.4877892732620239e-01" purity="5.0466018915176392e-01" nType="-99"/>
          <Node pos="r" depth="2" NCoef="0" IVar="-1" Cut="0.0000000000000000e+00" cType="1" res="3.5004524397663772e-04" rms="4.5993754267692566e-01" purity="4.7863593697547913e-01" nType="-99"/>
        </Node>
      </Node>
    </BinaryTree>
    <BinaryTree type="DecisionTree" boostWeight="1.0000000000000000e+00" itree="770">
      <Node pos="s" depth="0" NCoef="0" IVar="6" Cut="3.1702828979492188e+02" cType="1" res="-5.5820727720856667e-03" rms="4.4950413703918457e-01" purity="4.8896050453186035e-01" nType="0">
        <Node pos="l" depth="1" NCoef="0" IVar="-1" Cut="0.0000000000000000e+00" cType="1" res="-1.6241278499364853e-03" rms="3.9567372202873230e-01" purity="2.3593549430370331e-01" nType="-99"/>
        <Node pos="r" depth="1" NCoef="0" IVar="3" Cut="1.0028179168701172e+02" cType="1" res="1.7180928261950612e-03" rms="4.5282095670700073e-01" purity="5.0954461097717285e-01" nType="0">
          <Node pos="l" depth="2" NCoef="0" IVar="-1" Cut="0.0000000000000000e+00" cType="1" res="-1.7247792857233435e-04" rms="4.5745295286178589e-01" purity="4.7685217857360840e-01" nType="-99"/>
          <Node pos="r" depth="2" NCoef="0" IVar="-1" Cut="0.0000000000000000e+00" cType="1" res="5.3143291734158993e-04" rms="4.3850141763687134e-01" purity="5.9379690885543823e-01" nType="-99"/>
        </Node>
      </Node>
    </BinaryTree>
    <BinaryTree type="DecisionTree" boostWeight="1.0000000000000000e+00" itree="771">
      <Node pos="s" depth="0" NCoef="0" IVar="4" Cut="2.2246196866035461e-01" cType="1" res="-5.1671746186912060e-03" rms="4.4615769386291504e-01" purity="4.8725160956382751e-01" nType="0">
        <Node pos="l" depth="1" NCoef="0" IVar="0" Cut="5.2509722709655762e+00" cType="1" res="-1.4043700881302357e-02" rms="4.4491112232208252e-01" purity="4.7357633709907532e-01" nType="0">
          <Node pos="l" depth="2" NCoef="0" IVar="-1" Cut="0.0000000000000000e+00" cType="1" res="-1.5532672405242920e-03" rms="3.5259687900543213e-01" purity="1.6555897891521454e-01" nType="-99"/>
          <Node pos="r" depth="2" NCoef="0" IVar="-1" Cut="0.0000000000000000e+00" cType="1" res="-5.3328229114413261e-05" rms="4.5679670572280884e-01" purity="5.2156615257263184e-01" nType="-99"/>
        </Node>
        <Node pos="r" depth="1" NCoef="0" IVar="-1" Cut="0.0000000000000000e+00" cType="1" res="1.2573291314765811e-03" rms="4.4706192612648010e-01" purity="6.5493196249008179e-01" nType="-99"/>
      </Node>
    </BinaryTree>
    <BinaryTree type="DecisionTree" boostWeight="1.0000000000000000e+00" itree="772">
      <Node pos="s" depth="0" NCoef="0" IVar="3" Cut="3.4914115905761719e+01" cType="1" res="7.5870077125728130e-03" rms="4.4441276788711548e-01" purity="5.0047886371612549e-01" nType="0">
        <Node pos="l" depth="1" NCoef="0" IVar="-1" Cut="0.0000000000000000e+00" cType="1" res="-2.3386536631733179e-03" rms="3.8904550671577454e-01" purity="2.6352807879447937e-01" nType="-99"/>
        <Node pos="r" depth="1" NCoef="0" IVar="0" Cut="4.9231677055358887e+00" cType="1" res="1.6086149960756302e-02" rms="4.4588324427604675e-01" purity="5.1404869556427002e-01" nType="0">
          <Node pos="l" depth="2" NCoef="0" IVar="-1" Cut="0.0000000000000000e+00" cType="1" res="-2.5367941707372665e-03" rms="2.8557804226875305e-01" purity="1.1100071668624878e-01" nType="-99"/>
          <Node pos="r" depth="2" NCoef="0" IVar="-1" Cut="0.0000000000000000e+00" cType="1" res="3.3009724575094879e-04" rms="4.5371893048286438e-01" purity="5.4262071847915649e-01" nType="-99"/>
        </Node>
      </Node>
    </BinaryTree>
    <BinaryTree type="DecisionTree" boostWeight="1.0000000000000000e+00" itree="773">
      <Node pos="s" depth="0" NCoef="0" IVar="0" Cut="7.6818304061889648e+00" cType="1" res="6.3740662299096584e-03" rms="4.4669058918952942e-01" purity="5.0136828422546387e-01" nType="0">
        <Node pos="l" depth="1" NCoef="0" IVar="6" Cut="3.7622836303710938e+02" cType="1" res="-1.6597880050539970e-02" rms="4.5576798915863037e-01" purity="4.1427716612815857e-01" nType="0">
          <Node pos="l" depth="2" NCoef="0" IVar="-1" Cut="0.0000000000000000e+00" cType="1" res="-1.0988550493493676e-03" rms="4.2350843548774719e-01" purity="2.7494761347770691e-01" nType="-99"/>
          <Node pos="r" depth="2" NCoef="0" IVar="-1" Cut="0.0000000000000000e+00" cType="1" res="3.0996186978882179e-05" rms="4.6538478136062622e-01" purity="4.6441984176635742e-01" nType="-99"/>
        </Node>
        <Node pos="r" depth="1" NCoef="0" IVar="2" Cut="2.9523892211914062e+02" cType="1" res="7.0685967803001404e-02" rms="4.1350319981575012e-01" purity="7.4518734216690063e-01" nType="0">
          <Node pos="l" depth="2" NCoef="0" IVar="-1" Cut="0.0000000000000000e+00" cType="1" res="1.0675836820155382e-03" rms="4.0839725732803345e-01" purity="7.7109426259994507e-01" nType="-99"/>
          <Node pos="r" depth="2" NCoef="0" IVar="-1" Cut="0.0000000000000000e+00" cType="1" res="2.2781030565965921e-04" rms="4.2745515704154968e-01" purity="6.4912796020507812e-01" nType="-99"/>
        </Node>
      </Node>
    </BinaryTree>
    <BinaryTree type="DecisionTree" boostWeight="1.0000000000000000e+00" itree="774">
      <Node pos="s" depth="0" NCoef="0" IVar="1" Cut="1.0034526586532593e+00" cType="1" res="4.6818885020911694e-03" rms="4.4933173060417175e-01" purity="4.9613696336746216e-01" nType="0">
        <Node pos="l" depth="1" NCoef="0" IVar="5" Cut="3.3015599846839905e-01" cType="1" res="2.3115953430533409e-02" rms="4.5533782243728638e-01" purity="6.0092961788177490e-01" nType="0">
          <Node pos="l" depth="2" NCoef="0" IVar="-1" Cut="0.0000000000000000e+00" cType="1" res="-4.2378518264740705e-04" rms="4.7493928670883179e-01" purity="5.6004774570465088e-01" nType="-99"/>
          <Node pos="r" depth="2" NCoef="0" IVar="-1" Cut="0.0000000000000000e+00" cType="1" res="4.3292163172736764e-04" rms="4.5031785964965820e-01" purity="6.0940062999725342e-01" nType="-99"/>
        </Node>
        <Node pos="r" depth="1" NCoef="0" IVar="3" Cut="9.4414123535156250e+01" cType="1" res="-2.0281054079532623e-02" rms="4.3983832001686096e-01" purity="3.5422942042350769e-01" nType="0">
          <Node pos="l" depth="2" NCoef="0" IVar="-1" Cut="0.0000000000000000e+00" cType="1" res="-6.7000428680330515e-04" rms="4.3312543630599976e-01" purity="3.1528517603874207e-01" nType="-99"/>
          <Node pos="r" depth="2" NCoef="0" IVar="-1" Cut="0.0000000000000000e+00" cType="1" res="2.3971790506038815e-04" rms="4.4910979270935059e-01" purity="4.2327359318733215e-01" nType="-99"/>
        </Node>
      </Node>
    </BinaryTree>
    <BinaryTree type="DecisionTree" boostWeight="1.0000000000000000e+00" itree="775">
      <Node pos="s" depth="0" NCoef="0" IVar="2" Cut="1.9659182739257812e+02" cType="1" res="1.1314321309328079e-02" rms="4.4688600301742554e-01" purity="5.0505167245864868e-01" nType="0">
        <Node pos="l" depth="1" NCoef="0" IVar="3" Cut="7.5662460327148438e+01" cType="1" res="-2.9776621609926224e-02" rms="4.5485746860504150e-01" purity="4.3482223153114319e-01" nType="0">
          <Node pos="l" depth="2" NCoef="0" IVar="-1" Cut="0.0000000000000000e+00" cType="1" res="-3.5042110539507121e-05" rms="4.5658910274505615e-01" purity="4.5725765824317932e-01" nType="-99"/>
          <Node pos="r" depth="2" NCoef="0" IVar="-1" Cut="0.0000000000000000e+00" cType="1" res="-1.6251842025667429e-03" rms="4.3826407194137573e-01" purity="3.6342415213584900e-01" nType="-99"/>
        </Node>
        <Node pos="r" depth="1" NCoef="0" IVar="2" Cut="3.2969531250000000e+02" cType="1" res="4.0294811129570007e-02" rms="4.3886980414390564e-01" purity="5.5458289384841919e-01" nType="0">
          <Node pos="l" depth="2" NCoef="0" IVar="-1" Cut="0.0000000000000000e+00" cType="1" res="8.3854130934923887e-04" rms="4.3666747212409973e-01" purity="6.1495512723922729e-01" nType="-99"/>
          <Node pos="r" depth="2" NCoef="0" IVar="-1" Cut="0.0000000000000000e+00" cType="1" res="-3.7560728378593922e-04" rms="4.3836826086044312e-01" purity="3.9566236734390259e-01" nType="-99"/>
        </Node>
      </Node>
    </BinaryTree>
    <BinaryTree type="DecisionTree" boostWeight="1.0000000000000000e+00" itree="776">
      <Node pos="s" depth="0" NCoef="0" IVar="0" Cut="5.0841131210327148e+00" cType="1" res="-8.2612404366955161e-04" rms="4.4538867473602295e-01" purity="4.9798527359962463e-01" nType="0">
        <Node pos="l" depth="1" NCoef="0" IVar="-1" Cut="0.0000000000000000e+00" cType="1" res="-2.1376954391598701e-03" rms="3.2046642899513245e-01" purity="1.3661013543605804e-01" nType="-99"/>
        <Node pos="r" depth="1" NCoef="0" IVar="4" Cut="1.9856335222721100e-01" cType="1" res="9.3235895037651062e-03" rms="4.5534223318099976e-01" purity="5.3594350814819336e-01" nType="0">
          <Node pos="l" depth="2" NCoef="0" IVar="-1" Cut="0.0000000000000000e+00" cType="1" res="3.0226508897612803e-05" rms="4.5445343852043152e-01" purity="5.2066808938980103e-01" nType="-99"/>
          <Node pos="r" depth="2" NCoef="0" IVar="-1" Cut="0.0000000000000000e+00" cType="1" res="9.1434951173141599e-04" rms="4.5834076404571533e-01" purity="6.7865091562271118e-01" nType="-99"/>
        </Node>
      </Node>
    </BinaryTree>
    <BinaryTree type="DecisionTree" boostWeight="1.0000000000000000e+00" itree="777">
      <Node pos="s" depth="0" NCoef="0" IVar="0" Cut="8.2819213867187500e+00" cType="1" res="2.0389502868056297e-02" rms="4.4947600364685059e-01" purity="5.1140606403350830e-01" nType="0">
        <Node pos="l" depth="1" NCoef="0" IVar="4" Cut="1.5325541794300079e-01" cType="1" res="1.0003237053751945e-02" rms="4.5902594923973083e-01" purity="4.6329531073570251e-01" nType="0">
          <Node pos="l" depth="2" NCoef="0" IVar="-1" Cut="0.0000000000000000e+00" cType="1" res="2.7567835059016943e-04" rms="4.5710375905036926e-01" purity="4.6294909715652466e-01" nType="-99"/>
          <Node pos="r" depth="2" NCoef="0" IVar="-1" Cut="0.0000000000000000e+00" cType="1" res="-5.7004037080332637e-04" rms="4.6530014276504517e-01" purity="4.6507868170738220e-01" nType="-99"/>
        </Node>
        <Node pos="r" depth="1" NCoef="0" IVar="7" Cut="2.9800307005643845e-02" cType="1" res="7.7057301998138428e-02" rms="3.8844767212867737e-01" purity="7.7389991283416748e-01" nType="0">
          <Node pos="l" depth="2" NCoef="0" IVar="-1" Cut="0.0000000000000000e+00" cType="1" res="1.4289703685790300e-03" rms="3.6410284042358398e-01" purity="8.3625221252441406e-01" nType="-99"/>
          <Node pos="r" depth="2" NCoef="0" IVar="-1" Cut="0.0000000000000000e+00" cType="1" res="3.2502636895515025e-04" rms="4.1945838928222656e-01" purity="6.7306113243103027e-01" nType="-99"/>
        </Node>
      </Node>
    </BinaryTree>
    <BinaryTree type="DecisionTree" boostWeight="1.0000000000000000e+00" itree="778">
      <Node pos="s" depth="0" NCoef="0" IVar="4" Cut="5.5522833019495010e-02" cType="1" res="1.4766021631658077e-02" rms="4.4910120964050293e-01" purity="5.1575762033462524e-01" nType="0">
        <Node pos="l" depth="1" NCoef="0" IVar="7" Cut="-8.2044944167137146e-02" cType="1" res="-8.3590280264616013e-03" rms="4.4967314600944519e-01" purity="4.6287128329277039e-01" nType="0">
          <Node pos="l" depth="2" NCoef="0" IVar="-1" Cut="0.0000000000000000e+00" cType="1" res="-2.1590704564005136e-03" rms="4.1008639335632324e-01" purity="4.0840736031532288e-01" nType="-99"/>
          <Node pos="r" depth="2" NCoef="0" IVar="-1" Cut="0.0000000000000000e+00" cType="1" res="6.4757296058814973e-05" rms="4.5111310482025146e-01" purity="4.6803277730941772e-01" nType="-99"/>
        </Node>
        <Node pos="r" depth="1" NCoef="0" IVar="7" Cut="-1.7208015546202660e-02" cType="1" res="5.1054004579782486e-02" rms="4.4579061865806580e-01" purity="5.9874731302261353e-01" nType="0">
          <Node pos="l" depth="2" NCoef="0" IVar="-1" Cut="0.0000000000000000e+00" cType="1" res="1.2639025226235390e-03" rms="4.1001611948013306e-01" purity="6.9492226839065552e-01" nType="-99"/>
          <Node pos="r" depth="2" NCoef="0" IVar="-1" Cut="0.0000000000000000e+00" cType="1" res="3.6474602529779077e-04" rms="4.5774766802787781e-01" purity="5.5924135446548462e-01" nType="-99"/>
        </Node>
      </Node>
    </BinaryTree>
    <BinaryTree type="DecisionTree" boostWeight="1.0000000000000000e+00" itree="779">
      <Node pos="s" depth="0" NCoef="0" IVar="4" Cut="2.0995055139064789e-01" cType="1" res="2.0038997754454613e-02" rms="4.4951552152633667e-01" purity="5.1003974676132202e-01" nType="0">
        <Node pos="l" depth="1" NCoef="0" IVar="7" Cut="2.7711084112524986e-02" cType="1" res="1.3600595295429230e-02" rms="4.4927617907524109e-01" purity="4.9917620420455933e-01" nType="0">
          <Node pos="l" depth="2" NCoef="0" IVar="-1" Cut="0.0000000000000000e+00" cType="1" res="4.4509567669592798e-04" rms="4.4782301783561707e-01" purity="5.5627369880676270e-01" nType="-99"/>
          <Node pos="r" depth="2" NCoef="0" IVar="-1" Cut="0.0000000000000000e+00" cType="1" res="-3.2895256299525499e-04" rms="4.4961702823638916e-01" purity="3.9882308244705200e-01" nType="-99"/>
        </Node>
        <Node pos="r" depth="1" NCoef="0" IVar="-1" Cut="0.0000000000000000e+00" cType="1" res="1.1246666545048356e-03" rms="4.4573754072189331e-01" purity="6.3352775573730469e-01" nType="-99"/>
      </Node>
    </BinaryTree>
    <BinaryTree type="DecisionTree" boostWeight="1.0000000000000000e+00" itree="780">
      <Node pos="s" depth="0" NCoef="0" IVar="4" Cut="1.5952499210834503e-01" cType="1" res="4.6470495872199535e-03" rms="4.4944438338279724e-01" purity="5.0334060192108154e-01" nType="0">
        <Node pos="l" depth="1" NCoef="0" IVar="2" Cut="1.8976806640625000e+02" cType="1" res="-6.5377615392208099e-03" rms="4.4897732138633728e-01" purity="4.8177143931388855e-01" nType="0">
          <Node pos="l" depth="2" NCoef="0" IVar="-1" Cut="0.0000000000000000e+00" cType="1" res="-5.5686739506199956e-04" rms="4.5783278346061707e-01" purity="4.0569365024566650e-01" nType="-99"/>
          <Node pos="r" depth="2" NCoef="0" IVar="-1" Cut="0.0000000000000000e+00" cType="1" res="1.8980950699187815e-04" rms="4.4251665472984314e-01" purity="5.2601224184036255e-01" nType="-99"/>
        </Node>
        <Node pos="r" depth="1" NCoef="0" IVar="7" Cut="8.2232542335987091e-02" cType="1" res="5.6981336325407028e-02" rms="4.4792807102203369e-01" purity="6.0426408052444458e-01" nType="0">
          <Node pos="l" depth="2" NCoef="0" IVar="-1" Cut="0.0000000000000000e+00" cType="1" res="1.4722442720085382e-03" rms="4.2227840423583984e-01" purity="6.7964392900466919e-01" nType="-99"/>
          <Node pos="r" depth="2" NCoef="0" IVar="-1" Cut="0.0000000000000000e+00" cType="1" res="-8.5297942860051990e-05" rms="4.6314138174057007e-01" purity="5.3002244234085083e-01" nType="-99"/>
        </Node>
      </Node>
    </BinaryTree>
    <BinaryTree type="DecisionTree" boostWeight="1.0000000000000000e+00" itree="781">
      <Node pos="s" depth="0" NCoef="0" IVar="0" Cut="4.8066101074218750e+00" cType="1" res="3.3241859637200832e-04" rms="4.4413706660270691e-01" purity="4.9825868010520935e-01" nType="0">
        <Node pos="l" depth="1" NCoef="0" IVar="-1" Cut="0.0000000000000000e+00" cType="1" res="-2.9471323359757662e-03" rms="2.6873773336410522e-01" purity="8.1846237182617188e-02" nType="-99"/>
        <Node pos="r" depth="1" NCoef="0" IVar="6" Cut="6.3470733642578125e+02" cType="1" res="8.5233850404620171e-03" rms="4.5194244384765625e-01" purity="5.2522516250610352e-01" nType="0">
          <Node pos="l" depth="2" NCoef="0" IVar="-1" Cut="0.0000000000000000e+00" cType="1" res="-4.7119327064137906e-05" rms="4.5122522115707397e-01" purity="4.9713698029518127e-01" nType="-99"/>
          <Node pos="r" depth="2" NCoef="0" IVar="-1" Cut="0.0000000000000000e+00" cType="1" res="8.1697787391021848e-04" rms="4.5102441310882568e-01" purity="6.5811932086944580e-01" nType="-99"/>
        </Node>
      </Node>
    </BinaryTree>
    <BinaryTree type="DecisionTree" boostWeight="1.0000000000000000e+00" itree="782">
      <Node pos="s" depth="0" NCoef="0" IVar="4" Cut="1.5795828402042389e-01" cType="1" res="9.8491823300719261e-03" rms="4.5196816325187683e-01" purity="5.0140833854675293e-01" nType="0">
        <Node pos="l" depth="1" NCoef="0" IVar="0" Cut="5.3365998268127441e+00" cType="1" res="-4.2008538730442524e-03" rms="4.5273578166961670e-01" purity="4.7569912672042847e-01" nType="0">
          <Node pos="l" depth="2" NCoef="0" IVar="-1" Cut="0.0000000000000000e+00" cType="1" res="1.4067062875255942e-03" rms="4.3349570035934448e-01" purity="3.4153208136558533e-01" nType="-99"/>
          <Node pos="r" depth="2" NCoef="0" IVar="-1" Cut="0.0000000000000000e+00" cType="1" res="-2.9377080500125885e-04" rms="4.5429617166519165e-01" purity="5.0138282775878906e-01" nType="-99"/>
        </Node>
        <Node pos="r" depth="1" NCoef="0" IVar="4" Cut="2.0536158978939056e-01" cType="1" res="8.0397397279739380e-02" rms="4.4138398766517639e-01" purity="6.3049972057342529e-01" nType="0">
          <Node pos="l" depth="2" NCoef="0" IVar="-1" Cut="0.0000000000000000e+00" cType="1" res="1.7438430804759264e-03" rms="4.1264247894287109e-01" purity="6.9060778617858887e-01" nType="-99"/>
          <Node pos="r" depth="2" NCoef="0" IVar="-1" Cut="0.0000000000000000e+00" cType="1" res="3.0789116863161325e-04" rms="4.5883804559707642e-01" purity="5.7592266798019409e-01" nType="-99"/>
        </Node>
      </Node>
    </BinaryTree>
    <BinaryTree type="DecisionTree" boostWeight="1.0000000000000000e+00" itree="783">
      <Node pos="s" depth="0" NCoef="0" IVar="0" Cut="5.0841131210327148e+00" cType="1" res="3.4637562930583954e-03" rms="4.3307846784591675e-01" purity="4.9754363298416138e-01" nType="0">
        <Node pos="l" depth="1" NCoef="0" IVar="1" Cut="9.4401448965072632e-01" cType="1" res="-8.7438665330410004e-02" rms="3.2892066240310669e-01" purity="1.3543121516704559e-01" nType="0">
          <Node pos="l" depth="2" NCoef="0" IVar="-1" Cut="0.0000000000000000e+00" cType="1" res="-2.7747999411076307e-03" rms="3.1939977407455444e-01" purity="1.2235968559980392e-01" nType="-99"/>
          <Node pos="r" depth="2" NCoef="0" IVar="-1" Cut="0.0000000000000000e+00" cType="1" res="-7.5024005491286516e-04" rms="3.2565504312515259e-01" purity="1.4649404585361481e-01" nType="-99"/>
        </Node>
        <Node pos="r" depth="1" NCoef="0" IVar="3" Cut="8.6352966308593750e+01" cType="1" res="1.5292064286768436e-02" rms="4.4347411394119263e-01" purity="5.4466199874877930e-01" nType="0">
          <Node pos="l" depth="2" NCoef="0" IVar="-1" Cut="0.0000000000000000e+00" cType="1" res="-1.4404028479475528e-04" rms="4.5255661010742188e-01" purity="4.9178236722946167e-01" nType="-99"/>
          <Node pos="r" depth="2" NCoef="0" IVar="-1" Cut="0.0000000000000000e+00" cType="1" res="7.3660450289025903e-04" rms="4.2604833841323853e-01" purity="6.2584954500198364e-01" nType="-99"/>
        </Node>
      </Node>
    </BinaryTree>
    <BinaryTree type="DecisionTree" boostWeight="1.0000000000000000e+00" itree="784">
      <Node pos="s" depth="0" NCoef="0" IVar="2" Cut="3.6638436889648438e+02" cType="1" res="-1.0299514979124069e-03" rms="4.4645556807518005e-01" purity="4.9399471282958984e-01" nType="0">
        <Node pos="l" depth="1" NCoef="0" IVar="2" Cut="1.3562150573730469e+02" cType="1" res="1.0377386584877968e-02" rms="4.4974413514137268e-01" purity="5.1463162899017334e-01" nType="0">
          <Node pos="l" depth="2" NCoef="0" IVar="-1" Cut="0.0000000000000000e+00" cType="1" res="-1.4436512719839811e-03" rms="4.2291125655174255e-01" purity="3.2579758763313293e-01" nType="-99"/>
          <Node pos="r" depth="2" NCoef="0" IVar="-1" Cut="0.0000000000000000e+00" cType="1" res="3.0092982342466712e-04" rms="4.5112743973731995e-01" purity="5.3611570596694946e-01" nType="-99"/>
        </Node>
        <Node pos="r" depth="1" NCoef="0" IVar="-1" Cut="0.0000000000000000e+00" cType="1" res="-1.8657598411664367e-03" rms="4.0130504965782166e-01" purity="3.0810844898223877e-01" nType="-99"/>
      </Node>
    </BinaryTree>
    <BinaryTree type="DecisionTree" boostWeight="1.0000000000000000e+00" itree="785">
      <Node pos="s" depth="0" NCoef="0" IVar="6" Cut="6.3470733642578125e+02" cType="1" res="-1.9246141891926527e-03" rms="4.5097982883453369e-01" purity="4.9389851093292236e-01" nType="0">
        <Node pos="l" depth="1" NCoef="0" IVar="7" Cut="1.3504913449287415e-01" cType="1" res="-1.1509739793837070e-02" rms="4.5354282855987549e-01" purity="4.6087253093719482e-01" nType="0">
          <Node pos="l" depth="2" NCoef="0" IVar="-1" Cut="0.0000000000000000e+00" cType="1" res="-2.7049265918321908e-04" rms="4.5254471898078918e-01" purity="4.6058589220046997e-01" nType="-99"/>
          <Node pos="r" depth="2" NCoef="0" IVar="-1" Cut="0.0000000000000000e+00" cType="1" res="7.7106722164899111e-04" rms="4.5650339126586914e-01" purity="4.6322819590568542e-01" nType="-99"/>
        </Node>
        <Node pos="r" depth="1" NCoef="0" IVar="3" Cut="9.8892127990722656e+01" cType="1" res="4.3272446841001511e-02" rms="4.3586167693138123e-01" purity="6.4962708950042725e-01" nType="0">
          <Node pos="l" depth="2" NCoef="0" IVar="-1" Cut="0.0000000000000000e+00" cType="1" res="-5.3781259339302778e-04" rms="4.6414008736610413e-01" purity="5.2957367897033691e-01" nType="-99"/>
          <Node pos="r" depth="2" NCoef="0" IVar="-1" Cut="0.0000000000000000e+00" cType="1" res="1.3048729160800576e-03" rms="4.0399816632270813e-01" purity="7.3509043455123901e-01" nType="-99"/>
        </Node>
      </Node>
    </BinaryTree>
    <BinaryTree type="DecisionTree" boostWeight="1.0000000000000000e+00" itree="786">
      <Node pos="s" depth="0" NCoef="0" IVar="0" Cut="5.7333750724792480e+00" cType="1" res="1.4983955770730972e-02" rms="4.4829517602920532e-01" purity="5.0413233041763306e-01" nType="0">
        <Node pos="l" depth="1" NCoef="0" IVar="6" Cut="5.7950268554687500e+02" cType="1" res="-4.0232002735137939e-02" rms="4.0652161836624146e-01" purity="2.5401347875595093e-01" nType="0">
          <Node pos="l" depth="2" NCoef="0" IVar="-1" Cut="0.0000000000000000e+00" cType="1" res="-1.1989676859229803e-03" rms="3.8414427638053894e-01" purity="2.0032379031181335e-01" nType="-99"/>
          <Node pos="r" depth="2" NCoef="0" IVar="-1" Cut="0.0000000000000000e+00" cType="1" res="8.4950547898188233e-04" rms="4.6507474780082703e-01" purity="4.4873440265655518e-01" nType="-99"/>
        </Node>
        <Node pos="r" depth="1" NCoef="0" IVar="7" Cut="8.0257753143087029e-04" cType="1" res="3.4015789628028870e-02" rms="4.6028640866279602e-01" purity="5.9034329652786255e-01" nType="0">
          <Node pos="l" depth="2" NCoef="0" IVar="-1" Cut="0.0000000000000000e+00" cType="1" res="4.6603381633758545e-05" rms="4.5933368802070618e-01" purity="5.9445250034332275e-01" nType="-99"/>
          <Node pos="r" depth="2" NCoef="0" IVar="-1" Cut="0.0000000000000000e+00" cType="1" res="7.3979818262159824e-04" rms="4.5954242348670959e-01" purity="5.8690476417541504e-01" nType="-99"/>
        </Node>
      </Node>
    </BinaryTree>
    <BinaryTree type="DecisionTree" boostWeight="1.0000000000000000e+00" itree="787">
      <Node pos="s" depth="0" NCoef="0" IVar="5" Cut="1.0900325775146484e+00" cType="1" res="1.8813708797097206e-02" rms="4.4160932302474976e-01" purity="5.1405543088912964e-01" nType="0">
        <Node pos="l" depth="1" NCoef="0" IVar="4" Cut="-6.9703785702586174e-03" cType="1" res="2.9459636658430099e-02" rms="4.4413679838180542e-01" purity="5.3737556934356689e-01" nType="0">
          <Node pos="l" depth="2" NCoef="0" IVar="-1" Cut="0.0000000000000000e+00" cType="1" res="-2.5438028387725353e-05" rms="4.4866278767585754e-01" purity="4.6759304404258728e-01" nType="-99"/>
          <Node pos="r" depth="2" NCoef="0" IVar="-1" Cut="0.0000000000000000e+00" cType="1" res="7.1504467632621527e-04" rms="4.3846032023429871e-01" purity="5.9710407257080078e-01" nType="-99"/>
        </Node>
        <Node pos="r" depth="1" NCoef="0" IVar="-1" Cut="0.0000000000000000e+00" cType="1" res="-1.3173010665923357e-03" rms="4.0424597263336182e-01" purity="2.9755643010139465e-01" nType="-99"/>
      </Node>
    </BinaryTree>
    <BinaryTree type="DecisionTree" boostWeight="1.0000000000000000e+00" itree="788">
      <Node pos="s" depth="0" NCoef="0" IVar="1" Cut="1.7022836208343506e+00" cType="1" res="1.2075496837496758e-02" rms="4.4919660687446594e-01" purity="5.0778985023498535e-01" nType="0">
        <Node pos="l" depth="1" NCoef="0" IVar="1" Cut="7.4432659149169922e-01" cType="1" res="2.0351992920041084e-02" rms="4.5704433321952820e-01" purity="5.3357738256454468e-01" nType="0">
          <Node pos="l" depth="2" NCoef="0" IVar="-1" Cut="0.0000000000000000e+00" cType="1" res="7.1702525019645691e-04" rms="4.4416120648384094e-01" purity="6.4658212661743164e-01" nType="-99"/>
          <Node pos="r" depth="2" NCoef="0" IVar="-1" Cut="0.0000000000000000e+00" cType="1" res="-1.4033989828021731e-05" rms="4.6274054050445557e-01" purity="4.7020614147186279e-01" nType="-99"/>
        </Node>
        <Node pos="r" depth="1" NCoef="0" IVar="-1" Cut="0.0000000000000000e+00" cType="1" res="-3.5780549515038729e-03" rms="2.4882170557975769e-01" purity="7.4829272925853729e-02" nType="-99"/>
      </Node>
    </BinaryTree>
    <BinaryTree type="DecisionTree" boostWeight="1.0000000000000000e+00" itree="789">
      <Node pos="s" depth="0" NCoef="0" IVar="6" Cut="6.5528552246093750e+02" cType="1" res="1.4984587207436562e-02" rms="4.5276182889938354e-01" purity="5.0950801372528076e-01" nType="0">
        <Node pos="l" depth="1" NCoef="0" IVar="3" Cut="3.6316795349121094e+01" cType="1" res="3.9227195084095001e-03" rms="4.5055389404296875e-01" purity="4.8114424943923950e-01" nType="0">
          <Node pos="l" depth="2" NCoef="0" IVar="-1" Cut="0.0000000000000000e+00" cType="1" res="-1.2691057054325938e-03" rms="4.4113641977310181e-01" purity="3.0820029973983765e-01" nType="-99"/>
          <Node pos="r" depth="2" NCoef="0" IVar="-1" Cut="0.0000000000000000e+00" cType="1" res="1.4442425162997097e-04" rms="4.5067012310028076e-01" purity="4.9531975388526917e-01" nType="-99"/>
        </Node>
        <Node pos="r" depth="1" NCoef="0" IVar="1" Cut="1.0042102336883545e+00" cType="1" res="7.3360636830329895e-02" rms="4.5985335111618042e-01" purity="6.5919011831283569e-01" nType="0">
          <Node pos="l" depth="2" NCoef="0" IVar="-1" Cut="0.0000000000000000e+00" cType="1" res="3.4428288927301764e-04" rms="4.4929465651512146e-01" purity="6.8543690443038940e-01" nType="-99"/>
          <Node pos="r" depth="2" NCoef="0" IVar="-1" Cut="0.0000000000000000e+00" cType="1" res="1.8811186309903860e-03" rms="4.6636551618576050e-01" purity="6.1475241184234619e-01" nType="-99"/>
        </Node>
      </Node>
    </BinaryTree>
    <BinaryTree type="DecisionTree" boostWeight="1.0000000000000000e+00" itree="790">
      <Node pos="s" depth="0" NCoef="0" IVar="3" Cut="9.3326499938964844e+01" cType="1" res="-2.0256496500223875e-03" rms="4.4788229465484619e-01" purity="4.9484029412269592e-01" nType="0">
        <Node pos="l" depth="1" NCoef="0" IVar="3" Cut="5.8088088989257812e+01" cType="1" res="-2.3024449124932289e-02" rms="4.5186892151832581e-01" purity="4.4721698760986328e-01" nType="0">
          <Node pos="l" depth="2" NCoef="0" IVar="-1" Cut="0.0000000000000000e+00" cType="1" res="1.9253969367127866e-04" rms="4.6495375037193298e-01" purity="4.6299791336059570e-01" nType="-99"/>
          <Node pos="r" depth="2" NCoef="0" IVar="-1" Cut="0.0000000000000000e+00" cType="1" res="-7.9320912482216954e-04" rms="4.3676385283470154e-01" purity="4.3270871043205261e-01" nType="-99"/>
        </Node>
        <Node pos="r" depth="1" NCoef="0" IVar="2" Cut="3.9688082885742188e+02" cType="1" res="4.0861975401639938e-02" rms="4.3650045990943909e-01" purity="5.9210556745529175e-01" nType="0">
          <Node pos="l" depth="2" NCoef="0" IVar="-1" Cut="0.0000000000000000e+00" cType="1" res="8.5968518396839499e-04" rms="4.3619582056999207e-01" purity="6.4292401075363159e-01" nType="-99"/>
          <Node pos="r" depth="2" NCoef="0" IVar="-1" Cut="0.0000000000000000e+00" cType="1" res="-1.5069111250340939e-03" rms="4.1488584876060486e-01" purity="3.3140590786933899e-01" nType="-99"/>
        </Node>
      </Node>
    </BinaryTree>
    <BinaryTree type="DecisionTree" boostWeight="1.0000000000000000e+00" itree="791">
      <Node pos="s" depth="0" NCoef="0" IVar="2" Cut="3.0409860229492188e+02" cType="1" res="2.7056872844696045e-02" rms="4.4746077060699463e-01" purity="5.1946204900741577e-01" nType="0">
        <Node pos="l" depth="1" NCoef="0" IVar="2" Cut="2.1752261352539062e+02" cType="1" res="4.0184561163187027e-02" rms="4.4896033406257629e-01" purity="5.4456120729446411e-01" nType="0">
          <Node pos="l" depth="2" NCoef="0" IVar="-1" Cut="0.0000000000000000e+00" cType="1" res="1.5219701163005084e-04" rms="4.5476618409156799e-01" purity="4.9036592245101929e-01" nType="-99"/>
          <Node pos="r" depth="2" NCoef="0" IVar="-1" Cut="0.0000000000000000e+00" cType="1" res="1.2230779975652695e-03" rms="4.3303203582763672e-01" purity="6.4506494998931885e-01" nType="-99"/>
        </Node>
        <Node pos="r" depth="1" NCoef="0" IVar="7" Cut="1.3272710144519806e-02" cType="1" res="-3.5669416189193726e-02" rms="4.3478742241859436e-01" purity="3.9953386783599854e-01" nType="0">
          <Node pos="l" depth="2" NCoef="0" IVar="-1" Cut="0.0000000000000000e+00" cType="1" res="-1.3168980367481709e-03" rms="4.4895067811012268e-01" purity="4.2408928275108337e-01" nType="-99"/>
          <Node pos="r" depth="2" NCoef="0" IVar="-1" Cut="0.0000000000000000e+00" cType="1" res="1.2678049097303301e-04" rms="4.1748967766761780e-01" purity="3.7848895788192749e-01" nType="-99"/>
        </Node>
      </Node>
    </BinaryTree>
    <BinaryTree type="DecisionTree" boostWeight="1.0000000000000000e+00" itree="792">
      <Node pos="s" depth="0" NCoef="0" IVar="4" Cut="-3.3730302006006241e-02" cType="1" res="-6.5337656997144222e-03" rms="4.4956752657890320e-01" purity="4.8571541905403137e-01" nType="0">
        <Node pos="l" depth="1" NCoef="0" IVar="1" Cut="1.5971634387969971e+00" cType="1" res="-4.8643358051776886e-02" rms="4.4864249229431152e-01" purity="3.9223340153694153e-01" nType="0">
          <Node pos="l" depth="2" NCoef="0" IVar="-1" Cut="0.0000000000000000e+00" cType="1" res="-8.6267164442688227e-04" rms="4.5877993106842041e-01" purity="4.2701315879821777e-01" nType="-99"/>
          <Node pos="r" depth="2" NCoef="0" IVar="-1" Cut="0.0000000000000000e+00" cType="1" res="4.0665845153853297e-04" rms="3.9095363020896912e-01" purity="2.2897091507911682e-01" nType="-99"/>
        </Node>
        <Node pos="r" depth="1" NCoef="0" IVar="6" Cut="5.0455203247070312e+02" cType="1" res="2.0735576748847961e-02" rms="4.4805923104286194e-01" purity="5.4625248908996582e-01" nType="0">
          <Node pos="l" depth="2" NCoef="0" IVar="-1" Cut="0.0000000000000000e+00" cType="1" res="6.2383338809013367e-04" rms="4.4884362816810608e-01" purity="5.2933520078659058e-01" nType="-99"/>
          <Node pos="r" depth="2" NCoef="0" IVar="-1" Cut="0.0000000000000000e+00" cType="1" res="-3.6747290869243443e-04" rms="4.4248148798942566e-01" purity="5.7714205980300903e-01" nType="-99"/>
        </Node>
      </Node>
    </BinaryTree>
    <BinaryTree type="DecisionTree" boostWeight="1.0000000000000000e+00" itree="793">
      <Node pos="s" depth="0" NCoef="0" IVar="0" Cut="7.5135331153869629e+00" cType="1" res="-6.3232425600290298e-03" rms="4.4383281469345093e-01" purity="4.8430147767066956e-01" nType="0">
        <Node pos="l" depth="1" NCoef="0" IVar="6" Cut="6.8469091796875000e+02" cType="1" res="-2.8444826602935791e-02" rms="4.5089906454086304e-01" purity="3.8096785545349121e-01" nType="0">
          <Node pos="l" depth="2" NCoef="0" IVar="-1" Cut="0.0000000000000000e+00" cType="1" res="-6.3638371648266912e-04" rms="4.4463407993316650e-01" purity="3.5084187984466553e-01" nType="-99"/>
          <Node pos="r" depth="2" NCoef="0" IVar="-1" Cut="0.0000000000000000e+00" cType="1" res="8.5799972293898463e-04" rms="4.7950965166091919e-01" purity="5.8148175477981567e-01" nType="-99"/>
        </Node>
        <Node pos="r" depth="1" NCoef="0" IVar="7" Cut="-4.6065729111433029e-02" cType="1" res="4.6073108911514282e-02" rms="4.2202863097190857e-01" purity="7.2905367612838745e-01" nType="0">
          <Node pos="l" depth="2" NCoef="0" IVar="-1" Cut="0.0000000000000000e+00" cType="1" res="1.5012260992079973e-03" rms="3.4339612722396851e-01" purity="8.5322886705398560e-01" nType="-99"/>
          <Node pos="r" depth="2" NCoef="0" IVar="-1" Cut="0.0000000000000000e+00" cType="1" res="2.5793729582801461e-04" rms="4.4431546330451965e-01" purity="6.8368881940841675e-01" nType="-99"/>
        </Node>
      </Node>
    </BinaryTree>
    <BinaryTree type="DecisionTree" boostWeight="1.0000000000000000e+00" itree="794">
      <Node pos="s" depth="0" NCoef="0" IVar="0" Cut="5.0676617622375488e+00" cType="1" res="1.5519595472142100e-03" rms="4.4854557514190674e-01" purity="4.9315464496612549e-01" nType="0">
        <Node pos="l" depth="1" NCoef="0" IVar="5" Cut="7.3091679811477661e-01" cType="1" res="-7.8220456838607788e-02" rms="3.3364921808242798e-01" purity="1.5274433791637421e-01" nType="0">
          <Node pos="l" depth="2" NCoef="0" IVar="-1" Cut="0.0000000000000000e+00" cType="1" res="-2.2381122689694166e-03" rms="3.1354239583015442e-01" purity="1.3933378458023071e-01" nType="-99"/>
          <Node pos="r" depth="2" NCoef="0" IVar="-1" Cut="0.0000000000000000e+00" cType="1" res="-7.7641656389459968e-04" rms="3.4982675313949585e-01" purity="1.6784150898456573e-01" nType="-99"/>
        </Node>
        <Node pos="r" depth="1" NCoef="0" IVar="7" Cut="5.8614138513803482e-02" cType="1" res="1.1436951346695423e-02" rms="4.5982962846755981e-01" purity="5.3533655405044556e-01" nType="0">
          <Node pos="l" depth="2" NCoef="0" IVar="-1" Cut="0.0000000000000000e+00" cType="1" res="3.9557419950142503e-04" rms="4.5511928200721741e-01" purity="5.7790428400039673e-01" nType="-99"/>
          <Node pos="r" depth="2" NCoef="0" IVar="-1" Cut="0.0000000000000000e+00" cType="1" res="-5.0432403804734349e-04" rms="4.6766874194145203e-01" purity="4.3314197659492493e-01" nType="-99"/>
        </Node>
      </Node>
    </BinaryTree>
    <BinaryTree type="DecisionTree" boostWeight="1.0000000000000000e+00" itree="795">
      <Node pos="s" depth="0" NCoef="0" IVar="7" Cut="-5.0308231264352798e-02" cType="1" res="2.9971604235470295e-03" rms="4.4590279459953308e-01" purity="4.9310222268104553e-01" nType="0">
        <Node pos="l" depth="1" NCoef="0" IVar="0" Cut="6.9397044181823730e+00" cType="1" res="6.0561962425708771e-02" rms="4.2749074101448059e-01" purity="6.0112833976745605e-01" nType="0">
          <Node pos="l" depth="2" NCoef="0" IVar="-1" Cut="0.0000000000000000e+00" cType="1" res="1.4153261145111173e-04" rms="4.5368680357933044e-01" purity="4.3535569310188293e-01" nType="-99"/>
          <Node pos="r" depth="2" NCoef="0" IVar="-1" Cut="0.0000000000000000e+00" cType="1" res="1.5302166575565934e-03" rms="3.8045361638069153e-01" purity="8.2016581296920776e-01" nType="-99"/>
        </Node>
        <Node pos="r" depth="1" NCoef="0" IVar="3" Cut="3.6840751647949219e+01" cType="1" res="-1.0668796487152576e-02" rms="4.4908073544502258e-01" purity="4.6745669841766357e-01" nType="0">
          <Node pos="l" depth="2" NCoef="0" IVar="-1" Cut="0.0000000000000000e+00" cType="1" res="-1.9159517250955105e-03" rms="4.1943326592445374e-01" purity="2.7357536554336548e-01" nType="-99"/>
          <Node pos="r" depth="2" NCoef="0" IVar="-1" Cut="0.0000000000000000e+00" cType="1" res="-3.4020133170997724e-05" rms="4.5020756125450134e-01" purity="4.8224499821662903e-01" nType="-99"/>
        </Node>
      </Node>
    </BinaryTree>
    <BinaryTree type="DecisionTree" boostWeight="1.0000000000000000e+00" itree="796">
      <Node pos="s" depth="0" NCoef="0" IVar="1" Cut="7.2925454378128052e-01" cType="1" res="1.1855343356728554e-02" rms="4.4265136122703552e-01" purity="5.1123023033142090e-01" nType="0">
        <Node pos="l" depth="1" NCoef="0" IVar="5" Cut="4.7281301021575928e-01" cType="1" res="5.5161643773317337e-02" rms="4.3502575159072876e-01" purity="6.4575403928756714e-01" nType="0">
          <Node pos="l" depth="2" NCoef="0" IVar="-1" Cut="0.0000000000000000e+00" cType="1" res="9.8229815193917602e-05" rms="4.3068721890449524e-01" purity="5.9671020507812500e-01" nType="-99"/>
          <Node pos="r" depth="2" NCoef="0" IVar="-1" Cut="0.0000000000000000e+00" cType="1" res="1.2395022204145789e-03" rms="4.3405699729919434e-01" purity="6.9640070199966431e-01" nType="-99"/>
        </Node>
        <Node pos="r" depth="1" NCoef="0" IVar="4" Cut="-9.2845834791660309e-02" cType="1" res="-8.1286868080496788e-03" rms="4.4470652937889099e-01" purity="4.4915318489074707e-01" nType="0">
          <Node pos="l" depth="2" NCoef="0" IVar="-1" Cut="0.0000000000000000e+00" cType="1" res="-1.0827422374859452e-03" rms="4.1220158338546753e-01" purity="3.2321122288703918e-01" nType="-99"/>
          <Node pos="r" depth="2" NCoef="0" IVar="-1" Cut="0.0000000000000000e+00" cType="1" res="1.0910195851465687e-04" rms="4.5204201340675354e-01" purity="4.8429670929908752e-01" nType="-99"/>
        </Node>
      </Node>
    </BinaryTree>
    <BinaryTree type="DecisionTree" boostWeight="1.0000000000000000e+00" itree="797">
      <Node pos="s" depth="0" NCoef="0" IVar="0" Cut="8.2024202346801758e+00" cType="1" res="-1.4915527775883675e-02" rms="4.4042277336120605e-01" purity="4.8718062043190002e-01" nType="0">
        <Node pos="l" depth="1" NCoef="0" IVar="6" Cut="3.4578555297851562e+02" cType="1" res="-2.7756463736295700e-02" rms="4.4600510597229004e-01" purity="4.3403881788253784e-01" nType="0">
          <Node pos="l" depth="2" NCoef="0" IVar="-1" Cut="0.0000000000000000e+00" cType="1" res="-1.5378943644464016e-03" rms="4.1197377443313599e-01" purity="2.3594962060451508e-01" nType="-99"/>
          <Node pos="r" depth="2" NCoef="0" IVar="-1" Cut="0.0000000000000000e+00" cType="1" res="-2.0352851424831897e-04" rms="4.5152619481086731e-01" purity="4.7431626915931702e-01" nType="-99"/>
        </Node>
        <Node pos="r" depth="1" NCoef="0" IVar="7" Cut="-1.9420247524976730e-02" cType="1" res="4.8069361597299576e-02" rms="4.0610924363136292e-01" purity="7.4784159660339355e-01" nType="0">
          <Node pos="l" depth="2" NCoef="0" IVar="-1" Cut="0.0000000000000000e+00" cType="1" res="1.6869073733687401e-03" rms="3.2514163851737976e-01" purity="8.6957567930221558e-01" nType="-99"/>
          <Node pos="r" depth="2" NCoef="0" IVar="-1" Cut="0.0000000000000000e+00" cType="1" res="4.3738234012380417e-07" rms="4.4346401095390320e-01" purity="6.7039024829864502e-01" nType="-99"/>
        </Node>
      </Node>
    </BinaryTree>
    <BinaryTree type="DecisionTree" boostWeight="1.0000000000000000e+00" itree="798">
      <Node pos="s" depth="0" NCoef="0" IVar="4" Cut="-1.0335145890712738e-01" cType="1" res="1.4144764281809330e-02" rms="4.4619694352149963e-01" purity="5.1358139514923096e-01" nType="0">
        <Node pos="l" depth="1" NCoef="0" IVar="3" Cut="6.9688476562500000e+01" cType="1" res="-5.9812970459461212e-02" rms="4.2453625798225403e-01" purity="3.5700112581253052e-01" nType="0">
          <Node pos="l" depth="2" NCoef="0" IVar="-1" Cut="0.0000000000000000e+00" cType="1" res="-3.3914060331881046e-03" rms="3.7290549278259277e-01" purity="1.8640971183776855e-01" nType="-99"/>
          <Node pos="r" depth="2" NCoef="0" IVar="-1" Cut="0.0000000000000000e+00" cType="1" res="1.3979717914480716e-04" rms="4.3554490804672241e-01" purity="4.5159855484962463e-01" nType="-99"/>
        </Node>
        <Node pos="r" depth="1" NCoef="0" IVar="0" Cut="8.8182973861694336e+00" cType="1" res="2.6745019480586052e-02" rms="4.4856923818588257e-01" purity="5.4025822877883911e-01" nType="0">
          <Node pos="l" depth="2" NCoef="0" IVar="-1" Cut="0.0000000000000000e+00" cType="1" res="2.6960475952364504e-04" rms="4.5595404505729675e-01" purity="5.1244199275970459e-01" nType="-99"/>
          <Node pos="r" depth="2" NCoef="0" IVar="-1" Cut="0.0000000000000000e+00" cType="1" res="1.4537414535880089e-03" rms="3.4448000788688660e-01" purity="8.5727983713150024e-01" nType="-99"/>
        </Node>
      </Node>
    </BinaryTree>
    <BinaryTree type="DecisionTree" boostWeight="1.0000000000000000e+00" itree="799">
      <Node pos="s" depth="0" NCoef="0" IVar="3" Cut="1.0543370056152344e+02" cType="1" res="1.3147707795724273e-03" rms="4.4659590721130371e-01" purity="5.0247430801391602e-01" nType="0">
        <Node pos="l" depth="1" NCoef="0" IVar="4" Cut="6.8721055984497070e-02" cType="1" res="-1.6770374029874802e-02" rms="4.5070928335189819e-01" purity="4.6463513374328613e-01" nType="0">
          <Node pos="l" depth="2" NCoef="0" IVar="-1" Cut="0.0000000000000000e+00" cType="1" res="-5.3231569472700357e-04" rms="4.4507142901420593e-01" purity="4.2288970947265625e-01" nType="-99"/>
          <Node pos="r" depth="2" NCoef="0" IVar="-1" Cut="0.0000000000000000e+00" cType="1" res="2.2154244652483612e-04" rms="4.5805141329765320e-01" purity="5.3483271598815918e-01" nType="-99"/>
        </Node>
        <Node pos="r" depth="1" NCoef="0" IVar="5" Cut="8.5602647066116333e-01" cType="1" res="5.4728321731090546e-02" rms="4.2979979515075684e-01" purity="6.1423033475875854e-01" nType="0">
          <Node pos="l" depth="2" NCoef="0" IVar="-1" Cut="0.0000000000000000e+00" cType="1" res="1.2551451800391078e-03" rms="4.2253178358078003e-01" purity="6.9838082790374756e-01" nType="-99"/>
          <Node pos="r" depth="2" NCoef="0" IVar="-1" Cut="0.0000000000000000e+00" cType="1" res="-1.0232242057099938e-03" rms="4.2760166525840759e-01" purity="3.7204855680465698e-01" nType="-99"/>
        </Node>
      </Node>
    </BinaryTree>
    <BinaryTree type="DecisionTree" boostWeight="1.0000000000000000e+00" itree="800">
      <Node pos="s" depth="0" NCoef="0" IVar="0" Cut="5.0742864608764648e+00" cType="1" res="1.1995139531791210e-02" rms="4.3846723437309265e-01" purity="5.1200664043426514e-01" nType="0">
        <Node pos="l" depth="1" NCoef="0" IVar="-1" Cut="0.0000000000000000e+00" cType="1" res="-1.8632274586707354e-03" rms="3.3081880211830139e-01" purity="1.3838292658329010e-01" nType="-99"/>
        <Node pos="r" depth="1" NCoef="0" IVar="5" Cut="4.0511149168014526e-01" cType="1" res="2.2205745801329613e-02" rms="4.4695818424224854e-01" purity="5.5091333389282227e-01" nType="0">
          <Node pos="l" depth="2" NCoef="0" IVar="-1" Cut="0.0000000000000000e+00" cType="1" res="9.0422853827476501e-04" rms="4.3279498815536499e-01" purity="6.5084791183471680e-01" nType="-99"/>
          <Node pos="r" depth="2" NCoef="0" IVar="-1" Cut="0.0000000000000000e+00" cType="1" res="1.2090241943951696e-04" rms="4.4970989227294922e-01" purity="5.2441823482513428e-01" nType="-99"/>
        </Node>
      </Node>
    </BinaryTree>
    <BinaryTree type="DecisionTree" boostWeight="1.0000000000000000e+00" itree="801">
      <Node pos="s" depth="0" NCoef="0" IVar="6" Cut="3.5529095458984375e+02" cType="1" res="1.3010756811127067e-04" rms="4.5174723863601685e-01" purity="5.0091135501861572e-01" nType="0">
        <Node pos="l" depth="1" NCoef="0" IVar="6" Cut="3.1042242431640625e+02" cType="1" res="-5.3438737988471985e-02" rms="4.4100546836853027e-01" purity="3.2806089520454407e-01" nType="0">
          <Node pos="l" depth="2" NCoef="0" IVar="-1" Cut="0.0000000000000000e+00" cType="1" res="-3.1765415333211422e-03" rms="3.4188130497932434e-01" purity="1.6616745293140411e-01" nType="-99"/>
          <Node pos="r" depth="2" NCoef="0" IVar="-1" Cut="0.0000000000000000e+00" cType="1" res="1.0471430869074538e-04" rms="4.7075742483139038e-01" purity="4.0788969397544861e-01" nType="-99"/>
        </Node>
        <Node pos="r" depth="1" NCoef="0" IVar="7" Cut="3.2445903867483139e-02" cType="1" res="1.1168354190886021e-02" rms="4.5314288139343262e-01" purity="5.3652840852737427e-01" nType="0">
          <Node pos="l" depth="2" NCoef="0" IVar="-1" Cut="0.0000000000000000e+00" cType="1" res="4.5384891564026475e-04" rms="4.5637258887290955e-01" purity="5.9175026416778564e-01" nType="-99"/>
          <Node pos="r" depth="2" NCoef="0" IVar="-1" Cut="0.0000000000000000e+00" cType="1" res="-3.8676903932355344e-04" rms="4.4546803832054138e-01" purity="4.5105826854705811e-01" nType="-99"/>
        </Node>
      </Node>
    </BinaryTree>
    <BinaryTree type="DecisionTree" boostWeight="1.0000000000000000e+00" itree="802">
      <Node pos="s" depth="0" NCoef="0" IVar="3" Cut="6.3733840942382812e+01" cType="1" res="1.3520293869078159e-03" rms="4.5343992114067078e-01" purity="4.9469763040542603e-01" nType="0">
        <Node pos="l" depth="1" NCoef="0" IVar="3" Cut="3.7133327484130859e+01" cType="1" res="3.3286631107330322e-02" rms="4.5618602633476257e-01" purity="4.9199268221855164e-01" nType="0">
          <Node pos="l" depth="2" NCoef="0" IVar="-1" Cut="0.0000000000000000e+00" cType="1" res="-8.8554673129692674e-04" rms="4.2114406824111938e-01" purity="3.5888919234275818e-01" nType="-99"/>
          <Node pos="r" depth="2" NCoef="0" IVar="-1" Cut="0.0000000000000000e+00" cType="1" res="7.3640519985929132e-04" rms="4.6176207065582275e-01" purity="5.2513068914413452e-01" nType="-99"/>
        </Node>
        <Node pos="r" depth="1" NCoef="0" IVar="2" Cut="1.6487576293945312e+02" cType="1" res="-1.9042529165744781e-02" rms="4.5049449801445007e-01" purity="4.9642509222030640e-01" nType="0">
          <Node pos="l" depth="2" NCoef="0" IVar="-1" Cut="0.0000000000000000e+00" cType="1" res="-2.4124777410179377e-03" rms="4.3841198086738586e-01" purity="3.1429091095924377e-01" nType="-99"/>
          <Node pos="r" depth="2" NCoef="0" IVar="-1" Cut="0.0000000000000000e+00" cType="1" res="-2.6730222089099698e-05" rms="4.4886413216590881e-01" purity="5.1813781261444092e-01" nType="-99"/>
        </Node>
      </Node>
    </BinaryTree>
    <BinaryTree type="DecisionTree" boostWeight="1.0000000000000000e+00" itree="803">
      <Node pos="s" depth="0" NCoef="0" IVar="0" Cut="5.5704059600830078e+00" cType="1" res="5.3741573356091976e-03" rms="4.4516777992248535e-01" purity="4.9872821569442749e-01" nType="0">
        <Node pos="l" depth="1" NCoef="0" IVar="4" Cut="2.7414079755544662e-02" cType="1" res="-4.5477591454982758e-02" rms="3.9736533164978027e-01" purity="2.4297979474067688e-01" nType="0">
          <Node pos="l" depth="2" NCoef="0" IVar="-1" Cut="0.0000000000000000e+00" cType="1" res="-1.9863508641719818e-03" rms="3.3708894252777100e-01" purity="1.5902242064476013e-01" nType="-99"/>
          <Node pos="r" depth="2" NCoef="0" IVar="-1" Cut="0.0000000000000000e+00" cType="1" res="1.9088177941739559e-04" rms="4.4374194741249084e-01" purity="3.2954072952270508e-01" nType="-99"/>
        </Node>
        <Node pos="r" depth="1" NCoef="0" IVar="1" Cut="1.5784938335418701e+00" cType="1" res="1.8635852262377739e-02" rms="4.5588099956512451e-01" purity="5.6542509794235229e-01" nType="0">
          <Node pos="l" depth="2" NCoef="0" IVar="-1" Cut="0.0000000000000000e+00" cType="1" res="3.2705432386137545e-04" rms="4.6254619956016541e-01" purity="6.0313087701797485e-01" nType="-99"/>
          <Node pos="r" depth="2" NCoef="0" IVar="-1" Cut="0.0000000000000000e+00" cType="1" res="-1.2157923774793744e-03" rms="3.7543579936027527e-01" purity="1.9171690940856934e-01" nType="-99"/>
        </Node>
      </Node>
    </BinaryTree>
    <BinaryTree type="DecisionTree" boostWeight="1.0000000000000000e+00" itree="804">
      <Node pos="s" depth="0" NCoef="0" IVar="4" Cut="2.2239810228347778e-01" cType="1" res="-1.3421127805486321e-03" rms="4.4857025146484375e-01" purity="4.9908706545829773e-01" nType="0">
        <Node pos="l" depth="1" NCoef="0" IVar="6" Cut="3.3407769775390625e+02" cType="1" res="-8.7930019944906235e-03" rms="4.4707313179969788e-01" purity="4.8566678166389465e-01" nType="0">
          <Node pos="l" depth="2" NCoef="0" IVar="-1" Cut="0.0000000000000000e+00" cType="1" res="-1.8419324187561870e-03" rms="4.0609645843505859e-01" purity="2.2572939097881317e-01" nType="-99"/>
          <Node pos="r" depth="2" NCoef="0" IVar="-1" Cut="0.0000000000000000e+00" cType="1" res="4.4642332795774564e-05" rms="4.5030573010444641e-01" purity="5.1725125312805176e-01" nType="-99"/>
        </Node>
        <Node pos="r" depth="1" NCoef="0" IVar="-1" Cut="0.0000000000000000e+00" cType="1" res="1.0166581487283111e-03" rms="4.5678776502609253e-01" purity="6.5526276826858521e-01" nType="-99"/>
      </Node>
    </BinaryTree>
    <BinaryTree type="DecisionTree" boostWeight="1.0000000000000000e+00" itree="805">
      <Node pos="s" depth="0" NCoef="0" IVar="3" Cut="1.0660724639892578e+02" cType="1" res="1.1282956693321466e-03" rms="4.4754537940025330e-01" purity="5.0333696603775024e-01" nType="0">
        <Node pos="l" depth="1" NCoef="0" IVar="7" Cut="4.3073680251836777e-02" cType="1" res="-1.5625786036252975e-02" rms="4.5054236054420471e-01" purity="4.6598890423774719e-01" nType="0">
          <Node pos="l" depth="2" NCoef="0" IVar="-1" Cut="0.0000000000000000e+00" cType="1" res="-6.0111127095296979e-04" rms="4.4272369146347046e-01" purity="4.6486160159111023e-01" nType="-99"/>
          <Node pos="r" depth="2" NCoef="0" IVar="-1" Cut="0.0000000000000000e+00" cType="1" res="4.2748154373839498e-04" rms="4.5948317646980286e-01" purity="4.6785905957221985e-01" nType="-99"/>
        </Node>
        <Node pos="r" depth="1" NCoef="0" IVar="2" Cut="4.0656411743164062e+02" cType="1" res="5.3201459348201752e-02" rms="4.3398997187614441e-01" purity="6.1941826343536377e-01" nType="0">
          <Node pos="l" depth="2" NCoef="0" IVar="-1" Cut="0.0000000000000000e+00" cType="1" res="1.0293710511177778e-03" rms="4.2296829819679260e-01" purity="6.7605876922607422e-01" nType="-99"/>
          <Node pos="r" depth="2" NCoef="0" IVar="-1" Cut="0.0000000000000000e+00" cType="1" res="-5.7993957307189703e-04" rms="4.6108359098434448e-01" purity="4.1080591082572937e-01" nType="-99"/>
        </Node>
      </Node>
    </BinaryTree>
    <BinaryTree type="DecisionTree" boostWeight="1.0000000000000000e+00" itree="806">
      <Node pos="s" depth="0" NCoef="0" IVar="5" Cut="8.4085643291473389e-01" cType="1" res="1.5476186759769917e-02" rms="4.4997674226760864e-01" purity="5.0812470912933350e-01" nType="0">
        <Node pos="l" depth="1" NCoef="0" IVar="5" Cut="7.6350611448287964e-01" cType="1" res="3.0512806028127670e-02" rms="4.4964206218719482e-01" purity="5.5681455135345459e-01" nType="0">
          <Node pos="l" depth="2" NCoef="0" IVar="-1" Cut="0.0000000000000000e+00" cType="1" res="2.3163040168583393e-04" rms="4.5043972134590149e-01" purity="5.4958236217498779e-01" nType="-99"/>
          <Node pos="r" depth="2" NCoef="0" IVar="-1" Cut="0.0000000000000000e+00" cType="1" res="1.3907536631450057e-03" rms="4.3650332093238831e-01" purity="6.0067152976989746e-01" nType="-99"/>
        </Node>
        <Node pos="r" depth="1" NCoef="0" IVar="0" Cut="5.4540209770202637e+00" cType="1" res="-2.2380651906132698e-02" rms="4.4859191775321960e-01" purity="3.8554093241691589e-01" nType="0">
          <Node pos="l" depth="2" NCoef="0" IVar="-1" Cut="0.0000000000000000e+00" cType="1" res="1.0136241326108575e-03" rms="4.3669804930686951e-01" purity="3.0137428641319275e-01" nType="-99"/>
          <Node pos="r" depth="2" NCoef="0" IVar="-1" Cut="0.0000000000000000e+00" cType="1" res="-7.5522222323343158e-04" rms="4.4941291213035583e-01" purity="4.1507911682128906e-01" nType="-99"/>
        </Node>
      </Node>
    </BinaryTree>
    <BinaryTree type="DecisionTree" boostWeight="1.0000000000000000e+00" itree="807">
      <Node pos="s" depth="0" NCoef="0" IVar="1" Cut="1.5709758996963501e+00" cType="1" res="1.9883075729012489e-02" rms="4.4390639662742615e-01" purity="5.1305007934570312e-01" nType="0">
        <Node pos="l" depth="1" NCoef="0" IVar="4" Cut="1.9419237971305847e-01" cType="1" res="2.9683573171496391e-02" rms="4.5326337218284607e-01" purity="5.5110198259353638e-01" nType="0">
          <Node pos="l" depth="2" NCoef="0" IVar="-1" Cut="0.0000000000000000e+00" cType="1" res="2.9411201830953360e-04" rms="4.5257329940795898e-01" purity="5.4166561365127563e-01" nType="-99"/>
          <Node pos="r" depth="2" NCoef="0" IVar="-1" Cut="0.0000000000000000e+00" cType="1" res="1.0746659245342016e-03" rms="4.5462316274642944e-01" purity="6.2811046838760376e-01" nType="-99"/>
        </Node>
        <Node pos="r" depth="1" NCoef="0" IVar="-1" Cut="0.0000000000000000e+00" cType="1" res="-1.9920920021831989e-03" rms="3.2225981354713440e-01" purity="1.3733159005641937e-01" nType="-99"/>
      </Node>
    </BinaryTree>
    <BinaryTree type="DecisionTree" boostWeight="1.0000000000000000e+00" itree="808">
      <Node pos="s" depth="0" NCoef="0" IVar="1" Cut="6.4811658859252930e-01" cType="1" res="-6.4578873571008444e-04" rms="4.4330194592475891e-01" purity="4.9441945552825928e-01" nType="0">
        <Node pos="l" depth="1" NCoef="0" IVar="2" Cut="2.0854618835449219e+02" cType="1" res="5.9350550174713135e-02" rms="4.3815016746520996e-01" purity="6.5440034866333008e-01" nType="0">
          <Node pos="l" depth="2" NCoef="0" IVar="-1" Cut="0.0000000000000000e+00" cType="1" res="4.7384943172801286e-05" rms="4.7112712264060974e-01" purity="5.4492598772048950e-01" nType="-99"/>
          <Node pos="r" depth="2" NCoef="0" IVar="-1" Cut="0.0000000000000000e+00" cType="1" res="1.9540493376553059e-03" rms="3.5024392604827881e-01" purity="8.5113722085952759e-01" nType="-99"/>
        </Node>
        <Node pos="r" depth="1" NCoef="0" IVar="4" Cut="1.2295113876461983e-02" cType="1" res="-2.2149102762341499e-02" rms="4.4316098093986511e-01" purity="4.3708065152168274e-01" nType="0">
          <Node pos="l" depth="2" NCoef="0" IVar="-1" Cut="0.0000000000000000e+00" cType="1" res="-7.5710273813456297e-04" rms="4.3375572562217712e-01" purity="3.8209637999534607e-01" nType="-99"/>
          <Node pos="r" depth="2" NCoef="0" IVar="-1" Cut="0.0000000000000000e+00" cType="1" res="2.0071846665814519e-04" rms="4.5267629623413086e-01" purity="5.0991010665893555e-01" nType="-99"/>
        </Node>
      </Node>
    </BinaryTree>
    <BinaryTree type="DecisionTree" boostWeight="1.0000000000000000e+00" itree="809">
      <Node pos="s" depth="0" NCoef="0" IVar="2" Cut="1.4041648864746094e+02" cType="1" res="6.1438214033842087e-03" rms="4.4566980004310608e-01" purity="5.0435721874237061e-01" nType="0">
        <Node pos="l" depth="1" NCoef="0" IVar="2" Cut="1.2118120574951172e+02" cType="1" res="-9.8141804337501526e-02" rms="4.2701411247253418e-01" purity="3.3146697282791138e-01" nType="0">
          <Node pos="l" depth="2" NCoef="0" IVar="-1" Cut="0.0000000000000000e+00" cType="1" res="-3.2208613120019436e-03" rms="3.6597165465354919e-01" purity="2.3774701356887817e-01" nType="-99"/>
          <Node pos="r" depth="2" NCoef="0" IVar="-1" Cut="0.0000000000000000e+00" cType="1" res="3.0562576284864917e-05" rms="4.5940035581588745e-01" purity="4.2588514089584351e-01" nType="-99"/>
        </Node>
        <Node pos="r" depth="1" NCoef="0" IVar="1" Cut="7.8157699108123779e-01" cType="1" res="1.8059710040688515e-02" rms="4.4620305299758911e-01" purity="5.2411204576492310e-01" nType="0">
          <Node pos="l" depth="2" NCoef="0" IVar="-1" Cut="0.0000000000000000e+00" cType="1" res="6.7381554981693625e-04" rms="4.4341680407524109e-01" purity="6.6198474168777466e-01" nType="-99"/>
          <Node pos="r" depth="2" NCoef="0" IVar="-1" Cut="0.0000000000000000e+00" cType="1" res="-2.2058376998757012e-05" rms="4.4644191861152649e-01" purity="4.5082184672355652e-01" nType="-99"/>
        </Node>
      </Node>
    </BinaryTree>
    <BinaryTree type="DecisionTree" boostWeight="1.0000000000000000e+00" itree="810">
      <Node pos="s" depth="0" NCoef="0" IVar="0" Cut="7.7005014419555664e+00" cType="1" res="2.5878502056002617e-03" rms="4.4681197404861450e-01" purity="5.0073069334030151e-01" nType="0">
        <Node pos="l" depth="1" NCoef="0" IVar="3" Cut="6.0980796813964844e+01" cType="1" res="-1.2853259220719337e-02" rms="4.5347622036933899e-01" purity="4.2107123136520386e-01" nType="0">
          <Node pos="l" depth="2" NCoef="0" IVar="-1" Cut="0.0000000000000000e+00" cType="1" res="2.6541569968685508e-04" rms="4.5654368400573730e-01" purity="4.2584908008575439e-01" nType="-99"/>
          <Node pos="r" depth="2" NCoef="0" IVar="-1" Cut="0.0000000000000000e+00" cType="1" res="-4.5255722943693399e-04" rms="4.5049244165420532e-01" purity="4.1817995905876160e-01" nType="-99"/>
        </Node>
        <Node pos="r" depth="1" NCoef="0" IVar="5" Cut="8.7126117944717407e-01" cType="1" res="4.8069007694721222e-02" rms="4.2331805825233459e-01" purity="7.3536455631256104e-01" nType="0">
          <Node pos="l" depth="2" NCoef="0" IVar="-1" Cut="0.0000000000000000e+00" cType="1" res="1.0432669660076499e-03" rms="4.0144538879394531e-01" purity="7.8798800706863403e-01" nType="-99"/>
          <Node pos="r" depth="2" NCoef="0" IVar="-1" Cut="0.0000000000000000e+00" cType="1" res="-1.1069704778492451e-03" rms="4.7974592447280884e-01" purity="5.2799254655838013e-01" nType="-99"/>
        </Node>
      </Node>
    </BinaryTree>
    <BinaryTree type="DecisionTree" boostWeight="1.0000000000000000e+00" itree="811">
      <Node pos="s" depth="0" NCoef="0" IVar="0" Cut="7.7005014419555664e+00" cType="1" res="-1.4941022731363773e-02" rms="4.4416585564613342e-01" purity="4.8066943883895874e-01" nType="0">
        <Node pos="l" depth="1" NCoef="0" IVar="3" Cut="1.3454911804199219e+02" cType="1" res="-3.3048972487449646e-02" rms="4.5103982090950012e-01" purity="3.9683914184570312e-01" nType="0">
          <Node pos="l" depth="2" NCoef="0" IVar="-1" Cut="0.0000000000000000e+00" cType="1" res="-5.8939208975061774e-04" rms="4.5030429959297180e-01" purity="3.8299781084060669e-01" nType="-99"/>
          <Node pos="r" depth="2" NCoef="0" IVar="-1" Cut="0.0000000000000000e+00" cType="1" res="6.0333334840834141e-04" rms="4.5067080855369568e-01" purity="5.3034389019012451e-01" nType="-99"/>
        </Node>
        <Node pos="r" depth="1" NCoef="0" IVar="5" Cut="8.3253443241119385e-01" cType="1" res="3.8412224501371384e-02" rms="4.1873574256896973e-01" purity="7.2766703367233276e-01" nType="0">
          <Node pos="l" depth="2" NCoef="0" IVar="-1" Cut="0.0000000000000000e+00" cType="1" res="9.7058073151856661e-04" rms="3.9523732662200928e-01" purity="7.8737950325012207e-01" nType="-99"/>
          <Node pos="r" depth="2" NCoef="0" IVar="-1" Cut="0.0000000000000000e+00" cType="1" res="-1.3413822744041681e-03" rms="4.7104510664939880e-01" purity="5.1517546176910400e-01" nType="-99"/>
        </Node>
      </Node>
    </BinaryTree>
    <BinaryTree type="DecisionTree" boostWeight="1.0000000000000000e+00" itree="812">
      <Node pos="s" depth="0" NCoef="0" IVar="2" Cut="2.1062890625000000e+02" cType="1" res="1.2052395381033421e-02" rms="4.4934371113777161e-01" purity="5.1529806852340698e-01" nType="0">
        <Node pos="l" depth="1" NCoef="0" IVar="0" Cut="7.7167963981628418e+00" cType="1" res="-1.1235806159675121e-02" rms="4.5800906419754028e-01" purity="4.7283095121383667e-01" nType="0">
          <Node pos="l" depth="2" NCoef="0" IVar="-1" Cut="0.0000000000000000e+00" cType="1" res="-4.9113563727587461e-04" rms="4.6887961030006409e-01" purity="3.8408991694450378e-01" nType="-99"/>
          <Node pos="r" depth="2" NCoef="0" IVar="-1" Cut="0.0000000000000000e+00" cType="1" res="8.4534537745639682e-04" rms="4.1133815050125122e-01" purity="7.5525456666946411e-01" nType="-99"/>
        </Node>
        <Node pos="r" depth="1" NCoef="0" IVar="2" Cut="3.1609426879882812e+02" cType="1" res="3.3120781183242798e-02" rms="4.4029781222343445e-01" purity="5.5371731519699097e-01" nType="0">
          <Node pos="l" depth="2" NCoef="0" IVar="-1" Cut="0.0000000000000000e+00" cType="1" res="7.3774793418124318e-04" rms="4.4109603762626648e-01" purity="6.1158370971679688e-01" nType="-99"/>
          <Node pos="r" depth="2" NCoef="0" IVar="-1" Cut="0.0000000000000000e+00" cType="1" res="-1.5498444554395974e-04" rms="4.3552413582801819e-01" purity="4.4236776232719421e-01" nType="-99"/>
        </Node>
      </Node>
    </BinaryTree>
    <BinaryTree type="DecisionTree" boostWeight="1.0000000000000000e+00" itree="813">
      <Node pos="s" depth="0" NCoef="0" IVar="6" Cut="6.2501806640625000e+02" cType="1" res="6.1317146755754948e-03" rms="4.4489705562591553e-01" purity="5.0488060712814331e-01" nType="0">
        <Node pos="l" depth="1" NCoef="0" IVar="2" Cut="3.0139321899414062e+02" cType="1" res="-1.0179333388805389e-02" rms="4.4761279225349426e-01" purity="4.6464508771896362e-01" nType="0">
          <Node pos="l" depth="2" NCoef="0" IVar="-1" Cut="0.0000000000000000e+00" cType="1" res="6.6525717556942254e-05" rms="4.5398011803627014e-01" purity="4.9321982264518738e-01" nType="-99"/>
          <Node pos="r" depth="2" NCoef="0" IVar="-1" Cut="0.0000000000000000e+00" cType="1" res="-1.8718447536230087e-03" rms="3.9391869306564331e-01" purity="2.8963047266006470e-01" nType="-99"/>
        </Node>
        <Node pos="r" depth="1" NCoef="0" IVar="7" Cut="-1.7945164814591408e-02" cType="1" res="7.3001913726329803e-02" rms="4.2712298035621643e-01" purity="6.6983360052108765e-01" nType="0">
          <Node pos="l" depth="2" NCoef="0" IVar="-1" Cut="0.0000000000000000e+00" cType="1" res="1.7040605889633298e-03" rms="4.0624952316284180e-01" purity="7.7508038282394409e-01" nType="-99"/>
          <Node pos="r" depth="2" NCoef="0" IVar="-1" Cut="0.0000000000000000e+00" cType="1" res="4.9120385665446520e-04" rms="4.3342658877372742e-01" purity="6.1426645517349243e-01" nType="-99"/>
        </Node>
      </Node>
    </BinaryTree>
    <BinaryTree type="DecisionTree" boostWeight="1.0000000000000000e+00" itree="814">
      <Node pos="s" depth="0" NCoef="0" IVar="6" Cut="7.0881512451171875e+02" cType="1" res="8.6295697838068008e-03" rms="4.4815146923065186e-01" purity="5.0768822431564331e-01" nType="0">
        <Node pos="l" depth="1" NCoef="0" IVar="2" Cut="3.0310675048828125e+02" cType="1" res="-1.4782656216993928e-03" rms="4.4753095507621765e-01" purity="4.8616987466812134e-01" nType="0">
          <Node pos="l" depth="2" NCoef="0" IVar="-1" Cut="0.0000000000000000e+00" cType="1" res="1.5078973956406116e-04" rms="4.5070225000381470e-01" purity="5.1486420631408691e-01" nType="-99"/>
          <Node pos="r" depth="2" NCoef="0" IVar="-1" Cut="0.0000000000000000e+00" cType="1" res="-1.3747015036642551e-03" rms="4.2032581567764282e-01" purity="3.1583032011985779e-01" nType="-99"/>
        </Node>
        <Node pos="r" depth="1" NCoef="0" IVar="0" Cut="6.6849966049194336e+00" cType="1" res="8.2397639751434326e-02" rms="4.4576734304428101e-01" purity="6.6473150253295898e-01" nType="0">
          <Node pos="l" depth="2" NCoef="0" IVar="-1" Cut="0.0000000000000000e+00" cType="1" res="1.4330344274640083e-03" rms="4.7949299216270447e-01" purity="5.9312760829925537e-01" nType="-99"/>
          <Node pos="r" depth="2" NCoef="0" IVar="-1" Cut="0.0000000000000000e+00" cType="1" res="5.1068270113319159e-04" rms="4.0313819050788879e-01" purity="7.3832935094833374e-01" nType="-99"/>
        </Node>
      </Node>
    </BinaryTree>
    <BinaryTree type="DecisionTree" boostWeight="1.0000000000000000e+00" itree="815">
      <Node pos="s" depth="0" NCoef="0" IVar="2" Cut="4.7347921752929688e+02" cType="1" res="9.4926729798316956e-03" rms="4.4913926720619202e-01" purity="5.1086694002151489e-01" nType="0">
        <Node pos="l" depth="1" NCoef="0" IVar="6" Cut="7.8556811523437500e+02" cType="1" res="1.5674976631999016e-02" rms="4.5066720247268677e-01" purity="5.2608168125152588e-01" nType="0">
          <Node pos="l" depth="2" NCoef="0" IVar="-1" Cut="0.0000000000000000e+00" cType="1" res="1.2426047760527581e-04" rms="4.5299366116523743e-01" purity="5.1077264547348022e-01" nType="-99"/>
          <Node pos="r" depth="2" NCoef="0" IVar="-1" Cut="0.0000000000000000e+00" cType="1" res="1.2899771099910140e-03" rms="4.0401971340179443e-01" purity="7.4926143884658813e-01" nType="-99"/>
        </Node>
        <Node pos="r" depth="1" NCoef="0" IVar="-1" Cut="0.0000000000000000e+00" cType="1" res="-2.1710761357098818e-03" rms="4.0199330449104309e-01" purity="2.2454680502414703e-01" nType="-99"/>
      </Node>
    </BinaryTree>
    <BinaryTree type="DecisionTree" boostWeight="1.0000000000000000e+00" itree="816">
      <Node pos="s" depth="0" NCoef="0" IVar="4" Cut="1.9997517764568329e-01" cType="1" res="1.0388889349997044e-02" rms="4.4228452444076538e-01" purity="5.0226509571075439e-01" nType="0">
        <Node pos="l" depth="1" NCoef="0" IVar="0" Cut="6.5422582626342773e+00" cType="1" res="-1.1276969453319907e-03" rms="4.4115126132965088e-01" purity="4.8317369818687439e-01" nType="0">
          <Node pos="l" depth="2" NCoef="0" IVar="-1" Cut="0.0000000000000000e+00" cType="1" res="-4.9635616596788168e-04" rms="4.3281731009483337e-01" purity="3.0486133694648743e-01" nType="-99"/>
          <Node pos="r" depth="2" NCoef="0" IVar="-1" Cut="0.0000000000000000e+00" cType="1" res="3.3782550599426031e-04" rms="4.4658169150352478e-01" purity="6.4000087976455688e-01" nType="-99"/>
        </Node>
        <Node pos="r" depth="1" NCoef="0" IVar="-1" Cut="0.0000000000000000e+00" cType="1" res="1.2646648101508617e-03" rms="4.4021609425544739e-01" purity="6.5924125909805298e-01" nType="-99"/>
      </Node>
    </BinaryTree>
    <BinaryTree type="DecisionTree" boostWeight="1.0000000000000000e+00" itree="817">
      <Node pos="s" depth="0" NCoef="0" IVar="1" Cut="1.7022836208343506e+00" cType="1" res="7.3694800958037376e-03" rms="4.4321963191032410e-01" purity="5.0037306547164917e-01" nType="0">
        <Node pos="l" depth="1" NCoef="0" IVar="1" Cut="1.4872727394104004e+00" cType="1" res="1.4002361334860325e-02" rms="4.5130273699760437e-01" purity="5.2594053745269775e-01" nType="0">
          <Node pos="l" depth="2" NCoef="0" IVar="-1" Cut="0.0000000000000000e+00" cType="1" res="6.6887376306112856e-05" rms="4.4892135262489319e-01" purity="5.3877735137939453e-01" nType="-99"/>
          <Node pos="r" depth="2" NCoef="0" IVar="-1" Cut="0.0000000000000000e+00" cType="1" res="1.9997593481093645e-03" rms="4.6579891443252563e-01" purity="3.7783756852149963e-01" nType="-99"/>
        </Node>
        <Node pos="r" depth="1" NCoef="0" IVar="-1" Cut="0.0000000000000000e+00" cType="1" res="-2.7919404674321413e-03" rms="2.6514345407485962e-01" purity="9.5749929547309875e-02" nType="-99"/>
      </Node>
    </BinaryTree>
    <BinaryTree type="DecisionTree" boostWeight="1.0000000000000000e+00" itree="818">
      <Node pos="s" depth="0" NCoef="0" IVar="5" Cut="1.0345016717910767e+00" cType="1" res="2.2735267411917448e-03" rms="4.4793963432312012e-01" purity="5.0459122657775879e-01" nType="0">
        <Node pos="l" depth="1" NCoef="0" IVar="7" Cut="-2.1352672949433327e-02" cType="1" res="1.5180916525423527e-02" rms="4.4994542002677917e-01" purity="5.3323805332183838e-01" nType="0">
          <Node pos="l" depth="2" NCoef="0" IVar="-1" Cut="0.0000000000000000e+00" cType="1" res="7.9517759149894118e-04" rms="4.3425133824348450e-01" purity="6.3529032468795776e-01" nType="-99"/>
          <Node pos="r" depth="2" NCoef="0" IVar="-1" Cut="0.0000000000000000e+00" cType="1" res="-1.6545396647416055e-04" rms="4.5637452602386475e-01" purity="4.7562840580940247e-01" nType="-99"/>
        </Node>
        <Node pos="r" depth="1" NCoef="0" IVar="4" Cut="-3.0422403942793608e-03" cType="1" res="-9.1961622238159180e-02" rms="4.2119422554969788e-01" purity="2.9544505476951599e-01" nType="0">
          <Node pos="l" depth="2" NCoef="0" IVar="-1" Cut="0.0000000000000000e+00" cType="1" res="-4.2442380799911916e-04" rms="4.0362876653671265e-01" purity="2.9537367820739746e-01" nType="-99"/>
          <Node pos="r" depth="2" NCoef="0" IVar="-1" Cut="0.0000000000000000e+00" cType="1" res="-2.3774232249706984e-03" rms="4.2712965607643127e-01" purity="2.9550063610076904e-01" nType="-99"/>
        </Node>
      </Node>
    </BinaryTree>
    <BinaryTree type="DecisionTree" boostWeight="1.0000000000000000e+00" itree="819">
      <Node pos="s" depth="0" NCoef="0" IVar="6" Cut="6.5089837646484375e+02" cType="1" res="1.0382694890722632e-03" rms="4.4506472349166870e-01" purity="4.9625432491302490e-01" nType="0">
        <Node pos="l" depth="1" NCoef="0" IVar="1" Cut="1.1329823732376099e+00" cType="1" res="-9.9614607170224190e-03" rms="4.4631406664848328e-01" purity="4.7119414806365967e-01" nType="0">
          <Node pos="l" depth="2" NCoef="0" IVar="-1" Cut="0.0000000000000000e+00" cType="1" res="1.1483312846394256e-04" rms="4.6026036143302917e-01" purity="5.5697458982467651e-01" nType="-99"/>
          <Node pos="r" depth="2" NCoef="0" IVar="-1" Cut="0.0000000000000000e+00" cType="1" res="-9.7439461387693882e-04" rms="4.0808367729187012e-01" purity="2.6882842183113098e-01" nType="-99"/>
        </Node>
        <Node pos="r" depth="1" NCoef="0" IVar="4" Cut="1.0972394607961178e-02" cType="1" res="6.4607419073581696e-02" rms="4.3232679367065430e-01" purity="6.4108121395111084e-01" nType="0">
          <Node pos="l" depth="2" NCoef="0" IVar="-1" Cut="0.0000000000000000e+00" cType="1" res="3.6509867641143501e-04" rms="4.5864674448966980e-01" purity="5.5255538225173950e-01" nType="-99"/>
          <Node pos="r" depth="2" NCoef="0" IVar="-1" Cut="0.0000000000000000e+00" cType="1" res="1.3580768136307597e-03" rms="3.9657679200172424e-01" purity="7.4048686027526855e-01" nType="-99"/>
        </Node>
      </Node>
    </BinaryTree>
    <BinaryTree type="DecisionTree" boostWeight="1.0000000000000000e+00" itree="820">
      <Node pos="s" depth="0" NCoef="0" IVar="3" Cut="1.0533740997314453e+02" cType="1" res="1.8620401620864868e-02" rms="4.4747325778007507e-01" purity="5.0903922319412231e-01" nType="0">
        <Node pos="l" depth="1" NCoef="0" IVar="1" Cut="4.1110727190971375e-01" cType="1" res="3.2118363305926323e-03" rms="4.5092517137527466e-01" purity="4.7746598720550537e-01" nType="0">
          <Node pos="l" depth="2" NCoef="0" IVar="-1" Cut="0.0000000000000000e+00" cType="1" res="8.4907497512176633e-04" rms="4.2350378632545471e-01" purity="6.7034536600112915e-01" nType="-99"/>
          <Node pos="r" depth="2" NCoef="0" IVar="-1" Cut="0.0000000000000000e+00" cType="1" res="-6.0769922129111364e-05" rms="4.5317068696022034e-01" purity="4.5642548799514771e-01" nType="-99"/>
        </Node>
        <Node pos="r" depth="1" NCoef="0" IVar="3" Cut="1.1717549133300781e+02" cType="1" res="7.2394877672195435e-02" rms="4.3091657757759094e-01" purity="6.1922699213027954e-01" nType="0">
          <Node pos="l" depth="2" NCoef="0" IVar="-1" Cut="0.0000000000000000e+00" cType="1" res="1.7795130843296647e-03" rms="4.0953776240348816e-01" purity="6.9377869367599487e-01" nType="-99"/>
          <Node pos="r" depth="2" NCoef="0" IVar="-1" Cut="0.0000000000000000e+00" cType="1" res="5.7861307868734002e-04" rms="4.3775781989097595e-01" purity="5.8289998769760132e-01" nType="-99"/>
        </Node>
      </Node>
    </BinaryTree>
    <BinaryTree type="DecisionTree" boostWeight="1.0000000000000000e+00" itree="821">
      <Node pos="s" depth="0" NCoef="0" IVar="2" Cut="1.5672227478027344e+02" cType="1" res="-7.2003826498985291e-03" rms="4.4811984896659851e-01" purity="4.8983448743820190e-01" nType="0">
        <Node pos="l" depth="1" NCoef="0" IVar="6" Cut="4.2792385864257812e+02" cType="1" res="-6.7913249135017395e-02" rms="4.5484963059425354e-01" purity="3.7864419817924500e-01" nType="0">
          <Node pos="l" depth="2" NCoef="0" IVar="-1" Cut="0.0000000000000000e+00" cType="1" res="-5.0370453391224146e-04" rms="4.5151382684707642e-01" purity="3.9341574907302856e-01" nType="-99"/>
          <Node pos="r" depth="2" NCoef="0" IVar="-1" Cut="0.0000000000000000e+00" cType="1" res="-1.9026579102501273e-03" rms="4.5419719815254211e-01" purity="3.4513050317764282e-01" nType="-99"/>
        </Node>
        <Node pos="r" depth="1" NCoef="0" IVar="4" Cut="-1.0490711778402328e-01" cType="1" res="6.6286777146160603e-03" rms="4.4541710615158081e-01" purity="5.1516121625900269e-01" nType="0">
          <Node pos="l" depth="2" NCoef="0" IVar="-1" Cut="0.0000000000000000e+00" cType="1" res="8.7570882169529796e-04" rms="4.3025001883506775e-01" purity="4.9324089288711548e-01" nType="-99"/>
          <Node pos="r" depth="2" NCoef="0" IVar="-1" Cut="0.0000000000000000e+00" cType="1" res="-6.3621737353969365e-05" rms="4.4765594601631165e-01" purity="5.1968944072723389e-01" nType="-99"/>
        </Node>
      </Node>
    </BinaryTree>
    <BinaryTree type="DecisionTree" boostWeight="1.0000000000000000e+00" itree="822">
      <Node pos="s" depth="0" NCoef="0" IVar="6" Cut="6.2501806640625000e+02" cType="1" res="-1.9930454436689615e-03" rms="4.4092503190040588e-01" purity="4.8842024803161621e-01" nType="0">
        <Node pos="l" depth="1" NCoef="0" IVar="0" Cut="7.7758688926696777e+00" cType="1" res="-1.7640590667724609e-02" rms="4.3962648510932922e-01" purity="4.5379802584648132e-01" nType="0">
          <Node pos="l" depth="2" NCoef="0" IVar="-1" Cut="0.0000000000000000e+00" cType="1" res="-5.0159683451056480e-04" rms="4.3944492936134338e-01" purity="3.7812647223472595e-01" nType="-99"/>
          <Node pos="r" depth="2" NCoef="0" IVar="-1" Cut="0.0000000000000000e+00" cType="1" res="5.2126107038930058e-04" rms="4.3543913960456848e-01" purity="7.1369767189025879e-01" nType="-99"/>
        </Node>
        <Node pos="r" depth="1" NCoef="0" IVar="4" Cut="-5.6379646062850952e-02" cType="1" res="6.8975150585174561e-02" rms="4.3983390927314758e-01" purity="6.4544641971588135e-01" nType="0">
          <Node pos="l" depth="2" NCoef="0" IVar="-1" Cut="0.0000000000000000e+00" cType="1" res="1.7962445272132754e-03" rms="4.2833966016769409e-01" purity="6.6784918308258057e-01" nType="-99"/>
          <Node pos="r" depth="2" NCoef="0" IVar="-1" Cut="0.0000000000000000e+00" cType="1" res="4.8721148050390184e-04" rms="4.4138428568840027e-01" purity="6.3500839471817017e-01" nType="-99"/>
        </Node>
      </Node>
    </BinaryTree>
    <BinaryTree type="DecisionTree" boostWeight="1.0000000000000000e+00" itree="823">
      <Node pos="s" depth="0" NCoef="0" IVar="0" Cut="7.5298333168029785e+00" cType="1" res="8.0680632963776588e-03" rms="4.4760629534721375e-01" purity="5.0318664312362671e-01" nType="0">
        <Node pos="l" depth="1" NCoef="0" IVar="2" Cut="3.6553775024414062e+02" cType="1" res="-1.6276895999908447e-02" rms="4.5700171589851379e-01" purity="4.0774703025817871e-01" nType="0">
          <Node pos="l" depth="2" NCoef="0" IVar="-1" Cut="0.0000000000000000e+00" cType="1" res="-6.9527908635791391e-05" rms="4.6475586295127869e-01" purity="4.2928519845008850e-01" nType="-99"/>
          <Node pos="r" depth="2" NCoef="0" IVar="-1" Cut="0.0000000000000000e+00" cType="1" res="-2.1094132680445910e-03" rms="3.7246909737586975e-01" purity="2.2616948187351227e-01" nType="-99"/>
        </Node>
        <Node pos="r" depth="1" NCoef="0" IVar="4" Cut="-6.2670946121215820e-02" cType="1" res="7.1006506681442261e-02" rms="4.1579464077949524e-01" purity="7.4992442131042480e-01" nType="0">
          <Node pos="l" depth="2" NCoef="0" IVar="-1" Cut="0.0000000000000000e+00" cType="1" res="2.8134483727626503e-04" rms="4.5004770159721375e-01" purity="6.4876931905746460e-01" nType="-99"/>
          <Node pos="r" depth="2" NCoef="0" IVar="-1" Cut="0.0000000000000000e+00" cType="1" res="1.1691998224705458e-03" rms="3.9914041757583618e-01" purity="7.9146349430084229e-01" nType="-99"/>
        </Node>
      </Node>
    </BinaryTree>
    <BinaryTree type="DecisionTree" boostWeight="1.0000000000000000e+00" itree="824">
      <Node pos="s" depth="0" NCoef="0" IVar="2" Cut="1.2994856262207031e+02" cType="1" res="1.4931621961295605e-02" rms="4.4836238026618958e-01" purity="5.0993388891220093e-01" nType="0">
        <Node pos="l" depth="1" NCoef="0" IVar="-1" Cut="0.0000000000000000e+00" cType="1" res="-1.3036830350756645e-03" rms="4.2190301418304443e-01" purity="3.5552638769149780e-01" nType="-99"/>
        <Node pos="r" depth="1" NCoef="0" IVar="4" Cut="-1.2075630575418472e-01" cType="1" res="2.4774035438895226e-02" rms="4.4948458671569824e-01" purity="5.2431446313858032e-01" nType="0">
          <Node pos="l" depth="2" NCoef="0" IVar="-1" Cut="0.0000000000000000e+00" cType="1" res="-1.1684451019391418e-03" rms="3.9047864079475403e-01" purity="3.4786134958267212e-01" nType="-99"/>
          <Node pos="r" depth="2" NCoef="0" IVar="-1" Cut="0.0000000000000000e+00" cType="1" res="4.6942578046582639e-04" rms="4.5401862263679504e-01" purity="5.4286402463912964e-01" nType="-99"/>
        </Node>
      </Node>
    </BinaryTree>
    <BinaryTree type="DecisionTree" boostWeight="1.0000000000000000e+00" itree="825">
      <Node pos="s" depth="0" NCoef="0" IVar="3" Cut="1.0291906738281250e+02" cType="1" res="1.2457414995878935e-03" rms="4.4507414102554321e-01" purity="4.9788126349449158e-01" nType="0">
        <Node pos="l" depth="1" NCoef="0" IVar="4" Cut="-1.1910643428564072e-01" cType="1" res="-1.5019877813756466e-02" rms="4.4699868559837341e-01" purity="4.6075141429901123e-01" nType="0">
          <Node pos="l" depth="2" NCoef="0" IVar="-1" Cut="0.0000000000000000e+00" cType="1" res="-1.7078461823984981e-03" rms="4.1114202141761780e-01" purity="2.5808811187744141e-01" nType="-99"/>
          <Node pos="r" depth="2" NCoef="0" IVar="-1" Cut="0.0000000000000000e+00" cType="1" res="-1.0193165508098900e-04" rms="4.4968754053115845e-01" purity="4.8085951805114746e-01" nType="-99"/>
        </Node>
        <Node pos="r" depth="1" NCoef="0" IVar="4" Cut="-6.0533639043569565e-02" cType="1" res="4.5393127948045731e-02" rms="4.3676549196243286e-01" purity="5.9865731000900269e-01" nType="0">
          <Node pos="l" depth="2" NCoef="0" IVar="-1" Cut="0.0000000000000000e+00" cType="1" res="1.2194613227620721e-03" rms="4.4852748513221741e-01" purity="5.9610009193420410e-01" nType="-99"/>
          <Node pos="r" depth="2" NCoef="0" IVar="-1" Cut="0.0000000000000000e+00" cType="1" res="2.2544749663211405e-04" rms="4.2698529362678528e-01" purity="6.0018891096115112e-01" nType="-99"/>
        </Node>
      </Node>
    </BinaryTree>
    <BinaryTree type="DecisionTree" boostWeight="1.0000000000000000e+00" itree="826">
      <Node pos="s" depth="0" NCoef="0" IVar="5" Cut="1.0052011013031006e+00" cType="1" res="-4.3286234140396118e-03" rms="4.4739744067192078e-01" purity="4.9763345718383789e-01" nType="0">
        <Node pos="l" depth="1" NCoef="0" IVar="0" Cut="8.8497438430786133e+00" cType="1" res="6.8343654274940491e-03" rms="4.5078021287918091e-01" purity="5.2637481689453125e-01" nType="0">
          <Node pos="l" depth="2" NCoef="0" IVar="-1" Cut="0.0000000000000000e+00" cType="1" res="-2.7117775971419178e-05" rms="4.5890086889266968e-01" purity="4.9521622061729431e-01" nType="-99"/>
          <Node pos="r" depth="2" NCoef="0" IVar="-1" Cut="0.0000000000000000e+00" cType="1" res="1.2275094632059336e-03" rms="3.5027337074279785e-01" purity="8.3109003305435181e-01" nType="-99"/>
        </Node>
        <Node pos="r" depth="1" NCoef="0" IVar="1" Cut="1.2546193599700928e+00" cType="1" res="-7.9879567027091980e-02" rms="4.1599258780479431e-01" purity="3.0311226844787598e-01" nType="0">
          <Node pos="l" depth="2" NCoef="0" IVar="-1" Cut="0.0000000000000000e+00" cType="1" res="-6.0229946393519640e-04" rms="4.7277590632438660e-01" purity="4.2977142333984375e-01" nType="-99"/>
          <Node pos="r" depth="2" NCoef="0" IVar="-1" Cut="0.0000000000000000e+00" cType="1" res="-2.9012965969741344e-03" rms="3.2046508789062500e-01" purity="1.3691106438636780e-01" nType="-99"/>
        </Node>
      </Node>
    </BinaryTree>
    <BinaryTree type="DecisionTree" boostWeight="1.0000000000000000e+00" itree="827">
      <Node pos="s" depth="0" NCoef="0" IVar="3" Cut="1.5214227294921875e+02" cType="1" res="-2.1272788289934397e-03" rms="4.4837483763694763e-01" purity="4.9701145291328430e-01" nType="0">
        <Node pos="l" depth="1" NCoef="0" IVar="0" Cut="5.7918081283569336e+00" cType="1" res="-1.0084197856485844e-02" rms="4.5122209191322327e-01" purity="4.8403018712997437e-01" nType="0">
          <Node pos="l" depth="2" NCoef="0" IVar="-1" Cut="0.0000000000000000e+00" cType="1" res="-1.1272543342784047e-03" rms="3.9915260672569275e-01" purity="2.3499521613121033e-01" nType="-99"/>
          <Node pos="r" depth="2" NCoef="0" IVar="-1" Cut="0.0000000000000000e+00" cType="1" res="1.3158730871509761e-04" rms="4.6704408526420593e-01" purity="5.7438367605209351e-01" nType="-99"/>
        </Node>
        <Node pos="r" depth="1" NCoef="0" IVar="-1" Cut="0.0000000000000000e+00" cType="1" res="1.5299979131668806e-03" rms="3.8099664449691772e-01" purity="6.9818729162216187e-01" nType="-99"/>
      </Node>
    </BinaryTree>
    <BinaryTree type="DecisionTree" boostWeight="1.0000000000000000e+00" itree="828">
      <Node pos="s" depth="0" NCoef="0" IVar="2" Cut="2.0832670593261719e+02" cType="1" res="-1.6642481088638306e-02" rms="4.4861200451850891e-01" purity="4.6732559800148010e-01" nType="0">
        <Node pos="l" depth="1" NCoef="0" IVar="5" Cut="6.6871386766433716e-01" cType="1" res="-5.1861088722944260e-02" rms="4.5583301782608032e-01" purity="4.0979489684104919e-01" nType="0">
          <Node pos="l" depth="2" NCoef="0" IVar="-1" Cut="0.0000000000000000e+00" cType="1" res="-1.3097786577418447e-03" rms="4.4443976879119873e-01" purity="3.8928642868995667e-01" nType="-99"/>
          <Node pos="r" depth="2" NCoef="0" IVar="-1" Cut="0.0000000000000000e+00" cType="1" res="4.9861631850944832e-05" rms="4.6451166272163391e-01" purity="4.3663823604583740e-01" nType="-99"/>
        </Node>
        <Node pos="r" depth="1" NCoef="0" IVar="3" Cut="5.3225204467773438e+01" cType="1" res="1.6599001362919807e-02" rms="4.3910440802574158e-01" purity="5.2162665128707886e-01" nType="0">
          <Node pos="l" depth="2" NCoef="0" IVar="-1" Cut="0.0000000000000000e+00" cType="1" res="-1.6190723981708288e-03" rms="4.0230137109756470e-01" purity="3.5979434847831726e-01" nType="-99"/>
          <Node pos="r" depth="2" NCoef="0" IVar="-1" Cut="0.0000000000000000e+00" cType="1" res="4.6450179070234299e-04" rms="4.4161099195480347e-01" purity="5.4356229305267334e-01" nType="-99"/>
        </Node>
      </Node>
    </BinaryTree>
    <BinaryTree type="DecisionTree" boostWeight="1.0000000000000000e+00" itree="829">
      <Node pos="s" depth="0" NCoef="0" IVar="1" Cut="6.3327682018280029e-01" cType="1" res="-1.0362883098423481e-02" rms="4.4554024934768677e-01" purity="4.8262274265289307e-01" nType="0">
        <Node pos="l" depth="1" NCoef="0" IVar="1" Cut="5.5734473466873169e-01" cType="1" res="5.8101907372474670e-02" rms="4.5634651184082031e-01" purity="6.4574432373046875e-01" nType="0">
          <Node pos="l" depth="2" NCoef="0" IVar="-1" Cut="0.0000000000000000e+00" cType="1" res="2.2327266924548894e-04" rms="4.5125088095664978e-01" purity="6.1257851123809814e-01" nType="-99"/>
          <Node pos="r" depth="2" NCoef="0" IVar="-1" Cut="0.0000000000000000e+00" cType="1" res="1.7751473933458328e-03" rms="4.5386481285095215e-01" purity="7.2384357452392578e-01" nType="-99"/>
        </Node>
        <Node pos="r" depth="1" NCoef="0" IVar="0" Cut="7.7005014419555664e+00" cType="1" res="-3.0980104580521584e-02" rms="4.4015294313430786e-01" purity="4.3350091576576233e-01" nType="0">
          <Node pos="l" depth="2" NCoef="0" IVar="-1" Cut="0.0000000000000000e+00" cType="1" res="-6.8470416590571404e-04" rms="4.3872666358947754e-01" purity="3.5584408044815063e-01" nType="-99"/>
          <Node pos="r" depth="2" NCoef="0" IVar="-1" Cut="0.0000000000000000e+00" cType="1" res="2.2850629466120154e-04" rms="4.4123619794845581e-01" purity="6.8096798658370972e-01" nType="-99"/>
        </Node>
      </Node>
    </BinaryTree>
    <BinaryTree type="DecisionTree" boostWeight="1.0000000000000000e+00" itree="830">
      <Node pos="s" depth="0" NCoef="0" IVar="0" Cut="8.2616701126098633e+00" cType="1" res="2.0133904181420803e-03" rms="4.4623973965644836e-01" purity="4.9610504508018494e-01" nType="0">
        <Node pos="l" depth="1" NCoef="0" IVar="1" Cut="1.0570029020309448e+00" cType="1" res="-9.2728706076741219e-03" rms="4.5211726427078247e-01" purity="4.4584769010543823e-01" nType="0">
          <Node pos="l" depth="2" NCoef="0" IVar="-1" Cut="0.0000000000000000e+00" cType="1" res="1.4882897085044533e-04" rms="4.6967890858650208e-01" purity="5.5108225345611572e-01" nType="-99"/>
          <Node pos="r" depth="2" NCoef="0" IVar="-1" Cut="0.0000000000000000e+00" cType="1" res="-7.4934680014848709e-04" rms="4.2048189043998718e-01" purity="2.7844554185867310e-01" nType="-99"/>
        </Node>
        <Node pos="r" depth="1" NCoef="0" IVar="3" Cut="8.5188461303710938e+01" cType="1" res="6.2546052038669586e-02" rms="4.0799885988235474e-01" purity="7.6565498113632202e-01" nType="0">
          <Node pos="l" depth="2" NCoef="0" IVar="-1" Cut="0.0000000000000000e+00" cType="1" res="-6.3934952777344733e-05" rms="4.5584940910339355e-01" purity="6.7704081535339355e-01" nType="-99"/>
          <Node pos="r" depth="2" NCoef="0" IVar="-1" Cut="0.0000000000000000e+00" cType="1" res="1.8517409916967154e-03" rms="3.2767781615257263e-01" purity="8.6813777685165405e-01" nType="-99"/>
        </Node>
      </Node>
    </BinaryTree>
  </Weights>
</MethodSetup>
