<?xml version="1.0"?>
<MethodSetup Method="BDT::BDTG">
  <GeneralInfo>
    <Info name="TMVA Release" value="4.2.1 [262657]"/>
    <Info name="ROOT Release" value="6.06/01 [394753]"/>
    <Info name="Creator" value="kelmorab"/>
    <Info name="Date" value="Sun Oct  8 13:36:06 2017"/>
    <Info name="Host" value="Linux vocms0301.cern.ch 2.6.32-642.11.1.el6.x86_64 #1 SMP Wed Nov 16 09:40:09 CET 2016 x86_64 x86_64 x86_64 GNU/Linux"/>
    <Info name="Dir" value="/nfs/dust/cms/user/kelmorab/Spring17Training/3makeHistosAndCards"/>
    <Info name="Training events" value="13137"/>
    <Info name="TrainingTime" value="1.46606450e+01"/>
    <Info name="AnalysisType" value="Classification"/>
  </GeneralInfo>
  <Options>
    <Option name="V" modified="Yes">False</Option>
    <Option name="VerbosityLevel" modified="No">Default</Option>
    <Option name="VarTransform" modified="No">None</Option>
    <Option name="H" modified="Yes">False</Option>
    <Option name="CreateMVAPdfs" modified="No">False</Option>
    <Option name="IgnoreNegWeightsInTraining" modified="No">False</Option>
    <Option name="NTrees" modified="Yes">875</Option>
    <Option name="MaxDepth" modified="Yes">2</Option>
    <Option name="MinNodeSize" modified="No">5%</Option>
    <Option name="nCuts" modified="Yes">30</Option>
    <Option name="BoostType" modified="Yes">Grad</Option>
    <Option name="AdaBoostR2Loss" modified="No">quadratic</Option>
    <Option name="UseBaggedBoost" modified="Yes">True</Option>
    <Option name="Shrinkage" modified="Yes">2.100000e-02</Option>
    <Option name="AdaBoostBeta" modified="No">5.000000e-01</Option>
    <Option name="UseRandomisedTrees" modified="No">False</Option>
    <Option name="UseNvars" modified="No">3</Option>
    <Option name="UsePoissonNvars" modified="No">True</Option>
    <Option name="BaggedSampleFraction" modified="No">4.700000e-01</Option>
    <Option name="UseYesNoLeaf" modified="No">True</Option>
    <Option name="NegWeightTreatment" modified="Yes">ignorenegweightsintraining</Option>
    <Option name="Css" modified="No">1.000000e+00</Option>
    <Option name="Cts_sb" modified="No">1.000000e+00</Option>
    <Option name="Ctb_ss" modified="No">1.000000e+00</Option>
    <Option name="Cbb" modified="No">1.000000e+00</Option>
    <Option name="NodePurityLimit" modified="No">5.000000e-01</Option>
    <Option name="SeparationType" modified="No">giniindex</Option>
    <Option name="DoBoostMonitor" modified="No">False</Option>
    <Option name="UseFisherCuts" modified="No">False</Option>
    <Option name="MinLinCorrForFisher" modified="No">8.000000e-01</Option>
    <Option name="UseExclusiveVars" modified="No">False</Option>
    <Option name="DoPreselection" modified="No">False</Option>
    <Option name="SigToBkgFraction" modified="No">1.000000e+00</Option>
    <Option name="PruneMethod" modified="No">nopruning</Option>
    <Option name="PruneStrength" modified="No">0.000000e+00</Option>
    <Option name="PruningValFraction" modified="No">5.000000e-01</Option>
    <Option name="nEventsMin" modified="No">0</Option>
    <Option name="UseBaggedGrad" modified="No">False</Option>
    <Option name="GradBaggingFraction" modified="Yes">4.700000e-01</Option>
    <Option name="UseNTrainEvents" modified="No">0</Option>
    <Option name="NNodesMax" modified="No">0</Option>
  </Options>
  <Variables NVar="8">
    <Variable VarIndex="0" Expression="closest_tagged_dijet_mass" Label="closest_tagged_dijet_mass" Title="closest_tagged_dijet_mass" Unit="" Internal="closest_tagged_dijet_mass" Type="F" Min="1.77633228e+01" Max="6.70629944e+02"/>
    <Variable VarIndex="1" Expression="avg_dr_tagged_jets" Label="avg_dr_tagged_jets" Title="avg_dr_tagged_jets" Unit="" Internal="avg_dr_tagged_jets" Type="F" Min="7.00930953e-01" Max="3.83936238e+00"/>
    <Variable VarIndex="2" Expression="avg_btag_disc_btags" Label="avg_btag_disc_btags" Title="avg_btag_disc_btags" Unit="" Internal="avg_btag_disc_btags" Type="F" Min="8.54787707e-01" Max="9.98781383e-01"/>
    <Variable VarIndex="3" Expression="h1" Label="h1" Title="h1" Unit="" Internal="h1" Type="F" Min="-1.97550237e-01" Max="3.55367601e-01"/>
    <Variable VarIndex="4" Expression="Evt_Deta_JetsAverage" Label="Evt_Deta_JetsAverage" Title="Evt_Deta_JetsAverage" Unit="" Internal="Evt_Deta_JetsAverage" Type="F" Min="8.02555531e-02" Max="2.64934540e+00"/>
    <Variable VarIndex="5" Expression="maxeta_jet_jet" Label="maxeta_jet_jet" Title="maxeta_jet_jet" Unit="" Internal="maxeta_jet_jet" Type="F" Min="7.60525167e-02" Max="1.81319296e+00"/>
    <Variable VarIndex="6" Expression="blr_transformed" Label="blr_transformed" Title="blr_transformed" Unit="" Internal="blr_transformed" Type="F" Min="3.42756391e+00" Max="1.16298656e+01"/>
    <Variable VarIndex="7" Expression="sphericity" Label="sphericity" Title="sphericity" Unit="" Internal="sphericity" Type="F" Min="1.29982391e-02" Max="9.18902814e-01"/>
  </Variables>
  <Spectators NSpec="0"/>
  <Classes NClass="2">
    <Class Name="Signal" Index="0"/>
    <Class Name="Background" Index="1"/>
  </Classes>
  <Transformations NTransformations="0"/>
  <MVAPdfs/>
  <Weights NTrees="875" AnalysisType="1">
    <BinaryTree type="DecisionTree" boostWeight="1.0000000000000000e+00" itree="0">
      <Node pos="s" depth="0" NCoef="0" IVar="4" Cut="1.1934288740158081e+00" cType="1" res="-5.9678335674107075e-03" rms="4.9996438622474670e-01" purity="4.9403214454650879e-01" nType="0">
        <Node pos="l" depth="1" NCoef="0" IVar="6" Cut="6.7711753845214844e+00" cType="1" res="8.2001738250255585e-02" rms="4.9322986602783203e-01" purity="5.8200174570083618e-01" nType="0">
          <Node pos="l" depth="2" NCoef="0" IVar="-1" Cut="0.0000000000000000e+00" cType="1" res="-2.2240227553993464e-03" rms="4.9603870511054993e-01" purity="4.3718591332435608e-01" nType="-99"/>
          <Node pos="r" depth="2" NCoef="0" IVar="-1" Cut="0.0000000000000000e+00" cType="1" res="7.4659190140664577e-03" rms="4.5612749457359314e-01" purity="7.0481133460998535e-01" nType="-99"/>
        </Node>
        <Node pos="r" depth="1" NCoef="0" IVar="2" Cut="9.3946617841720581e-01" cType="1" res="-2.0283155143260956e-01" rms="4.5701134204864502e-01" purity="2.9716849327087402e-01" nType="0">
          <Node pos="l" depth="2" NCoef="0" IVar="-1" Cut="0.0000000000000000e+00" cType="1" res="-1.1763573624193668e-02" rms="3.9202964305877686e-01" purity="1.8965701758861542e-01" nType="-99"/>
          <Node pos="r" depth="2" NCoef="0" IVar="-1" Cut="0.0000000000000000e+00" cType="1" res="-5.2855703979730606e-03" rms="4.8182377219200134e-01" purity="3.6641162633895874e-01" nType="-99"/>
        </Node>
      </Node>
    </BinaryTree>
    <BinaryTree type="DecisionTree" boostWeight="1.0000000000000000e+00" itree="1">
      <Node pos="s" depth="0" NCoef="0" IVar="4" Cut="1.0276795625686646e+00" cType="1" res="2.3643518798053265e-03" rms="4.9891498684883118e-01" purity="5.0210726261138916e-01" nType="0">
        <Node pos="l" depth="1" NCoef="0" IVar="6" Cut="6.7117891311645508e+00" cType="1" res="1.2413687258958817e-01" rms="4.8338559269905090e-01" purity="6.2568807601928711e-01" nType="0">
          <Node pos="l" depth="2" NCoef="0" IVar="-1" Cut="0.0000000000000000e+00" cType="1" res="-1.6243975551333278e-04" rms="4.9996608495712280e-01" purity="4.9417829513549805e-01" nType="-99"/>
          <Node pos="r" depth="2" NCoef="0" IVar="-1" Cut="0.0000000000000000e+00" cType="1" res="7.9625109210610390e-03" rms="4.4632586836814880e-01" purity="7.2531265020370483e-01" nType="-99"/>
        </Node>
        <Node pos="r" depth="1" NCoef="0" IVar="6" Cut="7.8194913864135742e+00" cType="1" res="-1.3512842357158661e-01" rms="4.8009672760963440e-01" purity="3.6257272958755493e-01" nType="0">
          <Node pos="l" depth="2" NCoef="0" IVar="-1" Cut="0.0000000000000000e+00" cType="1" res="-7.2676292620599270e-03" rms="4.6013739705085754e-01" purity="3.0526652932167053e-01" nType="-99"/>
          <Node pos="r" depth="2" NCoef="0" IVar="-1" Cut="0.0000000000000000e+00" cType="1" res="1.7394197639077902e-03" rms="4.9739003181457520e-01" purity="5.4429709911346436e-01" nType="-99"/>
        </Node>
      </Node>
    </BinaryTree>
    <BinaryTree type="DecisionTree" boostWeight="1.0000000000000000e+00" itree="2">
      <Node pos="s" depth="0" NCoef="0" IVar="4" Cut="1.1306203603744507e+00" cType="1" res="1.4790777349844575e-03" rms="4.9789839982986450e-01" purity="5.0123673677444458e-01" nType="0">
        <Node pos="l" depth="1" NCoef="0" IVar="6" Cut="6.7954416275024414e+00" cType="1" res="9.5143631100654602e-02" rms="4.8909780383110046e-01" purity="5.9822648763656616e-01" nType="0">
          <Node pos="l" depth="2" NCoef="0" IVar="-1" Cut="0.0000000000000000e+00" cType="1" res="-9.5762021373957396e-04" rms="4.9902099370956421e-01" purity="4.7166886925697327e-01" nType="-99"/>
          <Node pos="r" depth="2" NCoef="0" IVar="-1" Cut="0.0000000000000000e+00" cType="1" res="6.9423099048435688e-03" rms="4.5685610175132751e-01" purity="7.0266717672348022e-01" nType="-99"/>
        </Node>
        <Node pos="r" depth="1" NCoef="0" IVar="6" Cut="7.0882272720336914e+00" cType="1" res="-1.5806971490383148e-01" rms="4.7148594260215759e-01" purity="3.3602380752563477e-01" nType="0">
          <Node pos="l" depth="2" NCoef="0" IVar="-1" Cut="0.0000000000000000e+00" cType="1" res="-9.0385470539331436e-03" rms="4.3408140540122986e-01" purity="2.5221636891365051e-01" nType="-99"/>
          <Node pos="r" depth="2" NCoef="0" IVar="-1" Cut="0.0000000000000000e+00" cType="1" res="-7.8060448868200183e-04" rms="4.9904063344001770e-01" purity="4.7732251882553101e-01" nType="-99"/>
        </Node>
      </Node>
    </BinaryTree>
    <BinaryTree type="DecisionTree" boostWeight="1.0000000000000000e+00" itree="3">
      <Node pos="s" depth="0" NCoef="0" IVar="4" Cut="1.0548297166824341e+00" cType="1" res="3.4603395033627748e-03" rms="4.9687650799751282e-01" purity="5.0324130058288574e-01" nType="0">
        <Node pos="l" depth="1" NCoef="0" IVar="2" Cut="9.4200515747070312e-01" cType="1" res="1.2472020834684372e-01" rms="4.8148509860038757e-01" purity="6.2993323802947998e-01" nType="0">
          <Node pos="l" depth="2" NCoef="0" IVar="-1" Cut="0.0000000000000000e+00" cType="1" res="-7.8679429134353995e-04" rms="4.9922415614128113e-01" purity="4.7607925534248352e-01" nType="-99"/>
          <Node pos="r" depth="2" NCoef="0" IVar="-1" Cut="0.0000000000000000e+00" cType="1" res="6.9935577921569347e-03" rms="4.5604148507118225e-01" purity="7.0406806468963623e-01" nType="-99"/>
        </Node>
        <Node pos="r" depth="1" NCoef="0" IVar="2" Cut="9.5455098152160645e-01" cType="1" res="-1.5610100328922272e-01" rms="4.7105494141578674e-01" purity="3.3653211593627930e-01" nType="0">
          <Node pos="l" depth="2" NCoef="0" IVar="-1" Cut="0.0000000000000000e+00" cType="1" res="-8.6547872051596642e-03" rms="4.3847203254699707e-01" purity="2.6038315892219543e-01" nType="-99"/>
          <Node pos="r" depth="2" NCoef="0" IVar="-1" Cut="0.0000000000000000e+00" cType="1" res="-1.8615724984556437e-03" rms="4.9650380015373230e-01" purity="4.5038712024688721e-01" nType="-99"/>
        </Node>
      </Node>
    </BinaryTree>
    <BinaryTree type="DecisionTree" boostWeight="1.0000000000000000e+00" itree="4">
      <Node pos="s" depth="0" NCoef="0" IVar="4" Cut="1.3233635425567627e+00" cType="1" res="-6.9424491375684738e-03" rms="4.9602183699607849e-01" purity="4.9282452464103699e-01" nType="0">
        <Node pos="l" depth="1" NCoef="0" IVar="6" Cut="6.6416287422180176e+00" cType="1" res="5.7123120874166489e-02" rms="4.9363297224044800e-01" purity="5.6068378686904907e-01" nType="0">
          <Node pos="l" depth="2" NCoef="0" IVar="-1" Cut="0.0000000000000000e+00" cType="1" res="-2.6750031393021345e-03" rms="4.9248117208480835e-01" purity="4.1963642835617065e-01" nType="-99"/>
          <Node pos="r" depth="2" NCoef="0" IVar="-1" Cut="0.0000000000000000e+00" cType="1" res="5.4715489968657494e-03" rms="4.7233134508132935e-01" purity="6.6114950180053711e-01" nType="-99"/>
        </Node>
        <Node pos="r" depth="1" NCoef="0" IVar="6" Cut="7.5461745262145996e+00" cType="1" res="-2.1942131221294403e-01" rms="4.4172251224517822e-01" purity="2.6776352524757385e-01" nType="0">
          <Node pos="l" depth="2" NCoef="0" IVar="-1" Cut="0.0000000000000000e+00" cType="1" res="-1.0286023840308189e-02" rms="4.1228848695755005e-01" purity="2.1731396019458771e-01" nType="-99"/>
          <Node pos="r" depth="2" NCoef="0" IVar="-1" Cut="0.0000000000000000e+00" cType="1" res="-3.3219535835087299e-03" rms="4.9210712313652039e-01" purity="4.1211470961570740e-01" nType="-99"/>
        </Node>
      </Node>
    </BinaryTree>
    <BinaryTree type="DecisionTree" boostWeight="1.0000000000000000e+00" itree="5">
      <Node pos="s" depth="0" NCoef="0" IVar="4" Cut="1.2002319097518921e+00" cType="1" res="1.5350198373198509e-03" rms="4.9568080902099609e-01" purity="5.0084823369979858e-01" nType="0">
        <Node pos="l" depth="1" NCoef="0" IVar="2" Cut="9.4759601354598999e-01" cType="1" res="7.5519129633903503e-02" rms="4.9089458584785461e-01" purity="5.8178204298019409e-01" nType="0">
          <Node pos="l" depth="2" NCoef="0" IVar="-1" Cut="0.0000000000000000e+00" cType="1" res="-1.1931739281862974e-03" rms="4.9803784489631653e-01" purity="4.6189093589782715e-01" nType="-99"/>
          <Node pos="r" depth="2" NCoef="0" IVar="-1" Cut="0.0000000000000000e+00" cType="1" res="5.7433224283158779e-03" rms="4.6879431605339050e-01" purity="6.7160421609878540e-01" nType="-99"/>
        </Node>
        <Node pos="r" depth="1" NCoef="0" IVar="2" Cut="9.4144117832183838e-01" cType="1" res="-1.5217973291873932e-01" rms="4.6958443522453308e-01" purity="3.3269441127777100e-01" nType="0">
          <Node pos="l" depth="2" NCoef="0" IVar="-1" Cut="0.0000000000000000e+00" cType="1" res="-9.5576951280236244e-03" rms="4.1655573248863220e-01" purity="2.2361013293266296e-01" nType="-99"/>
          <Node pos="r" depth="2" NCoef="0" IVar="-1" Cut="0.0000000000000000e+00" cType="1" res="-3.3378580119460821e-03" rms="4.8964732885360718e-01" purity="4.0295878052711487e-01" nType="-99"/>
        </Node>
      </Node>
    </BinaryTree>
    <BinaryTree type="DecisionTree" boostWeight="1.0000000000000000e+00" itree="6">
      <Node pos="s" depth="0" NCoef="0" IVar="4" Cut="1.2476985454559326e+00" cType="1" res="-1.4828504063189030e-03" rms="4.9453672766685486e-01" purity="4.9807238578796387e-01" nType="0">
        <Node pos="l" depth="1" NCoef="0" IVar="2" Cut="9.4977861642837524e-01" cType="1" res="6.9453954696655273e-02" rms="4.9097689986228943e-01" purity="5.7593405246734619e-01" nType="0">
          <Node pos="l" depth="2" NCoef="0" IVar="-1" Cut="0.0000000000000000e+00" cType="1" res="-1.5700812218710780e-03" rms="4.9651294946670532e-01" purity="4.5058515667915344e-01" nType="-99"/>
          <Node pos="r" depth="2" NCoef="0" IVar="-1" Cut="0.0000000000000000e+00" cType="1" res="6.2094680033624172e-03" rms="4.6330615878105164e-01" purity="6.8564045429229736e-01" nType="-99"/>
        </Node>
        <Node pos="r" depth="1" NCoef="0" IVar="2" Cut="9.3734544515609741e-01" cType="1" res="-1.8711787462234497e-01" rms="4.5400294661521912e-01" purity="2.9431551694869995e-01" nType="0">
          <Node pos="l" depth="2" NCoef="0" IVar="-1" Cut="0.0000000000000000e+00" cType="1" res="-1.1477745138108730e-02" rms="3.7949368357658386e-01" purity="1.7453373968601227e-01" nType="-99"/>
          <Node pos="r" depth="2" NCoef="0" IVar="-1" Cut="0.0000000000000000e+00" cType="1" res="-5.1911640912294388e-03" rms="4.7742503881454468e-01" purity="3.5410505533218384e-01" nType="-99"/>
        </Node>
      </Node>
    </BinaryTree>
    <BinaryTree type="DecisionTree" boostWeight="1.0000000000000000e+00" itree="7">
      <Node pos="s" depth="0" NCoef="0" IVar="4" Cut="1.0548297166824341e+00" cType="1" res="-1.0070977732539177e-03" rms="4.9319437146186829e-01" purity="4.9872934818267822e-01" nType="0">
        <Node pos="l" depth="1" NCoef="0" IVar="6" Cut="6.8179273605346680e+00" cType="1" res="1.1161440610885620e-01" rms="4.8176911473274231e-01" purity="6.2298130989074707e-01" nType="0">
          <Node pos="l" depth="2" NCoef="0" IVar="-1" Cut="0.0000000000000000e+00" cType="1" res="3.0687588150613010e-04" rms="4.9945816397666931e-01" purity="5.0650554895401001e-01" nType="-99"/>
          <Node pos="r" depth="2" NCoef="0" IVar="-1" Cut="0.0000000000000000e+00" cType="1" res="7.2063035331666470e-03" rms="4.4827806949615479e-01" purity="7.2125887870788574e-01" nType="-99"/>
        </Node>
        <Node pos="r" depth="1" NCoef="0" IVar="2" Cut="9.5309686660766602e-01" cType="1" res="-1.4508874714374542e-01" rms="4.6957996487617493e-01" purity="3.3976835012435913e-01" nType="0">
          <Node pos="l" depth="2" NCoef="0" IVar="-1" Cut="0.0000000000000000e+00" cType="1" res="-8.6343074217438698e-03" rms="4.2940533161163330e-01" purity="2.4595068395137787e-01" nType="-99"/>
          <Node pos="r" depth="2" NCoef="0" IVar="-1" Cut="0.0000000000000000e+00" cType="1" res="-1.2684045359492302e-03" rms="4.9593958258628845e-01" purity="4.6352633833885193e-01" nType="-99"/>
        </Node>
      </Node>
    </BinaryTree>
    <BinaryTree type="DecisionTree" boostWeight="1.0000000000000000e+00" itree="8">
      <Node pos="s" depth="0" NCoef="0" IVar="4" Cut="1.0548297166824341e+00" cType="1" res="1.2957508442923427e-03" rms="4.9273511767387390e-01" purity="5.0090283155441284e-01" nType="0">
        <Node pos="l" depth="1" NCoef="0" IVar="6" Cut="6.4577240943908691e+00" cType="1" res="9.8219342529773712e-02" rms="4.8393106460571289e-01" purity="6.1112356185913086e-01" nType="0">
          <Node pos="l" depth="2" NCoef="0" IVar="-1" Cut="0.0000000000000000e+00" cType="1" res="-1.5566498041152954e-03" rms="4.9744737148284912e-01" purity="4.5109894871711731e-01" nType="-99"/>
          <Node pos="r" depth="2" NCoef="0" IVar="-1" Cut="0.0000000000000000e+00" cType="1" res="6.6527090966701508e-03" rms="4.5409482717514038e-01" purity="7.0821911096572876e-01" nType="-99"/>
        </Node>
        <Node pos="r" depth="1" NCoef="0" IVar="2" Cut="9.5490801334381104e-01" cType="1" res="-1.2627407908439636e-01" rms="4.7483336925506592e-01" purity="3.5583141446113586e-01" nType="0">
          <Node pos="l" depth="2" NCoef="0" IVar="-1" Cut="0.0000000000000000e+00" cType="1" res="-7.4918321333825588e-03" rms="4.4475182890892029e-01" purity="2.7297475934028625e-01" nType="-99"/>
          <Node pos="r" depth="2" NCoef="0" IVar="-1" Cut="0.0000000000000000e+00" cType="1" res="-9.2351518105715513e-04" rms="4.9650195240974426e-01" purity="4.7271203994750977e-01" nType="-99"/>
        </Node>
      </Node>
    </BinaryTree>
    <BinaryTree type="DecisionTree" boostWeight="1.0000000000000000e+00" itree="9">
      <Node pos="s" depth="0" NCoef="0" IVar="4" Cut="1.1095190048217773e+00" cType="1" res="-4.1087991558015347e-03" rms="4.9207344651222229e-01" purity="4.9516284465789795e-01" nType="0">
        <Node pos="l" depth="1" NCoef="0" IVar="2" Cut="9.7218441963195801e-01" cType="1" res="8.2334861159324646e-02" rms="4.8676422238349915e-01" purity="5.9589409828186035e-01" nType="0">
          <Node pos="l" depth="2" NCoef="0" IVar="-1" Cut="0.0000000000000000e+00" cType="1" res="1.0817819274961948e-03" rms="4.9567571282386780e-01" purity="5.3980326652526855e-01" nType="-99"/>
          <Node pos="r" depth="2" NCoef="0" IVar="-1" Cut="0.0000000000000000e+00" cType="1" res="9.9135916680097580e-03" rms="3.9662009477615356e-01" purity="8.0421197414398193e-01" nType="-99"/>
        </Node>
        <Node pos="r" depth="1" NCoef="0" IVar="6" Cut="6.0954418182373047e+00" cType="1" res="-1.3935804367065430e-01" rms="4.6934363245964050e-01" purity="3.3755925297737122e-01" nType="0">
          <Node pos="l" depth="2" NCoef="0" IVar="-1" Cut="0.0000000000000000e+00" cType="1" res="-9.6128722652792931e-03" rms="4.0592545270919800e-01" purity="2.0886234939098358e-01" nType="-99"/>
          <Node pos="r" depth="2" NCoef="0" IVar="-1" Cut="0.0000000000000000e+00" cType="1" res="-2.8554534073919058e-03" rms="4.9007421731948853e-01" purity="4.1111531853675842e-01" nType="-99"/>
        </Node>
      </Node>
    </BinaryTree>
    <BinaryTree type="DecisionTree" boostWeight="1.0000000000000000e+00" itree="10">
      <Node pos="s" depth="0" NCoef="0" IVar="4" Cut="1.2002319097518921e+00" cType="1" res="8.7455306202173233e-03" rms="4.9055716395378113e-01" purity="5.0855100154876709e-01" nType="0">
        <Node pos="l" depth="1" NCoef="0" IVar="6" Cut="6.6605954170227051e+00" cType="1" res="8.7690554559230804e-02" rms="4.8467528820037842e-01" purity="6.0037094354629517e-01" nType="0">
          <Node pos="l" depth="2" NCoef="0" IVar="-1" Cut="0.0000000000000000e+00" cType="1" res="-1.2585829244926572e-03" rms="4.9674868583679199e-01" purity="4.5716229081153870e-01" nType="-99"/>
          <Node pos="r" depth="2" NCoef="0" IVar="-1" Cut="0.0000000000000000e+00" cType="1" res="6.3150348141789436e-03" rms="4.5696145296096802e-01" purity="6.9983297586441040e-01" nType="-99"/>
        </Node>
        <Node pos="r" depth="1" NCoef="0" IVar="1" Cut="2.6098356246948242e+00" cType="1" res="-1.7024023830890656e-01" rms="4.5550581812858582e-01" purity="3.0037486553192139e-01" nType="0">
          <Node pos="l" depth="2" NCoef="0" IVar="-1" Cut="0.0000000000000000e+00" cType="1" res="-4.1292370297014713e-03" rms="4.7827911376953125e-01" purity="3.6363625526428223e-01" nType="-99"/>
          <Node pos="r" depth="2" NCoef="0" IVar="-1" Cut="0.0000000000000000e+00" cType="1" res="-1.2123290449380875e-02" rms="3.7015584111213684e-01" purity="1.6640183329582214e-01" nType="-99"/>
        </Node>
      </Node>
    </BinaryTree>
    <BinaryTree type="DecisionTree" boostWeight="1.0000000000000000e+00" itree="11">
      <Node pos="s" depth="0" NCoef="0" IVar="4" Cut="1.2404897212982178e+00" cType="1" res="-5.1163011230528355e-03" rms="4.9010172486305237e-01" purity="4.9410846829414368e-01" nType="0">
        <Node pos="l" depth="1" NCoef="0" IVar="6" Cut="6.7307519912719727e+00" cType="1" res="6.1233624815940857e-02" rms="4.8857000470161438e-01" purity="5.7310116291046143e-01" nType="0">
          <Node pos="l" depth="2" NCoef="0" IVar="-1" Cut="0.0000000000000000e+00" cType="1" res="-2.2888726089149714e-03" rms="4.9327382445335388e-01" purity="4.2819485068321228e-01" nType="-99"/>
          <Node pos="r" depth="2" NCoef="0" IVar="-1" Cut="0.0000000000000000e+00" cType="1" res="5.8459499850869179e-03" rms="4.6012365818023682e-01" purity="6.9205701351165771e-01" nType="-99"/>
        </Node>
        <Node pos="r" depth="1" NCoef="0" IVar="6" Cut="7.2290630340576172e+00" cType="1" res="-1.7461794614791870e-01" rms="4.5172122120857239e-01" purity="2.9230871796607971e-01" nType="0">
          <Node pos="l" depth="2" NCoef="0" IVar="-1" Cut="0.0000000000000000e+00" cType="1" res="-8.7066879495978355e-03" rms="4.1890183091163635e-01" purity="2.2864112257957458e-01" nType="-99"/>
          <Node pos="r" depth="2" NCoef="0" IVar="-1" Cut="0.0000000000000000e+00" cType="1" res="-3.1494768336415291e-03" rms="4.8999571800231934e-01" purity="4.0473502874374390e-01" nType="-99"/>
        </Node>
      </Node>
    </BinaryTree>
    <BinaryTree type="DecisionTree" boostWeight="1.0000000000000000e+00" itree="12">
      <Node pos="s" depth="0" NCoef="0" IVar="4" Cut="1.1682746410369873e+00" cType="1" res="7.1693230420351028e-03" rms="4.8901498317718506e-01" purity="5.0687390565872192e-01" nType="0">
        <Node pos="l" depth="1" NCoef="0" IVar="6" Cut="6.9131250381469727e+00" cType="1" res="8.3655394613742828e-02" rms="4.8385289311408997e-01" purity="5.9971898794174194e-01" nType="0">
          <Node pos="l" depth="2" NCoef="0" IVar="-1" Cut="0.0000000000000000e+00" cType="1" res="-1.0153353214263916e-03" rms="4.9716889858245850e-01" purity="4.6756795048713684e-01" nType="-99"/>
          <Node pos="r" depth="2" NCoef="0" IVar="-1" Cut="0.0000000000000000e+00" cType="1" res="6.9408304989337921e-03" rms="4.4515857100486755e-01" purity="7.2582262754440308e-01" nType="-99"/>
        </Node>
        <Node pos="r" depth="1" NCoef="0" IVar="4" Cut="1.5377334356307983e+00" cType="1" res="-1.4825370907783508e-01" rms="4.6184042096138000e-01" purity="3.1820854544639587e-01" nType="0">
          <Node pos="l" depth="2" NCoef="0" IVar="-1" Cut="0.0000000000000000e+00" cType="1" res="-3.1665817368775606e-03" rms="4.8395985364913940e-01" purity="3.8600265979766846e-01" nType="-99"/>
          <Node pos="r" depth="2" NCoef="0" IVar="-1" Cut="0.0000000000000000e+00" cType="1" res="-1.1066722683608532e-02" rms="3.8709738850593567e-01" purity="1.8775489926338196e-01" nType="-99"/>
        </Node>
      </Node>
    </BinaryTree>
    <BinaryTree type="DecisionTree" boostWeight="1.0000000000000000e+00" itree="13">
      <Node pos="s" depth="0" NCoef="0" IVar="4" Cut="1.4330960512161255e+00" cType="1" res="-4.0501593612134457e-03" rms="4.8948824405670166e-01" purity="4.9505120515823364e-01" nType="0">
        <Node pos="l" depth="1" NCoef="0" IVar="2" Cut="9.5030820369720459e-01" cType="1" res="4.3349228799343109e-02" rms="4.9063155055046082e-01" purity="5.5141443014144897e-01" nType="0">
          <Node pos="l" depth="2" NCoef="0" IVar="-1" Cut="0.0000000000000000e+00" cType="1" res="-1.5676269540563226e-03" rms="4.9395859241485596e-01" purity="4.4181054830551147e-01" nType="-99"/>
          <Node pos="r" depth="2" NCoef="0" IVar="-1" Cut="0.0000000000000000e+00" cType="1" res="4.4506727717816830e-03" rms="4.7461256384849548e-01" purity="6.4745926856994629e-01" nType="-99"/>
        </Node>
        <Node pos="r" depth="1" NCoef="0" IVar="1" Cut="2.6484549045562744e+00" cType="1" res="-2.2930523753166199e-01" rms="4.1576039791107178e-01" purity="2.2719746828079224e-01" nType="0">
          <Node pos="l" depth="2" NCoef="0" IVar="-1" Cut="0.0000000000000000e+00" cType="1" res="-6.1602215282618999e-03" rms="4.5387318730354309e-01" purity="2.9823505878448486e-01" nType="-99"/>
          <Node pos="r" depth="2" NCoef="0" IVar="-1" Cut="0.0000000000000000e+00" cType="1" res="-1.3107040897011757e-02" rms="3.4333232045173645e-01" purity="1.3790291547775269e-01" nType="-99"/>
        </Node>
      </Node>
    </BinaryTree>
    <BinaryTree type="DecisionTree" boostWeight="1.0000000000000000e+00" itree="14">
      <Node pos="s" depth="0" NCoef="0" IVar="1" Cut="2.4695618152618408e+00" cType="1" res="9.3989828601479530e-03" rms="4.8890975117683411e-01" purity="5.0867605209350586e-01" nType="0">
        <Node pos="l" depth="1" NCoef="0" IVar="6" Cut="6.5174074172973633e+00" cType="1" res="5.1452942192554474e-02" rms="4.8859730362892151e-01" purity="5.5843424797058105e-01" nType="0">
          <Node pos="l" depth="2" NCoef="0" IVar="-1" Cut="0.0000000000000000e+00" cType="1" res="-2.2470678668469191e-03" rms="4.9047964811325073e-01" purity="4.1725465655326843e-01" nType="-99"/>
          <Node pos="r" depth="2" NCoef="0" IVar="-1" Cut="0.0000000000000000e+00" cType="1" res="4.7844569198787212e-03" rms="4.7141173481941223e-01" purity="6.5518647432327271e-01" nType="-99"/>
        </Node>
        <Node pos="r" depth="1" NCoef="0" IVar="1" Cut="2.7445416450500488e+00" cType="1" res="-2.0904937386512756e-01" rms="4.2861747741699219e-01" purity="2.5020831823348999e-01" nType="0">
          <Node pos="l" depth="2" NCoef="0" IVar="-1" Cut="0.0000000000000000e+00" cType="1" res="-6.2082884833216667e-03" rms="4.5719891786575317e-01" purity="3.0628633499145508e-01" nType="-99"/>
          <Node pos="r" depth="2" NCoef="0" IVar="-1" Cut="0.0000000000000000e+00" cType="1" res="-1.3254926539957523e-02" rms="3.3125564455986023e-01" purity="1.2627497315406799e-01" nType="-99"/>
        </Node>
      </Node>
    </BinaryTree>
    <BinaryTree type="DecisionTree" boostWeight="1.0000000000000000e+00" itree="15">
      <Node pos="s" depth="0" NCoef="0" IVar="4" Cut="1.1087628602981567e+00" cType="1" res="-7.4944556690752506e-03" rms="4.8779156804084778e-01" purity="4.9200975894927979e-01" nType="0">
        <Node pos="l" depth="1" NCoef="0" IVar="6" Cut="6.6335110664367676e+00" cType="1" res="6.8679422140121460e-02" rms="4.8594054579734802e-01" purity="5.8943510055541992e-01" nType="0">
          <Node pos="l" depth="2" NCoef="0" IVar="-1" Cut="0.0000000000000000e+00" cType="1" res="-1.7467465950176120e-03" rms="4.9637642502784729e-01" purity="4.4280833005905151e-01" nType="-99"/>
          <Node pos="r" depth="2" NCoef="0" IVar="-1" Cut="0.0000000000000000e+00" cType="1" res="5.4265018552541733e-03" rms="4.6120181679725647e-01" purity="6.9171124696731567e-01" nType="-99"/>
        </Node>
        <Node pos="r" depth="1" NCoef="0" IVar="1" Cut="2.4644427299499512e+00" cType="1" res="-1.3310287892818451e-01" rms="4.6429204940795898e-01" purity="3.3135825395584106e-01" nType="0">
          <Node pos="l" depth="2" NCoef="0" IVar="-1" Cut="0.0000000000000000e+00" cType="1" res="-2.1111890673637390e-03" rms="4.8759967088699341e-01" purity="4.1881191730499268e-01" nType="-99"/>
          <Node pos="r" depth="2" NCoef="0" IVar="-1" Cut="0.0000000000000000e+00" cType="1" res="-9.2886155471205711e-03" rms="4.1260811686515808e-01" purity="2.2082816064357758e-01" nType="-99"/>
        </Node>
      </Node>
    </BinaryTree>
    <BinaryTree type="DecisionTree" boostWeight="1.0000000000000000e+00" itree="16">
      <Node pos="s" depth="0" NCoef="0" IVar="4" Cut="1.0896066427230835e+00" cType="1" res="-8.8751213625073433e-03" rms="4.8614445328712463e-01" purity="4.9036553502082825e-01" nType="0">
        <Node pos="l" depth="1" NCoef="0" IVar="2" Cut="9.4081783294677734e-01" cType="1" res="8.3359032869338989e-02" rms="4.8259159922599792e-01" purity="6.0631781816482544e-01" nType="0">
          <Node pos="l" depth="2" NCoef="0" IVar="-1" Cut="0.0000000000000000e+00" cType="1" res="-1.3071879511699080e-03" rms="4.9712762236595154e-01" purity="4.5297089219093323e-01" nType="-99"/>
          <Node pos="r" depth="2" NCoef="0" IVar="-1" Cut="0.0000000000000000e+00" cType="1" res="5.0679789856076241e-03" rms="4.6475523710250854e-01" purity="6.7856389284133911e-01" nType="-99"/>
        </Node>
        <Node pos="r" depth="1" NCoef="0" IVar="6" Cut="7.6767058372497559e+00" cType="1" res="-1.4583237469196320e-01" rms="4.5832052826881409e-01" purity="3.1818959116935730e-01" nType="0">
          <Node pos="l" depth="2" NCoef="0" IVar="-1" Cut="0.0000000000000000e+00" cType="1" res="-7.5357202440500259e-03" rms="4.3390271067619324e-01" purity="2.5936099886894226e-01" nType="-99"/>
          <Node pos="r" depth="2" NCoef="0" IVar="-1" Cut="0.0000000000000000e+00" cType="1" res="-3.0264313681982458e-04" rms="4.9458956718444824e-01" purity="4.8162302374839783e-01" nType="-99"/>
        </Node>
      </Node>
    </BinaryTree>
    <BinaryTree type="DecisionTree" boostWeight="1.0000000000000000e+00" itree="17">
      <Node pos="s" depth="0" NCoef="0" IVar="4" Cut="1.1898461580276489e+00" cType="1" res="3.5985547583550215e-05" rms="4.8476505279541016e-01" purity="4.9984255433082581e-01" nType="0">
        <Node pos="l" depth="1" NCoef="0" IVar="2" Cut="9.5030820369720459e-01" cType="1" res="7.7664032578468323e-02" rms="4.8257121443748474e-01" purity="5.9845280647277832e-01" nType="0">
          <Node pos="l" depth="2" NCoef="0" IVar="-1" Cut="0.0000000000000000e+00" cType="1" res="-9.6134917112067342e-04" rms="4.9687218666076660e-01" purity="4.6534657478332520e-01" nType="-99"/>
          <Node pos="r" depth="2" NCoef="0" IVar="-1" Cut="0.0000000000000000e+00" cType="1" res="6.1278254725039005e-03" rms="4.5076498389244080e-01" purity="7.1246427297592163e-01" nType="-99"/>
        </Node>
        <Node pos="r" depth="1" NCoef="0" IVar="2" Cut="9.6601557731628418e-01" cType="1" res="-1.7249552905559540e-01" rms="4.4334340095520020e-01" purity="2.8067728877067566e-01" nType="0">
          <Node pos="l" depth="2" NCoef="0" IVar="-1" Cut="0.0000000000000000e+00" cType="1" res="-8.5328686982393265e-03" rms="4.1588926315307617e-01" purity="2.2721098363399506e-01" nType="-99"/>
          <Node pos="r" depth="2" NCoef="0" IVar="-1" Cut="0.0000000000000000e+00" cType="1" res="-5.0272431690245867e-04" rms="4.9583479762077332e-01" purity="4.6704655885696411e-01" nType="-99"/>
        </Node>
      </Node>
    </BinaryTree>
    <BinaryTree type="DecisionTree" boostWeight="1.0000000000000000e+00" itree="18">
      <Node pos="s" depth="0" NCoef="0" IVar="4" Cut="1.0916109085083008e+00" cType="1" res="5.5557209998369217e-03" rms="4.8578831553459167e-01" purity="5.0430721044540405e-01" nType="0">
        <Node pos="l" depth="1" NCoef="0" IVar="6" Cut="6.2617044448852539e+00" cType="1" res="8.2079410552978516e-02" rms="4.8109498620033264e-01" purity="6.0731714963912964e-01" nType="0">
          <Node pos="l" depth="2" NCoef="0" IVar="-1" Cut="0.0000000000000000e+00" cType="1" res="-2.0027584396302700e-03" rms="4.9507549405097961e-01" purity="4.3213129043579102e-01" nType="-99"/>
          <Node pos="r" depth="2" NCoef="0" IVar="-1" Cut="0.0000000000000000e+00" cType="1" res="5.1820869557559490e-03" rms="4.5998144149780273e-01" purity="6.9043534994125366e-01" nType="-99"/>
        </Node>
        <Node pos="r" depth="1" NCoef="0" IVar="6" Cut="7.5816879272460938e+00" cType="1" res="-1.0982195287942886e-01" rms="4.6977773308753967e-01" purity="3.4899523854255676e-01" nType="0">
          <Node pos="l" depth="2" NCoef="0" IVar="-1" Cut="0.0000000000000000e+00" cType="1" res="-6.2902406789362431e-03" rms="4.4760653376579285e-01" purity="2.8392446041107178e-01" nType="-99"/>
          <Node pos="r" depth="2" NCoef="0" IVar="-1" Cut="0.0000000000000000e+00" cType="1" res="9.6781813772395253e-04" rms="4.9614244699478149e-01" purity="5.1174384355545044e-01" nType="-99"/>
        </Node>
      </Node>
    </BinaryTree>
    <BinaryTree type="DecisionTree" boostWeight="1.0000000000000000e+00" itree="19">
      <Node pos="s" depth="0" NCoef="0" IVar="4" Cut="1.3233635425567627e+00" cType="1" res="8.0175953917205334e-04" rms="4.8528361320495605e-01" purity="4.9896773695945740e-01" nType="0">
        <Node pos="l" depth="1" NCoef="0" IVar="6" Cut="7.3495082855224609e+00" cType="1" res="4.9752909690141678e-02" rms="4.8613941669464111e-01" purity="5.6478959321975708e-01" nType="0">
          <Node pos="l" depth="2" NCoef="0" IVar="-1" Cut="0.0000000000000000e+00" cType="1" res="-1.0106645058840513e-03" rms="4.9354371428489685e-01" purity="4.6735689043998718e-01" nType="-99"/>
          <Node pos="r" depth="2" NCoef="0" IVar="-1" Cut="0.0000000000000000e+00" cType="1" res="6.5138782374560833e-03" rms="4.4604161381721497e-01" purity="7.2158485651016235e-01" nType="-99"/>
        </Node>
        <Node pos="r" depth="1" NCoef="0" IVar="4" Cut="1.7085413932800293e+00" cType="1" res="-1.6552358865737915e-01" rms="4.4369968771934509e-01" purity="2.7531927824020386e-01" nType="0">
          <Node pos="l" depth="2" NCoef="0" IVar="-1" Cut="0.0000000000000000e+00" cType="1" res="-5.0521995872259140e-03" rms="4.6225178241729736e-01" purity="3.1434345245361328e-01" nType="-99"/>
          <Node pos="r" depth="2" NCoef="0" IVar="-1" Cut="0.0000000000000000e+00" cType="1" res="-1.0983251035213470e-02" rms="3.7110364437103271e-01" purity="1.6895076632499695e-01" nType="-99"/>
        </Node>
      </Node>
    </BinaryTree>
    <BinaryTree type="DecisionTree" boostWeight="1.0000000000000000e+00" itree="20">
      <Node pos="s" depth="0" NCoef="0" IVar="4" Cut="1.1139165163040161e+00" cType="1" res="-6.7218886688351631e-03" rms="4.8412168025970459e-01" purity="4.9147456884384155e-01" nType="0">
        <Node pos="l" depth="1" NCoef="0" IVar="6" Cut="6.6335110664367676e+00" cType="1" res="6.7237786948680878e-02" rms="4.8348274827003479e-01" purity="5.9417754411697388e-01" nType="0">
          <Node pos="l" depth="2" NCoef="0" IVar="-1" Cut="0.0000000000000000e+00" cType="1" res="-1.1908020824193954e-03" rms="4.9707004427909851e-01" purity="4.5590314269065857e-01" nType="-99"/>
          <Node pos="r" depth="2" NCoef="0" IVar="-1" Cut="0.0000000000000000e+00" cType="1" res="5.0069065764546394e-03" rms="4.5994326472282410e-01" purity="6.9379705190658569e-01" nType="-99"/>
        </Node>
        <Node pos="r" depth="1" NCoef="0" IVar="2" Cut="9.4695496559143066e-01" cType="1" res="-1.2447810173034668e-01" rms="4.6128338575363159e-01" purity="3.2795414328575134e-01" nType="0">
          <Node pos="l" depth="2" NCoef="0" IVar="-1" Cut="0.0000000000000000e+00" cType="1" res="-7.8873885795474052e-03" rms="4.1689828038215637e-01" purity="2.2692842781543732e-01" nType="-99"/>
          <Node pos="r" depth="2" NCoef="0" IVar="-1" Cut="0.0000000000000000e+00" cType="1" res="-1.9660519901663065e-03" rms="4.8721468448638916e-01" purity="4.2131358385086060e-01" nType="-99"/>
        </Node>
      </Node>
    </BinaryTree>
    <BinaryTree type="DecisionTree" boostWeight="1.0000000000000000e+00" itree="21">
      <Node pos="s" depth="0" NCoef="0" IVar="4" Cut="1.2238687276840210e+00" cType="1" res="4.5687095262110233e-03" rms="4.8395738005638123e-01" purity="5.0450021028518677e-01" nType="0">
        <Node pos="l" depth="1" NCoef="0" IVar="6" Cut="5.3421998023986816e+00" cType="1" res="6.5924085676670074e-02" rms="4.8403048515319824e-01" purity="5.8901000022888184e-01" nType="0">
          <Node pos="l" depth="2" NCoef="0" IVar="-1" Cut="0.0000000000000000e+00" cType="1" res="-6.1374455690383911e-03" rms="4.6029677987098694e-01" purity="3.0493053793907166e-01" nType="-99"/>
          <Node pos="r" depth="2" NCoef="0" IVar="-1" Cut="0.0000000000000000e+00" cType="1" res="3.3772536553442478e-03" rms="4.7886723279953003e-01" purity="6.2282127141952515e-01" nType="-99"/>
        </Node>
        <Node pos="r" depth="1" NCoef="0" IVar="4" Cut="1.5225168466567993e+00" cType="1" res="-1.5357220172882080e-01" rms="4.4645375013351440e-01" purity="2.8667965531349182e-01" nType="0">
          <Node pos="l" depth="2" NCoef="0" IVar="-1" Cut="0.0000000000000000e+00" cType="1" res="-3.8598044775426388e-03" rms="4.7139555215835571e-01" purity="3.4806355834007263e-01" nType="-99"/>
          <Node pos="r" depth="2" NCoef="0" IVar="-1" Cut="0.0000000000000000e+00" cType="1" res="-9.7781606018543243e-03" rms="3.9181199669837952e-01" purity="1.9317038357257843e-01" nType="-99"/>
        </Node>
      </Node>
    </BinaryTree>
    <BinaryTree type="DecisionTree" boostWeight="1.0000000000000000e+00" itree="22">
      <Node pos="s" depth="0" NCoef="0" IVar="4" Cut="1.1087628602981567e+00" cType="1" res="1.3411182910203934e-02" rms="4.8266738653182983e-01" purity="5.1252329349517822e-01" nType="0">
        <Node pos="l" depth="1" NCoef="0" IVar="6" Cut="6.2283563613891602e+00" cType="1" res="8.6105816066265106e-02" rms="4.7783225774765015e-01" purity="6.1482423543930054e-01" nType="0">
          <Node pos="l" depth="2" NCoef="0" IVar="-1" Cut="0.0000000000000000e+00" cType="1" res="-1.7888508737087250e-03" rms="4.9509987235069275e-01" purity="4.3471607565879822e-01" nType="-99"/>
          <Node pos="r" depth="2" NCoef="0" IVar="-1" Cut="0.0000000000000000e+00" cType="1" res="5.5042994208633900e-03" rms="4.5582059025764465e-01" purity="6.9828391075134277e-01" nType="-99"/>
        </Node>
        <Node pos="r" depth="1" NCoef="0" IVar="1" Cut="2.6616215705871582e+00" cType="1" res="-1.0679768025875092e-01" rms="4.6632468700408936e-01" purity="3.4335690736770630e-01" nType="0">
          <Node pos="l" depth="2" NCoef="0" IVar="-1" Cut="0.0000000000000000e+00" cType="1" res="-2.5393054820597172e-03" rms="4.8146814107894897e-01" purity="3.9093115925788879e-01" nType="-99"/>
          <Node pos="r" depth="2" NCoef="0" IVar="-1" Cut="0.0000000000000000e+00" cType="1" res="-1.1038663797080517e-02" rms="3.6306929588317871e-01" purity="1.5910682082176208e-01" nType="-99"/>
        </Node>
      </Node>
    </BinaryTree>
    <BinaryTree type="DecisionTree" boostWeight="1.0000000000000000e+00" itree="23">
      <Node pos="s" depth="0" NCoef="0" IVar="4" Cut="1.0666494369506836e+00" cType="1" res="7.9308878630399704e-03" rms="4.8221954703330994e-01" purity="5.0696283578872681e-01" nType="0">
        <Node pos="l" depth="1" NCoef="0" IVar="6" Cut="6.7102375030517578e+00" cType="1" res="8.7796971201896667e-02" rms="4.7768276929855347e-01" purity="6.2053972482681274e-01" nType="0">
          <Node pos="l" depth="2" NCoef="0" IVar="-1" Cut="0.0000000000000000e+00" cType="1" res="6.9937312218826264e-05" rms="4.9912002682685852e-01" purity="4.9449577927589417e-01" nType="-99"/>
          <Node pos="r" depth="2" NCoef="0" IVar="-1" Cut="0.0000000000000000e+00" cType="1" res="5.6766592897474766e-03" rms="4.4934421777725220e-01" purity="7.1795254945755005e-01" nType="-99"/>
        </Node>
        <Node pos="r" depth="1" NCoef="0" IVar="6" Cut="7.5810408592224121e+00" cType="1" res="-1.0000301152467728e-01" rms="4.6706637740135193e-01" purity="3.5347098112106323e-01" nType="0">
          <Node pos="l" depth="2" NCoef="0" IVar="-1" Cut="0.0000000000000000e+00" cType="1" res="-6.0710711404681206e-03" rms="4.4388270378112793e-01" purity="2.8205254673957825e-01" nType="-99"/>
          <Node pos="r" depth="2" NCoef="0" IVar="-1" Cut="0.0000000000000000e+00" cType="1" res="1.5739842783659697e-03" rms="4.9192014336585999e-01" purity="5.2879703044891357e-01" nType="-99"/>
        </Node>
      </Node>
    </BinaryTree>
    <BinaryTree type="DecisionTree" boostWeight="1.0000000000000000e+00" itree="24">
      <Node pos="s" depth="0" NCoef="0" IVar="1" Cut="2.4206776618957520e+00" cType="1" res="-1.9015606958419085e-03" rms="4.8123076558113098e-01" purity="4.9617230892181396e-01" nType="0">
        <Node pos="l" depth="1" NCoef="0" IVar="6" Cut="6.5363740921020508e+00" cType="1" res="4.5390937477350235e-02" rms="4.8371204733848572e-01" purity="5.5959051847457886e-01" nType="0">
          <Node pos="l" depth="2" NCoef="0" IVar="-1" Cut="0.0000000000000000e+00" cType="1" res="-1.9358056597411633e-03" rms="4.8813101649284363e-01" purity="4.1744634509086609e-01" nType="-99"/>
          <Node pos="r" depth="2" NCoef="0" IVar="-1" Cut="0.0000000000000000e+00" cType="1" res="4.1628736071288586e-03" rms="4.6820187568664551e-01" purity="6.5774917602539062e-01" nType="-99"/>
        </Node>
        <Node pos="r" depth="1" NCoef="0" IVar="6" Cut="6.0333251953125000e+00" cType="1" res="-1.8643184006214142e-01" rms="4.2363005876541138e-01" purity="2.4872140586376190e-01" nType="0">
          <Node pos="l" depth="2" NCoef="0" IVar="-1" Cut="0.0000000000000000e+00" cType="1" res="-1.0904619470238686e-02" rms="3.4340870380401611e-01" purity="1.3840833306312561e-01" nType="-99"/>
          <Node pos="r" depth="2" NCoef="0" IVar="-1" Cut="0.0000000000000000e+00" cType="1" res="-5.3459056653082371e-03" rms="4.5804986357688904e-01" purity="3.1652331352233887e-01" nType="-99"/>
        </Node>
      </Node>
    </BinaryTree>
    <BinaryTree type="DecisionTree" boostWeight="1.0000000000000000e+00" itree="25">
      <Node pos="s" depth="0" NCoef="0" IVar="6" Cut="7.6946959495544434e+00" cType="1" res="8.5565103217959404e-03" rms="4.8174640536308289e-01" purity="5.0835752487182617e-01" nType="0">
        <Node pos="l" depth="1" NCoef="0" IVar="4" Cut="1.0344041585922241e+00" cType="1" res="-5.1147490739822388e-02" rms="4.8077625036239624e-01" purity="4.2959502339363098e-01" nType="0">
          <Node pos="l" depth="2" NCoef="0" IVar="-1" Cut="0.0000000000000000e+00" cType="1" res="1.1096609523519874e-03" rms="4.9212774634361267e-01" purity="5.4903858900070190e-01" nType="-99"/>
          <Node pos="r" depth="2" NCoef="0" IVar="-1" Cut="0.0000000000000000e+00" cType="1" res="-5.6259841658174992e-03" rms="4.4941493868827820e-01" purity="2.9345276951789856e-01" nType="-99"/>
        </Node>
        <Node pos="r" depth="1" NCoef="0" IVar="0" Cut="7.8375564575195312e+01" cType="1" res="1.4780224859714508e-01" rms="4.5448273420333862e-01" purity="6.9205284118652344e-01" nType="0">
          <Node pos="l" depth="2" NCoef="0" IVar="-1" Cut="0.0000000000000000e+00" cType="1" res="3.2852303702384233e-03" rms="4.7441330552101135e-01" purity="6.3431406021118164e-01" nType="-99"/>
          <Node pos="r" depth="2" NCoef="0" IVar="-1" Cut="0.0000000000000000e+00" cType="1" res="7.8056887723505497e-03" rms="4.2390775680541992e-01" purity="7.5129103660583496e-01" nType="-99"/>
        </Node>
      </Node>
    </BinaryTree>
    <BinaryTree type="DecisionTree" boostWeight="1.0000000000000000e+00" itree="26">
      <Node pos="s" depth="0" NCoef="0" IVar="4" Cut="1.0793877840042114e+00" cType="1" res="4.9041537567973137e-03" rms="4.8054090142250061e-01" purity="5.0349622964859009e-01" nType="0">
        <Node pos="l" depth="1" NCoef="0" IVar="2" Cut="9.4278496503829956e-01" cType="1" res="8.3136722445487976e-02" rms="4.7652769088745117e-01" purity="6.1953872442245483e-01" nType="0">
          <Node pos="l" depth="2" NCoef="0" IVar="-1" Cut="0.0000000000000000e+00" cType="1" res="-9.1442768462002277e-04" rms="4.9755892157554626e-01" purity="4.6345427632331848e-01" nType="-99"/>
          <Node pos="r" depth="2" NCoef="0" IVar="-1" Cut="0.0000000000000000e+00" cType="1" res="5.1275324076414108e-03" rms="4.5489394664764404e-01" purity="7.0106476545333862e-01" nType="-99"/>
        </Node>
        <Node pos="r" depth="1" NCoef="0" IVar="1" Cut="2.7003593444824219e+00" cType="1" res="-1.0414675623178482e-01" rms="4.6459674835205078e-01" purity="3.4174084663391113e-01" nType="0">
          <Node pos="l" depth="2" NCoef="0" IVar="-1" Cut="0.0000000000000000e+00" cType="1" res="-2.8907880187034607e-03" rms="4.7773048281669617e-01" purity="3.7805855274200439e-01" nType="-99"/>
          <Node pos="r" depth="2" NCoef="0" IVar="-1" Cut="0.0000000000000000e+00" cType="1" res="-1.1276176199316978e-02" rms="3.3875584602355957e-01" purity="1.3666212558746338e-01" nType="-99"/>
        </Node>
      </Node>
    </BinaryTree>
    <BinaryTree type="DecisionTree" boostWeight="1.0000000000000000e+00" itree="27">
      <Node pos="s" depth="0" NCoef="0" IVar="4" Cut="1.2709294557571411e+00" cType="1" res="8.8795404881238937e-03" rms="4.8028340935707092e-01" purity="5.0930303335189819e-01" nType="0">
        <Node pos="l" depth="1" NCoef="0" IVar="2" Cut="9.4704121351242065e-01" cType="1" res="6.0244310647249222e-02" rms="4.8177117109298706e-01" purity="5.8534610271453857e-01" nType="0">
          <Node pos="l" depth="2" NCoef="0" IVar="-1" Cut="0.0000000000000000e+00" cType="1" res="-1.0498351184651256e-03" rms="4.9450922012329102e-01" purity="4.5083990693092346e-01" nType="-99"/>
          <Node pos="r" depth="2" NCoef="0" IVar="-1" Cut="0.0000000000000000e+00" cType="1" res="4.5640254393219948e-03" rms="4.6215376257896423e-01" purity="6.8014854192733765e-01" nType="-99"/>
        </Node>
        <Node pos="r" depth="1" NCoef="0" IVar="6" Cut="6.0252542495727539e+00" cType="1" res="-1.4582504332065582e-01" rms="4.4100046157836914e-01" purity="2.8027024865150452e-01" nType="0">
          <Node pos="l" depth="2" NCoef="0" IVar="-1" Cut="0.0000000000000000e+00" cType="1" res="-9.9347550421953201e-03" rms="3.5476794838905334e-01" purity="1.5073665976524353e-01" nType="-99"/>
          <Node pos="r" depth="2" NCoef="0" IVar="-1" Cut="0.0000000000000000e+00" cType="1" res="-3.8972031325101852e-03" rms="4.6969807147979736e-01" purity="3.4352961182594299e-01" nType="-99"/>
        </Node>
      </Node>
    </BinaryTree>
    <BinaryTree type="DecisionTree" boostWeight="1.0000000000000000e+00" itree="28">
      <Node pos="s" depth="0" NCoef="0" IVar="4" Cut="1.3233635425567627e+00" cType="1" res="5.2327831508591771e-04" rms="4.8040536046028137e-01" purity="4.9931573867797852e-01" nType="0">
        <Node pos="l" depth="1" NCoef="0" IVar="2" Cut="9.5223641395568848e-01" cType="1" res="4.5461531728506088e-02" rms="4.8345494270324707e-01" purity="5.6727337837219238e-01" nType="0">
          <Node pos="l" depth="2" NCoef="0" IVar="-1" Cut="0.0000000000000000e+00" cType="1" res="-1.5294022159650922e-03" rms="4.9235585331916809e-01" purity="4.4163793325424194e-01" nType="-99"/>
          <Node pos="r" depth="2" NCoef="0" IVar="-1" Cut="0.0000000000000000e+00" cType="1" res="5.0279432907700539e-03" rms="4.5720541477203369e-01" purity="6.9337457418441772e-01" nType="-99"/>
        </Node>
        <Node pos="r" depth="1" NCoef="0" IVar="0" Cut="6.0355094909667969e+01" cType="1" res="-1.5341369807720184e-01" rms="4.3601170182228088e-01" purity="2.6652529835700989e-01" nType="0">
          <Node pos="l" depth="2" NCoef="0" IVar="-1" Cut="0.0000000000000000e+00" cType="1" res="-1.0324615985155106e-02" rms="3.7534144520759583e-01" purity="1.7501890659332275e-01" nType="-99"/>
          <Node pos="r" depth="2" NCoef="0" IVar="-1" Cut="0.0000000000000000e+00" cType="1" res="-4.5735687017440796e-03" rms="4.5317602157592773e-01" purity="3.0484756827354431e-01" nType="-99"/>
        </Node>
      </Node>
    </BinaryTree>
    <BinaryTree type="DecisionTree" boostWeight="1.0000000000000000e+00" itree="29">
      <Node pos="s" depth="0" NCoef="0" IVar="4" Cut="1.1785674095153809e+00" cType="1" res="-1.3562454842031002e-03" rms="4.8005563020706177e-01" purity="4.9742367863655090e-01" nType="0">
        <Node pos="l" depth="1" NCoef="0" IVar="6" Cut="5.4205284118652344e+00" cType="1" res="5.6642781943082809e-02" rms="4.8290345072746277e-01" purity="5.9082782268524170e-01" nType="0">
          <Node pos="l" depth="2" NCoef="0" IVar="-1" Cut="0.0000000000000000e+00" cType="1" res="-4.3787877075374126e-03" rms="4.7558298707008362e-01" purity="3.5027721524238586e-01" nType="-99"/>
          <Node pos="r" depth="2" NCoef="0" IVar="-1" Cut="0.0000000000000000e+00" cType="1" res="3.0127719510346651e-03" rms="4.7828787565231323e-01" purity="6.2586647272109985e-01" nType="-99"/>
        </Node>
        <Node pos="r" depth="1" NCoef="0" IVar="6" Cut="8.0875740051269531e+00" cType="1" res="-1.2132153660058975e-01" rms="4.5103400945663452e-01" purity="3.0422636866569519e-01" nType="0">
          <Node pos="l" depth="2" NCoef="0" IVar="-1" Cut="0.0000000000000000e+00" cType="1" res="-6.0483897104859352e-03" rms="4.3519407510757446e-01" purity="2.6237174868583679e-01" nType="-99"/>
          <Node pos="r" depth="2" NCoef="0" IVar="-1" Cut="0.0000000000000000e+00" cType="1" res="6.8281899439170957e-04" rms="4.9212062358856201e-01" purity="4.8976793885231018e-01" nType="-99"/>
        </Node>
      </Node>
    </BinaryTree>
    <BinaryTree type="DecisionTree" boostWeight="1.0000000000000000e+00" itree="30">
      <Node pos="s" depth="0" NCoef="0" IVar="4" Cut="8.6551302671432495e-01" cType="1" res="4.6984520740807056e-03" rms="4.7704699635505676e-01" purity="5.0292932987213135e-01" nType="0">
        <Node pos="l" depth="1" NCoef="0" IVar="6" Cut="7.4523615837097168e+00" cType="1" res="1.1767914146184921e-01" rms="4.6258658170700073e-01" purity="6.6002160310745239e-01" nType="0">
          <Node pos="l" depth="2" NCoef="0" IVar="-1" Cut="0.0000000000000000e+00" cType="1" res="1.3831498799845576e-03" rms="4.9176234006881714e-01" purity="5.5627095699310303e-01" nType="-99"/>
          <Node pos="r" depth="2" NCoef="0" IVar="-1" Cut="0.0000000000000000e+00" cType="1" res="8.7911114096641541e-03" rms="3.8399833440780640e-01" purity="8.2013666629791260e-01" nType="-99"/>
        </Node>
        <Node pos="r" depth="1" NCoef="0" IVar="2" Cut="9.4549167156219482e-01" cType="1" res="-6.7216329276561737e-02" rms="4.7215026617050171e-01" purity="4.0293651819229126e-01" nType="0">
          <Node pos="l" depth="2" NCoef="0" IVar="-1" Cut="0.0000000000000000e+00" cType="1" res="-5.6558265350759029e-03" rms="4.4332313537597656e-01" purity="2.8387597203254700e-01" nType="-99"/>
          <Node pos="r" depth="2" NCoef="0" IVar="-1" Cut="0.0000000000000000e+00" cType="1" res="2.8600168661796488e-05" rms="4.8436838388442993e-01" purity="5.0163441896438599e-01" nType="-99"/>
        </Node>
      </Node>
    </BinaryTree>
    <BinaryTree type="DecisionTree" boostWeight="1.0000000000000000e+00" itree="31">
      <Node pos="s" depth="0" NCoef="0" IVar="4" Cut="1.1360441446304321e+00" cType="1" res="-3.2440265640616417e-03" rms="4.7843155264854431e-01" purity="4.9413406848907471e-01" nType="0">
        <Node pos="l" depth="1" NCoef="0" IVar="6" Cut="7.5053534507751465e+00" cType="1" res="6.2722429633140564e-02" rms="4.7987440228462219e-01" purity="5.9964817762374878e-01" nType="0">
          <Node pos="l" depth="2" NCoef="0" IVar="-1" Cut="0.0000000000000000e+00" cType="1" res="2.4152065452653915e-04" rms="4.9480748176574707e-01" purity="5.1768893003463745e-01" nType="-99"/>
          <Node pos="r" depth="2" NCoef="0" IVar="-1" Cut="0.0000000000000000e+00" cType="1" res="5.9106308035552502e-03" rms="4.3594288825988770e-01" purity="7.4210530519485474e-01" nType="-99"/>
        </Node>
        <Node pos="r" depth="1" NCoef="0" IVar="6" Cut="6.3048348426818848e+00" cType="1" res="-1.1563045531511307e-01" rms="4.5441895723342896e-01" purity="3.1437057256698608e-01" nType="0">
          <Node pos="l" depth="2" NCoef="0" IVar="-1" Cut="0.0000000000000000e+00" cType="1" res="-7.0594856515526772e-03" rms="4.0891101956367493e-01" purity="2.1564932167530060e-01" nType="-99"/>
          <Node pos="r" depth="2" NCoef="0" IVar="-1" Cut="0.0000000000000000e+00" cType="1" res="-2.6461572851985693e-03" rms="4.7846975922584534e-01" purity="3.8451254367828369e-01" nType="-99"/>
        </Node>
      </Node>
    </BinaryTree>
    <BinaryTree type="DecisionTree" boostWeight="1.0000000000000000e+00" itree="32">
      <Node pos="s" depth="0" NCoef="0" IVar="4" Cut="1.1461468935012817e+00" cType="1" res="1.1854100041091442e-02" rms="4.7789406776428223e-01" purity="5.1202929019927979e-01" nType="0">
        <Node pos="l" depth="1" NCoef="0" IVar="2" Cut="9.6239125728607178e-01" cType="1" res="6.8359665572643280e-02" rms="4.7747182846069336e-01" purity="6.0838192701339722e-01" nType="0">
          <Node pos="l" depth="2" NCoef="0" IVar="-1" Cut="0.0000000000000000e+00" cType="1" res="5.3221912821754813e-04" rms="4.9273613095283508e-01" purity="5.3116202354431152e-01" nType="-99"/>
          <Node pos="r" depth="2" NCoef="0" IVar="-1" Cut="0.0000000000000000e+00" cType="1" res="6.2718680128455162e-03" rms="4.2980498075485229e-01" purity="7.5351464748382568e-01" nType="-99"/>
        </Node>
        <Node pos="r" depth="1" NCoef="0" IVar="6" Cut="6.2808480262756348e+00" cType="1" res="-9.2472985386848450e-02" rms="4.6081268787384033e-01" purity="3.3413198590278625e-01" nType="0">
          <Node pos="l" depth="2" NCoef="0" IVar="-1" Cut="0.0000000000000000e+00" cType="1" res="-7.0694219321012497e-03" rms="4.0908151865005493e-01" purity="2.1668517589569092e-01" nType="-99"/>
          <Node pos="r" depth="2" NCoef="0" IVar="-1" Cut="0.0000000000000000e+00" cType="1" res="-1.2039066059514880e-03" rms="4.8547977209091187e-01" purity="4.1881504654884338e-01" nType="-99"/>
        </Node>
      </Node>
    </BinaryTree>
    <BinaryTree type="DecisionTree" boostWeight="1.0000000000000000e+00" itree="33">
      <Node pos="s" depth="0" NCoef="0" IVar="6" Cut="6.8358650207519531e+00" cType="1" res="8.2208897219970822e-04" rms="4.7748988866806030e-01" purity="4.9834120273590088e-01" nType="0">
        <Node pos="l" depth="1" NCoef="0" IVar="4" Cut="9.0521651506423950e-01" cType="1" res="-7.7036432921886444e-02" rms="4.7381788492202759e-01" purity="3.7652525305747986e-01" nType="0">
          <Node pos="l" depth="2" NCoef="0" IVar="-1" Cut="0.0000000000000000e+00" cType="1" res="1.1827157140942290e-04" rms="4.9919611215591431e-01" purity="5.0155246257781982e-01" nType="-99"/>
          <Node pos="r" depth="2" NCoef="0" IVar="-1" Cut="0.0000000000000000e+00" cType="1" res="-4.8100813291966915e-03" rms="4.5067182183265686e-01" purity="3.0036109685897827e-01" nType="-99"/>
        </Node>
        <Node pos="r" depth="1" NCoef="0" IVar="4" Cut="1.3363542556762695e+00" cType="1" res="8.0491214990615845e-02" rms="4.6799674630165100e-01" purity="6.2298995256423950e-01" nType="0">
          <Node pos="l" depth="2" NCoef="0" IVar="-1" Cut="0.0000000000000000e+00" cType="1" res="4.5982804149389267e-03" rms="4.5724052190780640e-01" purity="6.9109553098678589e-01" nType="-99"/>
          <Node pos="r" depth="2" NCoef="0" IVar="-1" Cut="0.0000000000000000e+00" cType="1" res="-4.2106774635612965e-03" rms="4.6851310133934021e-01" purity="3.3481478691101074e-01" nType="-99"/>
        </Node>
      </Node>
    </BinaryTree>
    <BinaryTree type="DecisionTree" boostWeight="1.0000000000000000e+00" itree="34">
      <Node pos="s" depth="0" NCoef="0" IVar="2" Cut="9.3478310108184814e-01" cType="1" res="3.4496469888836145e-03" rms="4.7705322504043579e-01" purity="5.0348955392837524e-01" nType="0">
        <Node pos="l" depth="1" NCoef="0" IVar="4" Cut="9.0236616134643555e-01" cType="1" res="-1.3405375182628632e-01" rms="4.5243147015571594e-01" purity="3.0784931778907776e-01" nType="0">
          <Node pos="l" depth="2" NCoef="0" IVar="-1" Cut="0.0000000000000000e+00" cType="1" res="-1.7019832739606500e-03" rms="4.9437168240547180e-01" purity="4.3283075094223022e-01" nType="-99"/>
          <Node pos="r" depth="2" NCoef="0" IVar="-1" Cut="0.0000000000000000e+00" cType="1" res="-7.0940498262643814e-03" rms="4.1826054453849792e-01" purity="2.3332303762435913e-01" nType="-99"/>
        </Node>
        <Node pos="r" depth="1" NCoef="0" IVar="4" Cut="1.0548297166824341e+00" cType="1" res="5.4020818322896957e-02" rms="4.7590494155883789e-01" purity="5.7544243335723877e-01" nType="0">
          <Node pos="l" depth="2" NCoef="0" IVar="-1" Cut="0.0000000000000000e+00" cType="1" res="4.1106864809989929e-03" rms="4.6233773231506348e-01" purity="6.7855560779571533e-01" nType="-99"/>
          <Node pos="r" depth="2" NCoef="0" IVar="-1" Cut="0.0000000000000000e+00" cType="1" res="-1.2093030381947756e-03" rms="4.8256090283393860e-01" purity="4.2491307854652405e-01" nType="-99"/>
        </Node>
      </Node>
    </BinaryTree>
    <BinaryTree type="DecisionTree" boostWeight="1.0000000000000000e+00" itree="35">
      <Node pos="s" depth="0" NCoef="0" IVar="4" Cut="1.1576157808303833e+00" cType="1" res="5.1811230368912220e-03" rms="4.7665181756019592e-01" purity="5.0383180379867554e-01" nType="0">
        <Node pos="l" depth="1" NCoef="0" IVar="6" Cut="6.7307519912719727e+00" cType="1" res="6.3182249665260315e-02" rms="4.7813832759857178e-01" purity="6.0215640068054199e-01" nType="0">
          <Node pos="l" depth="2" NCoef="0" IVar="-1" Cut="0.0000000000000000e+00" cType="1" res="-4.1783996857702732e-04" rms="4.9726086854934692e-01" purity="4.7467973828315735e-01" nType="-99"/>
          <Node pos="r" depth="2" NCoef="0" IVar="-1" Cut="0.0000000000000000e+00" cType="1" res="4.7261822037398815e-03" rms="4.5190528035163879e-01" purity="7.0928305387496948e-01" nType="-99"/>
        </Node>
        <Node pos="r" depth="1" NCoef="0" IVar="1" Cut="2.7222402095794678e+00" cType="1" res="-1.0918170213699341e-01" rms="4.5242285728454590e-01" purity="3.0996188521385193e-01" nType="0">
          <Node pos="l" depth="2" NCoef="0" IVar="-1" Cut="0.0000000000000000e+00" cType="1" res="-2.9502254910767078e-03" rms="4.6978914737701416e-01" purity="3.5218766331672668e-01" nType="-99"/>
          <Node pos="r" depth="2" NCoef="0" IVar="-1" Cut="0.0000000000000000e+00" cType="1" res="-1.0607408359646797e-02" rms="3.4013932943344116e-01" purity="1.3529457151889801e-01" nType="-99"/>
        </Node>
      </Node>
    </BinaryTree>
    <BinaryTree type="DecisionTree" boostWeight="1.0000000000000000e+00" itree="36">
      <Node pos="s" depth="0" NCoef="0" IVar="6" Cut="7.3135766983032227e+00" cType="1" res="5.6811147369444370e-03" rms="4.7460085153579712e-01" purity="5.0548237562179565e-01" nType="0">
        <Node pos="l" depth="1" NCoef="0" IVar="4" Cut="1.0516129732131958e+00" cType="1" res="-5.8975458145141602e-02" rms="4.7444793581962585e-01" purity="4.0536621212959290e-01" nType="0">
          <Node pos="l" depth="2" NCoef="0" IVar="-1" Cut="0.0000000000000000e+00" cType="1" res="2.7810575556941330e-04" rms="4.9343046545982361e-01" purity="5.2124315500259399e-01" nType="-99"/>
          <Node pos="r" depth="2" NCoef="0" IVar="-1" Cut="0.0000000000000000e+00" cType="1" res="-5.2399137057363987e-03" rms="4.4063806533813477e-01" purity="2.7654018998146057e-01" nType="-99"/>
        </Node>
        <Node pos="r" depth="1" NCoef="0" IVar="4" Cut="1.2931636571884155e+00" cType="1" res="1.0694219172000885e-01" rms="4.5680657029151917e-01" purity="6.6227799654006958e-01" nType="0">
          <Node pos="l" depth="2" NCoef="0" IVar="-1" Cut="0.0000000000000000e+00" cType="1" res="5.3514428436756134e-03" rms="4.4142767786979675e-01" purity="7.2572070360183716e-01" nType="-99"/>
          <Node pos="r" depth="2" NCoef="0" IVar="-1" Cut="0.0000000000000000e+00" cType="1" res="-1.9366213819012046e-03" rms="4.8581367731094360e-01" purity="3.9932206273078918e-01" nType="-99"/>
        </Node>
      </Node>
    </BinaryTree>
    <BinaryTree type="DecisionTree" boostWeight="1.0000000000000000e+00" itree="37">
      <Node pos="s" depth="0" NCoef="0" IVar="2" Cut="9.5670527219772339e-01" cType="1" res="-3.5183830186724663e-03" rms="4.7671395540237427e-01" purity="4.9625089764595032e-01" nType="0">
        <Node pos="l" depth="1" NCoef="0" IVar="4" Cut="7.0262807607650757e-01" cType="1" res="-6.0662072151899338e-02" rms="4.7597616910934448e-01" purity="4.0164956450462341e-01" nType="0">
          <Node pos="l" depth="2" NCoef="0" IVar="-1" Cut="0.0000000000000000e+00" cType="1" res="2.5029510725289583e-03" rms="4.8776441812515259e-01" purity="5.9152793884277344e-01" nType="-99"/>
          <Node pos="r" depth="2" NCoef="0" IVar="-1" Cut="0.0000000000000000e+00" cType="1" res="-3.6905077286064625e-03" rms="4.6563947200775146e-01" purity="3.4908428788185120e-01" nType="-99"/>
        </Node>
        <Node pos="r" depth="1" NCoef="0" IVar="4" Cut="1.2586032152175903e+00" cType="1" res="7.8285999596118927e-02" rms="4.6572077274322510e-01" purity="6.3167810440063477e-01" nType="0">
          <Node pos="l" depth="2" NCoef="0" IVar="-1" Cut="0.0000000000000000e+00" cType="1" res="4.6182745136320591e-03" rms="4.5295068621635437e-01" purity="7.0723497867584229e-01" nType="-99"/>
          <Node pos="r" depth="2" NCoef="0" IVar="-1" Cut="0.0000000000000000e+00" cType="1" res="-3.1782640144228935e-03" rms="4.7569411993026733e-01" purity="3.6677855253219604e-01" nType="-99"/>
        </Node>
      </Node>
    </BinaryTree>
    <BinaryTree type="DecisionTree" boostWeight="1.0000000000000000e+00" itree="38">
      <Node pos="s" depth="0" NCoef="0" IVar="1" Cut="2.5152566432952881e+00" cType="1" res="2.7636336162686348e-03" rms="4.7470593452453613e-01" purity="4.9923211336135864e-01" nType="0">
        <Node pos="l" depth="1" NCoef="0" IVar="6" Cut="7.3066105842590332e+00" cType="1" res="3.6709286272525787e-02" rms="4.7928020358085632e-01" purity="5.5088847875595093e-01" nType="0">
          <Node pos="l" depth="2" NCoef="0" IVar="-1" Cut="0.0000000000000000e+00" cType="1" res="-6.2298733973875642e-04" rms="4.8740136623382568e-01" purity="4.6235990524291992e-01" nType="-99"/>
          <Node pos="r" depth="2" NCoef="0" IVar="-1" Cut="0.0000000000000000e+00" cType="1" res="4.6776309609413147e-03" rms="4.5248702168464661e-01" purity="6.9309985637664795e-01" nType="-99"/>
        </Node>
        <Node pos="r" depth="1" NCoef="0" IVar="1" Cut="2.7299118041992188e+00" cType="1" res="-1.8571440875530243e-01" rms="3.9899161458015442e-01" purity="2.1241803467273712e-01" nType="0">
          <Node pos="l" depth="2" NCoef="0" IVar="-1" Cut="0.0000000000000000e+00" cType="1" res="-5.7200584560632706e-03" rms="4.3523114919662476e-01" purity="2.7051141858100891e-01" nType="-99"/>
          <Node pos="r" depth="2" NCoef="0" IVar="-1" Cut="0.0000000000000000e+00" cType="1" res="-1.1106308549642563e-02" rms="3.2319885492324829e-01" purity="1.2099876254796982e-01" nType="-99"/>
        </Node>
      </Node>
    </BinaryTree>
    <BinaryTree type="DecisionTree" boostWeight="1.0000000000000000e+00" itree="39">
      <Node pos="s" depth="0" NCoef="0" IVar="4" Cut="9.1298145055770874e-01" cType="1" res="-2.6036358904093504e-03" rms="4.7754409909248352e-01" purity="4.9564301967620850e-01" nType="0">
        <Node pos="l" depth="1" NCoef="0" IVar="0" Cut="4.2240158081054688e+01" cType="1" res="7.4966430664062500e-02" rms="4.7241282463073730e-01" purity="6.2703400850296021e-01" nType="0">
          <Node pos="l" depth="2" NCoef="0" IVar="-1" Cut="0.0000000000000000e+00" cType="1" res="-4.1704569011926651e-03" rms="4.8009175062179565e-01" purity="4.3679758906364441e-01" nType="-99"/>
          <Node pos="r" depth="2" NCoef="0" IVar="-1" Cut="0.0000000000000000e+00" cType="1" res="3.9931172505021095e-03" rms="4.6300181746482849e-01" purity="6.6224867105484009e-01" nType="-99"/>
        </Node>
        <Node pos="r" depth="1" NCoef="0" IVar="6" Cut="8.1901903152465820e+00" cType="1" res="-5.9526126831769943e-02" rms="4.7325441241264343e-01" purity="3.9922562241554260e-01" nType="0">
          <Node pos="l" depth="2" NCoef="0" IVar="-1" Cut="0.0000000000000000e+00" cType="1" res="-3.4282666165381670e-03" rms="4.6761283278465271e-01" purity="3.5677009820938110e-01" nType="-99"/>
          <Node pos="r" depth="2" NCoef="0" IVar="-1" Cut="0.0000000000000000e+00" cType="1" res="3.3461337443441153e-03" rms="4.7477355599403381e-01" purity="6.1132502555847168e-01" nType="-99"/>
        </Node>
      </Node>
    </BinaryTree>
    <BinaryTree type="DecisionTree" boostWeight="1.0000000000000000e+00" itree="40">
      <Node pos="s" depth="0" NCoef="0" IVar="1" Cut="2.4494607448577881e+00" cType="1" res="3.5154572688043118e-03" rms="4.7725307941436768e-01" purity="5.0260239839553833e-01" nType="0">
        <Node pos="l" depth="1" NCoef="0" IVar="0" Cut="7.7171295166015625e+01" cType="1" res="3.6269169300794601e-02" rms="4.8173776268959045e-01" purity="5.5693507194519043e-01" nType="0">
          <Node pos="l" depth="2" NCoef="0" IVar="-1" Cut="0.0000000000000000e+00" cType="1" res="-1.0033813305199146e-03" rms="4.8286268115043640e-01" purity="4.8944640159606934e-01" nType="-99"/>
          <Node pos="r" depth="2" NCoef="0" IVar="-1" Cut="0.0000000000000000e+00" cType="1" res="4.2140982113778591e-03" rms="4.6822020411491394e-01" purity="6.4016127586364746e-01" nType="-99"/>
        </Node>
        <Node pos="r" depth="1" NCoef="0" IVar="1" Cut="2.7348227500915527e+00" cType="1" res="-1.4591927826404572e-01" rms="4.2535102367401123e-01" purity="2.5471633672714233e-01" nType="0">
          <Node pos="l" depth="2" NCoef="0" IVar="-1" Cut="0.0000000000000000e+00" cType="1" res="-4.4267252087593079e-03" rms="4.5267790555953979e-01" purity="3.0603799223899841e-01" nType="-99"/>
          <Node pos="r" depth="2" NCoef="0" IVar="-1" Cut="0.0000000000000000e+00" cType="1" res="-9.6829393878579140e-03" rms="3.4832444787025452e-01" purity="1.4465062320232391e-01" nType="-99"/>
        </Node>
      </Node>
    </BinaryTree>
    <BinaryTree type="DecisionTree" boostWeight="1.0000000000000000e+00" itree="41">
      <Node pos="s" depth="0" NCoef="0" IVar="1" Cut="2.4925658702850342e+00" cType="1" res="-1.0851860977709293e-02" rms="4.7535082697868347e-01" purity="4.8809838294982910e-01" nType="0">
        <Node pos="l" depth="1" NCoef="0" IVar="2" Cut="9.4152384996414185e-01" cType="1" res="1.6725456342101097e-02" rms="4.8077526688575745e-01" purity="5.3457099199295044e-01" nType="0">
          <Node pos="l" depth="2" NCoef="0" IVar="-1" Cut="0.0000000000000000e+00" cType="1" res="-2.5088856928050518e-03" rms="4.8142302036285400e-01" purity="3.8575327396392822e-01" nType="-99"/>
          <Node pos="r" depth="2" NCoef="0" IVar="-1" Cut="0.0000000000000000e+00" cType="1" res="2.5628954172134399e-03" rms="4.7285759449005127e-01" purity="6.1896079778671265e-01" nType="-99"/>
        </Node>
        <Node pos="r" depth="1" NCoef="0" IVar="6" Cut="5.8713102340698242e+00" cType="1" res="-1.6970929503440857e-01" rms="4.0800210833549500e-01" purity="2.2039587795734406e-01" nType="0">
          <Node pos="l" depth="2" NCoef="0" IVar="-1" Cut="0.0000000000000000e+00" cType="1" res="-9.7881872206926346e-03" rms="3.2965984940528870e-01" purity="1.2344925105571747e-01" nType="-99"/>
          <Node pos="r" depth="2" NCoef="0" IVar="-1" Cut="0.0000000000000000e+00" cType="1" res="-5.6924163363873959e-03" rms="4.4031265377998352e-01" purity="2.7149537205696106e-01" nType="-99"/>
        </Node>
      </Node>
    </BinaryTree>
    <BinaryTree type="DecisionTree" boostWeight="1.0000000000000000e+00" itree="42">
      <Node pos="s" depth="0" NCoef="0" IVar="6" Cut="6.0024333000183105e+00" cType="1" res="-5.5549386888742447e-03" rms="4.7633102536201477e-01" purity="4.9263167381286621e-01" nType="0">
        <Node pos="l" depth="1" NCoef="0" IVar="4" Cut="7.1902644634246826e-01" cType="1" res="-1.0824236273765564e-01" rms="4.5597764849662781e-01" purity="3.2287511229515076e-01" nType="0">
          <Node pos="l" depth="2" NCoef="0" IVar="-1" Cut="0.0000000000000000e+00" cType="1" res="3.5386788658797741e-04" rms="4.9972772598266602e-01" purity="4.9600124359130859e-01" nType="-99"/>
          <Node pos="r" depth="2" NCoef="0" IVar="-1" Cut="0.0000000000000000e+00" cType="1" res="-5.3365654312074184e-03" rms="4.3787670135498047e-01" purity="2.7596890926361084e-01" nType="-99"/>
        </Node>
        <Node pos="r" depth="1" NCoef="0" IVar="0" Cut="3.9967468261718750e+01" cType="1" res="3.5428877919912338e-02" rms="4.7809669375419617e-01" purity="5.6038361787796021e-01" nType="0">
          <Node pos="l" depth="2" NCoef="0" IVar="-1" Cut="0.0000000000000000e+00" cType="1" res="-5.7825632393360138e-03" rms="4.6957024931907654e-01" purity="3.7695598602294922e-01" nType="-99"/>
          <Node pos="r" depth="2" NCoef="0" IVar="-1" Cut="0.0000000000000000e+00" cType="1" res="2.1419508848339319e-03" rms="4.7452446818351746e-01" purity="5.8142912387847900e-01" nType="-99"/>
        </Node>
      </Node>
    </BinaryTree>
    <BinaryTree type="DecisionTree" boostWeight="1.0000000000000000e+00" itree="43">
      <Node pos="s" depth="0" NCoef="0" IVar="4" Cut="1.0557767152786255e+00" cType="1" res="-5.9740259312093258e-03" rms="4.7224956750869751e-01" purity="4.9428769946098328e-01" nType="0">
        <Node pos="l" depth="1" NCoef="0" IVar="6" Cut="7.2689800262451172e+00" cType="1" res="5.6029248982667923e-02" rms="4.7477030754089355e-01" purity="6.0816240310668945e-01" nType="0">
          <Node pos="l" depth="2" NCoef="0" IVar="-1" Cut="0.0000000000000000e+00" cType="1" res="-2.1032892982475460e-04" rms="4.9385082721710205e-01" purity="5.0571358203887939e-01" nType="-99"/>
          <Node pos="r" depth="2" NCoef="0" IVar="-1" Cut="0.0000000000000000e+00" cType="1" res="5.2814166992902756e-03" rms="4.3394601345062256e-01" purity="7.4641984701156616e-01" nType="-99"/>
        </Node>
        <Node pos="r" depth="1" NCoef="0" IVar="6" Cut="7.8194913864135742e+00" cType="1" res="-9.2767022550106049e-02" rms="4.5471259951591492e-01" purity="3.3488434553146362e-01" nType="0">
          <Node pos="l" depth="2" NCoef="0" IVar="-1" Cut="0.0000000000000000e+00" cType="1" res="-5.0524533726274967e-03" rms="4.3978202342987061e-01" purity="2.8214606642723083e-01" nType="-99"/>
          <Node pos="r" depth="2" NCoef="0" IVar="-1" Cut="0.0000000000000000e+00" cType="1" res="1.2282147072255611e-03" rms="4.8437660932540894e-01" purity="5.2225971221923828e-01" nType="-99"/>
        </Node>
      </Node>
    </BinaryTree>
    <BinaryTree type="DecisionTree" boostWeight="1.0000000000000000e+00" itree="44">
      <Node pos="s" depth="0" NCoef="0" IVar="6" Cut="6.0244073867797852e+00" cType="1" res="1.6061326488852501e-02" rms="4.7508710622787476e-01" purity="5.1554316282272339e-01" nType="0">
        <Node pos="l" depth="1" NCoef="0" IVar="4" Cut="7.6939606666564941e-01" cType="1" res="-9.2331811785697937e-02" rms="4.6061196923255920e-01" purity="3.3765694499015808e-01" nType="0">
          <Node pos="l" depth="2" NCoef="0" IVar="-1" Cut="0.0000000000000000e+00" cType="1" res="1.7343064537271857e-03" rms="4.9775505065917969e-01" purity="5.3514593839645386e-01" nType="-99"/>
          <Node pos="r" depth="2" NCoef="0" IVar="-1" Cut="0.0000000000000000e+00" cType="1" res="-5.3710602223873138e-03" rms="4.3663188815116882e-01" purity="2.7002844214439392e-01" nType="-99"/>
        </Node>
        <Node pos="r" depth="1" NCoef="0" IVar="4" Cut="1.4609022140502930e+00" cType="1" res="5.8783460408449173e-02" rms="4.7390946745872498e-01" purity="5.8565527200698853e-01" nType="0">
          <Node pos="l" depth="2" NCoef="0" IVar="-1" Cut="0.0000000000000000e+00" cType="1" res="3.0154406558722258e-03" rms="4.7211113572120667e-01" purity="6.2625843286514282e-01" nType="-99"/>
          <Node pos="r" depth="2" NCoef="0" IVar="-1" Cut="0.0000000000000000e+00" cType="1" res="-3.4635621123015881e-03" rms="4.6068301796913147e-01" purity="3.2000231742858887e-01" nType="-99"/>
        </Node>
      </Node>
    </BinaryTree>
    <BinaryTree type="DecisionTree" boostWeight="1.0000000000000000e+00" itree="45">
      <Node pos="s" depth="0" NCoef="0" IVar="4" Cut="1.0194188356399536e+00" cType="1" res="-2.4453368969261646e-03" rms="4.7561430931091309e-01" purity="4.9720928072929382e-01" nType="0">
        <Node pos="l" depth="1" NCoef="0" IVar="0" Cut="5.4289386749267578e+01" cType="1" res="5.4382614791393280e-02" rms="4.7751957178115845e-01" purity="6.0909152030944824e-01" nType="0">
          <Node pos="l" depth="2" NCoef="0" IVar="-1" Cut="0.0000000000000000e+00" cType="1" res="-1.9070680718868971e-03" rms="4.9155086278915405e-01" purity="4.9548307061195374e-01" nType="-99"/>
          <Node pos="r" depth="2" NCoef="0" IVar="-1" Cut="0.0000000000000000e+00" cType="1" res="3.6114123649895191e-03" rms="4.6329557895660400e-01" purity="6.5997999906539917e-01" nType="-99"/>
        </Node>
        <Node pos="r" depth="1" NCoef="0" IVar="6" Cut="7.8194913864135742e+00" cType="1" res="-6.8508364260196686e-02" rms="4.6473574638366699e-01" purity="3.6714518070220947e-01" nType="0">
          <Node pos="l" depth="2" NCoef="0" IVar="-1" Cut="0.0000000000000000e+00" cType="1" res="-4.1386736556887627e-03" rms="4.5257157087326050e-01" purity="3.1100454926490784e-01" nType="-99"/>
          <Node pos="r" depth="2" NCoef="0" IVar="-1" Cut="0.0000000000000000e+00" cType="1" res="1.7105306033045053e-03" rms="4.8492851853370667e-01" purity="5.4665458202362061e-01" nType="-99"/>
        </Node>
      </Node>
    </BinaryTree>
    <BinaryTree type="DecisionTree" boostWeight="1.0000000000000000e+00" itree="46">
      <Node pos="s" depth="0" NCoef="0" IVar="4" Cut="1.3233635425567627e+00" cType="1" res="-4.5075956732034683e-03" rms="4.7097980976104736e-01" purity="4.9620345234870911e-01" nType="0">
        <Node pos="l" depth="1" NCoef="0" IVar="6" Cut="5.5269765853881836e+00" cType="1" res="3.8134098052978516e-02" rms="4.7747781872749329e-01" purity="5.7113504409790039e-01" nType="0">
          <Node pos="l" depth="2" NCoef="0" IVar="-1" Cut="0.0000000000000000e+00" cType="1" res="-4.6512098051607609e-03" rms="4.6171405911445618e-01" purity="3.2157731056213379e-01" nType="-99"/>
          <Node pos="r" depth="2" NCoef="0" IVar="-1" Cut="0.0000000000000000e+00" cType="1" res="2.5110153947025537e-03" rms="4.7409170866012573e-01" purity="6.1456197500228882e-01" nType="-99"/>
        </Node>
        <Node pos="r" depth="1" NCoef="0" IVar="0" Cut="8.7537246704101562e+01" cType="1" res="-1.5319004654884338e-01" rms="4.1459149122238159e-01" purity="2.3493297398090363e-01" nType="0">
          <Node pos="l" depth="2" NCoef="0" IVar="-1" Cut="0.0000000000000000e+00" cType="1" res="-8.6209196597337723e-03" rms="3.8064453005790710e-01" purity="1.8500453233718872e-01" nType="-99"/>
          <Node pos="r" depth="2" NCoef="0" IVar="-1" Cut="0.0000000000000000e+00" cType="1" res="-4.0008635260164738e-03" rms="4.4158214330673218e-01" purity="2.8869825601577759e-01" nType="-99"/>
        </Node>
      </Node>
    </BinaryTree>
    <BinaryTree type="DecisionTree" boostWeight="1.0000000000000000e+00" itree="47">
      <Node pos="s" depth="0" NCoef="0" IVar="2" Cut="9.6336573362350464e-01" cType="1" res="-1.0393019765615463e-02" rms="4.7182962298393250e-01" purity="4.8975232243537903e-01" nType="0">
        <Node pos="l" depth="1" NCoef="0" IVar="1" Cut="2.5069997310638428e+00" cType="1" res="-5.7899896055459976e-02" rms="4.7189113497734070e-01" purity="4.1169312596321106e-01" nType="0">
          <Node pos="l" depth="2" NCoef="0" IVar="-1" Cut="0.0000000000000000e+00" cType="1" res="-1.1630331864580512e-03" rms="4.8440653085708618e-01" purity="4.5844110846519470e-01" nType="-99"/>
          <Node pos="r" depth="2" NCoef="0" IVar="-1" Cut="0.0000000000000000e+00" cType="1" res="-8.4232073277235031e-03" rms="3.7005853652954102e-01" purity="1.6468445956707001e-01" nType="-99"/>
        </Node>
        <Node pos="r" depth="1" NCoef="0" IVar="4" Cut="1.3213492631912231e+00" cType="1" res="9.2518374323844910e-02" rms="4.5499199628829956e-01" purity="6.5884751081466675e-01" nType="0">
          <Node pos="l" depth="2" NCoef="0" IVar="-1" Cut="0.0000000000000000e+00" cType="1" res="4.9154716543853283e-03" rms="4.4238492846488953e-01" purity="7.2447204589843750e-01" nType="-99"/>
          <Node pos="r" depth="2" NCoef="0" IVar="-1" Cut="0.0000000000000000e+00" cType="1" res="-2.3976871743798256e-03" rms="4.7577938437461853e-01" purity="3.7848019599914551e-01" nType="-99"/>
        </Node>
      </Node>
    </BinaryTree>
    <BinaryTree type="DecisionTree" boostWeight="1.0000000000000000e+00" itree="48">
      <Node pos="s" depth="0" NCoef="0" IVar="4" Cut="1.0209664106369019e+00" cType="1" res="5.0056478939950466e-03" rms="4.7143432497978210e-01" purity="5.0338482856750488e-01" nType="0">
        <Node pos="l" depth="1" NCoef="0" IVar="2" Cut="9.6220153570175171e-01" cType="1" res="7.7124744653701782e-02" rms="4.6904218196868896e-01" purity="6.3422584533691406e-01" nType="0">
          <Node pos="l" depth="2" NCoef="0" IVar="-1" Cut="0.0000000000000000e+00" cType="1" res="1.0798411676660180e-03" rms="4.9080970883369446e-01" purity="5.5540919303894043e-01" nType="-99"/>
          <Node pos="r" depth="2" NCoef="0" IVar="-1" Cut="0.0000000000000000e+00" cType="1" res="6.3911895267665386e-03" rms="4.0861025452613831e-01" purity="7.8647243976593018e-01" nType="-99"/>
        </Node>
        <Node pos="r" depth="1" NCoef="0" IVar="1" Cut="2.4444615840911865e+00" cType="1" res="-7.9426616430282593e-02" rms="4.6007198095321655e-01" purity="3.5020488500595093e-01" nType="0">
          <Node pos="l" depth="2" NCoef="0" IVar="-1" Cut="0.0000000000000000e+00" cType="1" res="-1.3632227201014757e-03" rms="4.8221218585968018e-01" purity="4.2401811480522156e-01" nType="-99"/>
          <Node pos="r" depth="2" NCoef="0" IVar="-1" Cut="0.0000000000000000e+00" cType="1" res="-6.1464500613510609e-03" rms="4.1496413946151733e-01" purity="2.3696261644363403e-01" nType="-99"/>
        </Node>
      </Node>
    </BinaryTree>
    <BinaryTree type="DecisionTree" boostWeight="1.0000000000000000e+00" itree="49">
      <Node pos="s" depth="0" NCoef="0" IVar="4" Cut="1.4390543699264526e+00" cType="1" res="5.7181301526725292e-03" rms="4.7423088550567627e-01" purity="5.0368881225585938e-01" nType="0">
        <Node pos="l" depth="1" NCoef="0" IVar="6" Cut="5.7058057785034180e+00" cType="1" res="3.1826324760913849e-02" rms="4.7927826642990112e-01" purity="5.5212581157684326e-01" nType="0">
          <Node pos="l" depth="2" NCoef="0" IVar="-1" Cut="0.0000000000000000e+00" cType="1" res="-3.2697925344109535e-03" rms="4.7192907333374023e-01" purity="3.5007324814796448e-01" nType="-99"/>
          <Node pos="r" depth="2" NCoef="0" IVar="-1" Cut="0.0000000000000000e+00" cType="1" res="2.2701483685523272e-03" rms="4.7640031576156616e-01" purity="6.0190433263778687e-01" nType="-99"/>
        </Node>
        <Node pos="r" depth="1" NCoef="0" IVar="0" Cut="8.2031768798828125e+01" cType="1" res="-1.3930846750736237e-01" rms="4.1634356975555420e-01" purity="2.3462988436222076e-01" nType="0">
          <Node pos="l" depth="2" NCoef="0" IVar="-1" Cut="0.0000000000000000e+00" cType="1" res="-8.9068263769149780e-03" rms="3.7011170387268066e-01" purity="1.6865767538547516e-01" nType="-99"/>
          <Node pos="r" depth="2" NCoef="0" IVar="-1" Cut="0.0000000000000000e+00" cType="1" res="-2.9355136211961508e-03" rms="4.4913628697395325e-01" purity="3.0313777923583984e-01" nType="-99"/>
        </Node>
      </Node>
    </BinaryTree>
    <BinaryTree type="DecisionTree" boostWeight="1.0000000000000000e+00" itree="50">
      <Node pos="s" depth="0" NCoef="0" IVar="4" Cut="1.3623278141021729e+00" cType="1" res="-1.2515965849161148e-02" rms="4.7299310564994812e-01" purity="4.8593062162399292e-01" nType="0">
        <Node pos="l" depth="1" NCoef="0" IVar="6" Cut="7.2748665809631348e+00" cType="1" res="1.6613006591796875e-02" rms="4.8017200827598572e-01" purity="5.4583829641342163e-01" nType="0">
          <Node pos="l" depth="2" NCoef="0" IVar="-1" Cut="0.0000000000000000e+00" cType="1" res="-1.2921656016260386e-03" rms="4.8771625757217407e-01" purity="4.5035925507545471e-01" nType="-99"/>
          <Node pos="r" depth="2" NCoef="0" IVar="-1" Cut="0.0000000000000000e+00" cType="1" res="3.5671531222760677e-03" rms="4.5808041095733643e-01" purity="6.8610483407974243e-01" nType="-99"/>
        </Node>
        <Node pos="r" depth="1" NCoef="0" IVar="0" Cut="6.0677906036376953e+01" cType="1" res="-1.2861254811286926e-01" rms="4.2378073930740356e-01" purity="2.4716204404830933e-01" nType="0">
          <Node pos="l" depth="2" NCoef="0" IVar="-1" Cut="0.0000000000000000e+00" cType="1" res="-1.1589428409934044e-02" rms="3.1033813953399658e-01" purity="1.1142029613256454e-01" nType="-99"/>
          <Node pos="r" depth="2" NCoef="0" IVar="-1" Cut="0.0000000000000000e+00" cType="1" res="-2.8324702288955450e-03" rms="4.5223453640937805e-01" purity="3.0759474635124207e-01" nType="-99"/>
        </Node>
      </Node>
    </BinaryTree>
    <BinaryTree type="DecisionTree" boostWeight="1.0000000000000000e+00" itree="51">
      <Node pos="s" depth="0" NCoef="0" IVar="6" Cut="8.0623292922973633e+00" cType="1" res="1.1436888948082924e-02" rms="4.7243916988372803e-01" purity="5.0911492109298706e-01" nType="0">
        <Node pos="l" depth="1" NCoef="0" IVar="1" Cut="2.4923274517059326e+00" cType="1" res="-2.2832434624433517e-02" rms="4.7608211636543274e-01" purity="4.5290493965148926e-01" nType="0">
          <Node pos="l" depth="2" NCoef="0" IVar="-1" Cut="0.0000000000000000e+00" cType="1" res="1.7640356963966042e-04" rms="4.8651129007339478e-01" purity="5.0414383411407471e-01" nType="-99"/>
          <Node pos="r" depth="2" NCoef="0" IVar="-1" Cut="0.0000000000000000e+00" cType="1" res="-6.6660447046160698e-03" rms="3.9587956666946411e-01" purity="2.0572270452976227e-01" nType="-99"/>
        </Node>
        <Node pos="r" depth="1" NCoef="0" IVar="3" Cut="-2.5592142716050148e-02" cType="1" res="1.3281984627246857e-01" rms="4.3825349211692810e-01" purity="7.0821219682693481e-01" nType="0">
          <Node pos="l" depth="2" NCoef="0" IVar="-1" Cut="0.0000000000000000e+00" cType="1" res="2.2300947457551956e-03" rms="4.6892377734184265e-01" purity="6.1409437656402588e-01" nType="-99"/>
          <Node pos="r" depth="2" NCoef="0" IVar="-1" Cut="0.0000000000000000e+00" cType="1" res="7.1964329108595848e-03" rms="4.0425348281860352e-01" purity="7.7946978807449341e-01" nType="-99"/>
        </Node>
      </Node>
    </BinaryTree>
    <BinaryTree type="DecisionTree" boostWeight="1.0000000000000000e+00" itree="52">
      <Node pos="s" depth="0" NCoef="0" IVar="6" Cut="6.6026482582092285e+00" cType="1" res="-2.3674506228417158e-03" rms="4.7111248970031738e-01" purity="4.9712029099464417e-01" nType="0">
        <Node pos="l" depth="1" NCoef="0" IVar="4" Cut="6.2226319313049316e-01" cType="1" res="-7.2141334414482117e-02" rms="4.6814072132110596e-01" purity="3.6038064956665039e-01" nType="0">
          <Node pos="l" depth="2" NCoef="0" IVar="-1" Cut="0.0000000000000000e+00" cType="1" res="2.5983985979110003e-03" rms="4.9236586689949036e-01" purity="5.7179540395736694e-01" nType="-99"/>
          <Node pos="r" depth="2" NCoef="0" IVar="-1" Cut="0.0000000000000000e+00" cType="1" res="-3.6748687271028757e-03" rms="4.5965775847434998e-01" purity="3.2621595263481140e-01" nType="-99"/>
        </Node>
        <Node pos="r" depth="1" NCoef="0" IVar="1" Cut="2.4812777042388916e+00" cType="1" res="5.0341475754976273e-02" rms="4.6647572517395020e-01" purity="6.0041677951812744e-01" nType="0">
          <Node pos="l" depth="2" NCoef="0" IVar="-1" Cut="0.0000000000000000e+00" cType="1" res="3.0816232319921255e-03" rms="4.6465262770652771e-01" purity="6.5715104341506958e-01" nType="-99"/>
          <Node pos="r" depth="2" NCoef="0" IVar="-1" Cut="0.0000000000000000e+00" cType="1" res="-5.4727718234062195e-03" rms="4.3358483910560608e-01" purity="2.7786907553672791e-01" nType="-99"/>
        </Node>
      </Node>
    </BinaryTree>
    <BinaryTree type="DecisionTree" boostWeight="1.0000000000000000e+00" itree="53">
      <Node pos="s" depth="0" NCoef="0" IVar="4" Cut="1.4319659471511841e+00" cType="1" res="-4.3610534630715847e-03" rms="4.7201716899871826e-01" purity="4.9426349997520447e-01" nType="0">
        <Node pos="l" depth="1" NCoef="0" IVar="6" Cut="5.7011885643005371e+00" cType="1" res="2.2509295493364334e-02" rms="4.7890636324882507e-01" purity="5.4727256298065186e-01" nType="0">
          <Node pos="l" depth="2" NCoef="0" IVar="-1" Cut="0.0000000000000000e+00" cType="1" res="-3.3076428808271885e-03" rms="4.7163283824920654e-01" purity="3.4575060009956360e-01" nType="-99"/>
          <Node pos="r" depth="2" NCoef="0" IVar="-1" Cut="0.0000000000000000e+00" cType="1" res="1.9200519891455770e-03" rms="4.7646355628967285e-01" purity="5.9728717803955078e-01" nType="-99"/>
        </Node>
        <Node pos="r" depth="1" NCoef="0" IVar="6" Cut="5.9558391571044922e+00" cType="1" res="-1.4064480364322662e-01" rms="4.0907031297683716e-01" purity="2.2540667653083801e-01" nType="0">
          <Node pos="l" depth="2" NCoef="0" IVar="-1" Cut="0.0000000000000000e+00" cType="1" res="-9.8463082686066628e-03" rms="3.0505973100662231e-01" purity="1.0585982352495193e-01" nType="-99"/>
          <Node pos="r" depth="2" NCoef="0" IVar="-1" Cut="0.0000000000000000e+00" cType="1" res="-4.2592738755047321e-03" rms="4.4781169295310974e-01" purity="2.8632661700248718e-01" nType="-99"/>
        </Node>
      </Node>
    </BinaryTree>
    <BinaryTree type="DecisionTree" boostWeight="1.0000000000000000e+00" itree="54">
      <Node pos="s" depth="0" NCoef="0" IVar="2" Cut="9.5878487825393677e-01" cType="1" res="1.2913803569972515e-02" rms="4.6970611810684204e-01" purity="5.1075482368469238e-01" nType="0">
        <Node pos="l" depth="1" NCoef="0" IVar="4" Cut="7.8631317615509033e-01" cType="1" res="-3.6036740988492966e-02" rms="4.7356358170509338e-01" purity="4.2024490237236023e-01" nType="0">
          <Node pos="l" depth="2" NCoef="0" IVar="-1" Cut="0.0000000000000000e+00" cType="1" res="2.0579532720148563e-03" rms="4.8739334940910339e-01" purity="5.8134168386459351e-01" nType="-99"/>
          <Node pos="r" depth="2" NCoef="0" IVar="-1" Cut="0.0000000000000000e+00" cType="1" res="-2.8528659604489803e-03" rms="4.6263310313224792e-01" purity="3.5597845911979675e-01" nType="-99"/>
        </Node>
        <Node pos="r" depth="1" NCoef="0" IVar="0" Cut="4.5534553527832031e+01" cType="1" res="9.6943177282810211e-02" rms="4.5078092813491821e-01" purity="6.6612583398818970e-01" nType="0">
          <Node pos="l" depth="2" NCoef="0" IVar="-1" Cut="0.0000000000000000e+00" cType="1" res="-3.0853804200887680e-03" rms="4.8050579428672791e-01" purity="4.9396896362304688e-01" nType="-99"/>
          <Node pos="r" depth="2" NCoef="0" IVar="-1" Cut="0.0000000000000000e+00" cType="1" res="5.0799315795302391e-03" rms="4.3664765357971191e-01" purity="7.0027518272399902e-01" nType="-99"/>
        </Node>
      </Node>
    </BinaryTree>
    <BinaryTree type="DecisionTree" boostWeight="1.0000000000000000e+00" itree="55">
      <Node pos="s" depth="0" NCoef="0" IVar="6" Cut="6.8142766952514648e+00" cType="1" res="1.0668505914509296e-02" rms="4.6975591778755188e-01" purity="5.0910544395446777e-01" nType="0">
        <Node pos="l" depth="1" NCoef="0" IVar="0" Cut="8.0968994140625000e+01" cType="1" res="-5.2993431687355042e-02" rms="4.7280925512313843e-01" purity="3.8302570581436157e-01" nType="0">
          <Node pos="l" depth="2" NCoef="0" IVar="-1" Cut="0.0000000000000000e+00" cType="1" res="-3.9831814356148243e-03" rms="4.5827162265777588e-01" purity="3.3680927753448486e-01" nType="-99"/>
          <Node pos="r" depth="2" NCoef="0" IVar="-1" Cut="0.0000000000000000e+00" cType="1" res="7.5469340663403273e-04" rms="4.8299315571784973e-01" purity="4.4744074344635010e-01" nType="-99"/>
        </Node>
        <Node pos="r" depth="1" NCoef="0" IVar="4" Cut="1.2931636571884155e+00" cType="1" res="7.4205562472343445e-02" rms="4.5794808864593506e-01" purity="6.3493794202804565e-01" nType="0">
          <Node pos="l" depth="2" NCoef="0" IVar="-1" Cut="0.0000000000000000e+00" cType="1" res="4.0513752028346062e-03" rms="4.4777408242225647e-01" purity="7.0765358209609985e-01" nType="-99"/>
          <Node pos="r" depth="2" NCoef="0" IVar="-1" Cut="0.0000000000000000e+00" cType="1" res="-2.1739176008850336e-03" rms="4.7257104516029358e-01" purity="3.6640068888664246e-01" nType="-99"/>
        </Node>
      </Node>
    </BinaryTree>
    <BinaryTree type="DecisionTree" boostWeight="1.0000000000000000e+00" itree="56">
      <Node pos="s" depth="0" NCoef="0" IVar="2" Cut="9.2903435230255127e-01" cType="1" res="1.0476858355104923e-02" rms="4.7067263722419739e-01" purity="5.1394337415695190e-01" nType="0">
        <Node pos="l" depth="1" NCoef="0" IVar="5" Cut="7.5418245792388916e-01" cType="1" res="-1.0978410392999649e-01" rms="4.4873175024986267e-01" purity="3.0719929933547974e-01" nType="0">
          <Node pos="l" depth="2" NCoef="0" IVar="-1" Cut="0.0000000000000000e+00" cType="1" res="-1.9641912076622248e-03" rms="4.7727346420288086e-01" purity="3.9016449451446533e-01" nType="-99"/>
          <Node pos="r" depth="2" NCoef="0" IVar="-1" Cut="0.0000000000000000e+00" cType="1" res="-6.3836812041699886e-03" rms="4.1351497173309326e-01" purity="2.2897239029407501e-01" nType="-99"/>
        </Node>
        <Node pos="r" depth="1" NCoef="0" IVar="1" Cut="2.4923274517059326e+00" cType="1" res="3.8894161581993103e-02" rms="4.7124773263931274e-01" purity="5.6279635429382324e-01" nType="0">
          <Node pos="l" depth="2" NCoef="0" IVar="-1" Cut="0.0000000000000000e+00" cType="1" res="2.3400348145514727e-03" rms="4.7241634130477905e-01" purity="6.0993182659149170e-01" nType="-99"/>
          <Node pos="r" depth="2" NCoef="0" IVar="-1" Cut="0.0000000000000000e+00" cType="1" res="-4.7056851908564568e-03" rms="4.3551778793334961e-01" purity="2.7119329571723938e-01" nType="-99"/>
        </Node>
      </Node>
    </BinaryTree>
    <BinaryTree type="DecisionTree" boostWeight="1.0000000000000000e+00" itree="57">
      <Node pos="s" depth="0" NCoef="0" IVar="0" Cut="9.6800590515136719e+01" cType="1" res="-1.7528365133330226e-03" rms="4.7228464484214783e-01" purity="4.9829334020614624e-01" nType="0">
        <Node pos="l" depth="1" NCoef="0" IVar="4" Cut="1.0262088775634766e+00" cType="1" res="-3.9731647819280624e-02" rms="4.7192868590354919e-01" purity="4.6350532770156860e-01" nType="0">
          <Node pos="l" depth="2" NCoef="0" IVar="-1" Cut="0.0000000000000000e+00" cType="1" res="3.5644398303702474e-04" rms="4.8444169759750366e-01" purity="5.6826591491699219e-01" nType="-99"/>
          <Node pos="r" depth="2" NCoef="0" IVar="-1" Cut="0.0000000000000000e+00" cType="1" res="-4.4320151209831238e-03" rms="4.4425311684608459e-01" purity="3.1526634097099304e-01" nType="-99"/>
        </Node>
        <Node pos="r" depth="1" NCoef="0" IVar="1" Cut="2.2170684337615967e+00" cType="1" res="8.1637635827064514e-02" rms="4.6224424242973328e-01" purity="5.7467776536941528e-01" nType="0">
          <Node pos="l" depth="2" NCoef="0" IVar="-1" Cut="0.0000000000000000e+00" cType="1" res="6.4624897204339504e-03" rms="4.2336344718933105e-01" purity="7.3105114698410034e-01" nType="-99"/>
          <Node pos="r" depth="2" NCoef="0" IVar="-1" Cut="0.0000000000000000e+00" cType="1" res="4.8273813445121050e-04" rms="4.7796344757080078e-01" purity="4.5657446980476379e-01" nType="-99"/>
        </Node>
      </Node>
    </BinaryTree>
    <BinaryTree type="DecisionTree" boostWeight="1.0000000000000000e+00" itree="58">
      <Node pos="s" depth="0" NCoef="0" IVar="4" Cut="8.2612037658691406e-01" cType="1" res="-1.4485687948763371e-02" rms="4.7019678354263306e-01" purity="4.8370847105979919e-01" nType="0">
        <Node pos="l" depth="1" NCoef="0" IVar="2" Cut="9.7432392835617065e-01" cType="1" res="7.7870100736618042e-02" rms="4.6557620167732239e-01" purity="6.4690893888473511e-01" nType="0">
          <Node pos="l" depth="2" NCoef="0" IVar="-1" Cut="0.0000000000000000e+00" cType="1" res="1.8273162422701716e-03" rms="4.8097410798072815e-01" purity="6.0222768783569336e-01" nType="-99"/>
          <Node pos="r" depth="2" NCoef="0" IVar="-1" Cut="0.0000000000000000e+00" cType="1" res="7.2518135420978069e-03" rms="3.8110470771789551e-01" purity="8.2201421260833740e-01" nType="-99"/>
        </Node>
        <Node pos="r" depth="1" NCoef="0" IVar="1" Cut="2.3533504009246826e+00" cType="1" res="-6.3996799290180206e-02" rms="4.6516555547714233e-01" purity="3.9621812105178833e-01" nType="0">
          <Node pos="l" depth="2" NCoef="0" IVar="-1" Cut="0.0000000000000000e+00" cType="1" res="-9.6311327069997787e-04" rms="4.8393669724464417e-01" purity="4.7535163164138794e-01" nType="-99"/>
          <Node pos="r" depth="2" NCoef="0" IVar="-1" Cut="0.0000000000000000e+00" cType="1" res="-5.2694906480610371e-03" rms="4.2679437994956970e-01" purity="2.7118539810180664e-01" nType="-99"/>
        </Node>
      </Node>
    </BinaryTree>
    <BinaryTree type="DecisionTree" boostWeight="1.0000000000000000e+00" itree="59">
      <Node pos="s" depth="0" NCoef="0" IVar="1" Cut="2.4923274517059326e+00" cType="1" res="-9.0430295094847679e-03" rms="4.6923646330833435e-01" purity="4.8771673440933228e-01" nType="0">
        <Node pos="l" depth="1" NCoef="0" IVar="6" Cut="6.2599205970764160e+00" cType="1" res="1.7802162095904350e-02" rms="4.7771865129470825e-01" purity="5.4111695289611816e-01" nType="0">
          <Node pos="l" depth="2" NCoef="0" IVar="-1" Cut="0.0000000000000000e+00" cType="1" res="-2.1622779313474894e-03" rms="4.7711253166198730e-01" purity="3.8270151615142822e-01" nType="-99"/>
          <Node pos="r" depth="2" NCoef="0" IVar="-1" Cut="0.0000000000000000e+00" cType="1" res="2.1097068674862385e-03" rms="4.7338253259658813e-01" purity="6.2060475349426270e-01" nType="-99"/>
        </Node>
        <Node pos="r" depth="1" NCoef="0" IVar="6" Cut="6.0831432342529297e+00" cType="1" res="-1.4837180078029633e-01" rms="3.9413455128669739e-01" purity="2.1056535840034485e-01" nType="0">
          <Node pos="l" depth="2" NCoef="0" IVar="-1" Cut="0.0000000000000000e+00" cType="1" res="-9.3389442190527916e-03" rms="3.0961927771568298e-01" purity="1.0975920408964157e-01" nType="-99"/>
          <Node pos="r" depth="2" NCoef="0" IVar="-1" Cut="0.0000000000000000e+00" cType="1" res="-4.8112892545759678e-03" rms="4.3598255515098572e-01" purity="2.7531835436820984e-01" nType="-99"/>
        </Node>
      </Node>
    </BinaryTree>
    <BinaryTree type="DecisionTree" boostWeight="1.0000000000000000e+00" itree="60">
      <Node pos="s" depth="0" NCoef="0" IVar="2" Cut="9.6095973253250122e-01" cType="1" res="-7.1894284337759018e-03" rms="4.6831464767456055e-01" purity="4.8956874012947083e-01" nType="0">
        <Node pos="l" depth="1" NCoef="0" IVar="0" Cut="9.9542045593261719e+01" cType="1" res="-5.0238050520420074e-02" rms="4.7080481052398682e-01" purity="4.0632939338684082e-01" nType="0">
          <Node pos="l" depth="2" NCoef="0" IVar="-1" Cut="0.0000000000000000e+00" cType="1" res="-2.9352526180446148e-03" rms="4.6861633658409119e-01" purity="3.8120013475418091e-01" nType="-99"/>
          <Node pos="r" depth="2" NCoef="0" IVar="-1" Cut="0.0000000000000000e+00" cType="1" res="1.1157859116792679e-03" rms="4.6757507324218750e-01" purity="4.7427085041999817e-01" nType="-99"/>
        </Node>
        <Node pos="r" depth="1" NCoef="0" IVar="4" Cut="1.3877620697021484e+00" cType="1" res="7.7875666320323944e-02" rms="4.5144164562225342e-01" purity="6.5405166149139404e-01" nType="0">
          <Node pos="l" depth="2" NCoef="0" IVar="-1" Cut="0.0000000000000000e+00" cType="1" res="4.2525199241936207e-03" rms="4.4335353374481201e-01" purity="7.1409159898757935e-01" nType="-99"/>
          <Node pos="r" depth="2" NCoef="0" IVar="-1" Cut="0.0000000000000000e+00" cType="1" res="-4.0471195243299007e-03" rms="4.5655179023742676e-01" purity="3.2454144954681396e-01" nType="-99"/>
        </Node>
      </Node>
    </BinaryTree>
    <BinaryTree type="DecisionTree" boostWeight="1.0000000000000000e+00" itree="61">
      <Node pos="s" depth="0" NCoef="0" IVar="6" Cut="6.2773065567016602e+00" cType="1" res="2.8769639320671558e-03" rms="4.6837529540061951e-01" purity="4.9918928742408752e-01" nType="0">
        <Node pos="l" depth="1" NCoef="0" IVar="4" Cut="8.9843070507049561e-01" cType="1" res="-8.0836892127990723e-02" rms="4.5625549554824829e-01" purity="3.3304083347320557e-01" nType="0">
          <Node pos="l" depth="2" NCoef="0" IVar="-1" Cut="0.0000000000000000e+00" cType="1" res="4.2354640754638240e-05" rms="4.9683615565299988e-01" purity="4.8320120573043823e-01" nType="-99"/>
          <Node pos="r" depth="2" NCoef="0" IVar="-1" Cut="0.0000000000000000e+00" cType="1" res="-5.1249954849481583e-03" rms="4.2347070574760437e-01" purity="2.4526900053024292e-01" nType="-99"/>
        </Node>
        <Node pos="r" depth="1" NCoef="0" IVar="4" Cut="1.3319205045700073e+00" cType="1" res="4.8416510224342346e-02" rms="4.6859943866729736e-01" purity="5.8957248926162720e-01" nType="0">
          <Node pos="l" depth="2" NCoef="0" IVar="-1" Cut="0.0000000000000000e+00" cType="1" res="2.8645505663007498e-03" rms="4.6633952856063843e-01" purity="6.5450006723403931e-01" nType="-99"/>
          <Node pos="r" depth="2" NCoef="0" IVar="-1" Cut="0.0000000000000000e+00" cType="1" res="-2.8003298211842775e-03" rms="4.5986092090606689e-01" purity="3.2760104537010193e-01" nType="-99"/>
        </Node>
      </Node>
    </BinaryTree>
    <BinaryTree type="DecisionTree" boostWeight="1.0000000000000000e+00" itree="62">
      <Node pos="s" depth="0" NCoef="0" IVar="4" Cut="1.0102225542068481e+00" cType="1" res="-4.4147321023046970e-03" rms="4.6914356946945190e-01" purity="4.9546617269515991e-01" nType="0">
        <Node pos="l" depth="1" NCoef="0" IVar="0" Cut="3.8674968719482422e+01" cType="1" res="5.0527799874544144e-02" rms="4.7092983126640320e-01" purity="6.1664861440658569e-01" nType="0">
          <Node pos="l" depth="2" NCoef="0" IVar="-1" Cut="0.0000000000000000e+00" cType="1" res="-5.9046423994004726e-03" rms="4.7572749853134155e-01" purity="3.8764506578445435e-01" nType="-99"/>
          <Node pos="r" depth="2" NCoef="0" IVar="-1" Cut="0.0000000000000000e+00" cType="1" res="2.7633684221655130e-03" rms="4.6424254775047302e-01" purity="6.4452862739562988e-01" nType="-99"/>
        </Node>
        <Node pos="r" depth="1" NCoef="0" IVar="0" Cut="8.0943962097167969e+01" cType="1" res="-6.7721657454967499e-02" rms="4.5899328589439392e-01" purity="3.5583510994911194e-01" nType="0">
          <Node pos="l" depth="2" NCoef="0" IVar="-1" Cut="0.0000000000000000e+00" cType="1" res="-4.9919812008738518e-03" rms="4.4133996963500977e-01" purity="2.9902672767639160e-01" nType="-99"/>
          <Node pos="r" depth="2" NCoef="0" IVar="-1" Cut="0.0000000000000000e+00" cType="1" res="-4.6255090273916721e-04" rms="4.6960005164146423e-01" purity="4.1342124342918396e-01" nType="-99"/>
        </Node>
      </Node>
    </BinaryTree>
    <BinaryTree type="DecisionTree" boostWeight="1.0000000000000000e+00" itree="63">
      <Node pos="s" depth="0" NCoef="0" IVar="6" Cut="8.5161304473876953e+00" cType="1" res="1.2792594730854034e-02" rms="4.7105166316032410e-01" purity="5.1509702205657959e-01" nType="0">
        <Node pos="l" depth="1" NCoef="0" IVar="4" Cut="6.6037261486053467e-01" cType="1" res="-1.1426435783505440e-02" rms="4.7545149922370911e-01" purity="4.7487977147102356e-01" nType="0">
          <Node pos="l" depth="2" NCoef="0" IVar="-1" Cut="0.0000000000000000e+00" cType="1" res="4.0685748681426048e-03" rms="4.6232402324676514e-01" purity="6.7642366886138916e-01" nType="-99"/>
          <Node pos="r" depth="2" NCoef="0" IVar="-1" Cut="0.0000000000000000e+00" cType="1" res="-1.5297584468498826e-03" rms="4.7369304299354553e-01" purity="4.3032139539718628e-01" nType="-99"/>
        </Node>
        <Node pos="r" depth="1" NCoef="0" IVar="0" Cut="6.2827453613281250e+01" cType="1" res="1.4652985334396362e-01" rms="4.2162653803825378e-01" purity="7.3717635869979858e-01" nType="0">
          <Node pos="l" depth="2" NCoef="0" IVar="-1" Cut="0.0000000000000000e+00" cType="1" res="3.2834946177899837e-03" rms="4.4312840700149536e-01" purity="6.7117393016815186e-01" nType="-99"/>
          <Node pos="r" depth="2" NCoef="0" IVar="-1" Cut="0.0000000000000000e+00" cType="1" res="7.0676296018064022e-03" rms="4.0583300590515137e-01" purity="7.7163970470428467e-01" nType="-99"/>
        </Node>
      </Node>
    </BinaryTree>
    <BinaryTree type="DecisionTree" boostWeight="1.0000000000000000e+00" itree="64">
      <Node pos="s" depth="0" NCoef="0" IVar="4" Cut="8.6551302671432495e-01" cType="1" res="5.5849351920187473e-03" rms="4.6897318959236145e-01" purity="5.0500500202178955e-01" nType="0">
        <Node pos="l" depth="1" NCoef="0" IVar="0" Cut="4.2293987274169922e+01" cType="1" res="7.3802098631858826e-02" rms="4.6484979987144470e-01" purity="6.4623606204986572e-01" nType="0">
          <Node pos="l" depth="2" NCoef="0" IVar="-1" Cut="0.0000000000000000e+00" cType="1" res="-2.2626945283263922e-03" rms="4.8236173391342163e-01" purity="4.9264618754386902e-01" nType="-99"/>
          <Node pos="r" depth="2" NCoef="0" IVar="-1" Cut="0.0000000000000000e+00" cType="1" res="3.6547963973134756e-03" rms="4.5685476064682007e-01" purity="6.7613995075225830e-01" nType="-99"/>
        </Node>
        <Node pos="r" depth="1" NCoef="0" IVar="0" Cut="8.1424194335937500e+01" cType="1" res="-3.7341322749853134e-02" rms="4.6646314859390259e-01" purity="4.1613408923149109e-01" nType="0">
          <Node pos="l" depth="2" NCoef="0" IVar="-1" Cut="0.0000000000000000e+00" cType="1" res="-3.6271032877266407e-03" rms="4.5592525601387024e-01" purity="3.6214131116867065e-01" nType="-99"/>
          <Node pos="r" depth="2" NCoef="0" IVar="-1" Cut="0.0000000000000000e+00" cType="1" res="8.9876569109037519e-04" rms="4.7040107846260071e-01" purity="4.7500887513160706e-01" nType="-99"/>
        </Node>
      </Node>
    </BinaryTree>
    <BinaryTree type="DecisionTree" boostWeight="1.0000000000000000e+00" itree="65">
      <Node pos="s" depth="0" NCoef="0" IVar="0" Cut="9.2635231018066406e+01" cType="1" res="6.4557055011391640e-03" rms="4.7073090076446533e-01" purity="5.0691807270050049e-01" nType="0">
        <Node pos="l" depth="1" NCoef="0" IVar="1" Cut="2.2925968170166016e+00" cType="1" res="-3.2087516039609909e-02" rms="4.7131055593490601e-01" purity="4.6854045987129211e-01" nType="0">
          <Node pos="l" depth="2" NCoef="0" IVar="-1" Cut="0.0000000000000000e+00" cType="1" res="9.6689647762104869e-05" rms="4.7926476597785950e-01" purity="5.3454381227493286e-01" nType="-99"/>
          <Node pos="r" depth="2" NCoef="0" IVar="-1" Cut="0.0000000000000000e+00" cType="1" res="-5.6420639157295227e-03" rms="4.3100264668464661e-01" purity="2.7371755242347717e-01" nType="-99"/>
        </Node>
        <Node pos="r" depth="1" NCoef="0" IVar="1" Cut="2.4836983680725098e+00" cType="1" res="7.9356521368026733e-02" rms="4.6090173721313477e-01" purity="5.7950550317764282e-01" nType="0">
          <Node pos="l" depth="2" NCoef="0" IVar="-1" Cut="0.0000000000000000e+00" cType="1" res="4.5446786098182201e-03" rms="4.5555391907691956e-01" purity="6.5999281406402588e-01" nType="-99"/>
          <Node pos="r" depth="2" NCoef="0" IVar="-1" Cut="0.0000000000000000e+00" cType="1" res="-2.8579405043274164e-03" rms="4.4870987534523010e-01" purity="3.0037513375282288e-01" nType="-99"/>
        </Node>
      </Node>
    </BinaryTree>
    <BinaryTree type="DecisionTree" boostWeight="1.0000000000000000e+00" itree="66">
      <Node pos="s" depth="0" NCoef="0" IVar="4" Cut="1.4319659471511841e+00" cType="1" res="1.5103297308087349e-02" rms="4.7012194991111755e-01" purity="5.1414597034454346e-01" nType="0">
        <Node pos="l" depth="1" NCoef="0" IVar="0" Cut="1.0248631286621094e+02" cType="1" res="3.6664355546236038e-02" rms="4.7522017359733582e-01" purity="5.6357485055923462e-01" nType="0">
          <Node pos="l" depth="2" NCoef="0" IVar="-1" Cut="0.0000000000000000e+00" cType="1" res="1.1006878048647195e-04" rms="4.7981774806976318e-01" purity="5.2728575468063354e-01" nType="-99"/>
          <Node pos="r" depth="2" NCoef="0" IVar="-1" Cut="0.0000000000000000e+00" cType="1" res="5.0520505756139755e-03" rms="4.4733151793479919e-01" purity="6.6923022270202637e-01" nType="-99"/>
        </Node>
        <Node pos="r" depth="1" NCoef="0" IVar="1" Cut="2.5741872787475586e+00" cType="1" res="-9.8774388432502747e-02" rms="4.2442432045936584e-01" purity="2.5308030843734741e-01" nType="0">
          <Node pos="l" depth="2" NCoef="0" IVar="-1" Cut="0.0000000000000000e+00" cType="1" res="-1.7029438167810440e-03" rms="4.6218416094779968e-01" purity="3.3338105678558350e-01" nType="-99"/>
          <Node pos="r" depth="2" NCoef="0" IVar="-1" Cut="0.0000000000000000e+00" cType="1" res="-7.3481975123286247e-03" rms="3.7293982505798340e-01" purity="1.7100004851818085e-01" nType="-99"/>
        </Node>
      </Node>
    </BinaryTree>
    <BinaryTree type="DecisionTree" boostWeight="1.0000000000000000e+00" itree="67">
      <Node pos="s" depth="0" NCoef="0" IVar="1" Cut="2.4494607448577881e+00" cType="1" res="2.9299000743776560e-03" rms="4.6775817871093750e-01" purity="5.0107645988464355e-01" nType="0">
        <Node pos="l" depth="1" NCoef="0" IVar="2" Cut="9.2368161678314209e-01" cType="1" res="2.9510524123907089e-02" rms="4.7432342171669006e-01" purity="5.5842399597167969e-01" nType="0">
          <Node pos="l" depth="2" NCoef="0" IVar="-1" Cut="0.0000000000000000e+00" cType="1" res="-4.1325334459543228e-03" rms="4.6095737814903259e-01" purity="3.1681331992149353e-01" nType="-99"/>
          <Node pos="r" depth="2" NCoef="0" IVar="-1" Cut="0.0000000000000000e+00" cType="1" res="1.9527913536876440e-03" rms="4.7249677777290344e-01" purity="5.9646356105804443e-01" nType="-99"/>
        </Node>
        <Node pos="r" depth="1" NCoef="0" IVar="2" Cut="9.3135088682174683e-01" cType="1" res="-1.1359871178865433e-01" rms="4.1833791136741638e-01" purity="2.4966673552989960e-01" nType="0">
          <Node pos="l" depth="2" NCoef="0" IVar="-1" Cut="0.0000000000000000e+00" cType="1" res="-8.5908900946378708e-03" rms="3.2073411345481873e-01" purity="1.1979684978723526e-01" nType="-99"/>
          <Node pos="r" depth="2" NCoef="0" IVar="-1" Cut="0.0000000000000000e+00" cType="1" res="-3.6124337930232286e-03" rms="4.4580954313278198e-01" purity="2.9769897460937500e-01" nType="-99"/>
        </Node>
      </Node>
    </BinaryTree>
    <BinaryTree type="DecisionTree" boostWeight="1.0000000000000000e+00" itree="68">
      <Node pos="s" depth="0" NCoef="0" IVar="0" Cut="7.6544036865234375e+01" cType="1" res="2.4231052957475185e-03" rms="4.6970224380493164e-01" purity="5.0265187025070190e-01" nType="0">
        <Node pos="l" depth="1" NCoef="0" IVar="2" Cut="9.6268236637115479e-01" cType="1" res="-5.1386348903179169e-02" rms="4.6776023507118225e-01" purity="4.4857928156852722e-01" nType="0">
          <Node pos="l" depth="2" NCoef="0" IVar="-1" Cut="0.0000000000000000e+00" cType="1" res="-3.4387200139462948e-03" rms="4.6320077776908875e-01" purity="3.7055376172065735e-01" nType="-99"/>
          <Node pos="r" depth="2" NCoef="0" IVar="-1" Cut="0.0000000000000000e+00" cType="1" res="1.4737149467691779e-03" rms="4.6554708480834961e-01" purity="6.1950784921646118e-01" nType="-99"/>
        </Node>
        <Node pos="r" depth="1" NCoef="0" IVar="1" Cut="2.4492182731628418e+00" cType="1" res="5.8693777769804001e-02" rms="4.6511259675025940e-01" purity="5.5919766426086426e-01" nType="0">
          <Node pos="l" depth="2" NCoef="0" IVar="-1" Cut="0.0000000000000000e+00" cType="1" res="3.6066174507141113e-03" rms="4.6368101239204407e-01" purity="6.4211541414260864e-01" nType="-99"/>
          <Node pos="r" depth="2" NCoef="0" IVar="-1" Cut="0.0000000000000000e+00" cType="1" res="-2.5185029953718185e-03" rms="4.4929927587509155e-01" purity="3.0359914898872375e-01" nType="-99"/>
        </Node>
      </Node>
    </BinaryTree>
    <BinaryTree type="DecisionTree" boostWeight="1.0000000000000000e+00" itree="69">
      <Node pos="s" depth="0" NCoef="0" IVar="4" Cut="1.4557414054870605e+00" cType="1" res="1.4789946377277374e-02" rms="4.6804898977279663e-01" purity="5.1583135128021240e-01" nType="0">
        <Node pos="l" depth="1" NCoef="0" IVar="0" Cut="1.0219338226318359e+02" cType="1" res="3.6152813583612442e-02" rms="4.7426953911781311e-01" purity="5.6385546922683716e-01" nType="0">
          <Node pos="l" depth="2" NCoef="0" IVar="-1" Cut="0.0000000000000000e+00" cType="1" res="3.0865837470628321e-04" rms="4.7813594341278076e-01" purity="5.3315263986587524e-01" nType="-99"/>
          <Node pos="r" depth="2" NCoef="0" IVar="-1" Cut="0.0000000000000000e+00" cType="1" res="4.3201511725783348e-03" rms="4.5414853096008301e-01" purity="6.5007656812667847e-01" nType="-99"/>
        </Node>
        <Node pos="r" depth="1" NCoef="0" IVar="0" Cut="9.2961975097656250e+01" cType="1" res="-1.1301559209823608e-01" rms="4.0612429380416870e-01" purity="2.2852201759815216e-01" nType="0">
          <Node pos="l" depth="2" NCoef="0" IVar="-1" Cut="0.0000000000000000e+00" cType="1" res="-8.1358039751648903e-03" rms="3.5489928722381592e-01" purity="1.6099226474761963e-01" nType="-99"/>
          <Node pos="r" depth="2" NCoef="0" IVar="-1" Cut="0.0000000000000000e+00" cType="1" res="-9.4884203281253576e-04" rms="4.5161053538322449e-01" purity="3.2112312316894531e-01" nType="-99"/>
        </Node>
      </Node>
    </BinaryTree>
    <BinaryTree type="DecisionTree" boostWeight="1.0000000000000000e+00" itree="70">
      <Node pos="s" depth="0" NCoef="0" IVar="1" Cut="2.4834399223327637e+00" cType="1" res="2.4210806004703045e-03" rms="4.6724781394004822e-01" purity="4.9909615516662598e-01" nType="0">
        <Node pos="l" depth="1" NCoef="0" IVar="0" Cut="5.5015304565429688e+01" cType="1" res="2.5636754930019379e-02" rms="4.7439596056938171e-01" purity="5.5051207542419434e-01" nType="0">
          <Node pos="l" depth="2" NCoef="0" IVar="-1" Cut="0.0000000000000000e+00" cType="1" res="-2.2629569284617901e-03" rms="4.7504717111587524e-01" purity="4.4953230023384094e-01" nType="-99"/>
          <Node pos="r" depth="2" NCoef="0" IVar="-1" Cut="0.0000000000000000e+00" cType="1" res="2.3668957874178886e-03" rms="4.6930739283561707e-01" purity="5.9529548883438110e-01" nType="-99"/>
        </Node>
        <Node pos="r" depth="1" NCoef="0" IVar="6" Cut="6.7969727516174316e+00" cType="1" res="-1.1747015267610550e-01" rms="4.0792483091354370e-01" purity="2.3357215523719788e-01" nType="0">
          <Node pos="l" depth="2" NCoef="0" IVar="-1" Cut="0.0000000000000000e+00" cType="1" res="-7.2636664845049381e-03" rms="3.6542317271232605e-01" purity="1.5742199122905731e-01" nType="-99"/>
          <Node pos="r" depth="2" NCoef="0" IVar="-1" Cut="0.0000000000000000e+00" cType="1" res="-2.9956642538309097e-03" rms="4.5111036300659180e-01" purity="3.2841372489929199e-01" nType="-99"/>
        </Node>
      </Node>
    </BinaryTree>
    <BinaryTree type="DecisionTree" boostWeight="1.0000000000000000e+00" itree="71">
      <Node pos="s" depth="0" NCoef="0" IVar="6" Cut="6.2599205970764160e+00" cType="1" res="4.7859270125627518e-03" rms="4.6684038639068604e-01" purity="5.0468075275421143e-01" nType="0">
        <Node pos="l" depth="1" NCoef="0" IVar="0" Cut="4.6663047790527344e+01" cType="1" res="-7.7222824096679688e-02" rms="4.5780956745147705e-01" purity="3.3595317602157593e-01" nType="0">
          <Node pos="l" depth="2" NCoef="0" IVar="-1" Cut="0.0000000000000000e+00" cType="1" res="-6.4538568258285522e-03" rms="4.1998741030693054e-01" purity="2.4480038881301880e-01" nType="-99"/>
          <Node pos="r" depth="2" NCoef="0" IVar="-1" Cut="0.0000000000000000e+00" cType="1" res="-2.0544370636343956e-03" rms="4.6417415142059326e-01" purity="3.5941880941390991e-01" nType="-99"/>
        </Node>
        <Node pos="r" depth="1" NCoef="0" IVar="1" Cut="2.6244857311248779e+00" cType="1" res="4.6982370316982269e-02" rms="4.6582773327827454e-01" purity="5.9149712324142456e-01" nType="0">
          <Node pos="l" depth="2" NCoef="0" IVar="-1" Cut="0.0000000000000000e+00" cType="1" res="2.2520304191857576e-03" rms="4.6704232692718506e-01" purity="6.2192922830581665e-01" nType="-99"/>
          <Node pos="r" depth="2" NCoef="0" IVar="-1" Cut="0.0000000000000000e+00" cType="1" res="-5.6393519043922424e-03" rms="4.1411980986595154e-01" purity="2.2816449403762817e-01" nType="-99"/>
        </Node>
      </Node>
    </BinaryTree>
    <BinaryTree type="DecisionTree" boostWeight="1.0000000000000000e+00" itree="72">
      <Node pos="s" depth="0" NCoef="0" IVar="4" Cut="1.5114784240722656e+00" cType="1" res="-4.3664285913109779e-03" rms="4.6692442893981934e-01" purity="4.9559831619262695e-01" nType="0">
        <Node pos="l" depth="1" NCoef="0" IVar="2" Cut="9.6758794784545898e-01" cType="1" res="1.5266939066350460e-02" rms="4.7364035248756409e-01" purity="5.3894037008285522e-01" nType="0">
          <Node pos="l" depth="2" NCoef="0" IVar="-1" Cut="0.0000000000000000e+00" cType="1" res="-6.4350187312811613e-04" rms="4.7989672422409058e-01" purity="4.7654440999031067e-01" nType="-99"/>
          <Node pos="r" depth="2" NCoef="0" IVar="-1" Cut="0.0000000000000000e+00" cType="1" res="4.3244007974863052e-03" rms="4.4169321656227112e-01" purity="7.1931767463684082e-01" nType="-99"/>
        </Node>
        <Node pos="r" depth="1" NCoef="0" IVar="0" Cut="8.2174514770507812e+01" cType="1" res="-1.4003154635429382e-01" rms="3.9153730869293213e-01" purity="1.9610752165317535e-01" nType="0">
          <Node pos="l" depth="2" NCoef="0" IVar="-1" Cut="0.0000000000000000e+00" cType="1" res="-8.5577797144651413e-03" rms="3.4616157412528992e-01" purity="1.4298933744430542e-01" nType="-99"/>
          <Node pos="r" depth="2" NCoef="0" IVar="-1" Cut="0.0000000000000000e+00" cType="1" res="-3.9694509468972683e-03" rms="4.2692059278488159e-01" purity="2.5055676698684692e-01" nType="-99"/>
        </Node>
      </Node>
    </BinaryTree>
    <BinaryTree type="DecisionTree" boostWeight="1.0000000000000000e+00" itree="73">
      <Node pos="s" depth="0" NCoef="0" IVar="6" Cut="5.2661499977111816e+00" cType="1" res="1.4474734663963318e-02" rms="4.6558180451393127e-01" purity="5.1364952325820923e-01" nType="0">
        <Node pos="l" depth="1" NCoef="0" IVar="3" Cut="-1.0988597059622407e-03" cType="1" res="-1.6423928737640381e-01" rms="4.0575855970382690e-01" purity="2.2286209464073181e-01" nType="0">
          <Node pos="l" depth="2" NCoef="0" IVar="-1" Cut="0.0000000000000000e+00" cType="1" res="-4.1806683875620365e-03" rms="4.2018061876296997e-01" purity="2.6269719004631042e-01" nType="-99"/>
          <Node pos="r" depth="2" NCoef="0" IVar="-1" Cut="0.0000000000000000e+00" cType="1" res="-8.1577254459261894e-03" rms="3.8659319281578064e-01" purity="1.9038510322570801e-01" nType="-99"/>
        </Node>
        <Node pos="r" depth="1" NCoef="0" IVar="1" Cut="2.4742476940155029e+00" cType="1" res="3.8941517472267151e-02" rms="4.6790125966072083e-01" purity="5.5345964431762695e-01" nType="0">
          <Node pos="l" depth="2" NCoef="0" IVar="-1" Cut="0.0000000000000000e+00" cType="1" res="2.2758275736123323e-03" rms="4.7017145156860352e-01" purity="6.0376948118209839e-01" nType="-99"/>
          <Node pos="r" depth="2" NCoef="0" IVar="-1" Cut="0.0000000000000000e+00" cType="1" res="-3.7323208525776863e-03" rms="4.3479824066162109e-01" purity="2.7032297849655151e-01" nType="-99"/>
        </Node>
      </Node>
    </BinaryTree>
    <BinaryTree type="DecisionTree" boostWeight="1.0000000000000000e+00" itree="74">
      <Node pos="s" depth="0" NCoef="0" IVar="6" Cut="8.4903240203857422e+00" cType="1" res="-1.4012891333550215e-03" rms="4.6869349479675293e-01" purity="4.9899849295616150e-01" nType="0">
        <Node pos="l" depth="1" NCoef="0" IVar="4" Cut="1.1576157808303833e+00" cType="1" res="-2.0726878196001053e-02" rms="4.7133737802505493e-01" purity="4.6290880441665649e-01" nType="0">
          <Node pos="l" depth="2" NCoef="0" IVar="-1" Cut="0.0000000000000000e+00" cType="1" res="4.9205962568521500e-04" rms="4.8390492796897888e-01" purity="5.5755645036697388e-01" nType="-99"/>
          <Node pos="r" depth="2" NCoef="0" IVar="-1" Cut="0.0000000000000000e+00" cType="1" res="-3.5737226717174053e-03" rms="4.3944066762924194e-01" purity="2.8398665785789490e-01" nType="-99"/>
        </Node>
        <Node pos="r" depth="1" NCoef="0" IVar="0" Cut="7.4512512207031250e+01" cType="1" res="1.0966660082340240e-01" rms="4.3692943453788757e-01" purity="7.0641267299652100e-01" nType="0">
          <Node pos="l" depth="2" NCoef="0" IVar="-1" Cut="0.0000000000000000e+00" cType="1" res="2.0449860021471977e-03" rms="4.5927667617797852e-01" purity="6.4785516262054443e-01" nType="-99"/>
          <Node pos="r" depth="2" NCoef="0" IVar="-1" Cut="0.0000000000000000e+00" cType="1" res="5.9316684491932392e-03" rms="4.1488000750541687e-01" purity="7.4871248006820679e-01" nType="-99"/>
        </Node>
      </Node>
    </BinaryTree>
    <BinaryTree type="DecisionTree" boostWeight="1.0000000000000000e+00" itree="75">
      <Node pos="s" depth="0" NCoef="0" IVar="2" Cut="9.4088268280029297e-01" cType="1" res="-2.5252385530620813e-03" rms="4.6648907661437988e-01" purity="4.9780461192131042e-01" nType="0">
        <Node pos="l" depth="1" NCoef="0" IVar="0" Cut="9.9519241333007812e+01" cType="1" res="-7.6711863279342651e-02" rms="4.5702430605888367e-01" purity="3.3626356720924377e-01" nType="0">
          <Node pos="l" depth="2" NCoef="0" IVar="-1" Cut="0.0000000000000000e+00" cType="1" res="-4.1911019943654537e-03" rms="4.4733533263206482e-01" purity="3.0112129449844360e-01" nType="-99"/>
          <Node pos="r" depth="2" NCoef="0" IVar="-1" Cut="0.0000000000000000e+00" cType="1" res="1.0626664152368903e-03" rms="4.6745640039443970e-01" purity="4.3387240171432495e-01" nType="-99"/>
        </Node>
        <Node pos="r" depth="1" NCoef="0" IVar="4" Cut="1.3229749202728271e+00" cType="1" res="3.5764183849096298e-02" rms="4.6670845150947571e-01" purity="5.8117961883544922e-01" nType="0">
          <Node pos="l" depth="2" NCoef="0" IVar="-1" Cut="0.0000000000000000e+00" cType="1" res="2.3406159598380327e-03" rms="4.6552565693855286e-01" purity="6.4787578582763672e-01" nType="-99"/>
          <Node pos="r" depth="2" NCoef="0" IVar="-1" Cut="0.0000000000000000e+00" cType="1" res="-2.6021953672170639e-03" rms="4.5841220021247864e-01" purity="3.2026344537734985e-01" nType="-99"/>
        </Node>
      </Node>
    </BinaryTree>
    <BinaryTree type="DecisionTree" boostWeight="1.0000000000000000e+00" itree="76">
      <Node pos="s" depth="0" NCoef="0" IVar="4" Cut="1.0548297166824341e+00" cType="1" res="4.3653030879795551e-03" rms="4.6551516652107239e-01" purity="5.0577408075332642e-01" nType="0">
        <Node pos="l" depth="1" NCoef="0" IVar="0" Cut="3.9264636993408203e+01" cType="1" res="4.9769047647714615e-02" rms="4.7018447518348694e-01" purity="6.2216788530349731e-01" nType="0">
          <Node pos="l" depth="2" NCoef="0" IVar="-1" Cut="0.0000000000000000e+00" cType="1" res="-4.5619397424161434e-03" rms="4.7868412733078003e-01" purity="4.2811241745948792e-01" nType="-99"/>
          <Node pos="r" depth="2" NCoef="0" IVar="-1" Cut="0.0000000000000000e+00" cType="1" res="2.5958705227822065e-03" rms="4.6516880393028259e-01" purity="6.4506429433822632e-01" nType="-99"/>
        </Node>
        <Node pos="r" depth="1" NCoef="0" IVar="6" Cut="7.6929688453674316e+00" cType="1" res="-5.6564673781394958e-02" rms="4.5206454396247864e-01" purity="3.4957838058471680e-01" nType="0">
          <Node pos="l" depth="2" NCoef="0" IVar="-1" Cut="0.0000000000000000e+00" cType="1" res="-3.8336864672601223e-03" rms="4.3711295723915100e-01" purity="2.8356114029884338e-01" nType="-99"/>
          <Node pos="r" depth="2" NCoef="0" IVar="-1" Cut="0.0000000000000000e+00" cType="1" res="1.9390897359699011e-03" rms="4.7826203703880310e-01" purity="5.4456090927124023e-01" nType="-99"/>
        </Node>
      </Node>
    </BinaryTree>
    <BinaryTree type="DecisionTree" boostWeight="1.0000000000000000e+00" itree="77">
      <Node pos="s" depth="0" NCoef="0" IVar="2" Cut="9.7420704364776611e-01" cType="1" res="-1.0099382139742374e-02" rms="4.6420055627822876e-01" purity="4.8686528205871582e-01" nType="0">
        <Node pos="l" depth="1" NCoef="0" IVar="4" Cut="1.0445060729980469e+00" cType="1" res="-3.5508785396814346e-02" rms="4.6768787503242493e-01" purity="4.4268181920051575e-01" nType="0">
          <Node pos="l" depth="2" NCoef="0" IVar="-1" Cut="0.0000000000000000e+00" cType="1" res="4.8423046246170998e-04" rms="4.8397800326347351e-01" purity="5.6254130601882935e-01" nType="-99"/>
          <Node pos="r" depth="2" NCoef="0" IVar="-1" Cut="0.0000000000000000e+00" cType="1" res="-3.9070053026080132e-03" rms="4.3971291184425354e-01" purity="2.9624915122985840e-01" nType="-99"/>
        </Node>
        <Node pos="r" depth="1" NCoef="0" IVar="0" Cut="9.1235916137695312e+01" cType="1" res="1.2553617358207703e-01" rms="4.1987073421478271e-01" purity="7.2271728515625000e-01" nType="0">
          <Node pos="l" depth="2" NCoef="0" IVar="-1" Cut="0.0000000000000000e+00" cType="1" res="2.9951841570436954e-03" rms="4.4671517610549927e-01" purity="6.6329073905944824e-01" nType="-99"/>
          <Node pos="r" depth="2" NCoef="0" IVar="-1" Cut="0.0000000000000000e+00" cType="1" res="8.4529872983694077e-03" rms="3.5231292247772217e-01" purity="8.2417207956314087e-01" nType="-99"/>
        </Node>
      </Node>
    </BinaryTree>
    <BinaryTree type="DecisionTree" boostWeight="1.0000000000000000e+00" itree="78">
      <Node pos="s" depth="0" NCoef="0" IVar="6" Cut="5.4366078376770020e+00" cType="1" res="-3.4982624929398298e-03" rms="4.6617385745048523e-01" purity="4.9555769562721252e-01" nType="0">
        <Node pos="l" depth="1" NCoef="0" IVar="6" Cut="5.0278558731079102e+00" cType="1" res="-1.2020989507436752e-01" rms="4.3005317449569702e-01" purity="2.7106919884681702e-01" nType="0">
          <Node pos="l" depth="2" NCoef="0" IVar="-1" Cut="0.0000000000000000e+00" cType="1" res="-6.9165122695267200e-03" rms="3.9382794499397278e-01" purity="2.0869003236293793e-01" nType="-99"/>
          <Node pos="r" depth="2" NCoef="0" IVar="-1" Cut="0.0000000000000000e+00" cType="1" res="-2.2103481460362673e-03" rms="4.5809856057167053e-01" purity="3.3886945247650146e-01" nType="-99"/>
        </Node>
        <Node pos="r" depth="1" NCoef="0" IVar="4" Cut="1.0425704717636108e+00" cType="1" res="1.6769167035818100e-02" rms="4.6921578049659729e-01" purity="5.3454101085662842e-01" nType="0">
          <Node pos="l" depth="2" NCoef="0" IVar="-1" Cut="0.0000000000000000e+00" cType="1" res="2.1235917229205370e-03" rms="4.6847406029701233e-01" purity="6.4430648088455200e-01" nType="-99"/>
          <Node pos="r" depth="2" NCoef="0" IVar="-1" Cut="0.0000000000000000e+00" cType="1" res="-1.5051900409162045e-03" rms="4.6474426984786987e-01" purity="3.8656455278396606e-01" nType="-99"/>
        </Node>
      </Node>
    </BinaryTree>
    <BinaryTree type="DecisionTree" boostWeight="1.0000000000000000e+00" itree="79">
      <Node pos="s" depth="0" NCoef="0" IVar="4" Cut="1.2984732389450073e+00" cType="1" res="5.8333855122327805e-03" rms="4.6483680605888367e-01" purity="5.0385838747024536e-01" nType="0">
        <Node pos="l" depth="1" NCoef="0" IVar="0" Cut="8.7447998046875000e+01" cType="1" res="3.6288447678089142e-02" rms="4.7267413139343262e-01" purity="5.8271592855453491e-01" nType="0">
          <Node pos="l" depth="2" NCoef="0" IVar="-1" Cut="0.0000000000000000e+00" cType="1" res="-2.4872500216588378e-04" rms="4.7907263040542603e-01" purity="5.3107666969299316e-01" nType="-99"/>
          <Node pos="r" depth="2" NCoef="0" IVar="-1" Cut="0.0000000000000000e+00" cType="1" res="4.1773291304707527e-03" rms="4.5168498158454895e-01" purity="6.7269563674926758e-01" nType="-99"/>
        </Node>
        <Node pos="r" depth="1" NCoef="0" IVar="0" Cut="6.1787399291992188e+01" cType="1" res="-8.7937794625759125e-02" rms="4.2638152837753296e-01" purity="2.6105600595474243e-01" nType="0">
          <Node pos="l" depth="2" NCoef="0" IVar="-1" Cut="0.0000000000000000e+00" cType="1" res="-8.1103174015879631e-03" rms="3.6310642957687378e-01" purity="1.6596013307571411e-01" nType="-99"/>
          <Node pos="r" depth="2" NCoef="0" IVar="-1" Cut="0.0000000000000000e+00" cType="1" res="-2.0359328482300043e-03" rms="4.4634854793548584e-01" purity="3.0413106083869934e-01" nType="-99"/>
        </Node>
      </Node>
    </BinaryTree>
    <BinaryTree type="DecisionTree" boostWeight="1.0000000000000000e+00" itree="80">
      <Node pos="s" depth="0" NCoef="0" IVar="0" Cut="5.2817939758300781e+01" cType="1" res="4.5314165763556957e-03" rms="4.6759492158889771e-01" purity="5.0476402044296265e-01" nType="0">
        <Node pos="l" depth="1" NCoef="0" IVar="1" Cut="2.1925301551818848e+00" cType="1" res="-8.0677293241024017e-02" rms="4.6144956350326538e-01" purity="4.1216528415679932e-01" nType="0">
          <Node pos="l" depth="2" NCoef="0" IVar="-1" Cut="0.0000000000000000e+00" cType="1" res="-1.2450265930965543e-03" rms="4.8159819841384888e-01" purity="4.9383845925331116e-01" nType="-99"/>
          <Node pos="r" depth="2" NCoef="0" IVar="-1" Cut="0.0000000000000000e+00" cType="1" res="-8.3031877875328064e-03" rms="3.8502839207649231e-01" purity="2.1431307494640350e-01" nType="-99"/>
        </Node>
        <Node pos="r" depth="1" NCoef="0" IVar="1" Cut="2.5861847400665283e+00" cType="1" res="3.5122055560350418e-02" rms="4.6599605679512024e-01" purity="5.3800773620605469e-01" nType="0">
          <Node pos="l" depth="2" NCoef="0" IVar="-1" Cut="0.0000000000000000e+00" cType="1" res="2.0780677441507578e-03" rms="4.7113156318664551e-01" purity="5.8372485637664795e-01" nType="-99"/>
          <Node pos="r" depth="2" NCoef="0" IVar="-1" Cut="0.0000000000000000e+00" cType="1" res="-5.0982213579118252e-03" rms="3.9940932393074036e-01" purity="2.1596372127532959e-01" nType="-99"/>
        </Node>
      </Node>
    </BinaryTree>
    <BinaryTree type="DecisionTree" boostWeight="1.0000000000000000e+00" itree="81">
      <Node pos="s" depth="0" NCoef="0" IVar="6" Cut="6.5562558174133301e+00" cType="1" res="-8.6308559402823448e-03" rms="4.6643173694610596e-01" purity="4.9086067080497742e-01" nType="0">
        <Node pos="l" depth="1" NCoef="0" IVar="0" Cut="8.7246597290039062e+01" cType="1" res="-7.0403486490249634e-02" rms="4.5908072590827942e-01" purity="3.4639796614646912e-01" nType="0">
          <Node pos="l" depth="2" NCoef="0" IVar="-1" Cut="0.0000000000000000e+00" cType="1" res="-4.0489844977855682e-03" rms="4.4841182231903076e-01" purity="3.1000730395317078e-01" nType="-99"/>
          <Node pos="r" depth="2" NCoef="0" IVar="-1" Cut="0.0000000000000000e+00" cType="1" res="-1.7950574692804366e-04" rms="4.7097373008728027e-01" purity="4.1313722729682922e-01" nType="-99"/>
        </Node>
        <Node pos="r" depth="1" NCoef="0" IVar="4" Cut="7.3751264810562134e-01" cType="1" res="3.4873753786087036e-02" rms="4.6665829420089722e-01" purity="5.9260147809982300e-01" nType="0">
          <Node pos="l" depth="2" NCoef="0" IVar="-1" Cut="0.0000000000000000e+00" cType="1" res="4.3321461416780949e-03" rms="4.3230322003364563e-01" purity="7.4674677848815918e-01" nType="-99"/>
          <Node pos="r" depth="2" NCoef="0" IVar="-1" Cut="0.0000000000000000e+00" cType="1" res="1.5289967996068299e-04" rms="4.7625422477722168e-01" purity="5.3070050477981567e-01" nType="-99"/>
        </Node>
      </Node>
    </BinaryTree>
    <BinaryTree type="DecisionTree" boostWeight="1.0000000000000000e+00" itree="82">
      <Node pos="s" depth="0" NCoef="0" IVar="2" Cut="9.7497165203094482e-01" cType="1" res="-6.5958760678768158e-03" rms="4.6812218427658081e-01" purity="4.9108892679214478e-01" nType="0">
        <Node pos="l" depth="1" NCoef="0" IVar="0" Cut="5.8451446533203125e+01" cType="1" res="-3.0193446204066277e-02" rms="4.7284811735153198e-01" purity="4.4934946298599243e-01" nType="0">
          <Node pos="l" depth="2" NCoef="0" IVar="-1" Cut="0.0000000000000000e+00" cType="1" res="-3.9164405316114426e-03" rms="4.6396100521087646e-01" purity="3.7532824277877808e-01" nType="-99"/>
          <Node pos="r" depth="2" NCoef="0" IVar="-1" Cut="0.0000000000000000e+00" cType="1" res="1.2403292930684984e-04" rms="4.7350478172302246e-01" purity="4.8526033759117126e-01" nType="-99"/>
        </Node>
        <Node pos="r" depth="1" NCoef="0" IVar="0" Cut="7.1722877502441406e+01" cType="1" res="1.2621892988681793e-01" rms="4.1633585095405579e-01" purity="7.2601217031478882e-01" nType="0">
          <Node pos="l" depth="2" NCoef="0" IVar="-1" Cut="0.0000000000000000e+00" cType="1" res="2.1216201130300760e-03" rms="4.5368421077728271e-01" purity="6.4377856254577637e-01" nType="-99"/>
          <Node pos="r" depth="2" NCoef="0" IVar="-1" Cut="0.0000000000000000e+00" cType="1" res="7.5122565031051636e-03" rms="3.6844313144683838e-01" purity="7.9844963550567627e-01" nType="-99"/>
        </Node>
      </Node>
    </BinaryTree>
    <BinaryTree type="DecisionTree" boostWeight="1.0000000000000000e+00" itree="83">
      <Node pos="s" depth="0" NCoef="0" IVar="0" Cut="3.9189701080322266e+01" cType="1" res="1.0651315562427044e-02" rms="4.6657136082649231e-01" purity="5.0975501537322998e-01" nType="0">
        <Node pos="l" depth="1" NCoef="0" IVar="7" Cut="4.0486133098602295e-01" cType="1" res="-1.3242641091346741e-01" rms="4.5513227581977844e-01" purity="3.5371756553649902e-01" nType="0">
          <Node pos="l" depth="2" NCoef="0" IVar="-1" Cut="0.0000000000000000e+00" cType="1" res="-7.4672573246061802e-03" rms="4.2747247219085693e-01" purity="2.7169325947761536e-01" nType="-99"/>
          <Node pos="r" depth="2" NCoef="0" IVar="-1" Cut="0.0000000000000000e+00" cType="1" res="-2.9901838861405849e-03" rms="4.7490683197975159e-01" purity="4.3563908338546753e-01" nType="-99"/>
        </Node>
        <Node pos="r" depth="1" NCoef="0" IVar="4" Cut="7.7912002801895142e-01" cType="1" res="2.7695639058947563e-02" rms="4.6498996019363403e-01" purity="5.2834314107894897e-01" nType="0">
          <Node pos="l" depth="2" NCoef="0" IVar="-1" Cut="0.0000000000000000e+00" cType="1" res="4.2569008655846119e-03" rms="4.5034572482109070e-01" purity="7.0082503557205200e-01" nType="-99"/>
          <Node pos="r" depth="2" NCoef="0" IVar="-1" Cut="0.0000000000000000e+00" cType="1" res="-3.5457510966807604e-04" rms="4.6616953611373901e-01" purity="4.5588850975036621e-01" nType="-99"/>
        </Node>
      </Node>
    </BinaryTree>
    <BinaryTree type="DecisionTree" boostWeight="1.0000000000000000e+00" itree="84">
      <Node pos="s" depth="0" NCoef="0" IVar="2" Cut="9.7671192884445190e-01" cType="1" res="-1.9324737368151546e-03" rms="4.6736386418342590e-01" purity="4.9340510368347168e-01" nType="0">
        <Node pos="l" depth="1" NCoef="0" IVar="4" Cut="9.3010234832763672e-01" cType="1" res="-2.0023815333843231e-02" rms="4.7097393870353699e-01" purity="4.5947134494781494e-01" nType="0">
          <Node pos="l" depth="2" NCoef="0" IVar="-1" Cut="0.0000000000000000e+00" cType="1" res="8.5832591867074370e-04" rms="4.8062059283256531e-01" purity="5.8481580018997192e-01" nType="-99"/>
          <Node pos="r" depth="2" NCoef="0" IVar="-1" Cut="0.0000000000000000e+00" cType="1" res="-2.1525181364268064e-03" rms="4.6070763468742371e-01" purity="3.6435455083847046e-01" nType="-99"/>
        </Node>
        <Node pos="r" depth="1" NCoef="0" IVar="0" Cut="7.0377090454101562e+01" cType="1" res="1.2079800665378571e-01" rms="4.2209655046463013e-01" purity="7.2360926866531372e-01" nType="0">
          <Node pos="l" depth="2" NCoef="0" IVar="-1" Cut="0.0000000000000000e+00" cType="1" res="3.1472765840590000e-03" rms="4.4638401269912720e-01" purity="6.7424541711807251e-01" nType="-99"/>
          <Node pos="r" depth="2" NCoef="0" IVar="-1" Cut="0.0000000000000000e+00" cType="1" res="6.4624482765793800e-03" rms="3.9604905247688293e-01" purity="7.6612091064453125e-01" nType="-99"/>
        </Node>
      </Node>
    </BinaryTree>
    <BinaryTree type="DecisionTree" boostWeight="1.0000000000000000e+00" itree="85">
      <Node pos="s" depth="0" NCoef="0" IVar="1" Cut="2.2195267677307129e+00" cType="1" res="1.0663991561159492e-03" rms="4.6504527330398560e-01" purity="4.9778378009796143e-01" nType="0">
        <Node pos="l" depth="1" NCoef="0" IVar="0" Cut="5.3408107757568359e+01" cType="1" res="4.8140551894903183e-02" rms="4.6920678019523621e-01" purity="5.9709823131561279e-01" nType="0">
          <Node pos="l" depth="2" NCoef="0" IVar="-1" Cut="0.0000000000000000e+00" cType="1" res="-1.2342236004769802e-03" rms="4.8054096102714539e-01" purity="4.9236017465591431e-01" nType="-99"/>
          <Node pos="r" depth="2" NCoef="0" IVar="-1" Cut="0.0000000000000000e+00" cType="1" res="3.3422203268855810e-03" rms="4.5724663138389587e-01" purity="6.5347361564636230e-01" nType="-99"/>
        </Node>
        <Node pos="r" depth="1" NCoef="0" IVar="6" Cut="7.9971747398376465e+00" cType="1" res="-6.4946629106998444e-02" rms="4.5094329118728638e-01" purity="3.5851320624351501e-01" nType="0">
          <Node pos="l" depth="2" NCoef="0" IVar="-1" Cut="0.0000000000000000e+00" cType="1" res="-3.7143903318792582e-03" rms="4.4188916683197021e-01" purity="3.1309399008750916e-01" nType="-99"/>
          <Node pos="r" depth="2" NCoef="0" IVar="-1" Cut="0.0000000000000000e+00" cType="1" res="1.8135829595848918e-03" rms="4.7437882423400879e-01" purity="5.6298184394836426e-01" nType="-99"/>
        </Node>
      </Node>
    </BinaryTree>
    <BinaryTree type="DecisionTree" boostWeight="1.0000000000000000e+00" itree="86">
      <Node pos="s" depth="0" NCoef="0" IVar="6" Cut="6.3795561790466309e+00" cType="1" res="-5.3994050249457359e-03" rms="4.6596229076385498e-01" purity="4.9241098761558533e-01" nType="0">
        <Node pos="l" depth="1" NCoef="0" IVar="5" Cut="7.0850116014480591e-01" cType="1" res="-7.3307916522026062e-02" rms="4.5398959517478943e-01" purity="3.3169469237327576e-01" nType="0">
          <Node pos="l" depth="2" NCoef="0" IVar="-1" Cut="0.0000000000000000e+00" cType="1" res="-4.9138342728838325e-04" rms="4.8665577173233032e-01" purity="4.3274268507957458e-01" nType="-99"/>
          <Node pos="r" depth="2" NCoef="0" IVar="-1" Cut="0.0000000000000000e+00" cType="1" res="-4.4519226066768169e-03" rms="4.2837157845497131e-01" purity="2.6925203204154968e-01" nType="-99"/>
        </Node>
        <Node pos="r" depth="1" NCoef="0" IVar="0" Cut="8.5912261962890625e+01" cType="1" res="3.6448694765567780e-02" rms="4.6831104159355164e-01" purity="5.9145110845565796e-01" nType="0">
          <Node pos="l" depth="2" NCoef="0" IVar="-1" Cut="0.0000000000000000e+00" cType="1" res="-2.2252999769989401e-05" rms="4.7758740186691284e-01" purity="5.5417054891586304e-01" nType="-99"/>
          <Node pos="r" depth="2" NCoef="0" IVar="-1" Cut="0.0000000000000000e+00" cType="1" res="3.4754800144582987e-03" rms="4.4974365830421448e-01" purity="6.4406156539916992e-01" nType="-99"/>
        </Node>
      </Node>
    </BinaryTree>
    <BinaryTree type="DecisionTree" boostWeight="1.0000000000000000e+00" itree="87">
      <Node pos="s" depth="0" NCoef="0" IVar="0" Cut="4.4873943328857422e+01" cType="1" res="1.3077282346785069e-03" rms="4.6750298142433167e-01" purity="4.9932670593261719e-01" nType="0">
        <Node pos="l" depth="1" NCoef="0" IVar="1" Cut="2.1232845783233643e+00" cType="1" res="-1.1531358957290649e-01" rms="4.5023253560066223e-01" purity="3.6302587389945984e-01" nType="0">
          <Node pos="l" depth="2" NCoef="0" IVar="-1" Cut="0.0000000000000000e+00" cType="1" res="-2.7592498809099197e-03" rms="4.6888861060142517e-01" purity="4.4678652286529541e-01" nType="-99"/>
          <Node pos="r" depth="2" NCoef="0" IVar="-1" Cut="0.0000000000000000e+00" cType="1" res="-8.3043491467833519e-03" rms="4.0450763702392578e-01" purity="2.1674992144107819e-01" nType="-99"/>
        </Node>
        <Node pos="r" depth="1" NCoef="0" IVar="6" Cut="4.9725518226623535e+00" cType="1" res="2.3262593895196915e-02" rms="4.6744033694267273e-01" purity="5.2498638629913330e-01" nType="0">
          <Node pos="l" depth="2" NCoef="0" IVar="-1" Cut="0.0000000000000000e+00" cType="1" res="-5.9010041877627373e-03" rms="4.1105172038078308e-01" purity="2.2579716145992279e-01" nType="-99"/>
          <Node pos="r" depth="2" NCoef="0" IVar="-1" Cut="0.0000000000000000e+00" cType="1" res="1.4030352467671037e-03" rms="4.6881645917892456e-01" purity="5.4692220687866211e-01" nType="-99"/>
        </Node>
      </Node>
    </BinaryTree>
    <BinaryTree type="DecisionTree" boostWeight="1.0000000000000000e+00" itree="88">
      <Node pos="s" depth="0" NCoef="0" IVar="4" Cut="1.0747419595718384e+00" cType="1" res="1.9615490455180407e-03" rms="4.6418601274490356e-01" purity="4.9997290968894958e-01" nType="0">
        <Node pos="l" depth="1" NCoef="0" IVar="0" Cut="5.4289386749267578e+01" cType="1" res="4.1590884327888489e-02" rms="4.6890148520469666e-01" purity="6.1325401067733765e-01" nType="0">
          <Node pos="l" depth="2" NCoef="0" IVar="-1" Cut="0.0000000000000000e+00" cType="1" res="-1.0285963071510196e-03" rms="4.8222839832305908e-01" purity="5.1578414440155029e-01" nType="-99"/>
          <Node pos="r" depth="2" NCoef="0" IVar="-1" Cut="0.0000000000000000e+00" cType="1" res="2.6940160896629095e-03" rms="4.5958915352821350e-01" purity="6.5638798475265503e-01" nType="-99"/>
        </Node>
        <Node pos="r" depth="1" NCoef="0" IVar="0" Cut="9.8210517883300781e+01" cType="1" res="-5.4973259568214417e-02" rms="4.5127537846565247e-01" purity="3.3722391724586487e-01" nType="0">
          <Node pos="l" depth="2" NCoef="0" IVar="-1" Cut="0.0000000000000000e+00" cType="1" res="-3.8805594667792320e-03" rms="4.3941450119018555e-01" purity="2.9376167058944702e-01" nType="-99"/>
          <Node pos="r" depth="2" NCoef="0" IVar="-1" Cut="0.0000000000000000e+00" cType="1" res="2.8300270787440240e-04" rms="4.6411499381065369e-01" purity="4.1066020727157593e-01" nType="-99"/>
        </Node>
      </Node>
    </BinaryTree>
    <BinaryTree type="DecisionTree" boostWeight="1.0000000000000000e+00" itree="89">
      <Node pos="s" depth="0" NCoef="0" IVar="6" Cut="5.8126583099365234e+00" cType="1" res="5.4423231631517410e-03" rms="4.6420669555664062e-01" purity="5.0406819581985474e-01" nType="0">
        <Node pos="l" depth="1" NCoef="0" IVar="6" Cut="4.9491996765136719e+00" cType="1" res="-9.3737423419952393e-02" rms="4.3997541069984436e-01" purity="2.9749128222465515e-01" nType="0">
          <Node pos="l" depth="2" NCoef="0" IVar="-1" Cut="0.0000000000000000e+00" cType="1" res="-7.3122712783515453e-03" rms="3.7921160459518433e-01" purity="1.8350628018379211e-01" nType="-99"/>
          <Node pos="r" depth="2" NCoef="0" IVar="-1" Cut="0.0000000000000000e+00" cType="1" res="-2.1891295909881592e-03" rms="4.5699164271354675e-01" purity="3.4330314397811890e-01" nType="-99"/>
        </Node>
        <Node pos="r" depth="1" NCoef="0" IVar="0" Cut="5.5198337554931641e+01" cType="1" res="3.6398150026798248e-02" rms="4.6722346544265747e-01" purity="5.6854468584060669e-01" nType="0">
          <Node pos="l" depth="2" NCoef="0" IVar="-1" Cut="0.0000000000000000e+00" cType="1" res="-1.5882598236203194e-03" rms="4.7414353489875793e-01" purity="4.7867408394813538e-01" nType="-99"/>
          <Node pos="r" depth="2" NCoef="0" IVar="-1" Cut="0.0000000000000000e+00" cType="1" res="2.5496929883956909e-03" rms="4.6096876263618469e-01" purity="6.0369288921356201e-01" nType="-99"/>
        </Node>
      </Node>
    </BinaryTree>
    <BinaryTree type="DecisionTree" boostWeight="1.0000000000000000e+00" itree="90">
      <Node pos="s" depth="0" NCoef="0" IVar="6" Cut="6.7954416275024414e+00" cType="1" res="-2.0981025591026992e-04" rms="4.6168801188468933e-01" purity="4.9963614344596863e-01" nType="0">
        <Node pos="l" depth="1" NCoef="0" IVar="4" Cut="8.3845281600952148e-01" cType="1" res="-5.4280828684568405e-02" rms="4.6029713749885559e-01" purity="3.6595809459686279e-01" nType="0">
          <Node pos="l" depth="2" NCoef="0" IVar="-1" Cut="0.0000000000000000e+00" cType="1" res="6.6854676697403193e-04" rms="4.9171018600463867e-01" purity="5.2469098567962646e-01" nType="-99"/>
          <Node pos="r" depth="2" NCoef="0" IVar="-1" Cut="0.0000000000000000e+00" cType="1" res="-3.6735350731760263e-03" rms="4.3978372216224670e-01" purity="2.8861626982688904e-01" nType="-99"/>
        </Node>
        <Node pos="r" depth="1" NCoef="0" IVar="4" Cut="1.3636925220489502e+00" cType="1" res="5.1624655723571777e-02" rms="4.5705097913742065e-01" purity="6.2778484821319580e-01" nType="0">
          <Node pos="l" depth="2" NCoef="0" IVar="-1" Cut="0.0000000000000000e+00" cType="1" res="2.7139806188642979e-03" rms="4.5414739847183228e-01" purity="6.8536889553070068e-01" nType="-99"/>
          <Node pos="r" depth="2" NCoef="0" IVar="-1" Cut="0.0000000000000000e+00" cType="1" res="-2.3444823455065489e-03" rms="4.5730918645858765e-01" purity="3.2755210995674133e-01" nType="-99"/>
        </Node>
      </Node>
    </BinaryTree>
    <BinaryTree type="DecisionTree" boostWeight="1.0000000000000000e+00" itree="91">
      <Node pos="s" depth="0" NCoef="0" IVar="4" Cut="1.4693474769592285e+00" cType="1" res="6.9145136512815952e-03" rms="4.6346119046211243e-01" purity="5.0674891471862793e-01" nType="0">
        <Node pos="l" depth="1" NCoef="0" IVar="6" Cut="5.6050462722778320e+00" cType="1" res="2.5072921067476273e-02" rms="4.7096744179725647e-01" purity="5.5356711149215698e-01" nType="0">
          <Node pos="l" depth="2" NCoef="0" IVar="-1" Cut="0.0000000000000000e+00" cType="1" res="-2.4814656935632229e-03" rms="4.6604675054550171e-01" purity="3.4067124128341675e-01" nType="-99"/>
          <Node pos="r" depth="2" NCoef="0" IVar="-1" Cut="0.0000000000000000e+00" cType="1" res="1.7395784379914403e-03" rms="4.6961468458175659e-01" purity="5.9992581605911255e-01" nType="-99"/>
        </Node>
        <Node pos="r" depth="1" NCoef="0" IVar="1" Cut="2.5610754489898682e+00" cType="1" res="-1.0640396922826767e-01" rms="3.9512762427330017e-01" purity="2.1457736194133759e-01" nType="0">
          <Node pos="l" depth="2" NCoef="0" IVar="-1" Cut="0.0000000000000000e+00" cType="1" res="-2.2586812265217304e-03" rms="4.4182917475700378e-01" purity="3.0019065737724304e-01" nType="-99"/>
          <Node pos="r" depth="2" NCoef="0" IVar="-1" Cut="0.0000000000000000e+00" cType="1" res="-7.5833168812096119e-03" rms="3.4504979848861694e-01" purity="1.4321076869964600e-01" nType="-99"/>
        </Node>
      </Node>
    </BinaryTree>
    <BinaryTree type="DecisionTree" boostWeight="1.0000000000000000e+00" itree="92">
      <Node pos="s" depth="0" NCoef="0" IVar="4" Cut="5.9191793203353882e-01" cType="1" res="9.4156470149755478e-03" rms="4.6557977795600891e-01" purity="5.1018947362899780e-01" nType="0">
        <Node pos="l" depth="1" NCoef="0" IVar="5" Cut="4.9384641647338867e-01" cType="1" res="1.2408649921417236e-01" rms="4.4512242078781128e-01" purity="7.1446758508682251e-01" nType="0">
          <Node pos="l" depth="2" NCoef="0" IVar="-1" Cut="0.0000000000000000e+00" cType="1" res="2.3530516773462296e-03" rms="4.6193790435791016e-01" purity="6.6122478246688843e-01" nType="-99"/>
          <Node pos="r" depth="2" NCoef="0" IVar="-1" Cut="0.0000000000000000e+00" cType="1" res="7.3660714551806450e-03" rms="4.0943172574043274e-01" purity="7.8317916393280029e-01" nType="-99"/>
        </Node>
        <Node pos="r" depth="1" NCoef="0" IVar="6" Cut="5.3979477882385254e+00" cType="1" res="-1.0099794715642929e-02" rms="4.6617218852043152e-01" purity="4.7542402148246765e-01" nType="0">
          <Node pos="l" depth="2" NCoef="0" IVar="-1" Cut="0.0000000000000000e+00" cType="1" res="-5.0928047858178616e-03" rms="4.2040327191352844e-01" purity="2.4063059687614441e-01" nType="-99"/>
          <Node pos="r" depth="2" NCoef="0" IVar="-1" Cut="0.0000000000000000e+00" cType="1" res="3.7906930083408952e-04" rms="4.7055295109748840e-01" purity="5.1481908559799194e-01" nType="-99"/>
        </Node>
      </Node>
    </BinaryTree>
    <BinaryTree type="DecisionTree" boostWeight="1.0000000000000000e+00" itree="93">
      <Node pos="s" depth="0" NCoef="0" IVar="2" Cut="9.5223641395568848e-01" cType="1" res="1.4086454175412655e-02" rms="4.6086016297340393e-01" purity="5.1499980688095093e-01" nType="0">
        <Node pos="l" depth="1" NCoef="0" IVar="4" Cut="6.6780537366867065e-01" cType="1" res="-3.1452968716621399e-02" rms="4.6421614289283752e-01" purity="3.9732596278190613e-01" nType="0">
          <Node pos="l" depth="2" NCoef="0" IVar="-1" Cut="0.0000000000000000e+00" cType="1" res="3.3451041672378778e-03" rms="4.7811079025268555e-01" purity="6.2855559587478638e-01" nType="-99"/>
          <Node pos="r" depth="2" NCoef="0" IVar="-1" Cut="0.0000000000000000e+00" cType="1" res="-2.3879073560237885e-03" rms="4.5592662692070007e-01" purity="3.4688004851341248e-01" nType="-99"/>
        </Node>
        <Node pos="r" depth="1" NCoef="0" IVar="4" Cut="1.4471597671508789e+00" cType="1" res="6.2004394829273224e-02" rms="4.5237940549850464e-01" purity="6.3881969451904297e-01" nType="0">
          <Node pos="l" depth="2" NCoef="0" IVar="-1" Cut="0.0000000000000000e+00" cType="1" res="3.1538822222501040e-03" rms="4.4997420907020569e-01" purity="6.8700432777404785e-01" nType="-99"/>
          <Node pos="r" depth="2" NCoef="0" IVar="-1" Cut="0.0000000000000000e+00" cType="1" res="-2.9245440382510424e-03" rms="4.4799405336380005e-01" purity="3.0977168679237366e-01" nType="-99"/>
        </Node>
      </Node>
    </BinaryTree>
    <BinaryTree type="DecisionTree" boostWeight="1.0000000000000000e+00" itree="94">
      <Node pos="s" depth="0" NCoef="0" IVar="6" Cut="5.0412659645080566e+00" cType="1" res="-2.1703820675611496e-03" rms="4.6336421370506287e-01" purity="4.9623870849609375e-01" nType="0">
        <Node pos="l" depth="1" NCoef="0" IVar="-1" Cut="0.0000000000000000e+00" cType="1" res="-6.1794565990567207e-03" rms="3.9819979667663574e-01" purity="2.1011158823966980e-01" nType="-99"/>
        <Node pos="r" depth="1" NCoef="0" IVar="1" Cut="2.3918724060058594e+00" cType="1" res="1.0997838340699673e-02" rms="4.6606889367103577e-01" purity="5.2039939165115356e-01" nType="0">
          <Node pos="l" depth="2" NCoef="0" IVar="-1" Cut="0.0000000000000000e+00" cType="1" res="1.2553569395095110e-03" rms="4.7231769561767578e-01" purity="5.8153945207595825e-01" nType="-99"/>
          <Node pos="r" depth="2" NCoef="0" IVar="-1" Cut="0.0000000000000000e+00" cType="1" res="-3.0046782921999693e-03" rms="4.3355628848075867e-01" purity="2.9917699098587036e-01" nType="-99"/>
        </Node>
      </Node>
    </BinaryTree>
    <BinaryTree type="DecisionTree" boostWeight="1.0000000000000000e+00" itree="95">
      <Node pos="s" depth="0" NCoef="0" IVar="4" Cut="8.5145425796508789e-01" cType="1" res="-6.5584410913288593e-04" rms="4.6126881241798401e-01" purity="4.9696770310401917e-01" nType="0">
        <Node pos="l" depth="1" NCoef="0" IVar="6" Cut="5.5980439186096191e+00" cType="1" res="6.7607775330543518e-02" rms="4.5844757556915283e-01" purity="6.5593492984771729e-01" nType="0">
          <Node pos="l" depth="2" NCoef="0" IVar="-1" Cut="0.0000000000000000e+00" cType="1" res="-1.5282260719686747e-03" rms="4.8914283514022827e-01" purity="4.2100271582603455e-01" nType="-99"/>
          <Node pos="r" depth="2" NCoef="0" IVar="-1" Cut="0.0000000000000000e+00" cType="1" res="3.3543033059686422e-03" rms="4.5004576444625854e-01" purity="6.9682776927947998e-01" nType="-99"/>
        </Node>
        <Node pos="r" depth="1" NCoef="0" IVar="0" Cut="9.6137603759765625e+01" cType="1" res="-4.0905307978391647e-02" rms="4.5818251371383667e-01" purity="4.0323773026466370e-01" nType="0">
          <Node pos="l" depth="2" NCoef="0" IVar="-1" Cut="0.0000000000000000e+00" cType="1" res="-3.1112884171307087e-03" rms="4.5043432712554932e-01" purity="3.6031633615493774e-01" nType="-99"/>
          <Node pos="r" depth="2" NCoef="0" IVar="-1" Cut="0.0000000000000000e+00" cType="1" res="1.0605930583551526e-03" rms="4.6496796607971191e-01" purity="4.8370552062988281e-01" nType="-99"/>
        </Node>
      </Node>
    </BinaryTree>
    <BinaryTree type="DecisionTree" boostWeight="1.0000000000000000e+00" itree="96">
      <Node pos="s" depth="0" NCoef="0" IVar="1" Cut="2.5069997310638428e+00" cType="1" res="1.3337336713448167e-03" rms="4.6568280458450317e-01" purity="4.9644723534584045e-01" nType="0">
        <Node pos="l" depth="1" NCoef="0" IVar="0" Cut="5.1545780181884766e+01" cType="1" res="2.0569263026118279e-02" rms="4.7398659586906433e-01" purity="5.4649043083190918e-01" nType="0">
          <Node pos="l" depth="2" NCoef="0" IVar="-1" Cut="0.0000000000000000e+00" cType="1" res="-2.1649720147252083e-03" rms="4.7205695509910583e-01" purity="4.4197419285774231e-01" nType="-99"/>
          <Node pos="r" depth="2" NCoef="0" IVar="-1" Cut="0.0000000000000000e+00" cType="1" res="1.8792181508615613e-03" rms="4.7156304121017456e-01" purity="5.8554524183273315e-01" nType="-99"/>
        </Node>
        <Node pos="r" depth="1" NCoef="0" IVar="3" Cut="-7.7858470380306244e-02" cType="1" res="-1.0745022445917130e-01" rms="3.9850506186485291e-01" purity="2.1343481540679932e-01" nType="0">
          <Node pos="l" depth="2" NCoef="0" IVar="-1" Cut="0.0000000000000000e+00" cType="1" res="-7.6685729436576366e-03" rms="3.5420417785644531e-01" purity="1.5212437510490417e-01" nType="-99"/>
          <Node pos="r" depth="2" NCoef="0" IVar="-1" Cut="0.0000000000000000e+00" cType="1" res="-3.5365798976272345e-03" rms="4.1963687539100647e-01" purity="2.5000387430191040e-01" nType="-99"/>
        </Node>
      </Node>
    </BinaryTree>
    <BinaryTree type="DecisionTree" boostWeight="1.0000000000000000e+00" itree="97">
      <Node pos="s" depth="0" NCoef="0" IVar="1" Cut="2.4494607448577881e+00" cType="1" res="-1.8974265549331903e-04" rms="4.6061125397682190e-01" purity="5.0126576423645020e-01" nType="0">
        <Node pos="l" depth="1" NCoef="0" IVar="0" Cut="5.3408107757568359e+01" cType="1" res="2.3253675550222397e-02" rms="4.6931305527687073e-01" purity="5.6008249521255493e-01" nType="0">
          <Node pos="l" depth="2" NCoef="0" IVar="-1" Cut="0.0000000000000000e+00" cType="1" res="-1.8103235634043813e-03" rms="4.7639542818069458e-01" purity="4.5494121313095093e-01" nType="-99"/>
          <Node pos="r" depth="2" NCoef="0" IVar="-1" Cut="0.0000000000000000e+00" cType="1" res="1.9485177472233772e-03" rms="4.6353536844253540e-01" purity="6.0183364152908325e-01" nType="-99"/>
        </Node>
        <Node pos="r" depth="1" NCoef="0" IVar="0" Cut="7.9923034667968750e+01" cType="1" res="-1.0898678004741669e-01" rms="4.0027704834938049e-01" purity="2.2830688953399658e-01" nType="0">
          <Node pos="l" depth="2" NCoef="0" IVar="-1" Cut="0.0000000000000000e+00" cType="1" res="-9.4147035852074623e-03" rms="3.2183966040611267e-01" purity="1.2529729306697845e-01" nType="-99"/>
          <Node pos="r" depth="2" NCoef="0" IVar="-1" Cut="0.0000000000000000e+00" cType="1" res="-2.4796484503895044e-03" rms="4.3538337945938110e-01" purity="2.9469141364097595e-01" nType="-99"/>
        </Node>
      </Node>
    </BinaryTree>
    <BinaryTree type="DecisionTree" boostWeight="1.0000000000000000e+00" itree="98">
      <Node pos="s" depth="0" NCoef="0" IVar="1" Cut="2.6852731704711914e+00" cType="1" res="1.2160938233137131e-02" rms="4.6472096443176270e-01" purity="5.1265186071395874e-01" nType="0">
        <Node pos="l" depth="1" NCoef="0" IVar="0" Cut="1.0219338226318359e+02" cType="1" res="2.2515421733260155e-02" rms="4.6985372900962830e-01" purity="5.3789293766021729e-01" nType="0">
          <Node pos="l" depth="2" NCoef="0" IVar="-1" Cut="0.0000000000000000e+00" cType="1" res="-2.3066694848239422e-04" rms="4.7209015488624573e-01" purity="5.0135082006454468e-01" nType="-99"/>
          <Node pos="r" depth="2" NCoef="0" IVar="-1" Cut="0.0000000000000000e+00" cType="1" res="3.9679873734712601e-03" rms="4.5434200763702393e-01" purity="6.3904529809951782e-01" nType="-99"/>
        </Node>
        <Node pos="r" depth="1" NCoef="0" IVar="-1" Cut="0.0000000000000000e+00" cType="1" res="-6.9352784194052219e-03" rms="3.5102882981300354e-01" purity="1.4952184259891510e-01" nType="-99"/>
      </Node>
    </BinaryTree>
    <BinaryTree type="DecisionTree" boostWeight="1.0000000000000000e+00" itree="99">
      <Node pos="s" depth="0" NCoef="0" IVar="4" Cut="1.4891113042831421e+00" cType="1" res="3.7397271953523159e-03" rms="4.6288511157035828e-01" purity="5.0102704763412476e-01" nType="0">
        <Node pos="l" depth="1" NCoef="0" IVar="0" Cut="8.0943962097167969e+01" cType="1" res="1.9991472363471985e-02" rms="4.7029703855514526e-01" purity="5.4581117630004883e-01" nType="0">
          <Node pos="l" depth="2" NCoef="0" IVar="-1" Cut="0.0000000000000000e+00" cType="1" res="-5.5214425083249807e-04" rms="4.7183448076248169e-01" purity="5.0007671117782593e-01" nType="-99"/>
          <Node pos="r" depth="2" NCoef="0" IVar="-1" Cut="0.0000000000000000e+00" cType="1" res="2.6617036201059818e-03" rms="4.6378391981124878e-01" purity="6.0932296514511108e-01" nType="-99"/>
        </Node>
        <Node pos="r" depth="1" NCoef="0" IVar="4" Cut="1.7137718200683594e+00" cType="1" res="-1.0176925361156464e-01" rms="3.9561557769775391e-01" purity="2.1028132736682892e-01" nType="0">
          <Node pos="l" depth="2" NCoef="0" IVar="-1" Cut="0.0000000000000000e+00" cType="1" res="-2.9257314745336771e-03" rms="4.2548704147338867e-01" purity="2.6126518845558167e-01" nType="-99"/>
          <Node pos="r" depth="2" NCoef="0" IVar="-1" Cut="0.0000000000000000e+00" cType="1" res="-7.5638969428837299e-03" rms="3.4716832637786865e-01" purity="1.4410239458084106e-01" nType="-99"/>
        </Node>
      </Node>
    </BinaryTree>
    <BinaryTree type="DecisionTree" boostWeight="1.0000000000000000e+00" itree="100">
      <Node pos="s" depth="0" NCoef="0" IVar="4" Cut="8.5057884454727173e-01" cType="1" res="-1.8847199389711022e-03" rms="4.6399566531181335e-01" purity="4.9840831756591797e-01" nType="0">
        <Node pos="l" depth="1" NCoef="0" IVar="2" Cut="9.3858331441879272e-01" cType="1" res="5.2023876458406448e-02" rms="4.6382731199264526e-01" purity="6.4145314693450928e-01" nType="0">
          <Node pos="l" depth="2" NCoef="0" IVar="-1" Cut="0.0000000000000000e+00" cType="1" res="-3.5269702493678778e-05" rms="4.9023413658142090e-01" purity="4.9005833268165588e-01" nType="-99"/>
          <Node pos="r" depth="2" NCoef="0" IVar="-1" Cut="0.0000000000000000e+00" cType="1" res="2.8800917789340019e-03" rms="4.5036956667900085e-01" purity="7.0525175333023071e-01" nType="-99"/>
        </Node>
        <Node pos="r" depth="1" NCoef="0" IVar="6" Cut="8.4547815322875977e+00" cType="1" res="-3.4699190407991409e-02" rms="4.6102201938629150e-01" purity="4.1133606433868408e-01" nType="0">
          <Node pos="l" depth="2" NCoef="0" IVar="-1" Cut="0.0000000000000000e+00" cType="1" res="-2.1715187467634678e-03" rms="4.5922282338142395e-01" purity="3.7559577822685242e-01" nType="-99"/>
          <Node pos="r" depth="2" NCoef="0" IVar="-1" Cut="0.0000000000000000e+00" cType="1" res="3.3580637536942959e-03" rms="4.5501062273979187e-01" purity="6.3755774497985840e-01" nType="-99"/>
        </Node>
      </Node>
    </BinaryTree>
    <BinaryTree type="DecisionTree" boostWeight="1.0000000000000000e+00" itree="101">
      <Node pos="s" depth="0" NCoef="0" IVar="2" Cut="9.7672659158706665e-01" cType="1" res="7.3348963633179665e-03" rms="4.6328130364418030e-01" purity="5.0491225719451904e-01" nType="0">
        <Node pos="l" depth="1" NCoef="0" IVar="7" Cut="2.7830135822296143e-01" cType="1" res="-9.4788735732436180e-03" rms="4.6701967716217041e-01" purity="4.6892830729484558e-01" nType="0">
          <Node pos="l" depth="2" NCoef="0" IVar="-1" Cut="0.0000000000000000e+00" cType="1" res="-2.4583963677287102e-03" rms="4.5458963513374329e-01" purity="3.6948150396347046e-01" nType="-99"/>
          <Node pos="r" depth="2" NCoef="0" IVar="-1" Cut="0.0000000000000000e+00" cType="1" res="5.6907336693257093e-04" rms="4.7058019042015076e-01" purity="5.1438766717910767e-01" nType="-99"/>
        </Node>
        <Node pos="r" depth="1" NCoef="0" IVar="2" Cut="9.8662781715393066e-01" cType="1" res="1.1142318695783615e-01" rms="4.2487066984176636e-01" purity="7.2767668962478638e-01" nType="0">
          <Node pos="l" depth="2" NCoef="0" IVar="-1" Cut="0.0000000000000000e+00" cType="1" res="3.0589695088565350e-03" rms="4.4749221205711365e-01" purity="6.8317776918411255e-01" nType="-99"/>
          <Node pos="r" depth="2" NCoef="0" IVar="-1" Cut="0.0000000000000000e+00" cType="1" res="6.5933917649090290e-03" rms="3.8254162669181824e-01" purity="7.9322481155395508e-01" nType="-99"/>
        </Node>
      </Node>
    </BinaryTree>
    <BinaryTree type="DecisionTree" boostWeight="1.0000000000000000e+00" itree="102">
      <Node pos="s" depth="0" NCoef="0" IVar="0" Cut="1.0233372497558594e+02" cType="1" res="-1.1301117949187756e-02" rms="4.6704781055450439e-01" purity="4.8738336563110352e-01" nType="0">
        <Node pos="l" depth="1" NCoef="0" IVar="2" Cut="9.4558018445968628e-01" cType="1" res="-3.8741264492273331e-02" rms="4.6687245368957520e-01" purity="4.5566180348396301e-01" nType="0">
          <Node pos="l" depth="2" NCoef="0" IVar="-1" Cut="0.0000000000000000e+00" cType="1" res="-3.0580272432416677e-03" rms="4.5374709367752075e-01" purity="3.2829883694648743e-01" nType="-99"/>
          <Node pos="r" depth="2" NCoef="0" IVar="-1" Cut="0.0000000000000000e+00" cType="1" res="-1.3052682334091514e-04" rms="4.7390422224998474e-01" purity="5.5558997392654419e-01" nType="-99"/>
        </Node>
        <Node pos="r" depth="1" NCoef="0" IVar="0" Cut="1.3900898742675781e+02" cType="1" res="6.1681799590587616e-02" rms="4.5960858464241028e-01" purity="5.7175374031066895e-01" nType="0">
          <Node pos="l" depth="2" NCoef="0" IVar="-1" Cut="0.0000000000000000e+00" cType="1" res="3.9278422482311726e-03" rms="4.5185619592666626e-01" purity="6.1459642648696899e-01" nType="-99"/>
          <Node pos="r" depth="2" NCoef="0" IVar="-1" Cut="0.0000000000000000e+00" cType="1" res="-9.4987766351550817e-04" rms="4.6598878502845764e-01" purity="4.7406634688377380e-01" nType="-99"/>
        </Node>
      </Node>
    </BinaryTree>
    <BinaryTree type="DecisionTree" boostWeight="1.0000000000000000e+00" itree="103">
      <Node pos="s" depth="0" NCoef="0" IVar="4" Cut="1.5719851255416870e+00" cType="1" res="8.5314782336354256e-03" rms="4.6092021465301514e-01" purity="5.0630569458007812e-01" nType="0">
        <Node pos="l" depth="1" NCoef="0" IVar="6" Cut="5.7591714859008789e+00" cType="1" res="2.4558691307902336e-02" rms="4.6821281313896179e-01" purity="5.4541736841201782e-01" nType="0">
          <Node pos="l" depth="2" NCoef="0" IVar="-1" Cut="0.0000000000000000e+00" cType="1" res="-2.4931773077696562e-03" rms="4.5862329006195068e-01" purity="3.3408266305923462e-01" nType="-99"/>
          <Node pos="r" depth="2" NCoef="0" IVar="-1" Cut="0.0000000000000000e+00" cType="1" res="1.8515381962060928e-03" rms="4.6784999966621399e-01" purity="6.0105156898498535e-01" nType="-99"/>
        </Node>
        <Node pos="r" depth="1" NCoef="0" IVar="4" Cut="1.7460135221481323e+00" cType="1" res="-1.2940251827239990e-01" rms="3.6455029249191284e-01" purity="1.6970121860504150e-01" nType="0">
          <Node pos="l" depth="2" NCoef="0" IVar="-1" Cut="0.0000000000000000e+00" cType="1" res="-4.4061383232474327e-03" rms="4.0373456478118896e-01" purity="2.1996974945068359e-01" nType="-99"/>
          <Node pos="r" depth="2" NCoef="0" IVar="-1" Cut="0.0000000000000000e+00" cType="1" res="-8.1804450601339340e-03" rms="3.1801235675811768e-01" purity="1.2070583552122116e-01" nType="-99"/>
        </Node>
      </Node>
    </BinaryTree>
    <BinaryTree type="DecisionTree" boostWeight="1.0000000000000000e+00" itree="104">
      <Node pos="s" depth="0" NCoef="0" IVar="4" Cut="8.1981730461120605e-01" cType="1" res="3.0748341232538223e-03" rms="4.5956736803054810e-01" purity="5.0293898582458496e-01" nType="0">
        <Node pos="l" depth="1" NCoef="0" IVar="2" Cut="9.3002557754516602e-01" cType="1" res="7.0879265666007996e-02" rms="4.5500618219375610e-01" purity="6.6320109367370605e-01" nType="0">
          <Node pos="l" depth="2" NCoef="0" IVar="-1" Cut="0.0000000000000000e+00" cType="1" res="-1.5009348280727863e-03" rms="4.8377770185470581e-01" purity="4.3147659301757812e-01" nType="-99"/>
          <Node pos="r" depth="2" NCoef="0" IVar="-1" Cut="0.0000000000000000e+00" cType="1" res="3.7076289299875498e-03" rms="4.4405555725097656e-01" purity="7.1646231412887573e-01" nType="-99"/>
        </Node>
        <Node pos="r" depth="1" NCoef="0" IVar="6" Cut="6.7481870651245117e+00" cType="1" res="-3.1184080988168716e-02" rms="4.5805382728576660e-01" purity="4.2196482419967651e-01" nType="0">
          <Node pos="l" depth="2" NCoef="0" IVar="-1" Cut="0.0000000000000000e+00" cType="1" res="-3.2529192976653576e-03" rms="4.4160100817680359e-01" purity="2.9506531357765198e-01" nType="-99"/>
          <Node pos="r" depth="2" NCoef="0" IVar="-1" Cut="0.0000000000000000e+00" cType="1" res="6.2087911646813154e-04" rms="4.6883785724639893e-01" purity="5.4534631967544556e-01" nType="-99"/>
        </Node>
      </Node>
    </BinaryTree>
    <BinaryTree type="DecisionTree" boostWeight="1.0000000000000000e+00" itree="105">
      <Node pos="s" depth="0" NCoef="0" IVar="4" Cut="9.9061453342437744e-01" cType="1" res="-5.3731701336801052e-03" rms="4.5603197813034058e-01" purity="4.9255234003067017e-01" nType="0">
        <Node pos="l" depth="1" NCoef="0" IVar="2" Cut="9.4028204679489136e-01" cType="1" res="4.4382821768522263e-02" rms="4.6018454432487488e-01" purity="6.2762421369552612e-01" nType="0">
          <Node pos="l" depth="2" NCoef="0" IVar="-1" Cut="0.0000000000000000e+00" cType="1" res="-1.4952737838029861e-03" rms="4.8615029454231262e-01" purity="4.3474981188774109e-01" nType="-99"/>
          <Node pos="r" depth="2" NCoef="0" IVar="-1" Cut="0.0000000000000000e+00" cType="1" res="3.3300940413028002e-03" rms="4.4191750884056091e-01" purity="7.1594566106796265e-01" nType="-99"/>
        </Node>
        <Node pos="r" depth="1" NCoef="0" IVar="0" Cut="8.0943962097167969e+01" cType="1" res="-5.7126421481370926e-02" rms="4.4581878185272217e-01" purity="3.5205850005149841e-01" nType="0">
          <Node pos="l" depth="2" NCoef="0" IVar="-1" Cut="0.0000000000000000e+00" cType="1" res="-4.4914800673723221e-03" rms="4.2951092123985291e-01" purity="2.9147115349769592e-01" nType="-99"/>
          <Node pos="r" depth="2" NCoef="0" IVar="-1" Cut="0.0000000000000000e+00" cType="1" res="-4.0011171950027347e-04" rms="4.5620459318161011e-01" purity="4.1116756200790405e-01" nType="-99"/>
        </Node>
      </Node>
    </BinaryTree>
    <BinaryTree type="DecisionTree" boostWeight="1.0000000000000000e+00" itree="106">
      <Node pos="s" depth="0" NCoef="0" IVar="6" Cut="7.6610097885131836e+00" cType="1" res="-2.3083235137164593e-03" rms="4.5950138568878174e-01" purity="4.9889457225799561e-01" nType="0">
        <Node pos="l" depth="1" NCoef="0" IVar="0" Cut="3.8473548889160156e+01" cType="1" res="-3.5868752747774124e-02" rms="4.6253043413162231e-01" purity="4.1741520166397095e-01" nType="0">
          <Node pos="l" depth="2" NCoef="0" IVar="-1" Cut="0.0000000000000000e+00" cType="1" res="-6.5125133842229843e-03" rms="4.2346075177192688e-01" purity="2.6244238018989563e-01" nType="-99"/>
          <Node pos="r" depth="2" NCoef="0" IVar="-1" Cut="0.0000000000000000e+00" cType="1" res="-8.2058610860258341e-04" rms="4.6459841728210449e-01" purity="4.3544521927833557e-01" nType="-99"/>
        </Node>
        <Node pos="r" depth="1" NCoef="0" IVar="0" Cut="5.5533573150634766e+01" cType="1" res="7.1285091340541840e-02" rms="4.4399470090866089e-01" purity="6.7756766080856323e-01" nType="0">
          <Node pos="l" depth="2" NCoef="0" IVar="-1" Cut="0.0000000000000000e+00" cType="1" res="-5.0524965627118945e-04" rms="4.6636539697647095e-01" purity="5.7563936710357666e-01" nType="-99"/>
          <Node pos="r" depth="2" NCoef="0" IVar="-1" Cut="0.0000000000000000e+00" cType="1" res="4.1128969751298428e-03" rms="4.3148016929626465e-01" purity="7.1491211652755737e-01" nType="-99"/>
        </Node>
      </Node>
    </BinaryTree>
    <BinaryTree type="DecisionTree" boostWeight="1.0000000000000000e+00" itree="107">
      <Node pos="s" depth="0" NCoef="0" IVar="6" Cut="8.3498468399047852e+00" cType="1" res="-7.0978305302560329e-05" rms="4.6325886249542236e-01" purity="5.0059670209884644e-01" nType="0">
        <Node pos="l" depth="1" NCoef="0" IVar="0" Cut="9.6467155456542969e+01" cType="1" res="-1.7526593059301376e-02" rms="4.6766149997711182e-01" purity="4.5817762613296509e-01" nType="0">
          <Node pos="l" depth="2" NCoef="0" IVar="-1" Cut="0.0000000000000000e+00" cType="1" res="-1.6652615740895271e-03" rms="4.6700751781463623e-01" purity="4.3142691254615784e-01" nType="-99"/>
          <Node pos="r" depth="2" NCoef="0" IVar="-1" Cut="0.0000000000000000e+00" cType="1" res="1.5154608990997076e-03" rms="4.6427619457244873e-01" purity="5.1683026552200317e-01" nType="-99"/>
        </Node>
        <Node pos="r" depth="1" NCoef="0" IVar="0" Cut="7.2629325866699219e+01" cType="1" res="8.7026722729206085e-02" rms="4.3017706274986267e-01" purity="7.1225404739379883e-01" nType="0">
          <Node pos="l" depth="2" NCoef="0" IVar="-1" Cut="0.0000000000000000e+00" cType="1" res="1.2393818469718099e-03" rms="4.5913857221603394e-01" purity="6.3736075162887573e-01" nType="-99"/>
          <Node pos="r" depth="2" NCoef="0" IVar="-1" Cut="0.0000000000000000e+00" cType="1" res="5.4195174016058445e-03" rms="4.0043994784355164e-01" purity="7.7088373899459839e-01" nType="-99"/>
        </Node>
      </Node>
    </BinaryTree>
    <BinaryTree type="DecisionTree" boostWeight="1.0000000000000000e+00" itree="108">
      <Node pos="s" depth="0" NCoef="0" IVar="1" Cut="2.4220063686370850e+00" cType="1" res="4.3331464985385537e-04" rms="4.6274375915527344e-01" purity="4.9885678291320801e-01" nType="0">
        <Node pos="l" depth="1" NCoef="0" IVar="0" Cut="9.1367691040039062e+01" cType="1" res="1.9873978570103645e-02" rms="4.7149798274040222e-01" purity="5.6007152795791626e-01" nType="0">
          <Node pos="l" depth="2" NCoef="0" IVar="-1" Cut="0.0000000000000000e+00" cType="1" res="-3.1899570603854954e-04" rms="4.7565889358520508e-01" purity="5.1327484846115112e-01" nType="-99"/>
          <Node pos="r" depth="2" NCoef="0" IVar="-1" Cut="0.0000000000000000e+00" cType="1" res="3.2086749561131001e-03" rms="4.5583906769752502e-01" purity="6.6441935300827026e-01" nType="-99"/>
        </Node>
        <Node pos="r" depth="1" NCoef="0" IVar="0" Cut="1.0119253540039062e+02" cType="1" res="-7.4122056365013123e-02" rms="4.1923603415489197e-01" purity="2.6409706473350525e-01" nType="0">
          <Node pos="l" depth="2" NCoef="0" IVar="-1" Cut="0.0000000000000000e+00" cType="1" res="-5.5952994152903557e-03" rms="3.9019089937210083e-01" purity="2.0483402907848358e-01" nType="-99"/>
          <Node pos="r" depth="2" NCoef="0" IVar="-1" Cut="0.0000000000000000e+00" cType="1" res="-8.5302494699135423e-04" rms="4.4660604000091553e-01" purity="3.3736693859100342e-01" nType="-99"/>
        </Node>
      </Node>
    </BinaryTree>
    <BinaryTree type="DecisionTree" boostWeight="1.0000000000000000e+00" itree="109">
      <Node pos="s" depth="0" NCoef="0" IVar="4" Cut="1.1899315118789673e+00" cType="1" res="2.7658564504235983e-03" rms="4.5938205718994141e-01" purity="5.0261253118515015e-01" nType="0">
        <Node pos="l" depth="1" NCoef="0" IVar="6" Cut="5.4205284118652344e+00" cType="1" res="3.1859774142503738e-02" rms="4.6640226244926453e-01" purity="5.9691822528839111e-01" nType="0">
          <Node pos="l" depth="2" NCoef="0" IVar="-1" Cut="0.0000000000000000e+00" cType="1" res="-3.0906465835869312e-03" rms="4.6789512038230896e-01" purity="3.3829516172409058e-01" nType="-99"/>
          <Node pos="r" depth="2" NCoef="0" IVar="-1" Cut="0.0000000000000000e+00" cType="1" res="1.8308972939848900e-03" rms="4.6382376551628113e-01" purity="6.3350647687911987e-01" nType="-99"/>
        </Node>
        <Node pos="r" depth="1" NCoef="0" IVar="0" Cut="5.9961833953857422e+01" cType="1" res="-6.1761520802974701e-02" rms="4.3655028939247131e-01" purity="2.9345196485519409e-01" nType="0">
          <Node pos="l" depth="2" NCoef="0" IVar="-1" Cut="0.0000000000000000e+00" cType="1" res="-6.1182533390820026e-03" rms="3.8298472762107849e-01" purity="2.0420315861701965e-01" nType="-99"/>
          <Node pos="r" depth="2" NCoef="0" IVar="-1" Cut="0.0000000000000000e+00" cType="1" res="-1.3521006330847740e-03" rms="4.5348563790321350e-01" purity="3.3038720488548279e-01" nType="-99"/>
        </Node>
      </Node>
    </BinaryTree>
    <BinaryTree type="DecisionTree" boostWeight="1.0000000000000000e+00" itree="110">
      <Node pos="s" depth="0" NCoef="0" IVar="6" Cut="6.6997852325439453e+00" cType="1" res="3.8156141526997089e-03" rms="4.5924797654151917e-01" purity="5.0310313701629639e-01" nType="0">
        <Node pos="l" depth="1" NCoef="0" IVar="4" Cut="1.1314995288848877e+00" cType="1" res="-4.4162716716527939e-02" rms="4.5915251970291138e-01" purity="3.6540570855140686e-01" nType="0">
          <Node pos="l" depth="2" NCoef="0" IVar="-1" Cut="0.0000000000000000e+00" cType="1" res="-4.5371055603027344e-04" rms="4.9103802442550659e-01" purity="4.6804574131965637e-01" nType="-99"/>
          <Node pos="r" depth="2" NCoef="0" IVar="-1" Cut="0.0000000000000000e+00" cType="1" res="-4.0543279610574245e-03" rms="4.0454429388046265e-01" purity="2.1745570003986359e-01" nType="-99"/>
        </Node>
        <Node pos="r" depth="1" NCoef="0" IVar="0" Cut="4.3048168182373047e+01" cType="1" res="4.5708056539297104e-02" rms="4.5521461963653564e-01" purity="6.2333416938781738e-01" nType="0">
          <Node pos="l" depth="2" NCoef="0" IVar="-1" Cut="0.0000000000000000e+00" cType="1" res="-3.1714420765638351e-03" rms="4.7732517123222351e-01" purity="4.7178435325622559e-01" nType="-99"/>
          <Node pos="r" depth="2" NCoef="0" IVar="-1" Cut="0.0000000000000000e+00" cType="1" res="2.5756473187357187e-03" rms="4.4881579279899597e-01" purity="6.4604622125625610e-01" nType="-99"/>
        </Node>
      </Node>
    </BinaryTree>
    <BinaryTree type="DecisionTree" boostWeight="1.0000000000000000e+00" itree="111">
      <Node pos="s" depth="0" NCoef="0" IVar="0" Cut="4.9144409179687500e+01" cType="1" res="-4.7040525823831558e-03" rms="4.6071055531501770e-01" purity="4.9278551340103149e-01" nType="0">
        <Node pos="l" depth="1" NCoef="0" IVar="2" Cut="9.5492517948150635e-01" cType="1" res="-8.6226291954517365e-02" rms="4.5893168449401855e-01" purity="3.8763928413391113e-01" nType="0">
          <Node pos="l" depth="2" NCoef="0" IVar="-1" Cut="0.0000000000000000e+00" cType="1" res="-4.5839156955480576e-03" rms="4.4233444333076477e-01" purity="2.8822427988052368e-01" nType="-99"/>
          <Node pos="r" depth="2" NCoef="0" IVar="-1" Cut="0.0000000000000000e+00" cType="1" res="-2.0593537483364344e-03" rms="4.7658756375312805e-01" purity="5.1274573802947998e-01" nType="-99"/>
        </Node>
        <Node pos="r" depth="1" NCoef="0" IVar="1" Cut="2.1900389194488525e+00" cType="1" res="1.7926674336194992e-02" rms="4.5864069461822510e-01" purity="5.2197426557540894e-01" nType="0">
          <Node pos="l" depth="2" NCoef="0" IVar="-1" Cut="0.0000000000000000e+00" cType="1" res="2.5328793562948704e-03" rms="4.5982775092124939e-01" purity="6.3887917995452881e-01" nType="-99"/>
          <Node pos="r" depth="2" NCoef="0" IVar="-1" Cut="0.0000000000000000e+00" cType="1" res="-1.4087952440604568e-03" rms="4.5168462395668030e-01" purity="3.9908114075660706e-01" nType="-99"/>
        </Node>
      </Node>
    </BinaryTree>
    <BinaryTree type="DecisionTree" boostWeight="1.0000000000000000e+00" itree="112">
      <Node pos="s" depth="0" NCoef="0" IVar="0" Cut="9.9519241333007812e+01" cType="1" res="6.5331519581377506e-03" rms="4.6230554580688477e-01" purity="5.0494265556335449e-01" nType="0">
        <Node pos="l" depth="1" NCoef="0" IVar="6" Cut="8.4778308868408203e+00" cType="1" res="-2.2677302360534668e-02" rms="4.6316945552825928e-01" purity="4.6927902102470398e-01" nType="0">
          <Node pos="l" depth="2" NCoef="0" IVar="-1" Cut="0.0000000000000000e+00" cType="1" res="-1.6146276611834764e-03" rms="4.6603235602378845e-01" purity="4.3025985360145569e-01" nType="-99"/>
          <Node pos="r" depth="2" NCoef="0" IVar="-1" Cut="0.0000000000000000e+00" cType="1" res="3.3890237100422382e-03" rms="4.3166404962539673e-01" purity="6.9462031126022339e-01" nType="-99"/>
        </Node>
        <Node pos="r" depth="1" NCoef="0" IVar="1" Cut="2.2262465953826904e+00" cType="1" res="7.7474899590015411e-02" rms="4.5241540670394897e-01" purity="5.9155678749084473e-01" nType="0">
          <Node pos="l" depth="2" NCoef="0" IVar="-1" Cut="0.0000000000000000e+00" cType="1" res="6.0096746310591698e-03" rms="4.2266497015953064e-01" purity="7.5759464502334595e-01" nType="-99"/>
          <Node pos="r" depth="2" NCoef="0" IVar="-1" Cut="0.0000000000000000e+00" cType="1" res="8.0172269372269511e-04" rms="4.6560844779014587e-01" purity="4.6467640995979309e-01" nType="-99"/>
        </Node>
      </Node>
    </BinaryTree>
    <BinaryTree type="DecisionTree" boostWeight="1.0000000000000000e+00" itree="113">
      <Node pos="s" depth="0" NCoef="0" IVar="6" Cut="5.3868837356567383e+00" cType="1" res="-8.8160969316959381e-03" rms="4.6119651198387146e-01" purity="4.9070405960083008e-01" nType="0">
        <Node pos="l" depth="1" NCoef="0" IVar="3" Cut="3.9792843163013458e-02" cType="1" res="-1.1879798024892807e-01" rms="4.1734659671783447e-01" purity="2.3967115581035614e-01" nType="0">
          <Node pos="l" depth="2" NCoef="0" IVar="-1" Cut="0.0000000000000000e+00" cType="1" res="-3.1029507517814636e-03" rms="4.2692860960960388e-01" purity="2.6871031522750854e-01" nType="-99"/>
          <Node pos="r" depth="2" NCoef="0" IVar="-1" Cut="0.0000000000000000e+00" cType="1" res="-6.9649522192776203e-03" rms="3.9615452289581299e-01" purity="2.0132426917552948e-01" nType="-99"/>
        </Node>
        <Node pos="r" depth="1" NCoef="0" IVar="0" Cut="3.8473548889160156e+01" cType="1" res="6.9064307026565075e-03" rms="4.6500867605209351e-01" purity="5.2659064531326294e-01" nType="0">
          <Node pos="l" depth="2" NCoef="0" IVar="-1" Cut="0.0000000000000000e+00" cType="1" res="-4.9743172712624073e-03" rms="4.5132315158843994e-01" purity="3.5472261905670166e-01" nType="-99"/>
          <Node pos="r" depth="2" NCoef="0" IVar="-1" Cut="0.0000000000000000e+00" cType="1" res="7.8270811354741454e-04" rms="4.6441563963890076e-01" purity="5.4382628202438354e-01" nType="-99"/>
        </Node>
      </Node>
    </BinaryTree>
    <BinaryTree type="DecisionTree" boostWeight="1.0000000000000000e+00" itree="114">
      <Node pos="s" depth="0" NCoef="0" IVar="4" Cut="1.4859702587127686e+00" cType="1" res="-2.7131082024425268e-03" rms="4.5825842022895813e-01" purity="5.0038427114486694e-01" nType="0">
        <Node pos="l" depth="1" NCoef="0" IVar="2" Cut="9.6344965696334839e-01" cType="1" res="1.4387236908078194e-02" rms="4.6748292446136475e-01" purity="5.4916137456893921e-01" nType="0">
          <Node pos="l" depth="2" NCoef="0" IVar="-1" Cut="0.0000000000000000e+00" cType="1" res="-6.0784455854445696e-04" rms="4.7727143764495850e-01" purity="4.7009888291358948e-01" nType="-99"/>
          <Node pos="r" depth="2" NCoef="0" IVar="-1" Cut="0.0000000000000000e+00" cType="1" res="3.1190514564514160e-03" rms="4.4000858068466187e-01" purity="7.1165502071380615e-01" nType="-99"/>
        </Node>
        <Node pos="r" depth="1" NCoef="0" IVar="0" Cut="8.1235855102539062e+01" cType="1" res="-1.1198491603136063e-01" rms="3.7632963061332703e-01" purity="1.8869686126708984e-01" nType="0">
          <Node pos="l" depth="2" NCoef="0" IVar="-1" Cut="0.0000000000000000e+00" cType="1" res="-7.4242241680622101e-03" rms="3.3673965930938721e-01" purity="1.4214359223842621e-01" nType="-99"/>
          <Node pos="r" depth="2" NCoef="0" IVar="-1" Cut="0.0000000000000000e+00" cType="1" res="-3.5067207645624876e-03" rms="4.1149824857711792e-01" purity="2.3916751146316528e-01" nType="-99"/>
        </Node>
      </Node>
    </BinaryTree>
    <BinaryTree type="DecisionTree" boostWeight="1.0000000000000000e+00" itree="115">
      <Node pos="s" depth="0" NCoef="0" IVar="1" Cut="2.2184481620788574e+00" cType="1" res="3.1796693801879883e-03" rms="4.6085783839225769e-01" purity="5.0223869085311890e-01" nType="0">
        <Node pos="l" depth="1" NCoef="0" IVar="0" Cut="8.5983329772949219e+01" cType="1" res="3.8294989615678787e-02" rms="4.6585494279861450e-01" purity="5.9333807229995728e-01" nType="0">
          <Node pos="l" depth="2" NCoef="0" IVar="-1" Cut="0.0000000000000000e+00" cType="1" res="1.4947274758014828e-04" rms="4.7432368993759155e-01" purity="5.3796035051345825e-01" nType="-99"/>
          <Node pos="r" depth="2" NCoef="0" IVar="-1" Cut="0.0000000000000000e+00" cType="1" res="4.3865218758583069e-03" rms="4.3656396865844727e-01" purity="7.1750813722610474e-01" nType="-99"/>
        </Node>
        <Node pos="r" depth="1" NCoef="0" IVar="1" Cut="2.7486712932586670e+00" cType="1" res="-5.1339756697416306e-02" rms="4.4756370782852173e-01" purity="3.6079943180084229e-01" nType="0">
          <Node pos="l" depth="2" NCoef="0" IVar="-1" Cut="0.0000000000000000e+00" cType="1" res="-1.3771766098216176e-03" rms="4.6494793891906738e-01" purity="4.0296587347984314e-01" nType="-99"/>
          <Node pos="r" depth="2" NCoef="0" IVar="-1" Cut="0.0000000000000000e+00" cType="1" res="-8.5528697818517685e-03" rms="3.0080127716064453e-01" purity="1.0571943968534470e-01" nType="-99"/>
        </Node>
      </Node>
    </BinaryTree>
    <BinaryTree type="DecisionTree" boostWeight="1.0000000000000000e+00" itree="116">
      <Node pos="s" depth="0" NCoef="0" IVar="4" Cut="1.5659115314483643e+00" cType="1" res="-1.0439164936542511e-02" rms="4.5962885022163391e-01" purity="4.8842877149581909e-01" nType="0">
        <Node pos="l" depth="1" NCoef="0" IVar="2" Cut="9.6777510643005371e-01" cType="1" res="4.0540010668337345e-03" rms="4.6821543574333191e-01" purity="5.2825742959976196e-01" nType="0">
          <Node pos="l" depth="2" NCoef="0" IVar="-1" Cut="0.0000000000000000e+00" cType="1" res="-7.0763210533186793e-04" rms="4.7642880678176880e-01" purity="4.7117406129837036e-01" nType="-99"/>
          <Node pos="r" depth="2" NCoef="0" IVar="-1" Cut="0.0000000000000000e+00" cType="1" res="3.1719626858830452e-03" rms="4.3286776542663574e-01" purity="7.1125006675720215e-01" nType="-99"/>
        </Node>
        <Node pos="r" depth="1" NCoef="0" IVar="0" Cut="8.8853775024414062e+01" cType="1" res="-1.2786076962947845e-01" rms="3.6224520206451416e-01" purity="1.6574262082576752e-01" nType="0">
          <Node pos="l" depth="2" NCoef="0" IVar="-1" Cut="0.0000000000000000e+00" cType="1" res="-8.3078099414706230e-03" rms="3.1903228163719177e-01" purity="1.2140279263257980e-01" nType="-99"/>
          <Node pos="r" depth="2" NCoef="0" IVar="-1" Cut="0.0000000000000000e+00" cType="1" res="-4.5715617015957832e-03" rms="4.0245732665061951e-01" purity="2.1514661610126495e-01" nType="-99"/>
        </Node>
      </Node>
    </BinaryTree>
    <BinaryTree type="DecisionTree" boostWeight="1.0000000000000000e+00" itree="117">
      <Node pos="s" depth="0" NCoef="0" IVar="2" Cut="9.2870354652404785e-01" cType="1" res="-6.0495375655591488e-03" rms="4.6009376645088196e-01" purity="4.9562671780586243e-01" nType="0">
        <Node pos="l" depth="1" NCoef="0" IVar="7" Cut="4.8675218224525452e-01" cType="1" res="-9.0242028236389160e-02" rms="4.3534100055694580e-01" purity="2.8606486320495605e-01" nType="0">
          <Node pos="l" depth="2" NCoef="0" IVar="-1" Cut="0.0000000000000000e+00" cType="1" res="-5.4299230687320232e-03" rms="4.0584608912467957e-01" purity="2.3040790855884552e-01" nType="-99"/>
          <Node pos="r" depth="2" NCoef="0" IVar="-1" Cut="0.0000000000000000e+00" cType="1" res="3.4382010926492512e-04" rms="4.8077279329299927e-01" purity="4.1137164831161499e-01" nType="-99"/>
        </Node>
        <Node pos="r" depth="1" NCoef="0" IVar="4" Cut="6.5217983722686768e-01" cType="1" res="1.3838777318596840e-02" rms="4.6352139115333557e-01" purity="5.4513037204742432e-01" nType="0">
          <Node pos="l" depth="2" NCoef="0" IVar="-1" Cut="0.0000000000000000e+00" cType="1" res="4.2285094968974590e-03" rms="4.3021684885025024e-01" purity="7.3612308502197266e-01" nType="-99"/>
          <Node pos="r" depth="2" NCoef="0" IVar="-1" Cut="0.0000000000000000e+00" cType="1" res="-3.2208298216573894e-04" rms="4.6816235780715942e-01" purity="5.0105875730514526e-01" nType="-99"/>
        </Node>
      </Node>
    </BinaryTree>
    <BinaryTree type="DecisionTree" boostWeight="1.0000000000000000e+00" itree="118">
      <Node pos="s" depth="0" NCoef="0" IVar="2" Cut="9.7555661201477051e-01" cType="1" res="1.8921960145235062e-03" rms="4.5925492048263550e-01" purity="5.0046628713607788e-01" nType="0">
        <Node pos="l" depth="1" NCoef="0" IVar="0" Cut="7.8795509338378906e+01" cType="1" res="-1.5520778484642506e-02" rms="4.6515378355979919e-01" purity="4.6227651834487915e-01" nType="0">
          <Node pos="l" depth="2" NCoef="0" IVar="-1" Cut="0.0000000000000000e+00" cType="1" res="-1.9248175667598844e-03" rms="4.6198406815528870e-01" purity="4.1840827465057373e-01" nType="-99"/>
          <Node pos="r" depth="2" NCoef="0" IVar="-1" Cut="0.0000000000000000e+00" cType="1" res="9.5102947670966387e-04" rms="4.6580302715301514e-01" purity="5.1436156034469604e-01" nType="-99"/>
        </Node>
        <Node pos="r" depth="1" NCoef="0" IVar="4" Cut="9.8248171806335449e-01" cType="1" res="1.0977871716022491e-01" rms="4.0448960661888123e-01" purity="7.3708081245422363e-01" nType="0">
          <Node pos="l" depth="2" NCoef="0" IVar="-1" Cut="0.0000000000000000e+00" cType="1" res="6.5903528593480587e-03" rms="3.5357144474983215e-01" purity="8.4966856241226196e-01" nType="-99"/>
          <Node pos="r" depth="2" NCoef="0" IVar="-1" Cut="0.0000000000000000e+00" cType="1" res="1.9676533993333578e-03" rms="4.5646870136260986e-01" purity="5.8688318729400635e-01" nType="-99"/>
        </Node>
      </Node>
    </BinaryTree>
    <BinaryTree type="DecisionTree" boostWeight="1.0000000000000000e+00" itree="119">
      <Node pos="s" depth="0" NCoef="0" IVar="0" Cut="8.0943962097167969e+01" cType="1" res="-1.4578299596905708e-03" rms="4.6255877614021301e-01" purity="4.9891048669815063e-01" nType="0">
        <Node pos="l" depth="1" NCoef="0" IVar="1" Cut="2.0813875198364258e+00" cType="1" res="-3.7979014217853546e-02" rms="4.6500641107559204e-01" purity="4.5304793119430542e-01" nType="0">
          <Node pos="l" depth="2" NCoef="0" IVar="-1" Cut="0.0000000000000000e+00" cType="1" res="-8.5716208559460938e-05" rms="4.7841838002204895e-01" purity="5.4308265447616577e-01" nType="-99"/>
          <Node pos="r" depth="2" NCoef="0" IVar="-1" Cut="0.0000000000000000e+00" cType="1" res="-3.2425981480628252e-03" rms="4.4695177674293518e-01" purity="3.5610559582710266e-01" nType="-99"/>
        </Node>
        <Node pos="r" depth="1" NCoef="0" IVar="1" Cut="2.4265012741088867e+00" cType="1" res="4.5707371085882187e-02" rms="4.5506209135055542e-01" purity="5.5813962221145630e-01" nType="0">
          <Node pos="l" depth="2" NCoef="0" IVar="-1" Cut="0.0000000000000000e+00" cType="1" res="2.8729662299156189e-03" rms="4.5554965734481812e-01" purity="6.5030401945114136e-01" nType="-99"/>
          <Node pos="r" depth="2" NCoef="0" IVar="-1" Cut="0.0000000000000000e+00" cType="1" res="-1.2229848653078079e-03" rms="4.4544854760169983e-01" purity="3.2685911655426025e-01" nType="-99"/>
        </Node>
      </Node>
    </BinaryTree>
    <BinaryTree type="DecisionTree" boostWeight="1.0000000000000000e+00" itree="120">
      <Node pos="s" depth="0" NCoef="0" IVar="4" Cut="6.4875715970993042e-01" cType="1" res="7.8655416145920753e-03" rms="4.6147525310516357e-01" purity="5.0642836093902588e-01" nType="0">
        <Node pos="l" depth="1" NCoef="0" IVar="0" Cut="6.2806831359863281e+01" cType="1" res="1.0265810787677765e-01" rms="4.3642428517341614e-01" purity="7.0638841390609741e-01" nType="0">
          <Node pos="l" depth="2" NCoef="0" IVar="-1" Cut="0.0000000000000000e+00" cType="1" res="1.0157381184399128e-03" rms="4.6686106920242310e-01" purity="6.0202872753143311e-01" nType="-99"/>
          <Node pos="r" depth="2" NCoef="0" IVar="-1" Cut="0.0000000000000000e+00" cType="1" res="6.4593059942126274e-03" rms="3.9833641052246094e-01" purity="7.9548281431198120e-01" nType="-99"/>
        </Node>
        <Node pos="r" depth="1" NCoef="0" IVar="0" Cut="7.6544036865234375e+01" cType="1" res="-1.2728638015687466e-02" rms="4.6418735384941101e-01" purity="4.6298605203628540e-01" nType="0">
          <Node pos="l" depth="2" NCoef="0" IVar="-1" Cut="0.0000000000000000e+00" cType="1" res="-2.2348710335791111e-03" rms="4.5744904875755310e-01" purity="4.0722742676734924e-01" nType="-99"/>
          <Node pos="r" depth="2" NCoef="0" IVar="-1" Cut="0.0000000000000000e+00" cType="1" res="1.2543629854917526e-03" rms="4.6704375743865967e-01" purity="5.2078068256378174e-01" nType="-99"/>
        </Node>
      </Node>
    </BinaryTree>
    <BinaryTree type="DecisionTree" boostWeight="1.0000000000000000e+00" itree="121">
      <Node pos="s" depth="0" NCoef="0" IVar="6" Cut="5.5442867279052734e+00" cType="1" res="-7.7580111101269722e-03" rms="4.5858675241470337e-01" purity="4.8842892050743103e-01" nType="0">
        <Node pos="l" depth="1" NCoef="0" IVar="6" Cut="4.9961199760437012e+00" cType="1" res="-9.6942484378814697e-02" rms="4.2467191815376282e-01" purity="2.6829245686531067e-01" nType="0">
          <Node pos="l" depth="2" NCoef="0" IVar="-1" Cut="0.0000000000000000e+00" cType="1" res="-6.3635767437517643e-03" rms="3.8214296102523804e-01" purity="1.9364602863788605e-01" nType="-99"/>
          <Node pos="r" depth="2" NCoef="0" IVar="-1" Cut="0.0000000000000000e+00" cType="1" res="-2.1979745943099260e-03" rms="4.4763022661209106e-01" purity="3.2116299867630005e-01" nType="-99"/>
        </Node>
        <Node pos="r" depth="1" NCoef="0" IVar="0" Cut="4.8736618041992188e+01" cType="1" res="9.9699338898062706e-03" rms="4.6299135684967041e-01" purity="5.3218722343444824e-01" nType="0">
          <Node pos="l" depth="2" NCoef="0" IVar="-1" Cut="0.0000000000000000e+00" cType="1" res="-2.9918001964688301e-03" rms="4.6680009365081787e-01" purity="4.2183858156204224e-01" nType="-99"/>
          <Node pos="r" depth="2" NCoef="0" IVar="-1" Cut="0.0000000000000000e+00" cType="1" res="1.2820380507037044e-03" rms="4.5946937799453735e-01" purity="5.6089127063751221e-01" nType="-99"/>
        </Node>
      </Node>
    </BinaryTree>
    <BinaryTree type="DecisionTree" boostWeight="1.0000000000000000e+00" itree="122">
      <Node pos="s" depth="0" NCoef="0" IVar="1" Cut="2.3067574501037598e+00" cType="1" res="5.0439266487956047e-03" rms="4.5998167991638184e-01" purity="5.0287866592407227e-01" nType="0">
        <Node pos="l" depth="1" NCoef="0" IVar="0" Cut="8.9864295959472656e+01" cType="1" res="3.3469993621110916e-02" rms="4.6627414226531982e-01" purity="5.8532768487930298e-01" nType="0">
          <Node pos="l" depth="2" NCoef="0" IVar="-1" Cut="0.0000000000000000e+00" cType="1" res="1.3441883493214846e-04" rms="4.7370839118957520e-01" purity="5.3534781932830811e-01" nType="-99"/>
          <Node pos="r" depth="2" NCoef="0" IVar="-1" Cut="0.0000000000000000e+00" cType="1" res="3.9523793384432793e-03" rms="4.4158920645713806e-01" purity="6.9825172424316406e-01" nType="-99"/>
        </Node>
        <Node pos="r" depth="1" NCoef="0" IVar="1" Cut="2.7559516429901123e+00" cType="1" res="-5.9128556400537491e-02" rms="4.3872892856597900e-01" purity="3.1674823164939880e-01" nType="0">
          <Node pos="l" depth="2" NCoef="0" IVar="-1" Cut="0.0000000000000000e+00" cType="1" res="-1.8710241420194507e-03" rms="4.5738029479980469e-01" purity="3.5709911584854126e-01" nType="-99"/>
          <Node pos="r" depth="2" NCoef="0" IVar="-1" Cut="0.0000000000000000e+00" cType="1" res="-7.1582882665097713e-03" rms="3.2835799455642700e-01" purity="1.2756650149822235e-01" nType="-99"/>
        </Node>
      </Node>
    </BinaryTree>
    <BinaryTree type="DecisionTree" boostWeight="1.0000000000000000e+00" itree="123">
      <Node pos="s" depth="0" NCoef="0" IVar="6" Cut="5.8318977355957031e+00" cType="1" res="-6.0260705649852753e-03" rms="4.5892748236656189e-01" purity="4.9692523479461670e-01" nType="0">
        <Node pos="l" depth="1" NCoef="0" IVar="0" Cut="7.9189239501953125e+01" cType="1" res="-8.6356677114963531e-02" rms="4.3128097057342529e-01" purity="2.7741175889968872e-01" nType="0">
          <Node pos="l" depth="2" NCoef="0" IVar="-1" Cut="0.0000000000000000e+00" cType="1" res="-4.4579631648957729e-03" rms="4.1870516538619995e-01" purity="2.5004684925079346e-01" nType="-99"/>
          <Node pos="r" depth="2" NCoef="0" IVar="-1" Cut="0.0000000000000000e+00" cType="1" res="-2.2448359522968531e-03" rms="4.4680029153823853e-01" purity="3.1671053171157837e-01" nType="-99"/>
        </Node>
        <Node pos="r" depth="1" NCoef="0" IVar="4" Cut="1.0638072490692139e+00" cType="1" res="1.6712466254830360e-02" rms="4.6393671631813049e-01" purity="5.5906111001968384e-01" nType="0">
          <Node pos="l" depth="2" NCoef="0" IVar="-1" Cut="0.0000000000000000e+00" cType="1" res="1.9874654244631529e-03" rms="4.5880326628684998e-01" purity="6.7120581865310669e-01" nType="-99"/>
          <Node pos="r" depth="2" NCoef="0" IVar="-1" Cut="0.0000000000000000e+00" cType="1" res="-1.5210906276479363e-03" rms="4.6676474809646606e-01" purity="3.8533574342727661e-01" nType="-99"/>
        </Node>
      </Node>
    </BinaryTree>
    <BinaryTree type="DecisionTree" boostWeight="1.0000000000000000e+00" itree="124">
      <Node pos="s" depth="0" NCoef="0" IVar="4" Cut="6.2238168716430664e-01" cType="1" res="1.5237504849210382e-03" rms="4.5844146609306335e-01" purity="4.9675399065017700e-01" nType="0">
        <Node pos="l" depth="1" NCoef="0" IVar="0" Cut="7.7144447326660156e+01" cType="1" res="9.1678038239479065e-02" rms="4.4314485788345337e-01" purity="7.0200794935226440e-01" nType="0">
          <Node pos="l" depth="2" NCoef="0" IVar="-1" Cut="0.0000000000000000e+00" cType="1" res="1.9987076520919800e-03" rms="4.6555262804031372e-01" purity="6.3914442062377930e-01" nType="-99"/>
          <Node pos="r" depth="2" NCoef="0" IVar="-1" Cut="0.0000000000000000e+00" cType="1" res="5.9783472679555416e-03" rms="3.9722767472267151e-01" purity="8.0108660459518433e-01" nType="-99"/>
        </Node>
        <Node pos="r" depth="1" NCoef="0" IVar="2" Cut="9.5866209268569946e-01" cType="1" res="-1.4934873208403587e-02" rms="4.5927292108535767e-01" purity="4.5928269624710083e-01" nType="0">
          <Node pos="l" depth="2" NCoef="0" IVar="-1" Cut="0.0000000000000000e+00" cType="1" res="-1.7763032810762525e-03" rms="4.6022304892539978e-01" purity="3.7314048409461975e-01" nType="-99"/>
          <Node pos="r" depth="2" NCoef="0" IVar="-1" Cut="0.0000000000000000e+00" cType="1" res="1.4700327301397920e-03" rms="4.5316630601882935e-01" purity="6.0974365472793579e-01" nType="-99"/>
        </Node>
      </Node>
    </BinaryTree>
    <BinaryTree type="DecisionTree" boostWeight="1.0000000000000000e+00" itree="125">
      <Node pos="s" depth="0" NCoef="0" IVar="2" Cut="9.7543847560882568e-01" cType="1" res="2.1854830265510827e-04" rms="4.5742055773735046e-01" purity="4.9797967076301575e-01" nType="0">
        <Node pos="l" depth="1" NCoef="0" IVar="4" Cut="1.0747419595718384e+00" cType="1" res="-1.8496647477149963e-02" rms="4.6266382932662964e-01" purity="4.5665788650512695e-01" nType="0">
          <Node pos="l" depth="2" NCoef="0" IVar="-1" Cut="0.0000000000000000e+00" cType="1" res="6.4969627419486642e-04" rms="4.7804585099220276e-01" purity="5.7704275846481323e-01" nType="-99"/>
          <Node pos="r" depth="2" NCoef="0" IVar="-1" Cut="0.0000000000000000e+00" cType="1" res="-2.9382796492427588e-03" rms="4.3578585982322693e-01" purity="2.9076328873634338e-01" nType="-99"/>
        </Node>
        <Node pos="r" depth="1" NCoef="0" IVar="0" Cut="7.0377090454101562e+01" cType="1" res="1.0943515598773956e-01" rms="4.0878880023956299e-01" purity="7.3912179470062256e-01" nType="0">
          <Node pos="l" depth="2" NCoef="0" IVar="-1" Cut="0.0000000000000000e+00" cType="1" res="2.5364058092236519e-03" rms="4.4077706336975098e-01" purity="6.7257785797119141e-01" nType="-99"/>
          <Node pos="r" depth="2" NCoef="0" IVar="-1" Cut="0.0000000000000000e+00" cType="1" res="6.4449817873537540e-03" rms="3.7352111935615540e-01" purity="7.9726910591125488e-01" nType="-99"/>
        </Node>
      </Node>
    </BinaryTree>
    <BinaryTree type="DecisionTree" boostWeight="1.0000000000000000e+00" itree="126">
      <Node pos="s" depth="0" NCoef="0" IVar="0" Cut="4.0025573730468750e+01" cType="1" res="3.6452536005526781e-03" rms="4.5854312181472778e-01" purity="5.0353002548217773e-01" nType="0">
        <Node pos="l" depth="1" NCoef="0" IVar="4" Cut="8.9310503005981445e-01" cType="1" res="-1.0453186184167862e-01" rms="4.4469788670539856e-01" purity="3.5762983560562134e-01" nType="0">
          <Node pos="l" depth="2" NCoef="0" IVar="-1" Cut="0.0000000000000000e+00" cType="1" res="-1.7873028991743922e-03" rms="4.7950324416160583e-01" purity="4.9006140232086182e-01" nType="-99"/>
          <Node pos="r" depth="2" NCoef="0" IVar="-1" Cut="0.0000000000000000e+00" cType="1" res="-6.9281645119190216e-03" rms="4.0075767040252686e-01" purity="2.2922046482563019e-01" nType="-99"/>
        </Node>
        <Node pos="r" depth="1" NCoef="0" IVar="1" Cut="2.1830623149871826e+00" cType="1" res="1.6759753227233887e-02" rms="4.5846176147460938e-01" purity="5.2121770381927490e-01" nType="0">
          <Node pos="l" depth="2" NCoef="0" IVar="-1" Cut="0.0000000000000000e+00" cType="1" res="2.1117280703037977e-03" rms="4.5951801538467407e-01" purity="6.3027143478393555e-01" nType="-99"/>
          <Node pos="r" depth="2" NCoef="0" IVar="-1" Cut="0.0000000000000000e+00" cType="1" res="-1.1437177890911698e-03" rms="4.5326557755470276e-01" purity="4.0199670195579529e-01" nType="-99"/>
        </Node>
      </Node>
    </BinaryTree>
    <BinaryTree type="DecisionTree" boostWeight="1.0000000000000000e+00" itree="127">
      <Node pos="s" depth="0" NCoef="0" IVar="0" Cut="3.8473548889160156e+01" cType="1" res="1.0413408279418945e-02" rms="4.6127119660377502e-01" purity="5.1117175817489624e-01" nType="0">
        <Node pos="l" depth="1" NCoef="0" IVar="-1" Cut="0.0000000000000000e+00" cType="1" res="-4.5743426308035851e-03" rms="4.4992968440055847e-01" purity="3.3294031023979187e-01" nType="-99"/>
        <Node pos="r" depth="1" NCoef="0" IVar="4" Cut="1.4336929321289062e+00" cType="1" res="2.3133121430873871e-02" rms="4.6057978272438049e-01" purity="5.2974528074264526e-01" nType="0">
          <Node pos="l" depth="2" NCoef="0" IVar="-1" Cut="0.0000000000000000e+00" cType="1" res="1.4561082934960723e-03" rms="4.6626967191696167e-01" purity="5.8129453659057617e-01" nType="-99"/>
          <Node pos="r" depth="2" NCoef="0" IVar="-1" Cut="0.0000000000000000e+00" cType="1" res="-2.5606097187846899e-03" rms="4.2025208473205566e-01" purity="2.5081714987754822e-01" nType="-99"/>
        </Node>
      </Node>
    </BinaryTree>
    <BinaryTree type="DecisionTree" boostWeight="1.0000000000000000e+00" itree="128">
      <Node pos="s" depth="0" NCoef="0" IVar="1" Cut="2.6842682361602783e+00" cType="1" res="2.0054690539836884e-03" rms="4.5747551321983337e-01" purity="4.9962002038955688e-01" nType="0">
        <Node pos="l" depth="1" NCoef="0" IVar="0" Cut="1.0367401885986328e+02" cType="1" res="1.2723403982818127e-02" rms="4.6420902013778687e-01" purity="5.2800387144088745e-01" nType="0">
          <Node pos="l" depth="2" NCoef="0" IVar="-1" Cut="0.0000000000000000e+00" cType="1" res="-3.9740448119118810e-04" rms="4.6711590886116028e-01" purity="4.9191579222679138e-01" nType="-99"/>
          <Node pos="r" depth="2" NCoef="0" IVar="-1" Cut="0.0000000000000000e+00" cType="1" res="3.2150850165635347e-03" rms="4.4881033897399902e-01" purity="6.3411998748779297e-01" nType="-99"/>
        </Node>
        <Node pos="r" depth="1" NCoef="0" IVar="-1" Cut="0.0000000000000000e+00" cType="1" res="-7.5750746764242649e-03" rms="3.2116821408271790e-01" purity="1.1684510856866837e-01" nType="-99"/>
      </Node>
    </BinaryTree>
    <BinaryTree type="DecisionTree" boostWeight="1.0000000000000000e+00" itree="129">
      <Node pos="s" depth="0" NCoef="0" IVar="0" Cut="8.2529899597167969e+01" cType="1" res="2.1212498540990055e-04" rms="4.6306306123733521e-01" purity="4.9852132797241211e-01" nType="0">
        <Node pos="l" depth="1" NCoef="0" IVar="6" Cut="7.0496625900268555e+00" cType="1" res="-3.7073373794555664e-02" rms="4.6197476983070374e-01" purity="4.5145753026008606e-01" nType="0">
          <Node pos="l" depth="2" NCoef="0" IVar="-1" Cut="0.0000000000000000e+00" cType="1" res="-2.7395191136747599e-03" rms="4.5652332901954651e-01" purity="3.4753623604774475e-01" nType="-99"/>
          <Node pos="r" depth="2" NCoef="0" IVar="-1" Cut="0.0000000000000000e+00" cType="1" res="2.5806517805904150e-04" rms="4.6565860509872437e-01" purity="5.9070032835006714e-01" nType="-99"/>
        </Node>
        <Node pos="r" depth="1" NCoef="0" IVar="1" Cut="2.3415801525115967e+00" cType="1" res="5.0196919590234756e-02" rms="4.5979869365692139e-01" purity="5.6161493062973022e-01" nType="0">
          <Node pos="l" depth="2" NCoef="0" IVar="-1" Cut="0.0000000000000000e+00" cType="1" res="3.5919065121561289e-03" rms="4.5557290315628052e-01" purity="6.8025046586990356e-01" nType="-99"/>
          <Node pos="r" depth="2" NCoef="0" IVar="-1" Cut="0.0000000000000000e+00" cType="1" res="-8.8535557733848691e-04" rms="4.5810577273368835e-01" purity="3.6425817012786865e-01" nType="-99"/>
        </Node>
      </Node>
    </BinaryTree>
    <BinaryTree type="DecisionTree" boostWeight="1.0000000000000000e+00" itree="130">
      <Node pos="s" depth="0" NCoef="0" IVar="6" Cut="8.5379133224487305e+00" cType="1" res="-6.8443939089775085e-03" rms="4.5659658312797546e-01" purity="4.9411422014236450e-01" nType="0">
        <Node pos="l" depth="1" NCoef="0" IVar="0" Cut="4.2008220672607422e+01" cType="1" res="-2.4919992312788963e-02" rms="4.6182560920715332e-01" purity="4.5271718502044678e-01" nType="0">
          <Node pos="l" depth="2" NCoef="0" IVar="-1" Cut="0.0000000000000000e+00" cType="1" res="-5.4015358909964561e-03" rms="4.3528488278388977e-01" purity="3.0673274397850037e-01" nType="-99"/>
          <Node pos="r" depth="2" NCoef="0" IVar="-1" Cut="0.0000000000000000e+00" cType="1" res="-2.9446286498568952e-04" rms="4.6373936533927917e-01" purity="4.7676917910575867e-01" nType="-99"/>
        </Node>
        <Node pos="r" depth="1" NCoef="0" IVar="1" Cut="2.2487735748291016e+00" cType="1" res="9.3448512256145477e-02" rms="4.1226506233215332e-01" purity="7.2380656003952026e-01" nType="0">
          <Node pos="l" depth="2" NCoef="0" IVar="-1" Cut="0.0000000000000000e+00" cType="1" res="5.5664326064288616e-03" rms="3.8542130589485168e-01" purity="8.0917060375213623e-01" nType="-99"/>
          <Node pos="r" depth="2" NCoef="0" IVar="-1" Cut="0.0000000000000000e+00" cType="1" res="7.8721891622990370e-04" rms="4.5258802175521851e-01" purity="5.5164265632629395e-01" nType="-99"/>
        </Node>
      </Node>
    </BinaryTree>
    <BinaryTree type="DecisionTree" boostWeight="1.0000000000000000e+00" itree="131">
      <Node pos="s" depth="0" NCoef="0" IVar="4" Cut="6.1657941341400146e-01" cType="1" res="-7.8572938218712807e-03" rms="4.6144205331802368e-01" purity="4.8878955841064453e-01" nType="0">
        <Node pos="l" depth="1" NCoef="0" IVar="0" Cut="7.8688011169433594e+01" cType="1" res="9.0596556663513184e-02" rms="4.3931472301483154e-01" purity="7.0095646381378174e-01" nType="0">
          <Node pos="l" depth="2" NCoef="0" IVar="-1" Cut="0.0000000000000000e+00" cType="1" res="2.3043288383632898e-03" rms="4.6029326319694519e-01" purity="6.4504563808441162e-01" nType="-99"/>
          <Node pos="r" depth="2" NCoef="0" IVar="-1" Cut="0.0000000000000000e+00" cType="1" res="5.2104177884757519e-03" rms="4.0186935663223267e-01" purity="7.8491169214248657e-01" nType="-99"/>
        </Node>
        <Node pos="r" depth="1" NCoef="0" IVar="0" Cut="3.8107383728027344e+01" cType="1" res="-2.4669295176863670e-02" rms="4.6302741765975952e-01" purity="4.5255988836288452e-01" nType="0">
          <Node pos="l" depth="2" NCoef="0" IVar="-1" Cut="0.0000000000000000e+00" cType="1" res="-5.3697116672992706e-03" rms="4.3646880984306335e-01" purity="2.8997913002967834e-01" nType="-99"/>
          <Node pos="r" depth="2" NCoef="0" IVar="-1" Cut="0.0000000000000000e+00" cType="1" res="-5.8024009922519326e-04" rms="4.6432581543922424e-01" purity="4.6881285309791565e-01" nType="-99"/>
        </Node>
      </Node>
    </BinaryTree>
    <BinaryTree type="DecisionTree" boostWeight="1.0000000000000000e+00" itree="132">
      <Node pos="s" depth="0" NCoef="0" IVar="6" Cut="4.9819688796997070e+00" cType="1" res="6.2646097503602505e-03" rms="4.5684519410133362e-01" purity="5.0367438793182373e-01" nType="0">
        <Node pos="l" depth="1" NCoef="0" IVar="-1" Cut="0.0000000000000000e+00" cType="1" res="-5.2650929428637028e-03" rms="3.9239531755447388e-01" purity="2.0819529891014099e-01" nType="-99"/>
        <Node pos="r" depth="1" NCoef="0" IVar="1" Cut="2.5417129993438721e+00" cType="1" res="1.6201362013816833e-02" rms="4.5967617630958557e-01" purity="5.2544832229614258e-01" nType="0">
          <Node pos="l" depth="2" NCoef="0" IVar="-1" Cut="0.0000000000000000e+00" cType="1" res="1.1947768507525325e-03" rms="4.6669799089431763e-01" purity="5.6951332092285156e-01" nType="-99"/>
          <Node pos="r" depth="2" NCoef="0" IVar="-1" Cut="0.0000000000000000e+00" cType="1" res="-4.4514536857604980e-03" rms="3.8951635360717773e-01" purity="2.0958298444747925e-01" nType="-99"/>
        </Node>
      </Node>
    </BinaryTree>
    <BinaryTree type="DecisionTree" boostWeight="1.0000000000000000e+00" itree="133">
      <Node pos="s" depth="0" NCoef="0" IVar="2" Cut="9.4497030973434448e-01" cType="1" res="-1.4111705240793526e-04" rms="4.5719411969184875e-01" purity="5.0039374828338623e-01" nType="0">
        <Node pos="l" depth="1" NCoef="0" IVar="4" Cut="6.7238533496856689e-01" cType="1" res="-4.4036474078893661e-02" rms="4.5738616585731506e-01" purity="3.5555735230445862e-01" nType="0">
          <Node pos="l" depth="2" NCoef="0" IVar="-1" Cut="0.0000000000000000e+00" cType="1" res="8.4663718007504940e-04" rms="4.9164494872093201e-01" purity="5.3514796495437622e-01" nType="-99"/>
          <Node pos="r" depth="2" NCoef="0" IVar="-1" Cut="0.0000000000000000e+00" cType="1" res="-2.4760907981544733e-03" rms="4.4747537374496460e-01" purity="3.1383344531059265e-01" nType="-99"/>
        </Node>
        <Node pos="r" depth="1" NCoef="0" IVar="0" Cut="4.2662670135498047e+01" cType="1" res="3.0762575566768646e-02" rms="4.5452305674552917e-01" purity="6.0236304998397827e-01" nType="0">
          <Node pos="l" depth="2" NCoef="0" IVar="-1" Cut="0.0000000000000000e+00" cType="1" res="-3.1856766436249018e-03" rms="4.6583661437034607e-01" purity="4.4449022412300110e-01" nType="-99"/>
          <Node pos="r" depth="2" NCoef="0" IVar="-1" Cut="0.0000000000000000e+00" cType="1" res="1.9136767368763685e-03" rms="4.5056378841400146e-01" purity="6.2635421752929688e-01" nType="-99"/>
        </Node>
      </Node>
    </BinaryTree>
    <BinaryTree type="DecisionTree" boostWeight="1.0000000000000000e+00" itree="134">
      <Node pos="s" depth="0" NCoef="0" IVar="0" Cut="8.1784217834472656e+01" cType="1" res="9.1330166906118393e-03" rms="4.5942336320877075e-01" purity="5.0892293453216553e-01" nType="0">
        <Node pos="l" depth="1" NCoef="0" IVar="6" Cut="7.7202911376953125e+00" cType="1" res="-2.6407016441226006e-02" rms="4.5900213718414307e-01" purity="4.6195241808891296e-01" nType="0">
          <Node pos="l" depth="2" NCoef="0" IVar="-1" Cut="0.0000000000000000e+00" cType="1" res="-2.0773187279701233e-03" rms="4.5837673544883728e-01" purity="3.8981062173843384e-01" nType="-99"/>
          <Node pos="r" depth="2" NCoef="0" IVar="-1" Cut="0.0000000000000000e+00" cType="1" res="1.7497442895546556e-03" rms="4.5338559150695801e-01" purity="6.5040475130081177e-01" nType="-99"/>
        </Node>
        <Node pos="r" depth="1" NCoef="0" IVar="1" Cut="2.4836983680725098e+00" cType="1" res="5.6210979819297791e-02" rms="4.5573326945304871e-01" purity="5.7114225625991821e-01" nType="0">
          <Node pos="l" depth="2" NCoef="0" IVar="-1" Cut="0.0000000000000000e+00" cType="1" res="3.0900337733328342e-03" rms="4.5747530460357666e-01" purity="6.5540975332260132e-01" nType="-99"/>
          <Node pos="r" depth="2" NCoef="0" IVar="-1" Cut="0.0000000000000000e+00" cType="1" res="-8.1436592154204845e-04" rms="4.4202920794487000e-01" purity="3.0095881223678589e-01" nType="-99"/>
        </Node>
      </Node>
    </BinaryTree>
    <BinaryTree type="DecisionTree" boostWeight="1.0000000000000000e+00" itree="135">
      <Node pos="s" depth="0" NCoef="0" IVar="1" Cut="2.2195267677307129e+00" cType="1" res="-1.0660129599273205e-02" rms="4.5992550253868103e-01" purity="4.9146321415901184e-01" nType="0">
        <Node pos="l" depth="1" NCoef="0" IVar="0" Cut="8.9052894592285156e+01" cType="1" res="2.1620558574795723e-02" rms="4.6739447116851807e-01" purity="5.8402568101882935e-01" nType="0">
          <Node pos="l" depth="2" NCoef="0" IVar="-1" Cut="0.0000000000000000e+00" cType="1" res="-2.9723139596171677e-04" rms="4.7645923495292664e-01" purity="5.3301399946212769e-01" nType="-99"/>
          <Node pos="r" depth="2" NCoef="0" IVar="-1" Cut="0.0000000000000000e+00" cType="1" res="3.9497083052992821e-03" rms="4.3281599879264832e-01" purity="7.1941256523132324e-01" nType="-99"/>
        </Node>
        <Node pos="r" depth="1" NCoef="0" IVar="6" Cut="7.2413763999938965e+00" cType="1" res="-5.9941098093986511e-02" rms="4.4377735257148743e-01" purity="3.5015374422073364e-01" nType="0">
          <Node pos="l" depth="2" NCoef="0" IVar="-1" Cut="0.0000000000000000e+00" cType="1" res="-3.8567178416997194e-03" rms="4.2363083362579346e-01" purity="2.6291823387145996e-01" nType="-99"/>
          <Node pos="r" depth="2" NCoef="0" IVar="-1" Cut="0.0000000000000000e+00" cType="1" res="-5.3540448425337672e-04" rms="4.7334390878677368e-01" purity="5.0293171405792236e-01" nType="-99"/>
        </Node>
      </Node>
    </BinaryTree>
    <BinaryTree type="DecisionTree" boostWeight="1.0000000000000000e+00" itree="136">
      <Node pos="s" depth="0" NCoef="0" IVar="0" Cut="1.0367218017578125e+02" cType="1" res="-3.4782625734806061e-03" rms="4.6198996901512146e-01" purity="4.9541312456130981e-01" nType="0">
        <Node pos="l" depth="1" NCoef="0" IVar="7" Cut="5.2759963274002075e-01" cType="1" res="-1.9724834710359573e-02" rms="4.6221482753753662e-01" purity="4.7293272614479065e-01" nType="0">
          <Node pos="l" depth="2" NCoef="0" IVar="-1" Cut="0.0000000000000000e+00" cType="1" res="-1.7035914352163672e-03" rms="4.5611518621444702e-01" purity="4.3232610821723938e-01" nType="-99"/>
          <Node pos="r" depth="2" NCoef="0" IVar="-1" Cut="0.0000000000000000e+00" cType="1" res="1.3758079148828983e-03" rms="4.7247967123985291e-01" purity="5.7336181402206421e-01" nType="-99"/>
        </Node>
        <Node pos="r" depth="1" NCoef="0" IVar="0" Cut="1.5120497131347656e+02" cType="1" res="4.1559431701898575e-02" rms="4.5836502313613892e-01" purity="5.5773180723190308e-01" nType="0">
          <Node pos="l" depth="2" NCoef="0" IVar="-1" Cut="0.0000000000000000e+00" cType="1" res="3.1312438659369946e-03" rms="4.5074123144149780e-01" purity="6.0586488246917725e-01" nType="-99"/>
          <Node pos="r" depth="2" NCoef="0" IVar="-1" Cut="0.0000000000000000e+00" cType="1" res="-4.0148142725229263e-03" rms="4.6167320013046265e-01" purity="3.7661936879158020e-01" nType="-99"/>
        </Node>
      </Node>
    </BinaryTree>
    <BinaryTree type="DecisionTree" boostWeight="1.0000000000000000e+00" itree="137">
      <Node pos="s" depth="0" NCoef="0" IVar="4" Cut="8.2402068376541138e-01" cType="1" res="9.4956541433930397e-03" rms="4.5836198329925537e-01" purity="5.0837361812591553e-01" nType="0">
        <Node pos="l" depth="1" NCoef="0" IVar="2" Cut="9.6635115146636963e-01" cType="1" res="5.7993225753307343e-02" rms="4.5403692126274109e-01" purity="6.5923553705215454e-01" nType="0">
          <Node pos="l" depth="2" NCoef="0" IVar="-1" Cut="0.0000000000000000e+00" cType="1" res="1.1972883949056268e-03" rms="4.7801092267036438e-01" purity="5.9491032361984253e-01" nType="-99"/>
          <Node pos="r" depth="2" NCoef="0" IVar="-1" Cut="0.0000000000000000e+00" cType="1" res="5.2481796592473984e-03" rms="3.7918588519096375e-01" purity="8.2249122858047485e-01" nType="-99"/>
        </Node>
        <Node pos="r" depth="1" NCoef="0" IVar="6" Cut="8.3624038696289062e+00" cType="1" res="-1.5837011858820915e-02" rms="4.5857024192810059e-01" purity="4.2957103252410889e-01" nType="0">
          <Node pos="l" depth="2" NCoef="0" IVar="-1" Cut="0.0000000000000000e+00" cType="1" res="-1.2343999696895480e-03" rms="4.5725643634796143e-01" purity="3.9082488417625427e-01" nType="-99"/>
          <Node pos="r" depth="2" NCoef="0" IVar="-1" Cut="0.0000000000000000e+00" cType="1" res="2.5782480370253325e-03" rms="4.5806160569190979e-01" purity="6.4582842588424683e-01" nType="-99"/>
        </Node>
      </Node>
    </BinaryTree>
    <BinaryTree type="DecisionTree" boostWeight="1.0000000000000000e+00" itree="138">
      <Node pos="s" depth="0" NCoef="0" IVar="0" Cut="1.0233372497558594e+02" cType="1" res="2.9542287811636925e-03" rms="4.5928508043289185e-01" purity="5.0219565629959106e-01" nType="0">
        <Node pos="l" depth="1" NCoef="0" IVar="7" Cut="4.5719146728515625e-01" cType="1" res="-1.6805369406938553e-02" rms="4.6094602346420288e-01" purity="4.7476151585578918e-01" nType="0">
          <Node pos="l" depth="2" NCoef="0" IVar="-1" Cut="0.0000000000000000e+00" cType="1" res="-2.2905860096216202e-03" rms="4.4970890879631042e-01" purity="4.0622618794441223e-01" nType="-99"/>
          <Node pos="r" depth="2" NCoef="0" IVar="-1" Cut="0.0000000000000000e+00" cType="1" res="1.5440140850841999e-03" rms="4.7116029262542725e-01" purity="5.7532405853271484e-01" nType="-99"/>
        </Node>
        <Node pos="r" depth="1" NCoef="0" IVar="1" Cut="2.5275933742523193e+00" cType="1" res="5.6974105536937714e-02" rms="4.5030948519706726e-01" purity="5.7719653844833374e-01" nType="0">
          <Node pos="l" depth="2" NCoef="0" IVar="-1" Cut="0.0000000000000000e+00" cType="1" res="3.2329512760043144e-03" rms="4.4804066419601440e-01" purity="6.5580266714096069e-01" nType="-99"/>
          <Node pos="r" depth="2" NCoef="0" IVar="-1" Cut="0.0000000000000000e+00" cType="1" res="-1.4829868450760841e-03" rms="4.4773569703102112e-01" purity="2.8261575102806091e-01" nType="-99"/>
        </Node>
      </Node>
    </BinaryTree>
    <BinaryTree type="DecisionTree" boostWeight="1.0000000000000000e+00" itree="139">
      <Node pos="s" depth="0" NCoef="0" IVar="6" Cut="8.4673376083374023e+00" cType="1" res="4.6203361125662923e-04" rms="4.5946776866912842e-01" purity="4.9895453453063965e-01" nType="0">
        <Node pos="l" depth="1" NCoef="0" IVar="6" Cut="5.3969440460205078e+00" cType="1" res="-1.3273338787257671e-02" rms="4.6446475386619568e-01" purity="4.5992267131805420e-01" nType="0">
          <Node pos="l" depth="2" NCoef="0" IVar="-1" Cut="0.0000000000000000e+00" cType="1" res="-3.2904683612287045e-03" rms="4.2823612689971924e-01" purity="2.6718279719352722e-01" nType="-99"/>
          <Node pos="r" depth="2" NCoef="0" IVar="-1" Cut="0.0000000000000000e+00" cType="1" res="-4.1585040889913216e-05" rms="4.6984082460403442e-01" purity="4.9556577205657959e-01" nType="-99"/>
        </Node>
        <Node pos="r" depth="1" NCoef="0" IVar="0" Cut="6.6600288391113281e+01" cType="1" res="7.8298494219779968e-02" rms="4.2168688774108887e-01" purity="7.2014272212982178e-01" nType="0">
          <Node pos="l" depth="2" NCoef="0" IVar="-1" Cut="0.0000000000000000e+00" cType="1" res="7.7811302617192268e-04" rms="4.6003916859626770e-01" purity="6.3696348667144775e-01" nType="-99"/>
          <Node pos="r" depth="2" NCoef="0" IVar="-1" Cut="0.0000000000000000e+00" cType="1" res="4.9290270544588566e-03" rms="3.9331960678100586e-01" purity="7.6879811286926270e-01" nType="-99"/>
        </Node>
      </Node>
    </BinaryTree>
    <BinaryTree type="DecisionTree" boostWeight="1.0000000000000000e+00" itree="140">
      <Node pos="s" depth="0" NCoef="0" IVar="2" Cut="9.3375200033187866e-01" cType="1" res="3.1079733744263649e-03" rms="4.6013149619102478e-01" purity="4.9910625815391541e-01" nType="0">
        <Node pos="l" depth="1" NCoef="0" IVar="0" Cut="7.9189239501953125e+01" cType="1" res="-6.4629986882209778e-02" rms="4.4349163770675659e-01" purity="3.1044766306877136e-01" nType="0">
          <Node pos="l" depth="2" NCoef="0" IVar="-1" Cut="0.0000000000000000e+00" cType="1" res="-3.9602909237146378e-03" rms="4.2234152555465698e-01" purity="2.6375102996826172e-01" nType="-99"/>
          <Node pos="r" depth="2" NCoef="0" IVar="-1" Cut="0.0000000000000000e+00" cType="1" res="-4.9779785331338644e-04" rms="4.6393510699272156e-01" purity="3.7011837959289551e-01" nType="-99"/>
        </Node>
        <Node pos="r" depth="1" NCoef="0" IVar="2" Cut="9.7360891103744507e-01" cType="1" res="2.7433808892965317e-02" rms="4.6355280280113220e-01" purity="5.6685674190521240e-01" nType="0">
          <Node pos="l" depth="2" NCoef="0" IVar="-1" Cut="0.0000000000000000e+00" cType="1" res="4.2186008067801595e-04" rms="4.7238305211067200e-01" purity="5.2396190166473389e-01" nType="-99"/>
          <Node pos="r" depth="2" NCoef="0" IVar="-1" Cut="0.0000000000000000e+00" cType="1" res="3.6814608611166477e-03" rms="4.2624971270561218e-01" purity="7.1620017290115356e-01" nType="-99"/>
        </Node>
      </Node>
    </BinaryTree>
    <BinaryTree type="DecisionTree" boostWeight="1.0000000000000000e+00" itree="141">
      <Node pos="s" depth="0" NCoef="0" IVar="6" Cut="7.2187409400939941e+00" cType="1" res="6.9430316798388958e-03" rms="4.5972862839698792e-01" purity="5.0743585824966431e-01" nType="0">
        <Node pos="l" depth="1" NCoef="0" IVar="4" Cut="7.9787856340408325e-01" cType="1" res="-1.9303021952509880e-02" rms="4.6442049741744995e-01" purity="4.1021153330802917e-01" nType="0">
          <Node pos="l" depth="2" NCoef="0" IVar="-1" Cut="0.0000000000000000e+00" cType="1" res="1.2225661193951964e-03" rms="4.8193827271461487e-01" purity="5.6699109077453613e-01" nType="-99"/>
          <Node pos="r" depth="2" NCoef="0" IVar="-1" Cut="0.0000000000000000e+00" cType="1" res="-1.6771540977060795e-03" rms="4.5532840490341187e-01" purity="3.4638476371765137e-01" nType="-99"/>
        </Node>
        <Node pos="r" depth="1" NCoef="0" IVar="0" Cut="6.3235591888427734e+01" cType="1" res="4.5472215861082077e-02" rms="4.4998830556869507e-01" purity="6.5016114711761475e-01" nType="0">
          <Node pos="l" depth="2" NCoef="0" IVar="-1" Cut="0.0000000000000000e+00" cType="1" res="3.6416889633983374e-04" rms="4.6407660841941833e-01" purity="5.9307372570037842e-01" nType="-99"/>
          <Node pos="r" depth="2" NCoef="0" IVar="-1" Cut="0.0000000000000000e+00" cType="1" res="2.7930627111345530e-03" rms="4.4025847315788269e-01" purity="6.8314558267593384e-01" nType="-99"/>
        </Node>
      </Node>
    </BinaryTree>
    <BinaryTree type="DecisionTree" boostWeight="1.0000000000000000e+00" itree="142">
      <Node pos="s" depth="0" NCoef="0" IVar="0" Cut="3.7778743743896484e+01" cType="1" res="5.0945072434842587e-03" rms="4.6032145619392395e-01" purity="5.0296068191528320e-01" nType="0">
        <Node pos="l" depth="1" NCoef="0" IVar="-1" Cut="0.0000000000000000e+00" cType="1" res="-4.1695693507790565e-03" rms="4.4844618439674377e-01" purity="3.4148713946342468e-01" nType="-99"/>
        <Node pos="r" depth="1" NCoef="0" IVar="0" Cut="9.4666839599609375e+01" cType="1" res="1.6056694090366364e-02" rms="4.6012386679649353e-01" purity="5.1954460144042969e-01" nType="0">
          <Node pos="l" depth="2" NCoef="0" IVar="-1" Cut="0.0000000000000000e+00" cType="1" res="-3.0652363784611225e-04" rms="4.6174910664558411e-01" purity="4.8790305852890015e-01" nType="-99"/>
          <Node pos="r" depth="2" NCoef="0" IVar="-1" Cut="0.0000000000000000e+00" cType="1" res="2.4555511772632599e-03" rms="4.5390436053276062e-01" purity="5.7775294780731201e-01" nType="-99"/>
        </Node>
      </Node>
    </BinaryTree>
    <BinaryTree type="DecisionTree" boostWeight="1.0000000000000000e+00" itree="143">
      <Node pos="s" depth="0" NCoef="0" IVar="6" Cut="5.8088774681091309e+00" cType="1" res="-6.2179910019040108e-03" rms="4.5998534560203552e-01" purity="4.8909419775009155e-01" nType="0">
        <Node pos="l" depth="1" NCoef="0" IVar="2" Cut="9.1270446777343750e-01" cType="1" res="-6.0700997710227966e-02" rms="4.4310739636421204e-01" purity="2.9831579327583313e-01" nType="0">
          <Node pos="l" depth="2" NCoef="0" IVar="-1" Cut="0.0000000000000000e+00" cType="1" res="-4.7288560308516026e-03" rms="4.1802895069122314e-01" purity="2.2732280194759369e-01" nType="-99"/>
          <Node pos="r" depth="2" NCoef="0" IVar="-1" Cut="0.0000000000000000e+00" cType="1" res="-1.5821811975911260e-03" rms="4.5103371143341064e-01" purity="3.2704129815101624e-01" nType="-99"/>
        </Node>
        <Node pos="r" depth="1" NCoef="0" IVar="1" Cut="2.4585990905761719e+00" cType="1" res="1.1117387562990189e-02" rms="4.6388718485832214e-01" purity="5.4979604482650757e-01" nType="0">
          <Node pos="l" depth="2" NCoef="0" IVar="-1" Cut="0.0000000000000000e+00" cType="1" res="1.0516195325180888e-03" rms="4.6762749552726746e-01" purity="6.0401725769042969e-01" nType="-99"/>
          <Node pos="r" depth="2" NCoef="0" IVar="-1" Cut="0.0000000000000000e+00" cType="1" res="-3.0233797151595354e-03" rms="4.3678587675094604e-01" purity="2.8060665726661682e-01" nType="-99"/>
        </Node>
      </Node>
    </BinaryTree>
    <BinaryTree type="DecisionTree" boostWeight="1.0000000000000000e+00" itree="144">
      <Node pos="s" depth="0" NCoef="0" IVar="0" Cut="8.1784217834472656e+01" cType="1" res="-2.0191846415400505e-03" rms="4.5955714583396912e-01" purity="4.9879240989685059e-01" nType="0">
        <Node pos="l" depth="1" NCoef="0" IVar="0" Cut="4.5147998809814453e+01" cType="1" res="-3.2295353710651398e-02" rms="4.6198484301567078e-01" purity="4.5148420333862305e-01" nType="0">
          <Node pos="l" depth="2" NCoef="0" IVar="-1" Cut="0.0000000000000000e+00" cType="1" res="-3.3117120619863272e-03" rms="4.5355373620986938e-01" purity="3.6990484595298767e-01" nType="-99"/>
          <Node pos="r" depth="2" NCoef="0" IVar="-1" Cut="0.0000000000000000e+00" cType="1" res="-4.3107362580485642e-04" rms="4.6372267603874207e-01" purity="4.8522913455963135e-01" nType="-99"/>
        </Node>
        <Node pos="r" depth="1" NCoef="0" IVar="0" Cut="1.3877362060546875e+02" cType="1" res="3.7068530917167664e-02" rms="4.5342382788658142e-01" purity="5.5986911058425903e-01" nType="0">
          <Node pos="l" depth="2" NCoef="0" IVar="-1" Cut="0.0000000000000000e+00" cType="1" res="2.5070274714380503e-03" rms="4.4879204034805298e-01" purity="5.9113425016403198e-01" nType="-99"/>
          <Node pos="r" depth="2" NCoef="0" IVar="-1" Cut="0.0000000000000000e+00" cType="1" res="-2.6204397436231375e-03" rms="4.5794624090194702e-01" purity="4.3710002303123474e-01" nType="-99"/>
        </Node>
      </Node>
    </BinaryTree>
    <BinaryTree type="DecisionTree" boostWeight="1.0000000000000000e+00" itree="145">
      <Node pos="s" depth="0" NCoef="0" IVar="1" Cut="2.2214004993438721e+00" cType="1" res="2.5571791920810938e-03" rms="4.6036911010742188e-01" purity="4.9888917803764343e-01" nType="0">
        <Node pos="l" depth="1" NCoef="0" IVar="0" Cut="8.9052894592285156e+01" cType="1" res="3.1068213284015656e-02" rms="4.6715843677520752e-01" purity="5.8759987354278564e-01" nType="0">
          <Node pos="l" depth="2" NCoef="0" IVar="-1" Cut="0.0000000000000000e+00" cType="1" res="2.8304671286605299e-04" rms="4.7769087553024292e-01" purity="5.3861635923385620e-01" nType="-99"/>
          <Node pos="r" depth="2" NCoef="0" IVar="-1" Cut="0.0000000000000000e+00" cType="1" res="3.6734808236360550e-03" rms="4.3226435780525208e-01" purity="7.1638280153274536e-01" nType="-99"/>
        </Node>
        <Node pos="r" depth="1" NCoef="0" IVar="2" Cut="9.2318671941757202e-01" cType="1" res="-3.9529737085103989e-02" rms="4.4684743881225586e-01" purity="3.6793774366378784e-01" nType="0">
          <Node pos="l" depth="2" NCoef="0" IVar="-1" Cut="0.0000000000000000e+00" cType="1" res="-5.7285400107502937e-03" rms="3.5919561982154846e-01" purity="1.6864307224750519e-01" nType="-99"/>
          <Node pos="r" depth="2" NCoef="0" IVar="-1" Cut="0.0000000000000000e+00" cType="1" res="-1.0506582912057638e-03" rms="4.5934131741523743e-01" purity="4.0413966774940491e-01" nType="-99"/>
        </Node>
      </Node>
    </BinaryTree>
    <BinaryTree type="DecisionTree" boostWeight="1.0000000000000000e+00" itree="146">
      <Node pos="s" depth="0" NCoef="0" IVar="1" Cut="2.2222690582275391e+00" cType="1" res="1.0684268781915307e-03" rms="4.5633879303932190e-01" purity="4.9888852238655090e-01" nType="0">
        <Node pos="l" depth="1" NCoef="0" IVar="0" Cut="1.0706391143798828e+02" cType="1" res="3.3670593053102493e-02" rms="4.6317255496978760e-01" purity="5.9536236524581909e-01" nType="0">
          <Node pos="l" depth="2" NCoef="0" IVar="-1" Cut="0.0000000000000000e+00" cType="1" res="4.7633695066906512e-04" rms="4.7058007121086121e-01" purity="5.5986839532852173e-01" nType="-99"/>
          <Node pos="r" depth="2" NCoef="0" IVar="-1" Cut="0.0000000000000000e+00" cType="1" res="5.6046466343104839e-03" rms="4.0957328677177429e-01" purity="7.6839172840118408e-01" nType="-99"/>
        </Node>
        <Node pos="r" depth="1" NCoef="0" IVar="0" Cut="1.0047418212890625e+02" cType="1" res="-4.8694670200347900e-02" rms="4.4108396768569946e-01" purity="3.5163328051567078e-01" nType="0">
          <Node pos="l" depth="2" NCoef="0" IVar="-1" Cut="0.0000000000000000e+00" cType="1" res="-3.5307917278259993e-03" rms="4.2700675129890442e-01" purity="2.9804912209510803e-01" nType="-99"/>
          <Node pos="r" depth="2" NCoef="0" IVar="-1" Cut="0.0000000000000000e+00" cType="1" res="-1.1364157398929819e-04" rms="4.5749679207801819e-01" purity="4.3180254101753235e-01" nType="-99"/>
        </Node>
      </Node>
    </BinaryTree>
    <BinaryTree type="DecisionTree" boostWeight="1.0000000000000000e+00" itree="147">
      <Node pos="s" depth="0" NCoef="0" IVar="1" Cut="2.4494607448577881e+00" cType="1" res="-2.6080943644046783e-03" rms="4.5825907588005066e-01" purity="4.9756622314453125e-01" nType="0">
        <Node pos="l" depth="1" NCoef="0" IVar="0" Cut="8.6969314575195312e+01" cType="1" res="1.3188501819968224e-02" rms="4.6858474612236023e-01" purity="5.5643415451049805e-01" nType="0">
          <Node pos="l" depth="2" NCoef="0" IVar="-1" Cut="0.0000000000000000e+00" cType="1" res="-4.1975922067649662e-04" rms="4.7552621364593506e-01" purity="5.0486254692077637e-01" nType="-99"/>
          <Node pos="r" depth="2" NCoef="0" IVar="-1" Cut="0.0000000000000000e+00" cType="1" res="2.2845247294753790e-03" rms="4.5223367214202881e-01" purity="6.5139597654342651e-01" nType="-99"/>
        </Node>
        <Node pos="r" depth="1" NCoef="0" IVar="5" Cut="7.7446132898330688e-01" cType="1" res="-7.3635719716548920e-02" rms="4.0100222826004028e-01" purity="2.3287311196327209e-01" nType="0">
          <Node pos="l" depth="2" NCoef="0" IVar="-1" Cut="0.0000000000000000e+00" cType="1" res="-5.4670003009960055e-04" rms="4.4023215770721436e-01" purity="3.0699998140335083e-01" nType="-99"/>
          <Node pos="r" depth="2" NCoef="0" IVar="-1" Cut="0.0000000000000000e+00" cType="1" res="-4.8706093803048134e-03" rms="3.8111275434494019e-01" purity="2.0285938680171967e-01" nType="-99"/>
        </Node>
      </Node>
    </BinaryTree>
    <BinaryTree type="DecisionTree" boostWeight="1.0000000000000000e+00" itree="148">
      <Node pos="s" depth="0" NCoef="0" IVar="6" Cut="5.6050462722778320e+00" cType="1" res="-9.0201934799551964e-03" rms="4.5681148767471313e-01" purity="4.9069449305534363e-01" nType="0">
        <Node pos="l" depth="1" NCoef="0" IVar="6" Cut="4.8879914283752441e+00" cType="1" res="-8.8979527354240417e-02" rms="4.2064124345779419e-01" purity="2.5856277346611023e-01" nType="0">
          <Node pos="l" depth="2" NCoef="0" IVar="-1" Cut="0.0000000000000000e+00" cType="1" res="-5.7295784354209900e-03" rms="3.8277760148048401e-01" purity="1.8875284492969513e-01" nType="-99"/>
          <Node pos="r" depth="2" NCoef="0" IVar="-1" Cut="0.0000000000000000e+00" cType="1" res="-2.7229085098952055e-03" rms="4.3721032142639160e-01" purity="2.9479095339775085e-01" nType="-99"/>
        </Node>
        <Node pos="r" depth="1" NCoef="0" IVar="0" Cut="1.1098834991455078e+02" cType="1" res="8.1616742536425591e-03" rms="4.6241492033004761e-01" purity="5.4057562351226807e-01" nType="0">
          <Node pos="l" depth="2" NCoef="0" IVar="-1" Cut="0.0000000000000000e+00" cType="1" res="-2.8196768835186958e-04" rms="4.6489021182060242e-01" purity="5.1945883035659790e-01" nType="-99"/>
          <Node pos="r" depth="2" NCoef="0" IVar="-1" Cut="0.0000000000000000e+00" cType="1" res="2.6525435969233513e-03" rms="4.4913622736930847e-01" purity="6.1654448509216309e-01" nType="-99"/>
        </Node>
      </Node>
    </BinaryTree>
    <BinaryTree type="DecisionTree" boostWeight="1.0000000000000000e+00" itree="149">
      <Node pos="s" depth="0" NCoef="0" IVar="1" Cut="2.1627213954925537e+00" cType="1" res="1.0115584358572960e-02" rms="4.5899224281311035e-01" purity="5.0418615341186523e-01" nType="0">
        <Node pos="l" depth="1" NCoef="0" IVar="0" Cut="4.7085529327392578e+01" cType="1" res="4.1647363454103470e-02" rms="4.6446216106414795e-01" purity="5.9882110357284546e-01" nType="0">
          <Node pos="l" depth="2" NCoef="0" IVar="-1" Cut="0.0000000000000000e+00" cType="1" res="-1.4364481903612614e-03" rms="4.8161533474922180e-01" purity="4.6682903170585632e-01" nType="-99"/>
          <Node pos="r" depth="2" NCoef="0" IVar="-1" Cut="0.0000000000000000e+00" cType="1" res="2.6639972347766161e-03" rms="4.5533695816993713e-01" purity="6.4376837015151978e-01" nType="-99"/>
        </Node>
        <Node pos="r" depth="1" NCoef="0" IVar="0" Cut="6.1725009918212891e+01" cType="1" res="-2.3368094116449356e-02" rms="4.5070278644561768e-01" purity="4.0369307994842529e-01" nType="0">
          <Node pos="l" depth="2" NCoef="0" IVar="-1" Cut="0.0000000000000000e+00" cType="1" res="-3.5541495308279991e-03" rms="4.1938474774360657e-01" purity="2.9714336991310120e-01" nType="-99"/>
          <Node pos="r" depth="2" NCoef="0" IVar="-1" Cut="0.0000000000000000e+00" cType="1" res="-2.1668949921149760e-04" rms="4.5912316441535950e-01" purity="4.3889176845550537e-01" nType="-99"/>
        </Node>
      </Node>
    </BinaryTree>
    <BinaryTree type="DecisionTree" boostWeight="1.0000000000000000e+00" itree="150">
      <Node pos="s" depth="0" NCoef="0" IVar="6" Cut="4.9463920593261719e+00" cType="1" res="6.1693941242992878e-03" rms="4.6147054433822632e-01" purity="5.0347781181335449e-01" nType="0">
        <Node pos="l" depth="1" NCoef="0" IVar="-1" Cut="0.0000000000000000e+00" cType="1" res="-4.3875481933355331e-03" rms="4.0482264757156372e-01" purity="2.1322903037071228e-01" nType="-99"/>
        <Node pos="r" depth="1" NCoef="0" IVar="0" Cut="9.9139572143554688e+01" cType="1" res="1.3694727793335915e-02" rms="4.6414735913276672e-01" purity="5.2335757017135620e-01" nType="0">
          <Node pos="l" depth="2" NCoef="0" IVar="-1" Cut="0.0000000000000000e+00" cType="1" res="-2.7651418349705637e-04" rms="4.6488615870475769e-01" purity="4.9118694663047791e-01" nType="-99"/>
          <Node pos="r" depth="2" NCoef="0" IVar="-1" Cut="0.0000000000000000e+00" cType="1" res="2.4366418365389109e-03" rms="4.5925936102867126e-01" purity="5.9422194957733154e-01" nType="-99"/>
        </Node>
      </Node>
    </BinaryTree>
    <BinaryTree type="DecisionTree" boostWeight="1.0000000000000000e+00" itree="151">
      <Node pos="s" depth="0" NCoef="0" IVar="2" Cut="9.5464247465133667e-01" cType="1" res="7.1110849967226386e-04" rms="4.5925062894821167e-01" purity="5.0277382135391235e-01" nType="0">
        <Node pos="l" depth="1" NCoef="0" IVar="0" Cut="9.7167144775390625e+01" cType="1" res="-2.8306657448410988e-02" rms="4.6597102284431458e-01" purity="3.9227518439292908e-01" nType="0">
          <Node pos="l" depth="2" NCoef="0" IVar="-1" Cut="0.0000000000000000e+00" cType="1" res="-1.8691428704187274e-03" rms="4.6024471521377563e-01" purity="3.6093279719352722e-01" nType="-99"/>
          <Node pos="r" depth="2" NCoef="0" IVar="-1" Cut="0.0000000000000000e+00" cType="1" res="7.7921064803376794e-04" rms="4.7537314891815186e-01" purity="4.6419358253479004e-01" nType="-99"/>
        </Node>
        <Node pos="r" depth="1" NCoef="0" IVar="4" Cut="1.3271982669830322e+00" cType="1" res="3.5467561334371567e-02" rms="4.4860568642616272e-01" purity="6.3512516021728516e-01" nType="0">
          <Node pos="l" depth="2" NCoef="0" IVar="-1" Cut="0.0000000000000000e+00" cType="1" res="2.2394163534045219e-03" rms="4.4500622153282166e-01" purity="7.0624053478240967e-01" nType="-99"/>
          <Node pos="r" depth="2" NCoef="0" IVar="-1" Cut="0.0000000000000000e+00" cType="1" res="-1.9521528156474233e-03" rms="4.5476591587066650e-01" purity="3.3590874075889587e-01" nType="-99"/>
        </Node>
      </Node>
    </BinaryTree>
    <BinaryTree type="DecisionTree" boostWeight="1.0000000000000000e+00" itree="152">
      <Node pos="s" depth="0" NCoef="0" IVar="6" Cut="5.0081286430358887e+00" cType="1" res="1.3833302073180676e-03" rms="4.5855423808097839e-01" purity="5.0026297569274902e-01" nType="0">
        <Node pos="l" depth="1" NCoef="0" IVar="-1" Cut="0.0000000000000000e+00" cType="1" res="-5.9989155270159245e-03" rms="3.7980011105537415e-01" purity="1.8327307701110840e-01" nType="-99"/>
        <Node pos="r" depth="1" NCoef="0" IVar="0" Cut="3.9189701080322266e+01" cType="1" res="1.2904821895062923e-02" rms="4.6236670017242432e-01" purity="5.2569937705993652e-01" nType="0">
          <Node pos="l" depth="2" NCoef="0" IVar="-1" Cut="0.0000000000000000e+00" cType="1" res="-4.0140589699149132e-03" rms="4.5595499873161316e-01" purity="3.5302689671516418e-01" nType="-99"/>
          <Node pos="r" depth="2" NCoef="0" IVar="-1" Cut="0.0000000000000000e+00" cType="1" res="1.0071792639791965e-03" rms="4.6149227023124695e-01" purity="5.4464262723922729e-01" nType="-99"/>
        </Node>
      </Node>
    </BinaryTree>
    <BinaryTree type="DecisionTree" boostWeight="1.0000000000000000e+00" itree="153">
      <Node pos="s" depth="0" NCoef="0" IVar="1" Cut="2.1237463951110840e+00" cType="1" res="-2.6883097598329186e-04" rms="4.5788237452507019e-01" purity="4.9700546264648438e-01" nType="0">
        <Node pos="l" depth="1" NCoef="0" IVar="0" Cut="4.4374122619628906e+01" cType="1" res="3.5951845347881317e-02" rms="4.6106025576591492e-01" purity="6.0144251585006714e-01" nType="0">
          <Node pos="l" depth="2" NCoef="0" IVar="-1" Cut="0.0000000000000000e+00" cType="1" res="-1.7710541142150760e-03" rms="4.8318415880203247e-01" purity="4.5077997446060181e-01" nType="-99"/>
          <Node pos="r" depth="2" NCoef="0" IVar="-1" Cut="0.0000000000000000e+00" cType="1" res="2.3022899404168129e-03" rms="4.5196062326431274e-01" purity="6.4421975612640381e-01" nType="-99"/>
        </Node>
        <Node pos="r" depth="1" NCoef="0" IVar="0" Cut="8.0545501708984375e+01" cType="1" res="-3.0503319576382637e-02" rms="4.5300039649009705e-01" purity="4.0982872247695923e-01" nType="0">
          <Node pos="l" depth="2" NCoef="0" IVar="-1" Cut="0.0000000000000000e+00" cType="1" res="-2.9674181714653969e-03" rms="4.3859925866127014e-01" purity="3.4443715214729309e-01" nType="-99"/>
          <Node pos="r" depth="2" NCoef="0" IVar="-1" Cut="0.0000000000000000e+00" cType="1" res="4.6877546992618591e-05" rms="4.6233427524566650e-01" purity="4.6451765298843384e-01" nType="-99"/>
        </Node>
      </Node>
    </BinaryTree>
    <BinaryTree type="DecisionTree" boostWeight="1.0000000000000000e+00" itree="154">
      <Node pos="s" depth="0" NCoef="0" IVar="2" Cut="9.3375200033187866e-01" cType="1" res="2.6943634729832411e-03" rms="4.5532244443893433e-01" purity="5.0637328624725342e-01" nType="0">
        <Node pos="l" depth="1" NCoef="0" IVar="4" Cut="7.7822524309158325e-01" cType="1" res="-6.4393363893032074e-02" rms="4.4378596544265747e-01" purity="3.1266885995864868e-01" nType="0">
          <Node pos="l" depth="2" NCoef="0" IVar="-1" Cut="0.0000000000000000e+00" cType="1" res="-3.2417313195765018e-04" rms="4.8827618360519409e-01" purity="4.7422239184379578e-01" nType="-99"/>
          <Node pos="r" depth="2" NCoef="0" IVar="-1" Cut="0.0000000000000000e+00" cType="1" res="-3.6636246368288994e-03" rms="4.2274281382560730e-01" purity="2.4793560802936554e-01" nType="-99"/>
        </Node>
        <Node pos="r" depth="1" NCoef="0" IVar="4" Cut="1.5114784240722656e+00" cType="1" res="2.6324139907956123e-02" rms="4.5697739720344543e-01" purity="5.7460021972656250e-01" nType="0">
          <Node pos="l" depth="2" NCoef="0" IVar="-1" Cut="0.0000000000000000e+00" cType="1" res="1.6100190114229918e-03" rms="4.6112746000289917e-01" purity="6.1710065603256226e-01" nType="-99"/>
          <Node pos="r" depth="2" NCoef="0" IVar="-1" Cut="0.0000000000000000e+00" cType="1" res="-4.7956095077097416e-03" rms="3.9890867471694946e-01" purity="2.0842075347900391e-01" nType="-99"/>
        </Node>
      </Node>
    </BinaryTree>
    <BinaryTree type="DecisionTree" boostWeight="1.0000000000000000e+00" itree="155">
      <Node pos="s" depth="0" NCoef="0" IVar="6" Cut="5.7121539115905762e+00" cType="1" res="2.5215011555701494e-03" rms="4.5538491010665894e-01" purity="5.0159895420074463e-01" nType="0">
        <Node pos="l" depth="1" NCoef="0" IVar="7" Cut="4.6999052166938782e-01" cType="1" res="-6.1332773417234421e-02" rms="4.3140420317649841e-01" purity="2.8994762897491455e-01" nType="0">
          <Node pos="l" depth="2" NCoef="0" IVar="-1" Cut="0.0000000000000000e+00" cType="1" res="-4.1346750222146511e-03" rms="4.0282791852951050e-01" purity="2.3716664314270020e-01" nType="-99"/>
          <Node pos="r" depth="2" NCoef="0" IVar="-1" Cut="0.0000000000000000e+00" cType="1" res="3.4029135713353753e-04" rms="4.7828206419944763e-01" purity="4.0044319629669189e-01" nType="-99"/>
        </Node>
        <Node pos="r" depth="1" NCoef="0" IVar="4" Cut="1.2835867404937744e+00" cType="1" res="1.8834803253412247e-02" rms="4.5989188551902771e-01" purity="5.5567103624343872e-01" nType="0">
          <Node pos="l" depth="2" NCoef="0" IVar="-1" Cut="0.0000000000000000e+00" cType="1" res="1.4025508426129818e-03" rms="4.6302711963653564e-01" purity="6.3190710544586182e-01" nType="-99"/>
          <Node pos="r" depth="2" NCoef="0" IVar="-1" Cut="0.0000000000000000e+00" cType="1" res="-1.6966917319223285e-03" rms="4.4468688964843750e-01" purity="3.0073556303977966e-01" nType="-99"/>
        </Node>
      </Node>
    </BinaryTree>
    <BinaryTree type="DecisionTree" boostWeight="1.0000000000000000e+00" itree="156">
      <Node pos="s" depth="0" NCoef="0" IVar="4" Cut="9.9149912595748901e-01" cType="1" res="1.7431126907467842e-03" rms="4.5535311102867126e-01" purity="5.0386792421340942e-01" nType="0">
        <Node pos="l" depth="1" NCoef="0" IVar="2" Cut="9.4257205724716187e-01" cType="1" res="3.4472484141588211e-02" rms="4.5880922675132751e-01" purity="6.2922579050064087e-01" nType="0">
          <Node pos="l" depth="2" NCoef="0" IVar="-1" Cut="0.0000000000000000e+00" cType="1" res="-5.1148294005542994e-04" rms="4.8848021030426025e-01" purity="4.6540778875350952e-01" nType="-99"/>
          <Node pos="r" depth="2" NCoef="0" IVar="-1" Cut="0.0000000000000000e+00" cType="1" res="2.4662716314196587e-03" rms="4.4014066457748413e-01" purity="7.1587425470352173e-01" nType="-99"/>
        </Node>
        <Node pos="r" depth="1" NCoef="0" IVar="6" Cut="5.4767351150512695e+00" cType="1" res="-3.3807415515184402e-02" rms="4.4887337088584900e-01" purity="3.6770460009574890e-01" nType="0">
          <Node pos="l" depth="2" NCoef="0" IVar="-1" Cut="0.0000000000000000e+00" cType="1" res="-4.8191836103796959e-03" rms="3.7546116113662720e-01" purity="1.7335544526576996e-01" nType="-99"/>
          <Node pos="r" depth="2" NCoef="0" IVar="-1" Cut="0.0000000000000000e+00" cType="1" res="-8.1906031118705869e-04" rms="4.6221625804901123e-01" purity="4.1045758128166199e-01" nType="-99"/>
        </Node>
      </Node>
    </BinaryTree>
    <BinaryTree type="DecisionTree" boostWeight="1.0000000000000000e+00" itree="157">
      <Node pos="s" depth="0" NCoef="0" IVar="1" Cut="2.1998596191406250e+00" cType="1" res="-4.6828542836010456e-03" rms="4.5549485087394714e-01" purity="4.9166285991668701e-01" nType="0">
        <Node pos="l" depth="1" NCoef="0" IVar="0" Cut="1.0093448638916016e+02" cType="1" res="2.8514888137578964e-02" rms="4.6392521262168884e-01" purity="5.9206235408782959e-01" nType="0">
          <Node pos="l" depth="2" NCoef="0" IVar="-1" Cut="0.0000000000000000e+00" cType="1" res="2.7222503558732569e-04" rms="4.7271090745925903e-01" purity="5.5153977870941162e-01" nType="-99"/>
          <Node pos="r" depth="2" NCoef="0" IVar="-1" Cut="0.0000000000000000e+00" cType="1" res="4.6148439869284630e-03" rms="4.1644698381423950e-01" purity="7.5314378738403320e-01" nType="-99"/>
        </Node>
        <Node pos="r" depth="1" NCoef="0" IVar="1" Cut="2.7366347312927246e+00" cType="1" res="-4.9337968230247498e-02" rms="4.3996924161911011e-01" purity="3.5661295056343079e-01" nType="0">
          <Node pos="l" depth="2" NCoef="0" IVar="-1" Cut="0.0000000000000000e+00" cType="1" res="-1.3384448830038309e-03" rms="4.5839384198188782e-01" purity="4.0257602930068970e-01" nType="-99"/>
          <Node pos="r" depth="2" NCoef="0" IVar="-1" Cut="0.0000000000000000e+00" cType="1" res="-8.6593003943562508e-03" rms="2.9201287031173706e-01" purity="9.0141296386718750e-02" nType="-99"/>
        </Node>
      </Node>
    </BinaryTree>
    <BinaryTree type="DecisionTree" boostWeight="1.0000000000000000e+00" itree="158">
      <Node pos="s" depth="0" NCoef="0" IVar="4" Cut="1.0344041585922241e+00" cType="1" res="9.6478555351495743e-03" rms="4.5613619685173035e-01" purity="5.0679153203964233e-01" nType="0">
        <Node pos="l" depth="1" NCoef="0" IVar="0" Cut="4.3048168182373047e+01" cType="1" res="4.1976019740104675e-02" rms="4.5934826135635376e-01" purity="6.3366883993148804e-01" nType="0">
          <Node pos="l" depth="2" NCoef="0" IVar="-1" Cut="0.0000000000000000e+00" cType="1" res="-1.3502580113708973e-03" rms="4.7467982769012451e-01" purity="4.8334649205207825e-01" nType="-99"/>
          <Node pos="r" depth="2" NCoef="0" IVar="-1" Cut="0.0000000000000000e+00" cType="1" res="2.1803909912705421e-03" rms="4.5513156056404114e-01" purity="6.6053277254104614e-01" nType="-99"/>
        </Node>
        <Node pos="r" depth="1" NCoef="0" IVar="2" Cut="9.6992582082748413e-01" cType="1" res="-2.9938554391264915e-02" rms="4.4901293516159058e-01" purity="3.5142797231674194e-01" nType="0">
          <Node pos="l" depth="2" NCoef="0" IVar="-1" Cut="0.0000000000000000e+00" cType="1" res="-2.1179022733122110e-03" rms="4.4343870878219604e-01" purity="3.0302619934082031e-01" nType="-99"/>
          <Node pos="r" depth="2" NCoef="0" IVar="-1" Cut="0.0000000000000000e+00" cType="1" res="2.0650976803153753e-03" rms="4.6425557136535645e-01" purity="5.6326264142990112e-01" nType="-99"/>
        </Node>
      </Node>
    </BinaryTree>
    <BinaryTree type="DecisionTree" boostWeight="1.0000000000000000e+00" itree="159">
      <Node pos="s" depth="0" NCoef="0" IVar="0" Cut="1.0233372497558594e+02" cType="1" res="8.8050691410899162e-03" rms="4.5818862318992615e-01" purity="5.0966113805770874e-01" nType="0">
        <Node pos="l" depth="1" NCoef="0" IVar="2" Cut="9.6151721477508545e-01" cType="1" res="-9.9191069602966309e-03" rms="4.6034434437751770e-01" purity="4.7857517004013062e-01" nType="0">
          <Node pos="l" depth="2" NCoef="0" IVar="-1" Cut="0.0000000000000000e+00" cType="1" res="-1.2526070931926370e-03" rms="4.6472549438476562e-01" purity="3.9951038360595703e-01" nType="-99"/>
          <Node pos="r" depth="2" NCoef="0" IVar="-1" Cut="0.0000000000000000e+00" cType="1" res="1.3937873300164938e-03" rms="4.4820275902748108e-01" purity="6.3867902755737305e-01" nType="-99"/>
        </Node>
        <Node pos="r" depth="1" NCoef="0" IVar="1" Cut="2.2410774230957031e+00" cType="1" res="5.8986697345972061e-02" rms="4.4852226972579956e-01" purity="5.9297305345535278e-01" nType="0">
          <Node pos="l" depth="2" NCoef="0" IVar="-1" Cut="0.0000000000000000e+00" cType="1" res="4.6368027105927467e-03" rms="4.1969415545463562e-01" purity="7.5534218549728394e-01" nType="-99"/>
          <Node pos="r" depth="2" NCoef="0" IVar="-1" Cut="0.0000000000000000e+00" cType="1" res="4.0053314296528697e-04" rms="4.6850019693374634e-01" purity="4.4117036461830139e-01" nType="-99"/>
        </Node>
      </Node>
    </BinaryTree>
    <BinaryTree type="DecisionTree" boostWeight="1.0000000000000000e+00" itree="160">
      <Node pos="s" depth="0" NCoef="0" IVar="4" Cut="6.9268596172332764e-01" cType="1" res="4.6481778845191002e-03" rms="4.5601648092269897e-01" purity="5.0459086894989014e-01" nType="0">
        <Node pos="l" depth="1" NCoef="0" IVar="6" Cut="7.5658469200134277e+00" cType="1" res="6.5063178539276123e-02" rms="4.4471618533134460e-01" purity="6.8305665254592896e-01" nType="0">
          <Node pos="l" depth="2" NCoef="0" IVar="-1" Cut="0.0000000000000000e+00" cType="1" res="1.4021521201357245e-03" rms="4.7618508338928223e-01" purity="6.0026848316192627e-01" nType="-99"/>
          <Node pos="r" depth="2" NCoef="0" IVar="-1" Cut="0.0000000000000000e+00" cType="1" res="4.7466480173170567e-03" rms="3.8240084052085876e-01" purity="8.2142400741577148e-01" nType="-99"/>
        </Node>
        <Node pos="r" depth="1" NCoef="0" IVar="0" Cut="7.8129974365234375e+01" cType="1" res="-1.2589532881975174e-02" rms="4.5772984623908997e-01" purity="4.5367074012756348e-01" nType="0">
          <Node pos="l" depth="2" NCoef="0" IVar="-1" Cut="0.0000000000000000e+00" cType="1" res="-1.8177229212597013e-03" rms="4.5411157608032227e-01" purity="3.9916238188743591e-01" nType="-99"/>
          <Node pos="r" depth="2" NCoef="0" IVar="-1" Cut="0.0000000000000000e+00" cType="1" res="7.7297072857618332e-04" rms="4.5927715301513672e-01" purity="5.0922709703445435e-01" nType="-99"/>
        </Node>
      </Node>
    </BinaryTree>
    <BinaryTree type="DecisionTree" boostWeight="1.0000000000000000e+00" itree="161">
      <Node pos="s" depth="0" NCoef="0" IVar="2" Cut="9.6626669168472290e-01" cType="1" res="5.4182596504688263e-03" rms="4.5930477976799011e-01" purity="5.0448429584503174e-01" nType="0">
        <Node pos="l" depth="1" NCoef="0" IVar="4" Cut="1.6112872362136841e+00" cType="1" res="-1.1895725503563881e-02" rms="4.6431460976600647e-01" purity="4.4124719500541687e-01" nType="0">
          <Node pos="l" depth="2" NCoef="0" IVar="-1" Cut="0.0000000000000000e+00" cType="1" res="-1.5584597713313997e-04" rms="4.7342029213905334e-01" purity="4.7135141491889954e-01" nType="-99"/>
          <Node pos="r" depth="2" NCoef="0" IVar="-1" Cut="0.0000000000000000e+00" cType="1" res="-4.7604530118405819e-03" rms="3.5922482609748840e-01" purity="1.5760362148284912e-01" nType="-99"/>
        </Node>
        <Node pos="r" depth="1" NCoef="0" IVar="0" Cut="7.1489105224609375e+01" cType="1" res="5.3759783506393433e-02" rms="4.4143819808959961e-01" purity="6.8104553222656250e-01" nType="0">
          <Node pos="l" depth="2" NCoef="0" IVar="-1" Cut="0.0000000000000000e+00" cType="1" res="4.9200217472389340e-04" rms="4.6466270089149475e-01" purity="6.1208271980285645e-01" nType="-99"/>
          <Node pos="r" depth="2" NCoef="0" IVar="-1" Cut="0.0000000000000000e+00" cType="1" res="3.9723049849271774e-03" rms="4.1677376627922058e-01" purity="7.4100697040557861e-01" nType="-99"/>
        </Node>
      </Node>
    </BinaryTree>
    <BinaryTree type="DecisionTree" boostWeight="1.0000000000000000e+00" itree="162">
      <Node pos="s" depth="0" NCoef="0" IVar="0" Cut="4.9090579986572266e+01" cType="1" res="-6.6884919069707394e-03" rms="4.5713096857070923e-01" purity="4.9118399620056152e-01" nType="0">
        <Node pos="l" depth="1" NCoef="0" IVar="5" Cut="7.2252738475799561e-01" cType="1" res="-6.5043650567531586e-02" rms="4.5967897772789001e-01" purity="3.9116171002388000e-01" nType="0">
          <Node pos="l" depth="2" NCoef="0" IVar="-1" Cut="0.0000000000000000e+00" cType="1" res="-9.3391869449988008e-04" rms="4.7881340980529785e-01" purity="4.8065543174743652e-01" nType="-99"/>
          <Node pos="r" depth="2" NCoef="0" IVar="-1" Cut="0.0000000000000000e+00" cType="1" res="-4.5925844460725784e-03" rms="4.3612858653068542e-01" purity="3.0198240280151367e-01" nType="-99"/>
        </Node>
        <Node pos="r" depth="1" NCoef="0" IVar="2" Cut="9.3346297740936279e-01" cType="1" res="9.6293594688177109e-03" rms="4.5507910847663879e-01" purity="5.1915317773818970e-01" nType="0">
          <Node pos="l" depth="2" NCoef="0" IVar="-1" Cut="0.0000000000000000e+00" cType="1" res="-1.9516313914209604e-03" rms="4.4572025537490845e-01" purity="3.2585987448692322e-01" nType="-99"/>
          <Node pos="r" depth="2" NCoef="0" IVar="-1" Cut="0.0000000000000000e+00" cType="1" res="1.2167341774329543e-03" rms="4.5647120475769043e-01" purity="5.8531725406646729e-01" nType="-99"/>
        </Node>
      </Node>
    </BinaryTree>
    <BinaryTree type="DecisionTree" boostWeight="1.0000000000000000e+00" itree="163">
      <Node pos="s" depth="0" NCoef="0" IVar="1" Cut="2.2225673198699951e+00" cType="1" res="-1.3799194712191820e-03" rms="4.5796984434127808e-01" purity="4.9819958209991455e-01" nType="0">
        <Node pos="l" depth="1" NCoef="0" IVar="1" Cut="1.8041787147521973e+00" cType="1" res="2.5933554396033287e-02" rms="4.6607828140258789e-01" purity="5.9208923578262329e-01" nType="0">
          <Node pos="l" depth="2" NCoef="0" IVar="-1" Cut="0.0000000000000000e+00" cType="1" res="-1.6549419378861785e-03" rms="4.7111979126930237e-01" purity="5.0271296501159668e-01" nType="-99"/>
          <Node pos="r" depth="2" NCoef="0" IVar="-1" Cut="0.0000000000000000e+00" cType="1" res="1.4780324418097734e-03" rms="4.6420279145240784e-01" purity="6.0736596584320068e-01" nType="-99"/>
        </Node>
        <Node pos="r" depth="1" NCoef="0" IVar="0" Cut="7.7928070068359375e+01" cType="1" res="-4.1347239166498184e-02" rms="4.4281327724456787e-01" purity="3.6081254482269287e-01" nType="0">
          <Node pos="l" depth="2" NCoef="0" IVar="-1" Cut="0.0000000000000000e+00" cType="1" res="-4.0931408293545246e-03" rms="4.3402251601219177e-01" purity="2.7253681421279907e-01" nType="-99"/>
          <Node pos="r" depth="2" NCoef="0" IVar="-1" Cut="0.0000000000000000e+00" cType="1" res="-3.7199808866716921e-04" rms="4.4583499431610107e-01" purity="4.2150753736495972e-01" nType="-99"/>
        </Node>
      </Node>
    </BinaryTree>
    <BinaryTree type="DecisionTree" boostWeight="1.0000000000000000e+00" itree="164">
      <Node pos="s" depth="0" NCoef="0" IVar="0" Cut="4.5022899627685547e+01" cType="1" res="7.5412294827401638e-03" rms="4.5750257372856140e-01" purity="5.0826835632324219e-01" nType="0">
        <Node pos="l" depth="1" NCoef="0" IVar="7" Cut="4.8331716656684875e-01" cType="1" res="-6.0582138597965240e-02" rms="4.5402041077613831e-01" purity="3.8213801383972168e-01" nType="0">
          <Node pos="l" depth="2" NCoef="0" IVar="-1" Cut="0.0000000000000000e+00" cType="1" res="-4.1428213007748127e-03" rms="4.2904296517372131e-01" purity="3.1630593538284302e-01" nType="-99"/>
          <Node pos="r" depth="2" NCoef="0" IVar="-1" Cut="0.0000000000000000e+00" cType="1" res="2.8085228404961526e-04" rms="4.8853477835655212e-01" purity="5.0050395727157593e-01" nType="-99"/>
        </Node>
        <Node pos="r" depth="1" NCoef="0" IVar="2" Cut="9.7973507642745972e-01" cType="1" res="2.1136797964572906e-02" rms="4.5698034763336182e-01" purity="5.3344053030014038e-01" nType="0">
          <Node pos="l" depth="2" NCoef="0" IVar="-1" Cut="0.0000000000000000e+00" cType="1" res="4.0170535794459283e-04" rms="4.6339204907417297e-01" purity="5.0163841247558594e-01" nType="-99"/>
          <Node pos="r" depth="2" NCoef="0" IVar="-1" Cut="0.0000000000000000e+00" cType="1" res="4.8498054966330528e-03" rms="3.9171326160430908e-01" purity="7.8400701284408569e-01" nType="-99"/>
        </Node>
      </Node>
    </BinaryTree>
    <BinaryTree type="DecisionTree" boostWeight="1.0000000000000000e+00" itree="165">
      <Node pos="s" depth="0" NCoef="0" IVar="2" Cut="9.7090387344360352e-01" cType="1" res="7.0903887972235680e-03" rms="4.5662301778793335e-01" purity="5.0605922937393188e-01" nType="0">
        <Node pos="l" depth="1" NCoef="0" IVar="4" Cut="8.9240068197250366e-01" cType="1" res="-1.0010803118348122e-02" rms="4.6212056279182434e-01" purity="4.5397430658340454e-01" nType="0">
          <Node pos="l" depth="2" NCoef="0" IVar="-1" Cut="0.0000000000000000e+00" cType="1" res="1.1164974421262741e-03" rms="4.7316282987594604e-01" purity="6.0292452573776245e-01" nType="-99"/>
          <Node pos="r" depth="2" NCoef="0" IVar="-1" Cut="0.0000000000000000e+00" cType="1" res="-1.5353941125795245e-03" rms="4.5285996794700623e-01" purity="3.5632771253585815e-01" nType="-99"/>
        </Node>
        <Node pos="r" depth="1" NCoef="0" IVar="1" Cut="2.0873003005981445e+00" cType="1" res="7.2795115411281586e-02" rms="4.2855328321456909e-01" purity="7.0617550611495972e-01" nType="0">
          <Node pos="l" depth="2" NCoef="0" IVar="-1" Cut="0.0000000000000000e+00" cType="1" res="4.4040209613740444e-03" rms="3.9988777041435242e-01" purity="7.9160660505294800e-01" nType="-99"/>
          <Node pos="r" depth="2" NCoef="0" IVar="-1" Cut="0.0000000000000000e+00" cType="1" res="2.1569973323494196e-03" rms="4.4829207658767700e-01" purity="6.3987350463867188e-01" nType="-99"/>
        </Node>
      </Node>
    </BinaryTree>
    <BinaryTree type="DecisionTree" boostWeight="1.0000000000000000e+00" itree="166">
      <Node pos="s" depth="0" NCoef="0" IVar="2" Cut="9.7442352771759033e-01" cType="1" res="-3.5679473076015711e-03" rms="4.5961400866508484e-01" purity="4.9498382210731506e-01" nType="0">
        <Node pos="l" depth="1" NCoef="0" IVar="7" Cut="3.3350402116775513e-01" cType="1" res="-1.5461890026926994e-02" rms="4.6520027518272400e-01" purity="4.5537105202674866e-01" nType="0">
          <Node pos="l" depth="2" NCoef="0" IVar="-1" Cut="0.0000000000000000e+00" cType="1" res="-1.9195550121366978e-03" rms="4.5778724551200867e-01" purity="3.8158845901489258e-01" nType="-99"/>
          <Node pos="r" depth="2" NCoef="0" IVar="-1" Cut="0.0000000000000000e+00" cType="1" res="1.8823830760084093e-04" rms="4.6913984417915344e-01" purity="5.0594097375869751e-01" nType="-99"/>
        </Node>
        <Node pos="r" depth="1" NCoef="0" IVar="4" Cut="1.0983458757400513e+00" cType="1" res="5.8944813907146454e-02" rms="4.2360419034957886e-01" purity="7.0318263769149780e-01" nType="0">
          <Node pos="l" depth="2" NCoef="0" IVar="-1" Cut="0.0000000000000000e+00" cType="1" res="3.8028073031455278e-03" rms="3.9420640468597412e-01" purity="8.0191534757614136e-01" nType="-99"/>
          <Node pos="r" depth="2" NCoef="0" IVar="-1" Cut="0.0000000000000000e+00" cType="1" res="2.6139055262319744e-04" rms="4.7238150238990784e-01" purity="5.0662785768508911e-01" nType="-99"/>
        </Node>
      </Node>
    </BinaryTree>
    <BinaryTree type="DecisionTree" boostWeight="1.0000000000000000e+00" itree="167">
      <Node pos="s" depth="0" NCoef="0" IVar="0" Cut="8.0522918701171875e+01" cType="1" res="9.7962841391563416e-04" rms="4.5669642090797424e-01" purity="4.9697998166084290e-01" nType="0">
        <Node pos="l" depth="1" NCoef="0" IVar="4" Cut="6.1242556571960449e-01" cType="1" res="-2.9877986758947372e-02" rms="4.5996978878974915e-01" purity="4.4687658548355103e-01" nType="0">
          <Node pos="l" depth="2" NCoef="0" IVar="-1" Cut="0.0000000000000000e+00" cType="1" res="1.8149863462895155e-03" rms="4.5982861518859863e-01" purity="6.4942938089370728e-01" nType="-99"/>
          <Node pos="r" depth="2" NCoef="0" IVar="-1" Cut="0.0000000000000000e+00" cType="1" res="-1.9808874931186438e-03" rms="4.5803958177566528e-01" purity="4.0311706066131592e-01" nType="-99"/>
        </Node>
        <Node pos="r" depth="1" NCoef="0" IVar="6" Cut="5.2376589775085449e+00" cType="1" res="3.9275567978620529e-02" rms="4.4966590404510498e-01" purity="5.5916094779968262e-01" nType="0">
          <Node pos="l" depth="2" NCoef="0" IVar="-1" Cut="0.0000000000000000e+00" cType="1" res="-3.1322957947850227e-03" rms="4.2713016271591187e-01" purity="2.6830050349235535e-01" nType="-99"/>
          <Node pos="r" depth="2" NCoef="0" IVar="-1" Cut="0.0000000000000000e+00" cType="1" res="2.2123057860881090e-03" rms="4.5042395591735840e-01" purity="5.9651249647140503e-01" nType="-99"/>
        </Node>
      </Node>
    </BinaryTree>
    <BinaryTree type="DecisionTree" boostWeight="1.0000000000000000e+00" itree="168">
      <Node pos="s" depth="0" NCoef="0" IVar="4" Cut="1.5114784240722656e+00" cType="1" res="4.2179757729172707e-03" rms="4.5812204480171204e-01" purity="5.0197625160217285e-01" nType="0">
        <Node pos="l" depth="1" NCoef="0" IVar="2" Cut="9.6710687875747681e-01" cType="1" res="1.5657125040888786e-02" rms="4.6711409091949463e-01" purity="5.4604667425155640e-01" nType="0">
          <Node pos="l" depth="2" NCoef="0" IVar="-1" Cut="0.0000000000000000e+00" cType="1" res="4.7704448661534116e-05" rms="4.7661060094833374e-01" purity="4.8860031366348267e-01" nType="-99"/>
          <Node pos="r" depth="2" NCoef="0" IVar="-1" Cut="0.0000000000000000e+00" cType="1" res="2.5690556503832340e-03" rms="4.3377897143363953e-01" purity="7.2201234102249146e-01" nType="-99"/>
        </Node>
        <Node pos="r" depth="1" NCoef="0" IVar="4" Cut="1.7117167711257935e+00" cType="1" res="-7.5877018272876740e-02" rms="3.7985625863075256e-01" purity="1.9340284168720245e-01" nType="0">
          <Node pos="l" depth="2" NCoef="0" IVar="-1" Cut="0.0000000000000000e+00" cType="1" res="-2.2872022818773985e-03" rms="4.1289532184600830e-01" purity="2.3607814311981201e-01" nType="-99"/>
          <Node pos="r" depth="2" NCoef="0" IVar="-1" Cut="0.0000000000000000e+00" cType="1" res="-6.0074897482991219e-03" rms="3.3749058842658997e-01" purity="1.4741222560405731e-01" nType="-99"/>
        </Node>
      </Node>
    </BinaryTree>
    <BinaryTree type="DecisionTree" boostWeight="1.0000000000000000e+00" itree="169">
      <Node pos="s" depth="0" NCoef="0" IVar="0" Cut="5.4289386749267578e+01" cType="1" res="7.6154019916430116e-04" rms="4.5995464920997620e-01" purity="5.0217056274414062e-01" nType="0">
        <Node pos="l" depth="1" NCoef="0" IVar="5" Cut="8.4972870349884033e-01" cType="1" res="-5.3639255464076996e-02" rms="4.5943221449851990e-01" purity="4.1176551580429077e-01" nType="0">
          <Node pos="l" depth="2" NCoef="0" IVar="-1" Cut="0.0000000000000000e+00" cType="1" res="-9.6668145852163434e-04" rms="4.7424659132957458e-01" purity="4.8068505525588989e-01" nType="-99"/>
          <Node pos="r" depth="2" NCoef="0" IVar="-1" Cut="0.0000000000000000e+00" cType="1" res="-4.7679725103080273e-03" rms="4.2544066905975342e-01" purity="2.8425437211990356e-01" nType="-99"/>
        </Node>
        <Node pos="r" depth="1" NCoef="0" IVar="4" Cut="5.4703491926193237e-01" cType="1" res="2.1236890926957130e-02" rms="4.5848223567008972e-01" purity="5.3619712591171265e-01" nType="0">
          <Node pos="l" depth="2" NCoef="0" IVar="-1" Cut="0.0000000000000000e+00" cType="1" res="4.1920156218111515e-03" rms="4.2555770277976990e-01" purity="7.5865381956100464e-01" nType="-99"/>
          <Node pos="r" depth="2" NCoef="0" IVar="-1" Cut="0.0000000000000000e+00" cType="1" res="4.9106561345979571e-04" rms="4.6103200316429138e-01" purity="5.1193708181381226e-01" nType="-99"/>
        </Node>
      </Node>
    </BinaryTree>
    <BinaryTree type="DecisionTree" boostWeight="1.0000000000000000e+00" itree="170">
      <Node pos="s" depth="0" NCoef="0" IVar="4" Cut="7.1635460853576660e-01" cType="1" res="8.3319515397306532e-05" rms="4.6060094237327576e-01" purity="4.9948638677597046e-01" nType="0">
        <Node pos="l" depth="1" NCoef="0" IVar="3" Cut="3.6770965903997421e-02" cType="1" res="5.3448576480150223e-02" rms="4.5535847544670105e-01" purity="6.7031002044677734e-01" nType="0">
          <Node pos="l" depth="2" NCoef="0" IVar="-1" Cut="0.0000000000000000e+00" cType="1" res="2.6387444813735783e-04" rms="4.7481009364128113e-01" purity="6.2905722856521606e-01" nType="-99"/>
          <Node pos="r" depth="2" NCoef="0" IVar="-1" Cut="0.0000000000000000e+00" cType="1" res="3.6487791221588850e-03" rms="4.3377032876014709e-01" purity="7.0600992441177368e-01" nType="-99"/>
        </Node>
        <Node pos="r" depth="1" NCoef="0" IVar="0" Cut="1.0016911315917969e+02" cType="1" res="-1.6873979941010475e-02" rms="4.6096268296241760e-01" purity="4.4520562887191772e-01" nType="0">
          <Node pos="l" depth="2" NCoef="0" IVar="-1" Cut="0.0000000000000000e+00" cType="1" res="-1.6128490678966045e-03" rms="4.5959490537643433e-01" purity="4.0843674540519714e-01" nType="-99"/>
          <Node pos="r" depth="2" NCoef="0" IVar="-1" Cut="0.0000000000000000e+00" cType="1" res="1.3015160802751780e-03" rms="4.6030905842781067e-01" purity="5.2561557292938232e-01" nType="-99"/>
        </Node>
      </Node>
    </BinaryTree>
    <BinaryTree type="DecisionTree" boostWeight="1.0000000000000000e+00" itree="171">
      <Node pos="s" depth="0" NCoef="0" IVar="4" Cut="8.2612037658691406e-01" cType="1" res="-4.7171283513307571e-03" rms="4.5807564258575439e-01" purity="4.9671560525894165e-01" nType="0">
        <Node pos="l" depth="1" NCoef="0" IVar="2" Cut="9.2941719293594360e-01" cType="1" res="3.4245409071445465e-02" rms="4.5891401171684265e-01" purity="6.4739549160003662e-01" nType="0">
          <Node pos="l" depth="2" NCoef="0" IVar="-1" Cut="0.0000000000000000e+00" cType="1" res="-1.5549741219729185e-03" rms="4.8064336180686951e-01" purity="4.2080798745155334e-01" nType="-99"/>
          <Node pos="r" depth="2" NCoef="0" IVar="-1" Cut="0.0000000000000000e+00" cType="1" res="2.0067305304110050e-03" rms="4.5286566019058228e-01" purity="6.9246476888656616e-01" nType="-99"/>
        </Node>
        <Node pos="r" depth="1" NCoef="0" IVar="6" Cut="8.9839620590209961e+00" cType="1" res="-2.5263946503400803e-02" rms="4.5629501342773438e-01" purity="4.1725489497184753e-01" nType="0">
          <Node pos="l" depth="2" NCoef="0" IVar="-1" Cut="0.0000000000000000e+00" cType="1" res="-1.5289128059521317e-03" rms="4.5817899703979492e-01" purity="3.9109531044960022e-01" nType="-99"/>
          <Node pos="r" depth="2" NCoef="0" IVar="-1" Cut="0.0000000000000000e+00" cType="1" res="4.0056286379694939e-03" rms="4.1677671670913696e-01" purity="7.0260787010192871e-01" nType="-99"/>
        </Node>
      </Node>
    </BinaryTree>
    <BinaryTree type="DecisionTree" boostWeight="1.0000000000000000e+00" itree="172">
      <Node pos="s" depth="0" NCoef="0" IVar="6" Cut="7.6610097885131836e+00" cType="1" res="3.9211283437907696e-03" rms="4.5289814472198486e-01" purity="5.0303167104721069e-01" nType="0">
        <Node pos="l" depth="1" NCoef="0" IVar="4" Cut="1.0344041585922241e+00" cType="1" res="-1.8986662849783897e-02" rms="4.5860567688941956e-01" purity="4.2346829175949097e-01" nType="0">
          <Node pos="l" depth="2" NCoef="0" IVar="-1" Cut="0.0000000000000000e+00" cType="1" res="4.4573555351234972e-04" rms="4.7976106405258179e-01" purity="5.4982143640518188e-01" nType="-99"/>
          <Node pos="r" depth="2" NCoef="0" IVar="-1" Cut="0.0000000000000000e+00" cType="1" res="-2.4823690764605999e-03" rms="4.3009811639785767e-01" purity="2.7767753601074219e-01" nType="-99"/>
        </Node>
        <Node pos="r" depth="1" NCoef="0" IVar="6" Cut="9.3256282806396484e+00" cType="1" res="5.7631216943264008e-02" rms="4.3451556563377380e-01" purity="6.8957751989364624e-01" nType="0">
          <Node pos="l" depth="2" NCoef="0" IVar="-1" Cut="0.0000000000000000e+00" cType="1" res="1.7344177467748523e-03" rms="4.4396996498107910e-01" purity="6.6480743885040283e-01" nType="-99"/>
          <Node pos="r" depth="2" NCoef="0" IVar="-1" Cut="0.0000000000000000e+00" cType="1" res="5.5781691335141659e-03" rms="3.8626903295516968e-01" purity="7.8946316242218018e-01" nType="-99"/>
        </Node>
      </Node>
    </BinaryTree>
    <BinaryTree type="DecisionTree" boostWeight="1.0000000000000000e+00" itree="173">
      <Node pos="s" depth="0" NCoef="0" IVar="0" Cut="4.5022899627685547e+01" cType="1" res="3.8297520950436592e-03" rms="4.5670843124389648e-01" purity="5.0358003377914429e-01" nType="0">
        <Node pos="l" depth="1" NCoef="0" IVar="0" Cut="3.4457870483398438e+01" cType="1" res="-7.0912346243858337e-02" rms="4.4869652390480042e-01" purity="3.6999893188476562e-01" nType="0">
          <Node pos="l" depth="2" NCoef="0" IVar="-1" Cut="0.0000000000000000e+00" cType="1" res="-6.4283260144293308e-03" rms="4.2278668284416199e-01" purity="2.7000215649604797e-01" nType="-99"/>
          <Node pos="r" depth="2" NCoef="0" IVar="-1" Cut="0.0000000000000000e+00" cType="1" res="-1.2106287758797407e-03" rms="4.5541074872016907e-01" purity="4.2005190253257751e-01" nType="-99"/>
        </Node>
        <Node pos="r" depth="1" NCoef="0" IVar="6" Cut="5.2550859451293945e+00" cType="1" res="1.8829688429832458e-02" rms="4.5682847499847412e-01" purity="5.3038829565048218e-01" nType="0">
          <Node pos="l" depth="2" NCoef="0" IVar="-1" Cut="0.0000000000000000e+00" cType="1" res="-3.3890446648001671e-03" rms="4.2208126187324524e-01" purity="2.5440540909767151e-01" nType="-99"/>
          <Node pos="r" depth="2" NCoef="0" IVar="-1" Cut="0.0000000000000000e+00" cType="1" res="1.2372947530820966e-03" rms="4.5932897925376892e-01" purity="5.6238144636154175e-01" nType="-99"/>
        </Node>
      </Node>
    </BinaryTree>
    <BinaryTree type="DecisionTree" boostWeight="1.0000000000000000e+00" itree="174">
      <Node pos="s" depth="0" NCoef="0" IVar="6" Cut="6.2773065567016602e+00" cType="1" res="9.5807826146483421e-03" rms="4.5591616630554199e-01" purity="5.0669437646865845e-01" nType="0">
        <Node pos="l" depth="1" NCoef="0" IVar="4" Cut="7.0110535621643066e-01" cType="1" res="-2.8057349845767021e-02" rms="4.5185950398445129e-01" purity="3.4330159425735474e-01" nType="0">
          <Node pos="l" depth="2" NCoef="0" IVar="-1" Cut="0.0000000000000000e+00" cType="1" res="2.0068339072167873e-03" rms="4.8466664552688599e-01" purity="5.5410480499267578e-01" nType="-99"/>
          <Node pos="r" depth="2" NCoef="0" IVar="-1" Cut="0.0000000000000000e+00" cType="1" res="-2.0298443268984556e-03" rms="4.4160422682762146e-01" purity="2.9462972283363342e-01" nType="-99"/>
        </Node>
        <Node pos="r" depth="1" NCoef="0" IVar="3" Cut="1.1988271027803421e-01" cType="1" res="3.0167078599333763e-02" rms="4.5680969953536987e-01" purity="5.9606254100799561e-01" nType="0">
          <Node pos="l" depth="2" NCoef="0" IVar="-1" Cut="0.0000000000000000e+00" cType="1" res="6.2014715513214469e-04" rms="4.6059942245483398e-01" purity="5.6568807363510132e-01" nType="-99"/>
          <Node pos="r" depth="2" NCoef="0" IVar="-1" Cut="0.0000000000000000e+00" cType="1" res="3.4438413567841053e-03" rms="4.3869033455848694e-01" purity="7.0518648624420166e-01" nType="-99"/>
        </Node>
      </Node>
    </BinaryTree>
    <BinaryTree type="DecisionTree" boostWeight="1.0000000000000000e+00" itree="175">
      <Node pos="s" depth="0" NCoef="0" IVar="4" Cut="1.5719851255416870e+00" cType="1" res="9.1660069301724434e-03" rms="4.5735535025596619e-01" purity="5.1154541969299316e-01" nType="0">
        <Node pos="l" depth="1" NCoef="0" IVar="0" Cut="1.0200418090820312e+02" cType="1" res="1.8316501751542091e-02" rms="4.6461650729179382e-01" purity="5.4651498794555664e-01" nType="0">
          <Node pos="l" depth="2" NCoef="0" IVar="-1" Cut="0.0000000000000000e+00" cType="1" res="1.3824053166899830e-04" rms="4.6972024440765381e-01" purity="5.1571035385131836e-01" nType="-99"/>
          <Node pos="r" depth="2" NCoef="0" IVar="-1" Cut="0.0000000000000000e+00" cType="1" res="2.4573162663727999e-03" rms="4.4730922579765320e-01" purity="6.3325035572052002e-01" nType="-99"/>
        </Node>
        <Node pos="r" depth="1" NCoef="0" IVar="-1" Cut="0.0000000000000000e+00" cType="1" res="-4.0783444419503212e-03" rms="3.7317338585853577e-01" purity="1.8785886466503143e-01" nType="-99"/>
      </Node>
    </BinaryTree>
    <BinaryTree type="DecisionTree" boostWeight="1.0000000000000000e+00" itree="176">
      <Node pos="s" depth="0" NCoef="0" IVar="7" Cut="5.0681138038635254e-01" cType="1" res="2.5514438748359680e-03" rms="4.5230746269226074e-01" purity="5.0068253278732300e-01" nType="0">
        <Node pos="l" depth="1" NCoef="0" IVar="4" Cut="1.5161656141281128e+00" cType="1" res="-2.3170910775661469e-02" rms="4.4911935925483704e-01" purity="4.5169922709465027e-01" nType="0">
          <Node pos="l" depth="2" NCoef="0" IVar="-1" Cut="0.0000000000000000e+00" cType="1" res="-3.5055249463766813e-04" rms="4.6419945359230042e-01" purity="5.0742560625076294e-01" nType="-99"/>
          <Node pos="r" depth="2" NCoef="0" IVar="-1" Cut="0.0000000000000000e+00" cType="1" res="-5.2608386613428593e-03" rms="3.5419628024101257e-01" purity="1.6947740316390991e-01" nType="-99"/>
        </Node>
        <Node pos="r" depth="1" NCoef="0" IVar="4" Cut="6.8929576873779297e-01" cType="1" res="6.0375500470399857e-02" rms="4.5410516858100891e-01" purity="6.1079734563827515e-01" nType="0">
          <Node pos="l" depth="2" NCoef="0" IVar="-1" Cut="0.0000000000000000e+00" cType="1" res="4.7536063939332962e-03" rms="4.2394888401031494e-01" purity="7.4680203199386597e-01" nType="-99"/>
          <Node pos="r" depth="2" NCoef="0" IVar="-1" Cut="0.0000000000000000e+00" cType="1" res="1.4112461358308792e-03" rms="4.6356093883514404e-01" purity="5.5532926321029663e-01" nType="-99"/>
        </Node>
      </Node>
    </BinaryTree>
    <BinaryTree type="DecisionTree" boostWeight="1.0000000000000000e+00" itree="177">
      <Node pos="s" depth="0" NCoef="0" IVar="6" Cut="5.0151062011718750e+00" cType="1" res="-6.8020932376384735e-03" rms="4.5550164580345154e-01" purity="4.9529281258583069e-01" nType="0">
        <Node pos="l" depth="1" NCoef="0" IVar="-1" Cut="0.0000000000000000e+00" cType="1" res="-4.7121462412178516e-03" rms="3.9552465081214905e-01" purity="2.0575284957885742e-01" nType="-99"/>
        <Node pos="r" depth="1" NCoef="0" IVar="1" Cut="2.1432499885559082e+00" cType="1" res="1.3249237090349197e-03" rms="4.5898339152336121e-01" purity="5.1841980218887329e-01" nType="0">
          <Node pos="l" depth="2" NCoef="0" IVar="-1" Cut="0.0000000000000000e+00" cType="1" res="1.2944843620061874e-03" rms="4.6375054121017456e-01" purity="6.1359584331512451e-01" nType="-99"/>
          <Node pos="r" depth="2" NCoef="0" IVar="-1" Cut="0.0000000000000000e+00" cType="1" res="-1.3545305700972676e-03" rms="4.5172876119613647e-01" purity="4.2065498232841492e-01" nType="-99"/>
        </Node>
      </Node>
    </BinaryTree>
    <BinaryTree type="DecisionTree" boostWeight="1.0000000000000000e+00" itree="178">
      <Node pos="s" depth="0" NCoef="0" IVar="0" Cut="4.2662670135498047e+01" cType="1" res="-1.0852547362446785e-02" rms="4.5630240440368652e-01" purity="4.8466339707374573e-01" nType="0">
        <Node pos="l" depth="1" NCoef="0" IVar="4" Cut="9.1298389434814453e-01" cType="1" res="-7.9754211008548737e-02" rms="4.5237898826599121e-01" purity="3.5557842254638672e-01" nType="0">
          <Node pos="l" depth="2" NCoef="0" IVar="-1" Cut="0.0000000000000000e+00" cType="1" res="-6.6683744080364704e-04" rms="4.8961088061332703e-01" purity="5.0350302457809448e-01" nType="-99"/>
          <Node pos="r" depth="2" NCoef="0" IVar="-1" Cut="0.0000000000000000e+00" cType="1" res="-6.3408813439309597e-03" rms="4.0631291270256042e-01" purity="2.1831949055194855e-01" nType="-99"/>
        </Node>
        <Node pos="r" depth="1" NCoef="0" IVar="3" Cut="1.7700700461864471e-01" cType="1" res="8.5672724526375532e-04" rms="4.5593184232711792e-01" purity="5.0660037994384766e-01" nType="0">
          <Node pos="l" depth="2" NCoef="0" IVar="-1" Cut="0.0000000000000000e+00" cType="1" res="-3.8490051520057023e-04" rms="4.5675185322761536e-01" purity="4.8655107617378235e-01" nType="-99"/>
          <Node pos="r" depth="2" NCoef="0" IVar="-1" Cut="0.0000000000000000e+00" cType="1" res="3.2912439201027155e-03" rms="4.4100940227508545e-01" purity="6.6617470979690552e-01" nType="-99"/>
        </Node>
      </Node>
    </BinaryTree>
    <BinaryTree type="DecisionTree" boostWeight="1.0000000000000000e+00" itree="179">
      <Node pos="s" depth="0" NCoef="0" IVar="2" Cut="9.3237555027008057e-01" cType="1" res="1.5586621593683958e-03" rms="4.5338392257690430e-01" purity="4.9823105335235596e-01" nType="0">
        <Node pos="l" depth="1" NCoef="0" IVar="5" Cut="6.9340711832046509e-01" cType="1" res="-5.4089054465293884e-02" rms="4.3299937248229980e-01" purity="2.9824453592300415e-01" nType="0">
          <Node pos="l" depth="2" NCoef="0" IVar="-1" Cut="0.0000000000000000e+00" cType="1" res="5.1181406888645142e-05" rms="4.7726655006408691e-01" purity="4.1693565249443054e-01" nType="-99"/>
          <Node pos="r" depth="2" NCoef="0" IVar="-1" Cut="0.0000000000000000e+00" cType="1" res="-3.8021758664399385e-03" rms="4.0256738662719727e-01" purity="2.3132976889610291e-01" nType="-99"/>
        </Node>
        <Node pos="r" depth="1" NCoef="0" IVar="0" Cut="3.8823535919189453e+01" cType="1" res="1.9031673669815063e-02" rms="4.5820602774620056e-01" purity="5.6102550029754639e-01" nType="0">
          <Node pos="l" depth="2" NCoef="0" IVar="-1" Cut="0.0000000000000000e+00" cType="1" res="-3.8933290634304285e-03" rms="4.6366208791732788e-01" purity="3.6633634567260742e-01" nType="-99"/>
          <Node pos="r" depth="2" NCoef="0" IVar="-1" Cut="0.0000000000000000e+00" cType="1" res="1.2640563072636724e-03" rms="4.5605880022048950e-01" purity="5.8136528730392456e-01" nType="-99"/>
        </Node>
      </Node>
    </BinaryTree>
    <BinaryTree type="DecisionTree" boostWeight="1.0000000000000000e+00" itree="180">
      <Node pos="s" depth="0" NCoef="0" IVar="0" Cut="1.0233372497558594e+02" cType="1" res="-3.4004300832748413e-03" rms="4.5556914806365967e-01" purity="4.9473530054092407e-01" nType="0">
        <Node pos="l" depth="1" NCoef="0" IVar="7" Cut="5.0186353921890259e-01" cType="1" res="-2.4213373661041260e-02" rms="4.5646050572395325e-01" purity="4.6016880869865417e-01" nType="0">
          <Node pos="l" depth="2" NCoef="0" IVar="-1" Cut="0.0000000000000000e+00" cType="1" res="-2.2054952569305897e-03" rms="4.4991338253021240e-01" purity="4.0627256035804749e-01" nType="-99"/>
          <Node pos="r" depth="2" NCoef="0" IVar="-1" Cut="0.0000000000000000e+00" cType="1" res="1.2008121702820063e-03" rms="4.6435716748237610e-01" purity="5.6810826063156128e-01" nType="-99"/>
        </Node>
        <Node pos="r" depth="1" NCoef="0" IVar="0" Cut="1.3900779724121094e+02" cType="1" res="5.1451779901981354e-02" rms="4.4860929250717163e-01" purity="5.8583456277847290e-01" nType="0">
          <Node pos="l" depth="2" NCoef="0" IVar="-1" Cut="0.0000000000000000e+00" cType="1" res="3.3896679524332285e-03" rms="4.4726955890655518e-01" purity="6.3855242729187012e-01" nType="-99"/>
          <Node pos="r" depth="2" NCoef="0" IVar="-1" Cut="0.0000000000000000e+00" cType="1" res="-6.2467122916132212e-04" rms="4.4476506114006042e-01" purity="4.6457773447036743e-01" nType="-99"/>
        </Node>
      </Node>
    </BinaryTree>
    <BinaryTree type="DecisionTree" boostWeight="1.0000000000000000e+00" itree="181">
      <Node pos="s" depth="0" NCoef="0" IVar="2" Cut="9.7091162204742432e-01" cType="1" res="5.7907388545572758e-03" rms="4.5637106895446777e-01" purity="5.0357824563980103e-01" nType="0">
        <Node pos="l" depth="1" NCoef="0" IVar="5" Cut="6.9857013225555420e-01" cType="1" res="-7.3333960026502609e-03" rms="4.6297606825828552e-01" purity="4.5337799191474915e-01" nType="0">
          <Node pos="l" depth="2" NCoef="0" IVar="-1" Cut="0.0000000000000000e+00" cType="1" res="1.0560820810496807e-03" rms="4.6596151590347290e-01" purity="5.4855555295944214e-01" nType="-99"/>
          <Node pos="r" depth="2" NCoef="0" IVar="-1" Cut="0.0000000000000000e+00" cType="1" res="-1.2965409550815821e-03" rms="4.5945459604263306e-01" purity="3.8824188709259033e-01" nType="-99"/>
        </Node>
        <Node pos="r" depth="1" NCoef="0" IVar="3" Cut="8.0231286585330963e-02" cType="1" res="5.6939475238323212e-02" rms="4.2581874132156372e-01" purity="6.9922387599945068e-01" nType="0">
          <Node pos="l" depth="2" NCoef="0" IVar="-1" Cut="0.0000000000000000e+00" cType="1" res="1.5819632681086659e-03" rms="4.3792033195495605e-01" purity="6.6332638263702393e-01" nType="-99"/>
          <Node pos="r" depth="2" NCoef="0" IVar="-1" Cut="0.0000000000000000e+00" cType="1" res="4.7636358067393303e-03" rms="3.8916143774986267e-01" purity="7.8911417722702026e-01" nType="-99"/>
        </Node>
      </Node>
    </BinaryTree>
    <BinaryTree type="DecisionTree" boostWeight="1.0000000000000000e+00" itree="182">
      <Node pos="s" depth="0" NCoef="0" IVar="4" Cut="1.0888506174087524e+00" cType="1" res="1.1791654396802187e-03" rms="4.5517426729202271e-01" purity="5.0066024065017700e-01" nType="0">
        <Node pos="l" depth="1" NCoef="0" IVar="0" Cut="5.4289386749267578e+01" cType="1" res="2.6629991829395294e-02" rms="4.6344086527824402e-01" purity="6.1916333436965942e-01" nType="0">
          <Node pos="l" depth="2" NCoef="0" IVar="-1" Cut="0.0000000000000000e+00" cType="1" res="-3.9378897054120898e-04" rms="4.8014396429061890e-01" purity="5.2219158411026001e-01" nType="-99"/>
          <Node pos="r" depth="2" NCoef="0" IVar="-1" Cut="0.0000000000000000e+00" cType="1" res="1.7080819234251976e-03" rms="4.5509228110313416e-01" purity="6.6118210554122925e-01" nType="-99"/>
        </Node>
        <Node pos="r" depth="1" NCoef="0" IVar="0" Cut="1.0200418090820312e+02" cType="1" res="-3.6793455481529236e-02" rms="4.3982410430908203e-01" purity="3.2385385036468506e-01" nType="0">
          <Node pos="l" depth="2" NCoef="0" IVar="-1" Cut="0.0000000000000000e+00" cType="1" res="-3.0588388908654451e-03" rms="4.2588901519775391e-01" purity="2.7341592311859131e-01" nType="-99"/>
          <Node pos="r" depth="2" NCoef="0" IVar="-1" Cut="0.0000000000000000e+00" cType="1" res="7.8918633516877890e-04" rms="4.6026429533958435e-01" purity="4.2025604844093323e-01" nType="-99"/>
        </Node>
      </Node>
    </BinaryTree>
    <BinaryTree type="DecisionTree" boostWeight="1.0000000000000000e+00" itree="183">
      <Node pos="s" depth="0" NCoef="0" IVar="6" Cut="6.9076619148254395e+00" cType="1" res="-4.6949069947004318e-03" rms="4.5399409532546997e-01" purity="4.9482434988021851e-01" nType="0">
        <Node pos="l" depth="1" NCoef="0" IVar="5" Cut="6.8214082717895508e-01" cType="1" res="-3.2621797174215317e-02" rms="4.5417234301567078e-01" purity="3.6731857061386108e-01" nType="0">
          <Node pos="l" depth="2" NCoef="0" IVar="-1" Cut="0.0000000000000000e+00" cType="1" res="1.1521306441863999e-04" rms="4.7973951697349548e-01" purity="4.6686831116676331e-01" nType="-99"/>
          <Node pos="r" depth="2" NCoef="0" IVar="-1" Cut="0.0000000000000000e+00" cType="1" res="-2.2986026015132666e-03" rms="4.3687298893928528e-01" purity="3.0808398127555847e-01" nType="-99"/>
        </Node>
        <Node pos="r" depth="1" NCoef="0" IVar="7" Cut="4.8056188225746155e-01" cType="1" res="2.4632710963487625e-02" rms="4.5195302367210388e-01" purity="6.2872546911239624e-01" nType="0">
          <Node pos="l" depth="2" NCoef="0" IVar="-1" Cut="0.0000000000000000e+00" cType="1" res="1.9222436822019517e-04" rms="4.5851719379425049e-01" purity="5.8396172523498535e-01" nType="-99"/>
          <Node pos="r" depth="2" NCoef="0" IVar="-1" Cut="0.0000000000000000e+00" cType="1" res="2.4358176160603762e-03" rms="4.3907797336578369e-01" purity="7.0165675878524780e-01" nType="-99"/>
        </Node>
      </Node>
    </BinaryTree>
    <BinaryTree type="DecisionTree" boostWeight="1.0000000000000000e+00" itree="184">
      <Node pos="s" depth="0" NCoef="0" IVar="2" Cut="9.7684466838836670e-01" cType="1" res="5.4207830689847469e-03" rms="4.5730999112129211e-01" purity="5.0562703609466553e-01" nType="0">
        <Node pos="l" depth="1" NCoef="0" IVar="0" Cut="7.8795509338378906e+01" cType="1" res="-4.5853215269744396e-03" rms="4.6349886059761047e-01" purity="4.7100979089736938e-01" nType="0">
          <Node pos="l" depth="2" NCoef="0" IVar="-1" Cut="0.0000000000000000e+00" cType="1" res="-1.2392019852995872e-03" rms="4.6218556165695190e-01" purity="4.2025673389434814e-01" nType="-99"/>
          <Node pos="r" depth="2" NCoef="0" IVar="-1" Cut="0.0000000000000000e+00" cType="1" res="1.0424563661217690e-03" rms="4.6315449476242065e-01" purity="5.2884018421173096e-01" nType="-99"/>
        </Node>
        <Node pos="r" depth="1" NCoef="0" IVar="1" Cut="2.0971012115478516e+00" cType="1" res="7.2119452059268951e-02" rms="4.0746721625328064e-01" purity="7.3637849092483521e-01" nType="0">
          <Node pos="l" depth="2" NCoef="0" IVar="-1" Cut="0.0000000000000000e+00" cType="1" res="4.6791043132543564e-03" rms="3.7608298659324646e-01" purity="8.1786292791366577e-01" nType="-99"/>
          <Node pos="r" depth="2" NCoef="0" IVar="-1" Cut="0.0000000000000000e+00" cType="1" res="1.9990934524685144e-03" rms="4.3193891644477844e-01" purity="6.6351759433746338e-01" nType="-99"/>
        </Node>
      </Node>
    </BinaryTree>
    <BinaryTree type="DecisionTree" boostWeight="1.0000000000000000e+00" itree="185">
      <Node pos="s" depth="0" NCoef="0" IVar="4" Cut="5.7749873399734497e-01" cType="1" res="-2.5823109317570925e-03" rms="4.5676514506340027e-01" purity="4.9346879124641418e-01" nType="0">
        <Node pos="l" depth="1" NCoef="0" IVar="0" Cut="7.0674156188964844e+01" cType="1" res="6.8442560732364655e-02" rms="4.4208097457885742e-01" purity="6.9802188873291016e-01" nType="0">
          <Node pos="l" depth="2" NCoef="0" IVar="-1" Cut="0.0000000000000000e+00" cType="1" res="1.5267955604940653e-03" rms="4.6764528751373291e-01" purity="6.3546591997146606e-01" nType="-99"/>
          <Node pos="r" depth="2" NCoef="0" IVar="-1" Cut="0.0000000000000000e+00" cType="1" res="4.1497359052300453e-03" rms="4.0849718451499939e-01" purity="7.6902121305465698e-01" nType="-99"/>
        </Node>
        <Node pos="r" depth="1" NCoef="0" IVar="6" Cut="8.9944257736206055e+00" cType="1" res="-1.2625437229871750e-02" rms="4.5791545510292053e-01" purity="4.6454438567161560e-01" nType="0">
          <Node pos="l" depth="2" NCoef="0" IVar="-1" Cut="0.0000000000000000e+00" cType="1" res="-8.2968105562031269e-04" rms="4.5988103747367859e-01" purity="4.4153156876564026e-01" nType="-99"/>
          <Node pos="r" depth="2" NCoef="0" IVar="-1" Cut="0.0000000000000000e+00" cType="1" res="3.1640783417969942e-03" rms="4.2628476023674011e-01" purity="7.2592967748641968e-01" nType="-99"/>
        </Node>
      </Node>
    </BinaryTree>
    <BinaryTree type="DecisionTree" boostWeight="1.0000000000000000e+00" itree="186">
      <Node pos="s" depth="0" NCoef="0" IVar="2" Cut="9.7511458396911621e-01" cType="1" res="1.0642264969646931e-03" rms="4.5399707555770874e-01" purity="5.0156337022781372e-01" nType="0">
        <Node pos="l" depth="1" NCoef="0" IVar="4" Cut="7.0334643125534058e-01" cType="1" res="-1.1684731580317020e-02" rms="4.5943996310234070e-01" purity="4.6046718955039978e-01" nType="0">
          <Node pos="l" depth="2" NCoef="0" IVar="-1" Cut="0.0000000000000000e+00" cType="1" res="1.6280626878142357e-03" rms="4.6468988060951233e-01" purity="6.5094059705734253e-01" nType="-99"/>
          <Node pos="r" depth="2" NCoef="0" IVar="-1" Cut="0.0000000000000000e+00" cType="1" res="-1.1274601565673947e-03" rms="4.5678454637527466e-01" purity="4.0647447109222412e-01" nType="-99"/>
        </Node>
        <Node pos="r" depth="1" NCoef="0" IVar="3" Cut="6.9839090108871460e-02" cType="1" res="7.1915455162525177e-02" rms="4.1540357470512390e-01" purity="7.2995197772979736e-01" nType="0">
          <Node pos="l" depth="2" NCoef="0" IVar="-1" Cut="0.0000000000000000e+00" cType="1" res="2.3634273093193769e-03" rms="4.3158707022666931e-01" purity="6.8908739089965820e-01" nType="-99"/>
          <Node pos="r" depth="2" NCoef="0" IVar="-1" Cut="0.0000000000000000e+00" cType="1" res="4.6700448729097843e-03" rms="3.8236749172210693e-01" purity="8.0301487445831299e-01" nType="-99"/>
        </Node>
      </Node>
    </BinaryTree>
    <BinaryTree type="DecisionTree" boostWeight="1.0000000000000000e+00" itree="187">
      <Node pos="s" depth="0" NCoef="0" IVar="0" Cut="7.6885787963867188e+01" cType="1" res="-4.6197377378121018e-04" rms="4.5439249277114868e-01" purity="5.0042253732681274e-01" nType="0">
        <Node pos="l" depth="1" NCoef="0" IVar="6" Cut="6.8227767944335938e+00" cType="1" res="-2.6260476559400558e-02" rms="4.5430108904838562e-01" purity="4.4811421632766724e-01" nType="0">
          <Node pos="l" depth="2" NCoef="0" IVar="-1" Cut="0.0000000000000000e+00" cType="1" res="-2.2284639999270439e-03" rms="4.4498145580291748e-01" purity="3.2471925020217896e-01" nType="-99"/>
          <Node pos="r" depth="2" NCoef="0" IVar="-1" Cut="0.0000000000000000e+00" cType="1" res="1.3528887939173728e-04" rms="4.6186304092407227e-01" purity="5.7537782192230225e-01" nType="-99"/>
        </Node>
        <Node pos="r" depth="1" NCoef="0" IVar="2" Cut="9.4107019901275635e-01" cType="1" res="2.7645384892821312e-02" rms="4.5282211899757385e-01" purity="5.5741220712661743e-01" nType="0">
          <Node pos="l" depth="2" NCoef="0" IVar="-1" Cut="0.0000000000000000e+00" cType="1" res="-4.2219765600748360e-04" rms="4.5837301015853882e-01" purity="3.8465738296508789e-01" nType="-99"/>
          <Node pos="r" depth="2" NCoef="0" IVar="-1" Cut="0.0000000000000000e+00" cType="1" res="1.9673143979161978e-03" rms="4.4888624548912048e-01" purity="6.4233201742172241e-01" nType="-99"/>
        </Node>
      </Node>
    </BinaryTree>
    <BinaryTree type="DecisionTree" boostWeight="1.0000000000000000e+00" itree="188">
      <Node pos="s" depth="0" NCoef="0" IVar="6" Cut="4.9219045639038086e+00" cType="1" res="-7.5212037190794945e-03" rms="4.5490452647209167e-01" purity="4.9217936396598816e-01" nType="0">
        <Node pos="l" depth="1" NCoef="0" IVar="-1" Cut="0.0000000000000000e+00" cType="1" res="-5.0592240877449512e-03" rms="3.8824090361595154e-01" purity="1.9381354749202728e-01" nType="-99"/>
        <Node pos="r" depth="1" NCoef="0" IVar="0" Cut="5.6950462341308594e+01" cType="1" res="-3.2970093889161944e-04" rms="4.5805415511131287e-01" purity="5.1187640428543091e-01" nType="0">
          <Node pos="l" depth="2" NCoef="0" IVar="-1" Cut="0.0000000000000000e+00" cType="1" res="-1.7967537278309464e-03" rms="4.6190086007118225e-01" purity="4.2917257547378540e-01" nType="-99"/>
          <Node pos="r" depth="2" NCoef="0" IVar="-1" Cut="0.0000000000000000e+00" cType="1" res="7.7898486051708460e-04" rms="4.5499813556671143e-01" purity="5.4842674732208252e-01" nType="-99"/>
        </Node>
      </Node>
    </BinaryTree>
    <BinaryTree type="DecisionTree" boostWeight="1.0000000000000000e+00" itree="189">
      <Node pos="s" depth="0" NCoef="0" IVar="5" Cut="9.7722584009170532e-01" cType="1" res="5.0060823559761047e-03" rms="4.5426237583160400e-01" purity="5.0428527593612671e-01" nType="0">
        <Node pos="l" depth="1" NCoef="0" IVar="1" Cut="2.1998596191406250e+00" cType="1" res="2.0352654159069061e-02" rms="4.5716223120689392e-01" purity="5.4405909776687622e-01" nType="0">
          <Node pos="l" depth="2" NCoef="0" IVar="-1" Cut="0.0000000000000000e+00" cType="1" res="1.6011144034564495e-03" rms="4.5813333988189697e-01" purity="6.2297475337982178e-01" nType="-99"/>
          <Node pos="r" depth="2" NCoef="0" IVar="-1" Cut="0.0000000000000000e+00" cType="1" res="-5.4566300241276622e-04" rms="4.5366585254669189e-01" purity="4.1676181554794312e-01" nType="-99"/>
        </Node>
        <Node pos="r" depth="1" NCoef="0" IVar="7" Cut="2.7165347337722778e-01" cType="1" res="-4.4718068093061447e-02" rms="4.4108408689498901e-01" purity="3.7541475892066956e-01" nType="0">
          <Node pos="l" depth="2" NCoef="0" IVar="-1" Cut="0.0000000000000000e+00" cType="1" res="-3.7124904338270426e-03" rms="4.0692803263664246e-01" purity="2.8690668940544128e-01" nType="-99"/>
          <Node pos="r" depth="2" NCoef="0" IVar="-1" Cut="0.0000000000000000e+00" cType="1" res="-8.7539374362677336e-04" rms="4.6163040399551392e-01" purity="4.3628957867622375e-01" nType="-99"/>
        </Node>
      </Node>
    </BinaryTree>
    <BinaryTree type="DecisionTree" boostWeight="1.0000000000000000e+00" itree="190">
      <Node pos="s" depth="0" NCoef="0" IVar="2" Cut="9.6110427379608154e-01" cType="1" res="6.1783138662576675e-03" rms="4.5593577623367310e-01" purity="5.1109969615936279e-01" nType="0">
        <Node pos="l" depth="1" NCoef="0" IVar="1" Cut="2.1133592128753662e+00" cType="1" res="-1.2743008323013783e-02" rms="4.6412625908851624e-01" purity="4.2847070097923279e-01" nType="0">
          <Node pos="l" depth="2" NCoef="0" IVar="-1" Cut="0.0000000000000000e+00" cType="1" res="6.0231680981814861e-04" rms="4.7697016596794128e-01" purity="5.2824056148529053e-01" nType="-99"/>
          <Node pos="r" depth="2" NCoef="0" IVar="-1" Cut="0.0000000000000000e+00" cType="1" res="-1.5915357507765293e-03" rms="4.5190310478210449e-01" purity="3.4652093052864075e-01" nType="-99"/>
        </Node>
        <Node pos="r" depth="1" NCoef="0" IVar="3" Cut="-5.7352531701326370e-02" cType="1" res="4.1564967483282089e-02" rms="4.3802085518836975e-01" purity="6.6563248634338379e-01" nType="0">
          <Node pos="l" depth="2" NCoef="0" IVar="-1" Cut="0.0000000000000000e+00" cType="1" res="-4.2260621557943523e-04" rms="4.5759636163711548e-01" purity="5.7388305664062500e-01" nType="-99"/>
          <Node pos="r" depth="2" NCoef="0" IVar="-1" Cut="0.0000000000000000e+00" cType="1" res="2.8310671914368868e-03" rms="4.2643332481384277e-01" purity="7.0857888460159302e-01" nType="-99"/>
        </Node>
      </Node>
    </BinaryTree>
    <BinaryTree type="DecisionTree" boostWeight="1.0000000000000000e+00" itree="191">
      <Node pos="s" depth="0" NCoef="0" IVar="1" Cut="2.4897186756134033e+00" cType="1" res="1.2541503645479679e-02" rms="4.5659327507019043e-01" purity="5.1417452096939087e-01" nType="0">
        <Node pos="l" depth="1" NCoef="0" IVar="0" Cut="4.3675300598144531e+01" cType="1" res="2.4415593594312668e-02" rms="4.6430945396423340e-01" purity="5.6491506099700928e-01" nType="0">
          <Node pos="l" depth="2" NCoef="0" IVar="-1" Cut="0.0000000000000000e+00" cType="1" res="-1.4579156413674355e-03" rms="4.6178379654884338e-01" purity="4.1605785489082336e-01" nType="-99"/>
          <Node pos="r" depth="2" NCoef="0" IVar="-1" Cut="0.0000000000000000e+00" cType="1" res="1.4248893130570650e-03" rms="4.6387922763824463e-01" purity="5.9417402744293213e-01" nType="-99"/>
        </Node>
        <Node pos="r" depth="1" NCoef="0" IVar="0" Cut="7.6765792846679688e+01" cType="1" res="-5.3064402192831039e-02" rms="4.0513399243354797e-01" purity="2.3382627964019775e-01" nType="0">
          <Node pos="l" depth="2" NCoef="0" IVar="-1" Cut="0.0000000000000000e+00" cType="1" res="-5.8102863840758801e-03" rms="3.3075952529907227e-01" purity="1.4485447108745575e-01" nType="-99"/>
          <Node pos="r" depth="2" NCoef="0" IVar="-1" Cut="0.0000000000000000e+00" cType="1" res="-1.3218468520790339e-03" rms="4.3925875425338745e-01" purity="2.8360265493392944e-01" nType="-99"/>
        </Node>
      </Node>
    </BinaryTree>
    <BinaryTree type="DecisionTree" boostWeight="1.0000000000000000e+00" itree="192">
      <Node pos="s" depth="0" NCoef="0" IVar="1" Cut="2.2222690582275391e+00" cType="1" res="-6.5381388412788510e-04" rms="4.5277342200279236e-01" purity="5.0096768140792847e-01" nType="0">
        <Node pos="l" depth="1" NCoef="0" IVar="7" Cut="5.9745281934738159e-01" cType="1" res="2.8970301151275635e-02" rms="4.5705816149711609e-01" purity="5.9744566679000854e-01" nType="0">
          <Node pos="l" depth="2" NCoef="0" IVar="-1" Cut="0.0000000000000000e+00" cType="1" res="4.5425555435940623e-04" rms="4.5985373854637146e-01" purity="5.7419407367706299e-01" nType="-99"/>
          <Node pos="r" depth="2" NCoef="0" IVar="-1" Cut="0.0000000000000000e+00" cType="1" res="3.5045172553509474e-03" rms="4.4155746698379517e-01" purity="6.7890876531600952e-01" nType="-99"/>
        </Node>
        <Node pos="r" depth="1" NCoef="0" IVar="7" Cut="3.4383690357208252e-01" cType="1" res="-4.5163605362176895e-02" rms="4.4254583120346069e-01" purity="3.5601088404655457e-01" nType="0">
          <Node pos="l" depth="2" NCoef="0" IVar="-1" Cut="0.0000000000000000e+00" cType="1" res="-3.3765968400985003e-03" rms="4.2006307840347290e-01" purity="2.9013225436210632e-01" nType="-99"/>
          <Node pos="r" depth="2" NCoef="0" IVar="-1" Cut="0.0000000000000000e+00" cType="1" res="-7.2500790702179074e-04" rms="4.6273362636566162e-01" purity="4.2333674430847168e-01" nType="-99"/>
        </Node>
      </Node>
    </BinaryTree>
    <BinaryTree type="DecisionTree" boostWeight="1.0000000000000000e+00" itree="193">
      <Node pos="s" depth="0" NCoef="0" IVar="1" Cut="2.1998596191406250e+00" cType="1" res="5.4799171630293131e-04" rms="4.5042347908020020e-01" purity="4.9917700886726379e-01" nType="0">
        <Node pos="l" depth="1" NCoef="0" IVar="0" Cut="4.3735115051269531e+01" cType="1" res="3.6612503230571747e-02" rms="4.5761707425117493e-01" purity="6.0664182901382446e-01" nType="0">
          <Node pos="l" depth="2" NCoef="0" IVar="-1" Cut="0.0000000000000000e+00" cType="1" res="-1.1482038535177708e-03" rms="4.7214993834495544e-01" purity="4.4362989068031311e-01" nType="-99"/>
          <Node pos="r" depth="2" NCoef="0" IVar="-1" Cut="0.0000000000000000e+00" cType="1" res="2.0596771501004696e-03" rms="4.5272785425186157e-01" purity="6.4530062675476074e-01" nType="-99"/>
        </Node>
        <Node pos="r" depth="1" NCoef="0" IVar="0" Cut="8.2328002929687500e+01" cType="1" res="-4.7242902219295502e-02" rms="4.3613967299461365e-01" purity="3.5677006840705872e-01" nType="0">
          <Node pos="l" depth="2" NCoef="0" IVar="-1" Cut="0.0000000000000000e+00" cType="1" res="-3.8299092557281256e-03" rms="4.1618603467941284e-01" purity="2.8313612937927246e-01" nType="-99"/>
          <Node pos="r" depth="2" NCoef="0" IVar="-1" Cut="0.0000000000000000e+00" cType="1" res="-7.4742641299962997e-04" rms="4.5050302147865295e-01" purity="4.2028677463531494e-01" nType="-99"/>
        </Node>
      </Node>
    </BinaryTree>
    <BinaryTree type="DecisionTree" boostWeight="1.0000000000000000e+00" itree="194">
      <Node pos="s" depth="0" NCoef="0" IVar="5" Cut="4.3710011243820190e-01" cType="1" res="-7.4100252240896225e-03" rms="4.5581579208374023e-01" purity="4.8741203546524048e-01" nType="0">
        <Node pos="l" depth="1" NCoef="0" IVar="5" Cut="3.4091237187385559e-01" cType="1" res="-6.9459691643714905e-02" rms="4.6687132120132446e-01" purity="5.2204990386962891e-01" nType="0">
          <Node pos="l" depth="2" NCoef="0" IVar="-1" Cut="0.0000000000000000e+00" cType="1" res="-2.4210603442043066e-04" rms="4.6529752016067505e-01" purity="5.9428060054779053e-01" nType="-99"/>
          <Node pos="r" depth="2" NCoef="0" IVar="-1" Cut="0.0000000000000000e+00" cType="1" res="-5.5441306903958321e-03" rms="4.6013769507408142e-01" purity="4.5194444060325623e-01" nType="-99"/>
        </Node>
        <Node pos="r" depth="1" NCoef="0" IVar="6" Cut="5.8582835197448730e+00" cType="1" res="7.3712016455829144e-04" rms="4.5371440052986145e-01" purity="4.8286408185958862e-01" nType="0">
          <Node pos="l" depth="2" NCoef="0" IVar="-1" Cut="0.0000000000000000e+00" cType="1" res="-1.7996409442275763e-03" rms="4.3067485094070435e-01" purity="2.9019910097122192e-01" nType="-99"/>
          <Node pos="r" depth="2" NCoef="0" IVar="-1" Cut="0.0000000000000000e+00" cType="1" res="6.4204522641375661e-04" rms="4.6063557267189026e-01" purity="5.5067497491836548e-01" nType="-99"/>
        </Node>
      </Node>
    </BinaryTree>
    <BinaryTree type="DecisionTree" boostWeight="1.0000000000000000e+00" itree="195">
      <Node pos="s" depth="0" NCoef="0" IVar="6" Cut="5.0412659645080566e+00" cType="1" res="-1.0803979821503162e-03" rms="4.5446348190307617e-01" purity="4.9971500039100647e-01" nType="0">
        <Node pos="l" depth="1" NCoef="0" IVar="-1" Cut="0.0000000000000000e+00" cType="1" res="-4.2410879395902157e-03" rms="3.9626586437225342e-01" purity="2.0768946409225464e-01" nType="-99"/>
        <Node pos="r" depth="1" NCoef="0" IVar="3" Cut="7.7764920890331268e-02" cType="1" res="6.8671498447656631e-03" rms="4.5819905400276184e-01" purity="5.2457320690155029e-01" nType="0">
          <Node pos="l" depth="2" NCoef="0" IVar="-1" Cut="0.0000000000000000e+00" cType="1" res="-4.6309109893627465e-04" rms="4.5943441987037659e-01" purity="4.8653730750083923e-01" nType="-99"/>
          <Node pos="r" depth="2" NCoef="0" IVar="-1" Cut="0.0000000000000000e+00" cType="1" res="1.9458582391962409e-03" rms="4.5246791839599609e-01" purity="6.1401152610778809e-01" nType="-99"/>
        </Node>
      </Node>
    </BinaryTree>
    <BinaryTree type="DecisionTree" boostWeight="1.0000000000000000e+00" itree="196">
      <Node pos="s" depth="0" NCoef="0" IVar="0" Cut="9.9519241333007812e+01" cType="1" res="2.4804850108921528e-03" rms="4.5581352710723877e-01" purity="5.0050306320190430e-01" nType="0">
        <Node pos="l" depth="1" NCoef="0" IVar="6" Cut="8.5129060745239258e+00" cType="1" res="-1.8221238628029823e-02" rms="4.5805045962333679e-01" purity="4.6673476696014404e-01" nType="0">
          <Node pos="l" depth="2" NCoef="0" IVar="-1" Cut="0.0000000000000000e+00" cType="1" res="-1.2103222543373704e-03" rms="4.6143794059753418e-01" purity="4.3046104907989502e-01" nType="-99"/>
          <Node pos="r" depth="2" NCoef="0" IVar="-1" Cut="0.0000000000000000e+00" cType="1" res="2.5777518749237061e-03" rms="4.2722919583320618e-01" purity="7.0451372861862183e-01" nType="-99"/>
        </Node>
        <Node pos="r" depth="1" NCoef="0" IVar="1" Cut="2.5825655460357666e+00" cType="1" res="5.1539007574319839e-02" rms="4.4665336608886719e-01" purity="5.8052629232406616e-01" nType="0">
          <Node pos="l" depth="2" NCoef="0" IVar="-1" Cut="0.0000000000000000e+00" cType="1" res="2.9591971542686224e-03" rms="4.4566136598587036e-01" purity="6.5564310550689697e-01" nType="-99"/>
          <Node pos="r" depth="2" NCoef="0" IVar="-1" Cut="0.0000000000000000e+00" cType="1" res="-1.7598479753360152e-03" rms="4.4042447209358215e-01" purity="2.5314182043075562e-01" nType="-99"/>
        </Node>
      </Node>
    </BinaryTree>
    <BinaryTree type="DecisionTree" boostWeight="1.0000000000000000e+00" itree="197">
      <Node pos="s" depth="0" NCoef="0" IVar="4" Cut="1.6705031394958496e+00" cType="1" res="7.8610144555568695e-03" rms="4.5239827036857605e-01" purity="5.0785052776336670e-01" nType="0">
        <Node pos="l" depth="1" NCoef="0" IVar="4" Cut="5.4186654090881348e-01" cType="1" res="1.6059542074799538e-02" rms="4.5885765552520752e-01" purity="5.3513598442077637e-01" nType="0">
          <Node pos="l" depth="2" NCoef="0" IVar="-1" Cut="0.0000000000000000e+00" cType="1" res="3.8061963859945536e-03" rms="4.1168847680091858e-01" purity="7.3552632331848145e-01" nType="-99"/>
          <Node pos="r" depth="2" NCoef="0" IVar="-1" Cut="0.0000000000000000e+00" cType="1" res="2.8032533009536564e-04" rms="4.6327072381973267e-01" purity="5.1135802268981934e-01" nType="-99"/>
        </Node>
        <Node pos="r" depth="1" NCoef="0" IVar="-1" Cut="0.0000000000000000e+00" cType="1" res="-5.7707191444933414e-03" rms="3.3852356672286987e-01" purity="1.4849491417407990e-01" nType="-99"/>
      </Node>
    </BinaryTree>
    <BinaryTree type="DecisionTree" boostWeight="1.0000000000000000e+00" itree="198">
      <Node pos="s" depth="0" NCoef="0" IVar="0" Cut="9.6187973022460938e+01" cType="1" res="1.6228379681706429e-03" rms="4.4993254542350769e-01" purity="5.0351673364639282e-01" nType="0">
        <Node pos="l" depth="1" NCoef="0" IVar="4" Cut="8.1419420242309570e-01" cType="1" res="-2.0807754248380661e-02" rms="4.5074659585952759e-01" purity="4.6372872591018677e-01" nType="0">
          <Node pos="l" depth="2" NCoef="0" IVar="-1" Cut="0.0000000000000000e+00" cType="1" res="1.0968969436362386e-03" rms="4.6083673834800720e-01" purity="6.2851691246032715e-01" nType="-99"/>
          <Node pos="r" depth="2" NCoef="0" IVar="-1" Cut="0.0000000000000000e+00" cType="1" res="-2.1369135938584805e-03" rms="4.4224417209625244e-01" purity="3.6829194426536560e-01" nType="-99"/>
        </Node>
        <Node pos="r" depth="1" NCoef="0" IVar="0" Cut="1.4803579711914062e+02" cType="1" res="5.0232518464326859e-02" rms="4.4429400563240051e-01" purity="5.8974182605743408e-01" nType="0">
          <Node pos="l" depth="2" NCoef="0" IVar="-1" Cut="0.0000000000000000e+00" cType="1" res="3.0549911316484213e-03" rms="4.3980315327644348e-01" purity="6.2075686454772949e-01" nType="-99"/>
          <Node pos="r" depth="2" NCoef="0" IVar="-1" Cut="0.0000000000000000e+00" cType="1" res="-1.7029355512931943e-03" rms="4.5137059688568115e-01" purity="4.6273931860923767e-01" nType="-99"/>
        </Node>
      </Node>
    </BinaryTree>
    <BinaryTree type="DecisionTree" boostWeight="1.0000000000000000e+00" itree="199">
      <Node pos="s" depth="0" NCoef="0" IVar="0" Cut="7.9635765075683594e+01" cType="1" res="1.4645786723122001e-03" rms="4.5563974976539612e-01" purity="5.0210469961166382e-01" nType="0">
        <Node pos="l" depth="1" NCoef="0" IVar="7" Cut="4.8485964536666870e-01" cType="1" res="-2.2642988711595535e-02" rms="4.5697534084320068e-01" purity="4.5354390144348145e-01" nType="0">
          <Node pos="l" depth="2" NCoef="0" IVar="-1" Cut="0.0000000000000000e+00" cType="1" res="-2.1809181198477745e-03" rms="4.5047211647033691e-01" purity="3.9624959230422974e-01" nType="-99"/>
          <Node pos="r" depth="2" NCoef="0" IVar="-1" Cut="0.0000000000000000e+00" cType="1" res="8.8242074707522988e-04" rms="4.6371072530746460e-01" purity="5.4538637399673462e-01" nType="-99"/>
        </Node>
        <Node pos="r" depth="1" NCoef="0" IVar="4" Cut="6.3684219121932983e-01" cType="1" res="3.0526436865329742e-02" rms="4.5231959223747253e-01" purity="5.6064522266387939e-01" nType="0">
          <Node pos="l" depth="2" NCoef="0" IVar="-1" Cut="0.0000000000000000e+00" cType="1" res="4.4436566531658173e-03" rms="4.1220876574516296e-01" purity="7.9329222440719604e-01" nType="-99"/>
          <Node pos="r" depth="2" NCoef="0" IVar="-1" Cut="0.0000000000000000e+00" cType="1" res="7.9959601862356067e-04" rms="4.5713019371032715e-01" purity="5.2438127994537354e-01" nType="-99"/>
        </Node>
      </Node>
    </BinaryTree>
    <BinaryTree type="DecisionTree" boostWeight="1.0000000000000000e+00" itree="200">
      <Node pos="s" depth="0" NCoef="0" IVar="4" Cut="5.5224120616912842e-01" cType="1" res="-2.9038749635219574e-03" rms="4.5822995901107788e-01" purity="4.9688884615898132e-01" nType="0">
        <Node pos="l" depth="1" NCoef="0" IVar="-1" Cut="0.0000000000000000e+00" cType="1" res="2.6487244758754969e-03" rms="4.4708254933357239e-01" purity="6.9824808835983276e-01" nType="-99"/>
        <Node pos="r" depth="1" NCoef="0" IVar="7" Cut="2.4246260523796082e-01" cType="1" res="-1.1296685785055161e-02" rms="4.5884838700294495e-01" purity="4.7254315018653870e-01" nType="0">
          <Node pos="l" depth="2" NCoef="0" IVar="-1" Cut="0.0000000000000000e+00" cType="1" res="-2.2425062488764524e-03" rms="4.3370527029037476e-01" purity="3.5655248165130615e-01" nType="-99"/>
          <Node pos="r" depth="2" NCoef="0" IVar="-1" Cut="0.0000000000000000e+00" cType="1" res="8.1846446846611798e-05" rms="4.6595150232315063e-01" purity="5.1020383834838867e-01" nType="-99"/>
        </Node>
      </Node>
    </BinaryTree>
    <BinaryTree type="DecisionTree" boostWeight="1.0000000000000000e+00" itree="201">
      <Node pos="s" depth="0" NCoef="0" IVar="3" Cut="1.0281448811292648e-01" cType="1" res="-9.7794015891849995e-04" rms="4.5526501536369324e-01" purity="4.9570825695991516e-01" nType="0">
        <Node pos="l" depth="1" NCoef="0" IVar="0" Cut="8.0522918701171875e+01" cType="1" res="-1.9743390381336212e-02" rms="4.5424112677574158e-01" purity="4.5868623256683350e-01" nType="0">
          <Node pos="l" depth="2" NCoef="0" IVar="-1" Cut="0.0000000000000000e+00" cType="1" res="-1.9675802905112505e-03" rms="4.5391580462455750e-01" purity="4.0819510817527771e-01" nType="-99"/>
          <Node pos="r" depth="2" NCoef="0" IVar="-1" Cut="0.0000000000000000e+00" cType="1" res="5.1303068175911903e-04" rms="4.5256391167640686e-01" purity="5.1863294839859009e-01" nType="-99"/>
        </Node>
        <Node pos="r" depth="1" NCoef="0" IVar="1" Cut="2.1309080123901367e+00" cType="1" res="5.4494682699441910e-02" rms="4.5376297831535339e-01" purity="6.0514903068542480e-01" nType="0">
          <Node pos="l" depth="2" NCoef="0" IVar="-1" Cut="0.0000000000000000e+00" cType="1" res="3.2079254742711782e-03" rms="4.4641515612602234e-01" purity="6.7341583967208862e-01" nType="-99"/>
          <Node pos="r" depth="2" NCoef="0" IVar="-1" Cut="0.0000000000000000e+00" cType="1" res="4.7744477342348546e-05" rms="4.5995762944221497e-01" purity="4.9855941534042358e-01" nType="-99"/>
        </Node>
      </Node>
    </BinaryTree>
    <BinaryTree type="DecisionTree" boostWeight="1.0000000000000000e+00" itree="202">
      <Node pos="s" depth="0" NCoef="0" IVar="3" Cut="1.2777832150459290e-01" cType="1" res="-9.1844070702791214e-03" rms="4.5574167370796204e-01" purity="4.8829704523086548e-01" nType="0">
        <Node pos="l" depth="1" NCoef="0" IVar="1" Cut="2.5574836730957031e+00" cType="1" res="-2.2957926616072655e-02" rms="4.5508512854576111e-01" purity="4.6015626192092896e-01" nType="0">
          <Node pos="l" depth="2" NCoef="0" IVar="-1" Cut="0.0000000000000000e+00" cType="1" res="-4.9864465836435556e-04" rms="4.6699219942092896e-01" purity="5.0744378566741943e-01" nType="-99"/>
          <Node pos="r" depth="2" NCoef="0" IVar="-1" Cut="0.0000000000000000e+00" cType="1" res="-4.7704265452921391e-03" rms="3.6838507652282715e-01" purity="1.7357446253299713e-01" nType="-99"/>
        </Node>
        <Node pos="r" depth="1" NCoef="0" IVar="0" Cut="7.2364234924316406e+01" cType="1" res="4.7210201621055603e-02" rms="4.5408350229263306e-01" purity="6.0351741313934326e-01" nType="0">
          <Node pos="l" depth="2" NCoef="0" IVar="-1" Cut="0.0000000000000000e+00" cType="1" res="2.4059957650024444e-04" rms="4.6977859735488892e-01" purity="5.2384895086288452e-01" nType="-99"/>
          <Node pos="r" depth="2" NCoef="0" IVar="-1" Cut="0.0000000000000000e+00" cType="1" res="3.8624999579042196e-03" rms="4.3073385953903198e-01" purity="6.9422769546508789e-01" nType="-99"/>
        </Node>
      </Node>
    </BinaryTree>
    <BinaryTree type="DecisionTree" boostWeight="1.0000000000000000e+00" itree="203">
      <Node pos="s" depth="0" NCoef="0" IVar="3" Cut="1.1988271027803421e-01" cType="1" res="-1.0493404231965542e-02" rms="4.5176786184310913e-01" purity="4.8837926983833313e-01" nType="0">
        <Node pos="l" depth="1" NCoef="0" IVar="0" Cut="8.7899024963378906e+01" cType="1" res="-2.7675382792949677e-02" rms="4.5366561412811279e-01" purity="4.5579507946968079e-01" nType="0">
          <Node pos="l" depth="2" NCoef="0" IVar="-1" Cut="0.0000000000000000e+00" cType="1" res="-2.1130018867552280e-03" rms="4.5291325449943542e-01" purity="4.1193738579750061e-01" nType="-99"/>
          <Node pos="r" depth="2" NCoef="0" IVar="-1" Cut="0.0000000000000000e+00" cType="1" res="2.2442755289375782e-04" rms="4.5272961258888245e-01" purity="5.1943635940551758e-01" nType="-99"/>
        </Node>
        <Node pos="r" depth="1" NCoef="0" IVar="7" Cut="3.1447729468345642e-01" cType="1" res="5.1315512508153915e-02" rms="4.3935245275497437e-01" purity="6.0559469461441040e-01" nType="0">
          <Node pos="l" depth="2" NCoef="0" IVar="-1" Cut="0.0000000000000000e+00" cType="1" res="-4.4616349623538554e-04" rms="4.4936278462409973e-01" purity="5.0143641233444214e-01" nType="-99"/>
          <Node pos="r" depth="2" NCoef="0" IVar="-1" Cut="0.0000000000000000e+00" cType="1" res="4.2677372694015503e-03" rms="4.2232930660247803e-01" purity="6.9967800378799438e-01" nType="-99"/>
        </Node>
      </Node>
    </BinaryTree>
    <BinaryTree type="DecisionTree" boostWeight="1.0000000000000000e+00" itree="204">
      <Node pos="s" depth="0" NCoef="0" IVar="6" Cut="5.2928695678710938e+00" cType="1" res="-6.4216018654406071e-03" rms="4.5130050182342529e-01" purity="4.9448183178901672e-01" nType="0">
        <Node pos="l" depth="1" NCoef="0" IVar="2" Cut="9.1001045703887939e-01" cType="1" res="-9.0604819357395172e-02" rms="4.0999889373779297e-01" purity="2.2960294783115387e-01" nType="0">
          <Node pos="l" depth="2" NCoef="0" IVar="-1" Cut="0.0000000000000000e+00" cType="1" res="-5.2678282372653484e-03" rms="3.8619634509086609e-01" purity="1.9686321914196014e-01" nType="-99"/>
          <Node pos="r" depth="2" NCoef="0" IVar="-1" Cut="0.0000000000000000e+00" cType="1" res="-2.8071689885109663e-03" rms="4.2580693960189819e-01" purity="2.5524830818176270e-01" nType="-99"/>
        </Node>
        <Node pos="r" depth="1" NCoef="0" IVar="3" Cut="-6.7867740988731384e-02" cType="1" res="5.1788664422929287e-03" rms="4.5548102259635925e-01" purity="5.3098219633102417e-01" nType="0">
          <Node pos="l" depth="2" NCoef="0" IVar="-1" Cut="0.0000000000000000e+00" cType="1" res="-1.8224498489871621e-03" rms="4.4688248634338379e-01" purity="4.2367288470268250e-01" nType="-99"/>
          <Node pos="r" depth="2" NCoef="0" IVar="-1" Cut="0.0000000000000000e+00" cType="1" res="9.0443919179961085e-04" rms="4.5736050605773926e-01" purity="5.6982392072677612e-01" nType="-99"/>
        </Node>
      </Node>
    </BinaryTree>
    <BinaryTree type="DecisionTree" boostWeight="1.0000000000000000e+00" itree="205">
      <Node pos="s" depth="0" NCoef="0" IVar="6" Cut="7.9402499198913574e+00" cType="1" res="1.5551100485026836e-02" rms="4.5574837923049927e-01" purity="5.1115399599075317e-01" nType="0">
        <Node pos="l" depth="1" NCoef="0" IVar="6" Cut="7.5015406608581543e+00" cType="1" res="1.8329710001125932e-03" rms="4.6347492933273315e-01" purity="4.4867190718650818e-01" nType="0">
          <Node pos="l" depth="2" NCoef="0" IVar="-1" Cut="0.0000000000000000e+00" cType="1" res="4.5646500075235963e-04" rms="4.6220216155052185e-01" purity="4.3900656700134277e-01" nType="-99"/>
          <Node pos="r" depth="2" NCoef="0" IVar="-1" Cut="0.0000000000000000e+00" cType="1" res="-2.6939674280583858e-03" rms="4.6696528792381287e-01" purity="5.1699012517929077e-01" nType="-99"/>
        </Node>
        <Node pos="r" depth="1" NCoef="0" IVar="3" Cut="-4.5412216335535049e-02" cType="1" res="5.7237122207880020e-02" rms="4.2873579263687134e-01" purity="7.0102161169052124e-01" nType="0">
          <Node pos="l" depth="2" NCoef="0" IVar="-1" Cut="0.0000000000000000e+00" cType="1" res="5.7852867757901549e-04" rms="4.4573998451232910e-01" purity="6.1859476566314697e-01" nType="-99"/>
          <Node pos="r" depth="2" NCoef="0" IVar="-1" Cut="0.0000000000000000e+00" cType="1" res="3.5046683624386787e-03" rms="4.1766923666000366e-01" purity="7.4439370632171631e-01" nType="-99"/>
        </Node>
      </Node>
    </BinaryTree>
    <BinaryTree type="DecisionTree" boostWeight="1.0000000000000000e+00" itree="206">
      <Node pos="s" depth="0" NCoef="0" IVar="0" Cut="3.9723808288574219e+01" cType="1" res="3.4924815408885479e-03" rms="4.5544838905334473e-01" purity="5.0486493110656738e-01" nType="0">
        <Node pos="l" depth="1" NCoef="0" IVar="7" Cut="4.0303522348403931e-01" cType="1" res="-7.7702164649963379e-02" rms="4.4608303904533386e-01" purity="3.4337782859802246e-01" nType="0">
          <Node pos="l" depth="2" NCoef="0" IVar="-1" Cut="0.0000000000000000e+00" cType="1" res="-6.4968988299369812e-03" rms="3.9540544152259827e-01" purity="2.3843555152416229e-01" nType="-99"/>
          <Node pos="r" depth="2" NCoef="0" IVar="-1" Cut="0.0000000000000000e+00" cType="1" res="-7.1146799018606544e-04" rms="4.7860419750213623e-01" purity="4.3637087941169739e-01" nType="-99"/>
        </Node>
        <Node pos="r" depth="1" NCoef="0" IVar="4" Cut="1.6548590660095215e+00" cType="1" res="1.3345347717404366e-02" rms="4.5558834075927734e-01" purity="5.2446120977401733e-01" nType="0">
          <Node pos="l" depth="2" NCoef="0" IVar="-1" Cut="0.0000000000000000e+00" cType="1" res="8.2186027429997921e-04" rms="4.6178442239761353e-01" purity="5.5180370807647705e-01" nType="-99"/>
          <Node pos="r" depth="2" NCoef="0" IVar="-1" Cut="0.0000000000000000e+00" cType="1" res="-4.5219352468848228e-03" rms="3.5083067417144775e-01" purity="1.6146226227283478e-01" nType="-99"/>
        </Node>
      </Node>
    </BinaryTree>
    <BinaryTree type="DecisionTree" boostWeight="1.0000000000000000e+00" itree="207">
      <Node pos="s" depth="0" NCoef="0" IVar="1" Cut="1.8064922094345093e+00" cType="1" res="2.1699499338865280e-03" rms="4.5578658580780029e-01" purity="5.0045365095138550e-01" nType="0">
        <Node pos="l" depth="1" NCoef="0" IVar="-1" Cut="0.0000000000000000e+00" cType="1" res="-2.8537763282656670e-03" rms="4.6166956424713135e-01" purity="4.7325068712234497e-01" nType="-99"/>
        <Node pos="r" depth="1" NCoef="0" IVar="6" Cut="4.9987874031066895e+00" cType="1" res="9.8022567108273506e-03" rms="4.5448490977287292e-01" purity="5.0302094221115112e-01" nType="0">
          <Node pos="l" depth="2" NCoef="0" IVar="-1" Cut="0.0000000000000000e+00" cType="1" res="-3.6019943654537201e-03" rms="4.0156400203704834e-01" purity="2.1272033452987671e-01" nType="-99"/>
          <Node pos="r" depth="2" NCoef="0" IVar="-1" Cut="0.0000000000000000e+00" cType="1" res="7.1683450369164348e-04" rms="4.5769479870796204e-01" purity="5.2631241083145142e-01" nType="-99"/>
        </Node>
      </Node>
    </BinaryTree>
    <BinaryTree type="DecisionTree" boostWeight="1.0000000000000000e+00" itree="208">
      <Node pos="s" depth="0" NCoef="0" IVar="3" Cut="1.4903424680233002e-01" cType="1" res="-1.6731022624298930e-03" rms="4.5581433176994324e-01" purity="4.9483540654182434e-01" nType="0">
        <Node pos="l" depth="1" NCoef="0" IVar="1" Cut="2.1053669452667236e+00" cType="1" res="-1.3936164788901806e-02" rms="4.5452654361724854e-01" purity="4.6910879015922546e-01" nType="0">
          <Node pos="l" depth="2" NCoef="0" IVar="-1" Cut="0.0000000000000000e+00" cType="1" res="6.6291529219597578e-04" rms="4.6277952194213867e-01" purity="5.8518362045288086e-01" nType="-99"/>
          <Node pos="r" depth="2" NCoef="0" IVar="-1" Cut="0.0000000000000000e+00" cType="1" res="-1.4799537602812052e-03" rms="4.4808214902877808e-01" purity="3.9487862586975098e-01" nType="-99"/>
        </Node>
        <Node pos="r" depth="1" NCoef="0" IVar="7" Cut="3.9316290616989136e-01" cType="1" res="5.6132458150386810e-02" rms="4.5743027329444885e-01" purity="6.1610549688339233e-01" nType="0">
          <Node pos="l" depth="2" NCoef="0" IVar="-1" Cut="0.0000000000000000e+00" cType="1" res="9.0443599037826061e-04" rms="4.7088044881820679e-01" purity="5.6067144870758057e-01" nType="-99"/>
          <Node pos="r" depth="2" NCoef="0" IVar="-1" Cut="0.0000000000000000e+00" cType="1" res="5.0834952853620052e-03" rms="4.1826874017715454e-01" purity="7.3622214794158936e-01" nType="-99"/>
        </Node>
      </Node>
    </BinaryTree>
    <BinaryTree type="DecisionTree" boostWeight="1.0000000000000000e+00" itree="209">
      <Node pos="s" depth="0" NCoef="0" IVar="0" Cut="5.0170085906982422e+01" cType="1" res="-5.1248776726424694e-03" rms="4.5361056923866272e-01" purity="4.9207445979118347e-01" nType="0">
        <Node pos="l" depth="1" NCoef="0" IVar="0" Cut="4.5177078247070312e+01" cType="1" res="-5.9061333537101746e-02" rms="4.5184126496315002e-01" purity="3.7994083762168884e-01" nType="0">
          <Node pos="l" depth="2" NCoef="0" IVar="-1" Cut="0.0000000000000000e+00" cType="1" res="-3.6331603769212961e-03" rms="4.4712254405021667e-01" purity="3.4257596731185913e-01" nType="-99"/>
          <Node pos="r" depth="2" NCoef="0" IVar="-1" Cut="0.0000000000000000e+00" cType="1" res="2.6477695791982114e-04" rms="4.5754188299179077e-01" purity="4.7768929600715637e-01" nType="-99"/>
        </Node>
        <Node pos="r" depth="1" NCoef="0" IVar="1" Cut="2.1830623149871826e+00" cType="1" res="1.0694018565118313e-02" rms="4.5291161537170410e-01" purity="5.2496182918548584e-01" nType="0">
          <Node pos="l" depth="2" NCoef="0" IVar="-1" Cut="0.0000000000000000e+00" cType="1" res="1.6463798237964511e-03" rms="4.5018616318702698e-01" purity="6.4350813627243042e-01" nType="-99"/>
          <Node pos="r" depth="2" NCoef="0" IVar="-1" Cut="0.0000000000000000e+00" cType="1" res="-8.6228171130642295e-04" rms="4.5350822806358337e-01" purity="4.0837499499320984e-01" nType="-99"/>
        </Node>
      </Node>
    </BinaryTree>
    <BinaryTree type="DecisionTree" boostWeight="1.0000000000000000e+00" itree="210">
      <Node pos="s" depth="0" NCoef="0" IVar="0" Cut="3.8839790344238281e+01" cType="1" res="-7.4838185682892799e-03" rms="4.5295923948287964e-01" purity="4.8981854319572449e-01" nType="0">
        <Node pos="l" depth="1" NCoef="0" IVar="-1" Cut="0.0000000000000000e+00" cType="1" res="-3.8099023513495922e-03" rms="4.3643805384635925e-01" purity="3.2926726341247559e-01" nType="-99"/>
        <Node pos="r" depth="1" NCoef="0" IVar="2" Cut="9.3251079320907593e-01" cType="1" res="1.2036493280902505e-03" rms="4.5389789342880249e-01" purity="5.0745201110839844e-01" nType="0">
          <Node pos="l" depth="2" NCoef="0" IVar="-1" Cut="0.0000000000000000e+00" cType="1" res="-1.9766751211136580e-03" rms="4.4016611576080322e-01" purity="3.1359353661537170e-01" nType="-99"/>
          <Node pos="r" depth="2" NCoef="0" IVar="-1" Cut="0.0000000000000000e+00" cType="1" res="6.6252727992832661e-04" rms="4.5692667365074158e-01" purity="5.6576031446456909e-01" nType="-99"/>
        </Node>
      </Node>
    </BinaryTree>
    <BinaryTree type="DecisionTree" boostWeight="1.0000000000000000e+00" itree="211">
      <Node pos="s" depth="0" NCoef="0" IVar="3" Cut="1.1795464903116226e-01" cType="1" res="-4.5943856239318848e-03" rms="4.5335274934768677e-01" purity="4.9218556284904480e-01" nType="0">
        <Node pos="l" depth="1" NCoef="0" IVar="0" Cut="1.4127029418945312e+02" cType="1" res="-1.9817719236016273e-02" rms="4.5395642518997192e-01" purity="4.6174260973930359e-01" nType="0">
          <Node pos="l" depth="2" NCoef="0" IVar="-1" Cut="0.0000000000000000e+00" cType="1" res="-5.7007360737770796e-04" rms="4.5375958085060120e-01" purity="4.6749541163444519e-01" nType="-99"/>
          <Node pos="r" depth="2" NCoef="0" IVar="-1" Cut="0.0000000000000000e+00" cType="1" res="-4.1891266591846943e-03" rms="4.4998651742935181e-01" purity="3.9625886082649231e-01" nType="-99"/>
        </Node>
        <Node pos="r" depth="1" NCoef="0" IVar="7" Cut="2.6030161976814270e-01" cType="1" res="4.7907862812280655e-02" rms="4.4730743765830994e-01" purity="5.9717714786529541e-01" nType="0">
          <Node pos="l" depth="2" NCoef="0" IVar="-1" Cut="0.0000000000000000e+00" cType="1" res="-1.8653551524039358e-04" rms="4.4760665297508240e-01" purity="4.9657005071640015e-01" nType="-99"/>
          <Node pos="r" depth="2" NCoef="0" IVar="-1" Cut="0.0000000000000000e+00" cType="1" res="3.1156451441347599e-03" rms="4.4437965750694275e-01" purity="6.5446329116821289e-01" nType="-99"/>
        </Node>
      </Node>
    </BinaryTree>
    <BinaryTree type="DecisionTree" boostWeight="1.0000000000000000e+00" itree="212">
      <Node pos="s" depth="0" NCoef="0" IVar="2" Cut="9.7480821609497070e-01" cType="1" res="1.8227926921099424e-03" rms="4.5462912321090698e-01" purity="4.9945485591888428e-01" nType="0">
        <Node pos="l" depth="1" NCoef="0" IVar="5" Cut="4.3738019466400146e-01" cType="1" res="-7.9684806987643242e-03" rms="4.6059027314186096e-01" purity="4.5804244279861450e-01" nType="0">
          <Node pos="l" depth="2" NCoef="0" IVar="-1" Cut="0.0000000000000000e+00" cType="1" res="-2.3433833848685026e-03" rms="4.6381947398185730e-01" purity="5.0668781995773315e-01" nType="-99"/>
          <Node pos="r" depth="2" NCoef="0" IVar="-1" Cut="0.0000000000000000e+00" cType="1" res="-1.3188622688176110e-05" rms="4.5961713790893555e-01" purity="4.5139777660369873e-01" nType="-99"/>
        </Node>
        <Node pos="r" depth="1" NCoef="0" IVar="0" Cut="7.0224761962890625e+01" cType="1" res="5.1900953054428101e-02" rms="4.1926804184913635e-01" purity="7.1126163005828857e-01" nType="0">
          <Node pos="l" depth="2" NCoef="0" IVar="-1" Cut="0.0000000000000000e+00" cType="1" res="-1.0969703726004809e-04" rms="4.5681625604629517e-01" purity="6.1995500326156616e-01" nType="-99"/>
          <Node pos="r" depth="2" NCoef="0" IVar="-1" Cut="0.0000000000000000e+00" cType="1" res="4.5823701657354832e-03" rms="3.7880429625511169e-01" purity="7.8814023733139038e-01" nType="-99"/>
        </Node>
      </Node>
    </BinaryTree>
    <BinaryTree type="DecisionTree" boostWeight="1.0000000000000000e+00" itree="213">
      <Node pos="s" depth="0" NCoef="0" IVar="6" Cut="5.4602952003479004e+00" cType="1" res="3.3006314188241959e-03" rms="4.5417651534080505e-01" purity="5.0062292814254761e-01" nType="0">
        <Node pos="l" depth="1" NCoef="0" IVar="1" Cut="2.1139996051788330e+00" cType="1" res="-5.5718600749969482e-02" rms="4.2396202683448792e-01" purity="2.6015076041221619e-01" nType="0">
          <Node pos="l" depth="2" NCoef="0" IVar="-1" Cut="0.0000000000000000e+00" cType="1" res="-3.4639569930732250e-03" rms="4.5222637057304382e-01" purity="2.9839077591896057e-01" nType="-99"/>
          <Node pos="r" depth="2" NCoef="0" IVar="-1" Cut="0.0000000000000000e+00" cType="1" res="-1.6554882749915123e-03" rms="4.0604496002197266e-01" purity="2.3902876675128937e-01" nType="-99"/>
        </Node>
        <Node pos="r" depth="1" NCoef="0" IVar="1" Cut="1.7894786596298218e+00" cType="1" res="1.3974816538393497e-02" rms="4.5861861109733582e-01" purity="5.4411458969116211e-01" nType="0">
          <Node pos="l" depth="2" NCoef="0" IVar="-1" Cut="0.0000000000000000e+00" cType="1" res="-2.4767960421741009e-03" rms="4.7091996669769287e-01" purity="5.1268160343170166e-01" nType="-99"/>
          <Node pos="r" depth="2" NCoef="0" IVar="-1" Cut="0.0000000000000000e+00" cType="1" res="8.8435318320989609e-04" rms="4.5681187510490417e-01" purity="5.4705160856246948e-01" nType="-99"/>
        </Node>
      </Node>
    </BinaryTree>
    <BinaryTree type="DecisionTree" boostWeight="1.0000000000000000e+00" itree="214">
      <Node pos="s" depth="0" NCoef="0" IVar="6" Cut="5.0412659645080566e+00" cType="1" res="-2.5768456980586052e-03" rms="4.5571196079254150e-01" purity="4.9586835503578186e-01" nType="0">
        <Node pos="l" depth="1" NCoef="0" IVar="-1" Cut="0.0000000000000000e+00" cType="1" res="-3.7515326403081417e-03" rms="4.0060266852378845e-01" purity="2.1714422106742859e-01" nType="-99"/>
        <Node pos="r" depth="1" NCoef="0" IVar="7" Cut="3.8376611471176147e-01" cType="1" res="4.0880190208554268e-03" rms="4.5925247669219971e-01" purity="5.1849573850631714e-01" nType="0">
          <Node pos="l" depth="2" NCoef="0" IVar="-1" Cut="0.0000000000000000e+00" cType="1" res="-9.0878072660416365e-04" rms="4.5093700289726257e-01" purity="4.5340463519096375e-01" nType="-99"/>
          <Node pos="r" depth="2" NCoef="0" IVar="-1" Cut="0.0000000000000000e+00" cType="1" res="1.0934377787634730e-03" rms="4.6545845270156860e-01" purity="5.7728666067123413e-01" nType="-99"/>
        </Node>
      </Node>
    </BinaryTree>
    <BinaryTree type="DecisionTree" boostWeight="1.0000000000000000e+00" itree="215">
      <Node pos="s" depth="0" NCoef="0" IVar="6" Cut="8.5093917846679688e+00" cType="1" res="-5.3429878316819668e-03" rms="4.5763960480690002e-01" purity="4.9114888906478882e-01" nType="0">
        <Node pos="l" depth="1" NCoef="0" IVar="5" Cut="1.2089982032775879e+00" cType="1" res="-1.5111477114260197e-02" rms="4.6277329325675964e-01" purity="4.5180323719978333e-01" nType="0">
          <Node pos="l" depth="2" NCoef="0" IVar="-1" Cut="0.0000000000000000e+00" cType="1" res="-4.0047505171969533e-04" rms="4.6543434262275696e-01" purity="4.6321356296539307e-01" nType="-99"/>
          <Node pos="r" depth="2" NCoef="0" IVar="-1" Cut="0.0000000000000000e+00" cType="1" res="-3.7866905331611633e-03" rms="4.1860488057136536e-01" purity="2.9804569482803345e-01" nType="-99"/>
        </Node>
        <Node pos="r" depth="1" NCoef="0" IVar="2" Cut="9.8282271623611450e-01" cType="1" res="4.9143712967634201e-02" rms="4.2376554012298584e-01" purity="7.1061134338378906e-01" nType="0">
          <Node pos="l" depth="2" NCoef="0" IVar="-1" Cut="0.0000000000000000e+00" cType="1" res="8.0131902359426022e-04" rms="4.3682000041007996e-01" purity="6.6431486606597900e-01" nType="-99"/>
          <Node pos="r" depth="2" NCoef="0" IVar="-1" Cut="0.0000000000000000e+00" cType="1" res="3.4687358420342207e-03" rms="4.1040837764739990e-01" purity="7.5020515918731689e-01" nType="-99"/>
        </Node>
      </Node>
    </BinaryTree>
    <BinaryTree type="DecisionTree" boostWeight="1.0000000000000000e+00" itree="216">
      <Node pos="s" depth="0" NCoef="0" IVar="1" Cut="2.2613472938537598e+00" cType="1" res="-8.7211991194635630e-04" rms="4.5032399892807007e-01" purity="4.9883827567100525e-01" nType="0">
        <Node pos="l" depth="1" NCoef="0" IVar="0" Cut="1.1313950347900391e+02" cType="1" res="1.9659690558910370e-02" rms="4.5971709489822388e-01" purity="5.8620268106460571e-01" nType="0">
          <Node pos="l" depth="2" NCoef="0" IVar="-1" Cut="0.0000000000000000e+00" cType="1" res="3.4849642543122172e-04" rms="4.6406555175781250e-01" purity="5.6017804145812988e-01" nType="-99"/>
          <Node pos="r" depth="2" NCoef="0" IVar="-1" Cut="0.0000000000000000e+00" cType="1" res="3.5422148648649454e-03" rms="4.2819395661354065e-01" purity="7.3754364252090454e-01" nType="-99"/>
        </Node>
        <Node pos="r" depth="1" NCoef="0" IVar="0" Cut="1.0194326782226562e+02" cType="1" res="-4.0198348462581635e-02" rms="4.2902776598930359e-01" purity="3.3150216937065125e-01" nType="0">
          <Node pos="l" depth="2" NCoef="0" IVar="-1" Cut="0.0000000000000000e+00" cType="1" res="-3.1380502041429281e-03" rms="4.0921109914779663e-01" purity="2.7440351247787476e-01" nType="-99"/>
          <Node pos="r" depth="2" NCoef="0" IVar="-1" Cut="0.0000000000000000e+00" cType="1" res="-2.5594137696316466e-05" rms="4.5651078224182129e-01" purity="4.2388293147087097e-01" nType="-99"/>
        </Node>
      </Node>
    </BinaryTree>
    <BinaryTree type="DecisionTree" boostWeight="1.0000000000000000e+00" itree="217">
      <Node pos="s" depth="0" NCoef="0" IVar="3" Cut="1.1464535444974899e-01" cType="1" res="5.6356214918196201e-03" rms="4.5410841703414917e-01" purity="4.9914720654487610e-01" nType="0">
        <Node pos="l" depth="1" NCoef="0" IVar="0" Cut="6.4223266601562500e+01" cType="1" res="-8.2030165940523148e-03" rms="4.5469960570335388e-01" purity="4.6684995293617249e-01" nType="0">
          <Node pos="l" depth="2" NCoef="0" IVar="-1" Cut="0.0000000000000000e+00" cType="1" res="-2.0267174113541842e-03" rms="4.5462042093276978e-01" purity="3.8926935195922852e-01" nType="-99"/>
          <Node pos="r" depth="2" NCoef="0" IVar="-1" Cut="0.0000000000000000e+00" cType="1" res="5.9590674936771393e-04" rms="4.5322313904762268e-01" purity="5.1102131605148315e-01" nType="-99"/>
        </Node>
        <Node pos="r" depth="1" NCoef="0" IVar="7" Cut="3.3087557554244995e-01" cType="1" res="5.2910607308149338e-02" rms="4.4887623190879822e-01" purity="6.0947960615158081e-01" nType="0">
          <Node pos="l" depth="2" NCoef="0" IVar="-1" Cut="0.0000000000000000e+00" cType="1" res="7.5636309338733554e-04" rms="4.5837208628654480e-01" purity="5.3802359104156494e-01" nType="-99"/>
          <Node pos="r" depth="2" NCoef="0" IVar="-1" Cut="0.0000000000000000e+00" cType="1" res="3.5678925924003124e-03" rms="4.3605467677116394e-01" purity="6.8284451961517334e-01" nType="-99"/>
        </Node>
      </Node>
    </BinaryTree>
    <BinaryTree type="DecisionTree" boostWeight="1.0000000000000000e+00" itree="218">
      <Node pos="s" depth="0" NCoef="0" IVar="6" Cut="6.2882471084594727e+00" cType="1" res="3.0072624213062227e-04" rms="4.5084273815155029e-01" purity="4.9921992421150208e-01" nType="0">
        <Node pos="l" depth="1" NCoef="0" IVar="0" Cut="8.0633514404296875e+01" cType="1" res="-3.5328458994626999e-02" rms="4.4328731298446655e-01" purity="3.2720044255256653e-01" nType="0">
          <Node pos="l" depth="2" NCoef="0" IVar="-1" Cut="0.0000000000000000e+00" cType="1" res="-2.6159116532653570e-03" rms="4.3199697136878967e-01" purity="2.7885103225708008e-01" nType="-99"/>
          <Node pos="r" depth="2" NCoef="0" IVar="-1" Cut="0.0000000000000000e+00" cType="1" res="-1.1940064723603427e-04" rms="4.5550379157066345e-01" purity="3.9001691341400146e-01" nType="-99"/>
        </Node>
        <Node pos="r" depth="1" NCoef="0" IVar="7" Cut="4.5133915543556213e-01" cType="1" res="2.0218661054968834e-02" rms="4.5379441976547241e-01" purity="5.9538471698760986e-01" nType="0">
          <Node pos="l" depth="2" NCoef="0" IVar="-1" Cut="0.0000000000000000e+00" cType="1" res="-2.1852561621926725e-04" rms="4.5619738101959229e-01" purity="5.4312396049499512e-01" nType="-99"/>
          <Node pos="r" depth="2" NCoef="0" IVar="-1" Cut="0.0000000000000000e+00" cType="1" res="2.2522835060954094e-03" rms="4.4812229275703430e-01" purity="6.6730135679244995e-01" nType="-99"/>
        </Node>
      </Node>
    </BinaryTree>
    <BinaryTree type="DecisionTree" boostWeight="1.0000000000000000e+00" itree="219">
      <Node pos="s" depth="0" NCoef="0" IVar="7" Cut="6.2667554616928101e-01" cType="1" res="-3.2887882553040981e-03" rms="4.5249441266059875e-01" purity="4.9050876498222351e-01" nType="0">
        <Node pos="l" depth="1" NCoef="0" IVar="0" Cut="9.5196563720703125e+01" cType="1" res="-1.5610880218446255e-02" rms="4.5234608650207520e-01" purity="4.6635243296623230e-01" nType="0">
          <Node pos="l" depth="2" NCoef="0" IVar="-1" Cut="0.0000000000000000e+00" cType="1" res="-1.5982462791725993e-03" rms="4.5033901929855347e-01" purity="4.2527127265930176e-01" nType="-99"/>
          <Node pos="r" depth="2" NCoef="0" IVar="-1" Cut="0.0000000000000000e+00" cType="1" res="1.2611027341336012e-03" rms="4.5305982232093811e-01" purity="5.4870498180389404e-01" nType="-99"/>
        </Node>
        <Node pos="r" depth="1" NCoef="0" IVar="2" Cut="9.6218341588973999e-01" cType="1" res="7.2750076651573181e-02" rms="4.4593778252601624e-01" purity="6.3957625627517700e-01" nType="0">
          <Node pos="l" depth="2" NCoef="0" IVar="-1" Cut="0.0000000000000000e+00" cType="1" res="1.5152384294196963e-03" rms="4.7527429461479187e-01" purity="5.4470860958099365e-01" nType="-99"/>
          <Node pos="r" depth="2" NCoef="0" IVar="-1" Cut="0.0000000000000000e+00" cType="1" res="5.2893189713358879e-03" rms="3.8982838392257690e-01" purity="7.8892606496810913e-01" nType="-99"/>
        </Node>
      </Node>
    </BinaryTree>
    <BinaryTree type="DecisionTree" boostWeight="1.0000000000000000e+00" itree="220">
      <Node pos="s" depth="0" NCoef="0" IVar="0" Cut="1.0233372497558594e+02" cType="1" res="1.9819922745227814e-03" rms="4.5817950367927551e-01" purity="4.9696132540702820e-01" nType="0">
        <Node pos="l" depth="1" NCoef="0" IVar="2" Cut="9.7543847560882568e-01" cType="1" res="-1.7098315060138702e-02" rms="4.6233671903610229e-01" purity="4.6399736404418945e-01" nType="0">
          <Node pos="l" depth="2" NCoef="0" IVar="-1" Cut="0.0000000000000000e+00" cType="1" res="-1.1001110542565584e-03" rms="4.6470701694488525e-01" purity="4.2601451277732849e-01" nType="-99"/>
          <Node pos="r" depth="2" NCoef="0" IVar="-1" Cut="0.0000000000000000e+00" cType="1" res="1.9635797943919897e-03" rms="4.4316989183425903e-01" purity="6.8972319364547729e-01" nType="-99"/>
        </Node>
        <Node pos="r" depth="1" NCoef="0" IVar="1" Cut="2.5275933742523193e+00" cType="1" res="5.3361304104328156e-02" rms="4.4272282719612122e-01" purity="5.8572626113891602e-01" nType="0">
          <Node pos="l" depth="2" NCoef="0" IVar="-1" Cut="0.0000000000000000e+00" cType="1" res="3.2524946145713329e-03" rms="4.4334334135055542e-01" purity="6.7768365144729614e-01" nType="-99"/>
          <Node pos="r" depth="2" NCoef="0" IVar="-1" Cut="0.0000000000000000e+00" cType="1" res="-1.6597647918388247e-03" rms="4.2909631133079529e-01" purity="2.7234509587287903e-01" nType="-99"/>
        </Node>
      </Node>
    </BinaryTree>
    <BinaryTree type="DecisionTree" boostWeight="1.0000000000000000e+00" itree="221">
      <Node pos="s" depth="0" NCoef="0" IVar="4" Cut="5.4130315780639648e-01" cType="1" res="4.7035403549671173e-03" rms="4.5601749420166016e-01" purity="5.0396496057510376e-01" nType="0">
        <Node pos="l" depth="1" NCoef="0" IVar="-1" Cut="0.0000000000000000e+00" cType="1" res="3.4179319627583027e-03" rms="4.1773781180381775e-01" purity="7.2934478521347046e-01" nType="-99"/>
        <Node pos="r" depth="1" NCoef="0" IVar="0" Cut="8.0943962097167969e+01" cType="1" res="-4.5104655437171459e-03" rms="4.5932471752166748e-01" purity="4.7802388668060303e-01" nType="0">
          <Node pos="l" depth="2" NCoef="0" IVar="-1" Cut="0.0000000000000000e+00" cType="1" res="-1.2574236607179046e-03" rms="4.6021610498428345e-01" purity="4.2637634277343750e-01" nType="-99"/>
          <Node pos="r" depth="2" NCoef="0" IVar="-1" Cut="0.0000000000000000e+00" cType="1" res="1.1636901181191206e-03" rms="4.5623055100440979e-01" purity="5.4118752479553223e-01" nType="-99"/>
        </Node>
      </Node>
    </BinaryTree>
    <BinaryTree type="DecisionTree" boostWeight="1.0000000000000000e+00" itree="222">
      <Node pos="s" depth="0" NCoef="0" IVar="0" Cut="9.5562171936035156e+01" cType="1" res="1.3385354541242123e-03" rms="4.5445451140403748e-01" purity="4.9458706378936768e-01" nType="0">
        <Node pos="l" depth="1" NCoef="0" IVar="0" Cut="4.3153804779052734e+01" cType="1" res="-1.3031929731369019e-02" rms="4.5801648497581482e-01" purity="4.6454033255577087e-01" nType="0">
          <Node pos="l" depth="2" NCoef="0" IVar="-1" Cut="0.0000000000000000e+00" cType="1" res="-2.8648220468312502e-03" rms="4.5754894614219666e-01" purity="3.4665194153785706e-01" nType="-99"/>
          <Node pos="r" depth="2" NCoef="0" IVar="-1" Cut="0.0000000000000000e+00" cType="1" res="4.3127056414959952e-05" rms="4.5709908008575439e-01" purity="4.9564388394355774e-01" nType="-99"/>
        </Node>
        <Node pos="r" depth="1" NCoef="0" IVar="6" Cut="6.7896604537963867e+00" cType="1" res="3.3053893595933914e-02" rms="4.4485294818878174e-01" purity="5.6089961528778076e-01" nType="0">
          <Node pos="l" depth="2" NCoef="0" IVar="-1" Cut="0.0000000000000000e+00" cType="1" res="-1.3838394079357386e-04" rms="4.6024498343467712e-01" purity="4.1390395164489746e-01" nType="-99"/>
          <Node pos="r" depth="2" NCoef="0" IVar="-1" Cut="0.0000000000000000e+00" cType="1" res="2.8177774511277676e-03" rms="4.2930525541305542e-01" purity="6.8299621343612671e-01" nType="-99"/>
        </Node>
      </Node>
    </BinaryTree>
    <BinaryTree type="DecisionTree" boostWeight="1.0000000000000000e+00" itree="223">
      <Node pos="s" depth="0" NCoef="0" IVar="6" Cut="4.9521121978759766e+00" cType="1" res="-3.7993947044014931e-03" rms="4.5276877284049988e-01" purity="4.9447315931320190e-01" nType="0">
        <Node pos="l" depth="1" NCoef="0" IVar="-1" Cut="0.0000000000000000e+00" cType="1" res="-4.7227176837623119e-03" rms="3.8288253545761108e-01" purity="1.9016562402248383e-01" nType="-99"/>
        <Node pos="r" depth="1" NCoef="0" IVar="5" Cut="9.8417425155639648e-01" cType="1" res="3.0401574913412333e-03" rms="4.5624294877052307e-01" purity="5.1481854915618896e-01" nType="0">
          <Node pos="l" depth="2" NCoef="0" IVar="-1" Cut="0.0000000000000000e+00" cType="1" res="6.9149589398875833e-04" rms="4.5882749557495117e-01" purity="5.5238312482833862e-01" nType="-99"/>
          <Node pos="r" depth="2" NCoef="0" IVar="-1" Cut="0.0000000000000000e+00" cType="1" res="-1.8905650358647108e-03" rms="4.4428068399429321e-01" purity="3.8834279775619507e-01" nType="-99"/>
        </Node>
      </Node>
    </BinaryTree>
    <BinaryTree type="DecisionTree" boostWeight="1.0000000000000000e+00" itree="224">
      <Node pos="s" depth="0" NCoef="0" IVar="6" Cut="8.5150270462036133e+00" cType="1" res="-5.0045677198795602e-05" rms="4.5858815312385559e-01" purity="4.9664187431335449e-01" nType="0">
        <Node pos="l" depth="1" NCoef="0" IVar="6" Cut="7.2180528640747070e+00" cType="1" res="-8.0445334315299988e-03" rms="4.6391639113426208e-01" purity="4.6048653125762939e-01" nType="0">
          <Node pos="l" depth="2" NCoef="0" IVar="-1" Cut="0.0000000000000000e+00" cType="1" res="2.0637325360439718e-04" rms="4.6030980348587036e-01" purity="4.2263510823249817e-01" nType="-99"/>
          <Node pos="r" depth="2" NCoef="0" IVar="-1" Cut="0.0000000000000000e+00" cType="1" res="-1.5869113849475980e-03" rms="4.7080743312835693e-01" purity="5.4879653453826904e-01" nType="-99"/>
        </Node>
        <Node pos="r" depth="1" NCoef="0" IVar="1" Cut="2.1032493114471436e+00" cType="1" res="4.8706915229558945e-02" rms="4.2137670516967773e-01" purity="7.1714699268341064e-01" nType="0">
          <Node pos="l" depth="2" NCoef="0" IVar="-1" Cut="0.0000000000000000e+00" cType="1" res="3.3373993355780840e-03" rms="3.9609995484352112e-01" purity="7.9822951555252075e-01" nType="-99"/>
          <Node pos="r" depth="2" NCoef="0" IVar="-1" Cut="0.0000000000000000e+00" cType="1" res="1.2186408275738358e-03" rms="4.4296550750732422e-01" purity="6.4018785953521729e-01" nType="-99"/>
        </Node>
      </Node>
    </BinaryTree>
    <BinaryTree type="DecisionTree" boostWeight="1.0000000000000000e+00" itree="225">
      <Node pos="s" depth="0" NCoef="0" IVar="0" Cut="5.8994438171386719e+01" cType="1" res="-1.2047628406435251e-03" rms="4.5455700159072876e-01" purity="4.9494671821594238e-01" nType="0">
        <Node pos="l" depth="1" NCoef="0" IVar="5" Cut="6.9428509473800659e-01" cType="1" res="-4.0620286017656326e-02" rms="4.6130812168121338e-01" purity="4.1579130291938782e-01" nType="0">
          <Node pos="l" depth="2" NCoef="0" IVar="-1" Cut="0.0000000000000000e+00" cType="1" res="-2.8101610951125622e-04" rms="4.8445898294448853e-01" purity="5.0955384969711304e-01" nType="-99"/>
          <Node pos="r" depth="2" NCoef="0" IVar="-1" Cut="0.0000000000000000e+00" cType="1" res="-2.9849626589566469e-03" rms="4.3921321630477905e-01" purity="3.3788794279098511e-01" nType="-99"/>
        </Node>
        <Node pos="r" depth="1" NCoef="0" IVar="1" Cut="2.4681236743927002e+00" cType="1" res="1.8831094726920128e-02" rms="4.4976422190666199e-01" purity="5.3518325090408325e-01" nType="0">
          <Node pos="l" depth="2" NCoef="0" IVar="-1" Cut="0.0000000000000000e+00" cType="1" res="1.4812794979661703e-03" rms="4.5663455128669739e-01" purity="6.1225098371505737e-01" nType="-99"/>
          <Node pos="r" depth="2" NCoef="0" IVar="-1" Cut="0.0000000000000000e+00" cType="1" res="-2.4137990549206734e-03" rms="4.1635668277740479e-01" purity="2.4824050068855286e-01" nType="-99"/>
        </Node>
      </Node>
    </BinaryTree>
    <BinaryTree type="DecisionTree" boostWeight="1.0000000000000000e+00" itree="226">
      <Node pos="s" depth="0" NCoef="0" IVar="0" Cut="5.8451446533203125e+01" cType="1" res="7.3792235925793648e-03" rms="4.5451530814170837e-01" purity="5.1092875003814697e-01" nType="0">
        <Node pos="l" depth="1" NCoef="0" IVar="4" Cut="7.0563673973083496e-01" cType="1" res="-2.7648489922285080e-02" rms="4.5536538958549500e-01" purity="4.3326827883720398e-01" nType="0">
          <Node pos="l" depth="2" NCoef="0" IVar="-1" Cut="0.0000000000000000e+00" cType="1" res="1.1315698502585292e-03" rms="4.6723291277885437e-01" purity="6.0677379369735718e-01" nType="-99"/>
          <Node pos="r" depth="2" NCoef="0" IVar="-1" Cut="0.0000000000000000e+00" cType="1" res="-2.0361472852528095e-03" rms="4.4953942298889160e-01" purity="3.7347725033760071e-01" nType="-99"/>
        </Node>
        <Node pos="r" depth="1" NCoef="0" IVar="1" Cut="2.1144065856933594e+00" cType="1" res="2.4455945938825607e-02" rms="4.5311951637268066e-01" purity="5.4878985881805420e-01" nType="0">
          <Node pos="l" depth="2" NCoef="0" IVar="-1" Cut="0.0000000000000000e+00" cType="1" res="2.2004973143339157e-03" rms="4.4286972284317017e-01" purity="6.7847323417663574e-01" nType="-99"/>
          <Node pos="r" depth="2" NCoef="0" IVar="-1" Cut="0.0000000000000000e+00" cType="1" res="2.1301585366018116e-04" rms="4.5856529474258423e-01" purity="4.6493339538574219e-01" nType="-99"/>
        </Node>
      </Node>
    </BinaryTree>
    <BinaryTree type="DecisionTree" boostWeight="1.0000000000000000e+00" itree="227">
      <Node pos="s" depth="0" NCoef="0" IVar="3" Cut="-1.0836993902921677e-01" cType="1" res="-3.9877011440694332e-03" rms="4.5352339744567871e-01" purity="4.9459356069564819e-01" nType="0">
        <Node pos="l" depth="1" NCoef="0" IVar="-1" Cut="0.0000000000000000e+00" cType="1" res="-4.1918554343283176e-03" rms="4.2140066623687744e-01" purity="3.0329617857933044e-01" nType="-99"/>
        <Node pos="r" depth="1" NCoef="0" IVar="7" Cut="2.6970887184143066e-01" cType="1" res="3.6362309474498034e-03" rms="4.5543700456619263e-01" purity="5.1134598255157471e-01" nType="0">
          <Node pos="l" depth="2" NCoef="0" IVar="-1" Cut="0.0000000000000000e+00" cType="1" res="-1.4051141915842891e-03" rms="4.4823670387268066e-01" purity="4.0313708782196045e-01" nType="-99"/>
          <Node pos="r" depth="2" NCoef="0" IVar="-1" Cut="0.0000000000000000e+00" cType="1" res="6.9121259730309248e-04" rms="4.5725134015083313e-01" purity="5.4992872476577759e-01" nType="-99"/>
        </Node>
      </Node>
    </BinaryTree>
    <BinaryTree type="DecisionTree" boostWeight="1.0000000000000000e+00" itree="228">
      <Node pos="s" depth="0" NCoef="0" IVar="0" Cut="3.8823535919189453e+01" cType="1" res="-2.7135855634696782e-04" rms="4.5286151766777039e-01" purity="4.9775993824005127e-01" nType="0">
        <Node pos="l" depth="1" NCoef="0" IVar="7" Cut="3.9767178893089294e-01" cType="1" res="-7.4333794414997101e-02" rms="4.3821230530738831e-01" purity="3.2379820942878723e-01" nType="0">
          <Node pos="l" depth="2" NCoef="0" IVar="-1" Cut="0.0000000000000000e+00" cType="1" res="-6.0674943961203098e-03" rms="3.8976398110389709e-01" purity="2.2250844538211823e-01" nType="-99"/>
          <Node pos="r" depth="2" NCoef="0" IVar="-1" Cut="0.0000000000000000e+00" cType="1" res="-7.2902813553810120e-04" rms="4.7703227400779724e-01" purity="4.2932865023612976e-01" nType="-99"/>
        </Node>
        <Node pos="r" depth="1" NCoef="0" IVar="2" Cut="9.7543847560882568e-01" cType="1" res="8.1914523616433144e-03" rms="4.5373642444610596e-01" purity="5.1763784885406494e-01" nType="0">
          <Node pos="l" depth="2" NCoef="0" IVar="-1" Cut="0.0000000000000000e+00" cType="1" res="-1.1648127838270739e-04" rms="4.6168854832649231e-01" purity="4.7697487473487854e-01" nType="-99"/>
          <Node pos="r" depth="2" NCoef="0" IVar="-1" Cut="0.0000000000000000e+00" cType="1" res="3.2794114667922258e-03" rms="3.9977371692657471e-01" purity="7.4904346466064453e-01" nType="-99"/>
        </Node>
      </Node>
    </BinaryTree>
    <BinaryTree type="DecisionTree" boostWeight="1.0000000000000000e+00" itree="229">
      <Node pos="s" depth="0" NCoef="0" IVar="6" Cut="6.7268695831298828e+00" cType="1" res="4.4848308898508549e-03" rms="4.5077261328697205e-01" purity="5.0148427486419678e-01" nType="0">
        <Node pos="l" depth="1" NCoef="0" IVar="4" Cut="5.9460163116455078e-01" cType="1" res="-2.0107857882976532e-02" rms="4.5592626929283142e-01" purity="3.6534380912780762e-01" nType="0">
          <Node pos="l" depth="2" NCoef="0" IVar="-1" Cut="0.0000000000000000e+00" cType="1" res="3.0669167172163725e-03" rms="4.7048044204711914e-01" purity="6.2372434139251709e-01" nType="-99"/>
          <Node pos="r" depth="2" NCoef="0" IVar="-1" Cut="0.0000000000000000e+00" cType="1" res="-1.5027670888230205e-03" rms="4.5174491405487061e-01" purity="3.2873332500457764e-01" nType="-99"/>
        </Node>
        <Node pos="r" depth="1" NCoef="0" IVar="0" Cut="8.5912261962890625e+01" cType="1" res="2.5683868676424026e-02" rms="4.4519349932670593e-01" purity="6.1883807182312012e-01" nType="0">
          <Node pos="l" depth="2" NCoef="0" IVar="-1" Cut="0.0000000000000000e+00" cType="1" res="-7.5176700192969292e-05" rms="4.6132546663284302e-01" purity="5.6654095649719238e-01" nType="-99"/>
          <Node pos="r" depth="2" NCoef="0" IVar="-1" Cut="0.0000000000000000e+00" cType="1" res="2.7827259618788958e-03" rms="4.1941291093826294e-01" purity="6.8989568948745728e-01" nType="-99"/>
        </Node>
      </Node>
    </BinaryTree>
    <BinaryTree type="DecisionTree" boostWeight="1.0000000000000000e+00" itree="230">
      <Node pos="s" depth="0" NCoef="0" IVar="4" Cut="5.8816915750503540e-01" cType="1" res="5.4281218908727169e-03" rms="4.5479482412338257e-01" purity="5.0167691707611084e-01" nType="0">
        <Node pos="l" depth="1" NCoef="0" IVar="2" Cut="9.5457208156585693e-01" cType="1" res="6.5833106637001038e-02" rms="4.4015958905220032e-01" purity="7.1321487426757812e-01" nType="0">
          <Node pos="l" depth="2" NCoef="0" IVar="-1" Cut="0.0000000000000000e+00" cType="1" res="3.8442588411271572e-03" rms="4.5339980721473694e-01" purity="6.7666888236999512e-01" nType="-99"/>
          <Node pos="r" depth="2" NCoef="0" IVar="-1" Cut="0.0000000000000000e+00" cType="1" res="1.0541473748162389e-03" rms="4.2102468013763428e-01" purity="7.5323188304901123e-01" nType="-99"/>
        </Node>
        <Node pos="r" depth="1" NCoef="0" IVar="6" Cut="4.9463920593261719e+00" cType="1" res="-4.1609257459640503e-03" rms="4.5634022355079651e-01" purity="4.6809610724449158e-01" nType="0">
          <Node pos="l" depth="2" NCoef="0" IVar="-1" Cut="0.0000000000000000e+00" cType="1" res="-4.9961907789111137e-03" rms="3.6605820059776306e-01" purity="1.6130420565605164e-01" nType="-99"/>
          <Node pos="r" depth="2" NCoef="0" IVar="-1" Cut="0.0000000000000000e+00" cType="1" res="1.2725088163278997e-04" rms="4.6140062808990479e-01" purity="4.9041905999183655e-01" nType="-99"/>
        </Node>
      </Node>
    </BinaryTree>
    <BinaryTree type="DecisionTree" boostWeight="1.0000000000000000e+00" itree="231">
      <Node pos="s" depth="0" NCoef="0" IVar="4" Cut="8.1118613481521606e-01" cType="1" res="6.4085209742188454e-03" rms="4.5035186409950256e-01" purity="5.0802612304687500e-01" nType="0">
        <Node pos="l" depth="1" NCoef="0" IVar="6" Cut="6.0560669898986816e+00" cType="1" res="4.5724678784608841e-02" rms="4.4273674488067627e-01" purity="6.7073076963424683e-01" nType="0">
          <Node pos="l" depth="2" NCoef="0" IVar="-1" Cut="0.0000000000000000e+00" cType="1" res="-7.9132011160254478e-04" rms="4.8207354545593262e-01" purity="4.4856914877891541e-01" nType="-99"/>
          <Node pos="r" depth="2" NCoef="0" IVar="-1" Cut="0.0000000000000000e+00" cType="1" res="2.8561041690409184e-03" rms="4.2649611830711365e-01" purity="7.4458432197570801e-01" nType="-99"/>
        </Node>
        <Node pos="r" depth="1" NCoef="0" IVar="0" Cut="5.9883750915527344e+01" cType="1" res="-1.3756682164967060e-02" rms="4.5288583636283875e-01" purity="4.2457512021064758e-01" nType="0">
          <Node pos="l" depth="2" NCoef="0" IVar="-1" Cut="0.0000000000000000e+00" cType="1" res="-2.1216550376266241e-03" rms="4.4567537307739258e-01" purity="3.4152907133102417e-01" nType="-99"/>
          <Node pos="r" depth="2" NCoef="0" IVar="-1" Cut="0.0000000000000000e+00" cType="1" res="1.0025800293078646e-04" rms="4.5540010929107666e-01" purity="4.6414935588836670e-01" nType="-99"/>
        </Node>
      </Node>
    </BinaryTree>
    <BinaryTree type="DecisionTree" boostWeight="1.0000000000000000e+00" itree="232">
      <Node pos="s" depth="0" NCoef="0" IVar="5" Cut="9.5893931388854980e-01" cType="1" res="1.5480024740099907e-03" rms="4.5236277580261230e-01" purity="5.0124150514602661e-01" nType="0">
        <Node pos="l" depth="1" NCoef="0" IVar="4" Cut="1.5347558259963989e+00" cType="1" res="1.5698229894042015e-02" rms="4.5490580797195435e-01" purity="5.4147917032241821e-01" nType="0">
          <Node pos="l" depth="2" NCoef="0" IVar="-1" Cut="0.0000000000000000e+00" cType="1" res="8.8366627460345626e-04" rms="4.5991709828376770e-01" purity="5.7126945257186890e-01" nType="-99"/>
          <Node pos="r" depth="2" NCoef="0" IVar="-1" Cut="0.0000000000000000e+00" cType="1" res="-3.3530916552990675e-03" rms="3.8205757737159729e-01" purity="1.8393054604530334e-01" nType="-99"/>
        </Node>
        <Node pos="r" depth="1" NCoef="0" IVar="0" Cut="8.5857223510742188e+01" cType="1" res="-4.1303209960460663e-02" rms="4.4181722402572632e-01" purity="3.7938952445983887e-01" nType="0">
          <Node pos="l" depth="2" NCoef="0" IVar="-1" Cut="0.0000000000000000e+00" cType="1" res="-3.1115692108869553e-03" rms="4.3434733152389526e-01" purity="3.2422709465026855e-01" nType="-99"/>
          <Node pos="r" depth="2" NCoef="0" IVar="-1" Cut="0.0000000000000000e+00" cType="1" res="-2.0622357624233700e-05" rms="4.4908726215362549e-01" purity="4.5790085196495056e-01" nType="-99"/>
        </Node>
      </Node>
    </BinaryTree>
    <BinaryTree type="DecisionTree" boostWeight="1.0000000000000000e+00" itree="233">
      <Node pos="s" depth="0" NCoef="0" IVar="2" Cut="9.7497165203094482e-01" cType="1" res="2.7762732934206724e-03" rms="4.5687654614448547e-01" purity="5.0485473871231079e-01" nType="0">
        <Node pos="l" depth="1" NCoef="0" IVar="6" Cut="4.8396720886230469e+00" cType="1" res="-8.9959679171442986e-03" rms="4.6385833621025085e-01" purity="4.6250560879707336e-01" nType="0">
          <Node pos="l" depth="2" NCoef="0" IVar="-1" Cut="0.0000000000000000e+00" cType="1" res="-4.6094055287539959e-03" rms="3.8102513551712036e-01" purity="1.8869058787822723e-01" nType="-99"/>
          <Node pos="r" depth="2" NCoef="0" IVar="-1" Cut="0.0000000000000000e+00" cType="1" res="-1.0840100731002167e-04" rms="4.6838578581809998e-01" purity="4.8146307468414307e-01" nType="-99"/>
        </Node>
        <Node pos="r" depth="1" NCoef="0" IVar="5" Cut="7.8223514556884766e-01" cType="1" res="6.6667668521404266e-02" rms="4.1111218929290771e-01" purity="7.3469603061676025e-01" nType="0">
          <Node pos="l" depth="2" NCoef="0" IVar="-1" Cut="0.0000000000000000e+00" cType="1" res="4.6231211163103580e-03" rms="3.7968769669532776e-01" purity="8.1191313266754150e-01" nType="-99"/>
          <Node pos="r" depth="2" NCoef="0" IVar="-1" Cut="0.0000000000000000e+00" cType="1" res="1.0039072949439287e-03" rms="4.4455149769783020e-01" purity="6.3525027036666870e-01" nType="-99"/>
        </Node>
      </Node>
    </BinaryTree>
    <BinaryTree type="DecisionTree" boostWeight="1.0000000000000000e+00" itree="234">
      <Node pos="s" depth="0" NCoef="0" IVar="1" Cut="1.7272257804870605e+00" cType="1" res="4.3399355490691960e-04" rms="4.5558977127075195e-01" purity="4.9914976954460144e-01" nType="0">
        <Node pos="l" depth="1" NCoef="0" IVar="-1" Cut="0.0000000000000000e+00" cType="1" res="-3.2778724562376738e-03" rms="4.7321274876594543e-01" purity="4.4233489036560059e-01" nType="-99"/>
        <Node pos="r" depth="1" NCoef="0" IVar="4" Cut="8.7826001644134521e-01" cType="1" res="5.6988415308296680e-03" rms="4.5394903421401978e-01" purity="5.0268888473510742e-01" nType="0">
          <Node pos="l" depth="2" NCoef="0" IVar="-1" Cut="0.0000000000000000e+00" cType="1" res="1.4985103625804186e-03" rms="4.5517501235008240e-01" purity="6.5598100423812866e-01" nType="-99"/>
          <Node pos="r" depth="2" NCoef="0" IVar="-1" Cut="0.0000000000000000e+00" cType="1" res="-6.1239133356139064e-04" rms="4.5206311345100403e-01" purity="4.0737617015838623e-01" nType="-99"/>
        </Node>
      </Node>
    </BinaryTree>
    <BinaryTree type="DecisionTree" boostWeight="1.0000000000000000e+00" itree="235">
      <Node pos="s" depth="0" NCoef="0" IVar="0" Cut="8.1285720825195312e+01" cType="1" res="6.8979786010459065e-04" rms="4.5400744676589966e-01" purity="4.9946919083595276e-01" nType="0">
        <Node pos="l" depth="1" NCoef="0" IVar="2" Cut="9.7639107704162598e-01" cType="1" res="-2.0227923989295959e-02" rms="4.5512509346008301e-01" purity="4.5266872644424438e-01" nType="0">
          <Node pos="l" depth="2" NCoef="0" IVar="-1" Cut="0.0000000000000000e+00" cType="1" res="-1.2411997886374593e-03" rms="4.5786312222480774e-01" purity="4.1351836919784546e-01" nType="-99"/>
          <Node pos="r" depth="2" NCoef="0" IVar="-1" Cut="0.0000000000000000e+00" cType="1" res="1.8364477436989546e-03" rms="4.3375757336616516e-01" purity="6.8038594722747803e-01" nType="-99"/>
        </Node>
        <Node pos="r" depth="1" NCoef="0" IVar="0" Cut="1.3832023620605469e+02" cType="1" res="2.8436630964279175e-02" rms="4.5102626085281372e-01" purity="5.6154882907867432e-01" nType="0">
          <Node pos="l" depth="2" NCoef="0" IVar="-1" Cut="0.0000000000000000e+00" cType="1" res="1.7379195196554065e-03" rms="4.5030915737152100e-01" purity="5.8049172163009644e-01" nType="-99"/>
          <Node pos="r" depth="2" NCoef="0" IVar="-1" Cut="0.0000000000000000e+00" cType="1" res="-1.4808316482231021e-03" rms="4.4926330447196960e-01" purity="4.7212129831314087e-01" nType="-99"/>
        </Node>
      </Node>
    </BinaryTree>
    <BinaryTree type="DecisionTree" boostWeight="1.0000000000000000e+00" itree="236">
      <Node pos="s" depth="0" NCoef="0" IVar="0" Cut="3.8473548889160156e+01" cType="1" res="-3.6098135169595480e-03" rms="4.5241081714630127e-01" purity="4.9273940920829773e-01" nType="0">
        <Node pos="l" depth="1" NCoef="0" IVar="-1" Cut="0.0000000000000000e+00" cType="1" res="-4.6095508150756359e-03" rms="4.2432004213333130e-01" purity="2.9973778128623962e-01" nType="-99"/>
        <Node pos="r" depth="1" NCoef="0" IVar="7" Cut="5.8605289459228516e-01" cType="1" res="6.1180004850029945e-03" rms="4.5386826992034912e-01" purity="5.1147240400314331e-01" nType="0">
          <Node pos="l" depth="2" NCoef="0" IVar="-1" Cut="0.0000000000000000e+00" cType="1" res="-2.3095979122444987e-04" rms="4.5352765917778015e-01" purity="4.8417299985885620e-01" nType="-99"/>
          <Node pos="r" depth="2" NCoef="0" IVar="-1" Cut="0.0000000000000000e+00" cType="1" res="2.2570267319679260e-03" rms="4.5188853144645691e-01" purity="6.2983620166778564e-01" nType="-99"/>
        </Node>
      </Node>
    </BinaryTree>
    <BinaryTree type="DecisionTree" boostWeight="1.0000000000000000e+00" itree="237">
      <Node pos="s" depth="0" NCoef="0" IVar="7" Cut="7.0900332927703857e-01" cType="1" res="5.5577172897756100e-03" rms="4.5149871706962585e-01" purity="5.0381541252136230e-01" nType="0">
        <Node pos="l" depth="1" NCoef="0" IVar="4" Cut="5.4221445322036743e-01" cType="1" res="-7.3580018943175673e-04" rms="4.5179554820060730e-01" purity="4.9247050285339355e-01" nType="0">
          <Node pos="l" depth="2" NCoef="0" IVar="-1" Cut="0.0000000000000000e+00" cType="1" res="3.1520174816250801e-03" rms="4.2625027894973755e-01" purity="7.2838991880416870e-01" nType="-99"/>
          <Node pos="r" depth="2" NCoef="0" IVar="-1" Cut="0.0000000000000000e+00" cType="1" res="-3.4638738725334406e-04" rms="4.5354440808296204e-01" purity="4.6937310695648193e-01" nType="-99"/>
        </Node>
        <Node pos="r" depth="1" NCoef="0" IVar="-1" Cut="0.0000000000000000e+00" cType="1" res="4.0664933621883392e-03" rms="4.3551170825958252e-01" purity="6.7888158559799194e-01" nType="-99"/>
      </Node>
    </BinaryTree>
    <BinaryTree type="DecisionTree" boostWeight="1.0000000000000000e+00" itree="238">
      <Node pos="s" depth="0" NCoef="0" IVar="0" Cut="8.1285720825195312e+01" cType="1" res="7.8793044667690992e-04" rms="4.5228219032287598e-01" purity="5.0277054309844971e-01" nType="0">
        <Node pos="l" depth="1" NCoef="0" IVar="3" Cut="1.2915371358394623e-01" cType="1" res="-2.5357229635119438e-02" rms="4.5707419514656067e-01" purity="4.4845715165138245e-01" nType="0">
          <Node pos="l" depth="2" NCoef="0" IVar="-1" Cut="0.0000000000000000e+00" cType="1" res="-1.8892652587965131e-03" rms="4.5283213257789612e-01" purity="4.1496291756629944e-01" nType="-99"/>
          <Node pos="r" depth="2" NCoef="0" IVar="-1" Cut="0.0000000000000000e+00" cType="1" res="1.9526238320395350e-03" rms="4.6567633748054504e-01" purity="5.7637828588485718e-01" nType="-99"/>
        </Node>
        <Node pos="r" depth="1" NCoef="0" IVar="1" Cut="2.6462283134460449e+00" cType="1" res="3.2727751880884171e-02" rms="4.4427525997161865e-01" purity="5.6912165880203247e-01" nType="0">
          <Node pos="l" depth="2" NCoef="0" IVar="-1" Cut="0.0000000000000000e+00" cType="1" res="1.8912060186266899e-03" rms="4.4997113943099976e-01" purity="6.2102198600769043e-01" nType="-99"/>
          <Node pos="r" depth="2" NCoef="0" IVar="-1" Cut="0.0000000000000000e+00" cType="1" res="-3.4295006189495325e-03" rms="3.8742941617965698e-01" purity="1.9210803508758545e-01" nType="-99"/>
        </Node>
      </Node>
    </BinaryTree>
    <BinaryTree type="DecisionTree" boostWeight="1.0000000000000000e+00" itree="239">
      <Node pos="s" depth="0" NCoef="0" IVar="6" Cut="8.6204242706298828e+00" cType="1" res="1.4755801297724247e-02" rms="4.5872589945793152e-01" purity="5.0959509611129761e-01" nType="0">
        <Node pos="l" depth="1" NCoef="0" IVar="3" Cut="8.2973934710025787e-02" cType="1" res="6.9630090147256851e-03" rms="4.6445107460021973e-01" purity="4.7788673639297485e-01" nType="0">
          <Node pos="l" depth="2" NCoef="0" IVar="-1" Cut="0.0000000000000000e+00" cType="1" res="-3.2293717958964407e-04" rms="4.6572902798652649e-01" purity="4.4360435009002686e-01" nType="-99"/>
          <Node pos="r" depth="2" NCoef="0" IVar="-1" Cut="0.0000000000000000e+00" cType="1" res="1.6885980730876327e-03" rms="4.5949870347976685e-01" purity="5.5987793207168579e-01" nType="-99"/>
        </Node>
        <Node pos="r" depth="1" NCoef="0" IVar="6" Cut="9.3535585403442383e+00" cType="1" res="7.0450194180011749e-02" rms="4.1124168038368225e-01" purity="7.3621159791946411e-01" nType="0">
          <Node pos="l" depth="2" NCoef="0" IVar="-1" Cut="0.0000000000000000e+00" cType="1" res="2.4296059273183346e-03" rms="4.2162588238716125e-01" purity="7.0150905847549438e-01" nType="-99"/>
          <Node pos="r" depth="2" NCoef="0" IVar="-1" Cut="0.0000000000000000e+00" cType="1" res="4.3442249298095703e-03" rms="3.9676252007484436e-01" purity="7.7927839756011963e-01" nType="-99"/>
        </Node>
      </Node>
    </BinaryTree>
    <BinaryTree type="DecisionTree" boostWeight="1.0000000000000000e+00" itree="240">
      <Node pos="s" depth="0" NCoef="0" IVar="1" Cut="2.6925420761108398e+00" cType="1" res="4.1300700977444649e-03" rms="4.5570689439773560e-01" purity="5.0338679552078247e-01" nType="0">
        <Node pos="l" depth="1" NCoef="0" IVar="1" Cut="1.7349184751510620e+00" cType="1" res="1.0333842597901821e-02" rms="4.6193152666091919e-01" purity="5.2832329273223877e-01" nType="0">
          <Node pos="l" depth="2" NCoef="0" IVar="-1" Cut="0.0000000000000000e+00" cType="1" res="-2.5571731384843588e-03" rms="4.5631536841392517e-01" purity="4.7313123941421509e-01" nType="-99"/>
          <Node pos="r" depth="2" NCoef="0" IVar="-1" Cut="0.0000000000000000e+00" cType="1" res="6.4532324904575944e-04" rms="4.6186229586601257e-01" purity="5.3216171264648438e-01" nType="-99"/>
        </Node>
        <Node pos="r" depth="1" NCoef="0" IVar="-1" Cut="0.0000000000000000e+00" cType="1" res="-5.4296888411045074e-03" rms="3.3776897192001343e-01" purity="1.3416591286659241e-01" nType="-99"/>
      </Node>
    </BinaryTree>
    <BinaryTree type="DecisionTree" boostWeight="1.0000000000000000e+00" itree="241">
      <Node pos="s" depth="0" NCoef="0" IVar="2" Cut="9.6110427379608154e-01" cType="1" res="-6.4315418712794781e-03" rms="4.4954574108123779e-01" purity="4.9550741910934448e-01" nType="0">
        <Node pos="l" depth="1" NCoef="0" IVar="4" Cut="6.1014968156814575e-01" cType="1" res="-2.5646222755312920e-02" rms="4.5289728045463562e-01" purity="4.1200995445251465e-01" nType="0">
          <Node pos="l" depth="2" NCoef="0" IVar="-1" Cut="0.0000000000000000e+00" cType="1" res="1.4634641120210290e-03" rms="4.6238750219345093e-01" purity="6.3566726446151733e-01" nType="-99"/>
          <Node pos="r" depth="2" NCoef="0" IVar="-1" Cut="0.0000000000000000e+00" cType="1" res="-1.5603667125105858e-03" rms="4.5023971796035767e-01" purity="3.7192928791046143e-01" nType="-99"/>
        </Node>
        <Node pos="r" depth="1" NCoef="0" IVar="2" Cut="9.8258018493652344e-01" cType="1" res="3.1254343688488007e-02" rms="4.4047126173973083e-01" purity="6.5927153825759888e-01" nType="0">
          <Node pos="l" depth="2" NCoef="0" IVar="-1" Cut="0.0000000000000000e+00" cType="1" res="8.2146760541945696e-04" rms="4.5446497201919556e-01" purity="6.2719494104385376e-01" nType="-99"/>
          <Node pos="r" depth="2" NCoef="0" IVar="-1" Cut="0.0000000000000000e+00" cType="1" res="3.0138448346406221e-03" rms="3.9799410104751587e-01" purity="7.4651390314102173e-01" nType="-99"/>
        </Node>
      </Node>
    </BinaryTree>
    <BinaryTree type="DecisionTree" boostWeight="1.0000000000000000e+00" itree="242">
      <Node pos="s" depth="0" NCoef="0" IVar="4" Cut="5.5676198005676270e-01" cType="1" res="1.2587631121277809e-02" rms="4.5349186658859253e-01" purity="5.1240342855453491e-01" nType="0">
        <Node pos="l" depth="1" NCoef="0" IVar="5" Cut="4.7404837608337402e-01" cType="1" res="7.2770968079566956e-02" rms="4.3462327122688293e-01" purity="7.1767556667327881e-01" nType="0">
          <Node pos="l" depth="2" NCoef="0" IVar="-1" Cut="0.0000000000000000e+00" cType="1" res="1.1402453528717160e-03" rms="4.5165628194808960e-01" purity="6.7500364780426025e-01" nType="-99"/>
          <Node pos="r" depth="2" NCoef="0" IVar="-1" Cut="0.0000000000000000e+00" cType="1" res="4.7024260275065899e-03" rms="4.0998956561088562e-01" purity="7.6361888647079468e-01" nType="-99"/>
        </Node>
        <Node pos="r" depth="1" NCoef="0" IVar="7" Cut="7.0837658643722534e-01" cType="1" res="4.8471656627953053e-03" rms="4.5528492331504822e-01" purity="4.8600238561630249e-01" nType="0">
          <Node pos="l" depth="2" NCoef="0" IVar="-1" Cut="0.0000000000000000e+00" cType="1" res="-3.5526009014574811e-05" rms="4.5611694455146790e-01" purity="4.7597643733024597e-01" nType="-99"/>
          <Node pos="r" depth="2" NCoef="0" IVar="-1" Cut="0.0000000000000000e+00" cType="1" res="3.6135346163064241e-03" rms="4.3298780918121338e-01" purity="6.4019930362701416e-01" nType="-99"/>
        </Node>
      </Node>
    </BinaryTree>
    <BinaryTree type="DecisionTree" boostWeight="1.0000000000000000e+00" itree="243">
      <Node pos="s" depth="0" NCoef="0" IVar="1" Cut="1.7456496953964233e+00" cType="1" res="3.7201920058578253e-03" rms="4.5433402061462402e-01" purity="5.0271600484848022e-01" nType="0">
        <Node pos="l" depth="1" NCoef="0" IVar="-1" Cut="0.0000000000000000e+00" cType="1" res="-3.3195507712662220e-03" rms="4.6679911017417908e-01" purity="4.4573864340782166e-01" nType="-99"/>
        <Node pos="r" depth="1" NCoef="0" IVar="1" Cut="2.0835740566253662e+00" cType="1" res="1.0162838734686375e-02" rms="4.5276182889938354e-01" purity="5.0640988349914551e-01" nType="0">
          <Node pos="l" depth="2" NCoef="0" IVar="-1" Cut="0.0000000000000000e+00" cType="1" res="2.0141885615885258e-03" rms="4.4897490739822388e-01" purity="6.4060521125793457e-01" nType="-99"/>
          <Node pos="r" depth="2" NCoef="0" IVar="-1" Cut="0.0000000000000000e+00" cType="1" res="-5.8366241864860058e-04" rms="4.5331737399101257e-01" purity="4.2838135361671448e-01" nType="-99"/>
        </Node>
      </Node>
    </BinaryTree>
    <BinaryTree type="DecisionTree" boostWeight="1.0000000000000000e+00" itree="244">
      <Node pos="s" depth="0" NCoef="0" IVar="3" Cut="-1.0888244211673737e-01" cType="1" res="-3.3195712603628635e-03" rms="4.5550471544265747e-01" purity="5.0020730495452881e-01" nType="0">
        <Node pos="l" depth="1" NCoef="0" IVar="-1" Cut="0.0000000000000000e+00" cType="1" res="-3.9225826039910316e-03" rms="4.2520549893379211e-01" purity="3.0411651730537415e-01" nType="-99"/>
        <Node pos="r" depth="1" NCoef="0" IVar="0" Cut="1.4447615051269531e+02" cType="1" res="3.2034046016633511e-03" rms="4.5725795626640320e-01" purity="5.1613008975982666e-01" nType="0">
          <Node pos="l" depth="2" NCoef="0" IVar="-1" Cut="0.0000000000000000e+00" cType="1" res="3.6603669286705554e-04" rms="4.5742240548133850e-01" purity="5.2038508653640747e-01" nType="-99"/>
          <Node pos="r" depth="2" NCoef="0" IVar="-1" Cut="0.0000000000000000e+00" cType="1" res="-3.4927171654999256e-03" rms="4.4685661792755127e-01" purity="4.5305585861206055e-01" nType="-99"/>
        </Node>
      </Node>
    </BinaryTree>
    <BinaryTree type="DecisionTree" boostWeight="1.0000000000000000e+00" itree="245">
      <Node pos="s" depth="0" NCoef="0" IVar="4" Cut="1.7246798276901245e+00" cType="1" res="-8.6128311522770673e-05" rms="4.5299980044364929e-01" purity="4.9977299571037292e-01" nType="0">
        <Node pos="l" depth="1" NCoef="0" IVar="2" Cut="9.5464247465133667e-01" cType="1" res="5.5478657595813274e-03" rms="4.5896849036216736e-01" purity="5.2148425579071045e-01" nType="0">
          <Node pos="l" depth="2" NCoef="0" IVar="-1" Cut="0.0000000000000000e+00" cType="1" res="-5.4460030514746904e-04" rms="4.6557635068893433e-01" purity="4.1517832875251770e-01" nType="-99"/>
          <Node pos="r" depth="2" NCoef="0" IVar="-1" Cut="0.0000000000000000e+00" cType="1" res="1.2561451876536012e-03" rms="4.4947999715805054e-01" purity="6.5357828140258789e-01" nType="-99"/>
        </Node>
        <Node pos="r" depth="1" NCoef="0" IVar="-1" Cut="0.0000000000000000e+00" cType="1" res="-6.4040473662316799e-03" rms="3.1604593992233276e-01" purity="1.2051798403263092e-01" nType="-99"/>
      </Node>
    </BinaryTree>
    <BinaryTree type="DecisionTree" boostWeight="1.0000000000000000e+00" itree="246">
      <Node pos="s" depth="0" NCoef="0" IVar="0" Cut="4.9144409179687500e+01" cType="1" res="4.8571554943919182e-03" rms="4.5311182737350464e-01" purity="5.0368565320968628e-01" nType="0">
        <Node pos="l" depth="1" NCoef="0" IVar="7" Cut="4.8740774393081665e-01" cType="1" res="-3.9799701422452927e-02" rms="4.4746303558349609e-01" purity="3.9261415600776672e-01" nType="0">
          <Node pos="l" depth="2" NCoef="0" IVar="-1" Cut="0.0000000000000000e+00" cType="1" res="-3.5643572919070721e-03" rms="4.2291441559791565e-01" purity="3.1250521540641785e-01" nType="-99"/>
          <Node pos="r" depth="2" NCoef="0" IVar="-1" Cut="0.0000000000000000e+00" cType="1" res="1.2211189605295658e-03" rms="4.7728466987609863e-01" purity="5.2573758363723755e-01" nType="-99"/>
        </Node>
        <Node pos="r" depth="1" NCoef="0" IVar="0" Cut="1.5047587585449219e+02" cType="1" res="1.7543563619256020e-02" rms="4.5390313863754272e-01" purity="5.3523951768875122e-01" nType="0">
          <Node pos="l" depth="2" NCoef="0" IVar="-1" Cut="0.0000000000000000e+00" cType="1" res="1.0496387258172035e-03" rms="4.5319098234176636e-01" purity="5.4395204782485962e-01" nType="-99"/>
          <Node pos="r" depth="2" NCoef="0" IVar="-1" Cut="0.0000000000000000e+00" cType="1" res="-3.4953043796122074e-03" rms="4.5203971862792969e-01" purity="4.2526760697364807e-01" nType="-99"/>
        </Node>
      </Node>
    </BinaryTree>
    <BinaryTree type="DecisionTree" boostWeight="1.0000000000000000e+00" itree="247">
      <Node pos="s" depth="0" NCoef="0" IVar="3" Cut="8.2137584686279297e-02" cType="1" res="5.5613606236875057e-03" rms="4.5291584730148315e-01" purity="5.1094478368759155e-01" nType="0">
        <Node pos="l" depth="1" NCoef="0" IVar="6" Cut="6.6225299835205078e+00" cType="1" res="-8.5839387029409409e-03" rms="4.5149686932563782e-01" purity="4.7392979264259338e-01" nType="0">
          <Node pos="l" depth="2" NCoef="0" IVar="-1" Cut="0.0000000000000000e+00" cType="1" res="-1.4368128031492233e-03" rms="4.4523623585700989e-01" purity="3.3376207947731018e-01" nType="-99"/>
          <Node pos="r" depth="2" NCoef="0" IVar="-1" Cut="0.0000000000000000e+00" cType="1" res="4.9505848437547684e-04" rms="4.5531475543975830e-01" purity="5.8357810974121094e-01" nType="-99"/>
        </Node>
        <Node pos="r" depth="1" NCoef="0" IVar="7" Cut="4.5504686236381531e-01" cType="1" res="3.8267534226179123e-02" rms="4.5449724793434143e-01" purity="5.9652924537658691e-01" nType="0">
          <Node pos="l" depth="2" NCoef="0" IVar="-1" Cut="0.0000000000000000e+00" cType="1" res="5.3062901133671403e-04" rms="4.5980182290077209e-01" purity="5.4964101314544678e-01" nType="-99"/>
          <Node pos="r" depth="2" NCoef="0" IVar="-1" Cut="0.0000000000000000e+00" cType="1" res="4.1148862801492214e-03" rms="4.3460121750831604e-01" purity="7.1430867910385132e-01" nType="-99"/>
        </Node>
      </Node>
    </BinaryTree>
    <BinaryTree type="DecisionTree" boostWeight="1.0000000000000000e+00" itree="248">
      <Node pos="s" depth="0" NCoef="0" IVar="7" Cut="5.2641946077346802e-01" cType="1" res="3.0390504980459809e-04" rms="4.5393311977386475e-01" purity="4.9765744805335999e-01" nType="0">
        <Node pos="l" depth="1" NCoef="0" IVar="3" Cut="1.3706588745117188e-01" cType="1" res="-1.4263932593166828e-02" rms="4.5172104239463806e-01" purity="4.6006503701210022e-01" nType="0">
          <Node pos="l" depth="2" NCoef="0" IVar="-1" Cut="0.0000000000000000e+00" cType="1" res="-1.1886782012879848e-03" rms="4.4881549477577209e-01" purity="4.2316702008247375e-01" nType="-99"/>
          <Node pos="r" depth="2" NCoef="0" IVar="-1" Cut="0.0000000000000000e+00" cType="1" res="1.1053226189687848e-03" rms="4.5836195349693298e-01" purity="5.7656860351562500e-01" nType="-99"/>
        </Node>
        <Node pos="r" depth="1" NCoef="0" IVar="6" Cut="5.9589438438415527e+00" cType="1" res="3.7905480712652206e-02" rms="4.5745450258255005e-01" purity="5.9468871355056763e-01" nType="0">
          <Node pos="l" depth="2" NCoef="0" IVar="-1" Cut="0.0000000000000000e+00" cType="1" res="-1.0234679793938994e-03" rms="4.7167763113975525e-01" purity="3.6669877171516418e-01" nType="-99"/>
          <Node pos="r" depth="2" NCoef="0" IVar="-1" Cut="0.0000000000000000e+00" cType="1" res="2.4794619530439377e-03" rms="4.5042020082473755e-01" purity="6.7237275838851929e-01" nType="-99"/>
        </Node>
      </Node>
    </BinaryTree>
    <BinaryTree type="DecisionTree" boostWeight="1.0000000000000000e+00" itree="249">
      <Node pos="s" depth="0" NCoef="0" IVar="6" Cut="8.6089143753051758e+00" cType="1" res="-3.2462135422974825e-03" rms="4.5014998316764832e-01" purity="5.0071287155151367e-01" nType="0">
        <Node pos="l" depth="1" NCoef="0" IVar="4" Cut="6.1230707168579102e-01" cType="1" res="-1.3287837617099285e-02" rms="4.5476871728897095e-01" purity="4.6264675259590149e-01" nType="0">
          <Node pos="l" depth="2" NCoef="0" IVar="-1" Cut="0.0000000000000000e+00" cType="1" res="1.6768883215263486e-03" rms="4.4390538334846497e-01" purity="6.7561364173889160e-01" nType="-99"/>
          <Node pos="r" depth="2" NCoef="0" IVar="-1" Cut="0.0000000000000000e+00" cType="1" res="-9.7823271062225103e-04" rms="4.5586970448493958e-01" purity="4.2620080709457397e-01" nType="-99"/>
        </Node>
        <Node pos="r" depth="1" NCoef="0" IVar="3" Cut="-4.0279287844896317e-02" cType="1" res="5.9895895421504974e-02" rms="4.1440644860267639e-01" purity="7.4007397890090942e-01" nType="0">
          <Node pos="l" depth="2" NCoef="0" IVar="-1" Cut="0.0000000000000000e+00" cType="1" res="8.9765444863587618e-04" rms="4.4970303773880005e-01" purity="6.7233896255493164e-01" nType="-99"/>
          <Node pos="r" depth="2" NCoef="0" IVar="-1" Cut="0.0000000000000000e+00" cType="1" res="3.9892420172691345e-03" rms="3.8962605595588684e-01" purity="7.8077012300491333e-01" nType="-99"/>
        </Node>
      </Node>
    </BinaryTree>
    <BinaryTree type="DecisionTree" boostWeight="1.0000000000000000e+00" itree="250">
      <Node pos="s" depth="0" NCoef="0" IVar="1" Cut="1.8145679235458374e+00" cType="1" res="8.5940660210326314e-04" rms="4.5543345808982849e-01" purity="5.0273448228836060e-01" nType="0">
        <Node pos="l" depth="1" NCoef="0" IVar="-1" Cut="0.0000000000000000e+00" cType="1" res="-2.0279821474105120e-03" rms="4.7840508818626404e-01" purity="5.1067405939102173e-01" nType="-99"/>
        <Node pos="r" depth="1" NCoef="0" IVar="4" Cut="1.4417508840560913e+00" cType="1" res="6.6117802634835243e-03" rms="4.5261386036872864e-01" purity="5.0191819667816162e-01" nType="0">
          <Node pos="l" depth="2" NCoef="0" IVar="-1" Cut="0.0000000000000000e+00" cType="1" res="6.3076708465814590e-04" rms="4.6239450573921204e-01" purity="5.5785369873046875e-01" nType="-99"/>
          <Node pos="r" depth="2" NCoef="0" IVar="-1" Cut="0.0000000000000000e+00" cType="1" res="-2.1174857392907143e-03" rms="3.9593097567558289e-01" purity="2.1655884385108948e-01" nType="-99"/>
        </Node>
      </Node>
    </BinaryTree>
    <BinaryTree type="DecisionTree" boostWeight="1.0000000000000000e+00" itree="251">
      <Node pos="s" depth="0" NCoef="0" IVar="3" Cut="1.2777832150459290e-01" cType="1" res="-4.6512682456523180e-04" rms="4.5586529374122620e-01" purity="4.9751234054565430e-01" nType="0">
        <Node pos="l" depth="1" NCoef="0" IVar="5" Cut="9.8366492986679077e-01" cType="1" res="-1.3009325601160526e-02" rms="4.5743331313133240e-01" purity="4.6721178293228149e-01" nType="0">
          <Node pos="l" depth="2" NCoef="0" IVar="-1" Cut="0.0000000000000000e+00" cType="1" res="-5.4019968956708908e-05" rms="4.6185562014579773e-01" purity="5.1128131151199341e-01" nType="-99"/>
          <Node pos="r" depth="2" NCoef="0" IVar="-1" Cut="0.0000000000000000e+00" cType="1" res="-2.3444003891199827e-03" rms="4.4027751684188843e-01" purity="3.2151457667350769e-01" nType="-99"/>
        </Node>
        <Node pos="r" depth="1" NCoef="0" IVar="2" Cut="9.5770508050918579e-01" cType="1" res="4.6971477568149567e-02" rms="4.4671294093132019e-01" purity="6.1209553480148315e-01" nType="0">
          <Node pos="l" depth="2" NCoef="0" IVar="-1" Cut="0.0000000000000000e+00" cType="1" res="7.5950758764520288e-04" rms="4.7236439585685730e-01" purity="5.1034981012344360e-01" nType="-99"/>
          <Node pos="r" depth="2" NCoef="0" IVar="-1" Cut="0.0000000000000000e+00" cType="1" res="4.0153581649065018e-03" rms="3.9567771553993225e-01" purity="7.8379613161087036e-01" nType="-99"/>
        </Node>
      </Node>
    </BinaryTree>
    <BinaryTree type="DecisionTree" boostWeight="1.0000000000000000e+00" itree="252">
      <Node pos="s" depth="0" NCoef="0" IVar="1" Cut="1.7276433706283569e+00" cType="1" res="-1.1984568554908037e-03" rms="4.5444929599761963e-01" purity="5.0004351139068604e-01" nType="0">
        <Node pos="l" depth="1" NCoef="0" IVar="-1" Cut="0.0000000000000000e+00" cType="1" res="-3.2549670431762934e-03" rms="4.4663110375404358e-01" purity="4.2983666062355042e-01" nType="-99"/>
        <Node pos="r" depth="1" NCoef="0" IVar="2" Cut="9.7974252700805664e-01" cType="1" res="5.0695231184363365e-03" rms="4.5429337024688721e-01" purity="5.0480085611343384e-01" nType="0">
          <Node pos="l" depth="2" NCoef="0" IVar="-1" Cut="0.0000000000000000e+00" cType="1" res="-6.5790227381512523e-05" rms="4.5995888113975525e-01" purity="4.7758743166923523e-01" nType="-99"/>
          <Node pos="r" depth="2" NCoef="0" IVar="-1" Cut="0.0000000000000000e+00" cType="1" res="3.0410611070692539e-03" rms="3.9524051547050476e-01" purity="7.4784117937088013e-01" nType="-99"/>
        </Node>
      </Node>
    </BinaryTree>
    <BinaryTree type="DecisionTree" boostWeight="1.0000000000000000e+00" itree="253">
      <Node pos="s" depth="0" NCoef="0" IVar="6" Cut="4.9688038825988770e+00" cType="1" res="1.8934678519144654e-03" rms="4.5367589592933655e-01" purity="4.9532529711723328e-01" nType="0">
        <Node pos="l" depth="1" NCoef="0" IVar="-1" Cut="0.0000000000000000e+00" cType="1" res="-3.9178323931992054e-03" rms="3.8718155026435852e-01" purity="1.9679169356822968e-01" nType="-99"/>
        <Node pos="r" depth="1" NCoef="0" IVar="5" Cut="6.2420797348022461e-01" cType="1" res="8.9988494291901588e-03" rms="4.5785829424858093e-01" purity="5.1930624246597290e-01" nType="0">
          <Node pos="l" depth="2" NCoef="0" IVar="-1" Cut="0.0000000000000000e+00" cType="1" res="1.4678473817184567e-03" rms="4.5212855935096741e-01" purity="6.2293148040771484e-01" nType="-99"/>
          <Node pos="r" depth="2" NCoef="0" IVar="-1" Cut="0.0000000000000000e+00" cType="1" res="-1.5681023069191724e-04" rms="4.6000722050666809e-01" purity="4.7014361619949341e-01" nType="-99"/>
        </Node>
      </Node>
    </BinaryTree>
    <BinaryTree type="DecisionTree" boostWeight="1.0000000000000000e+00" itree="254">
      <Node pos="s" depth="0" NCoef="0" IVar="0" Cut="1.0016911315917969e+02" cType="1" res="5.9761991724371910e-03" rms="4.5809984207153320e-01" purity="5.0090348720550537e-01" nType="0">
        <Node pos="l" depth="1" NCoef="0" IVar="4" Cut="6.1230707168579102e-01" cType="1" res="-6.9240974262356758e-03" rms="4.6151694655418396e-01" purity="4.7109463810920715e-01" nType="0">
          <Node pos="l" depth="2" NCoef="0" IVar="-1" Cut="0.0000000000000000e+00" cType="1" res="1.9197561778128147e-03" rms="4.5945054292678833e-01" purity="6.6712266206741333e-01" nType="-99"/>
          <Node pos="r" depth="2" NCoef="0" IVar="-1" Cut="0.0000000000000000e+00" cType="1" res="-7.8309257514774799e-04" rms="4.6109953522682190e-01" purity="4.3051207065582275e-01" nType="-99"/>
        </Node>
        <Node pos="r" depth="1" NCoef="0" IVar="0" Cut="1.5322882080078125e+02" cType="1" res="3.6422964185476303e-02" rms="4.4846296310424805e-01" purity="5.7125723361968994e-01" nType="0">
          <Node pos="l" depth="2" NCoef="0" IVar="-1" Cut="0.0000000000000000e+00" cType="1" res="2.4225646629929543e-03" rms="4.4637081027030945e-01" purity="6.0176843404769897e-01" nType="-99"/>
          <Node pos="r" depth="2" NCoef="0" IVar="-1" Cut="0.0000000000000000e+00" cType="1" res="-2.4774488992989063e-03" rms="4.4691714644432068e-01" purity="4.2802974581718445e-01" nType="-99"/>
        </Node>
      </Node>
    </BinaryTree>
    <BinaryTree type="DecisionTree" boostWeight="1.0000000000000000e+00" itree="255">
      <Node pos="s" depth="0" NCoef="0" IVar="0" Cut="3.8473548889160156e+01" cType="1" res="7.7706431038677692e-03" rms="4.5727434754371643e-01" purity="5.0951850414276123e-01" nType="0">
        <Node pos="l" depth="1" NCoef="0" IVar="-1" Cut="0.0000000000000000e+00" cType="1" res="-2.8745455201715231e-03" rms="4.4767400622367859e-01" purity="3.3175253868103027e-01" nType="-99"/>
        <Node pos="r" depth="1" NCoef="0" IVar="1" Cut="2.7546956539154053e+00" cType="1" res="1.5090764500200748e-02" rms="4.5756760239601135e-01" purity="5.2715533971786499e-01" nType="0">
          <Node pos="l" depth="2" NCoef="0" IVar="-1" Cut="0.0000000000000000e+00" cType="1" res="8.0060627078637481e-04" rms="4.6249029040336609e-01" purity="5.5017602443695068e-01" nType="-99"/>
          <Node pos="r" depth="2" NCoef="0" IVar="-1" Cut="0.0000000000000000e+00" cType="1" res="-3.3807978034019470e-03" rms="3.6193200945854187e-01" purity="1.5445800125598907e-01" nType="-99"/>
        </Node>
      </Node>
    </BinaryTree>
    <BinaryTree type="DecisionTree" boostWeight="1.0000000000000000e+00" itree="256">
      <Node pos="s" depth="0" NCoef="0" IVar="6" Cut="4.9176864624023438e+00" cType="1" res="-3.1298110261559486e-03" rms="4.5188397169113159e-01" purity="4.9855354428291321e-01" nType="0">
        <Node pos="l" depth="1" NCoef="0" IVar="-1" Cut="0.0000000000000000e+00" cType="1" res="-4.1817040182650089e-03" rms="3.8721469044685364e-01" purity="1.9489541649818420e-01" nType="-99"/>
        <Node pos="r" depth="1" NCoef="0" IVar="0" Cut="7.9863182067871094e+01" cType="1" res="2.7379211969673634e-03" rms="4.5537889003753662e-01" purity="5.1930886507034302e-01" nType="0">
          <Node pos="l" depth="2" NCoef="0" IVar="-1" Cut="0.0000000000000000e+00" cType="1" res="-6.2275322852656245e-04" rms="4.5543861389160156e-01" purity="4.7097826004028320e-01" nType="-99"/>
          <Node pos="r" depth="2" NCoef="0" IVar="-1" Cut="0.0000000000000000e+00" cType="1" res="1.0936002945527434e-03" rms="4.5426592230796814e-01" purity="5.8127981424331665e-01" nType="-99"/>
        </Node>
      </Node>
    </BinaryTree>
    <BinaryTree type="DecisionTree" boostWeight="1.0000000000000000e+00" itree="257">
      <Node pos="s" depth="0" NCoef="0" IVar="2" Cut="9.8553967475891113e-01" cType="1" res="-3.5106237046420574e-03" rms="4.5016846060752869e-01" purity="4.9460530281066895e-01" nType="0">
        <Node pos="l" depth="1" NCoef="0" IVar="0" Cut="6.4565025329589844e+01" cType="1" res="-9.4968276098370552e-03" rms="4.5414823293685913e-01" purity="4.7561445832252502e-01" nType="0">
          <Node pos="l" depth="2" NCoef="0" IVar="-1" Cut="0.0000000000000000e+00" cType="1" res="-1.5573836863040924e-03" rms="4.5603543519973755e-01" purity="4.0965124964714050e-01" nType="-99"/>
          <Node pos="r" depth="2" NCoef="0" IVar="-1" Cut="0.0000000000000000e+00" cType="1" res="3.8740239688195288e-04" rms="4.5194536447525024e-01" purity="5.1853716373443604e-01" nType="-99"/>
        </Node>
        <Node pos="r" depth="1" NCoef="0" IVar="-1" Cut="0.0000000000000000e+00" cType="1" res="3.9941295981407166e-03" rms="3.7590983510017395e-01" purity="7.7445203065872192e-01" nType="-99"/>
      </Node>
    </BinaryTree>
    <BinaryTree type="DecisionTree" boostWeight="1.0000000000000000e+00" itree="258">
      <Node pos="s" depth="0" NCoef="0" IVar="3" Cut="5.3438711911439896e-02" cType="1" res="3.9914720691740513e-03" rms="4.5422571897506714e-01" purity="5.0572603940963745e-01" nType="0">
        <Node pos="l" depth="1" NCoef="0" IVar="7" Cut="4.5277172327041626e-01" cType="1" res="-1.2385918758809566e-02" rms="4.5549619197845459e-01" purity="4.6497637033462524e-01" nType="0">
          <Node pos="l" depth="2" NCoef="0" IVar="-1" Cut="0.0000000000000000e+00" cType="1" res="-1.6926557291299105e-03" rms="4.4688323140144348e-01" purity="3.8901853561401367e-01" nType="-99"/>
          <Node pos="r" depth="2" NCoef="0" IVar="-1" Cut="0.0000000000000000e+00" cType="1" res="8.3930796245113015e-04" rms="4.6448066830635071e-01" purity="5.6450349092483521e-01" nType="-99"/>
        </Node>
        <Node pos="r" depth="1" NCoef="0" IVar="6" Cut="5.4813394546508789e+00" cType="1" res="3.2348282635211945e-02" rms="4.5061215758323669e-01" purity="5.7628256082534790e-01" nType="0">
          <Node pos="l" depth="2" NCoef="0" IVar="-1" Cut="0.0000000000000000e+00" cType="1" res="-2.9973606579005718e-03" rms="4.3034321069717407e-01" purity="2.8527140617370605e-01" nType="-99"/>
          <Node pos="r" depth="2" NCoef="0" IVar="-1" Cut="0.0000000000000000e+00" cType="1" res="2.1725632250308990e-03" rms="4.5155224204063416e-01" purity="6.3240683078765869e-01" nType="-99"/>
        </Node>
      </Node>
    </BinaryTree>
    <BinaryTree type="DecisionTree" boostWeight="1.0000000000000000e+00" itree="259">
      <Node pos="s" depth="0" NCoef="0" IVar="0" Cut="1.5361172485351562e+02" cType="1" res="1.4948287280276418e-03" rms="4.5456102490425110e-01" purity="5.0112342834472656e-01" nType="0">
        <Node pos="l" depth="1" NCoef="0" IVar="0" Cut="1.0543481445312500e+02" cType="1" res="5.3097303025424480e-03" rms="4.5466125011444092e-01" purity="5.0484359264373779e-01" nType="0">
          <Node pos="l" depth="2" NCoef="0" IVar="-1" Cut="0.0000000000000000e+00" cType="1" res="-2.8231320902705193e-04" rms="4.5966413617134094e-01" purity="4.7722440958023071e-01" nType="-99"/>
          <Node pos="r" depth="2" NCoef="0" IVar="-1" Cut="0.0000000000000000e+00" cType="1" res="2.2672659251838923e-03" rms="4.3169391155242920e-01" purity="6.1139893531799316e-01" nType="-99"/>
        </Node>
        <Node pos="r" depth="1" NCoef="0" IVar="-1" Cut="0.0000000000000000e+00" cType="1" res="-3.0623972415924072e-03" rms="4.4698724150657654e-01" purity="4.3292316794395447e-01" nType="-99"/>
      </Node>
    </BinaryTree>
    <BinaryTree type="DecisionTree" boostWeight="1.0000000000000000e+00" itree="260">
      <Node pos="s" depth="0" NCoef="0" IVar="1" Cut="2.4220063686370850e+00" cType="1" res="1.1242185719311237e-03" rms="4.5509499311447144e-01" purity="5.0356340408325195e-01" nType="0">
        <Node pos="l" depth="1" NCoef="0" IVar="0" Cut="4.2756458282470703e+01" cType="1" res="1.4012947678565979e-02" rms="4.6473348140716553e-01" purity="5.6782209873199463e-01" nType="0">
          <Node pos="l" depth="2" NCoef="0" IVar="-1" Cut="0.0000000000000000e+00" cType="1" res="-2.2577627096325159e-03" rms="4.6747389435768127e-01" purity="3.8893941044807434e-01" nType="-99"/>
          <Node pos="r" depth="2" NCoef="0" IVar="-1" Cut="0.0000000000000000e+00" cType="1" res="1.0266228346154094e-03" rms="4.6332487463951111e-01" purity="5.9795451164245605e-01" nType="-99"/>
        </Node>
        <Node pos="r" depth="1" NCoef="0" IVar="7" Cut="1.9000056385993958e-01" cType="1" res="-5.0592266023159027e-02" rms="4.1011717915534973e-01" purity="2.4572323262691498e-01" nType="0">
          <Node pos="l" depth="2" NCoef="0" IVar="-1" Cut="0.0000000000000000e+00" cType="1" res="-5.1131006330251694e-03" rms="3.5618022084236145e-01" purity="1.5822228789329529e-01" nType="-99"/>
          <Node pos="r" depth="2" NCoef="0" IVar="-1" Cut="0.0000000000000000e+00" cType="1" res="-1.8331746105104685e-03" rms="4.2634367942810059e-01" purity="2.7594068646430969e-01" nType="-99"/>
        </Node>
      </Node>
    </BinaryTree>
    <BinaryTree type="DecisionTree" boostWeight="1.0000000000000000e+00" itree="261">
      <Node pos="s" depth="0" NCoef="0" IVar="3" Cut="3.6239854991436005e-02" cType="1" res="1.6128923743963242e-03" rms="4.5676162838935852e-01" purity="5.0292372703552246e-01" nType="0">
        <Node pos="l" depth="1" NCoef="0" IVar="5" Cut="5.0944203138351440e-01" cType="1" res="-1.6024155542254448e-02" rms="4.5970991253852844e-01" purity="4.5993199944496155e-01" nType="0">
          <Node pos="l" depth="2" NCoef="0" IVar="-1" Cut="0.0000000000000000e+00" cType="1" res="-1.9213770283386111e-03" rms="4.7340279817581177e-01" purity="5.4593914747238159e-01" nType="-99"/>
          <Node pos="r" depth="2" NCoef="0" IVar="-1" Cut="0.0000000000000000e+00" cType="1" res="-2.8259580722078681e-04" rms="4.5495691895484924e-01" purity="4.3332210183143616e-01" nType="-99"/>
        </Node>
        <Node pos="r" depth="1" NCoef="0" IVar="2" Cut="9.2562884092330933e-01" cType="1" res="2.6691537350416183e-02" rms="4.5135113596916199e-01" purity="5.6405490636825562e-01" nType="0">
          <Node pos="l" depth="2" NCoef="0" IVar="-1" Cut="0.0000000000000000e+00" cType="1" res="-1.8247630214318633e-03" rms="4.4782206416130066e-01" purity="3.2304278016090393e-01" nType="-99"/>
          <Node pos="r" depth="2" NCoef="0" IVar="-1" Cut="0.0000000000000000e+00" cType="1" res="1.7231246456503868e-03" rms="4.5064422488212585e-01" purity="6.1415034532546997e-01" nType="-99"/>
        </Node>
      </Node>
    </BinaryTree>
    <BinaryTree type="DecisionTree" boostWeight="1.0000000000000000e+00" itree="262">
      <Node pos="s" depth="0" NCoef="0" IVar="1" Cut="2.1654813289642334e+00" cType="1" res="-3.0053923837840557e-03" rms="4.5182314515113831e-01" purity="4.9592983722686768e-01" nType="0">
        <Node pos="l" depth="1" NCoef="0" IVar="0" Cut="8.5556037902832031e+01" cType="1" res="2.1561330184340477e-02" rms="4.6170026063919067e-01" purity="5.9366059303283691e-01" nType="0">
          <Node pos="l" depth="2" NCoef="0" IVar="-1" Cut="0.0000000000000000e+00" cType="1" res="5.1828195864800364e-05" rms="4.7243916988372803e-01" purity="5.3957188129425049e-01" nType="-99"/>
          <Node pos="r" depth="2" NCoef="0" IVar="-1" Cut="0.0000000000000000e+00" cType="1" res="3.0650068074464798e-03" rms="4.2944607138633728e-01" purity="7.2928541898727417e-01" nType="-99"/>
        </Node>
        <Node pos="r" depth="1" NCoef="0" IVar="2" Cut="9.7165036201477051e-01" cType="1" res="-3.0014418065547943e-02" rms="4.3912538886070251e-01" purity="3.8848316669464111e-01" nType="0">
          <Node pos="l" depth="2" NCoef="0" IVar="-1" Cut="0.0000000000000000e+00" cType="1" res="-2.1668821573257446e-03" rms="4.4191384315490723e-01" purity="3.2804700732231140e-01" nType="-99"/>
          <Node pos="r" depth="2" NCoef="0" IVar="-1" Cut="0.0000000000000000e+00" cType="1" res="1.8428914481773973e-03" rms="4.1995856165885925e-01" purity="6.3636690378189087e-01" nType="-99"/>
        </Node>
      </Node>
    </BinaryTree>
    <BinaryTree type="DecisionTree" boostWeight="1.0000000000000000e+00" itree="263">
      <Node pos="s" depth="0" NCoef="0" IVar="1" Cut="2.3277049064636230e+00" cType="1" res="6.8246577866375446e-03" rms="4.5238107442855835e-01" purity="5.0665855407714844e-01" nType="0">
        <Node pos="l" depth="1" NCoef="0" IVar="7" Cut="3.8059744238853455e-01" cType="1" res="2.2652531042695045e-02" rms="4.5986756682395935e-01" purity="5.8487325906753540e-01" nType="0">
          <Node pos="l" depth="2" NCoef="0" IVar="-1" Cut="0.0000000000000000e+00" cType="1" res="-2.3055098426993936e-04" rms="4.6245992183685303e-01" purity="5.2953672409057617e-01" nType="-99"/>
          <Node pos="r" depth="2" NCoef="0" IVar="-1" Cut="0.0000000000000000e+00" cType="1" res="1.6798177966848016e-03" rms="4.5709154009819031e-01" purity="6.2261539697647095e-01" nType="-99"/>
        </Node>
        <Node pos="r" depth="1" NCoef="0" IVar="5" Cut="7.5015014410018921e-01" cType="1" res="-3.1728304922580719e-02" rms="4.3118080496788025e-01" purity="3.1614607572555542e-01" nType="0">
          <Node pos="l" depth="2" NCoef="0" IVar="-1" Cut="0.0000000000000000e+00" cType="1" res="3.1402902095578611e-04" rms="4.5400470495223999e-01" purity="3.9352434873580933e-01" nType="-99"/>
          <Node pos="r" depth="2" NCoef="0" IVar="-1" Cut="0.0000000000000000e+00" cType="1" res="-2.3451438173651695e-03" rms="4.1994628310203552e-01" purity="2.8302785754203796e-01" nType="-99"/>
        </Node>
      </Node>
    </BinaryTree>
    <BinaryTree type="DecisionTree" boostWeight="1.0000000000000000e+00" itree="264">
      <Node pos="s" depth="0" NCoef="0" IVar="0" Cut="6.1725009918212891e+01" cType="1" res="5.7058292441070080e-03" rms="4.5537072420120239e-01" purity="5.0698387622833252e-01" nType="0">
        <Node pos="l" depth="1" NCoef="0" IVar="0" Cut="4.8173564910888672e+01" cType="1" res="-2.9064880684018135e-02" rms="4.5713958144187927e-01" purity="4.2800068855285645e-01" nType="0">
          <Node pos="l" depth="2" NCoef="0" IVar="-1" Cut="0.0000000000000000e+00" cType="1" res="-2.7816875372081995e-03" rms="4.5303857326507568e-01" purity="3.6943754553794861e-01" nType="-99"/>
          <Node pos="r" depth="2" NCoef="0" IVar="-1" Cut="0.0000000000000000e+00" cType="1" res="6.9568486651405692e-04" rms="4.5827385783195496e-01" purity="5.0306588411331177e-01" nType="-99"/>
        </Node>
        <Node pos="r" depth="1" NCoef="0" IVar="2" Cut="9.7789490222930908e-01" cType="1" res="2.6092365384101868e-02" rms="4.5309123396873474e-01" purity="5.5329281091690063e-01" nType="0">
          <Node pos="l" depth="2" NCoef="0" IVar="-1" Cut="0.0000000000000000e+00" cType="1" res="7.0105277700349689e-04" rms="4.6145439147949219e-01" purity="5.1717662811279297e-01" nType="-99"/>
          <Node pos="r" depth="2" NCoef="0" IVar="-1" Cut="0.0000000000000000e+00" cType="1" res="4.3947091326117516e-03" rms="3.8511794805526733e-01" purity="7.9963892698287964e-01" nType="-99"/>
        </Node>
      </Node>
    </BinaryTree>
    <BinaryTree type="DecisionTree" boostWeight="1.0000000000000000e+00" itree="265">
      <Node pos="s" depth="0" NCoef="0" IVar="7" Cut="2.6796537637710571e-01" cType="1" res="-1.5379852848127484e-03" rms="4.5218682289123535e-01" purity="4.9497756361961365e-01" nType="0">
        <Node pos="l" depth="1" NCoef="0" IVar="6" Cut="7.8452420234680176e+00" cType="1" res="-5.0371173769235611e-02" rms="4.3536713719367981e-01" purity="3.6671653389930725e-01" nType="0">
          <Node pos="l" depth="2" NCoef="0" IVar="-1" Cut="0.0000000000000000e+00" cType="1" res="-3.4898249432444572e-03" rms="4.2900270223617554e-01" purity="2.9317614436149597e-01" nType="-99"/>
          <Node pos="r" depth="2" NCoef="0" IVar="-1" Cut="0.0000000000000000e+00" cType="1" res="1.3931492576375604e-03" rms="4.4564586877822876e-01" purity="6.0533463954925537e-01" nType="-99"/>
        </Node>
        <Node pos="r" depth="1" NCoef="0" IVar="6" Cut="5.5241708755493164e+00" cType="1" res="1.6799755394458771e-02" rms="4.5699787139892578e-01" purity="5.4314184188842773e-01" nType="0">
          <Node pos="l" depth="2" NCoef="0" IVar="-1" Cut="0.0000000000000000e+00" cType="1" res="-1.8637508619576693e-03" rms="4.3384557962417603e-01" purity="2.8652238845825195e-01" nType="-99"/>
          <Node pos="r" depth="2" NCoef="0" IVar="-1" Cut="0.0000000000000000e+00" cType="1" res="1.1721291812136769e-03" rms="4.6030554175376892e-01" purity="5.9129190444946289e-01" nType="-99"/>
        </Node>
      </Node>
    </BinaryTree>
    <BinaryTree type="DecisionTree" boostWeight="1.0000000000000000e+00" itree="266">
      <Node pos="s" depth="0" NCoef="0" IVar="1" Cut="2.7408823966979980e+00" cType="1" res="-5.4229390807449818e-03" rms="4.5415076613426208e-01" purity="4.9304378032684326e-01" nType="0">
        <Node pos="l" depth="1" NCoef="0" IVar="0" Cut="7.9112274169921875e+01" cType="1" res="-1.1012691538780928e-03" rms="4.6046173572540283e-01" purity="5.1453465223312378e-01" nType="0">
          <Node pos="l" depth="2" NCoef="0" IVar="-1" Cut="0.0000000000000000e+00" cType="1" res="-6.7682168446481228e-04" rms="4.6059420704841614e-01" purity="4.6108889579772949e-01" nType="-99"/>
          <Node pos="r" depth="2" NCoef="0" IVar="-1" Cut="0.0000000000000000e+00" cType="1" res="7.5216480763629079e-04" rms="4.5957949757575989e-01" purity="5.8241289854049683e-01" nType="-99"/>
        </Node>
        <Node pos="r" depth="1" NCoef="0" IVar="-1" Cut="0.0000000000000000e+00" cType="1" res="-5.2739577367901802e-03" rms="3.1720456480979919e-01" purity="1.2170545756816864e-01" nType="-99"/>
      </Node>
    </BinaryTree>
    <BinaryTree type="DecisionTree" boostWeight="1.0000000000000000e+00" itree="267">
      <Node pos="s" depth="0" NCoef="0" IVar="4" Cut="6.2226319313049316e-01" cType="1" res="-5.8272327296435833e-03" rms="4.5344579219818115e-01" purity="4.9540084600448608e-01" nType="0">
        <Node pos="l" depth="1" NCoef="0" IVar="6" Cut="7.4185376167297363e+00" cType="1" res="4.8381190747022629e-02" rms="4.2770484089851379e-01" purity="7.0698529481887817e-01" nType="0">
          <Node pos="l" depth="2" NCoef="0" IVar="-1" Cut="0.0000000000000000e+00" cType="1" res="4.6570436097681522e-04" rms="4.6507123112678528e-01" purity="6.0300058126449585e-01" nType="-99"/>
          <Node pos="r" depth="2" NCoef="0" IVar="-1" Cut="0.0000000000000000e+00" cType="1" res="4.4488422572612762e-03" rms="3.6979192495346069e-01" purity="8.3945310115814209e-01" nType="-99"/>
        </Node>
        <Node pos="r" depth="1" NCoef="0" IVar="1" Cut="2.7672567367553711e+00" cType="1" res="-1.6421159729361534e-02" rms="4.5755788683891296e-01" purity="4.5405101776123047e-01" nType="0">
          <Node pos="l" depth="2" NCoef="0" IVar="-1" Cut="0.0000000000000000e+00" cType="1" res="-4.7750843805260956e-04" rms="4.6563240885734558e-01" purity="4.7692415118217468e-01" nType="-99"/>
          <Node pos="r" depth="2" NCoef="0" IVar="-1" Cut="0.0000000000000000e+00" cType="1" res="-6.2027401290833950e-03" rms="2.9926306009292603e-01" purity="1.0559667646884918e-01" nType="-99"/>
        </Node>
      </Node>
    </BinaryTree>
    <BinaryTree type="DecisionTree" boostWeight="1.0000000000000000e+00" itree="268">
      <Node pos="s" depth="0" NCoef="0" IVar="0" Cut="1.4013282775878906e+02" cType="1" res="4.9452097155153751e-03" rms="4.5139804482460022e-01" purity="5.0251716375350952e-01" nType="0">
        <Node pos="l" depth="1" NCoef="0" IVar="6" Cut="5.7821922302246094e+00" cType="1" res="1.0848661884665489e-02" rms="4.5117804408073425e-01" purity="5.0930780172348022e-01" nType="0">
          <Node pos="l" depth="2" NCoef="0" IVar="-1" Cut="0.0000000000000000e+00" cType="1" res="-1.3581641251221299e-03" rms="4.3426153063774109e-01" purity="2.8935855627059937e-01" nType="-99"/>
          <Node pos="r" depth="2" NCoef="0" IVar="-1" Cut="0.0000000000000000e+00" cType="1" res="9.6830737311393023e-04" rms="4.5524871349334717e-01" purity="5.7287395000457764e-01" nType="-99"/>
        </Node>
        <Node pos="r" depth="1" NCoef="0" IVar="-1" Cut="0.0000000000000000e+00" cType="1" res="-3.0519531574100256e-03" rms="4.4784882664680481e-01" purity="4.1965386271476746e-01" nType="-99"/>
      </Node>
    </BinaryTree>
    <BinaryTree type="DecisionTree" boostWeight="1.0000000000000000e+00" itree="269">
      <Node pos="s" depth="0" NCoef="0" IVar="3" Cut="1.2777832150459290e-01" cType="1" res="-7.7947368845343590e-03" rms="4.5289233326911926e-01" purity="4.9144798517227173e-01" nType="0">
        <Node pos="l" depth="1" NCoef="0" IVar="7" Cut="6.1198967695236206e-01" cType="1" res="-2.4124374613165855e-02" rms="4.5400077104568481e-01" purity="4.5809206366539001e-01" nType="0">
          <Node pos="l" depth="2" NCoef="0" IVar="-1" Cut="0.0000000000000000e+00" cType="1" res="-1.6098910709843040e-03" rms="4.5222216844558716e-01" purity="4.2313736677169800e-01" nType="-99"/>
          <Node pos="r" depth="2" NCoef="0" IVar="-1" Cut="0.0000000000000000e+00" cType="1" res="1.2321822578087449e-03" rms="4.5733490586280823e-01" purity="6.0392546653747559e-01" nType="-99"/>
        </Node>
        <Node pos="r" depth="1" NCoef="0" IVar="7" Cut="2.2830852866172791e-01" cType="1" res="5.5584881454706192e-02" rms="4.4289711117744446e-01" purity="6.2091130018234253e-01" nType="0">
          <Node pos="l" depth="2" NCoef="0" IVar="-1" Cut="0.0000000000000000e+00" cType="1" res="-6.4012577058747411e-04" rms="4.5793250203132629e-01" purity="4.8443749547004700e-01" nType="-99"/>
          <Node pos="r" depth="2" NCoef="0" IVar="-1" Cut="0.0000000000000000e+00" cType="1" res="3.5467075649648905e-03" rms="4.3268543481826782e-01" purity="6.7970323562622070e-01" nType="-99"/>
        </Node>
      </Node>
    </BinaryTree>
    <BinaryTree type="DecisionTree" boostWeight="1.0000000000000000e+00" itree="270">
      <Node pos="s" depth="0" NCoef="0" IVar="2" Cut="9.7229802608489990e-01" cType="1" res="-2.4569183588027954e-03" rms="4.5395550131797791e-01" purity="4.9798476696014404e-01" nType="0">
        <Node pos="l" depth="1" NCoef="0" IVar="0" Cut="1.0049532318115234e+02" cType="1" res="-1.1119894683361053e-02" rms="4.5855897665023804e-01" purity="4.5083144307136536e-01" nType="0">
          <Node pos="l" depth="2" NCoef="0" IVar="-1" Cut="0.0000000000000000e+00" cType="1" res="-9.8278722725808620e-04" rms="4.5773586630821228e-01" purity="4.2441642284393311e-01" nType="-99"/>
          <Node pos="r" depth="2" NCoef="0" IVar="-1" Cut="0.0000000000000000e+00" cType="1" res="9.2308223247528076e-04" rms="4.5905053615570068e-01" purity="5.1929229497909546e-01" nType="-99"/>
        </Node>
        <Node pos="r" depth="1" NCoef="0" IVar="7" Cut="3.2559877634048462e-01" cType="1" res="3.4815177321434021e-02" rms="4.3161332607269287e-01" purity="7.0085996389389038e-01" nType="0">
          <Node pos="l" depth="2" NCoef="0" IVar="-1" Cut="0.0000000000000000e+00" cType="1" res="3.6114582326263189e-03" rms="4.3401050567626953e-01" purity="6.9037830829620361e-01" nType="-99"/>
          <Node pos="r" depth="2" NCoef="0" IVar="-1" Cut="0.0000000000000000e+00" cType="1" res="6.0113496147096157e-04" rms="4.2872717976570129e-01" purity="7.0600390434265137e-01" nType="-99"/>
        </Node>
      </Node>
    </BinaryTree>
    <BinaryTree type="DecisionTree" boostWeight="1.0000000000000000e+00" itree="271">
      <Node pos="s" depth="0" NCoef="0" IVar="1" Cut="2.7672567367553711e+00" cType="1" res="5.7270186953246593e-03" rms="4.5286780595779419e-01" purity="5.0317496061325073e-01" nType="0">
        <Node pos="l" depth="1" NCoef="0" IVar="0" Cut="4.2878482818603516e+01" cType="1" res="1.1029942892491817e-02" rms="4.5913147926330566e-01" purity="5.2549326419830322e-01" nType="0">
          <Node pos="l" depth="2" NCoef="0" IVar="-1" Cut="0.0000000000000000e+00" cType="1" res="-1.3994991313666105e-03" rms="4.5972564816474915e-01" purity="3.8490819931030273e-01" nType="-99"/>
          <Node pos="r" depth="2" NCoef="0" IVar="-1" Cut="0.0000000000000000e+00" cType="1" res="7.9681398347020149e-04" rms="4.5856997370719910e-01" purity="5.5083274841308594e-01" nType="-99"/>
        </Node>
        <Node pos="r" depth="1" NCoef="0" IVar="-1" Cut="0.0000000000000000e+00" cType="1" res="-5.7302997447550297e-03" rms="3.0828282237052917e-01" purity="1.0935867577791214e-01" nType="-99"/>
      </Node>
    </BinaryTree>
    <BinaryTree type="DecisionTree" boostWeight="1.0000000000000000e+00" itree="272">
      <Node pos="s" depth="0" NCoef="0" IVar="4" Cut="5.5096065998077393e-01" cType="1" res="1.0627516312524676e-03" rms="4.4797202944755554e-01" purity="5.0289607048034668e-01" nType="0">
        <Node pos="l" depth="1" NCoef="0" IVar="-1" Cut="0.0000000000000000e+00" cType="1" res="3.0380617827177048e-03" rms="4.2007890343666077e-01" purity="7.2950923442840576e-01" nType="-99"/>
        <Node pos="r" depth="1" NCoef="0" IVar="0" Cut="8.2011634826660156e+01" cType="1" res="-7.7243312261998653e-03" rms="4.5043969154357910e-01" purity="4.7545605897903442e-01" nType="0">
          <Node pos="l" depth="2" NCoef="0" IVar="-1" Cut="0.0000000000000000e+00" cType="1" res="-1.1813382152467966e-03" rms="4.4977891445159912e-01" purity="4.1833549737930298e-01" nType="-99"/>
          <Node pos="r" depth="2" NCoef="0" IVar="-1" Cut="0.0000000000000000e+00" cType="1" res="7.3692272417247295e-04" rms="4.5003017783164978e-01" purity="5.4653328657150269e-01" nType="-99"/>
        </Node>
      </Node>
    </BinaryTree>
    <BinaryTree type="DecisionTree" boostWeight="1.0000000000000000e+00" itree="273">
      <Node pos="s" depth="0" NCoef="0" IVar="7" Cut="7.1497046947479248e-01" cType="1" res="-2.4345589336007833e-03" rms="4.5499378442764282e-01" purity="5.0041913986206055e-01" nType="0">
        <Node pos="l" depth="1" NCoef="0" IVar="5" Cut="3.8205641508102417e-01" cType="1" res="-7.8359935432672501e-03" rms="4.5609715580940247e-01" purity="4.8925411701202393e-01" nType="0">
          <Node pos="l" depth="2" NCoef="0" IVar="-1" Cut="0.0000000000000000e+00" cType="1" res="-2.7871511410921812e-03" rms="4.7987267374992371e-01" purity="5.3083676099777222e-01" nType="-99"/>
          <Node pos="r" depth="2" NCoef="0" IVar="-1" Cut="0.0000000000000000e+00" cType="1" res="-4.6487599320244044e-05" rms="4.5325952768325806e-01" purity="4.8544064164161682e-01" nType="-99"/>
        </Node>
        <Node pos="r" depth="1" NCoef="0" IVar="-1" Cut="0.0000000000000000e+00" cType="1" res="3.4587988629937172e-03" rms="4.2682123184204102e-01" purity="6.8369758129119873e-01" nType="-99"/>
      </Node>
    </BinaryTree>
    <BinaryTree type="DecisionTree" boostWeight="1.0000000000000000e+00" itree="274">
      <Node pos="s" depth="0" NCoef="0" IVar="1" Cut="2.7670202255249023e+00" cType="1" res="-3.1671090982854366e-03" rms="4.5382648706436157e-01" purity="4.9212449789047241e-01" nType="0">
        <Node pos="l" depth="1" NCoef="0" IVar="7" Cut="6.9755989313125610e-01" cType="1" res="2.6014791801571846e-03" rms="4.6129688620567322e-01" purity="5.1571023464202881e-01" nType="0">
          <Node pos="l" depth="2" NCoef="0" IVar="-1" Cut="0.0000000000000000e+00" cType="1" res="-1.4103599824011326e-04" rms="4.6097084879875183e-01" purity="5.0531625747680664e-01" nType="-99"/>
          <Node pos="r" depth="2" NCoef="0" IVar="-1" Cut="0.0000000000000000e+00" cType="1" res="3.1820428557693958e-03" rms="4.5858436822891235e-01" purity="6.5027016401290894e-01" nType="-99"/>
        </Node>
        <Node pos="r" depth="1" NCoef="0" IVar="-1" Cut="0.0000000000000000e+00" cType="1" res="-6.6940616816282272e-03" rms="2.8354117274284363e-01" purity="9.3637451529502869e-02" nType="-99"/>
      </Node>
    </BinaryTree>
    <BinaryTree type="DecisionTree" boostWeight="1.0000000000000000e+00" itree="275">
      <Node pos="s" depth="0" NCoef="0" IVar="0" Cut="5.9883750915527344e+01" cType="1" res="1.1403336189687252e-02" rms="4.5301753282546997e-01" purity="5.1609003543853760e-01" nType="0">
        <Node pos="l" depth="1" NCoef="0" IVar="3" Cut="-7.3934935033321381e-02" cType="1" res="-2.2929530590772629e-02" rms="4.5561614632606506e-01" purity="4.3438139557838440e-01" nType="0">
          <Node pos="l" depth="2" NCoef="0" IVar="-1" Cut="0.0000000000000000e+00" cType="1" res="-5.4275766015052795e-03" rms="4.0515434741973877e-01" purity="2.5920873880386353e-01" nType="-99"/>
          <Node pos="r" depth="2" NCoef="0" IVar="-1" Cut="0.0000000000000000e+00" cType="1" res="6.1541330069303513e-05" rms="4.6523442864418030e-01" purity="4.8145595192909241e-01" nType="-99"/>
        </Node>
        <Node pos="r" depth="1" NCoef="0" IVar="1" Cut="2.4748642444610596e+00" cType="1" res="2.8764206916093826e-02" rms="4.5070329308509827e-01" purity="5.5740708112716675e-01" nType="0">
          <Node pos="l" depth="2" NCoef="0" IVar="-1" Cut="0.0000000000000000e+00" cType="1" res="1.6853061970323324e-03" rms="4.5613577961921692e-01" purity="6.2741726636886597e-01" nType="-99"/>
          <Node pos="r" depth="2" NCoef="0" IVar="-1" Cut="0.0000000000000000e+00" cType="1" res="-1.1416920460760593e-03" rms="4.2405623197555542e-01" purity="2.7268162369728088e-01" nType="-99"/>
        </Node>
      </Node>
    </BinaryTree>
    <BinaryTree type="DecisionTree" boostWeight="1.0000000000000000e+00" itree="276">
      <Node pos="s" depth="0" NCoef="0" IVar="6" Cut="6.8153171539306641e+00" cType="1" res="-7.3531846283003688e-04" rms="4.5290380716323853e-01" purity="4.9996340274810791e-01" nType="0">
        <Node pos="l" depth="1" NCoef="0" IVar="3" Cut="1.1218734085559845e-02" cType="1" res="-2.6339296251535416e-02" rms="4.5732906460762024e-01" purity="3.6537712812423706e-01" nType="0">
          <Node pos="l" depth="2" NCoef="0" IVar="-1" Cut="0.0000000000000000e+00" cType="1" res="2.0068409503437579e-04" rms="4.5449766516685486e-01" purity="3.6516305804252625e-01" nType="-99"/>
          <Node pos="r" depth="2" NCoef="0" IVar="-1" Cut="0.0000000000000000e+00" cType="1" res="-2.4291840381920338e-03" rms="4.5801100134849548e-01" purity="3.6561417579650879e-01" nType="-99"/>
        </Node>
        <Node pos="r" depth="1" NCoef="0" IVar="3" Cut="-5.6839022785425186e-02" cType="1" res="2.4380676448345184e-02" rms="4.4709810614585876e-01" purity="6.3198453187942505e-01" nType="0">
          <Node pos="l" depth="2" NCoef="0" IVar="-1" Cut="0.0000000000000000e+00" cType="1" res="-8.4715895354747772e-04" rms="4.5432028174400330e-01" purity="5.2816694974899292e-01" nType="-99"/>
          <Node pos="r" depth="2" NCoef="0" IVar="-1" Cut="0.0000000000000000e+00" cType="1" res="1.9426201470196247e-03" rms="4.4237312674522400e-01" purity="6.7891782522201538e-01" nType="-99"/>
        </Node>
      </Node>
    </BinaryTree>
    <BinaryTree type="DecisionTree" boostWeight="1.0000000000000000e+00" itree="277">
      <Node pos="s" depth="0" NCoef="0" IVar="0" Cut="3.8529235839843750e+01" cType="1" res="3.6615896970033646e-03" rms="4.5672145485877991e-01" purity="5.0293797254562378e-01" nType="0">
        <Node pos="l" depth="1" NCoef="0" IVar="-1" Cut="0.0000000000000000e+00" cType="1" res="-2.9501758981496096e-03" rms="4.3722936511039734e-01" purity="3.3433973789215088e-01" nType="-99"/>
        <Node pos="r" depth="1" NCoef="0" IVar="2" Cut="9.0793937444686890e-01" cType="1" res="1.1352295987308025e-02" rms="4.5813173055648804e-01" purity="5.2125990390777588e-01" nType="0">
          <Node pos="l" depth="2" NCoef="0" IVar="-1" Cut="0.0000000000000000e+00" cType="1" res="-2.6856570038944483e-03" rms="4.3054202198982239e-01" purity="2.3714725673198700e-01" nType="-99"/>
          <Node pos="r" depth="2" NCoef="0" IVar="-1" Cut="0.0000000000000000e+00" cType="1" res="6.6113227512687445e-04" rms="4.5938241481781006e-01" purity="5.3829067945480347e-01" nType="-99"/>
        </Node>
      </Node>
    </BinaryTree>
    <BinaryTree type="DecisionTree" boostWeight="1.0000000000000000e+00" itree="278">
      <Node pos="s" depth="0" NCoef="0" IVar="2" Cut="9.4558644294738770e-01" cType="1" res="4.1750292293727398e-03" rms="4.4885316491127014e-01" purity="5.0417405366897583e-01" nType="0">
        <Node pos="l" depth="1" NCoef="0" IVar="3" Cut="-1.2276619672775269e-02" cType="1" res="-2.5193709880113602e-02" rms="4.4953396916389465e-01" purity="3.5608905553817749e-01" nType="0">
          <Node pos="l" depth="2" NCoef="0" IVar="-1" Cut="0.0000000000000000e+00" cType="1" res="1.3485270028468221e-04" rms="4.5222482085227966e-01" purity="3.4814801812171936e-01" nType="-99"/>
          <Node pos="r" depth="2" NCoef="0" IVar="-1" Cut="0.0000000000000000e+00" cType="1" res="-2.0705661736428738e-03" rms="4.4552540779113770e-01" purity="3.6330041289329529e-01" nType="-99"/>
        </Node>
        <Node pos="r" depth="1" NCoef="0" IVar="0" Cut="3.9189701080322266e+01" cType="1" res="2.5141028687357903e-02" rms="4.4718810915946960e-01" purity="6.0989016294479370e-01" nType="0">
          <Node pos="l" depth="2" NCoef="0" IVar="-1" Cut="0.0000000000000000e+00" cType="1" res="-2.3299385793507099e-03" rms="4.6695026755332947e-01" purity="4.2963239550590515e-01" nType="-99"/>
          <Node pos="r" depth="2" NCoef="0" IVar="-1" Cut="0.0000000000000000e+00" cType="1" res="1.4484368730336428e-03" rms="4.4423145055770874e-01" purity="6.2863820791244507e-01" nType="-99"/>
        </Node>
      </Node>
    </BinaryTree>
    <BinaryTree type="DecisionTree" boostWeight="1.0000000000000000e+00" itree="279">
      <Node pos="s" depth="0" NCoef="0" IVar="1" Cut="2.1830623149871826e+00" cType="1" res="5.4768775589764118e-03" rms="4.4860538840293884e-01" purity="5.0048601627349854e-01" nType="0">
        <Node pos="l" depth="1" NCoef="0" IVar="0" Cut="4.4233615875244141e+01" cType="1" res="3.0210483819246292e-02" rms="4.5645523071289062e-01" purity="6.0366314649581909e-01" nType="0">
          <Node pos="l" depth="2" NCoef="0" IVar="-1" Cut="0.0000000000000000e+00" cType="1" res="-1.1249119415879250e-03" rms="4.7040596604347229e-01" purity="4.4104731082916260e-01" nType="-99"/>
          <Node pos="r" depth="2" NCoef="0" IVar="-1" Cut="0.0000000000000000e+00" cType="1" res="1.8330587772652507e-03" rms="4.5153433084487915e-01" purity="6.4609301090240479e-01" nType="-99"/>
        </Node>
        <Node pos="r" depth="1" NCoef="0" IVar="1" Cut="2.2281067371368408e+00" cType="1" res="-2.3932559415698051e-02" rms="4.3727198243141174e-01" purity="3.7780350446701050e-01" nType="0">
          <Node pos="l" depth="2" NCoef="0" IVar="-1" Cut="0.0000000000000000e+00" cType="1" res="2.4925873149186373e-03" rms="4.4213989377021790e-01" purity="5.9540838003158569e-01" nType="-99"/>
          <Node pos="r" depth="2" NCoef="0" IVar="-1" Cut="0.0000000000000000e+00" cType="1" res="-1.7528585158288479e-03" rms="4.3491420149803162e-01" purity="3.4213939309120178e-01" nType="-99"/>
        </Node>
      </Node>
    </BinaryTree>
    <BinaryTree type="DecisionTree" boostWeight="1.0000000000000000e+00" itree="280">
      <Node pos="s" depth="0" NCoef="0" IVar="6" Cut="7.9748983383178711e+00" cType="1" res="9.7687672823667526e-03" rms="4.5148539543151855e-01" purity="5.0985181331634521e-01" nType="0">
        <Node pos="l" depth="1" NCoef="0" IVar="5" Cut="1.1555138826370239e+00" cType="1" res="-1.3822821201756597e-03" rms="4.5990362763404846e-01" purity="4.4593203067779541e-01" nType="0">
          <Node pos="l" depth="2" NCoef="0" IVar="-1" Cut="0.0000000000000000e+00" cType="1" res="2.1446542814373970e-04" rms="4.6342170238494873e-01" purity="4.6385484933853149e-01" nType="-99"/>
          <Node pos="r" depth="2" NCoef="0" IVar="-1" Cut="0.0000000000000000e+00" cType="1" res="-2.7544661425054073e-03" rms="4.2341357469558716e-01" purity="2.8864073753356934e-01" nType="-99"/>
        </Node>
        <Node pos="r" depth="1" NCoef="0" IVar="5" Cut="6.1508327722549438e-01" cType="1" res="4.5605704188346863e-02" rms="4.2130535840988159e-01" purity="7.1527528762817383e-01" nType="0">
          <Node pos="l" depth="2" NCoef="0" IVar="-1" Cut="0.0000000000000000e+00" cType="1" res="-6.1365513829514384e-04" rms="4.2006462812423706e-01" purity="7.1896851062774658e-01" nType="-99"/>
          <Node pos="r" depth="2" NCoef="0" IVar="-1" Cut="0.0000000000000000e+00" cType="1" res="3.4394341055303812e-03" rms="4.1856569051742554e-01" purity="7.1325510740280151e-01" nType="-99"/>
        </Node>
      </Node>
    </BinaryTree>
    <BinaryTree type="DecisionTree" boostWeight="1.0000000000000000e+00" itree="281">
      <Node pos="s" depth="0" NCoef="0" IVar="5" Cut="4.5340374112129211e-01" cType="1" res="5.0934213213622570e-03" rms="4.5378684997558594e-01" purity="5.0645172595977783e-01" nType="0">
        <Node pos="l" depth="1" NCoef="0" IVar="5" Cut="3.6814421415328979e-01" cType="1" res="-4.1789676994085312e-02" rms="4.6278429031372070e-01" purity="5.5881434679031372e-01" nType="0">
          <Node pos="l" depth="2" NCoef="0" IVar="-1" Cut="0.0000000000000000e+00" cType="1" res="-1.8102324975188822e-04" rms="4.5758986473083496e-01" purity="6.0178005695343018e-01" nType="-99"/>
          <Node pos="r" depth="2" NCoef="0" IVar="-1" Cut="0.0000000000000000e+00" cType="1" res="-3.5196391399949789e-03" rms="4.6496269106864929e-01" purity="5.1107513904571533e-01" nType="-99"/>
        </Node>
        <Node pos="r" depth="1" NCoef="0" IVar="1" Cut="2.3207664489746094e+00" cType="1" res="1.2450482696294785e-02" rms="4.5191740989685059e-01" purity="4.9823486804962158e-01" nType="0">
          <Node pos="l" depth="2" NCoef="0" IVar="-1" Cut="0.0000000000000000e+00" cType="1" res="1.0600098175927997e-03" rms="4.6159166097640991e-01" purity="5.8079302310943604e-01" nType="-99"/>
          <Node pos="r" depth="2" NCoef="0" IVar="-1" Cut="0.0000000000000000e+00" cType="1" res="-7.4212270556017756e-04" rms="4.2953202128410339e-01" purity="3.2467094063758850e-01" nType="-99"/>
        </Node>
      </Node>
    </BinaryTree>
    <BinaryTree type="DecisionTree" boostWeight="1.0000000000000000e+00" itree="282">
      <Node pos="s" depth="0" NCoef="0" IVar="3" Cut="1.9116850197315216e-01" cType="1" res="-5.7737748138606548e-03" rms="4.5605990290641785e-01" purity="4.9322113394737244e-01" nType="0">
        <Node pos="l" depth="1" NCoef="0" IVar="5" Cut="4.3485414981842041e-01" cType="1" res="-1.3208013959228992e-02" rms="4.5624297857284546e-01" purity="4.7420221567153931e-01" nType="0">
          <Node pos="l" depth="2" NCoef="0" IVar="-1" Cut="0.0000000000000000e+00" cType="1" res="-2.6817333418875933e-03" rms="4.7363442182540894e-01" purity="5.3542226552963257e-01" nType="-99"/>
          <Node pos="r" depth="2" NCoef="0" IVar="-1" Cut="0.0000000000000000e+00" cType="1" res="-2.3378316836897284e-04" rms="4.5304897427558899e-01" purity="4.6497926115989685e-01" nType="-99"/>
        </Node>
        <Node pos="r" depth="1" NCoef="0" IVar="7" Cut="2.6492929458618164e-01" cType="1" res="5.3493369370698929e-02" rms="4.5022863149642944e-01" purity="6.4484316110610962e-01" nType="0">
          <Node pos="l" depth="2" NCoef="0" IVar="-1" Cut="0.0000000000000000e+00" cType="1" res="3.6431222688406706e-03" rms="4.5137137174606323e-01" purity="6.4790713787078857e-01" nType="-99"/>
          <Node pos="r" depth="2" NCoef="0" IVar="-1" Cut="0.0000000000000000e+00" cType="1" res="9.5639989012852311e-04" rms="4.4696789979934692e-01" purity="6.4205044507980347e-01" nType="-99"/>
        </Node>
      </Node>
    </BinaryTree>
    <BinaryTree type="DecisionTree" boostWeight="1.0000000000000000e+00" itree="283">
      <Node pos="s" depth="0" NCoef="0" IVar="1" Cut="2.7003593444824219e+00" cType="1" res="-6.2020625919103622e-03" rms="4.5674040913581848e-01" purity="4.9277415871620178e-01" nType="0">
        <Node pos="l" depth="1" NCoef="0" IVar="4" Cut="1.4041095972061157e+00" cType="1" res="-1.1423211544752121e-03" rms="4.6407321095466614e-01" purity="5.1791703701019287e-01" nType="0">
          <Node pos="l" depth="2" NCoef="0" IVar="-1" Cut="0.0000000000000000e+00" cType="1" res="-4.1807448724284768e-04" rms="4.6580925583839417e-01" purity="5.4162812232971191e-01" nType="-99"/>
          <Node pos="r" depth="2" NCoef="0" IVar="-1" Cut="0.0000000000000000e+00" cType="1" res="2.9094885103404522e-03" rms="4.4716405868530273e-01" purity="3.5539615154266357e-01" nType="-99"/>
        </Node>
        <Node pos="r" depth="1" NCoef="0" IVar="-1" Cut="0.0000000000000000e+00" cType="1" res="-5.2509345114231110e-03" rms="3.2093659043312073e-01" purity="1.2168396264314651e-01" nType="-99"/>
      </Node>
    </BinaryTree>
    <BinaryTree type="DecisionTree" boostWeight="1.0000000000000000e+00" itree="284">
      <Node pos="s" depth="0" NCoef="0" IVar="3" Cut="1.3548269867897034e-01" cType="1" res="2.5974601157940924e-04" rms="4.5720681548118591e-01" purity="4.9534919857978821e-01" nType="0">
        <Node pos="l" depth="1" NCoef="0" IVar="0" Cut="6.0237709045410156e+01" cType="1" res="-1.2291128747165203e-02" rms="4.5677763223648071e-01" purity="4.6564534306526184e-01" nType="0">
          <Node pos="l" depth="2" NCoef="0" IVar="-1" Cut="0.0000000000000000e+00" cType="1" res="-2.1430791821330786e-03" rms="4.4696110486984253e-01" purity="3.8087287545204163e-01" nType="-99"/>
          <Node pos="r" depth="2" NCoef="0" IVar="-1" Cut="0.0000000000000000e+00" cType="1" res="2.8823054162785411e-04" rms="4.6056967973709106e-01" purity="5.0908517837524414e-01" nType="-99"/>
        </Node>
        <Node pos="r" depth="1" NCoef="0" IVar="3" Cut="2.3067909479141235e-01" cType="1" res="5.3093686699867249e-02" rms="4.5523053407669067e-01" purity="6.2039011716842651e-01" nType="0">
          <Node pos="l" depth="2" NCoef="0" IVar="-1" Cut="0.0000000000000000e+00" cType="1" res="3.1092963181436062e-03" rms="4.4959923624992371e-01" purity="6.3618004322052002e-01" nType="-99"/>
          <Node pos="r" depth="2" NCoef="0" IVar="-1" Cut="0.0000000000000000e+00" cType="1" res="6.1824168369639665e-05" rms="4.6401149034500122e-01" purity="5.8359819650650024e-01" nType="-99"/>
        </Node>
      </Node>
    </BinaryTree>
    <BinaryTree type="DecisionTree" boostWeight="1.0000000000000000e+00" itree="285">
      <Node pos="s" depth="0" NCoef="0" IVar="7" Cut="2.7919256687164307e-01" cType="1" res="3.7369525525718927e-03" rms="4.5314133167266846e-01" purity="5.0127816200256348e-01" nType="0">
        <Node pos="l" depth="1" NCoef="0" IVar="7" Cut="1.4755234122276306e-01" cType="1" res="-3.4436892718076706e-02" rms="4.4502738118171692e-01" purity="3.8895463943481445e-01" nType="0">
          <Node pos="l" depth="2" NCoef="0" IVar="-1" Cut="0.0000000000000000e+00" cType="1" res="8.8004575809463859e-04" rms="4.4728636741638184e-01" purity="3.9411985874176025e-01" nType="-99"/>
          <Node pos="r" depth="2" NCoef="0" IVar="-1" Cut="0.0000000000000000e+00" cType="1" res="-2.6481789536774158e-03" rms="4.4196170568466187e-01" purity="3.8668933510780334e-01" nType="-99"/>
        </Node>
        <Node pos="r" depth="1" NCoef="0" IVar="0" Cut="8.0573280334472656e+01" cType="1" res="2.0375158637762070e-02" rms="4.5563301444053650e-01" purity="5.5023473501205444e-01" nType="0">
          <Node pos="l" depth="2" NCoef="0" IVar="-1" Cut="0.0000000000000000e+00" cType="1" res="-6.6900567617267370e-05" rms="4.5866030454635620e-01" purity="4.9883687496185303e-01" nType="-99"/>
          <Node pos="r" depth="2" NCoef="0" IVar="-1" Cut="0.0000000000000000e+00" cType="1" res="2.0573893561959267e-03" rms="4.5018231868743896e-01" purity="6.1581617593765259e-01" nType="-99"/>
        </Node>
      </Node>
    </BinaryTree>
    <BinaryTree type="DecisionTree" boostWeight="1.0000000000000000e+00" itree="286">
      <Node pos="s" depth="0" NCoef="0" IVar="3" Cut="8.7836429476737976e-02" cType="1" res="3.0945211183279753e-03" rms="4.5104569196701050e-01" purity="4.9928477406501770e-01" nType="0">
        <Node pos="l" depth="1" NCoef="0" IVar="7" Cut="6.1623758077621460e-01" cType="1" res="-7.3270229622721672e-03" rms="4.4996893405914307e-01" purity="4.6986877918243408e-01" nType="0">
          <Node pos="l" depth="2" NCoef="0" IVar="-1" Cut="0.0000000000000000e+00" cType="1" res="-7.1475363802164793e-04" rms="4.4749870896339417e-01" purity="4.4516569375991821e-01" nType="-99"/>
          <Node pos="r" depth="2" NCoef="0" IVar="-1" Cut="0.0000000000000000e+00" cType="1" res="1.5691649168729782e-03" rms="4.5974114537239075e-01" purity="5.9632164239883423e-01" nType="-99"/>
        </Node>
        <Node pos="r" depth="1" NCoef="0" IVar="0" Cut="4.7271430969238281e+01" cType="1" res="2.9944309964776039e-02" rms="4.5270416140556335e-01" purity="5.7507145404815674e-01" nType="0">
          <Node pos="l" depth="2" NCoef="0" IVar="-1" Cut="0.0000000000000000e+00" cType="1" res="-1.7952010966837406e-03" rms="4.4716337323188782e-01" purity="4.1743612289428711e-01" nType="-99"/>
          <Node pos="r" depth="2" NCoef="0" IVar="-1" Cut="0.0000000000000000e+00" cType="1" res="2.1794403437525034e-03" rms="4.5201504230499268e-01" purity="6.2204694747924805e-01" nType="-99"/>
        </Node>
      </Node>
    </BinaryTree>
    <BinaryTree type="DecisionTree" boostWeight="1.0000000000000000e+00" itree="287">
      <Node pos="s" depth="0" NCoef="0" IVar="7" Cut="1.9143497943878174e-01" cType="1" res="-5.4032811895012856e-03" rms="4.5567646622657776e-01" purity="4.9225488305091858e-01" nType="0">
        <Node pos="l" depth="1" NCoef="0" IVar="3" Cut="2.7697201818227768e-02" cType="1" res="-4.8321943730115891e-02" rms="4.3164494633674622e-01" purity="3.3995851874351501e-01" nType="0">
          <Node pos="l" depth="2" NCoef="0" IVar="-1" Cut="0.0000000000000000e+00" cType="1" res="-1.5149447135627270e-03" rms="4.2664518952369690e-01" purity="3.3139681816101074e-01" nType="-99"/>
          <Node pos="r" depth="2" NCoef="0" IVar="-1" Cut="0.0000000000000000e+00" cType="1" res="-3.3225673250854015e-03" rms="4.3789899349212646e-01" purity="3.5299208760261536e-01" nType="-99"/>
        </Node>
        <Node pos="r" depth="1" NCoef="0" IVar="5" Cut="7.2451329231262207e-01" cType="1" res="1.9200145034119487e-03" rms="4.5925113558769226e-01" purity="5.1824152469635010e-01" nType="0">
          <Node pos="l" depth="2" NCoef="0" IVar="-1" Cut="0.0000000000000000e+00" cType="1" res="8.4094505291432142e-04" rms="4.6378374099731445e-01" purity="5.9661579132080078e-01" nType="-99"/>
          <Node pos="r" depth="2" NCoef="0" IVar="-1" Cut="0.0000000000000000e+00" cType="1" res="-6.8487290991470218e-04" rms="4.5426380634307861e-01" purity="4.4500985741615295e-01" nType="-99"/>
        </Node>
      </Node>
    </BinaryTree>
    <BinaryTree type="DecisionTree" boostWeight="1.0000000000000000e+00" itree="288">
      <Node pos="s" depth="0" NCoef="0" IVar="3" Cut="1.2629562616348267e-01" cType="1" res="-1.0227266699075699e-02" rms="4.5235803723335266e-01" purity="4.8718759417533875e-01" nType="0">
        <Node pos="l" depth="1" NCoef="0" IVar="7" Cut="4.4467651844024658e-01" cType="1" res="-1.9215404987335205e-02" rms="4.5132943987846375e-01" purity="4.6094158291816711e-01" nType="0">
          <Node pos="l" depth="2" NCoef="0" IVar="-1" Cut="0.0000000000000000e+00" cType="1" res="-1.7053664196282625e-03" rms="4.4092842936515808e-01" purity="3.9081406593322754e-01" nType="-99"/>
          <Node pos="r" depth="2" NCoef="0" IVar="-1" Cut="0.0000000000000000e+00" cType="1" res="1.5892890223767608e-04" rms="4.6251881122589111e-01" purity="5.4555749893188477e-01" nType="-99"/>
        </Node>
        <Node pos="r" depth="1" NCoef="0" IVar="6" Cut="6.2773065567016602e+00" cType="1" res="2.4319166317582130e-02" rms="4.5463889837265015e-01" purity="5.8806550502777100e-01" nType="0">
          <Node pos="l" depth="2" NCoef="0" IVar="-1" Cut="0.0000000000000000e+00" cType="1" res="-4.9743789713829756e-04" rms="4.7724446654319763e-01" purity="4.0206784009933472e-01" nType="-99"/>
          <Node pos="r" depth="2" NCoef="0" IVar="-1" Cut="0.0000000000000000e+00" cType="1" res="1.9052694551646709e-03" rms="4.4032669067382812e-01" purity="6.9082528352737427e-01" nType="-99"/>
        </Node>
      </Node>
    </BinaryTree>
    <BinaryTree type="DecisionTree" boostWeight="1.0000000000000000e+00" itree="289">
      <Node pos="s" depth="0" NCoef="0" IVar="2" Cut="9.1050350666046143e-01" cType="1" res="1.4024067670106888e-02" rms="4.5311683416366577e-01" purity="5.1695990562438965e-01" nType="0">
        <Node pos="l" depth="1" NCoef="0" IVar="-1" Cut="0.0000000000000000e+00" cType="1" res="-3.6736570764333010e-03" rms="3.8360106945037842e-01" purity="2.0780310034751892e-01" nType="-99"/>
        <Node pos="r" depth="1" NCoef="0" IVar="1" Cut="2.1830623149871826e+00" cType="1" res="1.9867325201630592e-02" rms="4.5654153823852539e-01" purity="5.3656190633773804e-01" nType="0">
          <Node pos="l" depth="2" NCoef="0" IVar="-1" Cut="0.0000000000000000e+00" cType="1" res="1.5894414391368628e-03" rms="4.5756283402442932e-01" purity="6.2866693735122681e-01" nType="-99"/>
          <Node pos="r" depth="2" NCoef="0" IVar="-1" Cut="0.0000000000000000e+00" cType="1" res="-2.1313942852430046e-04" rms="4.5406478643417358e-01" purity="4.2141863703727722e-01" nType="-99"/>
        </Node>
      </Node>
    </BinaryTree>
    <BinaryTree type="DecisionTree" boostWeight="1.0000000000000000e+00" itree="290">
      <Node pos="s" depth="0" NCoef="0" IVar="6" Cut="8.5773029327392578e+00" cType="1" res="-5.3922687657177448e-03" rms="4.5523566007614136e-01" purity="4.9417796730995178e-01" nType="0">
        <Node pos="l" depth="1" NCoef="0" IVar="7" Cut="6.9915235042572021e-01" cType="1" res="-1.4873596839606762e-02" rms="4.6302738785743713e-01" purity="4.5721483230590820e-01" nType="0">
          <Node pos="l" depth="2" NCoef="0" IVar="-1" Cut="0.0000000000000000e+00" cType="1" res="-8.0583925591781735e-04" rms="4.6318405866622925e-01" purity="4.4709464907646179e-01" nType="-99"/>
          <Node pos="r" depth="2" NCoef="0" IVar="-1" Cut="0.0000000000000000e+00" cType="1" res="1.9665053114295006e-03" rms="4.5564657449722290e-01" purity="5.9756296873092651e-01" nType="-99"/>
        </Node>
        <Node pos="r" depth="1" NCoef="0" IVar="4" Cut="8.5526508092880249e-01" cType="1" res="5.9078760445117950e-02" rms="3.9219918847084045e-01" purity="7.4551934003829956e-01" nType="0">
          <Node pos="l" depth="2" NCoef="0" IVar="-1" Cut="0.0000000000000000e+00" cType="1" res="5.1619964651763439e-03" rms="3.2096156477928162e-01" purity="8.7603116035461426e-01" nType="-99"/>
          <Node pos="r" depth="2" NCoef="0" IVar="-1" Cut="0.0000000000000000e+00" cType="1" res="1.3149543665349483e-03" rms="4.3782940506935120e-01" purity="6.4285624027252197e-01" nType="-99"/>
        </Node>
      </Node>
    </BinaryTree>
    <BinaryTree type="DecisionTree" boostWeight="1.0000000000000000e+00" itree="291">
      <Node pos="s" depth="0" NCoef="0" IVar="4" Cut="1.6763459444046021e+00" cType="1" res="8.2885241135954857e-03" rms="4.5071676373481750e-01" purity="5.0828200578689575e-01" nType="0">
        <Node pos="l" depth="1" NCoef="0" IVar="2" Cut="9.0968316793441772e-01" cType="1" res="1.4742457307875156e-02" rms="4.5768034458160400e-01" purity="5.3779351711273193e-01" nType="0">
          <Node pos="l" depth="2" NCoef="0" IVar="-1" Cut="0.0000000000000000e+00" cType="1" res="-2.4623465724289417e-03" rms="4.1677340865135193e-01" purity="2.4954368174076080e-01" nType="-99"/>
          <Node pos="r" depth="2" NCoef="0" IVar="-1" Cut="0.0000000000000000e+00" cType="1" res="8.0035981955006719e-04" rms="4.5968949794769287e-01" purity="5.5533146858215332e-01" nType="-99"/>
        </Node>
        <Node pos="r" depth="1" NCoef="0" IVar="-1" Cut="0.0000000000000000e+00" cType="1" res="-4.6273348852992058e-03" rms="3.4285083413124084e-01" purity="1.4138570427894592e-01" nType="-99"/>
      </Node>
    </BinaryTree>
    <BinaryTree type="DecisionTree" boostWeight="1.0000000000000000e+00" itree="292">
      <Node pos="s" depth="0" NCoef="0" IVar="6" Cut="5.9527125358581543e+00" cType="1" res="-4.1946042329072952e-03" rms="4.4772613048553467e-01" purity="4.9832311272621155e-01" nType="0">
        <Node pos="l" depth="1" NCoef="0" IVar="5" Cut="5.6295537948608398e-01" cType="1" res="-3.8626324385404587e-02" rms="4.3341490626335144e-01" purity="2.9802274703979492e-01" nType="0">
          <Node pos="l" depth="2" NCoef="0" IVar="-1" Cut="0.0000000000000000e+00" cType="1" res="1.0192994959652424e-03" rms="4.8585262894630432e-01" purity="4.4427934288978577e-01" nType="-99"/>
          <Node pos="r" depth="2" NCoef="0" IVar="-1" Cut="0.0000000000000000e+00" cType="1" res="-2.5589917786419392e-03" rms="4.1650620102882385e-01" purity="2.5878822803497314e-01" nType="-99"/>
        </Node>
        <Node pos="r" depth="1" NCoef="0" IVar="3" Cut="-1.0135100781917572e-01" cType="1" res="8.2068396732211113e-03" rms="4.5212808251380920e-01" purity="5.7046627998352051e-01" nType="0">
          <Node pos="l" depth="2" NCoef="0" IVar="-1" Cut="0.0000000000000000e+00" cType="1" res="-2.8314171358942986e-03" rms="4.2484885454177856e-01" purity="4.0431272983551025e-01" nType="-99"/>
          <Node pos="r" depth="2" NCoef="0" IVar="-1" Cut="0.0000000000000000e+00" cType="1" res="6.2724982853978872e-04" rms="4.5391461253166199e-01" purity="5.8538413047790527e-01" nType="-99"/>
        </Node>
      </Node>
    </BinaryTree>
    <BinaryTree type="DecisionTree" boostWeight="1.0000000000000000e+00" itree="293">
      <Node pos="s" depth="0" NCoef="0" IVar="0" Cut="1.0281442260742188e+02" cType="1" res="-9.2605212703347206e-03" rms="4.5655190944671631e-01" purity="4.9301165342330933e-01" nType="0">
        <Node pos="l" depth="1" NCoef="0" IVar="4" Cut="1.4860366582870483e+00" cType="1" res="-1.8274661153554916e-02" rms="4.5891699194908142e-01" purity="4.6586614847183228e-01" nType="0">
          <Node pos="l" depth="2" NCoef="0" IVar="-1" Cut="0.0000000000000000e+00" cType="1" res="-4.9817416584119201e-04" rms="4.7123116254806519e-01" purity="5.0831985473632812e-01" nType="-99"/>
          <Node pos="r" depth="2" NCoef="0" IVar="-1" Cut="0.0000000000000000e+00" cType="1" res="-3.8046771660447121e-03" rms="3.5744374990463257e-01" purity="1.6684488952159882e-01" nType="-99"/>
        </Node>
        <Node pos="r" depth="1" NCoef="0" IVar="0" Cut="1.3948428344726562e+02" cType="1" res="1.5397878363728523e-02" rms="4.4909518957138062e-01" purity="5.6726896762847900e-01" nType="0">
          <Node pos="l" depth="2" NCoef="0" IVar="-1" Cut="0.0000000000000000e+00" cType="1" res="1.4717882731929421e-03" rms="4.5117262005805969e-01" purity="6.0507237911224365e-01" nType="-99"/>
          <Node pos="r" depth="2" NCoef="0" IVar="-1" Cut="0.0000000000000000e+00" cType="1" res="-1.2803260469809175e-03" rms="4.4118282198905945e-01" purity="4.7727176547050476e-01" nType="-99"/>
        </Node>
      </Node>
    </BinaryTree>
    <BinaryTree type="DecisionTree" boostWeight="1.0000000000000000e+00" itree="294">
      <Node pos="s" depth="0" NCoef="0" IVar="0" Cut="3.9967468261718750e+01" cType="1" res="4.2354254983365536e-03" rms="4.5615130662918091e-01" purity="5.0223249197006226e-01" nType="0">
        <Node pos="l" depth="1" NCoef="0" IVar="7" Cut="4.3972027301788330e-01" cType="1" res="-6.6931471228599548e-02" rms="4.5644348859786987e-01" purity="3.2746487855911255e-01" nType="0">
          <Node pos="l" depth="2" NCoef="0" IVar="-1" Cut="0.0000000000000000e+00" cType="1" res="-4.9232156015932560e-03" rms="4.1522452235221863e-01" purity="2.3943066596984863e-01" nType="-99"/>
          <Node pos="r" depth="2" NCoef="0" IVar="-1" Cut="0.0000000000000000e+00" cType="1" res="-9.0180308325216174e-04" rms="4.9082365632057190e-01" purity="4.1695186495780945e-01" nType="-99"/>
        </Node>
        <Node pos="r" depth="1" NCoef="0" IVar="5" Cut="1.1053525209426880e+00" cType="1" res="1.2780772522091866e-02" rms="4.5536890625953674e-01" purity="5.2321767807006836e-01" nType="0">
          <Node pos="l" depth="2" NCoef="0" IVar="-1" Cut="0.0000000000000000e+00" cType="1" res="2.6080018142238259e-04" rms="4.5632132887840271e-01" purity="5.3363060951232910e-01" nType="-99"/>
          <Node pos="r" depth="2" NCoef="0" IVar="-1" Cut="0.0000000000000000e+00" cType="1" res="2.1628544200211763e-03" rms="4.4799742102622986e-01" purity="4.6379384398460388e-01" nType="-99"/>
        </Node>
      </Node>
    </BinaryTree>
    <BinaryTree type="DecisionTree" boostWeight="1.0000000000000000e+00" itree="295">
      <Node pos="s" depth="0" NCoef="0" IVar="0" Cut="8.1337692260742188e+01" cType="1" res="-3.6417017690837383e-03" rms="4.5666071772575378e-01" purity="4.9821254611015320e-01" nType="0">
        <Node pos="l" depth="1" NCoef="0" IVar="5" Cut="4.5526832342147827e-01" cType="1" res="-1.6381209716200829e-02" rms="4.6027600765228271e-01" purity="4.5239791274070740e-01" nType="0">
          <Node pos="l" depth="2" NCoef="0" IVar="-1" Cut="0.0000000000000000e+00" cType="1" res="-2.8174486942589283e-03" rms="4.7233790159225464e-01" purity="4.8777475953102112e-01" nType="-99"/>
          <Node pos="r" depth="2" NCoef="0" IVar="-1" Cut="0.0000000000000000e+00" cType="1" res="-3.3159967279061675e-04" rms="4.5765930414199829e-01" purity="4.4652965664863586e-01" nType="-99"/>
        </Node>
        <Node pos="r" depth="1" NCoef="0" IVar="5" Cut="9.0180182456970215e-01" cType="1" res="1.2735107913613319e-02" rms="4.5144289731979370e-01" purity="5.5710786581039429e-01" nType="0">
          <Node pos="l" depth="2" NCoef="0" IVar="-1" Cut="0.0000000000000000e+00" cType="1" res="1.3750358484685421e-03" rms="4.4520708918571472e-01" purity="6.1808991432189941e-01" nType="-99"/>
          <Node pos="r" depth="2" NCoef="0" IVar="-1" Cut="0.0000000000000000e+00" cType="1" res="-1.0523980017751455e-03" rms="4.6094673871994019e-01" purity="4.4066363573074341e-01" nType="-99"/>
        </Node>
      </Node>
    </BinaryTree>
    <BinaryTree type="DecisionTree" boostWeight="1.0000000000000000e+00" itree="296">
      <Node pos="s" depth="0" NCoef="0" IVar="0" Cut="1.0200418090820312e+02" cType="1" res="-4.1463160887360573e-03" rms="4.5101323723793030e-01" purity="4.9607154726982117e-01" nType="0">
        <Node pos="l" depth="1" NCoef="0" IVar="6" Cut="8.8288631439208984e+00" cType="1" res="-1.8007682636380196e-02" rms="4.5337480306625366e-01" purity="4.6597507596015930e-01" nType="0">
          <Node pos="l" depth="2" NCoef="0" IVar="-1" Cut="0.0000000000000000e+00" cType="1" res="-1.1237274156883359e-03" rms="4.5603924989700317e-01" purity="4.3664953112602234e-01" nType="-99"/>
          <Node pos="r" depth="2" NCoef="0" IVar="-1" Cut="0.0000000000000000e+00" cType="1" res="2.8194785118103027e-03" rms="4.1932299733161926e-01" purity="7.3974519968032837e-01" nType="-99"/>
        </Node>
        <Node pos="r" depth="1" NCoef="0" IVar="6" Cut="6.2934141159057617e+00" cType="1" res="3.1637594103813171e-02" rms="4.4285762310028076e-01" purity="5.7376730442047119e-01" nType="0">
          <Node pos="l" depth="2" NCoef="0" IVar="-1" Cut="0.0000000000000000e+00" cType="1" res="-6.1366701265797019e-04" rms="4.4967588782310486e-01" purity="3.8017407059669495e-01" nType="-99"/>
          <Node pos="r" depth="2" NCoef="0" IVar="-1" Cut="0.0000000000000000e+00" cType="1" res="2.5127541739493608e-03" rms="4.3733426928520203e-01" purity="6.7459225654602051e-01" nType="-99"/>
        </Node>
      </Node>
    </BinaryTree>
    <BinaryTree type="DecisionTree" boostWeight="1.0000000000000000e+00" itree="297">
      <Node pos="s" depth="0" NCoef="0" IVar="0" Cut="8.1784217834472656e+01" cType="1" res="-9.7915716469287872e-03" rms="4.5321926474571228e-01" purity="4.9367222189903259e-01" nType="0">
        <Node pos="l" depth="1" NCoef="0" IVar="7" Cut="5.2929306030273438e-01" cType="1" res="-3.0724812299013138e-02" rms="4.5411089062690735e-01" purity="4.4290372729301453e-01" nType="0">
          <Node pos="l" depth="2" NCoef="0" IVar="-1" Cut="0.0000000000000000e+00" cType="1" res="-2.2399323061108589e-03" rms="4.4996985793113708e-01" purity="3.9327803254127502e-01" nType="-99"/>
          <Node pos="r" depth="2" NCoef="0" IVar="-1" Cut="0.0000000000000000e+00" cType="1" res="7.2008528513833880e-04" rms="4.6022886037826538e-01" purity="5.6169390678405762e-01" nType="-99"/>
        </Node>
        <Node pos="r" depth="1" NCoef="0" IVar="0" Cut="1.3877056884765625e+02" cType="1" res="1.7761917784810066e-02" rms="4.5056286454200745e-01" purity="5.6049638986587524e-01" nType="0">
          <Node pos="l" depth="2" NCoef="0" IVar="-1" Cut="0.0000000000000000e+00" cType="1" res="1.4438336947932839e-03" rms="4.4608631730079651e-01" purity="5.8498597145080566e-01" nType="-99"/>
          <Node pos="r" depth="2" NCoef="0" IVar="-1" Cut="0.0000000000000000e+00" cType="1" res="-2.4014639202505350e-03" rms="4.6323165297508240e-01" purity="4.5201915502548218e-01" nType="-99"/>
        </Node>
      </Node>
    </BinaryTree>
    <BinaryTree type="DecisionTree" boostWeight="1.0000000000000000e+00" itree="298">
      <Node pos="s" depth="0" NCoef="0" IVar="6" Cut="5.0151062011718750e+00" cType="1" res="1.2654399499297142e-02" rms="4.5223051309585571e-01" purity="5.1232522726058960e-01" nType="0">
        <Node pos="l" depth="1" NCoef="0" IVar="-1" Cut="0.0000000000000000e+00" cType="1" res="-3.2762142363935709e-03" rms="4.0692010521888733e-01" purity="2.0407195389270782e-01" nType="-99"/>
        <Node pos="r" depth="1" NCoef="0" IVar="3" Cut="1.2534448504447937e-01" cType="1" res="1.8912546336650848e-02" rms="4.5487198233604431e-01" purity="5.3569859266281128e-01" nType="0">
          <Node pos="l" depth="2" NCoef="0" IVar="-1" Cut="0.0000000000000000e+00" cType="1" res="3.8382702041417360e-04" rms="4.5728859305381775e-01" purity="5.0588476657867432e-01" nType="-99"/>
          <Node pos="r" depth="2" NCoef="0" IVar="-1" Cut="0.0000000000000000e+00" cType="1" res="2.5056819431483746e-03" rms="4.4265577197074890e-01" purity="6.5641719102859497e-01" nType="-99"/>
        </Node>
      </Node>
    </BinaryTree>
    <BinaryTree type="DecisionTree" boostWeight="1.0000000000000000e+00" itree="299">
      <Node pos="s" depth="0" NCoef="0" IVar="6" Cut="4.9819688796997070e+00" cType="1" res="7.2928480803966522e-03" rms="4.5263203978538513e-01" purity="5.0612550973892212e-01" nType="0">
        <Node pos="l" depth="1" NCoef="0" IVar="-1" Cut="0.0000000000000000e+00" cType="1" res="-4.1079623624682426e-03" rms="3.9151087403297424e-01" purity="1.8953879177570343e-01" nType="-99"/>
        <Node pos="r" depth="1" NCoef="0" IVar="2" Cut="9.2156505584716797e-01" cType="1" res="1.4125391840934753e-02" rms="4.5597377419471741e-01" purity="5.2900612354278564e-01" nType="0">
          <Node pos="l" depth="2" NCoef="0" IVar="-1" Cut="0.0000000000000000e+00" cType="1" res="4.4390456750988960e-03" rms="4.7576102614402771e-01" purity="4.4932824373245239e-01" nType="-99"/>
          <Node pos="r" depth="2" NCoef="0" IVar="-1" Cut="0.0000000000000000e+00" cType="1" res="3.5168402246199548e-04" rms="4.5401558279991150e-01" purity="5.3426915407180786e-01" nType="-99"/>
        </Node>
      </Node>
    </BinaryTree>
    <BinaryTree type="DecisionTree" boostWeight="1.0000000000000000e+00" itree="300">
      <Node pos="s" depth="0" NCoef="0" IVar="1" Cut="2.2195267677307129e+00" cType="1" res="-5.1418445073068142e-03" rms="4.5107206702232361e-01" purity="4.9181991815567017e-01" nType="0">
        <Node pos="l" depth="1" NCoef="0" IVar="0" Cut="1.0481728363037109e+02" cType="1" res="1.3086748309433460e-02" rms="4.5983329415321350e-01" purity="5.8595001697540283e-01" nType="0">
          <Node pos="l" depth="2" NCoef="0" IVar="-1" Cut="0.0000000000000000e+00" cType="1" res="9.1306414105929434e-05" rms="4.7028234601020813e-01" purity="5.4922091960906982e-01" nType="-99"/>
          <Node pos="r" depth="2" NCoef="0" IVar="-1" Cut="0.0000000000000000e+00" cType="1" res="2.9535545036196709e-03" rms="4.0193971991539001e-01" purity="7.6222336292266846e-01" nType="-99"/>
        </Node>
        <Node pos="r" depth="1" NCoef="0" IVar="6" Cut="7.8740963935852051e+00" cType="1" res="-3.1076356768608093e-02" rms="4.3699690699577332e-01" purity="3.5789746046066284e-01" nType="0">
          <Node pos="l" depth="2" NCoef="0" IVar="-1" Cut="0.0000000000000000e+00" cType="1" res="-2.1366565488278866e-03" rms="4.3126842379570007e-01" purity="2.9656773805618286e-01" nType="-99"/>
          <Node pos="r" depth="2" NCoef="0" IVar="-1" Cut="0.0000000000000000e+00" cType="1" res="7.6049863127991557e-04" rms="4.5244002342224121e-01" purity="5.6446623802185059e-01" nType="-99"/>
        </Node>
      </Node>
    </BinaryTree>
    <BinaryTree type="DecisionTree" boostWeight="1.0000000000000000e+00" itree="301">
      <Node pos="s" depth="0" NCoef="0" IVar="2" Cut="9.3367475271224976e-01" cType="1" res="-3.6353705218061805e-04" rms="4.5362529158592224e-01" purity="4.9819484353065491e-01" nType="0">
        <Node pos="l" depth="1" NCoef="0" IVar="5" Cut="6.9955676794052124e-01" cType="1" res="-3.1075537204742432e-02" rms="4.4036155939102173e-01" purity="3.1624916195869446e-01" nType="0">
          <Node pos="l" depth="2" NCoef="0" IVar="-1" Cut="0.0000000000000000e+00" cType="1" res="9.9676754325628281e-04" rms="4.7469791769981384e-01" purity="4.3701523542404175e-01" nType="-99"/>
          <Node pos="r" depth="2" NCoef="0" IVar="-1" Cut="0.0000000000000000e+00" cType="1" res="-3.4288002643734217e-03" rms="4.0831694006919861e-01" purity="2.2841657698154449e-01" nType="-99"/>
        </Node>
        <Node pos="r" depth="1" NCoef="0" IVar="0" Cut="1.4043141174316406e+02" cType="1" res="1.0111835785210133e-02" rms="4.5759031176567078e-01" purity="5.6025362014770508e-01" nType="0">
          <Node pos="l" depth="2" NCoef="0" IVar="-1" Cut="0.0000000000000000e+00" cType="1" res="6.4907362684607506e-04" rms="4.5763811469078064e-01" purity="5.6465303897857666e-01" nType="-99"/>
          <Node pos="r" depth="2" NCoef="0" IVar="-1" Cut="0.0000000000000000e+00" cType="1" res="-2.3238046560436487e-03" rms="4.5248842239379883e-01" purity="5.0638598203659058e-01" nType="-99"/>
        </Node>
      </Node>
    </BinaryTree>
    <BinaryTree type="DecisionTree" boostWeight="1.0000000000000000e+00" itree="302">
      <Node pos="s" depth="0" NCoef="0" IVar="0" Cut="1.3982769775390625e+02" cType="1" res="5.7567073963582516e-03" rms="4.5422947406768799e-01" purity="5.0716167688369751e-01" nType="0">
        <Node pos="l" depth="1" NCoef="0" IVar="0" Cut="5.3181346893310547e+01" cType="1" res="1.1710867285728455e-02" rms="4.5441481471061707e-01" purity="5.1370614767074585e-01" nType="0">
          <Node pos="l" depth="2" NCoef="0" IVar="-1" Cut="0.0000000000000000e+00" cType="1" res="-1.2938953004777431e-03" rms="4.5257949829101562e-01" purity="4.1041940450668335e-01" nType="-99"/>
          <Node pos="r" depth="2" NCoef="0" IVar="-1" Cut="0.0000000000000000e+00" cType="1" res="1.2149354442954063e-03" rms="4.5405942201614380e-01" purity="5.5461460351943970e-01" nType="-99"/>
        </Node>
        <Node pos="r" depth="1" NCoef="0" IVar="-1" Cut="0.0000000000000000e+00" cType="1" res="-2.7104462496936321e-03" rms="4.4689908623695374e-01" purity="4.3468531966209412e-01" nType="-99"/>
      </Node>
    </BinaryTree>
    <BinaryTree type="DecisionTree" boostWeight="1.0000000000000000e+00" itree="303">
      <Node pos="s" depth="0" NCoef="0" IVar="0" Cut="1.0233372497558594e+02" cType="1" res="5.2640880458056927e-03" rms="4.5311376452445984e-01" purity="5.0583958625793457e-01" nType="0">
        <Node pos="l" depth="1" NCoef="0" IVar="5" Cut="5.4250264167785645e-01" cType="1" res="-1.0444655083119869e-02" rms="4.5671147108078003e-01" purity="4.7147861123085022e-01" nType="0">
          <Node pos="l" depth="2" NCoef="0" IVar="-1" Cut="0.0000000000000000e+00" cType="1" res="-2.3254270199686289e-03" rms="4.7163209319114685e-01" purity="5.1623308658599854e-01" nType="-99"/>
          <Node pos="r" depth="2" NCoef="0" IVar="-1" Cut="0.0000000000000000e+00" cType="1" res="1.1232119140913710e-04" rms="4.5155045390129089e-01" purity="4.5882421731948853e-01" nType="-99"/>
        </Node>
        <Node pos="r" depth="1" NCoef="0" IVar="0" Cut="1.3903282165527344e+02" cType="1" res="4.8159476369619370e-02" rms="4.4029533863067627e-01" purity="5.9966820478439331e-01" nType="0">
          <Node pos="l" depth="2" NCoef="0" IVar="-1" Cut="0.0000000000000000e+00" cType="1" res="3.2333638519048691e-03" rms="4.3257808685302734e-01" purity="6.4767593145370483e-01" nType="-99"/>
          <Node pos="r" depth="2" NCoef="0" IVar="-1" Cut="0.0000000000000000e+00" cType="1" res="-5.9160392265766859e-04" rms="4.5222163200378418e-01" purity="4.8576566576957703e-01" nType="-99"/>
        </Node>
      </Node>
    </BinaryTree>
    <BinaryTree type="DecisionTree" boostWeight="1.0000000000000000e+00" itree="304">
      <Node pos="s" depth="0" NCoef="0" IVar="7" Cut="4.4080734252929688e-01" cType="1" res="4.3311463668942451e-03" rms="4.5419630408287048e-01" purity="5.0016927719116211e-01" nType="0">
        <Node pos="l" depth="1" NCoef="0" IVar="0" Cut="3.9189701080322266e+01" cType="1" res="-1.6054162755608559e-02" rms="4.4818899035453796e-01" purity="4.3703767657279968e-01" nType="0">
          <Node pos="l" depth="2" NCoef="0" IVar="-1" Cut="0.0000000000000000e+00" cType="1" res="-4.6203867532312870e-03" rms="4.0937408804893494e-01" purity="2.4144968390464783e-01" nType="-99"/>
          <Node pos="r" depth="2" NCoef="0" IVar="-1" Cut="0.0000000000000000e+00" cType="1" res="-3.3077260013669729e-04" rms="4.5126214623451233e-01" purity="4.5751023292541504e-01" nType="-99"/>
        </Node>
        <Node pos="r" depth="1" NCoef="0" IVar="1" Cut="1.9812289476394653e+00" cType="1" res="3.2855127006769180e-02" rms="4.6096026897430420e-01" purity="5.8850562572479248e-01" nType="0">
          <Node pos="l" depth="2" NCoef="0" IVar="-1" Cut="0.0000000000000000e+00" cType="1" res="3.3297541085630655e-03" rms="4.4288393855094910e-01" purity="6.8543440103530884e-01" nType="-99"/>
          <Node pos="r" depth="2" NCoef="0" IVar="-1" Cut="0.0000000000000000e+00" cType="1" res="4.0715141221880913e-04" rms="4.6699848771095276e-01" purity="5.4490447044372559e-01" nType="-99"/>
        </Node>
      </Node>
    </BinaryTree>
    <BinaryTree type="DecisionTree" boostWeight="1.0000000000000000e+00" itree="305">
      <Node pos="s" depth="0" NCoef="0" IVar="0" Cut="5.6950462341308594e+01" cType="1" res="-6.6238762810826302e-03" rms="4.5602315664291382e-01" purity="4.9362844228744507e-01" nType="0">
        <Node pos="l" depth="1" NCoef="0" IVar="0" Cut="3.4178344726562500e+01" cType="1" res="-3.0730782076716423e-02" rms="4.5549306273460388e-01" purity="4.1954830288887024e-01" nType="0">
          <Node pos="l" depth="2" NCoef="0" IVar="-1" Cut="0.0000000000000000e+00" cType="1" res="-3.6180203314870596e-03" rms="4.3202397227287292e-01" purity="3.0208691954612732e-01" nType="-99"/>
          <Node pos="r" depth="2" NCoef="0" IVar="-1" Cut="0.0000000000000000e+00" cType="1" res="-8.7684573372825980e-04" rms="4.5959633588790894e-01" purity="4.4419479370117188e-01" nType="-99"/>
        </Node>
        <Node pos="r" depth="1" NCoef="0" IVar="2" Cut="9.6999680995941162e-01" cType="1" res="4.0264008566737175e-03" rms="4.5585128664970398e-01" purity="5.2635657787322998e-01" nType="0">
          <Node pos="l" depth="2" NCoef="0" IVar="-1" Cut="0.0000000000000000e+00" cType="1" res="-2.5489894323982298e-04" rms="4.6521168947219849e-01" purity="4.7190058231353760e-01" nType="-99"/>
          <Node pos="r" depth="2" NCoef="0" IVar="-1" Cut="0.0000000000000000e+00" cType="1" res="2.0637169945985079e-03" rms="4.1502985358238220e-01" purity="7.3874479532241821e-01" nType="-99"/>
        </Node>
      </Node>
    </BinaryTree>
    <BinaryTree type="DecisionTree" boostWeight="1.0000000000000000e+00" itree="306">
      <Node pos="s" depth="0" NCoef="0" IVar="0" Cut="7.6544036865234375e+01" cType="1" res="-3.4712858032435179e-03" rms="4.5329788327217102e-01" purity="4.9838116765022278e-01" nType="0">
        <Node pos="l" depth="1" NCoef="0" IVar="4" Cut="8.1465601921081543e-01" cType="1" res="-2.1358234807848930e-02" rms="4.5395570993423462e-01" purity="4.4510361552238464e-01" nType="0">
          <Node pos="l" depth="2" NCoef="0" IVar="-1" Cut="0.0000000000000000e+00" cType="1" res="4.9505074275657535e-04" rms="4.6356293559074402e-01" purity="6.0363256931304932e-01" nType="-99"/>
          <Node pos="r" depth="2" NCoef="0" IVar="-1" Cut="0.0000000000000000e+00" cType="1" res="-2.0036033820360899e-03" rms="4.4598829746246338e-01" purity="3.3915629982948303e-01" nType="-99"/>
        </Node>
        <Node pos="r" depth="1" NCoef="0" IVar="3" Cut="1.5848690271377563e-01" cType="1" res="1.5708997845649719e-02" rms="4.5180532336235046e-01" purity="5.5551099777221680e-01" nType="0">
          <Node pos="l" depth="2" NCoef="0" IVar="-1" Cut="0.0000000000000000e+00" cType="1" res="2.9448699206113815e-04" rms="4.5654705166816711e-01" purity="5.3108793497085571e-01" nType="-99"/>
          <Node pos="r" depth="2" NCoef="0" IVar="-1" Cut="0.0000000000000000e+00" cType="1" res="3.2916837371885777e-03" rms="4.1431933641433716e-01" purity="7.1698677539825439e-01" nType="-99"/>
        </Node>
      </Node>
    </BinaryTree>
    <BinaryTree type="DecisionTree" boostWeight="1.0000000000000000e+00" itree="307">
      <Node pos="s" depth="0" NCoef="0" IVar="6" Cut="9.2485523223876953e+00" cType="1" res="-3.4654021874302998e-05" rms="4.5429158210754395e-01" purity="4.9865257740020752e-01" nType="0">
        <Node pos="l" depth="1" NCoef="0" IVar="3" Cut="1.3695093989372253e-01" cType="1" res="-4.9989265389740467e-03" rms="4.5758250355720520e-01" purity="4.8068550229072571e-01" nType="0">
          <Node pos="l" depth="2" NCoef="0" IVar="-1" Cut="0.0000000000000000e+00" cType="1" res="-5.2732636686414480e-04" rms="4.5785531401634216e-01" purity="4.5811098814010620e-01" nType="-99"/>
          <Node pos="r" depth="2" NCoef="0" IVar="-1" Cut="0.0000000000000000e+00" cType="1" res="1.0663551511242986e-03" rms="4.5500218868255615e-01" purity="5.7959425449371338e-01" nType="-99"/>
        </Node>
        <Node pos="r" depth="1" NCoef="0" IVar="-1" Cut="0.0000000000000000e+00" cType="1" res="3.6433592904359102e-03" rms="3.9310854673385620e-01" purity="7.7253359556198120e-01" nType="-99"/>
      </Node>
    </BinaryTree>
    <BinaryTree type="DecisionTree" boostWeight="1.0000000000000000e+00" itree="308">
      <Node pos="s" depth="0" NCoef="0" IVar="3" Cut="8.2898549735546112e-02" cType="1" res="7.2512798942625523e-03" rms="4.4915914535522461e-01" purity="5.0186723470687866e-01" nType="0">
        <Node pos="l" depth="1" NCoef="0" IVar="2" Cut="9.8484653234481812e-01" cType="1" res="-6.0508847236633301e-03" rms="4.4944664835929871e-01" purity="4.6532872319221497e-01" nType="0">
          <Node pos="l" depth="2" NCoef="0" IVar="-1" Cut="0.0000000000000000e+00" cType="1" res="-5.6846381630748510e-04" rms="4.5271262526512146e-01" purity="4.4297644495964050e-01" nType="-99"/>
          <Node pos="r" depth="2" NCoef="0" IVar="-1" Cut="0.0000000000000000e+00" cType="1" res="3.9001435507088900e-03" rms="3.9565819501876831e-01" purity="7.4582028388977051e-01" nType="-99"/>
        </Node>
        <Node pos="r" depth="1" NCoef="0" IVar="4" Cut="9.5180249214172363e-01" cType="1" res="4.0287300944328308e-02" rms="4.4673424959182739e-01" purity="5.9261089563369751e-01" nType="0">
          <Node pos="l" depth="2" NCoef="0" IVar="-1" Cut="0.0000000000000000e+00" cType="1" res="2.5352668017148972e-03" rms="4.4464838504791260e-01" purity="6.7573571205139160e-01" nType="-99"/>
          <Node pos="r" depth="2" NCoef="0" IVar="-1" Cut="0.0000000000000000e+00" cType="1" res="-2.1800851391162723e-04" rms="4.4753921031951904e-01" purity="4.2364516854286194e-01" nType="-99"/>
        </Node>
      </Node>
    </BinaryTree>
    <BinaryTree type="DecisionTree" boostWeight="1.0000000000000000e+00" itree="309">
      <Node pos="s" depth="0" NCoef="0" IVar="2" Cut="9.6168136596679688e-01" cType="1" res="8.8051985949277878e-03" rms="4.5318102836608887e-01" purity="5.0974500179290771e-01" nType="0">
        <Node pos="l" depth="1" NCoef="0" IVar="1" Cut="2.0897891521453857e+00" cType="1" res="-4.3682851828634739e-03" rms="4.6008923649787903e-01" purity="4.3335887789726257e-01" nType="0">
          <Node pos="l" depth="2" NCoef="0" IVar="-1" Cut="0.0000000000000000e+00" cType="1" res="7.9622509656473994e-04" rms="4.7547572851181030e-01" purity="5.3687828779220581e-01" nType="-99"/>
          <Node pos="r" depth="2" NCoef="0" IVar="-1" Cut="0.0000000000000000e+00" cType="1" res="-1.0401998879387975e-03" rms="4.4740584492683411e-01" purity="3.5645374655723572e-01" nType="-99"/>
        </Node>
        <Node pos="r" depth="1" NCoef="0" IVar="0" Cut="4.5559200286865234e+01" cType="1" res="3.6530084908008575e-02" rms="4.3699091672897339e-01" purity="6.7050707340240479e-01" nType="0">
          <Node pos="l" depth="2" NCoef="0" IVar="-1" Cut="0.0000000000000000e+00" cType="1" res="-1.1414096225053072e-03" rms="4.6602874994277954e-01" purity="5.2422267198562622e-01" nType="-99"/>
          <Node pos="r" depth="2" NCoef="0" IVar="-1" Cut="0.0000000000000000e+00" cType="1" res="2.2312381770461798e-03" rms="4.2980656027793884e-01" purity="6.9988876581192017e-01" nType="-99"/>
        </Node>
      </Node>
    </BinaryTree>
    <BinaryTree type="DecisionTree" boostWeight="1.0000000000000000e+00" itree="310">
      <Node pos="s" depth="0" NCoef="0" IVar="6" Cut="6.8672389984130859e+00" cType="1" res="-5.5143567733466625e-03" rms="4.5090693235397339e-01" purity="4.9074789881706238e-01" nType="0">
        <Node pos="l" depth="1" NCoef="0" IVar="0" Cut="8.0089584350585938e+01" cType="1" res="-2.2798262536525726e-02" rms="4.4948837161064148e-01" purity="3.6802276968955994e-01" nType="0">
          <Node pos="l" depth="2" NCoef="0" IVar="-1" Cut="0.0000000000000000e+00" cType="1" res="-1.8353246850892901e-03" rms="4.4335916638374329e-01" purity="3.2308855652809143e-01" nType="-99"/>
          <Node pos="r" depth="2" NCoef="0" IVar="-1" Cut="0.0000000000000000e+00" cType="1" res="2.1418170945253223e-04" rms="4.5636376738548279e-01" purity="4.3018984794616699e-01" nType="-99"/>
        </Node>
        <Node pos="r" depth="1" NCoef="0" IVar="7" Cut="2.7600279450416565e-01" cType="1" res="1.2891996651887894e-02" rms="4.5168611407279968e-01" purity="6.2144303321838379e-01" nType="0">
          <Node pos="l" depth="2" NCoef="0" IVar="-1" Cut="0.0000000000000000e+00" cType="1" res="-8.7441533105447888e-04" rms="4.5911198854446411e-01" purity="5.2179318666458130e-01" nType="-99"/>
          <Node pos="r" depth="2" NCoef="0" IVar="-1" Cut="0.0000000000000000e+00" cType="1" res="1.1221757158637047e-03" rms="4.4820031523704529e-01" purity="6.5901994705200195e-01" nType="-99"/>
        </Node>
      </Node>
    </BinaryTree>
    <BinaryTree type="DecisionTree" boostWeight="1.0000000000000000e+00" itree="311">
      <Node pos="s" depth="0" NCoef="0" IVar="0" Cut="1.4412460327148438e+02" cType="1" res="-2.6215780526399612e-03" rms="4.5176962018013000e-01" purity="4.9225643277168274e-01" nType="0">
        <Node pos="l" depth="1" NCoef="0" IVar="0" Cut="9.5190429687500000e+01" cType="1" res="2.2803761530667543e-03" rms="4.4977289438247681e-01" purity="4.9849566817283630e-01" nType="0">
          <Node pos="l" depth="2" NCoef="0" IVar="-1" Cut="0.0000000000000000e+00" cType="1" res="-4.9925397615879774e-04" rms="4.5158135890960693e-01" purity="4.6075513958930969e-01" nType="-99"/>
          <Node pos="r" depth="2" NCoef="0" IVar="-1" Cut="0.0000000000000000e+00" cType="1" res="1.7476776847615838e-03" rms="4.4275599718093872e-01" purity="5.9928423166275024e-01" nType="-99"/>
        </Node>
        <Node pos="r" depth="1" NCoef="0" IVar="-1" Cut="0.0000000000000000e+00" cType="1" res="-3.4232956822961569e-03" rms="4.7439441084861755e-01" purity="4.0031820535659790e-01" nType="-99"/>
      </Node>
    </BinaryTree>
    <BinaryTree type="DecisionTree" boostWeight="1.0000000000000000e+00" itree="312">
      <Node pos="s" depth="0" NCoef="0" IVar="6" Cut="5.7449464797973633e+00" cType="1" res="1.0280719725415111e-03" rms="4.5263275504112244e-01" purity="5.0050491094589233e-01" nType="0">
        <Node pos="l" depth="1" NCoef="0" IVar="7" Cut="2.9636910557746887e-01" cType="1" res="-4.1591916233301163e-02" rms="4.2593678832054138e-01" purity="2.8423935174942017e-01" nType="0">
          <Node pos="l" depth="2" NCoef="0" IVar="-1" Cut="0.0000000000000000e+00" cType="1" res="4.3261644896119833e-04" rms="4.2261949181556702e-01" purity="2.8164401650428772e-01" nType="-99"/>
          <Node pos="r" depth="2" NCoef="0" IVar="-1" Cut="0.0000000000000000e+00" cType="1" res="-3.0019865371286869e-03" rms="4.2504477500915527e-01" purity="2.8583812713623047e-01" nType="-99"/>
        </Node>
        <Node pos="r" depth="1" NCoef="0" IVar="3" Cut="1.1857083439826965e-01" cType="1" res="1.2541181407868862e-02" rms="4.5889970660209656e-01" purity="5.5892556905746460e-01" nType="0">
          <Node pos="l" depth="2" NCoef="0" IVar="-1" Cut="0.0000000000000000e+00" cType="1" res="1.3573525939136744e-04" rms="4.6372681856155396e-01" purity="5.2734684944152832e-01" nType="-99"/>
          <Node pos="r" depth="2" NCoef="0" IVar="-1" Cut="0.0000000000000000e+00" cType="1" res="1.8790186149999499e-03" rms="4.4044592976570129e-01" purity="6.6715520620346069e-01" nType="-99"/>
        </Node>
      </Node>
    </BinaryTree>
    <BinaryTree type="DecisionTree" boostWeight="1.0000000000000000e+00" itree="313">
      <Node pos="s" depth="0" NCoef="0" IVar="5" Cut="5.1647192239761353e-01" cType="1" res="-4.7040046192705631e-03" rms="4.5461946725845337e-01" purity="4.9416777491569519e-01" nType="0">
        <Node pos="l" depth="1" NCoef="0" IVar="7" Cut="4.8782807588577271e-01" cType="1" res="-4.3940138071775436e-02" rms="4.6792799234390259e-01" purity="5.4300308227539062e-01" nType="0">
          <Node pos="l" depth="2" NCoef="0" IVar="-1" Cut="0.0000000000000000e+00" cType="1" res="-2.8063196223229170e-03" rms="4.7104614973068237e-01" purity="5.0102531909942627e-01" nType="-99"/>
          <Node pos="r" depth="2" NCoef="0" IVar="-1" Cut="0.0000000000000000e+00" cType="1" res="-2.6550842449069023e-04" rms="4.6101069450378418e-01" purity="6.0024070739746094e-01" nType="-99"/>
        </Node>
        <Node pos="r" depth="1" NCoef="0" IVar="5" Cut="7.1666091680526733e-01" cType="1" res="4.7822855412960052e-03" rms="4.5083060860633850e-01" purity="4.8236063122749329e-01" nType="0">
          <Node pos="l" depth="2" NCoef="0" IVar="-1" Cut="0.0000000000000000e+00" cType="1" res="1.8219891935586929e-03" rms="4.5455884933471680e-01" purity="5.8803266286849976e-01" nType="-99"/>
          <Node pos="r" depth="2" NCoef="0" IVar="-1" Cut="0.0000000000000000e+00" cType="1" res="-5.5031490046530962e-04" rms="4.4811269640922546e-01" purity="4.3578779697418213e-01" nType="-99"/>
        </Node>
      </Node>
    </BinaryTree>
    <BinaryTree type="DecisionTree" boostWeight="1.0000000000000000e+00" itree="314">
      <Node pos="s" depth="0" NCoef="0" IVar="0" Cut="1.0200418090820312e+02" cType="1" res="6.7918985150754452e-03" rms="4.5026248693466187e-01" purity="5.0371366739273071e-01" nType="0">
        <Node pos="l" depth="1" NCoef="0" IVar="5" Cut="4.4815015792846680e-01" cType="1" res="-9.0381354093551636e-03" rms="4.5481738448143005e-01" purity="4.6893462538719177e-01" nType="0">
          <Node pos="l" depth="2" NCoef="0" IVar="-1" Cut="0.0000000000000000e+00" cType="1" res="-2.7561471797525883e-03" rms="4.7700345516204834e-01" purity="5.0659245252609253e-01" nType="-99"/>
          <Node pos="r" depth="2" NCoef="0" IVar="-1" Cut="0.0000000000000000e+00" cType="1" res="3.0596293072449043e-05" rms="4.5053440332412720e-01" purity="4.6317288279533386e-01" nType="-99"/>
        </Node>
        <Node pos="r" depth="1" NCoef="0" IVar="1" Cut="2.2653625011444092e+00" cType="1" res="4.7156229615211487e-02" rms="4.3583962321281433e-01" purity="5.9239524602890015e-01" nType="0">
          <Node pos="l" depth="2" NCoef="0" IVar="-1" Cut="0.0000000000000000e+00" cType="1" res="3.9408109150826931e-03" rms="4.2242711782455444e-01" purity="7.6927697658538818e-01" nType="-99"/>
          <Node pos="r" depth="2" NCoef="0" IVar="-1" Cut="0.0000000000000000e+00" cType="1" res="5.1476329099386930e-04" rms="4.4423237442970276e-01" purity="4.3712624907493591e-01" nType="-99"/>
        </Node>
      </Node>
    </BinaryTree>
    <BinaryTree type="DecisionTree" boostWeight="1.0000000000000000e+00" itree="315">
      <Node pos="s" depth="0" NCoef="0" IVar="0" Cut="1.0200418090820312e+02" cType="1" res="6.7799030803143978e-03" rms="4.5436674356460571e-01" purity="5.0824373960494995e-01" nType="0">
        <Node pos="l" depth="1" NCoef="0" IVar="1" Cut="1.8145679235458374e+00" cType="1" res="-2.6582134887576103e-03" rms="4.5730948448181152e-01" purity="4.7817453742027283e-01" nType="0">
          <Node pos="l" depth="2" NCoef="0" IVar="-1" Cut="0.0000000000000000e+00" cType="1" res="-2.2467332892119884e-03" rms="4.7606843709945679e-01" purity="4.8754867911338806e-01" nType="-99"/>
          <Node pos="r" depth="2" NCoef="0" IVar="-1" Cut="0.0000000000000000e+00" cType="1" res="1.8986423674505204e-04" rms="4.5425334572792053e-01" purity="4.7690737247467041e-01" nType="-99"/>
        </Node>
        <Node pos="r" depth="1" NCoef="0" IVar="0" Cut="1.3872102355957031e+02" cType="1" res="3.1771969050168991e-02" rms="4.4551604986190796e-01" purity="5.8786684274673462e-01" nType="0">
          <Node pos="l" depth="2" NCoef="0" IVar="-1" Cut="0.0000000000000000e+00" cType="1" res="2.2849808447062969e-03" rms="4.3922945857048035e-01" purity="6.3653051853179932e-01" nType="-99"/>
          <Node pos="r" depth="2" NCoef="0" IVar="-1" Cut="0.0000000000000000e+00" cType="1" res="-6.6898489603772759e-04" rms="4.5663586258888245e-01" purity="4.7318771481513977e-01" nType="-99"/>
        </Node>
      </Node>
    </BinaryTree>
    <BinaryTree type="DecisionTree" boostWeight="1.0000000000000000e+00" itree="316">
      <Node pos="s" depth="0" NCoef="0" IVar="6" Cut="7.8965563774108887e+00" cType="1" res="1.5082614496350288e-02" rms="4.5483312010765076e-01" purity="5.1797187328338623e-01" nType="0">
        <Node pos="l" depth="1" NCoef="0" IVar="4" Cut="5.3748667240142822e-01" cType="1" res="3.0421402771025896e-03" rms="4.6246615052223206e-01" purity="4.4926300644874573e-01" nType="0">
          <Node pos="l" depth="2" NCoef="0" IVar="-1" Cut="0.0000000000000000e+00" cType="1" res="2.4347610305994749e-03" rms="4.4813957810401917e-01" purity="6.7561334371566772e-01" nType="-99"/>
          <Node pos="r" depth="2" NCoef="0" IVar="-1" Cut="0.0000000000000000e+00" cType="1" res="-1.6150470764841884e-04" rms="4.6349358558654785e-01" purity="4.2449387907981873e-01" nType="-99"/>
        </Node>
        <Node pos="r" depth="1" NCoef="0" IVar="7" Cut="3.2672491669654846e-01" cType="1" res="4.8518683761358261e-02" rms="4.3117153644561768e-01" purity="7.0877444744110107e-01" nType="0">
          <Node pos="l" depth="2" NCoef="0" IVar="-1" Cut="0.0000000000000000e+00" cType="1" res="3.9754193276166916e-03" rms="4.1964283585548401e-01" purity="7.0313811302185059e-01" nType="-99"/>
          <Node pos="r" depth="2" NCoef="0" IVar="-1" Cut="0.0000000000000000e+00" cType="1" res="1.1572062503546476e-03" rms="4.3581667542457581e-01" purity="7.1200573444366455e-01" nType="-99"/>
        </Node>
      </Node>
    </BinaryTree>
    <BinaryTree type="DecisionTree" boostWeight="1.0000000000000000e+00" itree="317">
      <Node pos="s" depth="0" NCoef="0" IVar="4" Cut="1.6548590660095215e+00" cType="1" res="-7.8423675149679184e-03" rms="4.5305898785591125e-01" purity="4.9014326930046082e-01" nType="0">
        <Node pos="l" depth="1" NCoef="0" IVar="3" Cut="1.9144849479198456e-01" cType="1" res="-1.2397085083648562e-03" rms="4.6242496371269226e-01" purity="5.1959699392318726e-01" nType="0">
          <Node pos="l" depth="2" NCoef="0" IVar="-1" Cut="0.0000000000000000e+00" cType="1" res="-2.9149191686883569e-04" rms="4.6363142132759094e-01" purity="5.0570690631866455e-01" nType="-99"/>
          <Node pos="r" depth="2" NCoef="0" IVar="-1" Cut="0.0000000000000000e+00" cType="1" res="1.7345694359391928e-03" rms="4.5098876953125000e-01" purity="6.2393832206726074e-01" nType="-99"/>
        </Node>
        <Node pos="r" depth="1" NCoef="0" IVar="-1" Cut="0.0000000000000000e+00" cType="1" res="-6.2326979823410511e-03" rms="2.9553908109664917e-01" purity="1.1172536760568619e-01" nType="-99"/>
      </Node>
    </BinaryTree>
    <BinaryTree type="DecisionTree" boostWeight="1.0000000000000000e+00" itree="318">
      <Node pos="s" depth="0" NCoef="0" IVar="4" Cut="1.4570341110229492e+00" cType="1" res="-7.5288908556103706e-03" rms="4.5340895652770996e-01" purity="4.9327507615089417e-01" nType="0">
        <Node pos="l" depth="1" NCoef="0" IVar="5" Cut="4.2592149972915649e-01" cType="1" res="1.5623345971107483e-03" rms="4.6616083383560181e-01" purity="5.4697495698928833e-01" nType="0">
          <Node pos="l" depth="2" NCoef="0" IVar="-1" Cut="0.0000000000000000e+00" cType="1" res="-2.4896084796637297e-03" rms="4.8340827226638794e-01" purity="5.6483650207519531e-01" nType="-99"/>
          <Node pos="r" depth="2" NCoef="0" IVar="-1" Cut="0.0000000000000000e+00" cType="1" res="4.1156896622851491e-04" rms="4.6306592226028442e-01" purity="5.4445999860763550e-01" nType="-99"/>
        </Node>
        <Node pos="r" depth="1" NCoef="0" IVar="2" Cut="9.5365262031555176e-01" cType="1" res="-5.9290714561939240e-02" rms="3.6832767724990845e-01" purity="1.8752916157245636e-01" nType="0">
          <Node pos="l" depth="2" NCoef="0" IVar="-1" Cut="0.0000000000000000e+00" cType="1" res="-1.0237618116661906e-03" rms="3.6616206169128418e-01" purity="1.8712052702903748e-01" nType="-99"/>
          <Node pos="r" depth="2" NCoef="0" IVar="-1" Cut="0.0000000000000000e+00" cType="1" res="-6.7771854810416698e-03" rms="3.6055839061737061e-01" purity="1.8822564184665680e-01" nType="-99"/>
        </Node>
      </Node>
    </BinaryTree>
    <BinaryTree type="DecisionTree" boostWeight="1.0000000000000000e+00" itree="319">
      <Node pos="s" depth="0" NCoef="0" IVar="3" Cut="1.3706588745117188e-01" cType="1" res="1.3681743294000626e-02" rms="4.5247316360473633e-01" purity="5.1520323753356934e-01" nType="0">
        <Node pos="l" depth="1" NCoef="0" IVar="4" Cut="6.1230707168579102e-01" cType="1" res="6.3930018804967403e-03" rms="4.5562186837196350e-01" purity="4.8941674828529358e-01" nType="0">
          <Node pos="l" depth="2" NCoef="0" IVar="-1" Cut="0.0000000000000000e+00" cType="1" res="2.3587448522448540e-03" rms="4.4198513031005859e-01" purity="7.1207308769226074e-01" nType="-99"/>
          <Node pos="r" depth="2" NCoef="0" IVar="-1" Cut="0.0000000000000000e+00" cType="1" res="-4.2061878048116341e-05" rms="4.5712661743164062e-01" purity="4.5674756169319153e-01" nType="-99"/>
        </Node>
        <Node pos="r" depth="1" NCoef="0" IVar="5" Cut="7.5389236211776733e-01" cType="1" res="4.3891161680221558e-02" rms="4.3789061903953552e-01" purity="6.2207996845245361e-01" nType="0">
          <Node pos="l" depth="2" NCoef="0" IVar="-1" Cut="0.0000000000000000e+00" cType="1" res="-3.2217986881732941e-04" rms="4.3339481949806213e-01" purity="6.0382443666458130e-01" nType="-99"/>
          <Node pos="r" depth="2" NCoef="0" IVar="-1" Cut="0.0000000000000000e+00" cType="1" res="3.2700460869818926e-03" rms="4.3752598762512207e-01" purity="6.3432991504669189e-01" nType="-99"/>
        </Node>
      </Node>
    </BinaryTree>
    <BinaryTree type="DecisionTree" boostWeight="1.0000000000000000e+00" itree="320">
      <Node pos="s" depth="0" NCoef="0" IVar="0" Cut="1.0303371429443359e+02" cType="1" res="-8.9373923838138580e-03" rms="4.5750099420547485e-01" purity="4.9140495061874390e-01" nType="0">
        <Node pos="l" depth="1" NCoef="0" IVar="3" Cut="-1.0429670661687851e-01" cType="1" res="-1.7561469227075577e-02" rms="4.6076518297195435e-01" purity="4.6539402008056641e-01" nType="0">
          <Node pos="l" depth="2" NCoef="0" IVar="-1" Cut="0.0000000000000000e+00" cType="1" res="-3.8362725172191858e-03" rms="4.2776387929916382e-01" purity="2.8774911165237427e-01" nType="-99"/>
          <Node pos="r" depth="2" NCoef="0" IVar="-1" Cut="0.0000000000000000e+00" cType="1" res="-4.5220871106721461e-04" rms="4.6362158656120300e-01" purity="4.8426249623298645e-01" nType="-99"/>
        </Node>
        <Node pos="r" depth="1" NCoef="0" IVar="1" Cut="2.4025664329528809e+00" cType="1" res="1.4944630675017834e-02" rms="4.4747108221054077e-01" purity="5.6343501806259155e-01" nType="0">
          <Node pos="l" depth="2" NCoef="0" IVar="-1" Cut="0.0000000000000000e+00" cType="1" res="1.4509415486827493e-03" rms="4.4986748695373535e-01" purity="6.8618160486221313e-01" nType="-99"/>
          <Node pos="r" depth="2" NCoef="0" IVar="-1" Cut="0.0000000000000000e+00" cType="1" res="-9.4281212659552693e-04" rms="4.4063478708267212e-01" purity="3.2542562484741211e-01" nType="-99"/>
        </Node>
      </Node>
    </BinaryTree>
    <BinaryTree type="DecisionTree" boostWeight="1.0000000000000000e+00" itree="321">
      <Node pos="s" depth="0" NCoef="0" IVar="0" Cut="5.6167343139648438e+01" cType="1" res="5.9744161553680897e-03" rms="4.5374906063079834e-01" purity="5.0388664007186890e-01" nType="0">
        <Node pos="l" depth="1" NCoef="0" IVar="0" Cut="4.6701896667480469e+01" cType="1" res="-3.1524796038866043e-02" rms="4.5549061894416809e-01" purity="4.0889659523963928e-01" nType="0">
          <Node pos="l" depth="2" NCoef="0" IVar="-1" Cut="0.0000000000000000e+00" cType="1" res="-2.4330934975296259e-03" rms="4.4990050792694092e-01" purity="3.5948711633682251e-01" nType="-99"/>
          <Node pos="r" depth="2" NCoef="0" IVar="-1" Cut="0.0000000000000000e+00" cType="1" res="3.3895779051817954e-04" rms="4.6203786134719849e-01" purity="4.9204412102699280e-01" nType="-99"/>
        </Node>
        <Node pos="r" depth="1" NCoef="0" IVar="3" Cut="1.1861032247543335e-01" cType="1" res="2.2258907556533813e-02" rms="4.5202293992042542e-01" purity="5.4513716697692871e-01" nType="0">
          <Node pos="l" depth="2" NCoef="0" IVar="-1" Cut="0.0000000000000000e+00" cType="1" res="3.7623880780301988e-04" rms="4.5495334267616272e-01" purity="5.1158452033996582e-01" nType="-99"/>
          <Node pos="r" depth="2" NCoef="0" IVar="-1" Cut="0.0000000000000000e+00" cType="1" res="3.1678131781518459e-03" rms="4.3671560287475586e-01" purity="6.7333155870437622e-01" nType="-99"/>
        </Node>
      </Node>
    </BinaryTree>
    <BinaryTree type="DecisionTree" boostWeight="1.0000000000000000e+00" itree="322">
      <Node pos="s" depth="0" NCoef="0" IVar="6" Cut="5.5115265846252441e+00" cType="1" res="-6.0346298851072788e-03" rms="4.4870275259017944e-01" purity="4.9314701557159424e-01" nType="0">
        <Node pos="l" depth="1" NCoef="0" IVar="6" Cut="4.9153718948364258e+00" cType="1" res="-5.1558565348386765e-02" rms="4.1572627425193787e-01" purity="2.5559267401695251e-01" nType="0">
          <Node pos="l" depth="2" NCoef="0" IVar="-1" Cut="0.0000000000000000e+00" cType="1" res="-4.5381621457636356e-03" rms="3.7746131420135498e-01" purity="1.7949765920639038e-01" nType="-99"/>
          <Node pos="r" depth="2" NCoef="0" IVar="-1" Cut="0.0000000000000000e+00" cType="1" res="-1.1365986429154873e-03" rms="4.3427750468254089e-01" purity="2.9977896809577942e-01" nType="-99"/>
        </Node>
        <Node pos="r" depth="1" NCoef="0" IVar="3" Cut="1.2782403826713562e-01" cType="1" res="3.3333534374833107e-03" rms="4.5462721586227417e-01" purity="5.4203128814697266e-01" nType="0">
          <Node pos="l" depth="2" NCoef="0" IVar="-1" Cut="0.0000000000000000e+00" cType="1" res="-3.1665468122810125e-04" rms="4.5606553554534912e-01" purity="5.1135176420211792e-01" nType="-99"/>
          <Node pos="r" depth="2" NCoef="0" IVar="-1" Cut="0.0000000000000000e+00" cType="1" res="1.8604370998218656e-03" rms="4.4685095548629761e-01" purity="6.5786659717559814e-01" nType="-99"/>
        </Node>
      </Node>
    </BinaryTree>
    <BinaryTree type="DecisionTree" boostWeight="1.0000000000000000e+00" itree="323">
      <Node pos="s" depth="0" NCoef="0" IVar="5" Cut="3.9656606316566467e-01" cType="1" res="4.9575645243749022e-04" rms="4.5365571975708008e-01" purity="5.0086498260498047e-01" nType="0">
        <Node pos="l" depth="1" NCoef="0" IVar="-1" Cut="0.0000000000000000e+00" cType="1" res="-2.7014296501874924e-03" rms="4.7350424528121948e-01" purity="5.2572327852249146e-01" nType="-99"/>
        <Node pos="r" depth="1" NCoef="0" IVar="0" Cut="4.5022899627685547e+01" cType="1" res="7.7142212539911270e-03" rms="4.5096740126609802e-01" purity="4.9834457039833069e-01" nType="0">
          <Node pos="l" depth="2" NCoef="0" IVar="-1" Cut="0.0000000000000000e+00" cType="1" res="-1.4521194389089942e-03" rms="4.4568321108818054e-01" purity="3.6626583337783813e-01" nType="-99"/>
          <Node pos="r" depth="2" NCoef="0" IVar="-1" Cut="0.0000000000000000e+00" cType="1" res="6.9777242606505752e-04" rms="4.5160815119743347e-01" purity="5.2588546276092529e-01" nType="-99"/>
        </Node>
      </Node>
    </BinaryTree>
    <BinaryTree type="DecisionTree" boostWeight="1.0000000000000000e+00" itree="324">
      <Node pos="s" depth="0" NCoef="0" IVar="5" Cut="4.2431592941284180e-01" cType="1" res="1.3201812282204628e-02" rms="4.5212051272392273e-01" purity="5.1264446973800659e-01" nType="0">
        <Node pos="l" depth="1" NCoef="0" IVar="6" Cut="7.0935969352722168e+00" cType="1" res="-3.6638207733631134e-02" rms="4.6973857283592224e-01" purity="5.6818157434463501e-01" nType="0">
          <Node pos="l" depth="2" NCoef="0" IVar="-1" Cut="0.0000000000000000e+00" cType="1" res="-9.1414302005432546e-05" rms="4.7297659516334534e-01" purity="5.0744491815567017e-01" nType="-99"/>
          <Node pos="r" depth="2" NCoef="0" IVar="-1" Cut="0.0000000000000000e+00" cType="1" res="-2.9910770244896412e-03" rms="4.6298050880432129e-01" purity="6.3707488775253296e-01" nType="-99"/>
        </Node>
        <Node pos="r" depth="1" NCoef="0" IVar="3" Cut="-1.1292926222085953e-01" cType="1" res="1.9640536978840828e-02" rms="4.4939112663269043e-01" purity="5.0546979904174805e-01" nType="0">
          <Node pos="l" depth="2" NCoef="0" IVar="-1" Cut="0.0000000000000000e+00" cType="1" res="-3.5478987265378237e-03" rms="4.0417057275772095e-01" purity="2.5643989443778992e-01" nType="-99"/>
          <Node pos="r" depth="2" NCoef="0" IVar="-1" Cut="0.0000000000000000e+00" cType="1" res="1.1083633871749043e-03" rms="4.5157814025878906e-01" purity="5.2181279659271240e-01" nType="-99"/>
        </Node>
      </Node>
    </BinaryTree>
    <BinaryTree type="DecisionTree" boostWeight="1.0000000000000000e+00" itree="325">
      <Node pos="s" depth="0" NCoef="0" IVar="2" Cut="9.7850203514099121e-01" cType="1" res="1.4395968755707145e-03" rms="4.5130851864814758e-01" purity="5.0057941675186157e-01" nType="0">
        <Node pos="l" depth="1" NCoef="0" IVar="1" Cut="1.7686351537704468e+00" cType="1" res="-6.8689538165926933e-03" rms="4.5859056711196899e-01" purity="4.6697461605072021e-01" nType="0">
          <Node pos="l" depth="2" NCoef="0" IVar="-1" Cut="0.0000000000000000e+00" cType="1" res="-2.7875585947185755e-03" rms="4.8649531602859497e-01" purity="4.4298675656318665e-01" nType="-99"/>
          <Node pos="r" depth="2" NCoef="0" IVar="-1" Cut="0.0000000000000000e+00" cType="1" res="-3.2286308851325884e-05" rms="4.5562353730201721e-01" purity="4.6900561451911926e-01" nType="-99"/>
        </Node>
        <Node pos="r" depth="1" NCoef="0" IVar="2" Cut="9.8501962423324585e-01" cType="1" res="6.5313018858432770e-02" rms="3.8487759232521057e-01" purity="7.5892239809036255e-01" nType="0">
          <Node pos="l" depth="2" NCoef="0" IVar="-1" Cut="0.0000000000000000e+00" cType="1" res="1.3300399295985699e-03" rms="4.0859103202819824e-01" purity="7.1485722064971924e-01" nType="-99"/>
          <Node pos="r" depth="2" NCoef="0" IVar="-1" Cut="0.0000000000000000e+00" cType="1" res="4.7616777010262012e-03" rms="3.5875546932220459e-01" purity="7.9861724376678467e-01" nType="-99"/>
        </Node>
      </Node>
    </BinaryTree>
    <BinaryTree type="DecisionTree" boostWeight="1.0000000000000000e+00" itree="326">
      <Node pos="s" depth="0" NCoef="0" IVar="7" Cut="2.7600279450416565e-01" cType="1" res="-3.4315031953155994e-03" rms="4.4653233885765076e-01" purity="4.9488297104835510e-01" nType="0">
        <Node pos="l" depth="1" NCoef="0" IVar="2" Cut="9.5619243383407593e-01" cType="1" res="-3.7644371390342712e-02" rms="4.3137660622596741e-01" purity="3.8029339909553528e-01" nType="0">
          <Node pos="l" depth="2" NCoef="0" IVar="-1" Cut="0.0000000000000000e+00" cType="1" res="-3.0657462775707245e-03" rms="4.2292761802673340e-01" purity="2.7941840887069702e-01" nType="-99"/>
          <Node pos="r" depth="2" NCoef="0" IVar="-1" Cut="0.0000000000000000e+00" cType="1" res="7.0555845741182566e-04" rms="4.4035974144935608e-01" purity="5.5230873823165894e-01" nType="-99"/>
        </Node>
        <Node pos="r" depth="1" NCoef="0" IVar="4" Cut="6.4803850650787354e-01" cType="1" res="1.0700711980462074e-02" rms="4.5188924670219421e-01" purity="5.4221612215042114e-01" nType="0">
          <Node pos="l" depth="2" NCoef="0" IVar="-1" Cut="0.0000000000000000e+00" cType="1" res="2.0836042240262032e-03" rms="4.3533378839492798e-01" purity="7.0321959257125854e-01" nType="-99"/>
          <Node pos="r" depth="2" NCoef="0" IVar="-1" Cut="0.0000000000000000e+00" cType="1" res="2.4897954062907957e-05" rms="4.5540073513984680e-01" purity="5.0171548128128052e-01" nType="-99"/>
        </Node>
      </Node>
    </BinaryTree>
    <BinaryTree type="DecisionTree" boostWeight="1.0000000000000000e+00" itree="327">
      <Node pos="s" depth="0" NCoef="0" IVar="1" Cut="2.0644533634185791e+00" cType="1" res="1.3196630170568824e-03" rms="4.5690935850143433e-01" purity="5.0030910968780518e-01" nType="0">
        <Node pos="l" depth="1" NCoef="0" IVar="4" Cut="9.9767631292343140e-01" cType="1" res="1.9518515095114708e-02" rms="4.6384784579277039e-01" purity="5.9793162345886230e-01" nType="0">
          <Node pos="l" depth="2" NCoef="0" IVar="-1" Cut="0.0000000000000000e+00" cType="1" res="3.8161358679644763e-04" rms="4.6026718616485596e-01" purity="6.2637192010879517e-01" nType="-99"/>
          <Node pos="r" depth="2" NCoef="0" IVar="-1" Cut="0.0000000000000000e+00" cType="1" res="2.4117282591760159e-03" rms="4.7572323679924011e-01" purity="4.8584806919097900e-01" nType="-99"/>
        </Node>
        <Node pos="r" depth="1" NCoef="0" IVar="0" Cut="8.0179550170898438e+01" cType="1" res="-9.8873758688569069e-03" rms="4.5221942663192749e-01" purity="4.4019219279289246e-01" nType="0">
          <Node pos="l" depth="2" NCoef="0" IVar="-1" Cut="0.0000000000000000e+00" cType="1" res="-1.4438629150390625e-03" rms="4.4430083036422729e-01" purity="3.7344548106193542e-01" nType="-99"/>
          <Node pos="r" depth="2" NCoef="0" IVar="-1" Cut="0.0000000000000000e+00" cType="1" res="4.0074513526633382e-04" rms="4.5830142498016357e-01" purity="4.9942925572395325e-01" nType="-99"/>
        </Node>
      </Node>
    </BinaryTree>
    <BinaryTree type="DecisionTree" boostWeight="1.0000000000000000e+00" itree="328">
      <Node pos="s" depth="0" NCoef="0" IVar="0" Cut="9.9139572143554688e+01" cType="1" res="-6.5191918984055519e-03" rms="4.5395663380622864e-01" purity="4.9560585618019104e-01" nType="0">
        <Node pos="l" depth="1" NCoef="0" IVar="7" Cut="6.2372922897338867e-01" cType="1" res="-2.0352065563201904e-02" rms="4.5582446455955505e-01" purity="4.6142292022705078e-01" nType="0">
          <Node pos="l" depth="2" NCoef="0" IVar="-1" Cut="0.0000000000000000e+00" cType="1" res="-1.2165539665147662e-03" rms="4.5373976230621338e-01" purity="4.3732511997222900e-01" nType="-99"/>
          <Node pos="r" depth="2" NCoef="0" IVar="-1" Cut="0.0000000000000000e+00" cType="1" res="9.2465017223730683e-04" rms="4.6398004889488220e-01" purity="5.8528023958206177e-01" nType="-99"/>
        </Node>
        <Node pos="r" depth="1" NCoef="0" IVar="0" Cut="1.5230821228027344e+02" cType="1" res="2.7197500690817833e-02" rms="4.4758397340774536e-01" purity="5.7892441749572754e-01" nType="0">
          <Node pos="l" depth="2" NCoef="0" IVar="-1" Cut="0.0000000000000000e+00" cType="1" res="2.0026452839374542e-03" rms="4.4461846351623535e-01" purity="6.0973960161209106e-01" nType="-99"/>
          <Node pos="r" depth="2" NCoef="0" IVar="-1" Cut="0.0000000000000000e+00" cType="1" res="-2.5568529963493347e-03" rms="4.5212408900260925e-01" purity="4.3469786643981934e-01" nType="-99"/>
        </Node>
      </Node>
    </BinaryTree>
    <BinaryTree type="DecisionTree" boostWeight="1.0000000000000000e+00" itree="329">
      <Node pos="s" depth="0" NCoef="0" IVar="3" Cut="1.5039804577827454e-01" cType="1" res="6.1854706145823002e-03" rms="4.5131045579910278e-01" purity="5.0411009788513184e-01" nType="0">
        <Node pos="l" depth="1" NCoef="0" IVar="3" Cut="9.4185233116149902e-02" cType="1" res="-1.2935622362419963e-03" rms="4.5287808775901794e-01" purity="4.8121526837348938e-01" nType="0">
          <Node pos="l" depth="2" NCoef="0" IVar="-1" Cut="0.0000000000000000e+00" cType="1" res="2.3835754836909473e-04" rms="4.5284014940261841e-01" purity="4.7977077960968018e-01" nType="-99"/>
          <Node pos="r" depth="2" NCoef="0" IVar="-1" Cut="0.0000000000000000e+00" cType="1" res="-2.0225550979375839e-03" rms="4.5036357641220093e-01" purity="4.9110910296440125e-01" nType="-99"/>
        </Node>
        <Node pos="r" depth="1" NCoef="0" IVar="3" Cut="1.8745338916778564e-01" cType="1" res="4.5072879642248154e-02" rms="4.4103065133094788e-01" purity="6.2315219640731812e-01" nType="0">
          <Node pos="l" depth="2" NCoef="0" IVar="-1" Cut="0.0000000000000000e+00" cType="1" res="3.4110944252461195e-03" rms="4.2904826998710632e-01" purity="6.5135788917541504e-01" nType="-99"/>
          <Node pos="r" depth="2" NCoef="0" IVar="-1" Cut="0.0000000000000000e+00" cType="1" res="1.1258895974606276e-03" rms="4.4593322277069092e-01" purity="6.0861974954605103e-01" nType="-99"/>
        </Node>
      </Node>
    </BinaryTree>
    <BinaryTree type="DecisionTree" boostWeight="1.0000000000000000e+00" itree="330">
      <Node pos="s" depth="0" NCoef="0" IVar="0" Cut="7.8795509338378906e+01" cType="1" res="-6.8327100016176701e-03" rms="4.5331710577011108e-01" purity="4.9641722440719604e-01" nType="0">
        <Node pos="l" depth="1" NCoef="0" IVar="3" Cut="1.5651244670152664e-02" cType="1" res="-2.1738069131970406e-02" rms="4.5450639724731445e-01" purity="4.4714507460594177e-01" nType="0">
          <Node pos="l" depth="2" NCoef="0" IVar="-1" Cut="0.0000000000000000e+00" cType="1" res="-7.1867129008751363e-05" rms="4.5084768533706665e-01" purity="4.3925762176513672e-01" nType="-99"/>
          <Node pos="r" depth="2" NCoef="0" IVar="-1" Cut="0.0000000000000000e+00" cType="1" res="-1.8051532097160816e-03" rms="4.5754200220108032e-01" purity="4.5604786276817322e-01" nType="-99"/>
        </Node>
        <Node pos="r" depth="1" NCoef="0" IVar="2" Cut="9.3350529670715332e-01" cType="1" res="1.0339600034058094e-02" rms="4.5133319497108459e-01" purity="5.5318307876586914e-01" nType="0">
          <Node pos="l" depth="2" NCoef="0" IVar="-1" Cut="0.0000000000000000e+00" cType="1" res="-1.3293431838974357e-03" rms="4.5848363637924194e-01" purity="3.4574753046035767e-01" nType="-99"/>
          <Node pos="r" depth="2" NCoef="0" IVar="-1" Cut="0.0000000000000000e+00" cType="1" res="1.0463356738910079e-03" rms="4.4822955131530762e-01" purity="6.1875414848327637e-01" nType="-99"/>
        </Node>
      </Node>
    </BinaryTree>
    <BinaryTree type="DecisionTree" boostWeight="1.0000000000000000e+00" itree="331">
      <Node pos="s" depth="0" NCoef="0" IVar="2" Cut="9.4304192066192627e-01" cType="1" res="-6.5777223790064454e-04" rms="4.4953826069831848e-01" purity="5.0480026006698608e-01" nType="0">
        <Node pos="l" depth="1" NCoef="0" IVar="7" Cut="5.1976096630096436e-01" cType="1" res="-2.8574891388416290e-02" rms="4.4547420740127563e-01" purity="3.3967339992523193e-01" nType="0">
          <Node pos="l" depth="2" NCoef="0" IVar="-1" Cut="0.0000000000000000e+00" cType="1" res="-1.8850987544283271e-03" rms="4.3241602182388306e-01" purity="3.0661135911941528e-01" nType="-99"/>
          <Node pos="r" depth="2" NCoef="0" IVar="-1" Cut="0.0000000000000000e+00" cType="1" res="5.3333060350269079e-04" rms="4.7826242446899414e-01" purity="4.3395712971687317e-01" nType="-99"/>
        </Node>
        <Node pos="r" depth="1" NCoef="0" IVar="5" Cut="1.1783506870269775e+00" cType="1" res="1.6733286902308464e-02" rms="4.5117914676666260e-01" purity="6.0766661167144775e-01" nType="0">
          <Node pos="l" depth="2" NCoef="0" IVar="-1" Cut="0.0000000000000000e+00" cType="1" res="4.7512954915873706e-04" rms="4.5013666152954102e-01" purity="6.1055886745452881e-01" nType="-99"/>
          <Node pos="r" depth="2" NCoef="0" IVar="-1" Cut="0.0000000000000000e+00" cType="1" res="3.3645280636847019e-03" rms="4.5769023895263672e-01" purity="5.7558667659759521e-01" nType="-99"/>
        </Node>
      </Node>
    </BinaryTree>
    <BinaryTree type="DecisionTree" boostWeight="1.0000000000000000e+00" itree="332">
      <Node pos="s" depth="0" NCoef="0" IVar="1" Cut="2.1236560344696045e+00" cType="1" res="4.3703881092369556e-03" rms="4.4794046878814697e-01" purity="5.0722533464431763e-01" nType="0">
        <Node pos="l" depth="1" NCoef="0" IVar="1" Cut="1.7341809272766113e+00" cType="1" res="2.8517264872789383e-02" rms="4.5133355259895325e-01" purity="6.1077487468719482e-01" nType="0">
          <Node pos="l" depth="2" NCoef="0" IVar="-1" Cut="0.0000000000000000e+00" cType="1" res="-1.9491295097395778e-03" rms="4.7458940744400024e-01" purity="4.8794847726821899e-01" nType="-99"/>
          <Node pos="r" depth="2" NCoef="0" IVar="-1" Cut="0.0000000000000000e+00" cType="1" res="1.6368364449590445e-03" rms="4.4669145345687866e-01" purity="6.2861716747283936e-01" nType="-99"/>
        </Node>
        <Node pos="r" depth="1" NCoef="0" IVar="7" Cut="2.4358849227428436e-01" cType="1" res="-1.7290167510509491e-02" rms="4.4375818967819214e-01" purity="4.1433799266815186e-01" nType="0">
          <Node pos="l" depth="2" NCoef="0" IVar="-1" Cut="0.0000000000000000e+00" cType="1" res="-2.8356893453747034e-03" rms="4.2676293849945068e-01" purity="2.9446664452552795e-01" nType="-99"/>
          <Node pos="r" depth="2" NCoef="0" IVar="-1" Cut="0.0000000000000000e+00" cType="1" res="-4.6531407861039042e-05" rms="4.4941461086273193e-01" purity="4.6270027756690979e-01" nType="-99"/>
        </Node>
      </Node>
    </BinaryTree>
    <BinaryTree type="DecisionTree" boostWeight="1.0000000000000000e+00" itree="333">
      <Node pos="s" depth="0" NCoef="0" IVar="5" Cut="7.1465706825256348e-01" cType="1" res="-2.2141474764794111e-03" rms="4.5271086692810059e-01" purity="4.9662071466445923e-01" nType="0">
        <Node pos="l" depth="1" NCoef="0" IVar="2" Cut="9.3714886903762817e-01" cType="1" res="1.6207925975322723e-02" rms="4.6282470226287842e-01" purity="5.8168721199035645e-01" nType="0">
          <Node pos="l" depth="2" NCoef="0" IVar="-1" Cut="0.0000000000000000e+00" cType="1" res="2.4885635357350111e-03" rms="4.8211619257926941e-01" purity="4.8452863097190857e-01" nType="-99"/>
          <Node pos="r" depth="2" NCoef="0" IVar="-1" Cut="0.0000000000000000e+00" cType="1" res="-1.7023943655658513e-04" rms="4.5347544550895691e-01" purity="6.1961942911148071e-01" nType="-99"/>
        </Node>
        <Node pos="r" depth="1" NCoef="0" IVar="7" Cut="1.8413865566253662e-01" cType="1" res="-1.6381999477744102e-02" rms="4.4425687193870544e-01" purity="4.3119868636131287e-01" nType="0">
          <Node pos="l" depth="2" NCoef="0" IVar="-1" Cut="0.0000000000000000e+00" cType="1" res="-2.5743152946233749e-03" rms="4.0833932161331177e-01" purity="3.0088040232658386e-01" nType="-99"/>
          <Node pos="r" depth="2" NCoef="0" IVar="-1" Cut="0.0000000000000000e+00" cType="1" res="-3.3425743458792567e-04" rms="4.5175886154174805e-01" purity="4.6153911948204041e-01" nType="-99"/>
        </Node>
      </Node>
    </BinaryTree>
    <BinaryTree type="DecisionTree" boostWeight="1.0000000000000000e+00" itree="334">
      <Node pos="s" depth="0" NCoef="0" IVar="3" Cut="1.8363773822784424e-01" cType="1" res="-7.6240324415266514e-03" rms="4.4982361793518066e-01" purity="4.8772874474525452e-01" nType="0">
        <Node pos="l" depth="1" NCoef="0" IVar="0" Cut="9.9469123840332031e+01" cType="1" res="-1.4969808049499989e-02" rms="4.4994136691093445e-01" purity="4.7012308239936829e-01" nType="0">
          <Node pos="l" depth="2" NCoef="0" IVar="-1" Cut="0.0000000000000000e+00" cType="1" res="-1.1686852667480707e-03" rms="4.4826003909111023e-01" purity="4.3780848383903503e-01" nType="-99"/>
          <Node pos="r" depth="2" NCoef="0" IVar="-1" Cut="0.0000000000000000e+00" cType="1" res="7.1662227855995297e-04" rms="4.5262914896011353e-01" purity="5.5048799514770508e-01" nType="-99"/>
        </Node>
        <Node pos="r" depth="1" NCoef="0" IVar="3" Cut="2.2914728522300720e-01" cType="1" res="5.0897426903247833e-02" rms="4.4457018375396729e-01" purity="6.2798768281936646e-01" nType="0">
          <Node pos="l" depth="2" NCoef="0" IVar="-1" Cut="0.0000000000000000e+00" cType="1" res="3.8634594529867172e-03" rms="4.3793576955795288e-01" purity="6.5910089015960693e-01" nType="-99"/>
          <Node pos="r" depth="2" NCoef="0" IVar="-1" Cut="0.0000000000000000e+00" cType="1" res="4.6760990517213941e-04" rms="4.4765779376029968e-01" purity="5.9656363725662231e-01" nType="-99"/>
        </Node>
      </Node>
    </BinaryTree>
    <BinaryTree type="DecisionTree" boostWeight="1.0000000000000000e+00" itree="335">
      <Node pos="s" depth="0" NCoef="0" IVar="0" Cut="9.7219436645507812e+01" cType="1" res="6.2766629271209240e-03" rms="4.5270419120788574e-01" purity="5.0935280323028564e-01" nType="0">
        <Node pos="l" depth="1" NCoef="0" IVar="7" Cut="3.8587784767150879e-01" cType="1" res="-7.7985767275094986e-03" rms="4.5454028248786926e-01" purity="4.7127121686935425e-01" nType="0">
          <Node pos="l" depth="2" NCoef="0" IVar="-1" Cut="0.0000000000000000e+00" cType="1" res="-1.3298467965796590e-03" rms="4.4176170229911804e-01" purity="3.9268782734870911e-01" nType="-99"/>
          <Node pos="r" depth="2" NCoef="0" IVar="-1" Cut="0.0000000000000000e+00" cType="1" res="4.5514103840105236e-04" rms="4.6445903182029724e-01" purity="5.3910481929779053e-01" nType="-99"/>
        </Node>
        <Node pos="r" depth="1" NCoef="0" IVar="4" Cut="1.3524535894393921e+00" cType="1" res="3.9300363510847092e-02" rms="4.4662895798683167e-01" purity="5.9870094060897827e-01" nType="0">
          <Node pos="l" depth="2" NCoef="0" IVar="-1" Cut="0.0000000000000000e+00" cType="1" res="8.9726713486015797e-04" rms="4.4048240780830383e-01" purity="6.5913504362106323e-01" nType="-99"/>
          <Node pos="r" depth="2" NCoef="0" IVar="-1" Cut="0.0000000000000000e+00" cType="1" res="4.6831411309540272e-03" rms="4.6046096086502075e-01" purity="4.0793141722679138e-01" nType="-99"/>
        </Node>
      </Node>
    </BinaryTree>
    <BinaryTree type="DecisionTree" boostWeight="1.0000000000000000e+00" itree="336">
      <Node pos="s" depth="0" NCoef="0" IVar="5" Cut="5.2786290645599365e-01" cType="1" res="-2.6485621929168701e-03" rms="4.5353877544403076e-01" purity="4.9454060196876526e-01" nType="0">
        <Node pos="l" depth="1" NCoef="0" IVar="4" Cut="5.6912672519683838e-01" cType="1" res="-3.6301344633102417e-02" rms="4.5581927895545959e-01" purity="5.4813188314437866e-01" nType="0">
          <Node pos="l" depth="2" NCoef="0" IVar="-1" Cut="0.0000000000000000e+00" cType="1" res="7.8438775381073356e-04" rms="4.3715807795524597e-01" purity="6.7779421806335449e-01" nType="-99"/>
          <Node pos="r" depth="2" NCoef="0" IVar="-1" Cut="0.0000000000000000e+00" cType="1" res="-2.6999535039067268e-03" rms="4.6268761157989502e-01" purity="4.8040553927421570e-01" nType="-99"/>
        </Node>
        <Node pos="r" depth="1" NCoef="0" IVar="6" Cut="4.9819688796997070e+00" cType="1" res="6.2767062336206436e-03" rms="4.5251232385635376e-01" purity="4.8032730817794800e-01" nType="0">
          <Node pos="l" depth="2" NCoef="0" IVar="-1" Cut="0.0000000000000000e+00" cType="1" res="-2.5716894306242466e-03" rms="3.9607667922973633e-01" purity="1.9867640733718872e-01" nType="-99"/>
          <Node pos="r" depth="2" NCoef="0" IVar="-1" Cut="0.0000000000000000e+00" cType="1" res="4.8528588376939297e-04" rms="4.5659941434860229e-01" purity="5.0395119190216064e-01" nType="-99"/>
        </Node>
      </Node>
    </BinaryTree>
    <BinaryTree type="DecisionTree" boostWeight="1.0000000000000000e+00" itree="337">
      <Node pos="s" depth="0" NCoef="0" IVar="2" Cut="9.2874705791473389e-01" cType="1" res="-1.2510034255683422e-02" rms="4.4949731230735779e-01" purity="4.9040108919143677e-01" nType="0">
        <Node pos="l" depth="1" NCoef="0" IVar="2" Cut="9.1681623458862305e-01" cType="1" res="-5.6819658726453781e-02" rms="4.3331691622734070e-01" purity="2.7621790766716003e-01" nType="0">
          <Node pos="l" depth="2" NCoef="0" IVar="-1" Cut="0.0000000000000000e+00" cType="1" res="-5.6449306430295110e-04" rms="4.4277587532997131e-01" purity="3.0075448751449585e-01" nType="-99"/>
          <Node pos="r" depth="2" NCoef="0" IVar="-1" Cut="0.0000000000000000e+00" cType="1" res="-4.4828485697507858e-03" rms="4.1866686940193176e-01" purity="2.5100341439247131e-01" nType="-99"/>
        </Node>
        <Node pos="r" depth="1" NCoef="0" IVar="5" Cut="1.0904428958892822e+00" cType="1" res="-2.2406459320336580e-03" rms="4.5254603028297424e-01" purity="5.4004108905792236e-01" nType="0">
          <Node pos="l" depth="2" NCoef="0" IVar="-1" Cut="0.0000000000000000e+00" cType="1" res="2.8211571043357253e-04" rms="4.5337682962417603e-01" purity="5.6365305185317993e-01" nType="-99"/>
          <Node pos="r" depth="2" NCoef="0" IVar="-1" Cut="0.0000000000000000e+00" cType="1" res="-2.6613327208906412e-03" rms="4.4254338741302490e-01" purity="3.8245034217834473e-01" nType="-99"/>
        </Node>
      </Node>
    </BinaryTree>
    <BinaryTree type="DecisionTree" boostWeight="1.0000000000000000e+00" itree="338">
      <Node pos="s" depth="0" NCoef="0" IVar="1" Cut="2.5919082164764404e+00" cType="1" res="5.8502769097685814e-03" rms="4.5469382405281067e-01" purity="4.9970304965972900e-01" nType="0">
        <Node pos="l" depth="1" NCoef="0" IVar="5" Cut="1.1541447639465332e+00" cType="1" res="1.2137767858803272e-02" rms="4.6320867538452148e-01" purity="5.3815501928329468e-01" nType="0">
          <Node pos="l" depth="2" NCoef="0" IVar="-1" Cut="0.0000000000000000e+00" cType="1" res="7.1388989454135299e-04" rms="4.6318632364273071e-01" purity="5.5316758155822754e-01" nType="-99"/>
          <Node pos="r" depth="2" NCoef="0" IVar="-1" Cut="0.0000000000000000e+00" cType="1" res="-1.6201870748773217e-03" rms="4.6033135056495667e-01" purity="3.9443865418434143e-01" nType="-99"/>
        </Node>
        <Node pos="r" depth="1" NCoef="0" IVar="0" Cut="1.0127406311035156e+02" cType="1" res="-4.6355854719877243e-02" rms="3.7255454063415527e-01" purity="1.8042954802513123e-01" nType="0">
          <Node pos="l" depth="2" NCoef="0" IVar="-1" Cut="0.0000000000000000e+00" cType="1" res="4.0485791396349669e-04" rms="3.7632933259010315e-01" purity="1.9643935561180115e-01" nType="-99"/>
          <Node pos="r" depth="2" NCoef="0" IVar="-1" Cut="0.0000000000000000e+00" cType="1" res="-5.5843265727162361e-03" rms="3.5951152443885803e-01" purity="1.6261655092239380e-01" nType="-99"/>
        </Node>
      </Node>
    </BinaryTree>
    <BinaryTree type="DecisionTree" boostWeight="1.0000000000000000e+00" itree="339">
      <Node pos="s" depth="0" NCoef="0" IVar="3" Cut="1.3630110025405884e-01" cType="1" res="-8.5204485803842545e-03" rms="4.5555031299591064e-01" purity="4.9238649010658264e-01" nType="0">
        <Node pos="l" depth="1" NCoef="0" IVar="3" Cut="-9.6679002046585083e-02" cType="1" res="-1.6085162758827209e-02" rms="4.5479682087898254e-01" purity="4.6518668532371521e-01" nType="0">
          <Node pos="l" depth="2" NCoef="0" IVar="-1" Cut="0.0000000000000000e+00" cType="1" res="9.5655629411339760e-04" rms="4.4280898571014404e-01" purity="4.3607932329177856e-01" nType="-99"/>
          <Node pos="r" depth="2" NCoef="0" IVar="-1" Cut="0.0000000000000000e+00" cType="1" res="-9.9413120187819004e-04" rms="4.5664408802986145e-01" purity="4.7054937481880188e-01" nType="-99"/>
        </Node>
        <Node pos="r" depth="1" NCoef="0" IVar="3" Cut="2.3233285546302795e-01" cType="1" res="2.3298589512705803e-02" rms="4.5733815431594849e-01" purity="6.0679543018341064e-01" nType="0">
          <Node pos="l" depth="2" NCoef="0" IVar="-1" Cut="0.0000000000000000e+00" cType="1" res="2.1005659364163876e-03" rms="4.4839769601821899e-01" purity="6.2592220306396484e-01" nType="-99"/>
          <Node pos="r" depth="2" NCoef="0" IVar="-1" Cut="0.0000000000000000e+00" cType="1" res="-1.4730327529832721e-03" rms="4.7279277443885803e-01" purity="5.5963003635406494e-01" nType="-99"/>
        </Node>
      </Node>
    </BinaryTree>
    <BinaryTree type="DecisionTree" boostWeight="1.0000000000000000e+00" itree="340">
      <Node pos="s" depth="0" NCoef="0" IVar="5" Cut="4.1991442441940308e-01" cType="1" res="9.2365033924579620e-03" rms="4.5770364999771118e-01" purity="5.0273084640502930e-01" nType="0">
        <Node pos="l" depth="1" NCoef="0" IVar="4" Cut="5.9345877170562744e-01" cType="1" res="-6.1010103672742844e-02" rms="4.7711580991744995e-01" purity="5.3098785877227783e-01" nType="0">
          <Node pos="l" depth="2" NCoef="0" IVar="-1" Cut="0.0000000000000000e+00" cType="1" res="-1.6737575642764568e-03" rms="4.6993193030357361e-01" purity="5.8174496889114380e-01" nType="-99"/>
          <Node pos="r" depth="2" NCoef="0" IVar="-1" Cut="0.0000000000000000e+00" cType="1" res="-2.8836566489189863e-03" rms="4.8524677753448486e-01" purity="4.7152253985404968e-01" nType="-99"/>
        </Node>
        <Node pos="r" depth="1" NCoef="0" IVar="5" Cut="7.3458081483840942e-01" cType="1" res="1.7861934378743172e-02" rms="4.5451524853706360e-01" purity="4.9926123023033142e-01" nType="0">
          <Node pos="l" depth="2" NCoef="0" IVar="-1" Cut="0.0000000000000000e+00" cType="1" res="1.7259242013096809e-03" rms="4.6140104532241821e-01" purity="5.8469128608703613e-01" nType="-99"/>
          <Node pos="r" depth="2" NCoef="0" IVar="-1" Cut="0.0000000000000000e+00" cType="1" res="1.2106414942536503e-04" rms="4.4934859871864319e-01" purity="4.4391459226608276e-01" nType="-99"/>
        </Node>
      </Node>
    </BinaryTree>
    <BinaryTree type="DecisionTree" boostWeight="1.0000000000000000e+00" itree="341">
      <Node pos="s" depth="0" NCoef="0" IVar="3" Cut="-1.1056316643953323e-01" cType="1" res="-1.1001756414771080e-02" rms="4.5550525188446045e-01" purity="4.8698303103446960e-01" nType="0">
        <Node pos="l" depth="1" NCoef="0" IVar="-1" Cut="0.0000000000000000e+00" cType="1" res="2.8198880609124899e-03" rms="4.5098859071731567e-01" purity="4.4850224256515503e-01" nType="-99"/>
        <Node pos="r" depth="1" NCoef="0" IVar="3" Cut="1.3750363886356354e-01" cType="1" res="-1.6628336161375046e-02" rms="4.5540133118629456e-01" purity="4.9008360505104065e-01" nType="0">
          <Node pos="l" depth="2" NCoef="0" IVar="-1" Cut="0.0000000000000000e+00" cType="1" res="-1.0428915265947580e-03" rms="4.5510625839233398e-01" purity="4.6430030465126038e-01" nType="-99"/>
          <Node pos="r" depth="2" NCoef="0" IVar="-1" Cut="0.0000000000000000e+00" cType="1" res="5.6862505152821541e-04" rms="4.5536687970161438e-01" purity="5.9363305568695068e-01" nType="-99"/>
        </Node>
      </Node>
    </BinaryTree>
    <BinaryTree type="DecisionTree" boostWeight="1.0000000000000000e+00" itree="342">
      <Node pos="s" depth="0" NCoef="0" IVar="1" Cut="2.5572252273559570e+00" cType="1" res="-4.6058483421802521e-03" rms="4.4905692338943481e-01" purity="5.0024205446243286e-01" nType="0">
        <Node pos="l" depth="1" NCoef="0" IVar="6" Cut="5.3979477882385254e+00" cType="1" res="1.7807260155677795e-03" rms="4.5808231830596924e-01" purity="5.4233896732330322e-01" nType="0">
          <Node pos="l" depth="2" NCoef="0" IVar="-1" Cut="0.0000000000000000e+00" cType="1" res="-2.0245669875293970e-03" rms="4.3937745690345764e-01" purity="2.8541764616966248e-01" nType="-99"/>
          <Node pos="r" depth="2" NCoef="0" IVar="-1" Cut="0.0000000000000000e+00" cType="1" res="3.9524887688457966e-04" rms="4.6044689416885376e-01" purity="5.8226943016052246e-01" nType="-99"/>
        </Node>
        <Node pos="r" depth="1" NCoef="0" IVar="7" Cut="2.6925405859947205e-01" cType="1" res="-5.2581738680601120e-02" rms="3.7086531519889832e-01" purity="1.8401001393795013e-01" nType="0">
          <Node pos="l" depth="2" NCoef="0" IVar="-1" Cut="0.0000000000000000e+00" cType="1" res="-4.7426950186491013e-03" rms="3.2540160417556763e-01" purity="1.4289550483226776e-01" nType="-99"/>
          <Node pos="r" depth="2" NCoef="0" IVar="-1" Cut="0.0000000000000000e+00" cType="1" res="-1.5198175096884370e-03" rms="4.1427922248840332e-01" purity="2.2979025542736053e-01" nType="-99"/>
        </Node>
      </Node>
    </BinaryTree>
    <BinaryTree type="DecisionTree" boostWeight="1.0000000000000000e+00" itree="343">
      <Node pos="s" depth="0" NCoef="0" IVar="1" Cut="1.7272257804870605e+00" cType="1" res="1.3711600331589580e-03" rms="4.5394980907440186e-01" purity="5.0248456001281738e-01" nType="0">
        <Node pos="l" depth="1" NCoef="0" IVar="-1" Cut="0.0000000000000000e+00" cType="1" res="-3.1804128084331751e-03" rms="4.6114227175712585e-01" purity="4.4432485103607178e-01" nType="-99"/>
        <Node pos="r" depth="1" NCoef="0" IVar="5" Cut="5.6794261932373047e-01" cType="1" res="6.2960013747215271e-03" rms="4.5304194092750549e-01" purity="5.0596374273300171e-01" nType="0">
          <Node pos="l" depth="2" NCoef="0" IVar="-1" Cut="0.0000000000000000e+00" cType="1" res="-8.3717907546088099e-04" rms="4.5701363682746887e-01" purity="5.6850439310073853e-01" nType="-99"/>
          <Node pos="r" depth="2" NCoef="0" IVar="-1" Cut="0.0000000000000000e+00" cType="1" res="6.6284369677305222e-04" rms="4.5139196515083313e-01" purity="4.8529851436614990e-01" nType="-99"/>
        </Node>
      </Node>
    </BinaryTree>
    <BinaryTree type="DecisionTree" boostWeight="1.0000000000000000e+00" itree="344">
      <Node pos="s" depth="0" NCoef="0" IVar="1" Cut="2.6873657703399658e+00" cType="1" res="6.1648963019251823e-03" rms="4.4932663440704346e-01" purity="5.0927150249481201e-01" nType="0">
        <Node pos="l" depth="1" NCoef="0" IVar="1" Cut="1.7362403869628906e+00" cType="1" res="1.2391531839966774e-02" rms="4.5653271675109863e-01" purity="5.3723770380020142e-01" nType="0">
          <Node pos="l" depth="2" NCoef="0" IVar="-1" Cut="0.0000000000000000e+00" cType="1" res="-1.9671553745865822e-03" rms="4.5622760057449341e-01" purity="4.9122598767280579e-01" nType="-99"/>
          <Node pos="r" depth="2" NCoef="0" IVar="-1" Cut="0.0000000000000000e+00" cType="1" res="7.1130495052784681e-04" rms="4.5625039935112000e-01" purity="5.4055178165435791e-01" nType="-99"/>
        </Node>
        <Node pos="r" depth="1" NCoef="0" IVar="-1" Cut="0.0000000000000000e+00" cType="1" res="-5.4873344488441944e-03" rms="3.1946361064910889e-01" purity="1.1662111431360245e-01" nType="-99"/>
      </Node>
    </BinaryTree>
    <BinaryTree type="DecisionTree" boostWeight="1.0000000000000000e+00" itree="345">
      <Node pos="s" depth="0" NCoef="0" IVar="5" Cut="1.0329569578170776e+00" cType="1" res="6.7225378006696701e-03" rms="4.5261240005493164e-01" purity="4.9986308813095093e-01" nType="0">
        <Node pos="l" depth="1" NCoef="0" IVar="7" Cut="5.6632786989212036e-01" cType="1" res="1.4815038070082664e-02" rms="4.5490559935569763e-01" purity="5.3035414218902588e-01" nType="0">
          <Node pos="l" depth="2" NCoef="0" IVar="-1" Cut="0.0000000000000000e+00" cType="1" res="3.0130962841212749e-04" rms="4.5631515979766846e-01" purity="5.0362169742584229e-01" nType="-99"/>
          <Node pos="r" depth="2" NCoef="0" IVar="-1" Cut="0.0000000000000000e+00" cType="1" res="1.7839787760749459e-03" rms="4.4873625040054321e-01" purity="6.2565237283706665e-01" nType="-99"/>
        </Node>
        <Node pos="r" depth="1" NCoef="0" IVar="1" Cut="2.3836479187011719e+00" cType="1" res="-2.7307895943522453e-02" rms="4.4121763110160828e-01" purity="3.7164252996444702e-01" nType="0">
          <Node pos="l" depth="2" NCoef="0" IVar="-1" Cut="0.0000000000000000e+00" cType="1" res="-1.2790242908522487e-04" rms="4.6849143505096436e-01" purity="4.7009369730949402e-01" nType="-99"/>
          <Node pos="r" depth="2" NCoef="0" IVar="-1" Cut="0.0000000000000000e+00" cType="1" res="-3.4191531594842672e-03" rms="3.9347395300865173e-01" purity="2.2240659594535828e-01" nType="-99"/>
        </Node>
      </Node>
    </BinaryTree>
    <BinaryTree type="DecisionTree" boostWeight="1.0000000000000000e+00" itree="346">
      <Node pos="s" depth="0" NCoef="0" IVar="7" Cut="6.2249910831451416e-01" cType="1" res="4.4846301898360252e-03" rms="4.4673216342926025e-01" purity="5.0816810131072998e-01" nType="0">
        <Node pos="l" depth="1" NCoef="0" IVar="2" Cut="9.8527383804321289e-01" cType="1" res="-4.2286412790417671e-03" rms="4.4834020733833313e-01" purity="4.8593983054161072e-01" nType="0">
          <Node pos="l" depth="2" NCoef="0" IVar="-1" Cut="0.0000000000000000e+00" cType="1" res="-4.3283164268359542e-04" rms="4.5155146718025208e-01" purity="4.6735036373138428e-01" nType="-99"/>
          <Node pos="r" depth="2" NCoef="0" IVar="-1" Cut="0.0000000000000000e+00" cType="1" res="3.7934822030365467e-03" rms="3.8748073577880859e-01" purity="7.6417583227157593e-01" nType="-99"/>
        </Node>
        <Node pos="r" depth="1" NCoef="0" IVar="4" Cut="8.4059900045394897e-01" cType="1" res="5.1578581333160400e-02" rms="4.3492782115936279e-01" purity="6.2830841541290283e-01" nType="0">
          <Node pos="l" depth="2" NCoef="0" IVar="-1" Cut="0.0000000000000000e+00" cType="1" res="3.9912993088364601e-03" rms="4.0914818644523621e-01" purity="7.4656832218170166e-01" nType="-99"/>
          <Node pos="r" depth="2" NCoef="0" IVar="-1" Cut="0.0000000000000000e+00" cType="1" res="1.3474763545673341e-04" rms="4.5566543936729431e-01" purity="5.0325328111648560e-01" nType="-99"/>
        </Node>
      </Node>
    </BinaryTree>
    <BinaryTree type="DecisionTree" boostWeight="1.0000000000000000e+00" itree="347">
      <Node pos="s" depth="0" NCoef="0" IVar="0" Cut="8.5539878845214844e+01" cType="1" res="-4.3117683380842209e-03" rms="4.5248842239379883e-01" purity="4.9622628092765808e-01" nType="0">
        <Node pos="l" depth="1" NCoef="0" IVar="3" Cut="-8.9413225650787354e-02" cType="1" res="-2.0754020661115646e-02" rms="4.5641353726387024e-01" purity="4.4907251000404358e-01" nType="0">
          <Node pos="l" depth="2" NCoef="0" IVar="-1" Cut="0.0000000000000000e+00" cType="1" res="2.0536971278488636e-03" rms="4.5481991767883301e-01" purity="4.2021146416664124e-01" nType="-99"/>
          <Node pos="r" depth="2" NCoef="0" IVar="-1" Cut="0.0000000000000000e+00" cType="1" res="-1.3370830565690994e-03" rms="4.5576465129852295e-01" purity="4.5409759879112244e-01" nType="-99"/>
        </Node>
        <Node pos="r" depth="1" NCoef="0" IVar="6" Cut="5.4227752685546875e+00" cType="1" res="2.1340856328606606e-02" rms="4.4508421421051025e-01" purity="5.6979393959045410e-01" nType="0">
          <Node pos="l" depth="2" NCoef="0" IVar="-1" Cut="0.0000000000000000e+00" cType="1" res="-1.8788983579725027e-03" rms="4.3520963191986084e-01" purity="2.8705865144729614e-01" nType="-99"/>
          <Node pos="r" depth="2" NCoef="0" IVar="-1" Cut="0.0000000000000000e+00" cType="1" res="1.3809415977448225e-03" rms="4.4577056169509888e-01" purity="6.1213850975036621e-01" nType="-99"/>
        </Node>
      </Node>
    </BinaryTree>
    <BinaryTree type="DecisionTree" boostWeight="1.0000000000000000e+00" itree="348">
      <Node pos="s" depth="0" NCoef="0" IVar="0" Cut="1.4078097534179688e+02" cType="1" res="-1.0185368359088898e-02" rms="4.5236071944236755e-01" purity="4.8611411452293396e-01" nType="0">
        <Node pos="l" depth="1" NCoef="0" IVar="0" Cut="4.6381664276123047e+01" cType="1" res="-3.2068840228021145e-03" rms="4.5314171910285950e-01" purity="4.9383354187011719e-01" nType="0">
          <Node pos="l" depth="2" NCoef="0" IVar="-1" Cut="0.0000000000000000e+00" cType="1" res="-1.5808733878657222e-03" rms="4.4895032048225403e-01" purity="3.8596203923225403e-01" nType="-99"/>
          <Node pos="r" depth="2" NCoef="0" IVar="-1" Cut="0.0000000000000000e+00" cType="1" res="2.0878616487607360e-04" rms="4.5380783081054688e-01" purity="5.2038943767547607e-01" nType="-99"/>
        </Node>
        <Node pos="r" depth="1" NCoef="0" IVar="-1" Cut="0.0000000000000000e+00" cType="1" res="-4.2912391945719719e-03" rms="4.3455779552459717e-01" purity="3.9466273784637451e-01" nType="-99"/>
      </Node>
    </BinaryTree>
    <BinaryTree type="DecisionTree" boostWeight="1.0000000000000000e+00" itree="349">
      <Node pos="s" depth="0" NCoef="0" IVar="3" Cut="1.2658610939979553e-01" cType="1" res="7.4685639701783657e-03" rms="4.5277455449104309e-01" purity="5.1642853021621704e-01" nType="0">
        <Node pos="l" depth="1" NCoef="0" IVar="2" Cut="9.3324977159500122e-01" cType="1" res="-2.3755736183375120e-03" rms="4.5505717396736145e-01" purity="4.8801320791244507e-01" nType="0">
          <Node pos="l" depth="2" NCoef="0" IVar="-1" Cut="0.0000000000000000e+00" cType="1" res="-1.6568336868658662e-03" rms="4.3248531222343445e-01" purity="2.9624786972999573e-01" nType="-99"/>
          <Node pos="r" depth="2" NCoef="0" IVar="-1" Cut="0.0000000000000000e+00" cType="1" res="3.5485505941323936e-04" rms="4.6113616228103638e-01" purity="5.4597908258438110e-01" nType="-99"/>
        </Node>
        <Node pos="r" depth="1" NCoef="0" IVar="7" Cut="3.7739244103431702e-01" cType="1" res="4.5734371989965439e-02" rms="4.4171112775802612e-01" purity="6.2688350677490234e-01" nType="0">
          <Node pos="l" depth="2" NCoef="0" IVar="-1" Cut="0.0000000000000000e+00" cType="1" res="7.1640900569036603e-04" rms="4.4752210378646851e-01" purity="5.7470762729644775e-01" nType="-99"/>
          <Node pos="r" depth="2" NCoef="0" IVar="-1" Cut="0.0000000000000000e+00" cType="1" res="4.0343478322029114e-03" rms="4.2703905701637268e-01" purity="7.1610617637634277e-01" nType="-99"/>
        </Node>
      </Node>
    </BinaryTree>
    <BinaryTree type="DecisionTree" boostWeight="1.0000000000000000e+00" itree="350">
      <Node pos="s" depth="0" NCoef="0" IVar="2" Cut="9.7091162204742432e-01" cType="1" res="-1.6978629864752293e-03" rms="4.5064154267311096e-01" purity="4.8999679088592529e-01" nType="0">
        <Node pos="l" depth="1" NCoef="0" IVar="6" Cut="7.5281071662902832e+00" cType="1" res="-8.5190851241350174e-03" rms="4.5687940716743469e-01" purity="4.4033971428871155e-01" nType="0">
          <Node pos="l" depth="2" NCoef="0" IVar="-1" Cut="0.0000000000000000e+00" cType="1" res="-8.8779066572897136e-05" rms="4.5494392514228821e-01" purity="4.1623884439468384e-01" nType="-99"/>
          <Node pos="r" depth="2" NCoef="0" IVar="-1" Cut="0.0000000000000000e+00" cType="1" res="-1.8565658247098327e-03" rms="4.6548211574554443e-01" purity="5.6736904382705688e-01" nType="-99"/>
        </Node>
        <Node pos="r" depth="1" NCoef="0" IVar="0" Cut="6.8893218994140625e+01" cType="1" res="2.6765976101160049e-02" rms="4.2243462800979614e-01" purity="6.9720757007598877e-01" nType="0">
          <Node pos="l" depth="2" NCoef="0" IVar="-1" Cut="0.0000000000000000e+00" cType="1" res="-1.0989326983690262e-03" rms="4.5326191186904907e-01" purity="5.9610801935195923e-01" nType="-99"/>
          <Node pos="r" depth="2" NCoef="0" IVar="-1" Cut="0.0000000000000000e+00" cType="1" res="3.1794405076652765e-03" rms="3.9405411481857300e-01" purity="7.7163541316986084e-01" nType="-99"/>
        </Node>
      </Node>
    </BinaryTree>
    <BinaryTree type="DecisionTree" boostWeight="1.0000000000000000e+00" itree="351">
      <Node pos="s" depth="0" NCoef="0" IVar="4" Cut="5.4794770479202271e-01" cType="1" res="-1.1326966807246208e-02" rms="4.4933682680130005e-01" purity="4.8926118016242981e-01" nType="0">
        <Node pos="l" depth="1" NCoef="0" IVar="-1" Cut="0.0000000000000000e+00" cType="1" res="2.5460228789597750e-03" rms="4.3171757459640503e-01" purity="7.1455502510070801e-01" nType="-99"/>
        <Node pos="r" depth="1" NCoef="0" IVar="4" Cut="1.6722702980041504e+00" cType="1" res="-1.9709590822458267e-02" rms="4.5063200592994690e-01" purity="4.6268099546432495e-01" nType="0">
          <Node pos="l" depth="2" NCoef="0" IVar="-1" Cut="0.0000000000000000e+00" cType="1" res="-5.8710010489448905e-04" rms="4.5958974957466125e-01" purity="4.9050164222717285e-01" nType="-99"/>
          <Node pos="r" depth="2" NCoef="0" IVar="-1" Cut="0.0000000000000000e+00" cType="1" res="-5.9220339171588421e-03" rms="3.1183263659477234e-01" purity="1.1947350203990936e-01" nType="-99"/>
        </Node>
      </Node>
    </BinaryTree>
    <BinaryTree type="DecisionTree" boostWeight="1.0000000000000000e+00" itree="352">
      <Node pos="s" depth="0" NCoef="0" IVar="0" Cut="1.0200418090820312e+02" cType="1" res="8.9857907732948661e-04" rms="4.5061576366424561e-01" purity="5.0159680843353271e-01" nType="0">
        <Node pos="l" depth="1" NCoef="0" IVar="7" Cut="4.7658380866050720e-01" cType="1" res="-1.1162958107888699e-02" rms="4.5636606216430664e-01" purity="4.7114890813827515e-01" nType="0">
          <Node pos="l" depth="2" NCoef="0" IVar="-1" Cut="0.0000000000000000e+00" cType="1" res="-1.2439029524102807e-03" rms="4.4947150349617004e-01" purity="4.1547405719757080e-01" nType="-99"/>
          <Node pos="r" depth="2" NCoef="0" IVar="-1" Cut="0.0000000000000000e+00" cType="1" res="7.0775352651253343e-04" rms="4.6644285321235657e-01" purity="5.6578528881072998e-01" nType="-99"/>
        </Node>
        <Node pos="r" depth="1" NCoef="0" IVar="1" Cut="2.4812777042388916e+00" cType="1" res="3.2808747142553329e-02" rms="4.3342071771621704e-01" purity="5.8215034008026123e-01" nType="0">
          <Node pos="l" depth="2" NCoef="0" IVar="-1" Cut="0.0000000000000000e+00" cType="1" res="2.3212037049233913e-03" rms="4.2965319752693176e-01" purity="6.8775528669357300e-01" nType="-99"/>
          <Node pos="r" depth="2" NCoef="0" IVar="-1" Cut="0.0000000000000000e+00" cType="1" res="-1.2623281218111515e-03" rms="4.3897950649261475e-01" purity="2.7806171774864197e-01" nType="-99"/>
        </Node>
      </Node>
    </BinaryTree>
    <BinaryTree type="DecisionTree" boostWeight="1.0000000000000000e+00" itree="353">
      <Node pos="s" depth="0" NCoef="0" IVar="1" Cut="2.2203238010406494e+00" cType="1" res="4.5749437995254993e-03" rms="4.4824397563934326e-01" purity="5.0282925367355347e-01" nType="0">
        <Node pos="l" depth="1" NCoef="0" IVar="7" Cut="2.5100484490394592e-01" cType="1" res="2.2246571257710457e-02" rms="4.5304465293884277e-01" purity="5.9551429748535156e-01" nType="0">
          <Node pos="l" depth="2" NCoef="0" IVar="-1" Cut="0.0000000000000000e+00" cType="1" res="-1.0326720075681806e-03" rms="4.6564596891403198e-01" purity="4.8432761430740356e-01" nType="-99"/>
          <Node pos="r" depth="2" NCoef="0" IVar="-1" Cut="0.0000000000000000e+00" cType="1" res="1.3722998555749655e-03" rms="4.4931694865226746e-01" purity="6.2167805433273315e-01" nType="-99"/>
        </Node>
        <Node pos="r" depth="1" NCoef="0" IVar="0" Cut="1.2262128448486328e+02" cType="1" res="-2.0472962409257889e-02" rms="4.4013607501983643e-01" purity="3.7145671248435974e-01" nType="0">
          <Node pos="l" depth="2" NCoef="0" IVar="-1" Cut="0.0000000000000000e+00" cType="1" res="-5.3047318942844868e-04" rms="4.3842640519142151e-01" purity="3.6895483732223511e-01" nType="-99"/>
          <Node pos="r" depth="2" NCoef="0" IVar="-1" Cut="0.0000000000000000e+00" cType="1" res="-2.4358644150197506e-03" rms="4.4470232725143433e-01" purity="3.8061350584030151e-01" nType="-99"/>
        </Node>
      </Node>
    </BinaryTree>
    <BinaryTree type="DecisionTree" boostWeight="1.0000000000000000e+00" itree="354">
      <Node pos="s" depth="0" NCoef="0" IVar="5" Cut="4.6831002831459045e-01" cType="1" res="1.2545573990792036e-03" rms="4.5426934957504272e-01" purity="4.9767297506332397e-01" nType="0">
        <Node pos="l" depth="1" NCoef="0" IVar="0" Cut="5.9517780303955078e+01" cType="1" res="-4.9056623131036758e-02" rms="4.6027311682701111e-01" purity="5.4670512676239014e-01" nType="0">
          <Node pos="l" depth="2" NCoef="0" IVar="-1" Cut="0.0000000000000000e+00" cType="1" res="-3.5220040008425713e-03" rms="4.5978936553001404e-01" purity="4.3742054700851440e-01" nType="-99"/>
          <Node pos="r" depth="2" NCoef="0" IVar="-1" Cut="0.0000000000000000e+00" cType="1" res="-9.5790473278611898e-04" rms="4.5881435275077820e-01" purity="6.2595146894454956e-01" nType="-99"/>
        </Node>
        <Node pos="r" depth="1" NCoef="0" IVar="1" Cut="1.8145679235458374e+00" cType="1" res="1.0235840454697609e-02" rms="4.5260131359100342e-01" purity="4.8892000317573547e-01" nType="0">
          <Node pos="l" depth="2" NCoef="0" IVar="-1" Cut="0.0000000000000000e+00" cType="1" res="3.1349279452115297e-03" rms="4.3599745631217957e-01" purity="5.8654481172561646e-01" nType="-99"/>
          <Node pos="r" depth="2" NCoef="0" IVar="-1" Cut="0.0000000000000000e+00" cType="1" res="1.7338001634925604e-04" rms="4.5360171794891357e-01" purity="4.7982868552207947e-01" nType="-99"/>
        </Node>
      </Node>
    </BinaryTree>
    <BinaryTree type="DecisionTree" boostWeight="1.0000000000000000e+00" itree="355">
      <Node pos="s" depth="0" NCoef="0" IVar="2" Cut="9.8636698722839355e-01" cType="1" res="5.4337633773684502e-03" rms="4.5112335681915283e-01" purity="5.0758522748947144e-01" nType="0">
        <Node pos="l" depth="1" NCoef="0" IVar="7" Cut="5.9860205650329590e-01" cType="1" res="1.3271721545606852e-03" rms="4.5412257313728333e-01" purity="4.9140635132789612e-01" nType="0">
          <Node pos="l" depth="2" NCoef="0" IVar="-1" Cut="0.0000000000000000e+00" cType="1" res="-2.7752819005399942e-04" rms="4.5319950580596924e-01" purity="4.6679252386093140e-01" nType="-99"/>
          <Node pos="r" depth="2" NCoef="0" IVar="-1" Cut="0.0000000000000000e+00" cType="1" res="1.5547253424301744e-03" rms="4.5666173100471497e-01" purity="6.0743033885955811e-01" nType="-99"/>
        </Node>
        <Node pos="r" depth="1" NCoef="0" IVar="-1" Cut="0.0000000000000000e+00" cType="1" res="3.6596262361854315e-03" rms="3.9018836617469788e-01" purity="7.8237777948379517e-01" nType="-99"/>
      </Node>
    </BinaryTree>
    <BinaryTree type="DecisionTree" boostWeight="1.0000000000000000e+00" itree="356">
      <Node pos="s" depth="0" NCoef="0" IVar="1" Cut="1.7272257804870605e+00" cType="1" res="-6.3582700677216053e-03" rms="4.5199692249298096e-01" purity="4.9869751930236816e-01" nType="0">
        <Node pos="l" depth="1" NCoef="0" IVar="-1" Cut="0.0000000000000000e+00" cType="1" res="-2.6789263356477022e-03" rms="4.6081051230430603e-01" purity="4.7319927811622620e-01" nType="-99"/>
        <Node pos="r" depth="1" NCoef="0" IVar="1" Cut="1.8555080890655518e+00" cType="1" res="-2.6742715854197741e-03" rms="4.5119461417198181e-01" purity="5.0024008750915527e-01" nType="0">
          <Node pos="l" depth="2" NCoef="0" IVar="-1" Cut="0.0000000000000000e+00" cType="1" res="3.1994334422051907e-03" rms="4.5464542508125305e-01" purity="6.7161983251571655e-01" nType="-99"/>
          <Node pos="r" depth="2" NCoef="0" IVar="-1" Cut="0.0000000000000000e+00" cType="1" res="-3.8536029751412570e-04" rms="4.5033407211303711e-01" purity="4.8753654956817627e-01" nType="-99"/>
        </Node>
      </Node>
    </BinaryTree>
    <BinaryTree type="DecisionTree" boostWeight="1.0000000000000000e+00" itree="357">
      <Node pos="s" depth="0" NCoef="0" IVar="2" Cut="9.5309686660766602e-01" cType="1" res="8.2128858193755150e-03" rms="4.5762830972671509e-01" purity="5.0912153720855713e-01" nType="0">
        <Node pos="l" depth="1" NCoef="0" IVar="7" Cut="3.5815301537513733e-01" cType="1" res="2.5912303477525711e-02" rms="4.5942422747612000e-01" purity="4.2924356460571289e-01" nType="0">
          <Node pos="l" depth="2" NCoef="0" IVar="-1" Cut="0.0000000000000000e+00" cType="1" res="2.2573649766854942e-04" rms="4.4624125957489014e-01" purity="3.5394552350044250e-01" nType="-99"/>
          <Node pos="r" depth="2" NCoef="0" IVar="-1" Cut="0.0000000000000000e+00" cType="1" res="1.7092931084334850e-03" rms="4.6929785609245300e-01" purity="4.9123084545135498e-01" nType="-99"/>
        </Node>
        <Node pos="r" depth="1" NCoef="0" IVar="5" Cut="5.1455283164978027e-01" cType="1" res="-1.2753414921462536e-02" rms="4.5460096001625061e-01" purity="6.0374307632446289e-01" nType="0">
          <Node pos="l" depth="2" NCoef="0" IVar="-1" Cut="0.0000000000000000e+00" cType="1" res="-2.3854442406445742e-03" rms="4.6292379498481750e-01" purity="6.3994663953781128e-01" nType="-99"/>
          <Node pos="r" depth="2" NCoef="0" IVar="-1" Cut="0.0000000000000000e+00" cType="1" res="-1.0762411693576723e-04" rms="4.5182949304580688e-01" purity="5.9427368640899658e-01" nType="-99"/>
        </Node>
      </Node>
    </BinaryTree>
    <BinaryTree type="DecisionTree" boostWeight="1.0000000000000000e+00" itree="358">
      <Node pos="s" depth="0" NCoef="0" IVar="7" Cut="4.5546966791152954e-01" cType="1" res="3.9687892422080040e-03" rms="4.5313584804534912e-01" purity="5.0572609901428223e-01" nType="0">
        <Node pos="l" depth="1" NCoef="0" IVar="3" Cut="-1.0836993902921677e-01" cType="1" res="-7.8303264454007149e-03" rms="4.5108106732368469e-01" purity="4.5738604664802551e-01" nType="0">
          <Node pos="l" depth="2" NCoef="0" IVar="-1" Cut="0.0000000000000000e+00" cType="1" res="2.1615226287394762e-03" rms="4.4978368282318115e-01" purity="4.0924754738807678e-01" nType="-99"/>
          <Node pos="r" depth="2" NCoef="0" IVar="-1" Cut="0.0000000000000000e+00" cType="1" res="-6.8041787017136812e-04" rms="4.5074918866157532e-01" purity="4.6423885226249695e-01" nType="-99"/>
        </Node>
        <Node pos="r" depth="1" NCoef="0" IVar="0" Cut="8.6870567321777344e+01" cType="1" res="2.2300183773040771e-02" rms="4.5570424199104309e-01" purity="5.8082842826843262e-01" nType="0">
          <Node pos="l" depth="2" NCoef="0" IVar="-1" Cut="0.0000000000000000e+00" cType="1" res="2.6333221467211843e-04" rms="4.6450540423393250e-01" purity="5.3702485561370850e-01" nType="-99"/>
          <Node pos="r" depth="2" NCoef="0" IVar="-1" Cut="0.0000000000000000e+00" cType="1" res="2.3098862729966640e-03" rms="4.3752947449684143e-01" purity="6.6157746315002441e-01" nType="-99"/>
        </Node>
      </Node>
    </BinaryTree>
    <BinaryTree type="DecisionTree" boostWeight="1.0000000000000000e+00" itree="359">
      <Node pos="s" depth="0" NCoef="0" IVar="3" Cut="1.4528518915176392e-01" cType="1" res="5.1881407853215933e-04" rms="4.5007932186126709e-01" purity="5.0063210725784302e-01" nType="0">
        <Node pos="l" depth="1" NCoef="0" IVar="7" Cut="5.9745281934738159e-01" cType="1" res="-8.1308074295520782e-03" rms="4.5107656717300415e-01" purity="4.7436547279357910e-01" nType="0">
          <Node pos="l" depth="2" NCoef="0" IVar="-1" Cut="0.0000000000000000e+00" cType="1" res="-8.5033889627084136e-04" rms="4.4953012466430664e-01" purity="4.3822139501571655e-01" nType="-99"/>
          <Node pos="r" depth="2" NCoef="0" IVar="-1" Cut="0.0000000000000000e+00" cType="1" res="1.4102613786235452e-03" rms="4.5455032587051392e-01" purity="6.1398434638977051e-01" nType="-99"/>
        </Node>
        <Node pos="r" depth="1" NCoef="0" IVar="7" Cut="2.4045281112194061e-01" cType="1" res="3.9316527545452118e-02" rms="4.4350826740264893e-01" purity="6.1845058202743530e-01" nType="0">
          <Node pos="l" depth="2" NCoef="0" IVar="-1" Cut="0.0000000000000000e+00" cType="1" res="-1.2087062932550907e-03" rms="4.4853779673576355e-01" purity="4.9026274681091309e-01" nType="-99"/>
          <Node pos="r" depth="2" NCoef="0" IVar="-1" Cut="0.0000000000000000e+00" cType="1" res="3.0097570270299911e-03" rms="4.3724983930587769e-01" purity="6.8162339925765991e-01" nType="-99"/>
        </Node>
      </Node>
    </BinaryTree>
    <BinaryTree type="DecisionTree" boostWeight="1.0000000000000000e+00" itree="360">
      <Node pos="s" depth="0" NCoef="0" IVar="3" Cut="1.9484306871891022e-01" cType="1" res="-9.0207830071449280e-03" rms="4.5417994260787964e-01" purity="4.8700448870658875e-01" nType="0">
        <Node pos="l" depth="1" NCoef="0" IVar="4" Cut="6.1230707168579102e-01" cType="1" res="-1.5312694013118744e-02" rms="4.5506045222282410e-01" purity="4.7047525644302368e-01" nType="0">
          <Node pos="l" depth="2" NCoef="0" IVar="-1" Cut="0.0000000000000000e+00" cType="1" res="1.5001670690253377e-03" rms="4.4378885626792908e-01" purity="7.0010721683502197e-01" nType="-99"/>
          <Node pos="r" depth="2" NCoef="0" IVar="-1" Cut="0.0000000000000000e+00" cType="1" res="-1.0095724137499928e-03" rms="4.5627000927925110e-01" purity="4.3549373745918274e-01" nType="-99"/>
        </Node>
        <Node pos="r" depth="1" NCoef="0" IVar="-1" Cut="0.0000000000000000e+00" cType="1" res="2.1190564148128033e-03" rms="4.4155627489089966e-01" purity="6.4145469665527344e-01" nType="-99"/>
      </Node>
    </BinaryTree>
    <BinaryTree type="DecisionTree" boostWeight="1.0000000000000000e+00" itree="361">
      <Node pos="s" depth="0" NCoef="0" IVar="5" Cut="4.8205476999282837e-01" cType="1" res="5.8589153923094273e-03" rms="4.5083987712860107e-01" purity="5.0601971149444580e-01" nType="0">
        <Node pos="l" depth="1" NCoef="0" IVar="3" Cut="-2.0383307710289955e-02" cType="1" res="-4.2637396603822708e-02" rms="4.5929583907127380e-01" purity="5.4537302255630493e-01" nType="0">
          <Node pos="l" depth="2" NCoef="0" IVar="-1" Cut="0.0000000000000000e+00" cType="1" res="-2.5774671230465174e-03" rms="4.5813375711441040e-01" purity="5.1039731502532959e-01" nType="-99"/>
          <Node pos="r" depth="2" NCoef="0" IVar="-1" Cut="0.0000000000000000e+00" cType="1" res="-1.1901974357897416e-04" rms="4.5888340473175049e-01" purity="6.1222499608993530e-01" nType="-99"/>
        </Node>
        <Node pos="r" depth="1" NCoef="0" IVar="6" Cut="5.5442867279052734e+00" cType="1" res="1.5333826653659344e-02" rms="4.4855734705924988e-01" purity="4.9833104014396667e-01" nType="0">
          <Node pos="l" depth="2" NCoef="0" IVar="-1" Cut="0.0000000000000000e+00" cType="1" res="-1.7243167385458946e-03" rms="4.1355893015861511e-01" purity="2.5397804379463196e-01" nType="-99"/>
          <Node pos="r" depth="2" NCoef="0" IVar="-1" Cut="0.0000000000000000e+00" cType="1" res="1.1131898500025272e-03" rms="4.5469689369201660e-01" purity="5.4869449138641357e-01" nType="-99"/>
        </Node>
      </Node>
    </BinaryTree>
    <BinaryTree type="DecisionTree" boostWeight="1.0000000000000000e+00" itree="362">
      <Node pos="s" depth="0" NCoef="0" IVar="2" Cut="9.1975349187850952e-01" cType="1" res="-3.5113245248794556e-03" rms="4.5537158846855164e-01" purity="4.9267685413360596e-01" nType="0">
        <Node pos="l" depth="1" NCoef="0" IVar="6" Cut="4.8882050514221191e+00" cType="1" res="2.9831618070602417e-02" rms="4.4264918565750122e-01" purity="3.2961669564247131e-01" nType="0">
          <Node pos="l" depth="2" NCoef="0" IVar="-1" Cut="0.0000000000000000e+00" cType="1" res="-2.1437006071209908e-03" rms="3.9344081282615662e-01" purity="2.1296574175357819e-01" nType="-99"/>
          <Node pos="r" depth="2" NCoef="0" IVar="-1" Cut="0.0000000000000000e+00" cType="1" res="4.1844774968922138e-03" rms="4.7389569878578186e-01" purity="4.3825572729110718e-01" nType="-99"/>
        </Node>
        <Node pos="r" depth="1" NCoef="0" IVar="6" Cut="5.8587689399719238e+00" cType="1" res="-8.0151483416557312e-03" rms="4.5687642693519592e-01" purity="5.1470237970352173e-01" nType="0">
          <Node pos="l" depth="2" NCoef="0" IVar="-1" Cut="0.0000000000000000e+00" cType="1" res="-1.9889425020664930e-03" rms="4.3057256937026978e-01" purity="3.0745908617973328e-01" nType="-99"/>
          <Node pos="r" depth="2" NCoef="0" IVar="-1" Cut="0.0000000000000000e+00" cType="1" res="-4.4533917389344424e-05" rms="4.6131274104118347e-01" purity="5.5360418558120728e-01" nType="-99"/>
        </Node>
      </Node>
    </BinaryTree>
    <BinaryTree type="DecisionTree" boostWeight="1.0000000000000000e+00" itree="363">
      <Node pos="s" depth="0" NCoef="0" IVar="1" Cut="2.3956177234649658e+00" cType="1" res="3.4689907915890217e-03" rms="4.5041880011558533e-01" purity="5.0704753398895264e-01" nType="0">
        <Node pos="l" depth="1" NCoef="0" IVar="6" Cut="5.8574204444885254e+00" cType="1" res="1.3945612125098705e-02" rms="4.5977419614791870e-01" purity="5.7470041513442993e-01" nType="0">
          <Node pos="l" depth="2" NCoef="0" IVar="-1" Cut="0.0000000000000000e+00" cType="1" res="1.8825151491910219e-03" rms="4.7932136058807373e-01" purity="4.2690107226371765e-01" nType="-99"/>
          <Node pos="r" depth="2" NCoef="0" IVar="-1" Cut="0.0000000000000000e+00" cType="1" res="1.7971264605876058e-04" rms="4.5344153046607971e-01" purity="6.1793357133865356e-01" nType="-99"/>
        </Node>
        <Node pos="r" depth="1" NCoef="0" IVar="4" Cut="1.2838277816772461e+00" cType="1" res="-3.3560235053300858e-02" rms="4.1354718804359436e-01" purity="2.6793071627616882e-01" nType="0">
          <Node pos="l" depth="2" NCoef="0" IVar="-1" Cut="0.0000000000000000e+00" cType="1" res="-3.8464548997581005e-03" rms="4.3112507462501526e-01" purity="3.3229547739028931e-01" nType="-99"/>
          <Node pos="r" depth="2" NCoef="0" IVar="-1" Cut="0.0000000000000000e+00" cType="1" res="-6.3665199559181929e-04" rms="4.0413433313369751e-01" purity="2.4207763373851776e-01" nType="-99"/>
        </Node>
      </Node>
    </BinaryTree>
    <BinaryTree type="DecisionTree" boostWeight="1.0000000000000000e+00" itree="364">
      <Node pos="s" depth="0" NCoef="0" IVar="4" Cut="7.8453880548477173e-01" cType="1" res="6.1197225004434586e-03" rms="4.5459294319152832e-01" purity="5.0668865442276001e-01" nType="0">
        <Node pos="l" depth="1" NCoef="0" IVar="7" Cut="5.5408293008804321e-01" cType="1" res="-1.4445556327700615e-02" rms="4.5477673411369324e-01" purity="6.2814718484878540e-01" nType="0">
          <Node pos="l" depth="2" NCoef="0" IVar="-1" Cut="0.0000000000000000e+00" cType="1" res="-1.4530824264511466e-03" rms="4.5933926105499268e-01" purity="6.0209506750106812e-01" nType="-99"/>
          <Node pos="r" depth="2" NCoef="0" IVar="-1" Cut="0.0000000000000000e+00" cType="1" res="1.3733025407418609e-03" rms="4.4127565622329712e-01" purity="6.8393534421920776e-01" nType="-99"/>
        </Node>
        <Node pos="r" depth="1" NCoef="0" IVar="6" Cut="7.6063303947448730e+00" cType="1" res="1.5083748847246170e-02" rms="4.5422154664993286e-01" purity="4.5374712347984314e-01" nType="0">
          <Node pos="l" depth="2" NCoef="0" IVar="-1" Cut="0.0000000000000000e+00" cType="1" res="1.6258595860563219e-04" rms="4.5467650890350342e-01" purity="3.8040235638618469e-01" nType="-99"/>
          <Node pos="r" depth="2" NCoef="0" IVar="-1" Cut="0.0000000000000000e+00" cType="1" res="1.8745518755167723e-03" rms="4.5194423198699951e-01" purity="6.3008749485015869e-01" nType="-99"/>
        </Node>
      </Node>
    </BinaryTree>
    <BinaryTree type="DecisionTree" boostWeight="1.0000000000000000e+00" itree="365">
      <Node pos="s" depth="0" NCoef="0" IVar="4" Cut="4.8632809519767761e-01" cType="1" res="1.0223754681646824e-02" rms="4.4996944069862366e-01" purity="5.0737005472183228e-01" nType="0">
        <Node pos="l" depth="1" NCoef="0" IVar="-1" Cut="0.0000000000000000e+00" cType="1" res="3.8351069670170546e-03" rms="4.0040427446365356e-01" purity="7.6233077049255371e-01" nType="-99"/>
        <Node pos="r" depth="1" NCoef="0" IVar="1" Cut="2.6644871234893799e+00" cType="1" res="4.8683499917387962e-03" rms="4.5265597105026245e-01" purity="4.8998382687568665e-01" nType="0">
          <Node pos="l" depth="2" NCoef="0" IVar="-1" Cut="0.0000000000000000e+00" cType="1" res="3.9824619307182729e-04" rms="4.6031731367111206e-01" purity="5.2248668670654297e-01" nType="-99"/>
          <Node pos="r" depth="2" NCoef="0" IVar="-1" Cut="0.0000000000000000e+00" cType="1" res="-2.8462936170399189e-03" rms="3.6216109991073608e-01" purity="1.5879091620445251e-01" nType="-99"/>
        </Node>
      </Node>
    </BinaryTree>
    <BinaryTree type="DecisionTree" boostWeight="1.0000000000000000e+00" itree="366">
      <Node pos="s" depth="0" NCoef="0" IVar="3" Cut="1.3935691118240356e-01" cType="1" res="-9.7395526245236397e-03" rms="4.5151060819625854e-01" purity="4.8794987797737122e-01" nType="0">
        <Node pos="l" depth="1" NCoef="0" IVar="1" Cut="2.0311560630798340e+00" cType="1" res="-1.7318133264780045e-02" rms="4.5158180594444275e-01" purity="4.6264034509658813e-01" nType="0">
          <Node pos="l" depth="2" NCoef="0" IVar="-1" Cut="0.0000000000000000e+00" cType="1" res="-1.8245886312797666e-03" rms="4.5977422595024109e-01" purity="5.2382075786590576e-01" nType="-99"/>
          <Node pos="r" depth="2" NCoef="0" IVar="-1" Cut="0.0000000000000000e+00" cType="1" res="-2.2958834597375244e-04" rms="4.4742619991302490e-01" purity="4.3606913089752197e-01" nType="-99"/>
        </Node>
        <Node pos="r" depth="1" NCoef="0" IVar="4" Cut="6.7701619863510132e-01" cType="1" res="2.3700270801782608e-02" rms="4.4967374205589294e-01" purity="5.9962612390518188e-01" nType="0">
          <Node pos="l" depth="2" NCoef="0" IVar="-1" Cut="0.0000000000000000e+00" cType="1" res="-5.6115572806447744e-04" rms="4.4302093982696533e-01" purity="6.2632191181182861e-01" nType="-99"/>
          <Node pos="r" depth="2" NCoef="0" IVar="-1" Cut="0.0000000000000000e+00" cType="1" res="1.9670745823532343e-03" rms="4.5208546519279480e-01" purity="5.8343821763992310e-01" nType="-99"/>
        </Node>
      </Node>
    </BinaryTree>
    <BinaryTree type="DecisionTree" boostWeight="1.0000000000000000e+00" itree="367">
      <Node pos="s" depth="0" NCoef="0" IVar="4" Cut="9.3442320823669434e-01" cType="1" res="-6.9448426365852356e-03" rms="4.5034739375114441e-01" purity="4.9786025285720825e-01" nType="0">
        <Node pos="l" depth="1" NCoef="0" IVar="1" Cut="1.7767463922500610e+00" cType="1" res="1.5500110574066639e-02" rms="4.5533660054206848e-01" purity="6.3924825191497803e-01" nType="0">
          <Node pos="l" depth="2" NCoef="0" IVar="-1" Cut="0.0000000000000000e+00" cType="1" res="-2.2676161024719477e-03" rms="4.6394765377044678e-01" purity="5.2558553218841553e-01" nType="-99"/>
          <Node pos="r" depth="2" NCoef="0" IVar="-1" Cut="0.0000000000000000e+00" cType="1" res="1.1297611054033041e-03" rms="4.5283123850822449e-01" purity="6.5598958730697632e-01" nType="-99"/>
        </Node>
        <Node pos="r" depth="1" NCoef="0" IVar="0" Cut="4.0410617828369141e+01" cType="1" res="-2.6840290054678917e-02" rms="4.4493260979652405e-01" purity="3.7253242731094360e-01" nType="0">
          <Node pos="l" depth="2" NCoef="0" IVar="-1" Cut="0.0000000000000000e+00" cType="1" res="-5.2783945575356483e-03" rms="3.8077104091644287e-01" purity="1.9274953007698059e-01" nType="-99"/>
          <Node pos="r" depth="2" NCoef="0" IVar="-1" Cut="0.0000000000000000e+00" cType="1" res="-8.0777192488312721e-04" rms="4.5110401511192322e-01" purity="3.9390426874160767e-01" nType="-99"/>
        </Node>
      </Node>
    </BinaryTree>
    <BinaryTree type="DecisionTree" boostWeight="1.0000000000000000e+00" itree="368">
      <Node pos="s" depth="0" NCoef="0" IVar="1" Cut="2.5723283290863037e+00" cType="1" res="-4.4376347213983536e-03" rms="4.4980689883232117e-01" purity="4.9171373248100281e-01" nType="0">
        <Node pos="l" depth="1" NCoef="0" IVar="0" Cut="4.3315616607666016e+01" cType="1" res="2.7600107714533806e-03" rms="4.5979487895965576e-01" purity="5.3658819198608398e-01" nType="0">
          <Node pos="l" depth="2" NCoef="0" IVar="-1" Cut="0.0000000000000000e+00" cType="1" res="-1.9646286964416504e-03" rms="4.5078966021537781e-01" purity="3.7338986992835999e-01" nType="-99"/>
          <Node pos="r" depth="2" NCoef="0" IVar="-1" Cut="0.0000000000000000e+00" cType="1" res="5.1231938414275646e-04" rms="4.6090489625930786e-01" purity="5.6789320707321167e-01" nType="-99"/>
        </Node>
        <Node pos="r" depth="1" NCoef="0" IVar="2" Cut="9.4998705387115479e-01" cType="1" res="-5.6469604372978210e-02" rms="3.6546981334686279e-01" purity="1.6731491684913635e-01" nType="0">
          <Node pos="l" depth="2" NCoef="0" IVar="-1" Cut="0.0000000000000000e+00" cType="1" res="-1.9846973009407520e-03" rms="3.4878021478652954e-01" purity="1.4494985342025757e-01" nType="-99"/>
          <Node pos="r" depth="2" NCoef="0" IVar="-1" Cut="0.0000000000000000e+00" cType="1" res="-5.0500831566751003e-03" rms="3.8462150096893311e-01" purity="1.9922797381877899e-01" nType="-99"/>
        </Node>
      </Node>
    </BinaryTree>
    <BinaryTree type="DecisionTree" boostWeight="1.0000000000000000e+00" itree="369">
      <Node pos="s" depth="0" NCoef="0" IVar="2" Cut="9.7862017154693604e-01" cType="1" res="-2.0608704071491957e-03" rms="4.5144128799438477e-01" purity="4.9802494049072266e-01" nType="0">
        <Node pos="l" depth="1" NCoef="0" IVar="0" Cut="1.0308601379394531e+02" cType="1" res="-9.7262514755129814e-03" rms="4.5687407255172729e-01" purity="4.6266248822212219e-01" nType="0">
          <Node pos="l" depth="2" NCoef="0" IVar="-1" Cut="0.0000000000000000e+00" cType="1" res="-9.1578240972012281e-04" rms="4.6205776929855347e-01" purity="4.3170672655105591e-01" nType="-99"/>
          <Node pos="r" depth="2" NCoef="0" IVar="-1" Cut="0.0000000000000000e+00" cType="1" res="1.0002800263464451e-03" rms="4.4061285257339478e-01" purity="5.4817312955856323e-01" nType="-99"/>
        </Node>
        <Node pos="r" depth="1" NCoef="0" IVar="7" Cut="4.5179480314254761e-01" cType="1" res="5.3456034511327744e-02" rms="4.0564984083175659e-01" purity="7.5413930416107178e-01" nType="0">
          <Node pos="l" depth="2" NCoef="0" IVar="-1" Cut="0.0000000000000000e+00" cType="1" res="3.7516716402024031e-03" rms="3.9839202165603638e-01" purity="7.5466024875640869e-01" nType="-99"/>
          <Node pos="r" depth="2" NCoef="0" IVar="-1" Cut="0.0000000000000000e+00" cType="1" res="1.0346673661842942e-03" rms="4.1227224469184875e-01" purity="7.5348317623138428e-01" nType="-99"/>
        </Node>
      </Node>
    </BinaryTree>
    <BinaryTree type="DecisionTree" boostWeight="1.0000000000000000e+00" itree="370">
      <Node pos="s" depth="0" NCoef="0" IVar="0" Cut="3.8529235839843750e+01" cType="1" res="-6.3834609463810921e-03" rms="4.4853630661964417e-01" purity="4.9016359448432922e-01" nType="0">
        <Node pos="l" depth="1" NCoef="0" IVar="-1" Cut="0.0000000000000000e+00" cType="1" res="-2.9312996193766594e-03" rms="4.3265029788017273e-01" purity="3.1415057182312012e-01" nType="-99"/>
        <Node pos="r" depth="1" NCoef="0" IVar="1" Cut="2.1250832080841064e+00" cType="1" res="-3.2280458253808320e-04" rms="4.4975933432579041e-01" purity="5.0880116224288940e-01" nType="0">
          <Node pos="l" depth="2" NCoef="0" IVar="-1" Cut="0.0000000000000000e+00" cType="1" res="9.4163656467571855e-04" rms="4.5091897249221802e-01" purity="6.2195396423339844e-01" nType="-99"/>
          <Node pos="r" depth="2" NCoef="0" IVar="-1" Cut="0.0000000000000000e+00" cType="1" res="-8.4139744285494089e-04" rms="4.4802448153495789e-01" purity="4.1971167922019958e-01" nType="-99"/>
        </Node>
      </Node>
    </BinaryTree>
    <BinaryTree type="DecisionTree" boostWeight="1.0000000000000000e+00" itree="371">
      <Node pos="s" depth="0" NCoef="0" IVar="5" Cut="1.2180370092391968e+00" cType="1" res="1.9498333567753434e-03" rms="4.4950309395790100e-01" purity="5.0221592187881470e-01" nType="0">
        <Node pos="l" depth="1" NCoef="0" IVar="5" Cut="3.9342439174652100e-01" cType="1" res="-3.2433415763080120e-03" rms="4.4922885298728943e-01" purity="5.0408697128295898e-01" nType="0">
          <Node pos="l" depth="2" NCoef="0" IVar="-1" Cut="0.0000000000000000e+00" cType="1" res="-3.0631097033619881e-03" rms="4.6484971046447754e-01" purity="5.2755647897720337e-01" nType="-99"/>
          <Node pos="r" depth="2" NCoef="0" IVar="-1" Cut="0.0000000000000000e+00" cType="1" res="1.8435908714309335e-04" rms="4.4688004255294800e-01" purity="5.0156855583190918e-01" nType="-99"/>
        </Node>
        <Node pos="r" depth="1" NCoef="0" IVar="-1" Cut="0.0000000000000000e+00" cType="1" res="3.3290397841483355e-03" rms="4.4679465889930725e-01" purity="4.7528731822967529e-01" nType="-99"/>
      </Node>
    </BinaryTree>
    <BinaryTree type="DecisionTree" boostWeight="1.0000000000000000e+00" itree="372">
      <Node pos="s" depth="0" NCoef="0" IVar="1" Cut="2.4002792835235596e+00" cType="1" res="-3.9672426646575332e-04" rms="4.4652530550956726e-01" purity="4.9424409866333008e-01" nType="0">
        <Node pos="l" depth="1" NCoef="0" IVar="2" Cut="9.7420704364776611e-01" cType="1" res="1.1842073872685432e-02" rms="4.5647776126861572e-01" purity="5.6672269105911255e-01" nType="0">
          <Node pos="l" depth="2" NCoef="0" IVar="-1" Cut="0.0000000000000000e+00" cType="1" res="6.4900777942966670e-05" rms="4.6997511386871338e-01" purity="5.1926863193511963e-01" nType="-99"/>
          <Node pos="r" depth="2" NCoef="0" IVar="-1" Cut="0.0000000000000000e+00" cType="1" res="2.9114854987710714e-03" rms="3.8514208793640137e-01" purity="7.8435498476028442e-01" nType="-99"/>
        </Node>
        <Node pos="r" depth="1" NCoef="0" IVar="6" Cut="7.3056983947753906e+00" cType="1" res="-4.1107300668954849e-02" rms="4.0906593203544617e-01" purity="2.5315469503402710e-01" nType="0">
          <Node pos="l" depth="2" NCoef="0" IVar="-1" Cut="0.0000000000000000e+00" cType="1" res="-1.1223439360037446e-03" rms="3.9759317040443420e-01" purity="2.1990409493446350e-01" nType="-99"/>
          <Node pos="r" depth="2" NCoef="0" IVar="-1" Cut="0.0000000000000000e+00" cType="1" res="-4.0400247089564800e-03" rms="4.2967042326927185e-01" purity="3.2656338810920715e-01" nType="-99"/>
        </Node>
      </Node>
    </BinaryTree>
    <BinaryTree type="DecisionTree" boostWeight="1.0000000000000000e+00" itree="373">
      <Node pos="s" depth="0" NCoef="0" IVar="5" Cut="4.6831002831459045e-01" cType="1" res="4.9986341036856174e-03" rms="4.5643723011016846e-01" purity="5.0779533386230469e-01" nType="0">
        <Node pos="l" depth="1" NCoef="0" IVar="6" Cut="6.4823799133300781e+00" cType="1" res="-4.7423548996448517e-02" rms="4.7447410225868225e-01" purity="5.4970324039459229e-01" nType="0">
          <Node pos="l" depth="2" NCoef="0" IVar="-1" Cut="0.0000000000000000e+00" cType="1" res="6.7773630144074559e-04" rms="4.7844943404197693e-01" purity="4.7738119959831238e-01" nType="-99"/>
          <Node pos="r" depth="2" NCoef="0" IVar="-1" Cut="0.0000000000000000e+00" cType="1" res="-3.6182336043566465e-03" rms="4.6741655468940735e-01" purity="5.9454470872879028e-01" nType="-99"/>
        </Node>
        <Node pos="r" depth="1" NCoef="0" IVar="6" Cut="6.1139602661132812e+00" cType="1" res="1.3781560584902763e-02" rms="4.5275184512138367e-01" purity="5.0077402591705322e-01" nType="0">
          <Node pos="l" depth="2" NCoef="0" IVar="-1" Cut="0.0000000000000000e+00" cType="1" res="-7.5470644515007734e-04" rms="4.4376134872436523e-01" purity="3.1708329916000366e-01" nType="-99"/>
          <Node pos="r" depth="2" NCoef="0" IVar="-1" Cut="0.0000000000000000e+00" cType="1" res="1.1895195348188281e-03" rms="4.5603552460670471e-01" purity="5.8274573087692261e-01" nType="-99"/>
        </Node>
      </Node>
    </BinaryTree>
    <BinaryTree type="DecisionTree" boostWeight="1.0000000000000000e+00" itree="374">
      <Node pos="s" depth="0" NCoef="0" IVar="6" Cut="4.9426441192626953e+00" cType="1" res="-5.1179970614612103e-04" rms="4.4802621006965637e-01" purity="5.0210744142532349e-01" nType="0">
        <Node pos="l" depth="1" NCoef="0" IVar="-1" Cut="0.0000000000000000e+00" cType="1" res="-4.3289265595376492e-03" rms="3.7044444680213928e-01" purity="1.7965249717235565e-01" nType="-99"/>
        <Node pos="r" depth="1" NCoef="0" IVar="0" Cut="3.8107383728027344e+01" cType="1" res="5.0160256214439869e-03" rms="4.5183491706848145e-01" purity="5.2216196060180664e-01" nType="0">
          <Node pos="l" depth="2" NCoef="0" IVar="-1" Cut="0.0000000000000000e+00" cType="1" res="-2.8036162257194519e-03" rms="4.3778422474861145e-01" purity="3.3672869205474854e-01" nType="-99"/>
          <Node pos="r" depth="2" NCoef="0" IVar="-1" Cut="0.0000000000000000e+00" cType="1" res="5.0118996296077967e-04" rms="4.5261788368225098e-01" purity="5.3993791341781616e-01" nType="-99"/>
        </Node>
      </Node>
    </BinaryTree>
    <BinaryTree type="DecisionTree" boostWeight="1.0000000000000000e+00" itree="375">
      <Node pos="s" depth="0" NCoef="0" IVar="3" Cut="1.4345020055770874e-01" cType="1" res="-1.2675024336203933e-03" rms="4.5270612835884094e-01" purity="4.9466484785079956e-01" nType="0">
        <Node pos="l" depth="1" NCoef="0" IVar="4" Cut="6.1242556571960449e-01" cType="1" res="-8.6657209321856499e-03" rms="4.5246219635009766e-01" purity="4.7016680240631104e-01" nType="0">
          <Node pos="l" depth="2" NCoef="0" IVar="-1" Cut="0.0000000000000000e+00" cType="1" res="1.5134895220398903e-03" rms="4.5061019062995911e-01" purity="6.9222658872604370e-01" nType="-99"/>
          <Node pos="r" depth="2" NCoef="0" IVar="-1" Cut="0.0000000000000000e+00" cType="1" res="-7.0354162016883492e-04" rms="4.5234513282775879e-01" purity="4.3567526340484619e-01" nType="-99"/>
        </Node>
        <Node pos="r" depth="1" NCoef="0" IVar="2" Cut="9.4164460897445679e-01" cType="1" res="3.2934963703155518e-02" rms="4.5226186513900757e-01" purity="6.0792082548141479e-01" nType="0">
          <Node pos="l" depth="2" NCoef="0" IVar="-1" Cut="0.0000000000000000e+00" cType="1" res="2.5868038646876812e-03" rms="4.7827911376953125e-01" purity="4.9819797277450562e-01" nType="-99"/>
          <Node pos="r" depth="2" NCoef="0" IVar="-1" Cut="0.0000000000000000e+00" cType="1" res="5.0156831275671721e-04" rms="4.3305954337120056e-01" purity="6.7939072847366333e-01" nType="-99"/>
        </Node>
      </Node>
    </BinaryTree>
    <BinaryTree type="DecisionTree" boostWeight="1.0000000000000000e+00" itree="376">
      <Node pos="s" depth="0" NCoef="0" IVar="6" Cut="5.5652575492858887e+00" cType="1" res="4.7541088424623013e-03" rms="4.5199808478355408e-01" purity="4.9951916933059692e-01" nType="0">
        <Node pos="l" depth="1" NCoef="0" IVar="2" Cut="9.2066591978073120e-01" cType="1" res="-3.3852417021989822e-02" rms="4.2268505692481995e-01" purity="2.6614224910736084e-01" nType="0">
          <Node pos="l" depth="2" NCoef="0" IVar="-1" Cut="0.0000000000000000e+00" cType="1" res="-5.1005932618863881e-05" rms="4.3661028146743774e-01" purity="2.9365697503089905e-01" nType="-99"/>
          <Node pos="r" depth="2" NCoef="0" IVar="-1" Cut="0.0000000000000000e+00" cType="1" res="-4.2776516638696194e-03" rms="3.8996183872222900e-01" purity="2.1717272698879242e-01" nType="-99"/>
        </Node>
        <Node pos="r" depth="1" NCoef="0" IVar="5" Cut="4.6260386705398560e-01" cType="1" res="1.3129560276865959e-02" rms="4.5768016576766968e-01" purity="5.5014884471893311e-01" nType="0">
          <Node pos="l" depth="2" NCoef="0" IVar="-1" Cut="0.0000000000000000e+00" cType="1" res="-1.4379255007952452e-03" rms="4.5660164952278137e-01" purity="5.8411628007888794e-01" nType="-99"/>
          <Node pos="r" depth="2" NCoef="0" IVar="-1" Cut="0.0000000000000000e+00" cType="1" res="9.5090921968221664e-04" rms="4.5734268426895142e-01" purity="5.4396921396255493e-01" nType="-99"/>
        </Node>
      </Node>
    </BinaryTree>
    <BinaryTree type="DecisionTree" boostWeight="1.0000000000000000e+00" itree="377">
      <Node pos="s" depth="0" NCoef="0" IVar="5" Cut="4.7723755240440369e-01" cType="1" res="8.9184064418077469e-03" rms="4.5336678624153137e-01" purity="5.1409387588500977e-01" nType="0">
        <Node pos="l" depth="1" NCoef="0" IVar="3" Cut="-3.9590734988451004e-02" cType="1" res="-3.2505381852388382e-02" rms="4.7274723649024963e-01" purity="5.7554912567138672e-01" nType="0">
          <Node pos="l" depth="2" NCoef="0" IVar="-1" Cut="0.0000000000000000e+00" cType="1" res="1.1373866582289338e-03" rms="4.7053456306457520e-01" purity="6.0917550325393677e-01" nType="-99"/>
          <Node pos="r" depth="2" NCoef="0" IVar="-1" Cut="0.0000000000000000e+00" cType="1" res="-3.1843034084886312e-03" rms="4.6569356322288513e-01" purity="5.3665757179260254e-01" nType="-99"/>
        </Node>
        <Node pos="r" depth="1" NCoef="0" IVar="4" Cut="6.4483046531677246e-01" cType="1" res="1.6423342749476433e-02" rms="4.4935777783393860e-01" purity="5.0295978784561157e-01" nType="0">
          <Node pos="l" depth="2" NCoef="0" IVar="-1" Cut="0.0000000000000000e+00" cType="1" res="3.2125709112733603e-03" rms="4.1535729169845581e-01" purity="7.4381375312805176e-01" nType="-99"/>
          <Node pos="r" depth="2" NCoef="0" IVar="-1" Cut="0.0000000000000000e+00" cType="1" res="4.2765395483002067e-04" rms="4.5274308323860168e-01" purity="4.7441482543945312e-01" nType="-99"/>
        </Node>
      </Node>
    </BinaryTree>
    <BinaryTree type="DecisionTree" boostWeight="1.0000000000000000e+00" itree="378">
      <Node pos="s" depth="0" NCoef="0" IVar="6" Cut="5.9809184074401855e+00" cType="1" res="-3.1268605962395668e-03" rms="4.5083373785018921e-01" purity="5.0090253353118896e-01" nType="0">
        <Node pos="l" depth="1" NCoef="0" IVar="5" Cut="7.2736299037933350e-01" cType="1" res="-3.3783715218305588e-02" rms="4.3059659004211426e-01" purity="2.9829886555671692e-01" nType="0">
          <Node pos="l" depth="2" NCoef="0" IVar="-1" Cut="0.0000000000000000e+00" cType="1" res="2.5603370158933103e-04" rms="4.7020813822746277e-01" purity="4.0059563517570496e-01" nType="-99"/>
          <Node pos="r" depth="2" NCoef="0" IVar="-1" Cut="0.0000000000000000e+00" cType="1" res="-2.9838562477380037e-03" rms="3.9841866493225098e-01" purity="2.2727499902248383e-01" nType="-99"/>
        </Node>
        <Node pos="r" depth="1" NCoef="0" IVar="2" Cut="9.3932467699050903e-01" cType="1" res="8.2630002871155739e-03" rms="4.5760169625282288e-01" purity="5.7617545127868652e-01" nType="0">
          <Node pos="l" depth="2" NCoef="0" IVar="-1" Cut="0.0000000000000000e+00" cType="1" res="3.0458448454737663e-03" rms="4.8003181815147400e-01" purity="5.1663738489151001e-01" nType="-99"/>
          <Node pos="r" depth="2" NCoef="0" IVar="-1" Cut="0.0000000000000000e+00" cType="1" res="6.7864377342630178e-05" rms="4.5472240447998047e-01" purity="5.8222711086273193e-01" nType="-99"/>
        </Node>
      </Node>
    </BinaryTree>
    <BinaryTree type="DecisionTree" boostWeight="1.0000000000000000e+00" itree="379">
      <Node pos="s" depth="0" NCoef="0" IVar="3" Cut="1.3695093989372253e-01" cType="1" res="-4.7625866718590260e-03" rms="4.4831806421279907e-01" purity="4.9567797780036926e-01" nType="0">
        <Node pos="l" depth="1" NCoef="0" IVar="2" Cut="9.8309046030044556e-01" cType="1" res="-1.3478444889187813e-02" rms="4.4877043366432190e-01" purity="4.6808433532714844e-01" nType="0">
          <Node pos="l" depth="2" NCoef="0" IVar="-1" Cut="0.0000000000000000e+00" cType="1" res="-8.5879559628665447e-04" rms="4.5152464509010315e-01" purity="4.4445356726646423e-01" nType="-99"/>
          <Node pos="r" depth="2" NCoef="0" IVar="-1" Cut="0.0000000000000000e+00" cType="1" res="2.5899549946188927e-03" rms="4.1043308377265930e-01" purity="7.3441648483276367e-01" nType="-99"/>
        </Node>
        <Node pos="r" depth="1" NCoef="0" IVar="2" Cut="9.6215754747390747e-01" cType="1" res="3.0979953706264496e-02" rms="4.4467502832412720e-01" purity="6.0883587598800659e-01" nType="0">
          <Node pos="l" depth="2" NCoef="0" IVar="-1" Cut="0.0000000000000000e+00" cType="1" res="3.1561963260173798e-04" rms="4.6578171849250793e-01" purity="5.1428288221359253e-01" nType="-99"/>
          <Node pos="r" depth="2" NCoef="0" IVar="-1" Cut="0.0000000000000000e+00" cType="1" res="3.7780245766043663e-03" rms="3.9350822567939758e-01" purity="8.0316394567489624e-01" nType="-99"/>
        </Node>
      </Node>
    </BinaryTree>
    <BinaryTree type="DecisionTree" boostWeight="1.0000000000000000e+00" itree="380">
      <Node pos="s" depth="0" NCoef="0" IVar="5" Cut="3.9949643611907959e-01" cType="1" res="-3.8128432352095842e-03" rms="4.5401194691658020e-01" purity="4.9372148513793945e-01" nType="0">
        <Node pos="l" depth="1" NCoef="0" IVar="-1" Cut="0.0000000000000000e+00" cType="1" res="-2.5272129569202662e-03" rms="4.6692526340484619e-01" purity="5.2982014417648315e-01" nType="-99"/>
        <Node pos="r" depth="1" NCoef="0" IVar="2" Cut="9.4759601354598999e-01" cType="1" res="2.5139125064015388e-03" rms="4.5220130681991577e-01" purity="4.9006035923957825e-01" nType="0">
          <Node pos="l" depth="2" NCoef="0" IVar="-1" Cut="0.0000000000000000e+00" cType="1" res="-8.7506661657243967e-04" rms="4.5052808523178101e-01" purity="3.5490477085113525e-01" nType="-99"/>
          <Node pos="r" depth="2" NCoef="0" IVar="-1" Cut="0.0000000000000000e+00" cType="1" res="9.6163002308458090e-04" rms="4.5271426439285278e-01" purity="6.0375279188156128e-01" nType="-99"/>
        </Node>
      </Node>
    </BinaryTree>
    <BinaryTree type="DecisionTree" boostWeight="1.0000000000000000e+00" itree="381">
      <Node pos="s" depth="0" NCoef="0" IVar="2" Cut="9.5729994773864746e-01" cType="1" res="8.2213766872882843e-03" rms="4.5448520779609680e-01" purity="5.0594025850296021e-01" nType="0">
        <Node pos="l" depth="1" NCoef="0" IVar="1" Cut="2.0562887191772461e+00" cType="1" res="2.2254446521401405e-02" rms="4.5483544468879700e-01" purity="4.3659654259681702e-01" nType="0">
          <Node pos="l" depth="2" NCoef="0" IVar="-1" Cut="0.0000000000000000e+00" cType="1" res="1.8321604002267122e-03" rms="4.7066703438758850e-01" purity="5.4348146915435791e-01" nType="-99"/>
          <Node pos="r" depth="2" NCoef="0" IVar="-1" Cut="0.0000000000000000e+00" cType="1" res="3.2430628198198974e-04" rms="4.4484317302703857e-01" purity="3.7559965252876282e-01" nType="-99"/>
        </Node>
        <Node pos="r" depth="1" NCoef="0" IVar="5" Cut="5.2699267864227295e-01" cType="1" res="-1.2710550799965858e-02" rms="4.5315548777580261e-01" purity="6.0937440395355225e-01" nType="0">
          <Node pos="l" depth="2" NCoef="0" IVar="-1" Cut="0.0000000000000000e+00" cType="1" res="-3.4179957583546638e-03" rms="4.5891830325126648e-01" purity="6.2133890390396118e-01" nType="-99"/>
          <Node pos="r" depth="2" NCoef="0" IVar="-1" Cut="0.0000000000000000e+00" cType="1" res="9.7098301921505481e-05" rms="4.5048362016677856e-01" purity="6.0640931129455566e-01" nType="-99"/>
        </Node>
      </Node>
    </BinaryTree>
    <BinaryTree type="DecisionTree" boostWeight="1.0000000000000000e+00" itree="382">
      <Node pos="s" depth="0" NCoef="0" IVar="7" Cut="5.3168100118637085e-01" cType="1" res="-7.5209452770650387e-03" rms="4.5194640755653381e-01" purity="4.9146160483360291e-01" nType="0">
        <Node pos="l" depth="1" NCoef="0" IVar="2" Cut="9.7393441200256348e-01" cType="1" res="-2.1709239110350609e-02" rms="4.4864964485168457e-01" purity="4.5038646459579468e-01" nType="0">
          <Node pos="l" depth="2" NCoef="0" IVar="-1" Cut="0.0000000000000000e+00" cType="1" res="-1.3636881485581398e-03" rms="4.5372262597084045e-01" purity="4.0593746304512024e-01" nType="-99"/>
          <Node pos="r" depth="2" NCoef="0" IVar="-1" Cut="0.0000000000000000e+00" cType="1" res="1.3867840170860291e-03" rms="4.1712334752082825e-01" purity="6.8534314632415771e-01" nType="-99"/>
        </Node>
        <Node pos="r" depth="1" NCoef="0" IVar="3" Cut="-5.3791854530572891e-02" cType="1" res="3.0697548761963844e-02" rms="4.5853057503700256e-01" purity="6.0210430622100830e-01" nType="0">
          <Node pos="l" depth="2" NCoef="0" IVar="-1" Cut="0.0000000000000000e+00" cType="1" res="-1.0774307884275913e-03" rms="4.7244769334793091e-01" purity="4.9169084429740906e-01" nType="-99"/>
          <Node pos="r" depth="2" NCoef="0" IVar="-1" Cut="0.0000000000000000e+00" cType="1" res="2.2594938054680824e-03" rms="4.5057174563407898e-01" purity="6.4772087335586548e-01" nType="-99"/>
        </Node>
      </Node>
    </BinaryTree>
    <BinaryTree type="DecisionTree" boostWeight="1.0000000000000000e+00" itree="383">
      <Node pos="s" depth="0" NCoef="0" IVar="6" Cut="5.0412659645080566e+00" cType="1" res="6.0567306354641914e-03" rms="4.5039099454879761e-01" purity="5.0848364830017090e-01" nType="0">
        <Node pos="l" depth="1" NCoef="0" IVar="-1" Cut="0.0000000000000000e+00" cType="1" res="-2.8256704099476337e-03" rms="3.9712852239608765e-01" purity="2.0010265707969666e-01" nType="-99"/>
        <Node pos="r" depth="1" NCoef="0" IVar="5" Cut="9.7264111042022705e-01" cType="1" res="1.0851870290935040e-02" rms="4.5382481813430786e-01" purity="5.3191906213760376e-01" nType="0">
          <Node pos="l" depth="2" NCoef="0" IVar="-1" Cut="0.0000000000000000e+00" cType="1" res="9.1768067795783281e-04" rms="4.5599648356437683e-01" purity="5.6792235374450684e-01" nType="-99"/>
          <Node pos="r" depth="2" NCoef="0" IVar="-1" Cut="0.0000000000000000e+00" cType="1" res="-1.0729226050898433e-03" rms="4.4490769505500793e-01" purity="4.1498324275016785e-01" nType="-99"/>
        </Node>
      </Node>
    </BinaryTree>
    <BinaryTree type="DecisionTree" boostWeight="1.0000000000000000e+00" itree="384">
      <Node pos="s" depth="0" NCoef="0" IVar="5" Cut="7.2613674402236938e-01" cType="1" res="-4.7191046178340912e-03" rms="4.4899958372116089e-01" purity="4.9755108356475830e-01" nType="0">
        <Node pos="l" depth="1" NCoef="0" IVar="7" Cut="5.6413656473159790e-01" cType="1" res="1.1983279138803482e-02" rms="4.5697572827339172e-01" purity="5.7733303308486938e-01" nType="0">
          <Node pos="l" depth="2" NCoef="0" IVar="-1" Cut="0.0000000000000000e+00" cType="1" res="-1.2685349793173373e-04" rms="4.5595481991767883e-01" purity="5.5054521560668945e-01" nType="-99"/>
          <Node pos="r" depth="2" NCoef="0" IVar="-1" Cut="0.0000000000000000e+00" cType="1" res="2.0058506634086370e-03" rms="4.5739728212356567e-01" purity="6.4330577850341797e-01" nType="-99"/>
        </Node>
        <Node pos="r" depth="1" NCoef="0" IVar="6" Cut="5.5442867279052734e+00" cType="1" res="-1.8617713823914528e-02" rms="4.4177162647247314e-01" purity="4.3116191029548645e-01" nType="0">
          <Node pos="l" depth="2" NCoef="0" IVar="-1" Cut="0.0000000000000000e+00" cType="1" res="-3.2622755970805883e-03" rms="3.9065802097320557e-01" purity="1.9147448241710663e-01" nType="-99"/>
          <Node pos="r" depth="2" NCoef="0" IVar="-1" Cut="0.0000000000000000e+00" cType="1" res="-3.7718642852269113e-04" rms="4.5170524716377258e-01" purity="4.8426049947738647e-01" nType="-99"/>
        </Node>
      </Node>
    </BinaryTree>
    <BinaryTree type="DecisionTree" boostWeight="1.0000000000000000e+00" itree="385">
      <Node pos="s" depth="0" NCoef="0" IVar="4" Cut="5.7400345802307129e-01" cType="1" res="-4.8431525938212872e-03" rms="4.4891032576560974e-01" purity="4.9562686681747437e-01" nType="0">
        <Node pos="l" depth="1" NCoef="0" IVar="4" Cut="4.7332033514976501e-01" cType="1" res="5.1845751702785492e-02" rms="4.2480292916297913e-01" purity="7.1752554178237915e-01" nType="0">
          <Node pos="l" depth="2" NCoef="0" IVar="-1" Cut="0.0000000000000000e+00" cType="1" res="-1.1873432231368497e-04" rms="4.3648320436477661e-01" purity="6.6801059246063232e-01" nType="-99"/>
          <Node pos="r" depth="2" NCoef="0" IVar="-1" Cut="0.0000000000000000e+00" cType="1" res="3.8261706940829754e-03" rms="4.1107463836669922e-01" purity="7.5472301244735718e-01" nType="-99"/>
        </Node>
        <Node pos="r" depth="1" NCoef="0" IVar="0" Cut="1.0200418090820312e+02" cType="1" res="-1.2969197705388069e-02" rms="4.5167803764343262e-01" purity="4.6381893754005432e-01" nType="0">
          <Node pos="l" depth="2" NCoef="0" IVar="-1" Cut="0.0000000000000000e+00" cType="1" res="-9.8763720598071814e-04" rms="4.5369324088096619e-01" purity="4.2961293458938599e-01" nType="-99"/>
          <Node pos="r" depth="2" NCoef="0" IVar="-1" Cut="0.0000000000000000e+00" cType="1" res="4.9120630137622356e-04" rms="4.4577318429946899e-01" purity="5.4822838306427002e-01" nType="-99"/>
        </Node>
      </Node>
    </BinaryTree>
    <BinaryTree type="DecisionTree" boostWeight="1.0000000000000000e+00" itree="386">
      <Node pos="s" depth="0" NCoef="0" IVar="4" Cut="5.2449572086334229e-01" cType="1" res="2.1424377337098122e-04" rms="4.4963771104812622e-01" purity="5.0331467390060425e-01" nType="0">
        <Node pos="l" depth="1" NCoef="0" IVar="-1" Cut="0.0000000000000000e+00" cType="1" res="2.6231459341943264e-03" rms="4.1444021463394165e-01" purity="7.3285669088363647e-01" nType="-99"/>
        <Node pos="r" depth="1" NCoef="0" IVar="7" Cut="2.4719406664371490e-01" cType="1" res="-5.7031400501728058e-03" rms="4.5244467258453369e-01" purity="4.8119693994522095e-01" nType="0">
          <Node pos="l" depth="2" NCoef="0" IVar="-1" Cut="0.0000000000000000e+00" cType="1" res="8.1208691699430346e-04" rms="4.4564592838287354e-01" purity="4.1262838244438171e-01" nType="-99"/>
          <Node pos="r" depth="2" NCoef="0" IVar="-1" Cut="0.0000000000000000e+00" cType="1" res="-5.9040507767349482e-04" rms="4.5452070236206055e-01" purity="5.0514602661132812e-01" nType="-99"/>
        </Node>
      </Node>
    </BinaryTree>
    <BinaryTree type="DecisionTree" boostWeight="1.0000000000000000e+00" itree="387">
      <Node pos="s" depth="0" NCoef="0" IVar="5" Cut="6.9245719909667969e-01" cType="1" res="4.5477901585400105e-03" rms="4.5136573910713196e-01" purity="5.0343531370162964e-01" nType="0">
        <Node pos="l" depth="1" NCoef="0" IVar="7" Cut="2.1972732245922089e-01" cType="1" res="2.8813093900680542e-02" rms="4.5684388279914856e-01" purity="5.9730547666549683e-01" nType="0">
          <Node pos="l" depth="2" NCoef="0" IVar="-1" Cut="0.0000000000000000e+00" cType="1" res="3.7035061977803707e-03" rms="4.5555430650711060e-01" purity="5.5563080310821533e-01" nType="-99"/>
          <Node pos="r" depth="2" NCoef="0" IVar="-1" Cut="0.0000000000000000e+00" cType="1" res="8.1610772758722305e-04" rms="4.5641297101974487e-01" purity="6.0388737916946411e-01" nType="-99"/>
        </Node>
        <Node pos="r" depth="1" NCoef="0" IVar="1" Cut="2.7296564579010010e+00" cType="1" res="-1.2972738593816757e-02" rms="4.4654959440231323e-01" purity="4.3565726280212402e-01" nType="0">
          <Node pos="l" depth="2" NCoef="0" IVar="-1" Cut="0.0000000000000000e+00" cType="1" res="-3.4159439383074641e-04" rms="4.5728084444999695e-01" purity="4.6633943915367126e-01" nType="-99"/>
          <Node pos="r" depth="2" NCoef="0" IVar="-1" Cut="0.0000000000000000e+00" cType="1" res="-4.6473187394440174e-03" rms="3.1052827835083008e-01" purity="1.1963924765586853e-01" nType="-99"/>
        </Node>
      </Node>
    </BinaryTree>
    <BinaryTree type="DecisionTree" boostWeight="1.0000000000000000e+00" itree="388">
      <Node pos="s" depth="0" NCoef="0" IVar="1" Cut="2.3382472991943359e+00" cType="1" res="4.3019326403737068e-04" rms="4.5021283626556396e-01" purity="5.0358492136001587e-01" nType="0">
        <Node pos="l" depth="1" NCoef="0" IVar="4" Cut="1.3617625236511230e+00" cType="1" res="9.9500007927417755e-03" rms="4.6047881245613098e-01" purity="5.7604676485061646e-01" nType="0">
          <Node pos="l" depth="2" NCoef="0" IVar="-1" Cut="0.0000000000000000e+00" cType="1" res="1.5168025856837630e-04" rms="4.6008059382438660e-01" purity="5.8999615907669067e-01" nType="-99"/>
          <Node pos="r" depth="2" NCoef="0" IVar="-1" Cut="0.0000000000000000e+00" cType="1" res="3.9253714494407177e-03" rms="4.5857441425323486e-01" purity="4.0903463959693909e-01" nType="-99"/>
        </Node>
        <Node pos="r" depth="1" NCoef="0" IVar="0" Cut="1.1735616302490234e+02" cType="1" res="-2.5713171809911728e-02" rms="4.1962426900863647e-01" purity="3.0458953976631165e-01" nType="0">
          <Node pos="l" depth="2" NCoef="0" IVar="-1" Cut="0.0000000000000000e+00" cType="1" res="-5.1053537754341960e-04" rms="4.1560420393943787e-01" purity="3.0489760637283325e-01" nType="-99"/>
          <Node pos="r" depth="2" NCoef="0" IVar="-1" Cut="0.0000000000000000e+00" cType="1" res="-3.2862075604498386e-03" rms="4.2752930521965027e-01" purity="3.0374386906623840e-01" nType="-99"/>
        </Node>
      </Node>
    </BinaryTree>
    <BinaryTree type="DecisionTree" boostWeight="1.0000000000000000e+00" itree="389">
      <Node pos="s" depth="0" NCoef="0" IVar="2" Cut="9.2045909166336060e-01" cType="1" res="4.3291109614074230e-03" rms="4.5018565654754639e-01" purity="5.0435572862625122e-01" nType="0">
        <Node pos="l" depth="1" NCoef="0" IVar="6" Cut="4.8533887863159180e+00" cType="1" res="5.2954271435737610e-02" rms="4.5265018939971924e-01" purity="3.5658794641494751e-01" nType="0">
          <Node pos="l" depth="2" NCoef="0" IVar="-1" Cut="0.0000000000000000e+00" cType="1" res="-2.9227654522401281e-05" rms="4.2760160565376282e-01" purity="2.5860652327537537e-01" nType="-99"/>
          <Node pos="r" depth="2" NCoef="0" IVar="-1" Cut="0.0000000000000000e+00" cType="1" res="4.0994677692651749e-03" rms="4.6723106503486633e-01" purity="4.3434256315231323e-01" nType="-99"/>
        </Node>
        <Node pos="r" depth="1" NCoef="0" IVar="2" Cut="9.3060910701751709e-01" cType="1" res="-2.2232844494283199e-03" rms="4.4945049285888672e-01" purity="5.2426791191101074e-01" nType="0">
          <Node pos="l" depth="2" NCoef="0" IVar="-1" Cut="0.0000000000000000e+00" cType="1" res="-3.3312907908111811e-03" rms="4.2200899124145508e-01" purity="2.8064227104187012e-01" nType="-99"/>
          <Node pos="r" depth="2" NCoef="0" IVar="-1" Cut="0.0000000000000000e+00" cType="1" res="2.6840722421184182e-04" rms="4.5180013775825500e-01" purity="5.5272489786148071e-01" nType="-99"/>
        </Node>
      </Node>
    </BinaryTree>
    <BinaryTree type="DecisionTree" boostWeight="1.0000000000000000e+00" itree="390">
      <Node pos="s" depth="0" NCoef="0" IVar="0" Cut="1.4013282775878906e+02" cType="1" res="1.1394596658647060e-02" rms="4.5513823628425598e-01" purity="5.1236712932586670e-01" nType="0">
        <Node pos="l" depth="1" NCoef="0" IVar="3" Cut="8.2898549735546112e-02" cType="1" res="1.6313645988702774e-02" rms="4.5491620898246765e-01" purity="5.1721388101577759e-01" nType="0">
          <Node pos="l" depth="2" NCoef="0" IVar="-1" Cut="0.0000000000000000e+00" cType="1" res="2.8256874065846205e-04" rms="4.5689103007316589e-01" purity="4.8102399706840515e-01" nType="-99"/>
          <Node pos="r" depth="2" NCoef="0" IVar="-1" Cut="0.0000000000000000e+00" cType="1" res="1.6520415665581822e-03" rms="4.4956499338150024e-01" purity="5.9993451833724976e-01" nType="-99"/>
        </Node>
        <Node pos="r" depth="1" NCoef="0" IVar="-1" Cut="0.0000000000000000e+00" cType="1" res="-2.1338888909667730e-03" rms="4.5375683903694153e-01" purity="4.5536205172538757e-01" nType="-99"/>
      </Node>
    </BinaryTree>
    <BinaryTree type="DecisionTree" boostWeight="1.0000000000000000e+00" itree="391">
      <Node pos="s" depth="0" NCoef="0" IVar="0" Cut="7.4787261962890625e+01" cType="1" res="7.0033008232712746e-03" rms="4.4861787557601929e-01" purity="5.0515902042388916e-01" nType="0">
        <Node pos="l" depth="1" NCoef="0" IVar="1" Cut="2.1780133247375488e+00" cType="1" res="-1.1389557272195816e-02" rms="4.4846966862678528e-01" purity="4.4474348425865173e-01" nType="0">
          <Node pos="l" depth="2" NCoef="0" IVar="-1" Cut="0.0000000000000000e+00" cType="1" res="3.5685053444467485e-04" rms="4.6586546301841736e-01" purity="5.3506588935852051e-01" nType="-99"/>
          <Node pos="r" depth="2" NCoef="0" IVar="-1" Cut="0.0000000000000000e+00" cType="1" res="-2.5065776426345110e-03" rms="4.1155585646629333e-01" purity="2.7683910727500916e-01" nType="-99"/>
        </Node>
        <Node pos="r" depth="1" NCoef="0" IVar="7" Cut="2.4324478209018707e-01" cType="1" res="2.5702470913529396e-02" rms="4.4799503684043884e-01" purity="5.6658071279525757e-01" nType="0">
          <Node pos="l" depth="2" NCoef="0" IVar="-1" Cut="0.0000000000000000e+00" cType="1" res="-1.9215629436075687e-04" rms="4.3959701061248779e-01" purity="4.4038188457489014e-01" nType="-99"/>
          <Node pos="r" depth="2" NCoef="0" IVar="-1" Cut="0.0000000000000000e+00" cType="1" res="1.5585025539621711e-03" rms="4.5039242506027222e-01" purity="6.1003738641738892e-01" nType="-99"/>
        </Node>
      </Node>
    </BinaryTree>
    <BinaryTree type="DecisionTree" boostWeight="1.0000000000000000e+00" itree="392">
      <Node pos="s" depth="0" NCoef="0" IVar="0" Cut="1.4234672546386719e+02" cType="1" res="-3.4778150729835033e-03" rms="4.5655360817909241e-01" purity="4.9886447191238403e-01" nType="0">
        <Node pos="l" depth="1" NCoef="0" IVar="1" Cut="1.8054001331329346e+00" cType="1" res="2.1169756073504686e-03" rms="4.5702362060546875e-01" purity="5.0506514310836792e-01" nType="0">
          <Node pos="l" depth="2" NCoef="0" IVar="-1" Cut="0.0000000000000000e+00" cType="1" res="-2.1830105688422918e-03" rms="4.6297433972358704e-01" purity="4.9217477440834045e-01" nType="-99"/>
          <Node pos="r" depth="2" NCoef="0" IVar="-1" Cut="0.0000000000000000e+00" cType="1" res="4.1249842615798116e-04" rms="4.5576083660125732e-01" purity="5.0662088394165039e-01" nType="-99"/>
        </Node>
        <Node pos="r" depth="1" NCoef="0" IVar="-1" Cut="0.0000000000000000e+00" cType="1" res="-3.6223388742655516e-03" rms="4.4380164146423340e-01" purity="4.1727456450462341e-01" nType="-99"/>
      </Node>
    </BinaryTree>
    <BinaryTree type="DecisionTree" boostWeight="1.0000000000000000e+00" itree="393">
      <Node pos="s" depth="0" NCoef="0" IVar="1" Cut="2.4220063686370850e+00" cType="1" res="-4.4606509618461132e-04" rms="4.5124441385269165e-01" purity="5.0094920396804810e-01" nType="0">
        <Node pos="l" depth="1" NCoef="0" IVar="7" Cut="1.8982604146003723e-01" cType="1" res="7.5025460682809353e-03" rms="4.6273157000541687e-01" purity="5.6494879722595215e-01" nType="0">
          <Node pos="l" depth="2" NCoef="0" IVar="-1" Cut="0.0000000000000000e+00" cType="1" res="2.6136410888284445e-03" rms="4.7686874866485596e-01" purity="5.2710443735122681e-01" nType="-99"/>
          <Node pos="r" depth="2" NCoef="0" IVar="-1" Cut="0.0000000000000000e+00" cType="1" res="2.4322082481376128e-06" rms="4.6027007699012756e-01" purity="5.7010489702224731e-01" nType="-99"/>
        </Node>
        <Node pos="r" depth="1" NCoef="0" IVar="4" Cut="1.2838277816772461e+00" cType="1" res="-3.1427737325429916e-02" rms="4.0186193585395813e-01" purity="2.5149497389793396e-01" nType="0">
          <Node pos="l" depth="2" NCoef="0" IVar="-1" Cut="0.0000000000000000e+00" cType="1" res="4.1293367394246161e-04" rms="4.4957438111305237e-01" purity="4.0906500816345215e-01" nType="-99"/>
          <Node pos="r" depth="2" NCoef="0" IVar="-1" Cut="0.0000000000000000e+00" cType="1" res="-2.6479328516870737e-03" rms="3.8297787308692932e-01" purity="1.9703638553619385e-01" nType="-99"/>
        </Node>
      </Node>
    </BinaryTree>
    <BinaryTree type="DecisionTree" boostWeight="1.0000000000000000e+00" itree="394">
      <Node pos="s" depth="0" NCoef="0" IVar="7" Cut="1.3131208717823029e-01" cType="1" res="-2.7960340958088636e-04" rms="4.5454901456832886e-01" purity="4.9990588426589966e-01" nType="0">
        <Node pos="l" depth="1" NCoef="0" IVar="-1" Cut="0.0000000000000000e+00" cType="1" res="3.5224629100412130e-03" rms="4.6317374706268311e-01" purity="4.4325831532478333e-01" nType="-99"/>
        <Node pos="r" depth="1" NCoef="0" IVar="2" Cut="9.7555661201477051e-01" cType="1" res="-5.3719920106232166e-03" rms="4.5350632071495056e-01" purity="5.0378906726837158e-01" nType="0">
          <Node pos="l" depth="2" NCoef="0" IVar="-1" Cut="0.0000000000000000e+00" cType="1" res="-5.4871541215106845e-04" rms="4.6011924743652344e-01" purity="4.6298325061798096e-01" nType="-99"/>
          <Node pos="r" depth="2" NCoef="0" IVar="-1" Cut="0.0000000000000000e+00" cType="1" res="1.8706244882196188e-03" rms="4.1114461421966553e-01" purity="7.3629891872406006e-01" nType="-99"/>
        </Node>
      </Node>
    </BinaryTree>
    <BinaryTree type="DecisionTree" boostWeight="1.0000000000000000e+00" itree="395">
      <Node pos="s" depth="0" NCoef="0" IVar="2" Cut="9.6753007173538208e-01" cType="1" res="4.1695018298923969e-03" rms="4.5026117563247681e-01" purity="5.0385159254074097e-01" nType="0">
        <Node pos="l" depth="1" NCoef="0" IVar="4" Cut="5.2437245845794678e-01" cType="1" res="-6.5997084602713585e-03" rms="4.5900699496269226e-01" purity="4.3884941935539246e-01" nType="0">
          <Node pos="l" depth="2" NCoef="0" IVar="-1" Cut="0.0000000000000000e+00" cType="1" res="2.2751162759959698e-03" rms="4.4045281410217285e-01" purity="6.8061661720275879e-01" nType="-99"/>
          <Node pos="r" depth="2" NCoef="0" IVar="-1" Cut="0.0000000000000000e+00" cType="1" res="-5.1629100926220417e-04" rms="4.6015846729278564e-01" purity="4.1792640089988708e-01" nType="-99"/>
        </Node>
        <Node pos="r" depth="1" NCoef="0" IVar="6" Cut="8.0646705627441406e+00" cType="1" res="3.6099262535572052e-02" rms="4.2165619134902954e-01" purity="6.9657742977142334e-01" nType="0">
          <Node pos="l" depth="2" NCoef="0" IVar="-1" Cut="0.0000000000000000e+00" cType="1" res="3.5723929759114981e-03" rms="4.3874445557594299e-01" purity="6.5526616573333740e-01" nType="-99"/>
          <Node pos="r" depth="2" NCoef="0" IVar="-1" Cut="0.0000000000000000e+00" cType="1" res="1.1610465589910746e-03" rms="4.1635978221893311e-01" purity="7.0707219839096069e-01" nType="-99"/>
        </Node>
      </Node>
    </BinaryTree>
    <BinaryTree type="DecisionTree" boostWeight="1.0000000000000000e+00" itree="396">
      <Node pos="s" depth="0" NCoef="0" IVar="3" Cut="-9.0171225368976593e-02" cType="1" res="7.2131543420255184e-03" rms="4.5107516646385193e-01" purity="5.1035439968109131e-01" nType="0">
        <Node pos="l" depth="1" NCoef="0" IVar="6" Cut="6.8493981361389160e+00" cType="1" res="-4.9490194767713547e-02" rms="4.3575710058212280e-01" purity="3.6872252821922302e-01" nType="0">
          <Node pos="l" depth="2" NCoef="0" IVar="-1" Cut="0.0000000000000000e+00" cType="1" res="-4.7372872941195965e-03" rms="4.0066692233085632e-01" purity="2.1832191944122314e-01" nType="-99"/>
          <Node pos="r" depth="2" NCoef="0" IVar="-1" Cut="0.0000000000000000e+00" cType="1" res="1.3238190149422735e-04" rms="4.6393120288848877e-01" purity="5.2620279788970947e-01" nType="-99"/>
        </Node>
        <Node pos="r" depth="1" NCoef="0" IVar="1" Cut="2.3502001762390137e+00" cType="1" res="1.8635589629411697e-02" rms="4.5324069261550903e-01" purity="5.3888505697250366e-01" nType="0">
          <Node pos="l" depth="2" NCoef="0" IVar="-1" Cut="0.0000000000000000e+00" cType="1" res="1.1404221877455711e-03" rms="4.5931205153465271e-01" purity="6.0032081604003906e-01" nType="-99"/>
          <Node pos="r" depth="2" NCoef="0" IVar="-1" Cut="0.0000000000000000e+00" cType="1" res="-5.8428099146112800e-04" rms="4.2978110909461975e-01" purity="3.2247832417488098e-01" nType="-99"/>
        </Node>
      </Node>
    </BinaryTree>
    <BinaryTree type="DecisionTree" boostWeight="1.0000000000000000e+00" itree="397">
      <Node pos="s" depth="0" NCoef="0" IVar="2" Cut="9.0867537260055542e-01" cType="1" res="-2.5305182207375765e-03" rms="4.5205476880073547e-01" purity="4.9469530582427979e-01" nType="0">
        <Node pos="l" depth="1" NCoef="0" IVar="-1" Cut="0.0000000000000000e+00" cType="1" res="-3.4620377700775862e-03" rms="3.8330629467964172e-01" purity="1.9360516965389252e-01" nType="-99"/>
        <Node pos="r" depth="1" NCoef="0" IVar="2" Cut="9.2039173841476440e-01" cType="1" res="1.4486358268186450e-03" rms="4.5531529188156128e-01" purity="5.1175415515899658e-01" nType="0">
          <Node pos="l" depth="2" NCoef="0" IVar="-1" Cut="0.0000000000000000e+00" cType="1" res="2.6522998232394457e-03" rms="4.6652865409851074e-01" purity="3.8264796137809753e-01" nType="-99"/>
          <Node pos="r" depth="2" NCoef="0" IVar="-1" Cut="0.0000000000000000e+00" cType="1" res="-1.2980382598470896e-04" rms="4.5415326952934265e-01" purity="5.2141487598419189e-01" nType="-99"/>
        </Node>
      </Node>
    </BinaryTree>
    <BinaryTree type="DecisionTree" boostWeight="1.0000000000000000e+00" itree="398">
      <Node pos="s" depth="0" NCoef="0" IVar="7" Cut="7.1434372663497925e-01" cType="1" res="-3.6207754164934158e-03" rms="4.5457205176353455e-01" purity="4.9613445997238159e-01" nType="0">
        <Node pos="l" depth="1" NCoef="0" IVar="4" Cut="1.0888506174087524e+00" cType="1" res="-7.8516714274883270e-03" rms="4.5526593923568726e-01" purity="4.8496282100677490e-01" nType="0">
          <Node pos="l" depth="2" NCoef="0" IVar="-1" Cut="0.0000000000000000e+00" cType="1" res="-8.7281671585515141e-04" rms="4.6462494134902954e-01" purity="5.8070915937423706e-01" nType="-99"/>
          <Node pos="r" depth="2" NCoef="0" IVar="-1" Cut="0.0000000000000000e+00" cType="1" res="5.0330889644101262e-04" rms="4.4110813736915588e-01" purity="3.5022249817848206e-01" nType="-99"/>
        </Node>
        <Node pos="r" depth="1" NCoef="0" IVar="-1" Cut="0.0000000000000000e+00" cType="1" res="2.8357934206724167e-03" rms="4.3635302782058716e-01" purity="6.8624305725097656e-01" nType="-99"/>
      </Node>
    </BinaryTree>
    <BinaryTree type="DecisionTree" boostWeight="1.0000000000000000e+00" itree="399">
      <Node pos="s" depth="0" NCoef="0" IVar="6" Cut="5.0412659645080566e+00" cType="1" res="-5.5833403021097183e-03" rms="4.5434167981147766e-01" purity="4.9589329957962036e-01" nType="0">
        <Node pos="l" depth="1" NCoef="0" IVar="-1" Cut="0.0000000000000000e+00" cType="1" res="-3.3102056477218866e-03" rms="3.8904979825019836e-01" purity="1.9897788763046265e-01" nType="-99"/>
        <Node pos="r" depth="1" NCoef="0" IVar="6" Cut="7.8045859336853027e+00" cType="1" res="-7.8372866846621037e-04" rms="4.5879089832305908e-01" purity="5.1948660612106323e-01" nType="0">
          <Node pos="l" depth="2" NCoef="0" IVar="-1" Cut="0.0000000000000000e+00" cType="1" res="3.7101554335094988e-04" rms="4.6345067024230957e-01" purity="4.6780857443809509e-01" nType="-99"/>
          <Node pos="r" depth="2" NCoef="0" IVar="-1" Cut="0.0000000000000000e+00" cType="1" res="-1.1179306311532855e-03" rms="4.4682970643043518e-01" purity="6.4091074466705322e-01" nType="-99"/>
        </Node>
      </Node>
    </BinaryTree>
    <BinaryTree type="DecisionTree" boostWeight="1.0000000000000000e+00" itree="400">
      <Node pos="s" depth="0" NCoef="0" IVar="4" Cut="1.1095190048217773e+00" cType="1" res="3.0177575536072254e-03" rms="4.5529800653457642e-01" purity="4.9935105443000793e-01" nType="0">
        <Node pos="l" depth="1" NCoef="0" IVar="6" Cut="5.2941069602966309e+00" cType="1" res="-1.2710356153547764e-02" rms="4.5894232392311096e-01" purity="5.9013515710830688e-01" nType="0">
          <Node pos="l" depth="2" NCoef="0" IVar="-1" Cut="0.0000000000000000e+00" cType="1" res="-2.9927978757768869e-03" rms="4.4634240865707397e-01" purity="2.8694686293601990e-01" nType="-99"/>
          <Node pos="r" depth="2" NCoef="0" IVar="-1" Cut="0.0000000000000000e+00" cType="1" res="-2.3534243518952280e-04" rms="4.5984381437301636e-01" purity="6.2524622678756714e-01" nType="-99"/>
        </Node>
        <Node pos="r" depth="1" NCoef="0" IVar="5" Cut="7.0969229936599731e-01" cType="1" res="2.6971366256475449e-02" rms="4.4863295555114746e-01" purity="3.6108866333961487e-01" nType="0">
          <Node pos="l" depth="2" NCoef="0" IVar="-1" Cut="0.0000000000000000e+00" cType="1" res="3.3080657012760639e-03" rms="4.7445490956306458e-01" purity="4.2815014719963074e-01" nType="-99"/>
          <Node pos="r" depth="2" NCoef="0" IVar="-1" Cut="0.0000000000000000e+00" cType="1" res="6.6959572723135352e-04" rms="4.3968072533607483e-01" purity="3.4081244468688965e-01" nType="-99"/>
        </Node>
      </Node>
    </BinaryTree>
    <BinaryTree type="DecisionTree" boostWeight="1.0000000000000000e+00" itree="401">
      <Node pos="s" depth="0" NCoef="0" IVar="3" Cut="1.6482474282383919e-02" cType="1" res="-3.3780478406697512e-03" rms="4.5638471841812134e-01" purity="4.9654984474182129e-01" nType="0">
        <Node pos="l" depth="1" NCoef="0" IVar="5" Cut="8.8466227054595947e-01" cType="1" res="1.0702130384743214e-02" rms="4.5490479469299316e-01" purity="4.7892034053802490e-01" nType="0">
          <Node pos="l" depth="2" NCoef="0" IVar="-1" Cut="0.0000000000000000e+00" cType="1" res="-2.2464679204858840e-04" rms="4.5609951019287109e-01" purity="5.1263493299484253e-01" nType="-99"/>
          <Node pos="r" depth="2" NCoef="0" IVar="-1" Cut="0.0000000000000000e+00" cType="1" res="2.3622983135282993e-03" rms="4.4970813393592834e-01" purity="3.9752441644668579e-01" nType="-99"/>
        </Node>
        <Node pos="r" depth="1" NCoef="0" IVar="3" Cut="1.2582261860370636e-01" cType="1" res="-2.1445635706186295e-02" rms="4.5764261484146118e-01" purity="5.1917201280593872e-01" nType="0">
          <Node pos="l" depth="2" NCoef="0" IVar="-1" Cut="0.0000000000000000e+00" cType="1" res="-1.9136891933158040e-03" rms="4.5461764931678772e-01" purity="4.6608817577362061e-01" nType="-99"/>
          <Node pos="r" depth="2" NCoef="0" IVar="-1" Cut="0.0000000000000000e+00" cType="1" res="3.4567731199786067e-04" rms="4.5973789691925049e-01" purity="5.8585608005523682e-01" nType="-99"/>
        </Node>
      </Node>
    </BinaryTree>
    <BinaryTree type="DecisionTree" boostWeight="1.0000000000000000e+00" itree="402">
      <Node pos="s" depth="0" NCoef="0" IVar="7" Cut="1.8575145304203033e-01" cType="1" res="-2.3324403446167707e-03" rms="4.5422857999801636e-01" purity="4.9442008137702942e-01" nType="0">
        <Node pos="l" depth="1" NCoef="0" IVar="3" Cut="-1.2264591641724110e-02" cType="1" res="4.2368736118078232e-02" rms="4.4745060801506042e-01" purity="4.2814332246780396e-01" nType="0">
          <Node pos="l" depth="2" NCoef="0" IVar="-1" Cut="0.0000000000000000e+00" cType="1" res="3.6411057226359844e-03" rms="4.4163122773170471e-01" purity="4.1145747900009155e-01" nType="-99"/>
          <Node pos="r" depth="2" NCoef="0" IVar="-1" Cut="0.0000000000000000e+00" cType="1" res="6.2811851967126131e-04" rms="4.5102760195732117e-01" purity="4.4390016794204712e-01" nType="-99"/>
        </Node>
        <Node pos="r" depth="1" NCoef="0" IVar="3" Cut="1.5656380355358124e-01" cType="1" res="-9.9729783833026886e-03" rms="4.5493769645690918e-01" purity="5.0574845075607300e-01" nType="0">
          <Node pos="l" depth="2" NCoef="0" IVar="-1" Cut="0.0000000000000000e+00" cType="1" res="-9.4531111244577914e-05" rms="4.5258858799934387e-01" purity="4.9724942445755005e-01" nType="-99"/>
          <Node pos="r" depth="2" NCoef="0" IVar="-1" Cut="0.0000000000000000e+00" cType="1" res="-2.3158686235547066e-03" rms="4.6609210968017578e-01" purity="5.5683571100234985e-01" nType="-99"/>
        </Node>
      </Node>
    </BinaryTree>
    <BinaryTree type="DecisionTree" boostWeight="1.0000000000000000e+00" itree="403">
      <Node pos="s" depth="0" NCoef="0" IVar="3" Cut="2.2907464206218719e-01" cType="1" res="4.1493405587971210e-03" rms="4.5427227020263672e-01" purity="5.0100606679916382e-01" nType="0">
        <Node pos="l" depth="1" NCoef="0" IVar="5" Cut="1.0886881351470947e+00" cType="1" res="9.2134689912199974e-03" rms="4.5338132977485657e-01" purity="5.0031208992004395e-01" nType="0">
          <Node pos="l" depth="2" NCoef="0" IVar="-1" Cut="0.0000000000000000e+00" cType="1" res="9.5268260338343680e-05" rms="4.5481011271476746e-01" purity="5.1121383905410767e-01" nType="-99"/>
          <Node pos="r" depth="2" NCoef="0" IVar="-1" Cut="0.0000000000000000e+00" cType="1" res="2.2246742155402899e-03" rms="4.4310089945793152e-01" purity="4.3857845664024353e-01" nType="-99"/>
        </Node>
        <Node pos="r" depth="1" NCoef="0" IVar="-1" Cut="0.0000000000000000e+00" cType="1" res="-3.0010077171027660e-03" rms="4.6071821451187134e-01" purity="5.1281917095184326e-01" nType="-99"/>
      </Node>
    </BinaryTree>
    <BinaryTree type="DecisionTree" boostWeight="1.0000000000000000e+00" itree="404">
      <Node pos="s" depth="0" NCoef="0" IVar="5" Cut="4.6073928475379944e-01" cType="1" res="-3.9925798773765564e-03" rms="4.5378544926643372e-01" purity="4.9498492479324341e-01" nType="0">
        <Node pos="l" depth="1" NCoef="0" IVar="5" Cut="3.5157901048660278e-01" cType="1" res="-5.6091539561748505e-02" rms="4.7055035829544067e-01" purity="5.3973394632339478e-01" nType="0">
          <Node pos="l" depth="2" NCoef="0" IVar="-1" Cut="0.0000000000000000e+00" cType="1" res="-4.8232229892164469e-04" rms="4.6910414099693298e-01" purity="5.9176009893417358e-01" nType="-99"/>
          <Node pos="r" depth="2" NCoef="0" IVar="-1" Cut="0.0000000000000000e+00" cType="1" res="-3.8010275457054377e-03" rms="4.6876829862594604e-01" purity="4.9921664595603943e-01" nType="-99"/>
        </Node>
        <Node pos="r" depth="1" NCoef="0" IVar="5" Cut="7.0983290672302246e-01" cType="1" res="4.8168473877012730e-03" rms="4.5029366016387939e-01" purity="4.8741832375526428e-01" nType="0">
          <Node pos="l" depth="2" NCoef="0" IVar="-1" Cut="0.0000000000000000e+00" cType="1" res="1.3273254735395312e-03" rms="4.5669957995414734e-01" purity="5.7766062021255493e-01" nType="-99"/>
          <Node pos="r" depth="2" NCoef="0" IVar="-1" Cut="0.0000000000000000e+00" cType="1" res="-3.9877369999885559e-04" rms="4.4633197784423828e-01" purity="4.4079908728599548e-01" nType="-99"/>
        </Node>
      </Node>
    </BinaryTree>
    <BinaryTree type="DecisionTree" boostWeight="1.0000000000000000e+00" itree="405">
      <Node pos="s" depth="0" NCoef="0" IVar="2" Cut="9.2910701036453247e-01" cType="1" res="-8.4911324083805084e-03" rms="4.5355188846588135e-01" purity="4.9040544033050537e-01" nType="0">
        <Node pos="l" depth="1" NCoef="0" IVar="7" Cut="2.2540593147277832e-01" cType="1" res="-4.2521271854639053e-02" rms="4.2870613932609558e-01" purity="2.8948530554771423e-01" nType="0">
          <Node pos="l" depth="2" NCoef="0" IVar="-1" Cut="0.0000000000000000e+00" cType="1" res="4.5620661694556475e-04" rms="4.3321749567985535e-01" purity="2.8519546985626221e-01" nType="-99"/>
          <Node pos="r" depth="2" NCoef="0" IVar="-1" Cut="0.0000000000000000e+00" cType="1" res="-2.5857992004603148e-03" rms="4.2584872245788574e-01" purity="2.9089194536209106e-01" nType="-99"/>
        </Node>
        <Node pos="r" depth="1" NCoef="0" IVar="5" Cut="6.0301959514617920e-01" cType="1" res="3.8007533294148743e-04" rms="4.5939424633979797e-01" purity="5.4278266429901123e-01" nType="0">
          <Node pos="l" depth="2" NCoef="0" IVar="-1" Cut="0.0000000000000000e+00" cType="1" res="-1.2775674695149064e-03" rms="4.6047967672348022e-01" purity="5.8101600408554077e-01" nType="-99"/>
          <Node pos="r" depth="2" NCoef="0" IVar="-1" Cut="0.0000000000000000e+00" cType="1" res="5.7026650756597519e-04" rms="4.5835280418395996e-01" purity="5.2705174684524536e-01" nType="-99"/>
        </Node>
      </Node>
    </BinaryTree>
    <BinaryTree type="DecisionTree" boostWeight="1.0000000000000000e+00" itree="406">
      <Node pos="s" depth="0" NCoef="0" IVar="0" Cut="1.0200418090820312e+02" cType="1" res="-4.2965244501829147e-03" rms="4.5539277791976929e-01" purity="4.9572962522506714e-01" nType="0">
        <Node pos="l" depth="1" NCoef="0" IVar="1" Cut="1.7516233921051025e+00" cType="1" res="-1.5572852455079556e-02" rms="4.6028393507003784e-01" purity="4.6486234664916992e-01" nType="0">
          <Node pos="l" depth="2" NCoef="0" IVar="-1" Cut="0.0000000000000000e+00" cType="1" res="-2.5818692520260811e-03" rms="4.6433895826339722e-01" purity="4.4017100334167480e-01" nType="-99"/>
          <Node pos="r" depth="2" NCoef="0" IVar="-1" Cut="0.0000000000000000e+00" cType="1" res="-3.8531958125531673e-04" rms="4.5931658148765564e-01" purity="4.6708497405052185e-01" nType="-99"/>
        </Node>
        <Node pos="r" depth="1" NCoef="0" IVar="0" Cut="1.3873332214355469e+02" cType="1" res="2.5030655786395073e-02" rms="4.4107103347778320e-01" purity="5.7600855827331543e-01" nType="0">
          <Node pos="l" depth="2" NCoef="0" IVar="-1" Cut="0.0000000000000000e+00" cType="1" res="2.2332475055009127e-03" rms="4.3334144353866577e-01" purity="6.2928628921508789e-01" nType="-99"/>
          <Node pos="r" depth="2" NCoef="0" IVar="-1" Cut="0.0000000000000000e+00" cType="1" res="-1.5749040758237243e-03" rms="4.5321467518806458e-01" purity="4.5180222392082214e-01" nType="-99"/>
        </Node>
      </Node>
    </BinaryTree>
    <BinaryTree type="DecisionTree" boostWeight="1.0000000000000000e+00" itree="407">
      <Node pos="s" depth="0" NCoef="0" IVar="5" Cut="4.7198396921157837e-01" cType="1" res="-1.3862104387953877e-03" rms="4.5379754900932312e-01" purity="5.0177413225173950e-01" nType="0">
        <Node pos="l" depth="1" NCoef="0" IVar="3" Cut="-2.1480606868863106e-02" cType="1" res="-4.6220753341913223e-02" rms="4.7078064084053040e-01" purity="5.4684954881668091e-01" nType="0">
          <Node pos="l" depth="2" NCoef="0" IVar="-1" Cut="0.0000000000000000e+00" cType="1" res="-2.0412042795214802e-04" rms="4.6343380212783813e-01" purity="5.8149385452270508e-01" nType="-99"/>
          <Node pos="r" depth="2" NCoef="0" IVar="-1" Cut="0.0000000000000000e+00" cType="1" res="-3.3704303205013275e-03" rms="4.7485822439193726e-01" purity="4.9781662225723267e-01" nType="-99"/>
        </Node>
        <Node pos="r" depth="1" NCoef="0" IVar="1" Cut="1.8145679235458374e+00" cType="1" res="6.4934901893138885e-03" rms="4.5028567314147949e-01" purity="4.9385201930999756e-01" nType="0">
          <Node pos="l" depth="2" NCoef="0" IVar="-1" Cut="0.0000000000000000e+00" cType="1" res="2.8524091467261314e-03" rms="4.4711071252822876e-01" purity="6.0127985477447510e-01" nType="-99"/>
          <Node pos="r" depth="2" NCoef="0" IVar="-1" Cut="0.0000000000000000e+00" cType="1" res="2.8885058782179840e-05" rms="4.5013040304183960e-01" purity="4.8391583561897278e-01" nType="-99"/>
        </Node>
      </Node>
    </BinaryTree>
    <BinaryTree type="DecisionTree" boostWeight="1.0000000000000000e+00" itree="408">
      <Node pos="s" depth="0" NCoef="0" IVar="0" Cut="1.0233372497558594e+02" cType="1" res="-1.0872623883187771e-02" rms="4.5270314812660217e-01" purity="4.9195492267608643e-01" nType="0">
        <Node pos="l" depth="1" NCoef="0" IVar="0" Cut="4.5292411804199219e+01" cType="1" res="-2.1683003753423691e-02" rms="4.5537832379341125e-01" purity="4.5831298828125000e-01" nType="0">
          <Node pos="l" depth="2" NCoef="0" IVar="-1" Cut="0.0000000000000000e+00" cType="1" res="-2.8572082519531250e-03" rms="4.5007693767547607e-01" purity="3.4651729464530945e-01" nType="-99"/>
          <Node pos="r" depth="2" NCoef="0" IVar="-1" Cut="0.0000000000000000e+00" cType="1" res="-4.1998887900263071e-04" rms="4.5619776844978333e-01" purity="4.9051991105079651e-01" nType="-99"/>
        </Node>
        <Node pos="r" depth="1" NCoef="0" IVar="3" Cut="4.2062543332576752e-02" cType="1" res="1.6467947512865067e-02" rms="4.4469451904296875e-01" purity="5.7703876495361328e-01" nType="0">
          <Node pos="l" depth="2" NCoef="0" IVar="-1" Cut="0.0000000000000000e+00" cType="1" res="-1.3296413817442954e-04" rms="4.6030837297439575e-01" purity="5.2564424276351929e-01" nType="-99"/>
          <Node pos="r" depth="2" NCoef="0" IVar="-1" Cut="0.0000000000000000e+00" cType="1" res="2.5847568176686764e-03" rms="4.0879848599433899e-01" purity="6.8022489547729492e-01" nType="-99"/>
        </Node>
      </Node>
    </BinaryTree>
    <BinaryTree type="DecisionTree" boostWeight="1.0000000000000000e+00" itree="409">
      <Node pos="s" depth="0" NCoef="0" IVar="2" Cut="9.1052716970443726e-01" cType="1" res="6.8001085310243070e-05" rms="4.5070892572402954e-01" purity="5.0400573015213013e-01" nType="0">
        <Node pos="l" depth="1" NCoef="0" IVar="-1" Cut="0.0000000000000000e+00" cType="1" res="-3.8792919367551804e-03" rms="3.8847929239273071e-01" purity="1.8977585434913635e-01" nType="-99"/>
        <Node pos="r" depth="1" NCoef="0" IVar="0" Cut="1.0200418090820312e+02" cType="1" res="4.4152238406240940e-03" rms="4.5341363549232483e-01" purity="5.2094346284866333e-01" nType="0">
          <Node pos="l" depth="2" NCoef="0" IVar="-1" Cut="0.0000000000000000e+00" cType="1" res="-3.3350804005749524e-04" rms="4.5840474963188171e-01" purity="4.8787119984626770e-01" nType="-99"/>
          <Node pos="r" depth="2" NCoef="0" IVar="-1" Cut="0.0000000000000000e+00" cType="1" res="1.6347803175449371e-03" rms="4.3893599510192871e-01" purity="6.0489547252655029e-01" nType="-99"/>
        </Node>
      </Node>
    </BinaryTree>
    <BinaryTree type="DecisionTree" boostWeight="1.0000000000000000e+00" itree="410">
      <Node pos="s" depth="0" NCoef="0" IVar="0" Cut="1.5587994384765625e+02" cType="1" res="2.6837780606001616e-03" rms="4.4906386733055115e-01" purity="4.9956274032592773e-01" nType="0">
        <Node pos="l" depth="1" NCoef="0" IVar="0" Cut="1.0270342254638672e+02" cType="1" res="7.6573258265852928e-03" rms="4.4802942872047424e-01" purity="5.0482177734375000e-01" nType="0">
          <Node pos="l" depth="2" NCoef="0" IVar="-1" Cut="0.0000000000000000e+00" cType="1" res="-1.6328647325281054e-04" rms="4.5089563727378845e-01" purity="4.7207072377204895e-01" nType="-99"/>
          <Node pos="r" depth="2" NCoef="0" IVar="-1" Cut="0.0000000000000000e+00" cType="1" res="2.0737592130899429e-03" rms="4.3623811006546021e-01" purity="6.1356556415557861e-01" nType="-99"/>
        </Node>
        <Node pos="r" depth="1" NCoef="0" IVar="-1" Cut="0.0000000000000000e+00" cType="1" res="-3.9394632913172245e-03" rms="4.5814070105552673e-01" purity="4.0709856152534485e-01" nType="-99"/>
      </Node>
    </BinaryTree>
    <BinaryTree type="DecisionTree" boostWeight="1.0000000000000000e+00" itree="411">
      <Node pos="s" depth="0" NCoef="0" IVar="1" Cut="2.0737199783325195e+00" cType="1" res="1.0316112078726292e-02" rms="4.5130014419555664e-01" purity="5.1060408353805542e-01" nType="0">
        <Node pos="l" depth="1" NCoef="0" IVar="5" Cut="9.8366492986679077e-01" cType="1" res="3.6866314709186554e-02" rms="4.5392894744873047e-01" purity="6.1217379570007324e-01" nType="0">
          <Node pos="l" depth="2" NCoef="0" IVar="-1" Cut="0.0000000000000000e+00" cType="1" res="2.0960350520908833e-03" rms="4.5112061500549316e-01" purity="6.4492952823638916e-01" nType="-99"/>
          <Node pos="r" depth="2" NCoef="0" IVar="-1" Cut="0.0000000000000000e+00" cType="1" res="-1.9668531604111195e-03" rms="4.6139401197433472e-01" purity="4.1545879840850830e-01" nType="-99"/>
        </Node>
        <Node pos="r" depth="1" NCoef="0" IVar="1" Cut="2.1306955814361572e+00" cType="1" res="-6.8114614114165306e-03" rms="4.4876343011856079e-01" purity="4.4508126378059387e-01" nType="0">
          <Node pos="l" depth="2" NCoef="0" IVar="-1" Cut="0.0000000000000000e+00" cType="1" res="1.5757869696244597e-03" rms="4.4776993989944458e-01" purity="6.1784452199935913e-01" nType="-99"/>
          <Node pos="r" depth="2" NCoef="0" IVar="-1" Cut="0.0000000000000000e+00" cType="1" res="-6.2779325526207685e-04" rms="4.4853079319000244e-01" purity="4.1744393110275269e-01" nType="-99"/>
        </Node>
      </Node>
    </BinaryTree>
    <BinaryTree type="DecisionTree" boostWeight="1.0000000000000000e+00" itree="412">
      <Node pos="s" depth="0" NCoef="0" IVar="2" Cut="9.5868229866027832e-01" cType="1" res="-1.1170930229127407e-03" rms="4.5081004500389099e-01" purity="4.9710705876350403e-01" nType="0">
        <Node pos="l" depth="1" NCoef="0" IVar="7" Cut="1.6735130548477173e-01" cType="1" res="-1.4150817878544331e-02" rms="4.5617142319679260e-01" purity="4.0621337294578552e-01" nType="0">
          <Node pos="l" depth="2" NCoef="0" IVar="-1" Cut="0.0000000000000000e+00" cType="1" res="2.2275750525295734e-03" rms="4.4621831178665161e-01" purity="3.4655469655990601e-01" nType="-99"/>
          <Node pos="r" depth="2" NCoef="0" IVar="-1" Cut="0.0000000000000000e+00" cType="1" res="-9.4927538884803653e-04" rms="4.5698684453964233e-01" purity="4.1500696539878845e-01" nType="-99"/>
        </Node>
        <Node pos="r" depth="1" NCoef="0" IVar="7" Cut="5.8346629142761230e-01" cType="1" res="2.0767301321029663e-02" rms="4.4079568982124329e-01" purity="6.4972293376922607e-01" nType="0">
          <Node pos="l" depth="2" NCoef="0" IVar="-1" Cut="0.0000000000000000e+00" cType="1" res="3.1097402097657323e-04" rms="4.5151114463806152e-01" purity="6.1526435613632202e-01" nType="-99"/>
          <Node pos="r" depth="2" NCoef="0" IVar="-1" Cut="0.0000000000000000e+00" cType="1" res="3.2906795386224985e-03" rms="3.9657831192016602e-01" purity="7.7193343639373779e-01" nType="-99"/>
        </Node>
      </Node>
    </BinaryTree>
    <BinaryTree type="DecisionTree" boostWeight="1.0000000000000000e+00" itree="413">
      <Node pos="s" depth="0" NCoef="0" IVar="3" Cut="2.2959347814321518e-02" cType="1" res="-6.2012672424316406e-03" rms="4.5278042554855347e-01" purity="4.9285286664962769e-01" nType="0">
        <Node pos="l" depth="1" NCoef="0" IVar="4" Cut="1.1017500162124634e+00" cType="1" res="1.1616213247179985e-02" rms="4.4775366783142090e-01" purity="4.7661820054054260e-01" nType="0">
          <Node pos="l" depth="2" NCoef="0" IVar="-1" Cut="0.0000000000000000e+00" cType="1" res="1.5574650606140494e-03" rms="4.5738881826400757e-01" purity="6.3940787315368652e-01" nType="-99"/>
          <Node pos="r" depth="2" NCoef="0" IVar="-1" Cut="0.0000000000000000e+00" cType="1" res="-7.4528710683807731e-04" rms="4.3605363368988037e-01" purity="3.1014484167098999e-01" nType="-99"/>
        </Node>
        <Node pos="r" depth="1" NCoef="0" IVar="3" Cut="5.3627081215381622e-02" cType="1" res="-3.0698308721184731e-02" rms="4.5847284793853760e-01" purity="5.1517373323440552e-01" nType="0">
          <Node pos="l" depth="2" NCoef="0" IVar="-1" Cut="0.0000000000000000e+00" cType="1" res="-4.3075629509985447e-03" rms="4.5081976056098938e-01" purity="4.0175232291221619e-01" nType="-99"/>
          <Node pos="r" depth="2" NCoef="0" IVar="-1" Cut="0.0000000000000000e+00" cType="1" res="-7.4859359301626682e-04" rms="4.5881655812263489e-01" purity="5.3758645057678223e-01" nType="-99"/>
        </Node>
      </Node>
    </BinaryTree>
    <BinaryTree type="DecisionTree" boostWeight="1.0000000000000000e+00" itree="414">
      <Node pos="s" depth="0" NCoef="0" IVar="6" Cut="4.9724855422973633e+00" cType="1" res="-2.3335565347224474e-03" rms="4.5143342018127441e-01" purity="4.9443796277046204e-01" nType="0">
        <Node pos="l" depth="1" NCoef="0" IVar="-1" Cut="0.0000000000000000e+00" cType="1" res="-4.5926286838948727e-03" rms="3.6561208963394165e-01" purity="1.6407424211502075e-01" nType="-99"/>
        <Node pos="r" depth="1" NCoef="0" IVar="3" Cut="1.8342314660549164e-01" cType="1" res="4.4598961248993874e-03" rms="4.5667856931686401e-01" purity="5.1991605758666992e-01" nType="0">
          <Node pos="l" depth="2" NCoef="0" IVar="-1" Cut="0.0000000000000000e+00" cType="1" res="-1.0880616173380986e-04" rms="4.5883002877235413e-01" purity="4.9929937720298767e-01" nType="-99"/>
          <Node pos="r" depth="2" NCoef="0" IVar="-1" Cut="0.0000000000000000e+00" cType="1" res="2.4086521007120609e-03" rms="4.3661293387413025e-01" purity="6.7513167858123779e-01" nType="-99"/>
        </Node>
      </Node>
    </BinaryTree>
    <BinaryTree type="DecisionTree" boostWeight="1.0000000000000000e+00" itree="415">
      <Node pos="s" depth="0" NCoef="0" IVar="2" Cut="9.1089886426925659e-01" cType="1" res="5.3222361020743847e-03" rms="4.5326289534568787e-01" purity="5.0253051519393921e-01" nType="0">
        <Node pos="l" depth="1" NCoef="0" IVar="-1" Cut="0.0000000000000000e+00" cType="1" res="-3.8519687950611115e-03" rms="3.7806800007820129e-01" purity="1.8718197941780090e-01" nType="-99"/>
        <Node pos="r" depth="1" NCoef="0" IVar="0" Cut="3.9723808288574219e+01" cType="1" res="1.0890671052038670e-02" rms="4.5719888806343079e-01" purity="5.2315622568130493e-01" nType="0">
          <Node pos="l" depth="2" NCoef="0" IVar="-1" Cut="0.0000000000000000e+00" cType="1" res="-1.6635789070278406e-03" rms="4.5680946111679077e-01" purity="3.4245958924293518e-01" nType="-99"/>
          <Node pos="r" depth="2" NCoef="0" IVar="-1" Cut="0.0000000000000000e+00" cType="1" res="7.5358286267146468e-04" rms="4.5686560869216919e-01" purity="5.4660022258758545e-01" nType="-99"/>
        </Node>
      </Node>
    </BinaryTree>
    <BinaryTree type="DecisionTree" boostWeight="1.0000000000000000e+00" itree="416">
      <Node pos="s" depth="0" NCoef="0" IVar="4" Cut="5.6754261255264282e-01" cType="1" res="-2.1173660643398762e-03" rms="4.4902208447456360e-01" purity="4.9720704555511475e-01" nType="0">
        <Node pos="l" depth="1" NCoef="0" IVar="4" Cut="4.7310647368431091e-01" cType="1" res="4.8034101724624634e-02" rms="4.2902389168739319e-01" purity="7.1845597028732300e-01" nType="0">
          <Node pos="l" depth="2" NCoef="0" IVar="-1" Cut="0.0000000000000000e+00" cType="1" res="2.8716721571981907e-03" rms="4.1384127736091614e-01" purity="7.3663425445556641e-01" nType="-99"/>
          <Node pos="r" depth="2" NCoef="0" IVar="-1" Cut="0.0000000000000000e+00" cType="1" res="1.3364729238674045e-03" rms="4.4168254733085632e-01" purity="7.0195996761322021e-01" nType="-99"/>
        </Node>
        <Node pos="r" depth="1" NCoef="0" IVar="5" Cut="1.0659683942794800e+00" cType="1" res="-8.8762855157256126e-03" rms="4.5122352242469788e-01" purity="4.6738931536674500e-01" nType="0">
          <Node pos="l" depth="2" NCoef="0" IVar="-1" Cut="0.0000000000000000e+00" cType="1" res="-7.7513052383437753e-04" rms="4.5133811235427856e-01" purity="4.7525197267532349e-01" nType="-99"/>
          <Node pos="r" depth="2" NCoef="0" IVar="-1" Cut="0.0000000000000000e+00" cType="1" res="1.3640667311847210e-03" rms="4.4861990213394165e-01" purity="4.3195104598999023e-01" nType="-99"/>
        </Node>
      </Node>
    </BinaryTree>
    <BinaryTree type="DecisionTree" boostWeight="1.0000000000000000e+00" itree="417">
      <Node pos="s" depth="0" NCoef="0" IVar="4" Cut="1.6764028072357178e+00" cType="1" res="6.8164328113198280e-03" rms="4.5243546366691589e-01" purity="5.0245958566665649e-01" nType="0">
        <Node pos="l" depth="1" NCoef="0" IVar="4" Cut="8.8113331794738770e-01" cType="1" res="1.2260912917554379e-02" rms="4.6070715785026550e-01" purity="5.3150427341461182e-01" nType="0">
          <Node pos="l" depth="2" NCoef="0" IVar="-1" Cut="0.0000000000000000e+00" cType="1" res="-3.6191244726069272e-04" rms="4.5869696140289307e-01" purity="6.2393206357955933e-01" nType="-99"/>
          <Node pos="r" depth="2" NCoef="0" IVar="-1" Cut="0.0000000000000000e+00" cType="1" res="1.2032983358949423e-03" rms="4.6158123016357422e-01" purity="4.6328669786453247e-01" nType="-99"/>
        </Node>
        <Node pos="r" depth="1" NCoef="0" IVar="-1" Cut="0.0000000000000000e+00" cType="1" res="-4.1337464936077595e-03" rms="3.2405233383178711e-01" purity="1.3845703005790710e-01" nType="-99"/>
      </Node>
    </BinaryTree>
    <BinaryTree type="DecisionTree" boostWeight="1.0000000000000000e+00" itree="418">
      <Node pos="s" depth="0" NCoef="0" IVar="5" Cut="3.8556435704231262e-01" cType="1" res="-3.6798627115786076e-03" rms="4.5119023323059082e-01" purity="4.9746903777122498e-01" nType="0">
        <Node pos="l" depth="1" NCoef="0" IVar="-1" Cut="0.0000000000000000e+00" cType="1" res="-2.4945018813014030e-03" rms="4.6553122997283936e-01" purity="5.4699718952178955e-01" nType="-99"/>
        <Node pos="r" depth="1" NCoef="0" IVar="3" Cut="-8.8165052235126495e-02" cType="1" res="1.3945061946287751e-03" rms="4.4951638579368591e-01" purity="4.9294924736022949e-01" nType="0">
          <Node pos="l" depth="2" NCoef="0" IVar="-1" Cut="0.0000000000000000e+00" cType="1" res="1.9105708925053477e-03" rms="4.4168135523796082e-01" purity="4.3731978535652161e-01" nType="-99"/>
          <Node pos="r" depth="2" NCoef="0" IVar="-1" Cut="0.0000000000000000e+00" cType="1" res="-2.9048669966869056e-04" rms="4.5066455006599426e-01" purity="5.0425457954406738e-01" nType="-99"/>
        </Node>
      </Node>
    </BinaryTree>
    <BinaryTree type="DecisionTree" boostWeight="1.0000000000000000e+00" itree="419">
      <Node pos="s" depth="0" NCoef="0" IVar="0" Cut="1.5406120300292969e+02" cType="1" res="-2.1795267239212990e-03" rms="4.4968992471694946e-01" purity="4.9651813507080078e-01" nType="0">
        <Node pos="l" depth="1" NCoef="0" IVar="3" Cut="1.6752196848392487e-01" cType="1" res="2.5438098236918449e-03" rms="4.4956684112548828e-01" purity="5.0319731235504150e-01" nType="0">
          <Node pos="l" depth="2" NCoef="0" IVar="-1" Cut="0.0000000000000000e+00" cType="1" res="-2.0936143118888140e-04" rms="4.4935441017150879e-01" purity="4.7983431816101074e-01" nType="-99"/>
          <Node pos="r" depth="2" NCoef="0" IVar="-1" Cut="0.0000000000000000e+00" cType="1" res="1.9294990925118327e-03" rms="4.4847881793975830e-01" purity="6.3687688112258911e-01" nType="-99"/>
        </Node>
        <Node pos="r" depth="1" NCoef="0" IVar="-1" Cut="0.0000000000000000e+00" cType="1" res="-4.1935644112527370e-03" rms="4.4340053200721741e-01" purity="3.7648928165435791e-01" nType="-99"/>
      </Node>
    </BinaryTree>
    <BinaryTree type="DecisionTree" boostWeight="1.0000000000000000e+00" itree="420">
      <Node pos="s" depth="0" NCoef="0" IVar="3" Cut="7.5993828475475311e-02" cType="1" res="6.6649713553488255e-03" rms="4.5011469721794128e-01" purity="5.0381809473037720e-01" nType="0">
        <Node pos="l" depth="1" NCoef="0" IVar="2" Cut="9.5849031209945679e-01" cType="1" res="-5.3896987810730934e-03" rms="4.5175260305404663e-01" purity="4.6505880355834961e-01" nType="0">
          <Node pos="l" depth="2" NCoef="0" IVar="-1" Cut="0.0000000000000000e+00" cType="1" res="6.3312449492514133e-04" rms="4.4849905371665955e-01" purity="4.0210500359535217e-01" nType="-99"/>
          <Node pos="r" depth="2" NCoef="0" IVar="-1" Cut="0.0000000000000000e+00" cType="1" res="-1.7049849266186357e-03" rms="4.5512714982032776e-01" purity="5.6763160228729248e-01" nType="-99"/>
        </Node>
        <Node pos="r" depth="1" NCoef="0" IVar="2" Cut="9.5748853683471680e-01" cType="1" res="3.3482551574707031e-02" rms="4.4528025388717651e-01" purity="5.9004455804824829e-01" nType="0">
          <Node pos="l" depth="2" NCoef="0" IVar="-1" Cut="0.0000000000000000e+00" cType="1" res="3.5434568417258561e-04" rms="4.6662393212318420e-01" purity="4.8883324861526489e-01" nType="-99"/>
          <Node pos="r" depth="2" NCoef="0" IVar="-1" Cut="0.0000000000000000e+00" cType="1" res="3.4864922054111958e-03" rms="4.0378427505493164e-01" purity="7.5908786058425903e-01" nType="-99"/>
        </Node>
      </Node>
    </BinaryTree>
    <BinaryTree type="DecisionTree" boostWeight="1.0000000000000000e+00" itree="421">
      <Node pos="s" depth="0" NCoef="0" IVar="2" Cut="9.4086045026779175e-01" cType="1" res="-3.0316773336380720e-03" rms="4.5067015290260315e-01" purity="4.9655666947364807e-01" nType="0">
        <Node pos="l" depth="1" NCoef="0" IVar="4" Cut="7.8442972898483276e-01" cType="1" res="-3.2755974680185318e-02" rms="4.4814014434814453e-01" purity="3.2446622848510742e-01" nType="0">
          <Node pos="l" depth="2" NCoef="0" IVar="-1" Cut="0.0000000000000000e+00" cType="1" res="-2.9056284110993147e-03" rms="4.7953385114669800e-01" purity="4.1461539268493652e-01" nType="-99"/>
          <Node pos="r" depth="2" NCoef="0" IVar="-1" Cut="0.0000000000000000e+00" cType="1" res="-5.0346547504886985e-04" rms="4.3330472707748413e-01" purity="2.8947100043296814e-01" nType="-99"/>
        </Node>
        <Node pos="r" depth="1" NCoef="0" IVar="7" Cut="6.1193096637725830e-01" cType="1" res="1.3084917329251766e-02" rms="4.5121806859970093e-01" purity="5.8986455202102661e-01" nType="0">
          <Node pos="l" depth="2" NCoef="0" IVar="-1" Cut="0.0000000000000000e+00" cType="1" res="1.2986987712793052e-04" rms="4.5569089055061340e-01" purity="5.6608361005783081e-01" nType="-99"/>
          <Node pos="r" depth="2" NCoef="0" IVar="-1" Cut="0.0000000000000000e+00" cType="1" res="2.8824624605476856e-03" rms="4.2300575971603394e-01" purity="7.1477288007736206e-01" nType="-99"/>
        </Node>
      </Node>
    </BinaryTree>
    <BinaryTree type="DecisionTree" boostWeight="1.0000000000000000e+00" itree="422">
      <Node pos="s" depth="0" NCoef="0" IVar="2" Cut="9.8561936616897583e-01" cType="1" res="9.0007316321134567e-03" rms="4.5120573043823242e-01" purity="5.1465469598770142e-01" nType="0">
        <Node pos="l" depth="1" NCoef="0" IVar="6" Cut="7.5341935157775879e+00" cType="1" res="4.6657710336148739e-03" rms="4.5570597052574158e-01" purity="4.9700146913528442e-01" nType="0">
          <Node pos="l" depth="2" NCoef="0" IVar="-1" Cut="0.0000000000000000e+00" cType="1" res="6.0409039724618196e-04" rms="4.5789134502410889e-01" purity="4.4469302892684937e-01" nType="-99"/>
          <Node pos="r" depth="2" NCoef="0" IVar="-1" Cut="0.0000000000000000e+00" cType="1" res="-8.6817715782672167e-04" rms="4.4948691129684448e-01" purity="6.2379670143127441e-01" nType="-99"/>
        </Node>
        <Node pos="r" depth="1" NCoef="0" IVar="-1" Cut="0.0000000000000000e+00" cType="1" res="3.8795103318989277e-03" rms="3.6787012219429016e-01" purity="7.8900176286697388e-01" nType="-99"/>
      </Node>
    </BinaryTree>
    <BinaryTree type="DecisionTree" boostWeight="1.0000000000000000e+00" itree="423">
      <Node pos="s" depth="0" NCoef="0" IVar="1" Cut="2.1824717521667480e+00" cType="1" res="-1.4645300805568695e-02" rms="4.4792398810386658e-01" purity="4.8695924878120422e-01" nType="0">
        <Node pos="l" depth="1" NCoef="0" IVar="1" Cut="1.7420951128005981e+00" cType="1" res="-7.5323955388739705e-04" rms="4.5598223805427551e-01" purity="5.8584642410278320e-01" nType="0">
          <Node pos="l" depth="2" NCoef="0" IVar="-1" Cut="0.0000000000000000e+00" cType="1" res="-3.2399764750152826e-03" rms="4.5262759923934937e-01" purity="4.4561037421226501e-01" nType="-99"/>
          <Node pos="r" depth="2" NCoef="0" IVar="-1" Cut="0.0000000000000000e+00" cType="1" res="4.1341359610669315e-04" rms="4.5535609126091003e-01" purity="6.0430926084518433e-01" nType="-99"/>
        </Node>
        <Node pos="r" depth="1" NCoef="0" IVar="6" Cut="5.2534275054931641e+00" cType="1" res="-3.0479660257697105e-02" rms="4.3802157044410706e-01" purity="3.7424632906913757e-01" nType="0">
          <Node pos="l" depth="2" NCoef="0" IVar="-1" Cut="0.0000000000000000e+00" cType="1" res="2.1181767806410789e-03" rms="4.0960225462913513e-01" purity="2.4385645985603333e-01" nType="-99"/>
          <Node pos="r" depth="2" NCoef="0" IVar="-1" Cut="0.0000000000000000e+00" cType="1" res="-1.8466411856934428e-03" rms="4.4120833277702332e-01" purity="3.9339432120323181e-01" nType="-99"/>
        </Node>
      </Node>
    </BinaryTree>
    <BinaryTree type="DecisionTree" boostWeight="1.0000000000000000e+00" itree="424">
      <Node pos="s" depth="0" NCoef="0" IVar="5" Cut="4.4002309441566467e-01" cType="1" res="9.1931002680212259e-04" rms="4.5173895359039307e-01" purity="4.9876797199249268e-01" nType="0">
        <Node pos="l" depth="1" NCoef="0" IVar="1" Cut="1.9559127092361450e+00" cType="1" res="-5.0685618072748184e-02" rms="4.5524430274963379e-01" purity="5.3068828582763672e-01" nType="0">
          <Node pos="l" depth="2" NCoef="0" IVar="-1" Cut="0.0000000000000000e+00" cType="1" res="-3.3682018984109163e-03" rms="4.6169292926788330e-01" purity="5.0787961483001709e-01" nType="-99"/>
          <Node pos="r" depth="2" NCoef="0" IVar="-1" Cut="0.0000000000000000e+00" cType="1" res="-8.3082506898790598e-04" rms="4.4802409410476685e-01" purity="5.4690855741500854e-01" nType="-99"/>
        </Node>
        <Node pos="r" depth="1" NCoef="0" IVar="5" Cut="7.0583075284957886e-01" cType="1" res="8.0968784168362617e-03" rms="4.5078152418136597e-01" purity="4.9432832002639771e-01" nType="0">
          <Node pos="l" depth="2" NCoef="0" IVar="-1" Cut="0.0000000000000000e+00" cType="1" res="1.4795339666306973e-03" rms="4.5242995023727417e-01" purity="5.9128493070602417e-01" nType="-99"/>
          <Node pos="r" depth="2" NCoef="0" IVar="-1" Cut="0.0000000000000000e+00" cType="1" res="-2.8487772215157747e-04" rms="4.4923940300941467e-01" purity="4.4288751482963562e-01" nType="-99"/>
        </Node>
      </Node>
    </BinaryTree>
    <BinaryTree type="DecisionTree" boostWeight="1.0000000000000000e+00" itree="425">
      <Node pos="s" depth="0" NCoef="0" IVar="0" Cut="9.6137603759765625e+01" cType="1" res="-1.9038791069760919e-03" rms="4.5349407196044922e-01" purity="4.9690562486648560e-01" nType="0">
        <Node pos="l" depth="1" NCoef="0" IVar="3" Cut="-1.0775415599346161e-01" cType="1" res="-1.1440658010542393e-02" rms="4.5446485280990601e-01" purity="4.6023562550544739e-01" nType="0">
          <Node pos="l" depth="2" NCoef="0" IVar="-1" Cut="0.0000000000000000e+00" cType="1" res="-3.2848475966602564e-03" rms="4.3521714210510254e-01" purity="2.9426988959312439e-01" nType="-99"/>
          <Node pos="r" depth="2" NCoef="0" IVar="-1" Cut="0.0000000000000000e+00" cType="1" res="-2.9783701756969094e-04" rms="4.5565629005432129e-01" purity="4.7338533401489258e-01" nType="-99"/>
        </Node>
        <Node pos="r" depth="1" NCoef="0" IVar="4" Cut="1.0793877840042114e+00" cType="1" res="1.9173977896571159e-02" rms="4.5062571763992310e-01" purity="5.7795238494873047e-01" nType="0">
          <Node pos="l" depth="2" NCoef="0" IVar="-1" Cut="0.0000000000000000e+00" cType="1" res="-4.8785278340801597e-04" rms="4.3719011545181274e-01" purity="6.9060945510864258e-01" nType="-99"/>
          <Node pos="r" depth="2" NCoef="0" IVar="-1" Cut="0.0000000000000000e+00" cType="1" res="2.3249175865203142e-03" rms="4.6262899041175842e-01" purity="4.5539879798889160e-01" nType="-99"/>
        </Node>
      </Node>
    </BinaryTree>
    <BinaryTree type="DecisionTree" boostWeight="1.0000000000000000e+00" itree="426">
      <Node pos="s" depth="0" NCoef="0" IVar="3" Cut="1.8896795809268951e-01" cType="1" res="-4.5340084470808506e-03" rms="4.5165023207664490e-01" purity="4.9584618210792542e-01" nType="0">
        <Node pos="l" depth="1" NCoef="0" IVar="7" Cut="7.1434372663497925e-01" cType="1" res="-9.9059911444783211e-03" rms="4.5227655768394470e-01" purity="4.8002821207046509e-01" nType="0">
          <Node pos="l" depth="2" NCoef="0" IVar="-1" Cut="0.0000000000000000e+00" cType="1" res="-6.4289756119251251e-04" rms="4.5164400339126587e-01" purity="4.6865493059158325e-01" nType="-99"/>
          <Node pos="r" depth="2" NCoef="0" IVar="-1" Cut="0.0000000000000000e+00" cType="1" res="2.1319875959306955e-03" rms="4.5629990100860596e-01" purity="6.3529652357101440e-01" nType="-99"/>
        </Node>
        <Node pos="r" depth="1" NCoef="0" IVar="5" Cut="8.3569610118865967e-01" cType="1" res="4.0071595460176468e-02" rms="4.4391188025474548e-01" purity="6.2718874216079712e-01" nType="0">
          <Node pos="l" depth="2" NCoef="0" IVar="-1" Cut="0.0000000000000000e+00" cType="1" res="1.1482880217954516e-03" rms="4.5435458421707153e-01" purity="6.3885998725891113e-01" nType="-99"/>
          <Node pos="r" depth="2" NCoef="0" IVar="-1" Cut="0.0000000000000000e+00" cType="1" res="2.3417528718709946e-03" rms="4.3205597996711731e-01" purity="6.1473631858825684e-01" nType="-99"/>
        </Node>
      </Node>
    </BinaryTree>
    <BinaryTree type="DecisionTree" boostWeight="1.0000000000000000e+00" itree="427">
      <Node pos="s" depth="0" NCoef="0" IVar="4" Cut="6.1330181360244751e-01" cType="1" res="-9.6922321245074272e-03" rms="4.5021530985832214e-01" purity="4.9288460612297058e-01" nType="0">
        <Node pos="l" depth="1" NCoef="0" IVar="1" Cut="1.8684349060058594e+00" cType="1" res="2.9780458658933640e-02" rms="4.3584221601486206e-01" purity="6.9841665029525757e-01" nType="0">
          <Node pos="l" depth="2" NCoef="0" IVar="-1" Cut="0.0000000000000000e+00" cType="1" res="2.3347502574324608e-03" rms="4.2969468235969543e-01" purity="7.1318769454956055e-01" nType="-99"/>
          <Node pos="r" depth="2" NCoef="0" IVar="-1" Cut="0.0000000000000000e+00" cType="1" res="7.1405520429834723e-04" rms="4.3854469060897827e-01" purity="6.9038462638854980e-01" nType="-99"/>
        </Node>
        <Node pos="r" depth="1" NCoef="0" IVar="5" Cut="1.0651389360427856e+00" cType="1" res="-1.7343746498227119e-02" rms="4.5255047082901001e-01" purity="4.5304360985755920e-01" nType="0">
          <Node pos="l" depth="2" NCoef="0" IVar="-1" Cut="0.0000000000000000e+00" cType="1" res="-1.1187236523255706e-03" rms="4.5205289125442505e-01" purity="4.6565884351730347e-01" nType="-99"/>
          <Node pos="r" depth="2" NCoef="0" IVar="-1" Cut="0.0000000000000000e+00" cType="1" res="6.1073573306202888e-04" rms="4.5313754677772522e-01" purity="4.0431249141693115e-01" nType="-99"/>
        </Node>
      </Node>
    </BinaryTree>
    <BinaryTree type="DecisionTree" boostWeight="1.0000000000000000e+00" itree="428">
      <Node pos="s" depth="0" NCoef="0" IVar="0" Cut="1.3982769775390625e+02" cType="1" res="1.4194539980962873e-03" rms="4.5292621850967407e-01" purity="5.0082975625991821e-01" nType="0">
        <Node pos="l" depth="1" NCoef="0" IVar="0" Cut="4.5310676574707031e+01" cType="1" res="6.3276938162744045e-03" rms="4.5213079452514648e-01" purity="5.0584262609481812e-01" nType="0">
          <Node pos="l" depth="2" NCoef="0" IVar="-1" Cut="0.0000000000000000e+00" cType="1" res="-1.5139355091378093e-03" rms="4.4738009572029114e-01" purity="3.7127608060836792e-01" nType="-99"/>
          <Node pos="r" depth="2" NCoef="0" IVar="-1" Cut="0.0000000000000000e+00" cType="1" res="6.7491439403966069e-04" rms="4.5269727706909180e-01" purity="5.3659862279891968e-01" nType="-99"/>
        </Node>
        <Node pos="r" depth="1" NCoef="0" IVar="-1" Cut="0.0000000000000000e+00" cType="1" res="-2.6230996008962393e-03" rms="4.5822161436080933e-01" purity="4.4286420941352844e-01" nType="-99"/>
      </Node>
    </BinaryTree>
    <BinaryTree type="DecisionTree" boostWeight="1.0000000000000000e+00" itree="429">
      <Node pos="s" depth="0" NCoef="0" IVar="2" Cut="9.3817061185836792e-01" cType="1" res="-5.1116575486958027e-03" rms="4.5291423797607422e-01" purity="4.8991385102272034e-01" nType="0">
        <Node pos="l" depth="1" NCoef="0" IVar="5" Cut="7.0353299379348755e-01" cType="1" res="1.8424680456519127e-02" rms="4.5314750075340271e-01" purity="3.6581373214721680e-01" nType="0">
          <Node pos="l" depth="2" NCoef="0" IVar="-1" Cut="0.0000000000000000e+00" cType="1" res="2.3583807051181793e-03" rms="4.7697058320045471e-01" purity="4.7591415047645569e-01" nType="-99"/>
          <Node pos="r" depth="2" NCoef="0" IVar="-1" Cut="0.0000000000000000e+00" cType="1" res="-2.8751272475346923e-04" rms="4.3617242574691772e-01" purity="2.9867577552795410e-01" nType="-99"/>
        </Node>
        <Node pos="r" depth="1" NCoef="0" IVar="0" Cut="9.0437080383300781e+01" cType="1" res="-1.6614796593785286e-02" rms="4.5235487818717957e-01" purity="5.5056649446487427e-01" nType="0">
          <Node pos="l" depth="2" NCoef="0" IVar="-1" Cut="0.0000000000000000e+00" cType="1" res="-1.2908333446830511e-03" rms="4.5708242058753967e-01" purity="5.0892907381057739e-01" nType="-99"/>
          <Node pos="r" depth="2" NCoef="0" IVar="-1" Cut="0.0000000000000000e+00" cType="1" res="3.7372289807535708e-04" rms="4.4276544451713562e-01" purity="6.2449091672897339e-01" nType="-99"/>
        </Node>
      </Node>
    </BinaryTree>
    <BinaryTree type="DecisionTree" boostWeight="1.0000000000000000e+00" itree="430">
      <Node pos="s" depth="0" NCoef="0" IVar="0" Cut="1.2646279144287109e+02" cType="1" res="-2.7133445255458355e-03" rms="4.5513144135475159e-01" purity="4.9897402524948120e-01" nType="0">
        <Node pos="l" depth="1" NCoef="0" IVar="3" Cut="1.8519288301467896e-01" cType="1" res="3.7923848722130060e-03" rms="4.5528239011764526e-01" purity="5.0115525722503662e-01" nType="0">
          <Node pos="l" depth="2" NCoef="0" IVar="-1" Cut="0.0000000000000000e+00" cType="1" res="4.3112013372592628e-04" rms="4.5433965325355530e-01" purity="4.9359935522079468e-01" nType="-99"/>
          <Node pos="r" depth="2" NCoef="0" IVar="-1" Cut="0.0000000000000000e+00" cType="1" res="-1.5841230051591992e-03" rms="4.5961496233940125e-01" purity="5.5498450994491577e-01" nType="-99"/>
        </Node>
        <Node pos="r" depth="1" NCoef="0" IVar="2" Cut="9.5701158046722412e-01" cType="1" res="-4.4012151658535004e-02" rms="4.5199331641197205e-01" purity="4.8512721061706543e-01" nType="0">
          <Node pos="l" depth="2" NCoef="0" IVar="-1" Cut="0.0000000000000000e+00" cType="1" res="-5.0362211186438799e-04" rms="4.4304135441780090e-01" purity="4.3486279249191284e-01" nType="-99"/>
          <Node pos="r" depth="2" NCoef="0" IVar="-1" Cut="0.0000000000000000e+00" cType="1" res="-4.0632961317896843e-03" rms="4.5965322852134705e-01" purity="5.4785436391830444e-01" nType="-99"/>
        </Node>
      </Node>
    </BinaryTree>
    <BinaryTree type="DecisionTree" boostWeight="1.0000000000000000e+00" itree="431">
      <Node pos="s" depth="0" NCoef="0" IVar="5" Cut="5.3137671947479248e-01" cType="1" res="2.7312627062201500e-03" rms="4.5616832375526428e-01" purity="5.0131285190582275e-01" nType="0">
        <Node pos="l" depth="1" NCoef="0" IVar="0" Cut="7.7425331115722656e+01" cType="1" res="-2.5792468339204788e-02" rms="4.6311306953430176e-01" purity="5.6094127893447876e-01" nType="0">
          <Node pos="l" depth="2" NCoef="0" IVar="-1" Cut="0.0000000000000000e+00" cType="1" res="8.9803077571559697e-05" rms="4.7042873501777649e-01" purity="5.4178458452224731e-01" nType="-99"/>
          <Node pos="r" depth="2" NCoef="0" IVar="-1" Cut="0.0000000000000000e+00" cType="1" res="-3.0089893843978643e-03" rms="4.4872012734413147e-01" purity="5.8951705694198608e-01" nType="-99"/>
        </Node>
        <Node pos="r" depth="1" NCoef="0" IVar="7" Cut="6.4051306247711182e-01" cType="1" res="9.7108781337738037e-03" rms="4.5418009161949158e-01" purity="4.8672205209732056e-01" nType="0">
          <Node pos="l" depth="2" NCoef="0" IVar="-1" Cut="0.0000000000000000e+00" cType="1" res="1.6356041305698454e-04" rms="4.5693826675415039e-01" purity="4.6891251206398010e-01" nType="-99"/>
          <Node pos="r" depth="2" NCoef="0" IVar="-1" Cut="0.0000000000000000e+00" cType="1" res="2.1967517677694559e-03" rms="4.3081495165824890e-01" purity="6.1740785837173462e-01" nType="-99"/>
        </Node>
      </Node>
    </BinaryTree>
    <BinaryTree type="DecisionTree" boostWeight="1.0000000000000000e+00" itree="432">
      <Node pos="s" depth="0" NCoef="0" IVar="1" Cut="1.8894230127334595e+00" cType="1" res="4.5418967492878437e-03" rms="4.5158243179321289e-01" purity="5.0261151790618896e-01" nType="0">
        <Node pos="l" depth="1" NCoef="0" IVar="3" Cut="4.2335487902164459e-02" cType="1" res="3.2065290957689285e-02" rms="4.5795443654060364e-01" purity="5.8949428796768188e-01" nType="0">
          <Node pos="l" depth="2" NCoef="0" IVar="-1" Cut="0.0000000000000000e+00" cType="1" res="-5.2675430197268724e-05" rms="4.7126629948616028e-01" purity="5.2920728921890259e-01" nType="-99"/>
          <Node pos="r" depth="2" NCoef="0" IVar="-1" Cut="0.0000000000000000e+00" cType="1" res="2.7917113620787859e-03" rms="4.4019898772239685e-01" purity="6.5492516756057739e-01" nType="-99"/>
        </Node>
        <Node pos="r" depth="1" NCoef="0" IVar="3" Cut="-1.3535849284380674e-03" cType="1" res="-6.6762574715539813e-04" rms="4.5017683506011963e-01" purity="4.8616665601730347e-01" nType="0">
          <Node pos="l" depth="2" NCoef="0" IVar="-1" Cut="0.0000000000000000e+00" cType="1" res="6.0461426619440317e-04" rms="4.5447093248367310e-01" purity="4.6097022294998169e-01" nType="-99"/>
          <Node pos="r" depth="2" NCoef="0" IVar="-1" Cut="0.0000000000000000e+00" cType="1" res="-7.3938176501542330e-04" rms="4.4471710920333862e-01" purity="5.1473116874694824e-01" nType="-99"/>
        </Node>
      </Node>
    </BinaryTree>
    <BinaryTree type="DecisionTree" boostWeight="1.0000000000000000e+00" itree="433">
      <Node pos="s" depth="0" NCoef="0" IVar="7" Cut="2.5248000025749207e-01" cType="1" res="5.8605964295566082e-03" rms="4.4914415478706360e-01" purity="5.0303423404693604e-01" nType="0">
        <Node pos="l" depth="1" NCoef="0" IVar="2" Cut="9.2700451612472534e-01" cType="1" res="-1.5278109349310398e-02" rms="4.3549683690071106e-01" purity="3.9717492461204529e-01" nType="0">
          <Node pos="l" depth="2" NCoef="0" IVar="-1" Cut="0.0000000000000000e+00" cType="1" res="2.5552217848598957e-03" rms="4.3967002630233765e-01" purity="3.1224739551544189e-01" nType="-99"/>
          <Node pos="r" depth="2" NCoef="0" IVar="-1" Cut="0.0000000000000000e+00" cType="1" res="-1.4044279232621193e-03" rms="4.3290179967880249e-01" purity="4.1829693317413330e-01" nType="-99"/>
        </Node>
        <Node pos="r" depth="1" NCoef="0" IVar="5" Cut="1.1541447639465332e+00" cType="1" res="1.3272582553327084e-02" rms="4.5359900593757629e-01" purity="5.4015231132507324e-01" nType="0">
          <Node pos="l" depth="2" NCoef="0" IVar="-1" Cut="0.0000000000000000e+00" cType="1" res="3.0360437813214958e-04" rms="4.5265236496925354e-01" purity="5.4288947582244873e-01" nType="-99"/>
          <Node pos="r" depth="2" NCoef="0" IVar="-1" Cut="0.0000000000000000e+00" cType="1" res="3.5554214846342802e-03" rms="4.5842331647872925e-01" purity="5.0982016324996948e-01" nType="-99"/>
        </Node>
      </Node>
    </BinaryTree>
    <BinaryTree type="DecisionTree" boostWeight="1.0000000000000000e+00" itree="434">
      <Node pos="s" depth="0" NCoef="0" IVar="5" Cut="1.0463842153549194e+00" cType="1" res="-4.9815159291028976e-03" rms="4.5015716552734375e-01" purity="4.8901540040969849e-01" nType="0">
        <Node pos="l" depth="1" NCoef="0" IVar="6" Cut="5.5391111373901367e+00" cType="1" res="-1.1675016954541206e-02" rms="4.4842085242271423e-01" purity="5.0375759601593018e-01" nType="0">
          <Node pos="l" depth="2" NCoef="0" IVar="-1" Cut="0.0000000000000000e+00" cType="1" res="-2.2665087599307299e-03" rms="4.1942244768142700e-01" purity="2.6068103313446045e-01" nType="-99"/>
          <Node pos="r" depth="2" NCoef="0" IVar="-1" Cut="0.0000000000000000e+00" cType="1" res="-1.6221567057073116e-04" rms="4.5379751920700073e-01" purity="5.5417209863662720e-01" nType="-99"/>
        </Node>
        <Node pos="r" depth="1" NCoef="0" IVar="2" Cut="9.3719887733459473e-01" cType="1" res="2.3576958104968071e-02" rms="4.5638966560363770e-01" purity="4.2611646652221680e-01" nType="0">
          <Node pos="l" depth="2" NCoef="0" IVar="-1" Cut="0.0000000000000000e+00" cType="1" res="4.4412068091332912e-03" rms="4.5323050022125244e-01" purity="3.4715372323989868e-01" nType="-99"/>
          <Node pos="r" depth="2" NCoef="0" IVar="-1" Cut="0.0000000000000000e+00" cType="1" res="-3.9867512532509863e-04" rms="4.5447063446044922e-01" purity="4.6620255708694458e-01" nType="-99"/>
        </Node>
      </Node>
    </BinaryTree>
    <BinaryTree type="DecisionTree" boostWeight="1.0000000000000000e+00" itree="435">
      <Node pos="s" depth="0" NCoef="0" IVar="5" Cut="3.8683098554611206e-01" cType="1" res="1.6589074220973998e-04" rms="4.5145407319068909e-01" purity="4.9694064259529114e-01" nType="0">
        <Node pos="l" depth="1" NCoef="0" IVar="-1" Cut="0.0000000000000000e+00" cType="1" res="-2.1344756241887808e-03" rms="4.7429373860359192e-01" purity="5.3974348306655884e-01" nType="-99"/>
        <Node pos="r" depth="1" NCoef="0" IVar="5" Cut="7.1125614643096924e-01" cType="1" res="4.9472847022116184e-03" rms="4.4895806908607483e-01" purity="4.9293139576911926e-01" nType="0">
          <Node pos="l" depth="2" NCoef="0" IVar="-1" Cut="0.0000000000000000e+00" cType="1" res="1.3260336127132177e-03" rms="4.5526427030563354e-01" purity="5.9145534038543701e-01" nType="-99"/>
          <Node pos="r" depth="2" NCoef="0" IVar="-1" Cut="0.0000000000000000e+00" cType="1" res="-5.2560860058292747e-04" rms="4.4416913390159607e-01" purity="4.3144187331199646e-01" nType="-99"/>
        </Node>
      </Node>
    </BinaryTree>
    <BinaryTree type="DecisionTree" boostWeight="1.0000000000000000e+00" itree="436">
      <Node pos="s" depth="0" NCoef="0" IVar="7" Cut="2.7797257900238037e-01" cType="1" res="-6.2151392921805382e-03" rms="4.4923633337020874e-01" purity="4.9501928687095642e-01" nType="0">
        <Node pos="l" depth="1" NCoef="0" IVar="5" Cut="9.5893931388854980e-01" cType="1" res="-2.7119535952806473e-02" rms="4.3026119470596313e-01" purity="3.8791894912719727e-01" nType="0">
          <Node pos="l" depth="2" NCoef="0" IVar="-1" Cut="0.0000000000000000e+00" cType="1" res="1.1446508324297611e-05" rms="4.3923336267471313e-01" purity="4.4661083817481995e-01" nType="-99"/>
          <Node pos="r" depth="2" NCoef="0" IVar="-1" Cut="0.0000000000000000e+00" cType="1" res="-3.4723160788416862e-03" rms="4.1157743334770203e-01" purity="2.9331418871879578e-01" nType="-99"/>
        </Node>
        <Node pos="r" depth="1" NCoef="0" IVar="3" Cut="-9.7118034958839417e-02" cType="1" res="2.6709944941103458e-03" rms="4.5677414536476135e-01" purity="5.4054588079452515e-01" nType="0">
          <Node pos="l" depth="2" NCoef="0" IVar="-1" Cut="0.0000000000000000e+00" cType="1" res="2.4864145088940859e-03" rms="4.5284619927406311e-01" purity="5.2988469600677490e-01" nType="-99"/>
          <Node pos="r" depth="2" NCoef="0" IVar="-1" Cut="0.0000000000000000e+00" cType="1" res="-1.2972528929822147e-04" rms="4.5679691433906555e-01" purity="5.4164463281631470e-01" nType="-99"/>
        </Node>
      </Node>
    </BinaryTree>
    <BinaryTree type="DecisionTree" boostWeight="1.0000000000000000e+00" itree="437">
      <Node pos="s" depth="0" NCoef="0" IVar="1" Cut="2.7257254123687744e+00" cType="1" res="1.6578463837504387e-02" rms="4.5120298862457275e-01" purity="5.1447290182113647e-01" nType="0">
        <Node pos="l" depth="1" NCoef="0" IVar="2" Cut="9.1964435577392578e-01" cType="1" res="2.2422255948185921e-02" rms="4.5854780077934265e-01" purity="5.4079490900039673e-01" nType="0">
          <Node pos="l" depth="2" NCoef="0" IVar="-1" Cut="0.0000000000000000e+00" cType="1" res="2.9954807832837105e-03" rms="4.6251624822616577e-01" purity="3.6874255537986755e-01" nType="-99"/>
          <Node pos="r" depth="2" NCoef="0" IVar="-1" Cut="0.0000000000000000e+00" cType="1" res="7.3284306563436985e-04" rms="4.5779383182525635e-01" purity="5.6137126684188843e-01" nType="-99"/>
        </Node>
        <Node pos="r" depth="1" NCoef="0" IVar="-1" Cut="0.0000000000000000e+00" cType="1" res="-5.4909409955143929e-03" rms="3.0015817284584045e-01" purity="1.0247136652469635e-01" nType="-99"/>
      </Node>
    </BinaryTree>
    <BinaryTree type="DecisionTree" boostWeight="1.0000000000000000e+00" itree="438">
      <Node pos="s" depth="0" NCoef="0" IVar="2" Cut="9.1272568702697754e-01" cType="1" res="-8.4086610004305840e-03" rms="4.5262771844863892e-01" purity="4.8453262448310852e-01" nType="0">
        <Node pos="l" depth="1" NCoef="0" IVar="-1" Cut="0.0000000000000000e+00" cType="1" res="2.3574011866003275e-03" rms="4.4950589537620544e-01" purity="3.1977388262748718e-01" nType="-99"/>
        <Node pos="r" depth="1" NCoef="0" IVar="0" Cut="8.5857223510742188e+01" cType="1" res="-1.3382241129875183e-02" rms="4.5255205035209656e-01" purity="4.9874681234359741e-01" nType="0">
          <Node pos="l" depth="2" NCoef="0" IVar="-1" Cut="0.0000000000000000e+00" cType="1" res="-1.0989732109010220e-03" rms="4.5628079771995544e-01" purity="4.5466592907905579e-01" nType="-99"/>
          <Node pos="r" depth="2" NCoef="0" IVar="-1" Cut="0.0000000000000000e+00" cType="1" res="3.0907118343748152e-04" rms="4.4599005579948425e-01" purity="5.6661355495452881e-01" nType="-99"/>
        </Node>
      </Node>
    </BinaryTree>
    <BinaryTree type="DecisionTree" boostWeight="1.0000000000000000e+00" itree="439">
      <Node pos="s" depth="0" NCoef="0" IVar="4" Cut="6.6780537366867065e-01" cType="1" res="-7.7775507234036922e-03" rms="4.5412537455558777e-01" purity="4.8716714978218079e-01" nType="0">
        <Node pos="l" depth="1" NCoef="0" IVar="4" Cut="4.9610948562622070e-01" cType="1" res="2.2188302129507065e-02" rms="4.4042658805847168e-01" purity="6.7855125665664673e-01" nType="0">
          <Node pos="l" depth="2" NCoef="0" IVar="-1" Cut="0.0000000000000000e+00" cType="1" res="-1.7917981604114175e-03" rms="4.5331722497940063e-01" purity="6.2456196546554565e-01" nType="-99"/>
          <Node pos="r" depth="2" NCoef="0" IVar="-1" Cut="0.0000000000000000e+00" cType="1" res="2.4420956615358591e-03" rms="4.2893779277801514e-01" purity="7.0883995294570923e-01" nType="-99"/>
        </Node>
        <Node pos="r" depth="1" NCoef="0" IVar="1" Cut="2.0808200836181641e+00" cType="1" res="-1.4610519632697105e-02" rms="4.5691651105880737e-01" purity="4.4352677464485168e-01" nType="0">
          <Node pos="l" depth="2" NCoef="0" IVar="-1" Cut="0.0000000000000000e+00" cType="1" res="4.2536359978839755e-04" rms="4.7239315509796143e-01" purity="5.4073560237884521e-01" nType="-99"/>
          <Node pos="r" depth="2" NCoef="0" IVar="-1" Cut="0.0000000000000000e+00" cType="1" res="-1.1681315954774618e-03" rms="4.4959741830825806e-01" purity="4.0130749344825745e-01" nType="-99"/>
        </Node>
      </Node>
    </BinaryTree>
    <BinaryTree type="DecisionTree" boostWeight="1.0000000000000000e+00" itree="440">
      <Node pos="s" depth="0" NCoef="0" IVar="6" Cut="5.0412659645080566e+00" cType="1" res="-3.8343311753123999e-03" rms="4.5043426752090454e-01" purity="4.9769720435142517e-01" nType="0">
        <Node pos="l" depth="1" NCoef="0" IVar="-1" Cut="0.0000000000000000e+00" cType="1" res="-3.8435126189142466e-03" rms="3.7982508540153503e-01" purity="1.7968781292438507e-01" nType="-99"/>
        <Node pos="r" depth="1" NCoef="0" IVar="7" Cut="3.5889598727226257e-01" cType="1" res="2.1610001567751169e-03" rms="4.5526319742202759e-01" purity="5.2397620677947998e-01" nType="0">
          <Node pos="l" depth="2" NCoef="0" IVar="-1" Cut="0.0000000000000000e+00" cType="1" res="-9.2745234724134207e-04" rms="4.4698247313499451e-01" purity="4.4352048635482788e-01" nType="-99"/>
          <Node pos="r" depth="2" NCoef="0" IVar="-1" Cut="0.0000000000000000e+00" cType="1" res="8.5067708278074861e-04" rms="4.6083301305770874e-01" purity="5.8682435750961304e-01" nType="-99"/>
        </Node>
      </Node>
    </BinaryTree>
    <BinaryTree type="DecisionTree" boostWeight="1.0000000000000000e+00" itree="441">
      <Node pos="s" depth="0" NCoef="0" IVar="1" Cut="1.7198963165283203e+00" cType="1" res="-7.8375646844506264e-03" rms="4.5010617375373840e-01" purity="4.9024540185928345e-01" nType="0">
        <Node pos="l" depth="1" NCoef="0" IVar="-1" Cut="0.0000000000000000e+00" cType="1" res="-3.8545548450201750e-03" rms="4.6009123325347900e-01" purity="4.2933616042137146e-01" nType="-99"/>
        <Node pos="r" depth="1" NCoef="0" IVar="4" Cut="1.7578669786453247e+00" cType="1" res="-2.5698489043861628e-03" rms="4.4895499944686890e-01" purity="4.9387475848197937e-01" nType="0">
          <Node pos="l" depth="2" NCoef="0" IVar="-1" Cut="0.0000000000000000e+00" cType="1" res="1.0078769264509901e-04" rms="4.5668572187423706e-01" purity="5.1719582080841064e-01" nType="-99"/>
          <Node pos="r" depth="2" NCoef="0" IVar="-1" Cut="0.0000000000000000e+00" cType="1" res="-6.4119524322450161e-03" rms="2.7260640263557434e-01" purity="9.4687134027481079e-02" nType="-99"/>
        </Node>
      </Node>
    </BinaryTree>
    <BinaryTree type="DecisionTree" boostWeight="1.0000000000000000e+00" itree="442">
      <Node pos="s" depth="0" NCoef="0" IVar="5" Cut="1.1717361211776733e+00" cType="1" res="4.1262130253016949e-03" rms="4.5678395032882690e-01" purity="5.0372469425201416e-01" nType="0">
        <Node pos="l" depth="1" NCoef="0" IVar="2" Cut="9.3839693069458008e-01" cType="1" res="-2.4875530507415533e-03" rms="4.5584565401077271e-01" purity="5.0852799415588379e-01" nType="0">
          <Node pos="l" depth="2" NCoef="0" IVar="-1" Cut="0.0000000000000000e+00" cType="1" res="1.0493360459804535e-03" rms="4.5229056477546692e-01" purity="3.8509970903396606e-01" nType="-99"/>
          <Node pos="r" depth="2" NCoef="0" IVar="-1" Cut="0.0000000000000000e+00" cType="1" res="-6.5004528732970357e-04" rms="4.5692759752273560e-01" purity="5.6479853391647339e-01" nType="-99"/>
        </Node>
        <Node pos="r" depth="1" NCoef="0" IVar="-1" Cut="0.0000000000000000e+00" cType="1" res="3.0706089455634356e-03" rms="4.6088549494743347e-01" purity="4.5682591199874878e-01" nType="-99"/>
      </Node>
    </BinaryTree>
    <BinaryTree type="DecisionTree" boostWeight="1.0000000000000000e+00" itree="443">
      <Node pos="s" depth="0" NCoef="0" IVar="5" Cut="7.1393418312072754e-01" cType="1" res="1.1943780817091465e-02" rms="4.5014512538909912e-01" purity="5.0839000940322876e-01" nType="0">
        <Node pos="l" depth="1" NCoef="0" IVar="5" Cut="5.2860081195831299e-01" cType="1" res="3.3763132989406586e-02" rms="4.5331284403800964e-01" purity="5.9647423028945923e-01" nType="0">
          <Node pos="l" depth="2" NCoef="0" IVar="-1" Cut="0.0000000000000000e+00" cType="1" res="2.9714367701672018e-04" rms="4.5463621616363525e-01" purity="5.9195327758789062e-01" nType="-99"/>
          <Node pos="r" depth="2" NCoef="0" IVar="-1" Cut="0.0000000000000000e+00" cType="1" res="2.4276038166135550e-03" rms="4.5081251859664917e-01" purity="6.0050547122955322e-01" nType="-99"/>
        </Node>
        <Node pos="r" depth="1" NCoef="0" IVar="2" Cut="9.3367475271224976e-01" cType="1" res="-5.3483089432120323e-03" rms="4.4686263799667358e-01" purity="4.3858221173286438e-01" nType="0">
          <Node pos="l" depth="2" NCoef="0" IVar="-1" Cut="0.0000000000000000e+00" cType="1" res="-1.9989123102277517e-03" rms="4.1078856587409973e-01" purity="2.4911907315254211e-01" nType="-99"/>
          <Node pos="r" depth="2" NCoef="0" IVar="-1" Cut="0.0000000000000000e+00" cType="1" res="3.7083402276039124e-04" rms="4.5905956625938416e-01" purity="5.1043426990509033e-01" nType="-99"/>
        </Node>
      </Node>
    </BinaryTree>
    <BinaryTree type="DecisionTree" boostWeight="1.0000000000000000e+00" itree="444">
      <Node pos="s" depth="0" NCoef="0" IVar="1" Cut="1.9525686502456665e+00" cType="1" res="2.7997911092825234e-04" rms="4.5193248987197876e-01" purity="4.9796426296234131e-01" nType="0">
        <Node pos="l" depth="1" NCoef="0" IVar="5" Cut="4.7359558939933777e-01" cType="1" res="4.0603358298540115e-02" rms="4.5647817850112915e-01" purity="6.1500591039657593e-01" nType="0">
          <Node pos="l" depth="2" NCoef="0" IVar="-1" Cut="0.0000000000000000e+00" cType="1" res="-7.6826539589092135e-04" rms="4.7246488928794861e-01" purity="5.9256410598754883e-01" nType="-99"/>
          <Node pos="r" depth="2" NCoef="0" IVar="-1" Cut="0.0000000000000000e+00" cType="1" res="2.7797874063253403e-03" rms="4.4685944914817810e-01" purity="6.2457317113876343e-01" nType="-99"/>
        </Node>
        <Node pos="r" depth="1" NCoef="0" IVar="2" Cut="9.1803526878356934e-01" cType="1" res="-1.0994758456945419e-02" rms="4.5000734925270081e-01" purity="4.6523851156234741e-01" nType="0">
          <Node pos="l" depth="2" NCoef="0" IVar="-1" Cut="0.0000000000000000e+00" cType="1" res="2.0030692685395479e-03" rms="4.3808495998382568e-01" purity="3.0919125676155090e-01" nType="-99"/>
          <Node pos="r" depth="2" NCoef="0" IVar="-1" Cut="0.0000000000000000e+00" cType="1" res="-7.4342300649732351e-04" rms="4.5095202326774597e-01" purity="4.8248443007469177e-01" nType="-99"/>
        </Node>
      </Node>
    </BinaryTree>
    <BinaryTree type="DecisionTree" boostWeight="1.0000000000000000e+00" itree="445">
      <Node pos="s" depth="0" NCoef="0" IVar="3" Cut="1.6626493632793427e-01" cType="1" res="5.8025214821100235e-03" rms="4.4778469204902649e-01" purity="5.0241708755493164e-01" nType="0">
        <Node pos="l" depth="1" NCoef="0" IVar="0" Cut="1.1948363494873047e+02" cType="1" res="1.4167770859785378e-04" rms="4.4883891940116882e-01" purity="4.8328769207000732e-01" nType="0">
          <Node pos="l" depth="2" NCoef="0" IVar="-1" Cut="0.0000000000000000e+00" cType="1" res="-2.9190775239840150e-04" rms="4.5032650232315063e-01" purity="4.6855226159095764e-01" nType="-99"/>
          <Node pos="r" depth="2" NCoef="0" IVar="-1" Cut="0.0000000000000000e+00" cType="1" res="1.4898761874064803e-03" rms="4.4039985537528992e-01" purity="5.5215775966644287e-01" nType="-99"/>
        </Node>
        <Node pos="r" depth="1" NCoef="0" IVar="1" Cut="2.0391669273376465e+00" cType="1" res="4.1836667805910110e-02" rms="4.3930834531784058e-01" purity="6.2418544292449951e-01" nType="0">
          <Node pos="l" depth="2" NCoef="0" IVar="-1" Cut="0.0000000000000000e+00" cType="1" res="5.3447484970092773e-04" rms="4.5721268653869629e-01" purity="6.1270374059677124e-01" nType="-99"/>
          <Node pos="r" depth="2" NCoef="0" IVar="-1" Cut="0.0000000000000000e+00" cType="1" res="3.1863276381045580e-03" rms="4.1817638278007507e-01" purity="6.3588893413543701e-01" nType="-99"/>
        </Node>
      </Node>
    </BinaryTree>
    <BinaryTree type="DecisionTree" boostWeight="1.0000000000000000e+00" itree="446">
      <Node pos="s" depth="0" NCoef="0" IVar="0" Cut="1.4074076843261719e+02" cType="1" res="1.2261041440069675e-02" rms="4.5289748907089233e-01" purity="5.1458281278610229e-01" nType="0">
        <Node pos="l" depth="1" NCoef="0" IVar="4" Cut="1.1203199625015259e+00" cType="1" res="1.7645603045821190e-02" rms="4.5325598120689392e-01" purity="5.2109998464584351e-01" nType="0">
          <Node pos="l" depth="2" NCoef="0" IVar="-1" Cut="0.0000000000000000e+00" cType="1" res="1.6849760140758008e-04" rms="4.5487678050994873e-01" purity="6.0540473461151123e-01" nType="-99"/>
          <Node pos="r" depth="2" NCoef="0" IVar="-1" Cut="0.0000000000000000e+00" cType="1" res="2.0500910468399525e-03" rms="4.4934302568435669e-01" purity="3.7114530801773071e-01" nType="-99"/>
        </Node>
        <Node pos="r" depth="1" NCoef="0" IVar="-1" Cut="0.0000000000000000e+00" cType="1" res="-2.5044360663741827e-03" rms="4.4320115447044373e-01" purity="4.3472698330879211e-01" nType="-99"/>
      </Node>
    </BinaryTree>
    <BinaryTree type="DecisionTree" boostWeight="1.0000000000000000e+00" itree="447">
      <Node pos="s" depth="0" NCoef="0" IVar="7" Cut="7.0900332927703857e-01" cType="1" res="8.4340767934918404e-03" rms="4.4594240188598633e-01" purity="5.1095640659332275e-01" nType="0">
        <Node pos="l" depth="1" NCoef="0" IVar="1" Cut="2.5704643726348877e+00" cType="1" res="2.6307108346372843e-03" rms="4.4773921370506287e-01" purity="4.9815514683723450e-01" nType="0">
          <Node pos="l" depth="2" NCoef="0" IVar="-1" Cut="0.0000000000000000e+00" cType="1" res="3.9599774754606187e-04" rms="4.5804259181022644e-01" purity="5.4023987054824829e-01" nType="-99"/>
          <Node pos="r" depth="2" NCoef="0" IVar="-1" Cut="0.0000000000000000e+00" cType="1" res="-3.2231137156486511e-03" rms="3.5202729701995850e-01" purity="1.6710332036018372e-01" nType="-99"/>
        </Node>
        <Node pos="r" depth="1" NCoef="0" IVar="-1" Cut="0.0000000000000000e+00" cType="1" res="3.7095299921929836e-03" rms="4.1101202368736267e-01" purity="6.9205558300018311e-01" nType="-99"/>
      </Node>
    </BinaryTree>
    <BinaryTree type="DecisionTree" boostWeight="1.0000000000000000e+00" itree="448">
      <Node pos="s" depth="0" NCoef="0" IVar="5" Cut="5.1647192239761353e-01" cType="1" res="-8.0677634105086327e-03" rms="4.5165914297103882e-01" purity="4.9331277608871460e-01" nType="0">
        <Node pos="l" depth="1" NCoef="0" IVar="0" Cut="6.7782417297363281e+01" cType="1" res="-4.3433368206024170e-02" rms="4.5462441444396973e-01" purity="5.3875273466110229e-01" nType="0">
          <Node pos="l" depth="2" NCoef="0" IVar="-1" Cut="0.0000000000000000e+00" cType="1" res="-3.0399109236896038e-03" rms="4.7243833541870117e-01" purity="4.3743872642517090e-01" nType="-99"/>
          <Node pos="r" depth="2" NCoef="0" IVar="-1" Cut="0.0000000000000000e+00" cType="1" res="-3.6205098149366677e-04" rms="4.3500313162803650e-01" purity="6.2984168529510498e-01" nType="-99"/>
        </Node>
        <Node pos="r" depth="1" NCoef="0" IVar="5" Cut="9.9608337879180908e-01" cType="1" res="7.8590761404484510e-04" rms="4.5047938823699951e-01" purity="4.8193702101707458e-01" nType="0">
          <Node pos="l" depth="2" NCoef="0" IVar="-1" Cut="0.0000000000000000e+00" cType="1" res="5.0339393783360720e-04" rms="4.5450177788734436e-01" purity="5.2067977190017700e-01" nType="-99"/>
          <Node pos="r" depth="2" NCoef="0" IVar="-1" Cut="0.0000000000000000e+00" cType="1" res="-1.1895135976374149e-03" rms="4.3898418545722961e-01" purity="3.8385298848152161e-01" nType="-99"/>
        </Node>
      </Node>
    </BinaryTree>
    <BinaryTree type="DecisionTree" boostWeight="1.0000000000000000e+00" itree="449">
      <Node pos="s" depth="0" NCoef="0" IVar="7" Cut="2.7573490142822266e-01" cType="1" res="-3.7260288372635841e-03" rms="4.5294868946075439e-01" purity="4.9705418944358826e-01" nType="0">
        <Node pos="l" depth="1" NCoef="0" IVar="3" Cut="-9.1687999665737152e-02" cType="1" res="-2.7895594015717506e-02" rms="4.4303062558174133e-01" purity="3.9125648140907288e-01" nType="0">
          <Node pos="l" depth="2" NCoef="0" IVar="-1" Cut="0.0000000000000000e+00" cType="1" res="1.6514586750417948e-03" rms="4.3557903170585632e-01" purity="3.9615660905838013e-01" nType="-99"/>
          <Node pos="r" depth="2" NCoef="0" IVar="-1" Cut="0.0000000000000000e+00" cType="1" res="-2.1090942900627851e-03" rms="4.4360369443893433e-01" purity="3.8970443606376648e-01" nType="-99"/>
        </Node>
        <Node pos="r" depth="1" NCoef="0" IVar="0" Cut="5.5880657196044922e+01" cType="1" res="6.4141238108277321e-03" rms="4.5666489005088806e-01" purity="5.4144084453582764e-01" nType="0">
          <Node pos="l" depth="2" NCoef="0" IVar="-1" Cut="0.0000000000000000e+00" cType="1" res="-1.0476282332092524e-03" rms="4.6403616666793823e-01" purity="4.4038873910903931e-01" nType="-99"/>
          <Node pos="r" depth="2" NCoef="0" IVar="-1" Cut="0.0000000000000000e+00" cType="1" res="8.5532973753288388e-04" rms="4.5286396145820618e-01" purity="5.8398938179016113e-01" nType="-99"/>
        </Node>
      </Node>
    </BinaryTree>
    <BinaryTree type="DecisionTree" boostWeight="1.0000000000000000e+00" itree="450">
      <Node pos="s" depth="0" NCoef="0" IVar="0" Cut="3.8473548889160156e+01" cType="1" res="5.5626230314373970e-03" rms="4.4988572597503662e-01" purity="4.9992144107818604e-01" nType="0">
        <Node pos="l" depth="1" NCoef="0" IVar="6" Cut="6.4832701683044434e+00" cType="1" res="-4.6263888478279114e-02" rms="4.4424664974212646e-01" purity="3.3071163296699524e-01" nType="0">
          <Node pos="l" depth="2" NCoef="0" IVar="-1" Cut="0.0000000000000000e+00" cType="1" res="2.9626552714034915e-04" rms="4.3853476643562317e-01" purity="2.7876597642898560e-01" nType="-99"/>
          <Node pos="r" depth="2" NCoef="0" IVar="-1" Cut="0.0000000000000000e+00" cType="1" res="-4.2947949841618538e-03" rms="4.4380068778991699e-01" purity="3.8196679949760437e-01" nType="-99"/>
        </Node>
        <Node pos="r" depth="1" NCoef="0" IVar="3" Cut="1.3336820900440216e-01" cType="1" res="1.1712424457073212e-02" rms="4.5015433430671692e-01" purity="5.2000010013580322e-01" nType="0">
          <Node pos="l" depth="2" NCoef="0" IVar="-1" Cut="0.0000000000000000e+00" cType="1" res="1.4841157826595008e-04" rms="4.5311710238456726e-01" purity="4.8983180522918701e-01" nType="-99"/>
          <Node pos="r" depth="2" NCoef="0" IVar="-1" Cut="0.0000000000000000e+00" cType="1" res="2.0228312350809574e-03" rms="4.3552330136299133e-01" purity="6.4856863021850586e-01" nType="-99"/>
        </Node>
      </Node>
    </BinaryTree>
    <BinaryTree type="DecisionTree" boostWeight="1.0000000000000000e+00" itree="451">
      <Node pos="s" depth="0" NCoef="0" IVar="6" Cut="5.0412659645080566e+00" cType="1" res="-9.4329882413148880e-03" rms="4.4800183176994324e-01" purity="4.9179771542549133e-01" nType="0">
        <Node pos="l" depth="1" NCoef="0" IVar="-1" Cut="0.0000000000000000e+00" cType="1" res="-3.5023789387196302e-03" rms="3.9583426713943481e-01" purity="1.8384447693824768e-01" nType="-99"/>
        <Node pos="r" depth="1" NCoef="0" IVar="1" Cut="2.2195267677307129e+00" cType="1" res="-4.6494840644299984e-03" rms="4.5155876874923706e-01" purity="5.1634925603866577e-01" nType="0">
          <Node pos="l" depth="2" NCoef="0" IVar="-1" Cut="0.0000000000000000e+00" cType="1" res="5.0549930892884731e-04" rms="4.5812538266181946e-01" purity="6.1027359962463379e-01" nType="-99"/>
          <Node pos="r" depth="2" NCoef="0" IVar="-1" Cut="0.0000000000000000e+00" cType="1" res="-1.4074541395530105e-03" rms="4.4015362858772278e-01" purity="3.7323784828186035e-01" nType="-99"/>
        </Node>
      </Node>
    </BinaryTree>
    <BinaryTree type="DecisionTree" boostWeight="1.0000000000000000e+00" itree="452">
      <Node pos="s" depth="0" NCoef="0" IVar="0" Cut="9.5196563720703125e+01" cType="1" res="-9.9398531019687653e-03" rms="4.5344939827919006e-01" purity="4.8638179898262024e-01" nType="0">
        <Node pos="l" depth="1" NCoef="0" IVar="2" Cut="9.3367475271224976e-01" cType="1" res="-2.0276464521884918e-02" rms="4.5313933491706848e-01" purity="4.5257082581520081e-01" nType="0">
          <Node pos="l" depth="2" NCoef="0" IVar="-1" Cut="0.0000000000000000e+00" cType="1" res="-2.3312352132052183e-03" rms="4.1990563273429871e-01" purity="2.6568457484245300e-01" nType="-99"/>
          <Node pos="r" depth="2" NCoef="0" IVar="-1" Cut="0.0000000000000000e+00" cType="1" res="-3.2120203832164407e-04" rms="4.6420276165008545e-01" purity="5.2184009552001953e-01" nType="-99"/>
        </Node>
        <Node pos="r" depth="1" NCoef="0" IVar="6" Cut="6.3538146018981934e+00" cType="1" res="1.1899806559085846e-02" rms="4.5332941412925720e-01" purity="5.5781924724578857e-01" nType="0">
          <Node pos="l" depth="2" NCoef="0" IVar="-1" Cut="0.0000000000000000e+00" cType="1" res="2.4513434618711472e-03" rms="4.6537518501281738e-01" purity="4.5443946123123169e-01" nType="-99"/>
          <Node pos="r" depth="2" NCoef="0" IVar="-1" Cut="0.0000000000000000e+00" cType="1" res="-5.9258996043354273e-04" rms="4.4473776221275330e-01" purity="6.1408948898315430e-01" nType="-99"/>
        </Node>
      </Node>
    </BinaryTree>
    <BinaryTree type="DecisionTree" boostWeight="1.0000000000000000e+00" itree="453">
      <Node pos="s" depth="0" NCoef="0" IVar="0" Cut="7.8795509338378906e+01" cType="1" res="-3.9426377043128014e-03" rms="4.5144045352935791e-01" purity="4.9687576293945312e-01" nType="0">
        <Node pos="l" depth="1" NCoef="0" IVar="7" Cut="3.6068740487098694e-01" cType="1" res="-1.7464445903897285e-02" rms="4.5049339532852173e-01" purity="4.4272482395172119e-01" nType="0">
          <Node pos="l" depth="2" NCoef="0" IVar="-1" Cut="0.0000000000000000e+00" cType="1" res="-2.0489445887506008e-03" rms="4.3262547254562378e-01" purity="3.5172623395919800e-01" nType="-99"/>
          <Node pos="r" depth="2" NCoef="0" IVar="-1" Cut="0.0000000000000000e+00" cType="1" res="1.6965996110229753e-05" rms="4.6129289269447327e-01" purity="5.0408476591110229e-01" nType="-99"/>
        </Node>
        <Node pos="r" depth="1" NCoef="0" IVar="4" Cut="1.0284754037857056e+00" cType="1" res="1.2091842480003834e-02" rms="4.5203697681427002e-01" purity="5.6108921766281128e-01" nType="0">
          <Node pos="l" depth="2" NCoef="0" IVar="-1" Cut="0.0000000000000000e+00" cType="1" res="-6.2637944938614964e-04" rms="4.4530296325683594e-01" purity="6.7678248882293701e-01" nType="-99"/>
          <Node pos="r" depth="2" NCoef="0" IVar="-1" Cut="0.0000000000000000e+00" cType="1" res="1.6974870814010501e-03" rms="4.5713761448860168e-01" purity="4.4662627577781677e-01" nType="-99"/>
        </Node>
      </Node>
    </BinaryTree>
    <BinaryTree type="DecisionTree" boostWeight="1.0000000000000000e+00" itree="454">
      <Node pos="s" depth="0" NCoef="0" IVar="3" Cut="1.3695093989372253e-01" cType="1" res="-3.1545092351734638e-03" rms="4.5228520035743713e-01" purity="4.9650269746780396e-01" nType="0">
        <Node pos="l" depth="1" NCoef="0" IVar="3" Cut="-3.0503513291478157e-02" cType="1" res="-1.0628755204379559e-02" rms="4.5281392335891724e-01" purity="4.6797707676887512e-01" nType="0">
          <Node pos="l" depth="2" NCoef="0" IVar="-1" Cut="0.0000000000000000e+00" cType="1" res="4.2632009717635810e-04" rms="4.4690322875976562e-01" purity="4.6072438359260559e-01" nType="-99"/>
          <Node pos="r" depth="2" NCoef="0" IVar="-1" Cut="0.0000000000000000e+00" cType="1" res="-1.4072699705138803e-03" rms="4.5807874202728271e-01" purity="4.7573563456535339e-01" nType="-99"/>
        </Node>
        <Node pos="r" depth="1" NCoef="0" IVar="1" Cut="1.9837335348129272e+00" cType="1" res="2.8409279882907867e-02" rms="4.4867449998855591e-01" purity="6.1696672439575195e-01" nType="0">
          <Node pos="l" depth="2" NCoef="0" IVar="-1" Cut="0.0000000000000000e+00" cType="1" res="-7.1182352257892489e-04" rms="4.4616103172302246e-01" purity="5.9394168853759766e-01" nType="-99"/>
          <Node pos="r" depth="2" NCoef="0" IVar="-1" Cut="0.0000000000000000e+00" cType="1" res="2.5478389579802752e-03" rms="4.4764855504035950e-01" purity="6.3209283351898193e-01" nType="-99"/>
        </Node>
      </Node>
    </BinaryTree>
    <BinaryTree type="DecisionTree" boostWeight="1.0000000000000000e+00" itree="455">
      <Node pos="s" depth="0" NCoef="0" IVar="4" Cut="1.4358712434768677e+00" cType="1" res="-1.1976087698712945e-03" rms="4.5053970813751221e-01" purity="4.9958539009094238e-01" nType="0">
        <Node pos="l" depth="1" NCoef="0" IVar="2" Cut="9.1923415660858154e-01" cType="1" res="4.4742720201611519e-03" rms="4.6236911416053772e-01" purity="5.5439144372940063e-01" nType="0">
          <Node pos="l" depth="2" NCoef="0" IVar="-1" Cut="0.0000000000000000e+00" cType="1" res="2.3276666179299355e-03" rms="4.6513122320175171e-01" purity="3.8985261321067810e-01" nType="-99"/>
          <Node pos="r" depth="2" NCoef="0" IVar="-1" Cut="0.0000000000000000e+00" cType="1" res="-5.3809235396329314e-05" rms="4.6170121431350708e-01" purity="5.7332915067672729e-01" nType="-99"/>
        </Node>
        <Node pos="r" depth="1" NCoef="0" IVar="2" Cut="9.5892131328582764e-01" cType="1" res="-3.1492017209529877e-02" rms="3.7975835800170898e-01" purity="2.0685754716396332e-01" nType="0">
          <Node pos="l" depth="2" NCoef="0" IVar="-1" Cut="0.0000000000000000e+00" cType="1" res="-2.9496359275071882e-05" rms="3.6572548747062683e-01" purity="1.9441376626491547e-01" nType="-99"/>
          <Node pos="r" depth="2" NCoef="0" IVar="-1" Cut="0.0000000000000000e+00" cType="1" res="-4.8552392981946468e-03" rms="3.9986649155616760e-01" purity="2.3294162750244141e-01" nType="-99"/>
        </Node>
      </Node>
    </BinaryTree>
    <BinaryTree type="DecisionTree" boostWeight="1.0000000000000000e+00" itree="456">
      <Node pos="s" depth="0" NCoef="0" IVar="0" Cut="3.8823535919189453e+01" cType="1" res="-6.5010576508939266e-03" rms="4.5040279626846313e-01" purity="4.9303033947944641e-01" nType="0">
        <Node pos="l" depth="1" NCoef="0" IVar="3" Cut="2.0419904962182045e-02" cType="1" res="-5.7916600257158279e-02" rms="4.4032493233680725e-01" purity="3.2351633906364441e-01" nType="0">
          <Node pos="l" depth="2" NCoef="0" IVar="-1" Cut="0.0000000000000000e+00" cType="1" res="-9.6570572350174189e-04" rms="4.2855012416839600e-01" purity="3.3104887604713440e-01" nType="-99"/>
          <Node pos="r" depth="2" NCoef="0" IVar="-1" Cut="0.0000000000000000e+00" cType="1" res="-4.1590076871216297e-03" rms="4.4882535934448242e-01" purity="3.1576222181320190e-01" nType="-99"/>
        </Node>
        <Node pos="r" depth="1" NCoef="0" IVar="3" Cut="6.0748573392629623e-02" cType="1" res="-4.9124698853120208e-04" rms="4.5118379592895508e-01" purity="5.1284432411193848e-01" nType="0">
          <Node pos="l" depth="2" NCoef="0" IVar="-1" Cut="0.0000000000000000e+00" cType="1" res="-5.7321292115375400e-04" rms="4.5207276940345764e-01" purity="4.7326511144638062e-01" nType="-99"/>
          <Node pos="r" depth="2" NCoef="0" IVar="-1" Cut="0.0000000000000000e+00" cType="1" res="1.1070363689213991e-03" rms="4.4818210601806641e-01" purity="5.9692358970642090e-01" nType="-99"/>
        </Node>
      </Node>
    </BinaryTree>
    <BinaryTree type="DecisionTree" boostWeight="1.0000000000000000e+00" itree="457">
      <Node pos="s" depth="0" NCoef="0" IVar="0" Cut="1.4412460327148438e+02" cType="1" res="8.1021906808018684e-03" rms="4.5422747731208801e-01" purity="5.1167219877243042e-01" nType="0">
        <Node pos="l" depth="1" NCoef="0" IVar="0" Cut="9.1129318237304688e+01" cType="1" res="1.2041121721267700e-02" rms="4.5369938015937805e-01" purity="5.1661252975463867e-01" nType="0">
          <Node pos="l" depth="2" NCoef="0" IVar="-1" Cut="0.0000000000000000e+00" cType="1" res="-1.5526060451520607e-05" rms="4.5716887712478638e-01" purity="4.7405445575714111e-01" nType="-99"/>
          <Node pos="r" depth="2" NCoef="0" IVar="-1" Cut="0.0000000000000000e+00" cType="1" res="1.8268876010552049e-03" rms="4.4423803687095642e-01" purity="6.1511540412902832e-01" nType="-99"/>
        </Node>
        <Node pos="r" depth="1" NCoef="0" IVar="-1" Cut="0.0000000000000000e+00" cType="1" res="-2.2813666146248579e-03" rms="4.5802253484725952e-01" purity="4.4101470708847046e-01" nType="-99"/>
      </Node>
    </BinaryTree>
    <BinaryTree type="DecisionTree" boostWeight="1.0000000000000000e+00" itree="458">
      <Node pos="s" depth="0" NCoef="0" IVar="2" Cut="9.6329164505004883e-01" cType="1" res="5.6167636066675186e-03" rms="4.5178335905075073e-01" purity="5.0330483913421631e-01" nType="0">
        <Node pos="l" depth="1" NCoef="0" IVar="5" Cut="4.2139294743537903e-01" cType="1" res="-6.5405075438320637e-03" rms="4.5907485485076904e-01" purity="4.2598259449005127e-01" nType="0">
          <Node pos="l" depth="2" NCoef="0" IVar="-1" Cut="0.0000000000000000e+00" cType="1" res="-2.3125011939555407e-03" rms="4.7072523832321167e-01" purity="4.5872303843498230e-01" nType="-99"/>
          <Node pos="r" depth="2" NCoef="0" IVar="-1" Cut="0.0000000000000000e+00" cType="1" res="-5.0056831241818145e-05" rms="4.5747926831245422e-01" purity="4.2246142029762268e-01" nType="-99"/>
        </Node>
        <Node pos="r" depth="1" NCoef="0" IVar="3" Cut="-4.1213579475879669e-02" cType="1" res="3.3878050744533539e-02" rms="4.3304353952407837e-01" purity="6.8305116891860962e-01" nType="0">
          <Node pos="l" depth="2" NCoef="0" IVar="-1" Cut="0.0000000000000000e+00" cType="1" res="-6.8590824957937002e-04" rms="4.5583370327949524e-01" purity="5.8313256502151489e-01" nType="-99"/>
          <Node pos="r" depth="2" NCoef="0" IVar="-1" Cut="0.0000000000000000e+00" cType="1" res="2.8133899904787540e-03" rms="4.1736912727355957e-01" purity="7.3862701654434204e-01" nType="-99"/>
        </Node>
      </Node>
    </BinaryTree>
    <BinaryTree type="DecisionTree" boostWeight="1.0000000000000000e+00" itree="459">
      <Node pos="s" depth="0" NCoef="0" IVar="5" Cut="6.1778938770294189e-01" cType="1" res="1.1773115955293179e-02" rms="4.5504382252693176e-01" purity="5.0854384899139404e-01" nType="0">
        <Node pos="l" depth="1" NCoef="0" IVar="3" Cut="-8.7345555424690247e-02" cType="1" res="-1.6163341701030731e-02" rms="4.5959752798080444e-01" purity="5.6116145849227905e-01" nType="0">
          <Node pos="l" depth="2" NCoef="0" IVar="-1" Cut="0.0000000000000000e+00" cType="1" res="-2.1225509699434042e-03" rms="4.7648918628692627e-01" purity="4.9163803458213806e-01" nType="-99"/>
          <Node pos="r" depth="2" NCoef="0" IVar="-1" Cut="0.0000000000000000e+00" cType="1" res="-2.8875624411739409e-04" rms="4.5450171828269958e-01" purity="5.7992547750473022e-01" nType="-99"/>
        </Node>
        <Node pos="r" depth="1" NCoef="0" IVar="5" Cut="6.9129723310470581e-01" cType="1" res="2.4517249315977097e-02" rms="4.5237863063812256e-01" purity="4.8454061150550842e-01" nType="0">
          <Node pos="l" depth="2" NCoef="0" IVar="-1" Cut="0.0000000000000000e+00" cType="1" res="3.1709417235106230e-03" rms="4.5022907853126526e-01" purity="6.1029767990112305e-01" nType="-99"/>
          <Node pos="r" depth="2" NCoef="0" IVar="-1" Cut="0.0000000000000000e+00" cType="1" res="7.5378984911367297e-04" rms="4.5219743251800537e-01" purity="4.6574628353118896e-01" nType="-99"/>
        </Node>
      </Node>
    </BinaryTree>
    <BinaryTree type="DecisionTree" boostWeight="1.0000000000000000e+00" itree="460">
      <Node pos="s" depth="0" NCoef="0" IVar="0" Cut="3.8107383728027344e+01" cType="1" res="2.9473213944584131e-03" rms="4.5273488759994507e-01" purity="5.0128239393234253e-01" nType="0">
        <Node pos="l" depth="1" NCoef="0" IVar="-1" Cut="0.0000000000000000e+00" cType="1" res="-2.5971934664994478e-03" rms="4.4523984193801880e-01" purity="3.1827029585838318e-01" nType="-99"/>
        <Node pos="r" depth="1" NCoef="0" IVar="2" Cut="9.3282574415206909e-01" cType="1" res="8.6666839197278023e-03" rms="4.5302787423133850e-01" purity="5.1872199773788452e-01" nType="0">
          <Node pos="l" depth="2" NCoef="0" IVar="-1" Cut="0.0000000000000000e+00" cType="1" res="-7.5790786650031805e-04" rms="4.3958958983421326e-01" purity="3.2035747170448303e-01" nType="-99"/>
          <Node pos="r" depth="2" NCoef="0" IVar="-1" Cut="0.0000000000000000e+00" cType="1" res="7.2307593654841185e-04" rms="4.5684137940406799e-01" purity="5.8054655790328979e-01" nType="-99"/>
        </Node>
      </Node>
    </BinaryTree>
    <BinaryTree type="DecisionTree" boostWeight="1.0000000000000000e+00" itree="461">
      <Node pos="s" depth="0" NCoef="0" IVar="5" Cut="6.9123291969299316e-01" cType="1" res="-1.0418325662612915e-02" rms="4.5257419347763062e-01" purity="4.9143511056900024e-01" nType="0">
        <Node pos="l" depth="1" NCoef="0" IVar="2" Cut="9.3810033798217773e-01" cType="1" res="6.2661669217050076e-03" rms="4.6295288205146790e-01" purity="5.8074808120727539e-01" nType="0">
          <Node pos="l" depth="2" NCoef="0" IVar="-1" Cut="0.0000000000000000e+00" cType="1" res="2.1846792660653591e-03" rms="4.8354026675224304e-01" purity="4.7281864285469055e-01" nType="-99"/>
          <Node pos="r" depth="2" NCoef="0" IVar="-1" Cut="0.0000000000000000e+00" cType="1" res="-6.4882863080129027e-04" rms="4.5246082544326782e-01" purity="6.2558847665786743e-01" nType="-99"/>
        </Node>
        <Node pos="r" depth="1" NCoef="0" IVar="5" Cut="8.2753986120223999e-01" cType="1" res="-2.2282093763351440e-02" rms="4.4466638565063477e-01" purity="4.2792773246765137e-01" nType="0">
          <Node pos="l" depth="2" NCoef="0" IVar="-1" Cut="0.0000000000000000e+00" cType="1" res="-2.4215320590883493e-03" rms="4.4860556721687317e-01" purity="4.6024706959724426e-01" nType="-99"/>
          <Node pos="r" depth="2" NCoef="0" IVar="-1" Cut="0.0000000000000000e+00" cType="1" res="-4.3410764192230999e-04" rms="4.4248124957084656e-01" purity="4.1550299525260925e-01" nType="-99"/>
        </Node>
      </Node>
    </BinaryTree>
    <BinaryTree type="DecisionTree" boostWeight="1.0000000000000000e+00" itree="462">
      <Node pos="s" depth="0" NCoef="0" IVar="0" Cut="1.0200418090820312e+02" cType="1" res="2.7814668137580156e-03" rms="4.5383334159851074e-01" purity="5.0133597850799561e-01" nType="0">
        <Node pos="l" depth="1" NCoef="0" IVar="0" Cut="7.2108085632324219e+01" cType="1" res="-9.5089161768555641e-03" rms="4.5781195163726807e-01" purity="4.7003132104873657e-01" nType="0">
          <Node pos="l" depth="2" NCoef="0" IVar="-1" Cut="0.0000000000000000e+00" cType="1" res="2.3802793293725699e-04" rms="4.5850032567977905e-01" purity="4.6452778577804565e-01" nType="-99"/>
          <Node pos="r" depth="2" NCoef="0" IVar="-1" Cut="0.0000000000000000e+00" cType="1" res="-1.6482202336192131e-03" rms="4.5516455173492432e-01" purity="4.8040932416915894e-01" nType="-99"/>
        </Node>
        <Node pos="r" depth="1" NCoef="0" IVar="1" Cut="2.0774116516113281e+00" cType="1" res="3.6336328834295273e-02" rms="4.4104847311973572e-01" purity="5.8680337667465210e-01" nType="0">
          <Node pos="l" depth="2" NCoef="0" IVar="-1" Cut="0.0000000000000000e+00" cType="1" res="4.6189199201762676e-03" rms="3.8684147596359253e-01" purity="8.1431716680526733e-01" nType="-99"/>
          <Node pos="r" depth="2" NCoef="0" IVar="-1" Cut="0.0000000000000000e+00" cType="1" res="7.9404911957681179e-04" rms="4.5443454384803772e-01" purity="5.1835882663726807e-01" nType="-99"/>
        </Node>
      </Node>
    </BinaryTree>
    <BinaryTree type="DecisionTree" boostWeight="1.0000000000000000e+00" itree="463">
      <Node pos="s" depth="0" NCoef="0" IVar="6" Cut="8.2566528320312500e+00" cType="1" res="-4.2264498770236969e-03" rms="4.5481881499290466e-01" purity="4.9355366826057434e-01" nType="0">
        <Node pos="l" depth="1" NCoef="0" IVar="5" Cut="1.1090203523635864e+00" cType="1" res="7.5720446184277534e-03" rms="4.5815858244895935e-01" purity="4.6468478441238403e-01" nType="0">
          <Node pos="l" depth="2" NCoef="0" IVar="-1" Cut="0.0000000000000000e+00" cType="1" res="6.5895408624783158e-04" rms="4.6176153421401978e-01" purity="4.8786240816116333e-01" nType="-99"/>
          <Node pos="r" depth="2" NCoef="0" IVar="-1" Cut="0.0000000000000000e+00" cType="1" res="-2.0920131355524063e-03" rms="4.2971137166023254e-01" purity="3.1005567312240601e-01" nType="-99"/>
        </Node>
        <Node pos="r" depth="1" NCoef="0" IVar="0" Cut="7.0377090454101562e+01" cType="1" res="-5.6991297751665115e-02" rms="4.3568018078804016e-01" purity="6.2266027927398682e-01" nType="0">
          <Node pos="l" depth="2" NCoef="0" IVar="-1" Cut="0.0000000000000000e+00" cType="1" res="-5.4053803905844688e-03" rms="4.5102533698081970e-01" purity="5.1338863372802734e-01" nType="-99"/>
          <Node pos="r" depth="2" NCoef="0" IVar="-1" Cut="0.0000000000000000e+00" cType="1" res="-7.3290831642225385e-04" rms="4.1909703612327576e-01" purity="7.0183873176574707e-01" nType="-99"/>
        </Node>
      </Node>
    </BinaryTree>
    <BinaryTree type="DecisionTree" boostWeight="1.0000000000000000e+00" itree="464">
      <Node pos="s" depth="0" NCoef="0" IVar="5" Cut="1.0370539426803589e+00" cType="1" res="2.9247882775962353e-03" rms="4.4885116815567017e-01" purity="5.0128763914108276e-01" nType="0">
        <Node pos="l" depth="1" NCoef="0" IVar="1" Cut="2.1998596191406250e+00" cType="1" res="1.0735210031270981e-02" rms="4.5070052146911621e-01" purity="5.3354591131210327e-01" nType="0">
          <Node pos="l" depth="2" NCoef="0" IVar="-1" Cut="0.0000000000000000e+00" cType="1" res="1.0929446434602141e-03" rms="4.5432639122009277e-01" purity="6.2414759397506714e-01" nType="-99"/>
          <Node pos="r" depth="2" NCoef="0" IVar="-1" Cut="0.0000000000000000e+00" cType="1" res="-6.3674594275653362e-04" rms="4.4400918483734131e-01" purity="3.9513760805130005e-01" nType="-99"/>
        </Node>
        <Node pos="r" depth="1" NCoef="0" IVar="1" Cut="2.1584858894348145e+00" cType="1" res="-3.0607255175709724e-02" rms="4.3924811482429504e-01" purity="3.6279487609863281e-01" nType="0">
          <Node pos="l" depth="2" NCoef="0" IVar="-1" Cut="0.0000000000000000e+00" cType="1" res="-4.4156010262668133e-03" rms="4.4450268149375916e-01" purity="3.7326923012733459e-01" nType="-99"/>
          <Node pos="r" depth="2" NCoef="0" IVar="-1" Cut="0.0000000000000000e+00" cType="1" res="4.9825863243313506e-05" rms="4.3315440416336060e-01" purity="3.5810506343841553e-01" nType="-99"/>
        </Node>
      </Node>
    </BinaryTree>
    <BinaryTree type="DecisionTree" boostWeight="1.0000000000000000e+00" itree="465">
      <Node pos="s" depth="0" NCoef="0" IVar="2" Cut="9.1052716970443726e-01" cType="1" res="4.7667962498962879e-03" rms="4.5280945301055908e-01" purity="5.0733870267868042e-01" nType="0">
        <Node pos="l" depth="1" NCoef="0" IVar="-1" Cut="0.0000000000000000e+00" cType="1" res="-2.0153736695647240e-03" rms="4.0918648242950439e-01" purity="2.3274005949497223e-01" nType="-99"/>
        <Node pos="r" depth="1" NCoef="0" IVar="4" Cut="5.7749873399734497e-01" cType="1" res="8.0240443348884583e-03" rms="4.5542934536933899e-01" purity="5.2593666315078735e-01" nType="0">
          <Node pos="l" depth="2" NCoef="0" IVar="-1" Cut="0.0000000000000000e+00" cType="1" res="1.6154788900166750e-03" rms="4.3768733739852905e-01" purity="7.1342188119888306e-01" nType="-99"/>
          <Node pos="r" depth="2" NCoef="0" IVar="-1" Cut="0.0000000000000000e+00" cType="1" res="1.3699074042961001e-04" rms="4.5783001184463501e-01" purity="4.9782767891883850e-01" nType="-99"/>
        </Node>
      </Node>
    </BinaryTree>
    <BinaryTree type="DecisionTree" boostWeight="1.0000000000000000e+00" itree="466">
      <Node pos="s" depth="0" NCoef="0" IVar="6" Cut="9.1270494461059570e+00" cType="1" res="-2.5000125169754028e-03" rms="4.4936463236808777e-01" purity="4.9168077111244202e-01" nType="0">
        <Node pos="l" depth="1" NCoef="0" IVar="2" Cut="9.1286975145339966e-01" cType="1" res="-9.3103712424635887e-03" rms="4.5236146450042725e-01" purity="4.6889364719390869e-01" nType="0">
          <Node pos="l" depth="2" NCoef="0" IVar="-1" Cut="0.0000000000000000e+00" cType="1" res="-3.0070603825151920e-03" rms="3.8318568468093872e-01" purity="2.1079578995704651e-01" nType="-99"/>
          <Node pos="r" depth="2" NCoef="0" IVar="-1" Cut="0.0000000000000000e+00" cType="1" res="-2.0669541845563799e-04" rms="4.5747750997543335e-01" purity="4.9088501930236816e-01" nType="-99"/>
        </Node>
        <Node pos="r" depth="1" NCoef="0" IVar="-1" Cut="0.0000000000000000e+00" cType="1" res="4.2550666257739067e-03" rms="3.9777183532714844e-01" purity="7.8868782520294189e-01" nType="-99"/>
      </Node>
    </BinaryTree>
    <BinaryTree type="DecisionTree" boostWeight="1.0000000000000000e+00" itree="467">
      <Node pos="s" depth="0" NCoef="0" IVar="3" Cut="8.0256462097167969e-02" cType="1" res="-5.2321222610771656e-03" rms="4.4978725910186768e-01" purity="4.8722159862518311e-01" nType="0">
        <Node pos="l" depth="1" NCoef="0" IVar="3" Cut="-2.7902958914637566e-02" cType="1" res="-1.5545081347227097e-02" rms="4.4947680830955505e-01" purity="4.4966503977775574e-01" nType="0">
          <Node pos="l" depth="2" NCoef="0" IVar="-1" Cut="0.0000000000000000e+00" cType="1" res="1.4504698629025370e-04" rms="4.4846051931381226e-01" purity="4.4892832636833191e-01" nType="-99"/>
          <Node pos="r" depth="2" NCoef="0" IVar="-1" Cut="0.0000000000000000e+00" cType="1" res="-1.9422975601628423e-03" rms="4.4950100779533386e-01" purity="4.5080542564392090e-01" nType="-99"/>
        </Node>
        <Node pos="r" depth="1" NCoef="0" IVar="6" Cut="5.7800846099853516e+00" cType="1" res="1.8903698772192001e-02" rms="4.4958931207656860e-01" purity="5.7511663436889648e-01" nType="0">
          <Node pos="l" depth="2" NCoef="0" IVar="-1" Cut="0.0000000000000000e+00" cType="1" res="-1.5542304608970881e-03" rms="4.5257893204689026e-01" purity="3.4181267023086548e-01" nType="-99"/>
          <Node pos="r" depth="2" NCoef="0" IVar="-1" Cut="0.0000000000000000e+00" cType="1" res="1.6116381157189608e-03" rms="4.4703888893127441e-01" purity="6.5155220031738281e-01" nType="-99"/>
        </Node>
      </Node>
    </BinaryTree>
    <BinaryTree type="DecisionTree" boostWeight="1.0000000000000000e+00" itree="468">
      <Node pos="s" depth="0" NCoef="0" IVar="2" Cut="9.3375200033187866e-01" cType="1" res="-1.0917333420366049e-03" rms="4.5236909389495850e-01" purity="4.9811571836471558e-01" nType="0">
        <Node pos="l" depth="1" NCoef="0" IVar="2" Cut="9.1846460103988647e-01" cType="1" res="-2.9965341091156006e-02" rms="4.3743214011192322e-01" purity="3.0548131465911865e-01" nType="0">
          <Node pos="l" depth="2" NCoef="0" IVar="-1" Cut="0.0000000000000000e+00" cType="1" res="-4.9156547902384773e-05" rms="4.3187844753265381e-01" purity="2.9409408569335938e-01" nType="-99"/>
          <Node pos="r" depth="2" NCoef="0" IVar="-1" Cut="0.0000000000000000e+00" cType="1" res="-2.1211416460573673e-03" rms="4.4020521640777588e-01" purity="3.1364876031875610e-01" nType="-99"/>
        </Node>
        <Node pos="r" depth="1" NCoef="0" IVar="5" Cut="8.7882310152053833e-01" cType="1" res="8.7069049477577209e-03" rms="4.5691281557083130e-01" purity="5.6348872184753418e-01" nType="0">
          <Node pos="l" depth="2" NCoef="0" IVar="-1" Cut="0.0000000000000000e+00" cType="1" res="-2.3687302018515766e-04" rms="4.5474728941917419e-01" purity="5.9109157323837280e-01" nType="-99"/>
          <Node pos="r" depth="2" NCoef="0" IVar="-1" Cut="0.0000000000000000e+00" cType="1" res="1.6367604257538915e-03" rms="4.5988956093788147e-01" purity="5.0875991582870483e-01" nType="-99"/>
        </Node>
      </Node>
    </BinaryTree>
    <BinaryTree type="DecisionTree" boostWeight="1.0000000000000000e+00" itree="469">
      <Node pos="s" depth="0" NCoef="0" IVar="5" Cut="9.9807727336883545e-01" cType="1" res="8.5161998867988586e-03" rms="4.4888001680374146e-01" purity="5.0621318817138672e-01" nType="0">
        <Node pos="l" depth="1" NCoef="0" IVar="6" Cut="9.1016941070556641e+00" cType="1" res="1.8193876370787621e-02" rms="4.5282331109046936e-01" purity="5.4550468921661377e-01" nType="0">
          <Node pos="l" depth="2" NCoef="0" IVar="-1" Cut="0.0000000000000000e+00" cType="1" res="6.4140645554289222e-04" rms="4.5705822110176086e-01" purity="5.2560025453567505e-01" nType="-99"/>
          <Node pos="r" depth="2" NCoef="0" IVar="-1" Cut="0.0000000000000000e+00" cType="1" res="2.8242594562470913e-03" rms="3.9568328857421875e-01" purity="7.8778141736984253e-01" nType="-99"/>
        </Node>
        <Node pos="r" depth="1" NCoef="0" IVar="7" Cut="1.8373517692089081e-01" cType="1" res="-2.4203004315495491e-02" rms="4.3368732929229736e-01" purity="3.7337273359298706e-01" nType="0">
          <Node pos="l" depth="2" NCoef="0" IVar="-1" Cut="0.0000000000000000e+00" cType="1" res="-4.0097353048622608e-03" rms="3.7148320674896240e-01" purity="2.3111161589622498e-01" nType="-99"/>
          <Node pos="r" depth="2" NCoef="0" IVar="-1" Cut="0.0000000000000000e+00" cType="1" res="-3.4297985257580876e-04" rms="4.4972753524780273e-01" purity="4.1692015528678894e-01" nType="-99"/>
        </Node>
      </Node>
    </BinaryTree>
    <BinaryTree type="DecisionTree" boostWeight="1.0000000000000000e+00" itree="470">
      <Node pos="s" depth="0" NCoef="0" IVar="7" Cut="2.7114567160606384e-01" cType="1" res="-8.3608385175466537e-03" rms="4.5059204101562500e-01" purity="4.9295458197593689e-01" nType="0">
        <Node pos="l" depth="1" NCoef="0" IVar="7" Cut="2.2945412993431091e-01" cType="1" res="-4.4306792318820953e-02" rms="4.3777525424957275e-01" purity="3.7055549025535583e-01" nType="0">
          <Node pos="l" depth="2" NCoef="0" IVar="-1" Cut="0.0000000000000000e+00" cType="1" res="-1.0329436045140028e-03" rms="4.3448978662490845e-01" purity="3.7706938385963440e-01" nType="-99"/>
          <Node pos="r" depth="2" NCoef="0" IVar="-1" Cut="0.0000000000000000e+00" cType="1" res="-3.6726391408592463e-03" rms="4.4059985876083374e-01" purity="3.5177600383758545e-01" nType="-99"/>
        </Node>
        <Node pos="r" depth="1" NCoef="0" IVar="3" Cut="7.7386662364006042e-02" cType="1" res="6.6059976816177368e-03" rms="4.5498570799827576e-01" purity="5.4391795396804810e-01" nType="0">
          <Node pos="l" depth="2" NCoef="0" IVar="-1" Cut="0.0000000000000000e+00" cType="1" res="-7.4056035373359919e-05" rms="4.5847079157829285e-01" purity="5.0860220193862915e-01" nType="-99"/>
          <Node pos="r" depth="2" NCoef="0" IVar="-1" Cut="0.0000000000000000e+00" cType="1" res="1.2042137095704675e-03" rms="4.4508993625640869e-01" purity="6.3555359840393066e-01" nType="-99"/>
        </Node>
      </Node>
    </BinaryTree>
    <BinaryTree type="DecisionTree" boostWeight="1.0000000000000000e+00" itree="471">
      <Node pos="s" depth="0" NCoef="0" IVar="4" Cut="6.2226319313049316e-01" cType="1" res="-1.4048393350094557e-03" rms="4.4681665301322937e-01" purity="4.9460864067077637e-01" nType="0">
        <Node pos="l" depth="1" NCoef="0" IVar="2" Cut="9.5612823963165283e-01" cType="1" res="4.7208327800035477e-02" rms="4.2857339978218079e-01" purity="7.0970910787582397e-01" nType="0">
          <Node pos="l" depth="2" NCoef="0" IVar="-1" Cut="0.0000000000000000e+00" cType="1" res="2.6556958910077810e-03" rms="4.4318652153015137e-01" purity="6.5424817800521851e-01" nType="-99"/>
          <Node pos="r" depth="2" NCoef="0" IVar="-1" Cut="0.0000000000000000e+00" cType="1" res="1.0357457213103771e-03" rms="4.0854784846305847e-01" purity="7.7693134546279907e-01" nType="-99"/>
        </Node>
        <Node pos="r" depth="1" NCoef="0" IVar="7" Cut="1.5641346573829651e-01" cType="1" res="-1.0535400360822678e-02" rms="4.4957467913627625e-01" purity="4.5420828461647034e-01" nType="0">
          <Node pos="l" depth="2" NCoef="0" IVar="-1" Cut="0.0000000000000000e+00" cType="1" res="1.9734613597393036e-03" rms="4.4671726226806641e-01" purity="3.9331728219985962e-01" nType="-99"/>
          <Node pos="r" depth="2" NCoef="0" IVar="-1" Cut="0.0000000000000000e+00" cType="1" res="-7.7165145194157958e-04" rms="4.4950664043426514e-01" purity="4.6267163753509521e-01" nType="-99"/>
        </Node>
      </Node>
    </BinaryTree>
    <BinaryTree type="DecisionTree" boostWeight="1.0000000000000000e+00" itree="472">
      <Node pos="s" depth="0" NCoef="0" IVar="7" Cut="4.2523908615112305e-01" cType="1" res="5.9471442364156246e-03" rms="4.4951820373535156e-01" purity="5.0632047653198242e-01" nType="0">
        <Node pos="l" depth="1" NCoef="0" IVar="2" Cut="9.3346297740936279e-01" cType="1" res="-5.8234292082488537e-03" rms="4.4207447767257690e-01" purity="4.5026242733001709e-01" nType="0">
          <Node pos="l" depth="2" NCoef="0" IVar="-1" Cut="0.0000000000000000e+00" cType="1" res="-1.8816196825355291e-03" rms="3.9969632029533386e-01" purity="2.5394234061241150e-01" nType="-99"/>
          <Node pos="r" depth="2" NCoef="0" IVar="-1" Cut="0.0000000000000000e+00" cType="1" res="2.1984301565680653e-04" rms="4.5468601584434509e-01" purity="5.1505100727081299e-01" nType="-99"/>
        </Node>
        <Node pos="r" depth="1" NCoef="0" IVar="6" Cut="8.0710716247558594e+00" cType="1" res="2.0841527730226517e-02" rms="4.5833128690719604e-01" purity="5.7725590467453003e-01" nType="0">
          <Node pos="l" depth="2" NCoef="0" IVar="-1" Cut="0.0000000000000000e+00" cType="1" res="1.4729885151609778e-03" rms="4.6202373504638672e-01" purity="5.4074847698211670e-01" nType="-99"/>
          <Node pos="r" depth="2" NCoef="0" IVar="-1" Cut="0.0000000000000000e+00" cType="1" res="-1.4456438366323709e-03" rms="4.4270968437194824e-01" purity="6.9391870498657227e-01" nType="-99"/>
        </Node>
      </Node>
    </BinaryTree>
    <BinaryTree type="DecisionTree" boostWeight="1.0000000000000000e+00" itree="473">
      <Node pos="s" depth="0" NCoef="0" IVar="5" Cut="3.5623645782470703e-01" cType="1" res="-6.2073273584246635e-03" rms="4.5026394724845886e-01" purity="4.9213257431983948e-01" nType="0">
        <Node pos="l" depth="1" NCoef="0" IVar="-1" Cut="0.0000000000000000e+00" cType="1" res="1.9612933974713087e-03" rms="4.4900918006896973e-01" purity="6.4240014553070068e-01" nType="-99"/>
        <Node pos="r" depth="1" NCoef="0" IVar="4" Cut="1.1490520238876343e+00" cType="1" res="-9.8719475790858269e-03" rms="4.5012390613555908e-01" purity="4.8160669207572937e-01" nType="0">
          <Node pos="l" depth="2" NCoef="0" IVar="-1" Cut="0.0000000000000000e+00" cType="1" res="-8.7599601829424500e-04" rms="4.6142864227294922e-01" purity="5.7827359437942505e-01" nType="-99"/>
          <Node pos="r" depth="2" NCoef="0" IVar="-1" Cut="0.0000000000000000e+00" cType="1" res="4.2511735227890313e-04" rms="4.3003526329994202e-01" purity="3.2080546021461487e-01" nType="-99"/>
        </Node>
      </Node>
    </BinaryTree>
    <BinaryTree type="DecisionTree" boostWeight="1.0000000000000000e+00" itree="474">
      <Node pos="s" depth="0" NCoef="0" IVar="5" Cut="4.3911960721015930e-01" cType="1" res="7.5538200326263905e-03" rms="4.5244753360748291e-01" purity="5.0504869222640991e-01" nType="0">
        <Node pos="l" depth="1" NCoef="0" IVar="2" Cut="9.5727640390396118e-01" cType="1" res="-4.0559489279985428e-02" rms="4.5986264944076538e-01" purity="5.3918325901031494e-01" nType="0">
          <Node pos="l" depth="2" NCoef="0" IVar="-1" Cut="0.0000000000000000e+00" cType="1" res="-2.8119860216975212e-03" rms="4.7309437394142151e-01" purity="4.2792406678199768e-01" nType="-99"/>
          <Node pos="r" depth="2" NCoef="0" IVar="-1" Cut="0.0000000000000000e+00" cType="1" res="1.5359985991381109e-04" rms="4.3601030111312866e-01" purity="7.0262056589126587e-01" nType="-99"/>
        </Node>
        <Node pos="r" depth="1" NCoef="0" IVar="1" Cut="2.7003593444824219e+00" cType="1" res="1.4649696648120880e-02" rms="4.5090943574905396e-01" purity="5.0001448392868042e-01" nType="0">
          <Node pos="l" depth="2" NCoef="0" IVar="-1" Cut="0.0000000000000000e+00" cType="1" res="8.6210790323093534e-04" rms="4.5979973673820496e-01" purity="5.3074717521667480e-01" nType="-99"/>
          <Node pos="r" depth="2" NCoef="0" IVar="-1" Cut="0.0000000000000000e+00" cType="1" res="-3.4644035622477531e-03" rms="3.2115736603736877e-01" purity="1.3572542369365692e-01" nType="-99"/>
        </Node>
      </Node>
    </BinaryTree>
    <BinaryTree type="DecisionTree" boostWeight="1.0000000000000000e+00" itree="475">
      <Node pos="s" depth="0" NCoef="0" IVar="0" Cut="7.7665931701660156e+01" cType="1" res="-8.3931125700473785e-03" rms="4.5033141970634460e-01" purity="4.9296164512634277e-01" nType="0">
        <Node pos="l" depth="1" NCoef="0" IVar="3" Cut="-5.6762836873531342e-02" cType="1" res="-2.4803571403026581e-02" rms="4.5224645733833313e-01" purity="4.3754249811172485e-01" nType="0">
          <Node pos="l" depth="2" NCoef="0" IVar="-1" Cut="0.0000000000000000e+00" cType="1" res="2.9004915268160403e-04" rms="4.4201347231864929e-01" purity="4.1233611106872559e-01" nType="-99"/>
          <Node pos="r" depth="2" NCoef="0" IVar="-1" Cut="0.0000000000000000e+00" cType="1" res="-1.5209020348265767e-03" rms="4.5578920841217041e-01" purity="4.4796103239059448e-01" nType="-99"/>
        </Node>
        <Node pos="r" depth="1" NCoef="0" IVar="7" Cut="2.4558372795581818e-01" cType="1" res="9.5718232914805412e-03" rms="4.4753623008728027e-01" purity="5.5363035202026367e-01" nType="0">
          <Node pos="l" depth="2" NCoef="0" IVar="-1" Cut="0.0000000000000000e+00" cType="1" res="-8.6392293451353908e-04" rms="4.3117806315422058e-01" purity="4.4355937838554382e-01" nType="-99"/>
          <Node pos="r" depth="2" NCoef="0" IVar="-1" Cut="0.0000000000000000e+00" cType="1" res="8.8838808005675673e-04" rms="4.5295265316963196e-01" purity="5.9394192695617676e-01" nType="-99"/>
        </Node>
      </Node>
    </BinaryTree>
    <BinaryTree type="DecisionTree" boostWeight="1.0000000000000000e+00" itree="476">
      <Node pos="s" depth="0" NCoef="0" IVar="5" Cut="7.2874766588211060e-01" cType="1" res="-6.6096603404730558e-04" rms="4.5048570632934570e-01" purity="4.9874284863471985e-01" nType="0">
        <Node pos="l" depth="1" NCoef="0" IVar="0" Cut="6.9022964477539062e+01" cType="1" res="1.6478294506669044e-02" rms="4.5960414409637451e-01" purity="5.8277779817581177e-01" nType="0">
          <Node pos="l" depth="2" NCoef="0" IVar="-1" Cut="0.0000000000000000e+00" cType="1" res="1.5492346137762070e-03" rms="4.6661606431007385e-01" purity="5.5666959285736084e-01" nType="-99"/>
          <Node pos="r" depth="2" NCoef="0" IVar="-1" Cut="0.0000000000000000e+00" cType="1" res="-2.0264608610887080e-04" rms="4.5207017660140991e-01" purity="6.0663336515426636e-01" nType="-99"/>
        </Node>
        <Node pos="r" depth="1" NCoef="0" IVar="0" Cut="5.7820724487304688e+01" cType="1" res="-1.5223444439470768e-02" rms="4.4206872582435608e-01" purity="4.2734199762344360e-01" nType="0">
          <Node pos="l" depth="2" NCoef="0" IVar="-1" Cut="0.0000000000000000e+00" cType="1" res="-2.2875855211168528e-03" rms="4.2601618170738220e-01" purity="3.2418790459632874e-01" nType="-99"/>
          <Node pos="r" depth="2" NCoef="0" IVar="-1" Cut="0.0000000000000000e+00" cType="1" res="-4.6558601752622053e-05" rms="4.4811311364173889e-01" purity="4.7209790349006653e-01" nType="-99"/>
        </Node>
      </Node>
    </BinaryTree>
    <BinaryTree type="DecisionTree" boostWeight="1.0000000000000000e+00" itree="477">
      <Node pos="s" depth="0" NCoef="0" IVar="1" Cut="1.7682175636291504e+00" cType="1" res="-6.3398368656635284e-03" rms="4.5192921161651611e-01" purity="4.9744790792465210e-01" nType="0">
        <Node pos="l" depth="1" NCoef="0" IVar="-1" Cut="0.0000000000000000e+00" cType="1" res="-2.2810602094978094e-03" rms="4.5213258266448975e-01" purity="4.6319243311882019e-01" nType="-99"/>
        <Node pos="r" depth="1" NCoef="0" IVar="1" Cut="2.5702040195465088e+00" cType="1" res="-1.0043139336630702e-03" rms="4.5151361823081970e-01" purity="5.0039249658584595e-01" nType="0">
          <Node pos="l" depth="2" NCoef="0" IVar="-1" Cut="0.0000000000000000e+00" cType="1" res="2.3753967252559960e-04" rms="4.6196034550666809e-01" purity="5.4630255699157715e-01" nType="-99"/>
          <Node pos="r" depth="2" NCoef="0" IVar="-1" Cut="0.0000000000000000e+00" cType="1" res="-3.0892181675881147e-03" rms="3.6364686489105225e-01" purity="1.6827185451984406e-01" nType="-99"/>
        </Node>
      </Node>
    </BinaryTree>
    <BinaryTree type="DecisionTree" boostWeight="1.0000000000000000e+00" itree="478">
      <Node pos="s" depth="0" NCoef="0" IVar="4" Cut="1.1682746410369873e+00" cType="1" res="9.6758427098393440e-03" rms="4.5289340615272522e-01" purity="5.0921589136123657e-01" nType="0">
        <Node pos="l" depth="1" NCoef="0" IVar="3" Cut="-4.3099895119667053e-02" cType="1" res="-5.2353722276166081e-04" rms="4.5811790227890015e-01" purity="5.9223091602325439e-01" nType="0">
          <Node pos="l" depth="2" NCoef="0" IVar="-1" Cut="0.0000000000000000e+00" cType="1" res="1.5576151199638844e-03" rms="4.6079251170158386e-01" purity="6.2773835659027100e-01" nType="-99"/>
          <Node pos="r" depth="2" NCoef="0" IVar="-1" Cut="0.0000000000000000e+00" cType="1" res="-6.3643592875450850e-04" rms="4.5622745156288147e-01" purity="5.7854032516479492e-01" nType="-99"/>
        </Node>
        <Node pos="r" depth="1" NCoef="0" IVar="3" Cut="-2.9095642268657684e-02" cType="1" res="3.0270574614405632e-02" rms="4.4143807888031006e-01" purity="3.4159082174301147e-01" nType="0">
          <Node pos="l" depth="2" NCoef="0" IVar="-1" Cut="0.0000000000000000e+00" cType="1" res="1.0369496885687113e-04" rms="4.2985761165618896e-01" purity="3.0190673470497131e-01" nType="-99"/>
          <Node pos="r" depth="2" NCoef="0" IVar="-1" Cut="0.0000000000000000e+00" cType="1" res="3.4101638011634350e-03" rms="4.5432695746421814e-01" purity="3.9773622155189514e-01" nType="-99"/>
        </Node>
      </Node>
    </BinaryTree>
    <BinaryTree type="DecisionTree" boostWeight="1.0000000000000000e+00" itree="479">
      <Node pos="s" depth="0" NCoef="0" IVar="0" Cut="1.0200418090820312e+02" cType="1" res="7.6300394721329212e-03" rms="4.4838565587997437e-01" purity="5.0464951992034912e-01" nType="0">
        <Node pos="l" depth="1" NCoef="0" IVar="0" Cut="9.3845993041992188e+01" cType="1" res="-6.5754065290093422e-03" rms="4.5334392786026001e-01" purity="4.6493008732795715e-01" nType="0">
          <Node pos="l" depth="2" NCoef="0" IVar="-1" Cut="0.0000000000000000e+00" cType="1" res="-4.4577140215551481e-05" rms="4.5189058780670166e-01" purity="4.6358361840248108e-01" nType="-99"/>
          <Node pos="r" depth="2" NCoef="0" IVar="-1" Cut="0.0000000000000000e+00" cType="1" res="-2.8356339316815138e-03" rms="4.6434184908866882e-01" purity="4.7905623912811279e-01" nType="-99"/>
        </Node>
        <Node pos="r" depth="1" NCoef="0" IVar="7" Cut="1.9482232630252838e-01" cType="1" res="4.4346433132886887e-02" rms="4.3315568566322327e-01" purity="6.0731106996536255e-01" nType="0">
          <Node pos="l" depth="2" NCoef="0" IVar="-1" Cut="0.0000000000000000e+00" cType="1" res="4.3503199703991413e-03" rms="4.2106670141220093e-01" purity="5.4447859525680542e-01" nType="-99"/>
          <Node pos="r" depth="2" NCoef="0" IVar="-1" Cut="0.0000000000000000e+00" cType="1" res="1.5451669460162520e-03" rms="4.3498674035072327e-01" purity="6.2102907896041870e-01" nType="-99"/>
        </Node>
      </Node>
    </BinaryTree>
    <BinaryTree type="DecisionTree" boostWeight="1.0000000000000000e+00" itree="480">
      <Node pos="s" depth="0" NCoef="0" IVar="5" Cut="1.1651227474212646e+00" cType="1" res="-2.5444771163165569e-03" rms="4.5082318782806396e-01" purity="4.9968194961547852e-01" nType="0">
        <Node pos="l" depth="1" NCoef="0" IVar="7" Cut="6.1198967695236206e-01" cType="1" res="2.1086770575493574e-03" rms="4.5079708099365234e-01" purity="5.1487332582473755e-01" nType="0">
          <Node pos="l" depth="2" NCoef="0" IVar="-1" Cut="0.0000000000000000e+00" cType="1" res="-1.8973031546920538e-04" rms="4.5227888226509094e-01" purity="4.9161165952682495e-01" nType="-99"/>
          <Node pos="r" depth="2" NCoef="0" IVar="-1" Cut="0.0000000000000000e+00" cType="1" res="1.3912246795371175e-03" rms="4.4225472211837769e-01" purity="6.2722325325012207e-01" nType="-99"/>
        </Node>
        <Node pos="r" depth="1" NCoef="0" IVar="-1" Cut="0.0000000000000000e+00" cType="1" res="-2.4082954041659832e-03" rms="4.4801440834999084e-01" purity="3.3497658371925354e-01" nType="-99"/>
      </Node>
    </BinaryTree>
    <BinaryTree type="DecisionTree" boostWeight="1.0000000000000000e+00" itree="481">
      <Node pos="s" depth="0" NCoef="0" IVar="3" Cut="1.3404774665832520e-01" cType="1" res="2.0786686800420284e-03" rms="4.4803434610366821e-01" purity="5.0051516294479370e-01" nType="0">
        <Node pos="l" depth="1" NCoef="0" IVar="5" Cut="6.7595237493515015e-01" cType="1" res="-4.8504527658224106e-03" rms="4.4914025068283081e-01" purity="4.7401183843612671e-01" nType="0">
          <Node pos="l" depth="2" NCoef="0" IVar="-1" Cut="0.0000000000000000e+00" cType="1" res="8.6719804676249623e-04" rms="4.5436874032020569e-01" purity="5.8909863233566284e-01" nType="-99"/>
          <Node pos="r" depth="2" NCoef="0" IVar="-1" Cut="0.0000000000000000e+00" cType="1" res="-1.0805733036249876e-03" rms="4.4445726275444031e-01" purity="3.9185422658920288e-01" nType="-99"/>
        </Node>
        <Node pos="r" depth="1" NCoef="0" IVar="3" Cut="1.6978695988655090e-01" cType="1" res="3.0162155628204346e-02" rms="4.4241413474082947e-01" purity="6.0793209075927734e-01" nType="0">
          <Node pos="l" depth="2" NCoef="0" IVar="-1" Cut="0.0000000000000000e+00" cType="1" res="3.3105118200182915e-03" rms="4.3625184893608093e-01" purity="6.2796825170516968e-01" nType="-99"/>
          <Node pos="r" depth="2" NCoef="0" IVar="-1" Cut="0.0000000000000000e+00" cType="1" res="4.6750009641982615e-04" rms="4.4343745708465576e-01" purity="5.9969538450241089e-01" nType="-99"/>
        </Node>
      </Node>
    </BinaryTree>
    <BinaryTree type="DecisionTree" boostWeight="1.0000000000000000e+00" itree="482">
      <Node pos="s" depth="0" NCoef="0" IVar="6" Cut="5.2796964645385742e+00" cType="1" res="1.2267715297639370e-02" rms="4.4971680641174316e-01" purity="5.1781100034713745e-01" nType="0">
        <Node pos="l" depth="1" NCoef="0" IVar="5" Cut="8.4106510877609253e-01" cType="1" res="-3.8744524121284485e-02" rms="4.2878985404968262e-01" purity="2.3932579159736633e-01" nType="0">
          <Node pos="l" depth="2" NCoef="0" IVar="-1" Cut="0.0000000000000000e+00" cType="1" res="-2.8794799000024796e-03" rms="4.4185906648635864e-01" purity="2.6585185527801514e-01" nType="-99"/>
          <Node pos="r" depth="2" NCoef="0" IVar="-1" Cut="0.0000000000000000e+00" cType="1" res="-6.0381478397175670e-04" rms="4.1327902674674988e-01" purity="2.1255591511726379e-01" nType="-99"/>
        </Node>
        <Node pos="r" depth="1" NCoef="0" IVar="2" Cut="9.2855209112167358e-01" cType="1" res="1.8233582377433777e-02" rms="4.5172485709190369e-01" purity="5.5037975311279297e-01" nType="0">
          <Node pos="l" depth="2" NCoef="0" IVar="-1" Cut="0.0000000000000000e+00" cType="1" res="3.5798784811049700e-03" rms="4.7151520848274231e-01" purity="4.5190364122390747e-01" nType="-99"/>
          <Node pos="r" depth="2" NCoef="0" IVar="-1" Cut="0.0000000000000000e+00" cType="1" res="5.3773168474435806e-04" rms="4.4937413930892944e-01" purity="5.5957108736038208e-01" nType="-99"/>
        </Node>
      </Node>
    </BinaryTree>
    <BinaryTree type="DecisionTree" boostWeight="1.0000000000000000e+00" itree="483">
      <Node pos="s" depth="0" NCoef="0" IVar="6" Cut="8.9191064834594727e+00" cType="1" res="-7.5280894525349140e-03" rms="4.4745951890945435e-01" purity="4.8731255531311035e-01" nType="0">
        <Node pos="l" depth="1" NCoef="0" IVar="1" Cut="2.0969023704528809e+00" cType="1" res="-1.2717140838503838e-02" rms="4.5161262154579163e-01" purity="4.6202594041824341e-01" nType="0">
          <Node pos="l" depth="2" NCoef="0" IVar="-1" Cut="0.0000000000000000e+00" cType="1" res="3.2360418117605150e-04" rms="4.5778346061706543e-01" purity="5.7076478004455566e-01" nType="-99"/>
          <Node pos="r" depth="2" NCoef="0" IVar="-1" Cut="0.0000000000000000e+00" cType="1" res="-1.2864447198808193e-03" rms="4.4644448161125183e-01" purity="3.8259428739547729e-01" nType="-99"/>
        </Node>
        <Node pos="r" depth="1" NCoef="0" IVar="-1" Cut="0.0000000000000000e+00" cType="1" res="2.4919833522289991e-03" rms="3.9503070712089539e-01" purity="7.6280981302261353e-01" nType="-99"/>
      </Node>
    </BinaryTree>
    <BinaryTree type="DecisionTree" boostWeight="1.0000000000000000e+00" itree="484">
      <Node pos="s" depth="0" NCoef="0" IVar="3" Cut="1.3161587715148926e-01" cType="1" res="-4.0660146623849869e-03" rms="4.5236161351203918e-01" purity="4.9398082494735718e-01" nType="0">
        <Node pos="l" depth="1" NCoef="0" IVar="3" Cut="2.5278765708208084e-02" cType="1" res="-1.2742197141051292e-02" rms="4.5497164130210876e-01" purity="4.6651223301887512e-01" nType="0">
          <Node pos="l" depth="2" NCoef="0" IVar="-1" Cut="0.0000000000000000e+00" cType="1" res="1.8529081717133522e-04" rms="4.5463618636131287e-01" purity="4.6972736716270447e-01" nType="-99"/>
          <Node pos="r" depth="2" NCoef="0" IVar="-1" Cut="0.0000000000000000e+00" cType="1" res="-2.3347195237874985e-03" rms="4.5316079258918762e-01" purity="4.5867812633514404e-01" nType="-99"/>
        </Node>
        <Node pos="r" depth="1" NCoef="0" IVar="0" Cut="5.8822982788085938e+01" cType="1" res="3.3256638795137405e-02" rms="4.3900686502456665e-01" purity="6.1214369535446167e-01" nType="0">
          <Node pos="l" depth="2" NCoef="0" IVar="-1" Cut="0.0000000000000000e+00" cType="1" res="6.7880369897466153e-05" rms="4.5987343788146973e-01" purity="5.1426321268081665e-01" nType="-99"/>
          <Node pos="r" depth="2" NCoef="0" IVar="-1" Cut="0.0000000000000000e+00" cType="1" res="2.5074107106775045e-03" rms="4.2245727777481079e-01" purity="6.8037080764770508e-01" nType="-99"/>
        </Node>
      </Node>
    </BinaryTree>
    <BinaryTree type="DecisionTree" boostWeight="1.0000000000000000e+00" itree="485">
      <Node pos="s" depth="0" NCoef="0" IVar="2" Cut="9.1796708106994629e-01" cType="1" res="4.9708043225109577e-03" rms="4.5379403233528137e-01" purity="5.0292396545410156e-01" nType="0">
        <Node pos="l" depth="1" NCoef="0" IVar="-1" Cut="0.0000000000000000e+00" cType="1" res="2.5218771770596504e-03" rms="4.5490738749504089e-01" purity="3.4770512580871582e-01" nType="-99"/>
        <Node pos="r" depth="1" NCoef="0" IVar="2" Cut="9.2842513322830200e-01" cType="1" res="-3.5911556915380061e-04" rms="4.5334967970848083e-01" purity="5.1943391561508179e-01" nType="0">
          <Node pos="l" depth="2" NCoef="0" IVar="-1" Cut="0.0000000000000000e+00" cType="1" res="-2.0964539144188166e-03" rms="4.4046714901924133e-01" purity="3.0187821388244629e-01" nType="-99"/>
          <Node pos="r" depth="2" NCoef="0" IVar="-1" Cut="0.0000000000000000e+00" cType="1" res="2.2416151477955282e-04" rms="4.5455142855644226e-01" purity="5.4541230201721191e-01" nType="-99"/>
        </Node>
      </Node>
    </BinaryTree>
    <BinaryTree type="DecisionTree" boostWeight="1.0000000000000000e+00" itree="486">
      <Node pos="s" depth="0" NCoef="0" IVar="5" Cut="4.4977527856826782e-01" cType="1" res="-3.7094927392899990e-04" rms="4.4891163706779480e-01" purity="4.9755841493606567e-01" nType="0">
        <Node pos="l" depth="1" NCoef="0" IVar="7" Cut="4.8552557826042175e-01" cType="1" res="-5.4131083190441132e-02" rms="4.5370751619338989e-01" purity="5.3588485717773438e-01" nType="0">
          <Node pos="l" depth="2" NCoef="0" IVar="-1" Cut="0.0000000000000000e+00" cType="1" res="-4.5103202573955059e-03" rms="4.5841059088706970e-01" purity="4.6529015898704529e-01" nType="-99"/>
          <Node pos="r" depth="2" NCoef="0" IVar="-1" Cut="0.0000000000000000e+00" cType="1" res="2.9412910225801170e-04" rms="4.4018167257308960e-01" purity="6.2315332889556885e-01" nType="-99"/>
        </Node>
        <Node pos="r" depth="1" NCoef="0" IVar="3" Cut="-9.2381939291954041e-02" cType="1" res="7.7603757381439209e-03" rms="4.4762000441551208e-01" purity="4.9176147580146790e-01" nType="0">
          <Node pos="l" depth="2" NCoef="0" IVar="-1" Cut="0.0000000000000000e+00" cType="1" res="2.4808682501316071e-03" rms="4.4211480021476746e-01" purity="4.2470419406890869e-01" nType="-99"/>
          <Node pos="r" depth="2" NCoef="0" IVar="-1" Cut="0.0000000000000000e+00" cType="1" res="3.2507119613001123e-05" rms="4.4809213280677795e-01" purity="5.0245928764343262e-01" nType="-99"/>
        </Node>
      </Node>
    </BinaryTree>
    <BinaryTree type="DecisionTree" boostWeight="1.0000000000000000e+00" itree="487">
      <Node pos="s" depth="0" NCoef="0" IVar="0" Cut="4.4097812652587891e+01" cType="1" res="7.2290701791644096e-03" rms="4.4839081168174744e-01" purity="5.0563871860504150e-01" nType="0">
        <Node pos="l" depth="1" NCoef="0" IVar="2" Cut="9.4292283058166504e-01" cType="1" res="-3.8737569004297256e-02" rms="4.4555088877677917e-01" purity="3.5477897524833679e-01" nType="0">
          <Node pos="l" depth="2" NCoef="0" IVar="-1" Cut="0.0000000000000000e+00" cType="1" res="9.5749920001253486e-04" rms="4.5147019624710083e-01" purity="2.9362958669662476e-01" nType="-99"/>
          <Node pos="r" depth="2" NCoef="0" IVar="-1" Cut="0.0000000000000000e+00" cType="1" res="-3.4884160850197077e-03" rms="4.3709295988082886e-01" purity="3.9618542790412903e-01" nType="-99"/>
        </Node>
        <Node pos="r" depth="1" NCoef="0" IVar="3" Cut="-3.9797794073820114e-02" cType="1" res="1.5178757719695568e-02" rms="4.4840246438980103e-01" purity="5.3172916173934937e-01" nType="0">
          <Node pos="l" depth="2" NCoef="0" IVar="-1" Cut="0.0000000000000000e+00" cType="1" res="1.7144976882264018e-03" rms="4.4771376252174377e-01" purity="5.0556659698486328e-01" nType="-99"/>
          <Node pos="r" depth="2" NCoef="0" IVar="-1" Cut="0.0000000000000000e+00" cType="1" res="7.8011134974076413e-06" rms="4.4819870591163635e-01" purity="5.4845035076141357e-01" nType="-99"/>
        </Node>
      </Node>
    </BinaryTree>
    <BinaryTree type="DecisionTree" boostWeight="1.0000000000000000e+00" itree="488">
      <Node pos="s" depth="0" NCoef="0" IVar="2" Cut="9.4249498844146729e-01" cType="1" res="-3.6250648554414511e-03" rms="4.5338335633277893e-01" purity="4.9588936567306519e-01" nType="0">
        <Node pos="l" depth="1" NCoef="0" IVar="3" Cut="1.5663185715675354e-01" cType="1" res="-2.5350641459226608e-02" rms="4.5298287272453308e-01" purity="3.4155839681625366e-01" nType="0">
          <Node pos="l" depth="2" NCoef="0" IVar="-1" Cut="0.0000000000000000e+00" cType="1" res="-5.5601168423891068e-04" rms="4.5033258199691772e-01" purity="3.3903953433036804e-01" nType="-99"/>
          <Node pos="r" depth="2" NCoef="0" IVar="-1" Cut="0.0000000000000000e+00" cType="1" res="-3.0245962552726269e-03" rms="4.6126005053520203e-01" purity="3.5559946298599243e-01" nType="-99"/>
        </Node>
        <Node pos="r" depth="1" NCoef="0" IVar="7" Cut="6.6897219419479370e-01" cType="1" res="9.3627022579312325e-03" rms="4.5312538743019104e-01" purity="5.8815002441406250e-01" nType="0">
          <Node pos="l" depth="2" NCoef="0" IVar="-1" Cut="0.0000000000000000e+00" cType="1" res="6.7386974114924669e-04" rms="4.5064064860343933e-01" purity="5.8525323867797852e-01" nType="-99"/>
          <Node pos="r" depth="2" NCoef="0" IVar="-1" Cut="0.0000000000000000e+00" cType="1" res="-1.9791810773313046e-03" rms="4.7203820943832397e-01" purity="6.1473566293716431e-01" nType="-99"/>
        </Node>
      </Node>
    </BinaryTree>
    <BinaryTree type="DecisionTree" boostWeight="1.0000000000000000e+00" itree="489">
      <Node pos="s" depth="0" NCoef="0" IVar="7" Cut="6.4496558904647827e-01" cType="1" res="4.3870767694897950e-04" rms="4.5488059520721436e-01" purity="5.0195640325546265e-01" nType="0">
        <Node pos="l" depth="1" NCoef="0" IVar="4" Cut="7.1719413995742798e-01" cType="1" res="-6.8506463430821896e-03" rms="4.5599177479743958e-01" purity="4.8323976993560791e-01" nType="0">
          <Node pos="l" depth="2" NCoef="0" IVar="-1" Cut="0.0000000000000000e+00" cType="1" res="-1.6434188000857830e-03" rms="4.6443894505500793e-01" purity="6.1136430501937866e-01" nType="-99"/>
          <Node pos="r" depth="2" NCoef="0" IVar="-1" Cut="0.0000000000000000e+00" cType="1" res="8.7827851530164480e-05" rms="4.5320174098014832e-01" purity="4.4730320572853088e-01" nType="-99"/>
        </Node>
        <Node pos="r" depth="1" NCoef="0" IVar="0" Cut="6.0350299835205078e+01" cType="1" res="5.3260371088981628e-02" rms="4.4317808747291565e-01" purity="6.3758498430252075e-01" nType="0">
          <Node pos="l" depth="2" NCoef="0" IVar="-1" Cut="0.0000000000000000e+00" cType="1" res="7.0721791416872293e-05" rms="4.6606722474098206e-01" purity="5.2260762453079224e-01" nType="-99"/>
          <Node pos="r" depth="2" NCoef="0" IVar="-1" Cut="0.0000000000000000e+00" cType="1" res="3.9586508646607399e-03" rms="4.2043805122375488e-01" purity="7.2608935832977295e-01" nType="-99"/>
        </Node>
      </Node>
    </BinaryTree>
    <BinaryTree type="DecisionTree" boostWeight="1.0000000000000000e+00" itree="490">
      <Node pos="s" depth="0" NCoef="0" IVar="2" Cut="9.5697677135467529e-01" cType="1" res="3.4722026903182268e-03" rms="4.4980636239051819e-01" purity="5.0200420618057251e-01" nType="0">
        <Node pos="l" depth="1" NCoef="0" IVar="4" Cut="1.5141793489456177e+00" cType="1" res="-1.1253979057073593e-02" rms="4.6017992496490479e-01" purity="4.0033432841300964e-01" nType="0">
          <Node pos="l" depth="2" NCoef="0" IVar="-1" Cut="0.0000000000000000e+00" cType="1" res="-8.0176239134743810e-04" rms="4.6998104453086853e-01" purity="4.3249887228012085e-01" nType="-99"/>
          <Node pos="r" depth="2" NCoef="0" IVar="-1" Cut="0.0000000000000000e+00" cType="1" res="2.5659177917987108e-03" rms="3.9703801274299622e-01" purity="2.1936956048011780e-01" nType="-99"/>
        </Node>
        <Node pos="r" depth="1" NCoef="0" IVar="3" Cut="6.9854393601417542e-02" cType="1" res="2.5785844773054123e-02" rms="4.3266120553016663e-01" purity="6.5605825185775757e-01" nType="0">
          <Node pos="l" depth="2" NCoef="0" IVar="-1" Cut="0.0000000000000000e+00" cType="1" res="4.8052941565401852e-04" rms="4.4112190604209900e-01" purity="6.1245429515838623e-01" nType="-99"/>
          <Node pos="r" depth="2" NCoef="0" IVar="-1" Cut="0.0000000000000000e+00" cType="1" res="2.8031847905367613e-03" rms="4.1136276721954346e-01" purity="7.5239974260330200e-01" nType="-99"/>
        </Node>
      </Node>
    </BinaryTree>
    <BinaryTree type="DecisionTree" boostWeight="1.0000000000000000e+00" itree="491">
      <Node pos="s" depth="0" NCoef="0" IVar="0" Cut="1.4412460327148438e+02" cType="1" res="1.0600530367810279e-04" rms="4.5036694407463074e-01" purity="4.9951124191284180e-01" nType="0">
        <Node pos="l" depth="1" NCoef="0" IVar="0" Cut="1.0741576385498047e+02" cType="1" res="3.6036963574588299e-03" rms="4.5009019970893860e-01" purity="5.0400453805923462e-01" nType="0">
          <Node pos="l" depth="2" NCoef="0" IVar="-1" Cut="0.0000000000000000e+00" cType="1" res="-1.7508631572127342e-04" rms="4.5584574341773987e-01" purity="4.7758415341377258e-01" nType="-99"/>
          <Node pos="r" depth="2" NCoef="0" IVar="-1" Cut="0.0000000000000000e+00" cType="1" res="1.7891628667712212e-03" rms="4.2144495248794556e-01" purity="6.2308108806610107e-01" nType="-99"/>
        </Node>
        <Node pos="r" depth="1" NCoef="0" IVar="-1" Cut="0.0000000000000000e+00" cType="1" res="-2.2478664759546518e-03" rms="4.5143771171569824e-01" purity="4.3867143988609314e-01" nType="-99"/>
      </Node>
    </BinaryTree>
    <BinaryTree type="DecisionTree" boostWeight="1.0000000000000000e+00" itree="492">
      <Node pos="s" depth="0" NCoef="0" IVar="5" Cut="7.2294032573699951e-01" cType="1" res="-2.3000049404799938e-03" rms="4.5180499553680420e-01" purity="4.9498078227043152e-01" nType="0">
        <Node pos="l" depth="1" NCoef="0" IVar="5" Cut="5.9770208597183228e-01" cType="1" res="1.7252162098884583e-02" rms="4.5702794194221497e-01" purity="5.7884091138839722e-01" nType="0">
          <Node pos="l" depth="2" NCoef="0" IVar="-1" Cut="0.0000000000000000e+00" cType="1" res="-1.1512387573020533e-05" rms="4.6185430884361267e-01" purity="5.7304394245147705e-01" nType="-99"/>
          <Node pos="r" depth="2" NCoef="0" IVar="-1" Cut="0.0000000000000000e+00" cType="1" res="2.1364220883697271e-03" rms="4.4624188542366028e-01" purity="5.8948564529418945e-01" nType="-99"/>
        </Node>
        <Node pos="r" depth="1" NCoef="0" IVar="2" Cut="9.1950213909149170e-01" cType="1" res="-1.8741879612207413e-02" rms="4.4670379161834717e-01" purity="4.2446085810661316e-01" nType="0">
          <Node pos="l" depth="2" NCoef="0" IVar="-1" Cut="0.0000000000000000e+00" cType="1" res="2.1172417327761650e-03" rms="4.3216103315353394e-01" purity="2.9621773958206177e-01" nType="-99"/>
          <Node pos="r" depth="2" NCoef="0" IVar="-1" Cut="0.0000000000000000e+00" cType="1" res="-1.2517386348918080e-03" rms="4.4809415936470032e-01" purity="4.4325998425483704e-01" nType="-99"/>
        </Node>
      </Node>
    </BinaryTree>
    <BinaryTree type="DecisionTree" boostWeight="1.0000000000000000e+00" itree="493">
      <Node pos="s" depth="0" NCoef="0" IVar="2" Cut="9.1013860702514648e-01" cType="1" res="2.3270244710147381e-03" rms="4.5152840018272400e-01" purity="5.0444585084915161e-01" nType="0">
        <Node pos="l" depth="1" NCoef="0" IVar="-1" Cut="0.0000000000000000e+00" cType="1" res="-3.3534567337483168e-03" rms="3.9164823293685913e-01" purity="1.9633078575134277e-01" nType="-99"/>
        <Node pos="r" depth="1" NCoef="0" IVar="5" Cut="4.6831002831459045e-01" cType="1" res="6.5890648402273655e-03" rms="4.5447620749473572e-01" purity="5.2272379398345947e-01" nType="0">
          <Node pos="l" depth="2" NCoef="0" IVar="-1" Cut="0.0000000000000000e+00" cType="1" res="-1.0663743596524000e-03" rms="4.6224641799926758e-01" purity="5.6152284145355225e-01" nType="-99"/>
          <Node pos="r" depth="2" NCoef="0" IVar="-1" Cut="0.0000000000000000e+00" cType="1" res="5.6714325910434127e-04" rms="4.5278385281562805e-01" purity="5.1578170061111450e-01" nType="-99"/>
        </Node>
      </Node>
    </BinaryTree>
    <BinaryTree type="DecisionTree" boostWeight="1.0000000000000000e+00" itree="494">
      <Node pos="s" depth="0" NCoef="0" IVar="5" Cut="5.8710783720016479e-01" cType="1" res="-7.9130493104457855e-03" rms="4.5389914512634277e-01" purity="4.9253940582275391e-01" nType="0">
        <Node pos="l" depth="1" NCoef="0" IVar="1" Cut="2.0690054893493652e+00" cType="1" res="-3.2315071672201157e-02" rms="4.5962360501289368e-01" purity="5.4891330003738403e-01" nType="0">
          <Node pos="l" depth="2" NCoef="0" IVar="-1" Cut="0.0000000000000000e+00" cType="1" res="-2.6077989605255425e-04" rms="4.5665070414543152e-01" purity="6.1547106504440308e-01" nType="-99"/>
          <Node pos="r" depth="2" NCoef="0" IVar="-1" Cut="0.0000000000000000e+00" cType="1" res="-3.0370769090950489e-03" rms="4.6130141615867615e-01" purity="4.5501038432121277e-01" nType="-99"/>
        </Node>
        <Node pos="r" depth="1" NCoef="0" IVar="6" Cut="8.2497425079345703e+00" cType="1" res="1.1949907056987286e-03" rms="4.5140597224235535e-01" purity="4.7149789333343506e-01" nType="0">
          <Node pos="l" depth="2" NCoef="0" IVar="-1" Cut="0.0000000000000000e+00" cType="1" res="4.7810093383304775e-04" rms="4.5286121964454651e-01" purity="4.3900981545448303e-01" nType="-99"/>
          <Node pos="r" depth="2" NCoef="0" IVar="-1" Cut="0.0000000000000000e+00" cType="1" res="-2.1604169160127640e-03" rms="4.4176980853080750e-01" purity="6.2324172258377075e-01" nType="-99"/>
        </Node>
      </Node>
    </BinaryTree>
    <BinaryTree type="DecisionTree" boostWeight="1.0000000000000000e+00" itree="495">
      <Node pos="s" depth="0" NCoef="0" IVar="6" Cut="5.4023957252502441e+00" cType="1" res="-2.5011491961777210e-03" rms="4.4925147294998169e-01" purity="4.9209997057914734e-01" nType="0">
        <Node pos="l" depth="1" NCoef="0" IVar="4" Cut="1.1471673250198364e+00" cType="1" res="-3.8075678050518036e-02" rms="4.1765436530113220e-01" purity="2.4698884785175323e-01" nType="0">
          <Node pos="l" depth="2" NCoef="0" IVar="-1" Cut="0.0000000000000000e+00" cType="1" res="-3.4376168623566628e-03" rms="4.3728634715080261e-01" purity="2.8424492478370667e-01" nType="-99"/>
          <Node pos="r" depth="2" NCoef="0" IVar="-1" Cut="0.0000000000000000e+00" cType="1" res="1.0327554773539305e-03" rms="3.8674077391624451e-01" purity="2.0417495071887970e-01" nType="-99"/>
        </Node>
        <Node pos="r" depth="1" NCoef="0" IVar="7" Cut="6.9755989313125610e-01" cType="1" res="3.7578979972749949e-03" rms="4.5429548621177673e-01" purity="5.3522527217864990e-01" nType="0">
          <Node pos="l" depth="2" NCoef="0" IVar="-1" Cut="0.0000000000000000e+00" cType="1" res="-4.1312425310024992e-05" rms="4.5469439029693604e-01" purity="5.2382636070251465e-01" nType="-99"/>
          <Node pos="r" depth="2" NCoef="0" IVar="-1" Cut="0.0000000000000000e+00" cType="1" res="2.6905739214271307e-03" rms="4.4478073716163635e-01" purity="6.8102884292602539e-01" nType="-99"/>
        </Node>
      </Node>
    </BinaryTree>
    <BinaryTree type="DecisionTree" boostWeight="1.0000000000000000e+00" itree="496">
      <Node pos="s" depth="0" NCoef="0" IVar="7" Cut="2.1755734086036682e-01" cType="1" res="3.8434604648500681e-03" rms="4.5390123128890991e-01" purity="5.0735837221145630e-01" nType="0">
        <Node pos="l" depth="1" NCoef="0" IVar="0" Cut="7.6544036865234375e+01" cType="1" res="3.4565903246402740e-02" rms="4.5064091682434082e-01" purity="4.3673688173294067e-01" nType="0">
          <Node pos="l" depth="2" NCoef="0" IVar="-1" Cut="0.0000000000000000e+00" cType="1" res="-7.9911096690921113e-06" rms="4.5280107855796814e-01" purity="3.5149779915809631e-01" nType="-99"/>
          <Node pos="r" depth="2" NCoef="0" IVar="-1" Cut="0.0000000000000000e+00" cType="1" res="2.9601552523672581e-03" rms="4.4630825519561768e-01" purity="5.1452302932739258e-01" nType="-99"/>
        </Node>
        <Node pos="r" depth="1" NCoef="0" IVar="7" Cut="7.1542686223983765e-01" cType="1" res="-3.5698900464922190e-03" rms="4.5437344908714294e-01" purity="5.2439945936203003e-01" nType="0">
          <Node pos="l" depth="2" NCoef="0" IVar="-1" Cut="0.0000000000000000e+00" cType="1" res="-3.4195012995041907e-04" rms="4.5365011692047119e-01" purity="5.1395350694656372e-01" nType="-99"/>
          <Node pos="r" depth="2" NCoef="0" IVar="-1" Cut="0.0000000000000000e+00" cType="1" res="2.2275701630860567e-03" rms="4.5991548895835876e-01" purity="6.6010934114456177e-01" nType="-99"/>
        </Node>
      </Node>
    </BinaryTree>
    <BinaryTree type="DecisionTree" boostWeight="1.0000000000000000e+00" itree="497">
      <Node pos="s" depth="0" NCoef="0" IVar="7" Cut="5.2753311395645142e-01" cType="1" res="-5.9427187079563737e-04" rms="4.4857951998710632e-01" purity="5.0354862213134766e-01" nType="0">
        <Node pos="l" depth="1" NCoef="0" IVar="0" Cut="3.9189701080322266e+01" cType="1" res="-9.6045974642038345e-03" rms="4.4680911302566528e-01" purity="4.6719005703926086e-01" nType="0">
          <Node pos="l" depth="2" NCoef="0" IVar="-1" Cut="0.0000000000000000e+00" cType="1" res="-3.4160234499722719e-03" rms="4.1875249147415161e-01" purity="2.6980155706405640e-01" nType="-99"/>
          <Node pos="r" depth="2" NCoef="0" IVar="-1" Cut="0.0000000000000000e+00" cType="1" res="-1.6411402611993253e-04" rms="4.4902503490447998e-01" purity="4.8652645945549011e-01" nType="-99"/>
        </Node>
        <Node pos="r" depth="1" NCoef="0" IVar="3" Cut="-6.7648544907569885e-02" cType="1" res="2.3352561518549919e-02" rms="4.5237961411476135e-01" purity="6.0017919540405273e-01" nType="0">
          <Node pos="l" depth="2" NCoef="0" IVar="-1" Cut="0.0000000000000000e+00" cType="1" res="-1.0451145935803652e-03" rms="4.5950496196746826e-01" purity="4.9747315049171448e-01" nType="-99"/>
          <Node pos="r" depth="2" NCoef="0" IVar="-1" Cut="0.0000000000000000e+00" cType="1" res="1.4884354313835502e-03" rms="4.4980293512344360e-01" purity="6.2549686431884766e-01" nType="-99"/>
        </Node>
      </Node>
    </BinaryTree>
    <BinaryTree type="DecisionTree" boostWeight="1.0000000000000000e+00" itree="498">
      <Node pos="s" depth="0" NCoef="0" IVar="7" Cut="4.4904229044914246e-01" cType="1" res="-5.9763272292912006e-03" rms="4.5188319683074951e-01" purity="4.9647188186645508e-01" nType="0">
        <Node pos="l" depth="1" NCoef="0" IVar="7" Cut="1.8343487381935120e-01" cType="1" res="-2.2761199623346329e-02" rms="4.4593697786331177e-01" purity="4.4089144468307495e-01" nType="0">
          <Node pos="l" depth="2" NCoef="0" IVar="-1" Cut="0.0000000000000000e+00" cType="1" res="8.0330122727900743e-04" rms="4.4525226950645447e-01" purity="4.0666967630386353e-01" nType="-99"/>
          <Node pos="r" depth="2" NCoef="0" IVar="-1" Cut="0.0000000000000000e+00" cType="1" res="-1.5156440204009414e-03" rms="4.4549569487571716e-01" purity="4.5057454705238342e-01" nType="-99"/>
        </Node>
        <Node pos="r" depth="1" NCoef="0" IVar="2" Cut="9.2815911769866943e-01" cType="1" res="1.8553994596004486e-02" rms="4.5933338999748230e-01" purity="5.7770013809204102e-01" nType="0">
          <Node pos="l" depth="2" NCoef="0" IVar="-1" Cut="0.0000000000000000e+00" cType="1" res="3.2799413893371820e-03" rms="4.6738702058792114e-01" purity="4.4340014457702637e-01" nType="-99"/>
          <Node pos="r" depth="2" NCoef="0" IVar="-1" Cut="0.0000000000000000e+00" cType="1" res="3.1854578992351890e-04" rms="4.5699074864387512e-01" purity="6.0195690393447876e-01" nType="-99"/>
        </Node>
      </Node>
    </BinaryTree>
    <BinaryTree type="DecisionTree" boostWeight="1.0000000000000000e+00" itree="499">
      <Node pos="s" depth="0" NCoef="0" IVar="4" Cut="1.1905624866485596e+00" cType="1" res="-2.2711452096700668e-02" rms="4.5534476637840271e-01" purity="4.7720900177955627e-01" nType="0">
        <Node pos="l" depth="1" NCoef="0" IVar="7" Cut="6.8467140197753906e-01" cType="1" res="-3.5002924501895905e-02" rms="4.6383529901504517e-01" purity="5.5741047859191895e-01" nType="0">
          <Node pos="l" depth="2" NCoef="0" IVar="-1" Cut="0.0000000000000000e+00" cType="1" res="-1.2106966460123658e-03" rms="4.6367889642715454e-01" purity="5.5932551622390747e-01" nType="-99"/>
          <Node pos="r" depth="2" NCoef="0" IVar="-1" Cut="0.0000000000000000e+00" cType="1" res="-3.6115890834480524e-03" rms="4.6187838912010193e-01" purity="5.4122298955917358e-01" nType="-99"/>
        </Node>
        <Node pos="r" depth="1" NCoef="0" IVar="1" Cut="2.1573774814605713e+00" cType="1" res="2.6469407603144646e-03" rms="4.3621456623077393e-01" purity="3.1174638867378235e-01" nType="0">
          <Node pos="l" depth="2" NCoef="0" IVar="-1" Cut="0.0000000000000000e+00" cType="1" res="2.8486079536378384e-03" rms="4.8435053229331970e-01" purity="4.5168346166610718e-01" nType="-99"/>
          <Node pos="r" depth="2" NCoef="0" IVar="-1" Cut="0.0000000000000000e+00" cType="1" res="-5.6289776694029570e-04" rms="4.2408886551856995e-01" purity="2.8204736113548279e-01" nType="-99"/>
        </Node>
      </Node>
    </BinaryTree>
    <BinaryTree type="DecisionTree" boostWeight="1.0000000000000000e+00" itree="500">
      <Node pos="s" depth="0" NCoef="0" IVar="7" Cut="1.5509392321109772e-01" cType="1" res="1.2753411196172237e-02" rms="4.5426651835441589e-01" purity="5.1447284221649170e-01" nType="0">
        <Node pos="l" depth="1" NCoef="0" IVar="-1" Cut="0.0000000000000000e+00" cType="1" res="3.1461424659937620e-03" rms="4.4292643666267395e-01" purity="4.2791619896888733e-01" nType="-99"/>
        <Node pos="r" depth="1" NCoef="0" IVar="0" Cut="1.4017924499511719e+02" cType="1" res="7.4057308956980705e-03" rms="4.5506745576858521e-01" purity="5.2329844236373901e-01" nType="0">
          <Node pos="l" depth="2" NCoef="0" IVar="-1" Cut="0.0000000000000000e+00" cType="1" res="4.8971391515806317e-04" rms="4.5509856939315796e-01" purity="5.2756899595260620e-01" nType="-99"/>
          <Node pos="r" depth="2" NCoef="0" IVar="-1" Cut="0.0000000000000000e+00" cType="1" res="-2.0840950310230255e-03" rms="4.5146217942237854e-01" purity="4.6899101138114929e-01" nType="-99"/>
        </Node>
      </Node>
    </BinaryTree>
    <BinaryTree type="DecisionTree" boostWeight="1.0000000000000000e+00" itree="501">
      <Node pos="s" depth="0" NCoef="0" IVar="3" Cut="1.9484306871891022e-01" cType="1" res="-1.9577108323574066e-03" rms="4.5140460133552551e-01" purity="4.9085345864295959e-01" nType="0">
        <Node pos="l" depth="1" NCoef="0" IVar="3" Cut="1.7557682469487190e-02" cType="1" res="-6.7664645612239838e-03" rms="4.5095381140708923e-01" purity="4.7442442178726196e-01" nType="0">
          <Node pos="l" depth="2" NCoef="0" IVar="-1" Cut="0.0000000000000000e+00" cType="1" res="3.5378869506530464e-04" rms="4.5329806208610535e-01" purity="4.6745356917381287e-01" nType="-99"/>
          <Node pos="r" depth="2" NCoef="0" IVar="-1" Cut="0.0000000000000000e+00" cType="1" res="-1.3192970072850585e-03" rms="4.4614797830581665e-01" purity="4.8560741543769836e-01" nType="-99"/>
        </Node>
        <Node pos="r" depth="1" NCoef="0" IVar="-1" Cut="0.0000000000000000e+00" cType="1" res="1.7715828726068139e-03" rms="4.5315447449684143e-01" purity="6.3704496622085571e-01" nType="-99"/>
      </Node>
    </BinaryTree>
    <BinaryTree type="DecisionTree" boostWeight="1.0000000000000000e+00" itree="502">
      <Node pos="s" depth="0" NCoef="0" IVar="2" Cut="9.1891032457351685e-01" cType="1" res="9.3016335740685463e-03" rms="4.5385134220123291e-01" purity="5.1186305284500122e-01" nType="0">
        <Node pos="l" depth="1" NCoef="0" IVar="3" Cut="-1.3535849284380674e-03" cType="1" res="4.5757863670587540e-02" rms="4.5331481099128723e-01" purity="3.5210257768630981e-01" nType="0">
          <Node pos="l" depth="2" NCoef="0" IVar="-1" Cut="0.0000000000000000e+00" cType="1" res="5.7766335085034370e-03" rms="4.5324608683586121e-01" purity="4.0045437216758728e-01" nType="-99"/>
          <Node pos="r" depth="2" NCoef="0" IVar="-1" Cut="0.0000000000000000e+00" cType="1" res="-8.0045341746881604e-04" rms="4.4347566366195679e-01" purity="3.1052532792091370e-01" nType="-99"/>
        </Node>
        <Node pos="r" depth="1" NCoef="0" IVar="2" Cut="9.2654442787170410e-01" cType="1" res="4.8410785384476185e-03" rms="4.5371586084365845e-01" purity="5.3141033649444580e-01" nType="0">
          <Node pos="l" depth="2" NCoef="0" IVar="-1" Cut="0.0000000000000000e+00" cType="1" res="-2.1222108043730259e-03" rms="4.3835330009460449e-01" purity="2.8367710113525391e-01" nType="-99"/>
          <Node pos="r" depth="2" NCoef="0" IVar="-1" Cut="0.0000000000000000e+00" cType="1" res="3.7558755138888955e-04" rms="4.5459735393524170e-01" purity="5.4972392320632935e-01" nType="-99"/>
        </Node>
      </Node>
    </BinaryTree>
    <BinaryTree type="DecisionTree" boostWeight="1.0000000000000000e+00" itree="503">
      <Node pos="s" depth="0" NCoef="0" IVar="2" Cut="9.1037911176681519e-01" cType="1" res="-1.2080432497896254e-04" rms="4.4631984829902649e-01" purity="4.9943923950195312e-01" nType="0">
        <Node pos="l" depth="1" NCoef="0" IVar="-1" Cut="0.0000000000000000e+00" cType="1" res="-2.7389002498239279e-03" rms="3.8215905427932739e-01" purity="2.1413493156433105e-01" nType="-99"/>
        <Node pos="r" depth="1" NCoef="0" IVar="4" Cut="1.6764028072357178e+00" cType="1" res="3.6559351719915867e-03" rms="4.4998785853385925e-01" purity="5.1831871271133423e-01" nType="0">
          <Node pos="l" depth="2" NCoef="0" IVar="-1" Cut="0.0000000000000000e+00" cType="1" res="3.1810972723178566e-04" rms="4.5580172538757324e-01" purity="5.4289120435714722e-01" nType="-99"/>
          <Node pos="r" depth="2" NCoef="0" IVar="-1" Cut="0.0000000000000000e+00" cType="1" res="-3.4902726765722036e-03" rms="3.4712311625480652e-01" purity="1.5108643472194672e-01" nType="-99"/>
        </Node>
      </Node>
    </BinaryTree>
    <BinaryTree type="DecisionTree" boostWeight="1.0000000000000000e+00" itree="504">
      <Node pos="s" depth="0" NCoef="0" IVar="0" Cut="1.4167750549316406e+02" cType="1" res="6.1961025930941105e-03" rms="4.5220124721527100e-01" purity="5.0428903102874756e-01" nType="0">
        <Node pos="l" depth="1" NCoef="0" IVar="0" Cut="4.7089488983154297e+01" cType="1" res="9.7957951948046684e-03" rms="4.5216998457908630e-01" purity="5.0897866487503052e-01" nType="0">
          <Node pos="l" depth="2" NCoef="0" IVar="-1" Cut="0.0000000000000000e+00" cType="1" res="-5.8627960970625281e-04" rms="4.4280657172203064e-01" purity="3.9842447638511658e-01" nType="-99"/>
          <Node pos="r" depth="2" NCoef="0" IVar="-1" Cut="0.0000000000000000e+00" cType="1" res="7.0653122384101152e-04" rms="4.5450258255004883e-01" purity="5.3930437564849854e-01" nType="-99"/>
        </Node>
        <Node pos="r" depth="1" NCoef="0" IVar="-1" Cut="0.0000000000000000e+00" cType="1" res="-2.0357409957796335e-03" rms="4.4981390237808228e-01" purity="4.4099754095077515e-01" nType="-99"/>
      </Node>
    </BinaryTree>
    <BinaryTree type="DecisionTree" boostWeight="1.0000000000000000e+00" itree="505">
      <Node pos="s" depth="0" NCoef="0" IVar="3" Cut="6.3229049555957317e-03" cType="1" res="3.8420397322624922e-03" rms="4.4575324654579163e-01" purity="5.0165569782257080e-01" nType="0">
        <Node pos="l" depth="1" NCoef="0" IVar="5" Cut="9.8956108093261719e-01" cType="1" res="-1.1650108732283115e-02" rms="4.4662997126579285e-01" purity="4.4762191176414490e-01" nType="0">
          <Node pos="l" depth="2" NCoef="0" IVar="-1" Cut="0.0000000000000000e+00" cType="1" res="2.0029447114211507e-05" rms="4.5190399885177612e-01" purity="4.9393132328987122e-01" nType="-99"/>
          <Node pos="r" depth="2" NCoef="0" IVar="-1" Cut="0.0000000000000000e+00" cType="1" res="-2.8005342464894056e-03" rms="4.2398542165756226e-01" purity="2.7913409471511841e-01" nType="-99"/>
        </Node>
        <Node pos="r" depth="1" NCoef="0" IVar="2" Cut="9.5790177583694458e-01" cType="1" res="2.0238231867551804e-02" rms="4.4423538446426392e-01" purity="5.5884259939193726e-01" nType="0">
          <Node pos="l" depth="2" NCoef="0" IVar="-1" Cut="0.0000000000000000e+00" cType="1" res="-2.3692192917224020e-04" rms="4.5797646045684814e-01" purity="4.4723442196846008e-01" nType="-99"/>
          <Node pos="r" depth="2" NCoef="0" IVar="-1" Cut="0.0000000000000000e+00" cType="1" res="2.8140975628048182e-03" rms="4.1844967007637024e-01" purity="7.3446571826934814e-01" nType="-99"/>
        </Node>
      </Node>
    </BinaryTree>
    <BinaryTree type="DecisionTree" boostWeight="1.0000000000000000e+00" itree="506">
      <Node pos="s" depth="0" NCoef="0" IVar="4" Cut="1.2172586917877197e+00" cType="1" res="7.9104406759142876e-03" rms="4.5541316270828247e-01" purity="5.0918018817901611e-01" nType="0">
        <Node pos="l" depth="1" NCoef="0" IVar="4" Cut="4.8368445038795471e-01" cType="1" res="-5.4084141738712788e-03" rms="4.5999976992607117e-01" purity="5.7981687784194946e-01" nType="0">
          <Node pos="l" depth="2" NCoef="0" IVar="-1" Cut="0.0000000000000000e+00" cType="1" res="3.6596364807337523e-03" rms="4.0640419721603394e-01" purity="7.5377279520034790e-01" nType="-99"/>
          <Node pos="r" depth="2" NCoef="0" IVar="-1" Cut="0.0000000000000000e+00" cType="1" res="-6.0118356486782432e-04" rms="4.6412578225135803e-01" purity="5.6207543611526489e-01" nType="-99"/>
        </Node>
        <Node pos="r" depth="1" NCoef="0" IVar="4" Cut="1.5736054182052612e+00" cType="1" res="3.9531566202640533e-02" rms="4.4273218512535095e-01" purity="3.4147721529006958e-01" nType="0">
          <Node pos="l" depth="2" NCoef="0" IVar="-1" Cut="0.0000000000000000e+00" cType="1" res="2.7948943898081779e-03" rms="4.6434628963470459e-01" purity="4.0648630261421204e-01" nType="-99"/>
          <Node pos="r" depth="2" NCoef="0" IVar="-1" Cut="0.0000000000000000e+00" cType="1" res="-3.5227453918196261e-04" rms="3.9042505621910095e-01" purity="2.0691825449466705e-01" nType="-99"/>
        </Node>
      </Node>
    </BinaryTree>
    <BinaryTree type="DecisionTree" boostWeight="1.0000000000000000e+00" itree="507">
      <Node pos="s" depth="0" NCoef="0" IVar="6" Cut="8.5150270462036133e+00" cType="1" res="-7.5380434282124043e-03" rms="4.5000743865966797e-01" purity="4.9340912699699402e-01" nType="0">
        <Node pos="l" depth="1" NCoef="0" IVar="4" Cut="1.1759459972381592e+00" cType="1" res="-1.5531442128121853e-02" rms="4.5642760396003723e-01" purity="4.5220488309860229e-01" nType="0">
          <Node pos="l" depth="2" NCoef="0" IVar="-1" Cut="0.0000000000000000e+00" cType="1" res="-1.1413540923967957e-03" rms="4.6886706352233887e-01" purity="5.3041762113571167e-01" nType="-99"/>
          <Node pos="r" depth="2" NCoef="0" IVar="-1" Cut="0.0000000000000000e+00" cType="1" res="5.0958798965439200e-04" rms="4.2953297495841980e-01" purity="2.9701763391494751e-01" nType="-99"/>
        </Node>
        <Node pos="r" depth="1" NCoef="0" IVar="7" Cut="3.8376611471176147e-01" cType="1" res="3.9760552346706390e-02" rms="4.0676325559616089e-01" purity="7.3722338676452637e-01" nType="0">
          <Node pos="l" depth="2" NCoef="0" IVar="-1" Cut="0.0000000000000000e+00" cType="1" res="3.0915567185729742e-03" rms="4.1702392697334290e-01" purity="7.1460527181625366e-01" nType="-99"/>
          <Node pos="r" depth="2" NCoef="0" IVar="-1" Cut="0.0000000000000000e+00" cType="1" res="9.8296627402305603e-04" rms="3.9659640192985535e-01" purity="7.5659698247909546e-01" nType="-99"/>
        </Node>
      </Node>
    </BinaryTree>
    <BinaryTree type="DecisionTree" boostWeight="1.0000000000000000e+00" itree="508">
      <Node pos="s" depth="0" NCoef="0" IVar="7" Cut="5.8040845394134521e-01" cType="1" res="-9.6014002338051796e-03" rms="4.5073786377906799e-01" purity="4.8869830369949341e-01" nType="0">
        <Node pos="l" depth="1" NCoef="0" IVar="5" Cut="1.0651389360427856e+00" cType="1" res="-2.6754096616059542e-03" rms="4.4667288661003113e-01" purity="4.7755065560340881e-01" nType="0">
          <Node pos="l" depth="2" NCoef="0" IVar="-1" Cut="0.0000000000000000e+00" cType="1" res="-4.1289086220785975e-04" rms="4.4725409150123596e-01" purity="4.8916161060333252e-01" nType="-99"/>
          <Node pos="r" depth="2" NCoef="0" IVar="-1" Cut="0.0000000000000000e+00" cType="1" res="1.3976102927699685e-03" rms="4.4229346513748169e-01" purity="4.1997349262237549e-01" nType="-99"/>
        </Node>
        <Node pos="r" depth="1" NCoef="0" IVar="5" Cut="6.8242090940475464e-01" cType="1" res="-4.0900960564613342e-02" rms="4.6739035844802856e-01" purity="5.3907632827758789e-01" nType="0">
          <Node pos="l" depth="2" NCoef="0" IVar="-1" Cut="0.0000000000000000e+00" cType="1" res="6.6573447838891298e-05" rms="4.5780107378959656e-01" purity="6.0912138223648071e-01" nType="-99"/>
          <Node pos="r" depth="2" NCoef="0" IVar="-1" Cut="0.0000000000000000e+00" cType="1" res="-3.7682836409658194e-03" rms="4.7317978739738464e-01" purity="4.6524444222450256e-01" nType="-99"/>
        </Node>
      </Node>
    </BinaryTree>
    <BinaryTree type="DecisionTree" boostWeight="1.0000000000000000e+00" itree="509">
      <Node pos="s" depth="0" NCoef="0" IVar="1" Cut="1.7721718549728394e+00" cType="1" res="-9.9233314394950867e-03" rms="4.5267802476882935e-01" purity="4.8933333158493042e-01" nType="0">
        <Node pos="l" depth="1" NCoef="0" IVar="-1" Cut="0.0000000000000000e+00" cType="1" res="-2.5026930961757898e-03" rms="4.5094677805900574e-01" purity="4.8248553276062012e-01" nType="-99"/>
        <Node pos="r" depth="1" NCoef="0" IVar="0" Cut="1.4639062500000000e+02" cType="1" res="-5.5935871787369251e-03" rms="4.5256936550140381e-01" purity="4.8992866277694702e-01" nType="0">
          <Node pos="l" depth="2" NCoef="0" IVar="-1" Cut="0.0000000000000000e+00" cType="1" res="-3.8719448639312759e-05" rms="4.5204240083694458e-01" purity="4.9575829505920410e-01" nType="-99"/>
          <Node pos="r" depth="2" NCoef="0" IVar="-1" Cut="0.0000000000000000e+00" cType="1" res="-3.2260965090245008e-03" rms="4.5490005612373352e-01" purity="4.1258099675178528e-01" nType="-99"/>
        </Node>
      </Node>
    </BinaryTree>
    <BinaryTree type="DecisionTree" boostWeight="1.0000000000000000e+00" itree="510">
      <Node pos="s" depth="0" NCoef="0" IVar="1" Cut="1.7504380941390991e+00" cType="1" res="-3.9301328361034393e-03" rms="4.5243653655052185e-01" purity="4.9481698870658875e-01" nType="0">
        <Node pos="l" depth="1" NCoef="0" IVar="-1" Cut="0.0000000000000000e+00" cType="1" res="-3.0003837309777737e-03" rms="4.5780283212661743e-01" purity="4.2344349622726440e-01" nType="-99"/>
        <Node pos="r" depth="1" NCoef="0" IVar="7" Cut="3.6151722073554993e-01" cType="1" res="1.5457196859642863e-03" rms="4.5154878497123718e-01" purity="4.9969652295112610e-01" nType="0">
          <Node pos="l" depth="2" NCoef="0" IVar="-1" Cut="0.0000000000000000e+00" cType="1" res="9.0623024152591825e-04" rms="4.4372168183326721e-01" purity="4.5700234174728394e-01" nType="-99"/>
          <Node pos="r" depth="2" NCoef="0" IVar="-1" Cut="0.0000000000000000e+00" cType="1" res="-5.3731037769466639e-04" rms="4.5710098743438721e-01" purity="5.3318673372268677e-01" nType="-99"/>
        </Node>
      </Node>
    </BinaryTree>
    <BinaryTree type="DecisionTree" boostWeight="1.0000000000000000e+00" itree="511">
      <Node pos="s" depth="0" NCoef="0" IVar="2" Cut="9.8506367206573486e-01" cType="1" res="2.5102540384978056e-03" rms="4.5263764262199402e-01" purity="5.0208681821823120e-01" nType="0">
        <Node pos="l" depth="1" NCoef="0" IVar="2" Cut="9.6517020463943481e-01" cType="1" res="-2.0064744167029858e-03" rms="4.5705804228782654e-01" purity="4.8267608880996704e-01" nType="0">
          <Node pos="l" depth="2" NCoef="0" IVar="-1" Cut="0.0000000000000000e+00" cType="1" res="3.5843561636283994e-04" rms="4.5930492877960205e-01" purity="4.4537028670310974e-01" nType="-99"/>
          <Node pos="r" depth="2" NCoef="0" IVar="-1" Cut="0.0000000000000000e+00" cType="1" res="-1.7446565907448530e-03" rms="4.4742950797080994e-01" purity="6.1120253801345825e-01" nType="-99"/>
        </Node>
        <Node pos="r" depth="1" NCoef="0" IVar="-1" Cut="0.0000000000000000e+00" cType="1" res="3.3550204243510962e-03" rms="3.7981402873992920e-01" purity="7.7400851249694824e-01" nType="-99"/>
      </Node>
    </BinaryTree>
    <BinaryTree type="DecisionTree" boostWeight="1.0000000000000000e+00" itree="512">
      <Node pos="s" depth="0" NCoef="0" IVar="3" Cut="-6.8362556397914886e-02" cType="1" res="-8.3907824009656906e-03" rms="4.4716176390647888e-01" purity="4.9070990085601807e-01" nType="0">
        <Node pos="l" depth="1" NCoef="0" IVar="0" Cut="5.7017604827880859e+01" cType="1" res="-3.9462968707084656e-02" rms="4.2775249481201172e-01" purity="3.9385950565338135e-01" nType="0">
          <Node pos="l" depth="2" NCoef="0" IVar="-1" Cut="0.0000000000000000e+00" cType="1" res="-3.9651123806834221e-03" rms="4.0310430526733398e-01" purity="2.5988405942916870e-01" nType="-99"/>
          <Node pos="r" depth="2" NCoef="0" IVar="-1" Cut="0.0000000000000000e+00" cType="1" res="-1.0941273067146540e-03" rms="4.3581372499465942e-01" purity="4.4514864683151245e-01" nType="-99"/>
        </Node>
        <Node pos="r" depth="1" NCoef="0" IVar="2" Cut="9.7671192884445190e-01" cType="1" res="3.5498926881700754e-03" rms="4.5383456349372864e-01" purity="5.2792835235595703e-01" nType="0">
          <Node pos="l" depth="2" NCoef="0" IVar="-1" Cut="0.0000000000000000e+00" cType="1" res="-1.0536555055296049e-04" rms="4.5959085226058960e-01" purity="4.9031522870063782e-01" nType="-99"/>
          <Node pos="r" depth="2" NCoef="0" IVar="-1" Cut="0.0000000000000000e+00" cType="1" res="2.0711000543087721e-03" rms="4.1460031270980835e-01" purity="7.6019573211669922e-01" nType="-99"/>
        </Node>
      </Node>
    </BinaryTree>
    <BinaryTree type="DecisionTree" boostWeight="1.0000000000000000e+00" itree="513">
      <Node pos="s" depth="0" NCoef="0" IVar="0" Cut="1.0200418090820312e+02" cType="1" res="4.3024886399507523e-03" rms="4.4770142436027527e-01" purity="5.0193995237350464e-01" nType="0">
        <Node pos="l" depth="1" NCoef="0" IVar="5" Cut="9.7722584009170532e-01" cType="1" res="-7.9981172457337379e-03" rms="4.5190489292144775e-01" purity="4.6962556242942810e-01" nType="0">
          <Node pos="l" depth="2" NCoef="0" IVar="-1" Cut="0.0000000000000000e+00" cType="1" res="1.3443636998999864e-04" rms="4.5685490965843201e-01" purity="5.1046258211135864e-01" nType="-99"/>
          <Node pos="r" depth="2" NCoef="0" IVar="-1" Cut="0.0000000000000000e+00" cType="1" res="-2.0519066601991653e-03" rms="4.3368926644325256e-01" purity="3.3845457434654236e-01" nType="-99"/>
        </Node>
        <Node pos="r" depth="1" NCoef="0" IVar="0" Cut="1.3875346374511719e+02" cType="1" res="3.6515016108751297e-02" rms="4.3485614657402039e-01" purity="5.8656412363052368e-01" nType="0">
          <Node pos="l" depth="2" NCoef="0" IVar="-1" Cut="0.0000000000000000e+00" cType="1" res="2.3483263794332743e-03" rms="4.3559506535530090e-01" purity="6.3495713472366333e-01" nType="-99"/>
          <Node pos="r" depth="2" NCoef="0" IVar="-1" Cut="0.0000000000000000e+00" cType="1" res="7.9459794505964965e-05" rms="4.3119549751281738e-01" purity="4.8089522123336792e-01" nType="-99"/>
        </Node>
      </Node>
    </BinaryTree>
    <BinaryTree type="DecisionTree" boostWeight="1.0000000000000000e+00" itree="514">
      <Node pos="s" depth="0" NCoef="0" IVar="3" Cut="-3.3731292933225632e-02" cType="1" res="-7.1981046348810196e-03" rms="4.5640593767166138e-01" purity="4.9285808205604553e-01" nType="0">
        <Node pos="l" depth="1" NCoef="0" IVar="0" Cut="1.0353560638427734e+02" cType="1" res="1.6866961494088173e-02" rms="4.4718018174171448e-01" purity="4.7292539477348328e-01" nType="0">
          <Node pos="l" depth="2" NCoef="0" IVar="-1" Cut="0.0000000000000000e+00" cType="1" res="1.8423526489641517e-04" rms="4.5033743977546692e-01" purity="4.3434986472129822e-01" nType="-99"/>
          <Node pos="r" depth="2" NCoef="0" IVar="-1" Cut="0.0000000000000000e+00" cType="1" res="2.1240352652966976e-03" rms="4.3826064467430115e-01" purity="5.6327426433563232e-01" nType="-99"/>
        </Node>
        <Node pos="r" depth="1" NCoef="0" IVar="5" Cut="1.0607922077178955e+00" cType="1" res="-2.3254763334989548e-02" rms="4.6176216006278992e-01" purity="5.0615757703781128e-01" nType="0">
          <Node pos="l" depth="2" NCoef="0" IVar="-1" Cut="0.0000000000000000e+00" cType="1" res="-5.6820694589987397e-04" rms="4.6447473764419556e-01" purity="5.3718197345733643e-01" nType="-99"/>
          <Node pos="r" depth="2" NCoef="0" IVar="-1" Cut="0.0000000000000000e+00" cType="1" res="-3.0538551509380341e-03" rms="4.4663566350936890e-01" purity="3.6743906140327454e-01" nType="-99"/>
        </Node>
      </Node>
    </BinaryTree>
    <BinaryTree type="DecisionTree" boostWeight="1.0000000000000000e+00" itree="515">
      <Node pos="s" depth="0" NCoef="0" IVar="3" Cut="-5.5378966033458710e-02" cType="1" res="2.2939918562769890e-04" rms="4.5384579896926880e-01" purity="4.9730342626571655e-01" nType="0">
        <Node pos="l" depth="1" NCoef="0" IVar="5" Cut="5.6473278999328613e-01" cType="1" res="3.0605718493461609e-02" rms="4.5351642370223999e-01" purity="4.6638974547386169e-01" nType="0">
          <Node pos="l" depth="2" NCoef="0" IVar="-1" Cut="0.0000000000000000e+00" cType="1" res="-8.4264198085293174e-04" rms="4.6397581696510315e-01" purity="5.4275923967361450e-01" nType="-99"/>
          <Node pos="r" depth="2" NCoef="0" IVar="-1" Cut="0.0000000000000000e+00" cType="1" res="2.5511973071843386e-03" rms="4.4675701856613159e-01" purity="4.3132796883583069e-01" nType="-99"/>
        </Node>
        <Node pos="r" depth="1" NCoef="0" IVar="2" Cut="9.6118640899658203e-01" cType="1" res="-1.4214139431715012e-02" rms="4.5328885316848755e-01" purity="5.1200246810913086e-01" nType="0">
          <Node pos="l" depth="2" NCoef="0" IVar="-1" Cut="0.0000000000000000e+00" cType="1" res="-1.1641328455880284e-03" rms="4.6378555893898010e-01" purity="4.2144072055816650e-01" nType="-99"/>
          <Node pos="r" depth="2" NCoef="0" IVar="-1" Cut="0.0000000000000000e+00" cType="1" res="4.4572161277756095e-04" rms="4.3248483538627625e-01" purity="6.7715954780578613e-01" nType="-99"/>
        </Node>
      </Node>
    </BinaryTree>
    <BinaryTree type="DecisionTree" boostWeight="1.0000000000000000e+00" itree="516">
      <Node pos="s" depth="0" NCoef="0" IVar="4" Cut="8.3525967597961426e-01" cType="1" res="-1.7205249518156052e-02" rms="4.5359361171722412e-01" purity="4.7977438569068909e-01" nType="0">
        <Node pos="l" depth="1" NCoef="0" IVar="5" Cut="5.2381557226181030e-01" cType="1" res="6.3428278081119061e-03" rms="4.5854166150093079e-01" purity="6.3855773210525513e-01" nType="0">
          <Node pos="l" depth="2" NCoef="0" IVar="-1" Cut="0.0000000000000000e+00" cType="1" res="-9.4546948093920946e-04" rms="4.6158114075660706e-01" purity="6.0878849029541016e-01" nType="-99"/>
          <Node pos="r" depth="2" NCoef="0" IVar="-1" Cut="0.0000000000000000e+00" cType="1" res="1.1165096657350659e-03" rms="4.5540139079093933e-01" purity="6.5877574682235718e-01" nType="-99"/>
        </Node>
        <Node pos="r" depth="1" NCoef="0" IVar="6" Cut="5.2166261672973633e+00" cType="1" res="-2.9451964423060417e-02" rms="4.5051255822181702e-01" purity="3.9719548821449280e-01" nType="0">
          <Node pos="l" depth="2" NCoef="0" IVar="-1" Cut="0.0000000000000000e+00" cType="1" res="1.1577809927985072e-03" rms="4.3190670013427734e-01" purity="2.5517156720161438e-01" nType="-99"/>
          <Node pos="r" depth="2" NCoef="0" IVar="-1" Cut="0.0000000000000000e+00" cType="1" res="-1.6059571644291282e-03" rms="4.5247137546539307e-01" purity="4.1583183407783508e-01" nType="-99"/>
        </Node>
      </Node>
    </BinaryTree>
    <BinaryTree type="DecisionTree" boostWeight="1.0000000000000000e+00" itree="517">
      <Node pos="s" depth="0" NCoef="0" IVar="4" Cut="1.3704230785369873e+00" cType="1" res="5.3186500445008278e-03" rms="4.5480051636695862e-01" purity="5.0019258260726929e-01" nType="0">
        <Node pos="l" depth="1" NCoef="0" IVar="0" Cut="6.6632781982421875e+01" cType="1" res="-1.1736151063814759e-03" rms="4.6159544587135315e-01" purity="5.5184918642044067e-01" nType="0">
          <Node pos="l" depth="2" NCoef="0" IVar="-1" Cut="0.0000000000000000e+00" cType="1" res="7.8036246122792363e-04" rms="4.6537771821022034e-01" purity="5.1158952713012695e-01" nType="-99"/>
          <Node pos="r" depth="2" NCoef="0" IVar="-1" Cut="0.0000000000000000e+00" cType="1" res="-7.4645545100793242e-04" rms="4.5793268084526062e-01" purity="5.8359664678573608e-01" nType="-99"/>
        </Node>
        <Node pos="r" depth="1" NCoef="0" IVar="1" Cut="2.6874101161956787e+00" cType="1" res="3.2119337469339371e-02" rms="4.2455407977104187e-01" purity="2.8694903850555420e-01" nType="0">
          <Node pos="l" depth="2" NCoef="0" IVar="-1" Cut="0.0000000000000000e+00" cType="1" res="3.0600109603255987e-03" rms="4.5566010475158691e-01" purity="3.6141836643218994e-01" nType="-99"/>
          <Node pos="r" depth="2" NCoef="0" IVar="-1" Cut="0.0000000000000000e+00" cType="1" res="-1.9629257731139660e-03" rms="3.4925165772438049e-01" purity="1.4220102131366730e-01" nType="-99"/>
        </Node>
      </Node>
    </BinaryTree>
    <BinaryTree type="DecisionTree" boostWeight="1.0000000000000000e+00" itree="518">
      <Node pos="s" depth="0" NCoef="0" IVar="5" Cut="1.2528250217437744e+00" cType="1" res="4.5659011229872704e-03" rms="4.4994920492172241e-01" purity="5.0537872314453125e-01" nType="0">
        <Node pos="l" depth="1" NCoef="0" IVar="4" Cut="1.1934288740158081e+00" cType="1" res="8.6650038138031960e-03" rms="4.5117154717445374e-01" purity="5.1629668474197388e-01" nType="0">
          <Node pos="l" depth="2" NCoef="0" IVar="-1" Cut="0.0000000000000000e+00" cType="1" res="3.1195341421152989e-07" rms="4.5425534248352051e-01" purity="5.9409868717193604e-01" nType="-99"/>
          <Node pos="r" depth="2" NCoef="0" IVar="-1" Cut="0.0000000000000000e+00" cType="1" res="1.4639954315498471e-03" rms="4.4329330325126648e-01" purity="3.3599716424942017e-01" nType="-99"/>
        </Node>
        <Node pos="r" depth="1" NCoef="0" IVar="-1" Cut="0.0000000000000000e+00" cType="1" res="-2.7553762774914503e-03" rms="4.2447566986083984e-01" purity="3.3015754818916321e-01" nType="-99"/>
      </Node>
    </BinaryTree>
    <BinaryTree type="DecisionTree" boostWeight="1.0000000000000000e+00" itree="519">
      <Node pos="s" depth="0" NCoef="0" IVar="2" Cut="9.5433348417282104e-01" cType="1" res="-3.6432640627026558e-03" rms="4.4975480437278748e-01" purity="4.9908336997032166e-01" nType="0">
        <Node pos="l" depth="1" NCoef="0" IVar="4" Cut="1.3233635425567627e+00" cType="1" res="-1.9379753619432449e-02" rms="4.5584172010421753e-01" purity="3.8290944695472717e-01" nType="0">
          <Node pos="l" depth="2" NCoef="0" IVar="-1" Cut="0.0000000000000000e+00" cType="1" res="-1.4069806784391403e-03" rms="4.6640247106552124e-01" purity="4.2553055286407471e-01" nType="-99"/>
          <Node pos="r" depth="2" NCoef="0" IVar="-1" Cut="0.0000000000000000e+00" cType="1" res="2.1014923695474863e-03" rms="4.1605266928672791e-01" purity="2.4784319102764130e-01" nType="-99"/>
        </Node>
        <Node pos="r" depth="1" NCoef="0" IVar="4" Cut="1.4865274429321289e+00" cType="1" res="1.4891869388520718e-02" rms="4.4175964593887329e-01" purity="6.3591814041137695e-01" nType="0">
          <Node pos="l" depth="2" NCoef="0" IVar="-1" Cut="0.0000000000000000e+00" cType="1" res="9.4852229813113809e-04" rms="4.4434598088264465e-01" purity="6.8632644414901733e-01" nType="-99"/>
          <Node pos="r" depth="2" NCoef="0" IVar="-1" Cut="0.0000000000000000e+00" cType="1" res="-1.5635784948244691e-03" rms="4.1991642117500305e-01" purity="2.7299299836158752e-01" nType="-99"/>
        </Node>
      </Node>
    </BinaryTree>
    <BinaryTree type="DecisionTree" boostWeight="1.0000000000000000e+00" itree="520">
      <Node pos="s" depth="0" NCoef="0" IVar="7" Cut="6.2145429849624634e-01" cType="1" res="-3.4563285298645496e-03" rms="4.4732108712196350e-01" purity="4.9468052387237549e-01" nType="0">
        <Node pos="l" depth="1" NCoef="0" IVar="3" Cut="1.2777832150459290e-01" cType="1" res="-1.0471114888787270e-02" rms="4.4647568464279175e-01" purity="4.7268399596214294e-01" nType="0">
          <Node pos="l" depth="2" NCoef="0" IVar="-1" Cut="0.0000000000000000e+00" cType="1" res="-8.9224724797531962e-04" rms="4.4598880410194397e-01" purity="4.3308323621749878e-01" nType="-99"/>
          <Node pos="r" depth="2" NCoef="0" IVar="-1" Cut="0.0000000000000000e+00" cType="1" res="9.4668957171961665e-04" rms="4.4669866561889648e-01" purity="6.1086457967758179e-01" nType="-99"/>
        </Node>
        <Node pos="r" depth="1" NCoef="0" IVar="5" Cut="6.7508423328399658e-01" cType="1" res="3.5108719021081924e-02" rms="4.4999170303344727e-01" purity="6.1561024188995361e-01" nType="0">
          <Node pos="l" depth="2" NCoef="0" IVar="-1" Cut="0.0000000000000000e+00" cType="1" res="2.5726228486746550e-03" rms="4.4027313590049744e-01" purity="6.7626249790191650e-01" nType="-99"/>
          <Node pos="r" depth="2" NCoef="0" IVar="-1" Cut="0.0000000000000000e+00" cType="1" res="1.6041172784753144e-04" rms="4.5895242691040039e-01" purity="5.4569435119628906e-01" nType="-99"/>
        </Node>
      </Node>
    </BinaryTree>
    <BinaryTree type="DecisionTree" boostWeight="1.0000000000000000e+00" itree="521">
      <Node pos="s" depth="0" NCoef="0" IVar="5" Cut="4.1227325797080994e-01" cType="1" res="-2.2244987485464662e-04" rms="4.4827422499656677e-01" purity="4.9750608205795288e-01" nType="0">
        <Node pos="l" depth="1" NCoef="0" IVar="-1" Cut="0.0000000000000000e+00" cType="1" res="-2.3266167845577002e-03" rms="4.7134336829185486e-01" purity="5.3675776720046997e-01" nType="-99"/>
        <Node pos="r" depth="1" NCoef="0" IVar="4" Cut="5.2662122249603271e-01" cType="1" res="6.3427216373383999e-03" rms="4.4513374567031860e-01" purity="4.9310609698295593e-01" nType="0">
          <Node pos="l" depth="2" NCoef="0" IVar="-1" Cut="0.0000000000000000e+00" cType="1" res="3.8908785209059715e-03" rms="4.0375959873199463e-01" purity="7.7128207683563232e-01" nType="-99"/>
          <Node pos="r" depth="2" NCoef="0" IVar="-1" Cut="0.0000000000000000e+00" cType="1" res="4.0044407796813175e-05" rms="4.4715058803558350e-01" purity="4.7500070929527283e-01" nType="-99"/>
        </Node>
      </Node>
    </BinaryTree>
    <BinaryTree type="DecisionTree" boostWeight="1.0000000000000000e+00" itree="522">
      <Node pos="s" depth="0" NCoef="0" IVar="7" Cut="2.1377956867218018e-01" cType="1" res="2.8102803044021130e-03" rms="4.5185354351997375e-01" purity="5.0020158290863037e-01" nType="0">
        <Node pos="l" depth="1" NCoef="0" IVar="4" Cut="1.0762641429901123e+00" cType="1" res="3.7329800426959991e-02" rms="4.4996696710586548e-01" purity="4.2114925384521484e-01" nType="0">
          <Node pos="l" depth="2" NCoef="0" IVar="-1" Cut="0.0000000000000000e+00" cType="1" res="-1.1981075658695772e-04" rms="4.6562260389328003e-01" purity="5.6046962738037109e-01" nType="-99"/>
          <Node pos="r" depth="2" NCoef="0" IVar="-1" Cut="0.0000000000000000e+00" cType="1" res="3.1288622412830591e-03" rms="4.3962579965591431e-01" purity="3.4501948952674866e-01" nType="-99"/>
        </Node>
        <Node pos="r" depth="1" NCoef="0" IVar="2" Cut="9.2903435230255127e-01" cType="1" res="-5.3412658162415028e-03" rms="4.5191320776939392e-01" purity="5.1886928081512451e-01" nType="0">
          <Node pos="l" depth="2" NCoef="0" IVar="-1" Cut="0.0000000000000000e+00" cType="1" res="-2.3289052769541740e-03" rms="4.2779311537742615e-01" purity="2.8171837329864502e-01" nType="-99"/>
          <Node pos="r" depth="2" NCoef="0" IVar="-1" Cut="0.0000000000000000e+00" cType="1" res="2.3328875249717385e-04" rms="4.5657750964164734e-01" purity="5.7320874929428101e-01" nType="-99"/>
        </Node>
      </Node>
    </BinaryTree>
    <BinaryTree type="DecisionTree" boostWeight="1.0000000000000000e+00" itree="523">
      <Node pos="s" depth="0" NCoef="0" IVar="2" Cut="9.1052716970443726e-01" cType="1" res="6.7595210857689381e-03" rms="4.5162561535835266e-01" purity="5.0575536489486694e-01" nType="0">
        <Node pos="l" depth="1" NCoef="0" IVar="-1" Cut="0.0000000000000000e+00" cType="1" res="-2.3131633643060923e-03" rms="4.0721410512924194e-01" purity="2.2161199152469635e-01" nType="-99"/>
        <Node pos="r" depth="1" NCoef="0" IVar="1" Cut="2.2195267677307129e+00" cType="1" res="1.0088617913424969e-02" rms="4.5399007201194763e-01" purity="5.2313911914825439e-01" nType="0">
          <Node pos="l" depth="2" NCoef="0" IVar="-1" Cut="0.0000000000000000e+00" cType="1" res="9.0197141980752349e-04" rms="4.5819267630577087e-01" purity="6.1268872022628784e-01" nType="-99"/>
          <Node pos="r" depth="2" NCoef="0" IVar="-1" Cut="0.0000000000000000e+00" cType="1" res="-3.6115534021519125e-04" rms="4.4698056578636169e-01" purity="3.8782471418380737e-01" nType="-99"/>
        </Node>
      </Node>
    </BinaryTree>
    <BinaryTree type="DecisionTree" boostWeight="1.0000000000000000e+00" itree="524">
      <Node pos="s" depth="0" NCoef="0" IVar="2" Cut="9.1981709003448486e-01" cType="1" res="-1.0945632820948958e-03" rms="4.5491978526115417e-01" purity="5.0332689285278320e-01" nType="0">
        <Node pos="l" depth="1" NCoef="0" IVar="5" Cut="7.8374373912811279e-01" cType="1" res="6.5486639738082886e-02" rms="4.4478169083595276e-01" purity="3.6120805144309998e-01" nType="0">
          <Node pos="l" depth="2" NCoef="0" IVar="-1" Cut="0.0000000000000000e+00" cType="1" res="4.6617258340120316e-03" rms="4.7023630142211914e-01" purity="4.7682112455368042e-01" nType="-99"/>
          <Node pos="r" depth="2" NCoef="0" IVar="-1" Cut="0.0000000000000000e+00" cType="1" res="1.0439110919833183e-03" rms="4.1352766752243042e-01" purity="2.4961890280246735e-01" nType="-99"/>
        </Node>
        <Node pos="r" depth="1" NCoef="0" IVar="5" Cut="1.1978499889373779e+00" cType="1" res="-9.2655709013342857e-03" rms="4.5547842979431152e-01" purity="5.2076810598373413e-01" nType="0">
          <Node pos="l" depth="2" NCoef="0" IVar="-1" Cut="0.0000000000000000e+00" cType="1" res="-5.7739182375371456e-04" rms="4.5458361506462097e-01" purity="5.2462607622146606e-01" nType="-99"/>
          <Node pos="r" depth="2" NCoef="0" IVar="-1" Cut="0.0000000000000000e+00" cType="1" res="1.9270955817773938e-03" rms="4.6327665448188782e-01" purity="4.7265705466270447e-01" nType="-99"/>
        </Node>
      </Node>
    </BinaryTree>
    <BinaryTree type="DecisionTree" boostWeight="1.0000000000000000e+00" itree="525">
      <Node pos="s" depth="0" NCoef="0" IVar="5" Cut="4.6831002831459045e-01" cType="1" res="4.5574372052215040e-04" rms="4.5241349935531616e-01" purity="5.0213807821273804e-01" nType="0">
        <Node pos="l" depth="1" NCoef="0" IVar="1" Cut="1.9424018859863281e+00" cType="1" res="-5.1911082118749619e-02" rms="4.6116030216217041e-01" purity="5.2632868289947510e-01" nType="0">
          <Node pos="l" depth="2" NCoef="0" IVar="-1" Cut="0.0000000000000000e+00" cType="1" res="-2.9510704334825277e-03" rms="4.8063817620277405e-01" purity="5.0873976945877075e-01" nType="-99"/>
          <Node pos="r" depth="2" NCoef="0" IVar="-1" Cut="0.0000000000000000e+00" cType="1" res="-9.1358640929684043e-04" rms="4.4365468621253967e-01" purity="5.3937995433807373e-01" nType="-99"/>
        </Node>
        <Node pos="r" depth="1" NCoef="0" IVar="5" Cut="6.8533676862716675e-01" cType="1" res="9.7478628158569336e-03" rms="4.5020785927772522e-01" purity="4.9784561991691589e-01" nType="0">
          <Node pos="l" depth="2" NCoef="0" IVar="-1" Cut="0.0000000000000000e+00" cType="1" res="1.2841371353715658e-03" rms="4.5483553409576416e-01" purity="5.9314548969268799e-01" nType="-99"/>
          <Node pos="r" depth="2" NCoef="0" IVar="-1" Cut="0.0000000000000000e+00" cType="1" res="1.8626507880981080e-05" rms="4.4786339998245239e-01" purity="4.5649042725563049e-01" nType="-99"/>
        </Node>
      </Node>
    </BinaryTree>
    <BinaryTree type="DecisionTree" boostWeight="1.0000000000000000e+00" itree="526">
      <Node pos="s" depth="0" NCoef="0" IVar="2" Cut="9.3694800138473511e-01" cType="1" res="7.3962341994047165e-03" rms="4.5191624760627747e-01" purity="5.0686991214752197e-01" nType="0">
        <Node pos="l" depth="1" NCoef="0" IVar="7" Cut="1.8756848573684692e-01" cType="1" res="3.5662613809108734e-02" rms="4.5106053352355957e-01" purity="3.7352266907691956e-01" nType="0">
          <Node pos="l" depth="2" NCoef="0" IVar="-1" Cut="0.0000000000000000e+00" cType="1" res="5.0855153240263462e-03" rms="4.4562861323356628e-01" purity="3.6861604452133179e-01" nType="-99"/>
          <Node pos="r" depth="2" NCoef="0" IVar="-1" Cut="0.0000000000000000e+00" cType="1" res="9.5569761469960213e-04" rms="4.5106190443038940e-01" purity="3.7456858158111572e-01" nType="-99"/>
        </Node>
        <Node pos="r" depth="1" NCoef="0" IVar="0" Cut="1.3900788879394531e+02" cType="1" res="-4.1990554891526699e-03" rms="4.5175552368164062e-01" purity="5.6157100200653076e-01" nType="0">
          <Node pos="l" depth="2" NCoef="0" IVar="-1" Cut="0.0000000000000000e+00" cType="1" res="7.1436385042034090e-05" rms="4.5135125517845154e-01" purity="5.6621330976486206e-01" nType="-99"/>
          <Node pos="r" depth="2" NCoef="0" IVar="-1" Cut="0.0000000000000000e+00" cType="1" res="-3.0043954029679298e-03" rms="4.5143508911132812e-01" purity="5.1248025894165039e-01" nType="-99"/>
        </Node>
      </Node>
    </BinaryTree>
    <BinaryTree type="DecisionTree" boostWeight="1.0000000000000000e+00" itree="527">
      <Node pos="s" depth="0" NCoef="0" IVar="0" Cut="1.3982769775390625e+02" cType="1" res="-5.7130085770040751e-04" rms="4.5428678393363953e-01" purity="4.9339339137077332e-01" nType="0">
        <Node pos="l" depth="1" NCoef="0" IVar="4" Cut="1.2920906543731689e+00" cType="1" res="5.1356577314436436e-03" rms="4.5407158136367798e-01" purity="5.0093913078308105e-01" nType="0">
          <Node pos="l" depth="2" NCoef="0" IVar="-1" Cut="0.0000000000000000e+00" cType="1" res="-1.5968538355082273e-04" rms="4.6242144703865051e-01" purity="5.5739301443099976e-01" nType="-99"/>
          <Node pos="r" depth="2" NCoef="0" IVar="-1" Cut="0.0000000000000000e+00" cType="1" res="1.8432639772072434e-03" rms="4.2405623197555542e-01" purity="3.1501880288124084e-01" nType="-99"/>
        </Node>
        <Node pos="r" depth="1" NCoef="0" IVar="-1" Cut="0.0000000000000000e+00" cType="1" res="-2.9446387197822332e-03" rms="4.5183444023132324e-01" purity="4.0939930081367493e-01" nType="-99"/>
      </Node>
    </BinaryTree>
    <BinaryTree type="DecisionTree" boostWeight="1.0000000000000000e+00" itree="528">
      <Node pos="s" depth="0" NCoef="0" IVar="5" Cut="3.9949643611907959e-01" cType="1" res="6.2215556390583515e-03" rms="4.4740819931030273e-01" purity="5.0249665975570679e-01" nType="0">
        <Node pos="l" depth="1" NCoef="0" IVar="-1" Cut="0.0000000000000000e+00" cType="1" res="-2.6016025803983212e-03" rms="4.6350294351577759e-01" purity="5.1716732978820801e-01" nType="-99"/>
        <Node pos="r" depth="1" NCoef="0" IVar="7" Cut="3.5974687337875366e-01" cType="1" res="1.4755225740373135e-02" rms="4.4480541348457336e-01" purity="5.0092673301696777e-01" nType="0">
          <Node pos="l" depth="2" NCoef="0" IVar="-1" Cut="0.0000000000000000e+00" cType="1" res="-4.3112249113619328e-04" rms="4.3505087494850159e-01" purity="4.1285860538482666e-01" nType="-99"/>
          <Node pos="r" depth="2" NCoef="0" IVar="-1" Cut="0.0000000000000000e+00" cType="1" res="1.4284857315942645e-03" rms="4.5149308443069458e-01" purity="5.7078105211257935e-01" nType="-99"/>
        </Node>
      </Node>
    </BinaryTree>
    <BinaryTree type="DecisionTree" boostWeight="1.0000000000000000e+00" itree="529">
      <Node pos="s" depth="0" NCoef="0" IVar="3" Cut="2.1998770534992218e-01" cType="1" res="4.6933819539844990e-03" rms="4.5043367147445679e-01" purity="5.0364565849304199e-01" nType="0">
        <Node pos="l" depth="1" NCoef="0" IVar="6" Cut="7.8611102104187012e+00" cType="1" res="1.0719883721321821e-03" rms="4.5170632004737854e-01" purity="4.9260121583938599e-01" nType="0">
          <Node pos="l" depth="2" NCoef="0" IVar="-1" Cut="0.0000000000000000e+00" cType="1" res="3.3812603214755654e-04" rms="4.5267859101295471e-01" purity="4.3953469395637512e-01" nType="-99"/>
          <Node pos="r" depth="2" NCoef="0" IVar="-1" Cut="0.0000000000000000e+00" cType="1" res="-8.2692864816635847e-04" rms="4.4849365949630737e-01" purity="6.3866621255874634e-01" nType="-99"/>
        </Node>
        <Node pos="r" depth="1" NCoef="0" IVar="-1" Cut="0.0000000000000000e+00" cType="1" res="2.1806606091558933e-03" rms="4.3078467249870300e-01" purity="6.4724570512771606e-01" nType="-99"/>
      </Node>
    </BinaryTree>
    <BinaryTree type="DecisionTree" boostWeight="1.0000000000000000e+00" itree="530">
      <Node pos="s" depth="0" NCoef="0" IVar="0" Cut="1.0238384246826172e+02" cType="1" res="7.5698061846196651e-03" rms="4.4926029443740845e-01" purity="5.0503462553024292e-01" nType="0">
        <Node pos="l" depth="1" NCoef="0" IVar="4" Cut="6.1242556571960449e-01" cType="1" res="-2.4245122913271189e-03" rms="4.5307692885398865e-01" purity="4.7077772021293640e-01" nType="0">
          <Node pos="l" depth="2" NCoef="0" IVar="-1" Cut="0.0000000000000000e+00" cType="1" res="1.7988431500270963e-03" rms="4.4840878248214722e-01" purity="6.8292087316513062e-01" nType="-99"/>
          <Node pos="r" depth="2" NCoef="0" IVar="-1" Cut="0.0000000000000000e+00" cType="1" res="-4.8689026152715087e-04" rms="4.5341935753822327e-01" purity="4.3150383234024048e-01" nType="-99"/>
        </Node>
        <Node pos="r" depth="1" NCoef="0" IVar="7" Cut="3.3903351426124573e-01" cType="1" res="3.4783534705638885e-02" rms="4.3754404783248901e-01" purity="5.9831333160400391e-01" nType="0">
          <Node pos="l" depth="2" NCoef="0" IVar="-1" Cut="0.0000000000000000e+00" cType="1" res="3.0505238100886345e-03" rms="4.3456992506980896e-01" purity="5.6856501102447510e-01" nType="-99"/>
          <Node pos="r" depth="2" NCoef="0" IVar="-1" Cut="0.0000000000000000e+00" cType="1" res="4.5907386811450124e-04" rms="4.3832132220268250e-01" purity="6.2185442447662354e-01" nType="-99"/>
        </Node>
      </Node>
    </BinaryTree>
    <BinaryTree type="DecisionTree" boostWeight="1.0000000000000000e+00" itree="531">
      <Node pos="s" depth="0" NCoef="0" IVar="7" Cut="5.2777773141860962e-01" cType="1" res="8.4668742492794991e-03" rms="4.5450764894485474e-01" purity="5.0924152135848999e-01" nType="0">
        <Node pos="l" depth="1" NCoef="0" IVar="6" Cut="5.4366078376770020e+00" cType="1" res="2.2379247471690178e-02" rms="4.5204478502273560e-01" purity="4.9352815747261047e-01" nType="0">
          <Node pos="l" depth="2" NCoef="0" IVar="-1" Cut="0.0000000000000000e+00" cType="1" res="-9.5601490465924144e-04" rms="4.1317757964134216e-01" purity="2.5001591444015503e-01" nType="-99"/>
          <Node pos="r" depth="2" NCoef="0" IVar="-1" Cut="0.0000000000000000e+00" cType="1" res="1.3313791714608669e-03" rms="4.5868653059005737e-01" purity="5.4019916057586670e-01" nType="-99"/>
        </Node>
        <Node pos="r" depth="1" NCoef="0" IVar="3" Cut="5.5941659957170486e-02" cType="1" res="-2.7414461597800255e-02" rms="4.5885607600212097e-01" purity="5.4976785182952881e-01" nType="0">
          <Node pos="l" depth="2" NCoef="0" IVar="-1" Cut="0.0000000000000000e+00" cType="1" res="-2.1055031102150679e-03" rms="4.6250519156455994e-01" purity="5.0280284881591797e-01" nType="-99"/>
          <Node pos="r" depth="2" NCoef="0" IVar="-1" Cut="0.0000000000000000e+00" cType="1" res="1.5061164740473032e-03" rms="4.4286060333251953e-01" purity="6.7918944358825684e-01" nType="-99"/>
        </Node>
      </Node>
    </BinaryTree>
    <BinaryTree type="DecisionTree" boostWeight="1.0000000000000000e+00" itree="532">
      <Node pos="s" depth="0" NCoef="0" IVar="1" Cut="2.1636903285980225e+00" cType="1" res="-1.6753815580159426e-03" rms="4.4901692867279053e-01" purity="4.9971818923950195e-01" nType="0">
        <Node pos="l" depth="1" NCoef="0" IVar="6" Cut="7.7949233055114746e+00" cType="1" res="1.8636645749211311e-02" rms="4.5895898342132568e-01" purity="6.0242456197738647e-01" nType="0">
          <Node pos="l" depth="2" NCoef="0" IVar="-1" Cut="0.0000000000000000e+00" cType="1" res="1.3866440858691931e-03" rms="4.6765610575675964e-01" purity="5.5823498964309692e-01" nType="-99"/>
          <Node pos="r" depth="2" NCoef="0" IVar="-1" Cut="0.0000000000000000e+00" cType="1" res="-1.0682973079383373e-03" rms="4.3424689769744873e-01" purity="7.1077001094818115e-01" nType="-99"/>
        </Node>
        <Node pos="r" depth="1" NCoef="0" IVar="0" Cut="1.4536035156250000e+02" cType="1" res="-2.4252014234662056e-02" rms="4.3659400939941406e-01" purity="3.8556095957756042e-01" nType="0">
          <Node pos="l" depth="2" NCoef="0" IVar="-1" Cut="0.0000000000000000e+00" cType="1" res="-6.5374455880373716e-04" rms="4.3822920322418213e-01" purity="3.9647087454795837e-01" nType="-99"/>
          <Node pos="r" depth="2" NCoef="0" IVar="-1" Cut="0.0000000000000000e+00" cType="1" res="-5.3823697380721569e-03" rms="4.1298490762710571e-01" purity="2.9519134759902954e-01" nType="-99"/>
        </Node>
      </Node>
    </BinaryTree>
    <BinaryTree type="DecisionTree" boostWeight="1.0000000000000000e+00" itree="533">
      <Node pos="s" depth="0" NCoef="0" IVar="1" Cut="1.8668435811996460e+00" cType="1" res="-6.5833055414259434e-03" rms="4.5280390977859497e-01" purity="4.9389368295669556e-01" nType="0">
        <Node pos="l" depth="1" NCoef="0" IVar="2" Cut="9.4832140207290649e-01" cType="1" res="3.1425751745700836e-02" rms="4.5706516504287720e-01" purity="5.7932770252227783e-01" nType="0">
          <Node pos="l" depth="2" NCoef="0" IVar="-1" Cut="0.0000000000000000e+00" cType="1" res="-3.1328643672168255e-04" rms="4.8383712768554688e-01" purity="4.2961528897285461e-01" nType="-99"/>
          <Node pos="r" depth="2" NCoef="0" IVar="-1" Cut="0.0000000000000000e+00" cType="1" res="2.9390864074230194e-03" rms="4.2729392647743225e-01" purity="7.1814608573913574e-01" nType="-99"/>
        </Node>
        <Node pos="r" depth="1" NCoef="0" IVar="5" Cut="9.9700516462326050e-01" cType="1" res="-1.2511310167610645e-02" rms="4.5184755325317383e-01" purity="4.8056915402412415e-01" nType="0">
          <Node pos="l" depth="2" NCoef="0" IVar="-1" Cut="0.0000000000000000e+00" cType="1" res="-1.5824336151126772e-04" rms="4.5610707998275757e-01" purity="5.2059024572372437e-01" nType="-99"/>
          <Node pos="r" depth="2" NCoef="0" IVar="-1" Cut="0.0000000000000000e+00" cType="1" res="-1.8419766565784812e-03" rms="4.3754619359970093e-01" purity="3.5901272296905518e-01" nType="-99"/>
        </Node>
      </Node>
    </BinaryTree>
    <BinaryTree type="DecisionTree" boostWeight="1.0000000000000000e+00" itree="534">
      <Node pos="s" depth="0" NCoef="0" IVar="7" Cut="4.2833450436592102e-01" cType="1" res="1.7597884871065617e-03" rms="4.4992128014564514e-01" purity="5.0363856554031372e-01" nType="0">
        <Node pos="l" depth="1" NCoef="0" IVar="6" Cut="7.4323511123657227e+00" cType="1" res="-1.1888310313224792e-02" rms="4.4637447595596313e-01" purity="4.4511678814888000e-01" nType="0">
          <Node pos="l" depth="2" NCoef="0" IVar="-1" Cut="0.0000000000000000e+00" cType="1" res="3.9469614421250299e-05" rms="4.4518411159515381e-01" purity="3.7450441718101501e-01" nType="-99"/>
          <Node pos="r" depth="2" NCoef="0" IVar="-1" Cut="0.0000000000000000e+00" cType="1" res="-1.6200295649468899e-03" rms="4.4761914014816284e-01" purity="5.7744544744491577e-01" nType="-99"/>
        </Node>
        <Node pos="r" depth="1" NCoef="0" IVar="5" Cut="1.0732760429382324e+00" cType="1" res="1.8946444615721703e-02" rms="4.5376473665237427e-01" purity="5.7733327150344849e-01" nType="0">
          <Node pos="l" depth="2" NCoef="0" IVar="-1" Cut="0.0000000000000000e+00" cType="1" res="3.1937798485159874e-04" rms="4.4969153404235840e-01" purity="5.7813620567321777e-01" nType="-99"/>
          <Node pos="r" depth="2" NCoef="0" IVar="-1" Cut="0.0000000000000000e+00" cType="1" res="4.5675151050090790e-03" rms="4.7480320930480957e-01" purity="5.7112532854080200e-01" nType="-99"/>
        </Node>
      </Node>
    </BinaryTree>
    <BinaryTree type="DecisionTree" boostWeight="1.0000000000000000e+00" itree="535">
      <Node pos="s" depth="0" NCoef="0" IVar="0" Cut="1.0077779388427734e+02" cType="1" res="-8.6620179936289787e-03" rms="4.5153304934501648e-01" purity="4.9359729886054993e-01" nType="0">
        <Node pos="l" depth="1" NCoef="0" IVar="2" Cut="9.7459852695465088e-01" cType="1" res="-2.3414071649312973e-02" rms="4.5411571860313416e-01" purity="4.5492744445800781e-01" nType="0">
          <Node pos="l" depth="2" NCoef="0" IVar="-1" Cut="0.0000000000000000e+00" cType="1" res="-1.2693305034190416e-03" rms="4.5510908961296082e-01" purity="4.1193392872810364e-01" nType="-99"/>
          <Node pos="r" depth="2" NCoef="0" IVar="-1" Cut="0.0000000000000000e+00" cType="1" res="7.8577420208603144e-04" rms="4.4670289754867554e-01" purity="6.8180304765701294e-01" nType="-99"/>
        </Node>
        <Node pos="r" depth="1" NCoef="0" IVar="0" Cut="1.4467361450195312e+02" cType="1" res="2.8858084231615067e-02" rms="4.4268712401390076e-01" purity="5.9194946289062500e-01" nType="0">
          <Node pos="l" depth="2" NCoef="0" IVar="-1" Cut="0.0000000000000000e+00" cType="1" res="1.9941593054682016e-03" rms="4.3583062291145325e-01" purity="6.2900745868682861e-01" nType="-99"/>
          <Node pos="r" depth="2" NCoef="0" IVar="-1" Cut="0.0000000000000000e+00" cType="1" res="-9.5180928474292159e-04" rms="4.6123084425926208e-01" purity="4.6908211708068848e-01" nType="-99"/>
        </Node>
      </Node>
    </BinaryTree>
    <BinaryTree type="DecisionTree" boostWeight="1.0000000000000000e+00" itree="536">
      <Node pos="s" depth="0" NCoef="0" IVar="1" Cut="2.6585583686828613e+00" cType="1" res="-1.0665026493370533e-02" rms="4.4965216517448425e-01" purity="4.8835942149162292e-01" nType="0">
        <Node pos="l" depth="1" NCoef="0" IVar="4" Cut="1.1103262901306152e+00" cType="1" res="-6.5670115873217583e-03" rms="4.5731979608535767e-01" purity="5.1598060131072998e-01" nType="0">
          <Node pos="l" depth="2" NCoef="0" IVar="-1" Cut="0.0000000000000000e+00" cType="1" res="-8.8449777103960514e-04" rms="4.5811083912849426e-01" purity="5.7823830842971802e-01" nType="-99"/>
          <Node pos="r" depth="2" NCoef="0" IVar="-1" Cut="0.0000000000000000e+00" cType="1" res="9.7797927446663380e-04" rms="4.5442008972167969e-01" purity="3.9341473579406738e-01" nType="-99"/>
        </Node>
        <Node pos="r" depth="1" NCoef="0" IVar="-1" Cut="0.0000000000000000e+00" cType="1" res="-4.3485029600560665e-03" rms="3.3105584979057312e-01" purity="1.3254188001155853e-01" nType="-99"/>
      </Node>
    </BinaryTree>
    <BinaryTree type="DecisionTree" boostWeight="1.0000000000000000e+00" itree="537">
      <Node pos="s" depth="0" NCoef="0" IVar="1" Cut="1.7588536739349365e+00" cType="1" res="4.7237598337233067e-03" rms="4.5429477095603943e-01" purity="5.0525254011154175e-01" nType="0">
        <Node pos="l" depth="1" NCoef="0" IVar="-1" Cut="0.0000000000000000e+00" cType="1" res="-2.0019866060465574e-03" rms="4.7162118554115295e-01" purity="4.6108415722846985e-01" nType="-99"/>
        <Node pos="r" depth="1" NCoef="0" IVar="7" Cut="1.3171559572219849e-01" cType="1" res="1.0539512149989605e-02" rms="4.5240721106529236e-01" purity="5.0866663455963135e-01" nType="0">
          <Node pos="l" depth="2" NCoef="0" IVar="-1" Cut="0.0000000000000000e+00" cType="1" res="3.9138160645961761e-03" rms="4.5042365789413452e-01" purity="4.3481549620628357e-01" nType="-99"/>
          <Node pos="r" depth="2" NCoef="0" IVar="-1" Cut="0.0000000000000000e+00" cType="1" res="2.4855934316292405e-04" rms="4.5214924216270447e-01" purity="5.1392704248428345e-01" nType="-99"/>
        </Node>
      </Node>
    </BinaryTree>
    <BinaryTree type="DecisionTree" boostWeight="1.0000000000000000e+00" itree="538">
      <Node pos="s" depth="0" NCoef="0" IVar="7" Cut="5.7105183601379395e-01" cType="1" res="1.0324307950213552e-03" rms="4.5047169923782349e-01" purity="5.0238889455795288e-01" nType="0">
        <Node pos="l" depth="1" NCoef="0" IVar="7" Cut="1.4462669193744659e-01" cType="1" res="-7.4106282554566860e-03" rms="4.4974759221076965e-01" purity="4.7359594702720642e-01" nType="0">
          <Node pos="l" depth="2" NCoef="0" IVar="-1" Cut="0.0000000000000000e+00" cType="1" res="2.5898772291839123e-03" rms="4.6094000339508057e-01" purity="4.2367547750473022e-01" nType="-99"/>
          <Node pos="r" depth="2" NCoef="0" IVar="-1" Cut="0.0000000000000000e+00" cType="1" res="-6.6504062851890922e-04" rms="4.4780352711677551e-01" purity="4.7960686683654785e-01" nType="-99"/>
        </Node>
        <Node pos="r" depth="1" NCoef="0" IVar="0" Cut="7.8924049377441406e+01" cType="1" res="3.2428912818431854e-02" rms="4.5177206397056580e-01" purity="6.0945886373519897e-01" nType="0">
          <Node pos="l" depth="2" NCoef="0" IVar="-1" Cut="0.0000000000000000e+00" cType="1" res="2.6475065387785435e-03" rms="4.5391815900802612e-01" purity="6.0229480266571045e-01" nType="-99"/>
          <Node pos="r" depth="2" NCoef="0" IVar="-1" Cut="0.0000000000000000e+00" cType="1" res="-6.8702286807820201e-04" rms="4.4438228011131287e-01" purity="6.1971843242645264e-01" nType="-99"/>
        </Node>
      </Node>
    </BinaryTree>
    <BinaryTree type="DecisionTree" boostWeight="1.0000000000000000e+00" itree="539">
      <Node pos="s" depth="0" NCoef="0" IVar="7" Cut="2.8117603063583374e-01" cType="1" res="-1.8751076422631741e-03" rms="4.4901272654533386e-01" purity="4.9425685405731201e-01" nType="0">
        <Node pos="l" depth="1" NCoef="0" IVar="7" Cut="1.4630462229251862e-01" cType="1" res="-3.3134985715150833e-02" rms="4.3682494759559631e-01" purity="3.8360419869422913e-01" nType="0">
          <Node pos="l" depth="2" NCoef="0" IVar="-1" Cut="0.0000000000000000e+00" cType="1" res="7.4756651883944869e-04" rms="4.2820441722869873e-01" purity="3.7479725480079651e-01" nType="-99"/>
          <Node pos="r" depth="2" NCoef="0" IVar="-1" Cut="0.0000000000000000e+00" cType="1" res="-2.4619670584797859e-03" rms="4.3888032436370850e-01" purity="3.8749891519546509e-01" nType="-99"/>
        </Node>
        <Node pos="r" depth="1" NCoef="0" IVar="1" Cut="2.5478944778442383e+00" cType="1" res="1.2040690518915653e-02" rms="4.5364078879356384e-01" purity="5.4351550340652466e-01" nType="0">
          <Node pos="l" depth="2" NCoef="0" IVar="-1" Cut="0.0000000000000000e+00" cType="1" res="7.1789079811424017e-04" rms="4.5768421888351440e-01" purity="5.7434558868408203e-01" nType="-99"/>
          <Node pos="r" depth="2" NCoef="0" IVar="-1" Cut="0.0000000000000000e+00" cType="1" res="-2.2248399909585714e-03" rms="4.0471756458282471e-01" purity="2.1695418655872345e-01" nType="-99"/>
        </Node>
      </Node>
    </BinaryTree>
    <BinaryTree type="DecisionTree" boostWeight="1.0000000000000000e+00" itree="540">
      <Node pos="s" depth="0" NCoef="0" IVar="4" Cut="1.7242420911788940e+00" cType="1" res="2.8267325833439827e-03" rms="4.5118996500968933e-01" purity="5.0307255983352661e-01" nType="0">
        <Node pos="l" depth="1" NCoef="0" IVar="5" Cut="9.9675601720809937e-01" cType="1" res="6.8236729130148888e-03" rms="4.5796638727188110e-01" purity="5.2527898550033569e-01" nType="0">
          <Node pos="l" depth="2" NCoef="0" IVar="-1" Cut="0.0000000000000000e+00" cType="1" res="6.0630100779235363e-04" rms="4.5850551128387451e-01" purity="5.5526471138000488e-01" nType="-99"/>
          <Node pos="r" depth="2" NCoef="0" IVar="-1" Cut="0.0000000000000000e+00" cType="1" res="-8.8825018610805273e-04" rms="4.5501410961151123e-01" purity="4.1676163673400879e-01" nType="-99"/>
        </Node>
        <Node pos="r" depth="1" NCoef="0" IVar="-1" Cut="0.0000000000000000e+00" cType="1" res="-4.5707430690526962e-03" rms="3.0876007676124573e-01" purity="1.3013598322868347e-01" nType="-99"/>
      </Node>
    </BinaryTree>
    <BinaryTree type="DecisionTree" boostWeight="1.0000000000000000e+00" itree="541">
      <Node pos="s" depth="0" NCoef="0" IVar="6" Cut="6.3048348426818848e+00" cType="1" res="2.4970236700028181e-03" rms="4.5574888586997986e-01" purity="5.0477945804595947e-01" nType="0">
        <Node pos="l" depth="1" NCoef="0" IVar="2" Cut="9.3863338232040405e-01" cType="1" res="3.2537646591663361e-02" rms="4.5878946781158447e-01" purity="3.8321211934089661e-01" nType="0">
          <Node pos="l" depth="2" NCoef="0" IVar="-1" Cut="0.0000000000000000e+00" cType="1" res="7.8000006033107638e-04" rms="4.5309934020042419e-01" purity="3.5518330335617065e-01" nType="-99"/>
          <Node pos="r" depth="2" NCoef="0" IVar="-1" Cut="0.0000000000000000e+00" cType="1" res="4.0088896639645100e-03" rms="4.7853884100914001e-01" purity="5.1368570327758789e-01" nType="-99"/>
        </Node>
        <Node pos="r" depth="1" NCoef="0" IVar="5" Cut="6.0400843620300293e-01" cType="1" res="-1.4043966308236122e-02" rms="4.5321673154830933e-01" purity="5.7171696424484253e-01" nType="0">
          <Node pos="l" depth="2" NCoef="0" IVar="-1" Cut="0.0000000000000000e+00" cType="1" res="-2.4005118757486343e-03" rms="4.5530158281326294e-01" purity="6.0000360012054443e-01" nType="-99"/>
          <Node pos="r" depth="2" NCoef="0" IVar="-1" Cut="0.0000000000000000e+00" cType="1" res="1.3027079694438726e-04" rms="4.5125630497932434e-01" purity="5.5979007482528687e-01" nType="-99"/>
        </Node>
      </Node>
    </BinaryTree>
    <BinaryTree type="DecisionTree" boostWeight="1.0000000000000000e+00" itree="542">
      <Node pos="s" depth="0" NCoef="0" IVar="1" Cut="2.7565486431121826e+00" cType="1" res="9.8756272345781326e-03" rms="4.4978836178779602e-01" purity="5.0350332260131836e-01" nType="0">
        <Node pos="l" depth="1" NCoef="0" IVar="3" Cut="-3.9797794073820114e-02" cType="1" res="1.3334807939827442e-02" rms="4.5531982183456421e-01" purity="5.2532017230987549e-01" nType="0">
          <Node pos="l" depth="2" NCoef="0" IVar="-1" Cut="0.0000000000000000e+00" cType="1" res="1.4638534048572183e-03" rms="4.5413875579833984e-01" purity="5.0673890113830566e-01" nType="-99"/>
          <Node pos="r" depth="2" NCoef="0" IVar="-1" Cut="0.0000000000000000e+00" cType="1" res="4.0306797018274665e-05" rms="4.5555928349494934e-01" purity="5.3626710176467896e-01" nType="-99"/>
        </Node>
        <Node pos="r" depth="1" NCoef="0" IVar="-1" Cut="0.0000000000000000e+00" cType="1" res="-3.7347618490457535e-03" rms="3.3373710513114929e-01" purity="1.2395409494638443e-01" nType="-99"/>
      </Node>
    </BinaryTree>
    <BinaryTree type="DecisionTree" boostWeight="1.0000000000000000e+00" itree="543">
      <Node pos="s" depth="0" NCoef="0" IVar="7" Cut="5.0318163633346558e-01" cType="1" res="-1.1361757293343544e-02" rms="4.5198330283164978e-01" purity="4.8385316133499146e-01" nType="0">
        <Node pos="l" depth="1" NCoef="0" IVar="7" Cut="1.2807668745517731e-01" cType="1" res="-2.3767324164509773e-02" rms="4.4779184460639954e-01" purity="4.4314771890640259e-01" nType="0">
          <Node pos="l" depth="2" NCoef="0" IVar="-1" Cut="0.0000000000000000e+00" cType="1" res="2.1999515593051910e-03" rms="4.5686236023902893e-01" purity="4.1424357891082764e-01" nType="-99"/>
          <Node pos="r" depth="2" NCoef="0" IVar="-1" Cut="0.0000000000000000e+00" cType="1" res="-1.3376575661823153e-03" rms="4.4624611735343933e-01" purity="4.4610247015953064e-01" nType="-99"/>
        </Node>
        <Node pos="r" depth="1" NCoef="0" IVar="7" Cut="6.8343824148178101e-01" cType="1" res="1.6376880928874016e-02" rms="4.6000882983207703e-01" purity="5.7486975193023682e-01" nType="0">
          <Node pos="l" depth="2" NCoef="0" IVar="-1" Cut="0.0000000000000000e+00" cType="1" res="1.3634407659992576e-03" rms="4.6099090576171875e-01" purity="5.8257627487182617e-01" nType="-99"/>
          <Node pos="r" depth="2" NCoef="0" IVar="-1" Cut="0.0000000000000000e+00" cType="1" res="-1.1979097034782171e-03" rms="4.5424410700798035e-01" purity="5.5355501174926758e-01" nType="-99"/>
        </Node>
      </Node>
    </BinaryTree>
    <BinaryTree type="DecisionTree" boostWeight="1.0000000000000000e+00" itree="544">
      <Node pos="s" depth="0" NCoef="0" IVar="1" Cut="2.2655956745147705e+00" cType="1" res="1.3901771977543831e-02" rms="4.4655734300613403e-01" purity="5.1333326101303101e-01" nType="0">
        <Node pos="l" depth="1" NCoef="0" IVar="6" Cut="5.7449464797973633e+00" cType="1" res="2.9012484475970268e-02" rms="4.5464795827865601e-01" purity="6.0423398017883301e-01" nType="0">
          <Node pos="l" depth="2" NCoef="0" IVar="-1" Cut="0.0000000000000000e+00" cType="1" res="2.9892993625253439e-03" rms="4.6713078022003174e-01" purity="4.4604057073593140e-01" nType="-99"/>
          <Node pos="r" depth="2" NCoef="0" IVar="-1" Cut="0.0000000000000000e+00" cType="1" res="7.7597872586920857e-04" rms="4.5092824101448059e-01" purity="6.4216238260269165e-01" nType="-99"/>
        </Node>
        <Node pos="r" depth="1" NCoef="0" IVar="7" Cut="1.6748140752315521e-01" cType="1" res="-1.4668339863419533e-02" rms="4.2939454317092896e-01" purity="3.4146553277969360e-01" nType="0">
          <Node pos="l" depth="2" NCoef="0" IVar="-1" Cut="0.0000000000000000e+00" cType="1" res="2.0880487281829119e-03" rms="4.2322841286659241e-01" purity="3.0032601952552795e-01" nType="-99"/>
          <Node pos="r" depth="2" NCoef="0" IVar="-1" Cut="0.0000000000000000e+00" cType="1" res="-1.2712520547211170e-03" rms="4.2987602949142456e-01" purity="3.5070258378982544e-01" nType="-99"/>
        </Node>
      </Node>
    </BinaryTree>
    <BinaryTree type="DecisionTree" boostWeight="1.0000000000000000e+00" itree="545">
      <Node pos="s" depth="0" NCoef="0" IVar="3" Cut="-5.4861761629581451e-02" cType="1" res="7.2140088304877281e-03" rms="4.5098677277565002e-01" purity="5.0487583875656128e-01" nType="0">
        <Node pos="l" depth="1" NCoef="0" IVar="5" Cut="7.2351008653640747e-01" cType="1" res="3.3750716596841812e-02" rms="4.4501107931137085e-01" purity="4.7943025827407837e-01" nType="0">
          <Node pos="l" depth="2" NCoef="0" IVar="-1" Cut="0.0000000000000000e+00" cType="1" res="2.6170338969677687e-03" rms="4.5908796787261963e-01" purity="5.9081703424453735e-01" nType="-99"/>
          <Node pos="r" depth="2" NCoef="0" IVar="-1" Cut="0.0000000000000000e+00" cType="1" res="1.0639747779350728e-04" rms="4.2600136995315552e-01" purity="3.5077500343322754e-01" nType="-99"/>
        </Node>
        <Node pos="r" depth="1" NCoef="0" IVar="3" Cut="-1.5134389512240887e-02" cType="1" res="-5.5405702441930771e-03" rms="4.5327848196029663e-01" purity="5.1710599660873413e-01" nType="0">
          <Node pos="l" depth="2" NCoef="0" IVar="-1" Cut="0.0000000000000000e+00" cType="1" res="-1.8090297235175967e-03" rms="4.5716756582260132e-01" purity="4.5036101341247559e-01" nType="-99"/>
          <Node pos="r" depth="2" NCoef="0" IVar="-1" Cut="0.0000000000000000e+00" cType="1" res="1.6912931459955871e-04" rms="4.5175856351852417e-01" purity="5.3493499755859375e-01" nType="-99"/>
        </Node>
      </Node>
    </BinaryTree>
    <BinaryTree type="DecisionTree" boostWeight="1.0000000000000000e+00" itree="546">
      <Node pos="s" depth="0" NCoef="0" IVar="2" Cut="9.8527383804321289e-01" cType="1" res="5.6547089479863644e-03" rms="4.5111286640167236e-01" purity="5.0804859399795532e-01" nType="0">
        <Node pos="l" depth="1" NCoef="0" IVar="4" Cut="6.2226319313049316e-01" cType="1" res="1.9000656902790070e-03" rms="4.5507645606994629e-01" purity="4.8971349000930786e-01" nType="0">
          <Node pos="l" depth="2" NCoef="0" IVar="-1" Cut="0.0000000000000000e+00" cType="1" res="1.4410992152988911e-03" rms="4.4297346472740173e-01" purity="6.7970395088195801e-01" nType="-99"/>
          <Node pos="r" depth="2" NCoef="0" IVar="-1" Cut="0.0000000000000000e+00" cType="1" res="-1.8319867376703769e-04" rms="4.5706483721733093e-01" purity="4.5391693711280823e-01" nType="-99"/>
        </Node>
        <Node pos="r" depth="1" NCoef="0" IVar="-1" Cut="0.0000000000000000e+00" cType="1" res="3.1087121460586786e-03" rms="3.8445076346397400e-01" purity="7.7596795558929443e-01" nType="-99"/>
      </Node>
    </BinaryTree>
    <BinaryTree type="DecisionTree" boostWeight="1.0000000000000000e+00" itree="547">
      <Node pos="s" depth="0" NCoef="0" IVar="1" Cut="2.4206776618957520e+00" cType="1" res="2.3925905115902424e-03" rms="4.4801700115203857e-01" purity="5.0062024593353271e-01" nType="0">
        <Node pos="l" depth="1" NCoef="0" IVar="7" Cut="4.7658380866050720e-01" cType="1" res="1.0094673372805119e-02" rms="4.5897600054740906e-01" purity="5.6478184461593628e-01" nType="0">
          <Node pos="l" depth="2" NCoef="0" IVar="-1" Cut="0.0000000000000000e+00" cType="1" res="-1.1982361320406199e-04" rms="4.5971900224685669e-01" purity="5.3007358312606812e-01" nType="-99"/>
          <Node pos="r" depth="2" NCoef="0" IVar="-1" Cut="0.0000000000000000e+00" cType="1" res="1.2383108260110021e-03" rms="4.5713597536087036e-01" purity="6.1775988340377808e-01" nType="-99"/>
        </Node>
        <Node pos="r" depth="1" NCoef="0" IVar="5" Cut="1.0209383964538574e+00" cType="1" res="-2.7723439037799835e-02" rms="4.0089237689971924e-01" purity="2.4974119663238525e-01" nType="0">
          <Node pos="l" depth="2" NCoef="0" IVar="-1" Cut="0.0000000000000000e+00" cType="1" res="-6.5740785794332623e-04" rms="4.1020435094833374e-01" purity="2.7078774571418762e-01" nType="-99"/>
          <Node pos="r" depth="2" NCoef="0" IVar="-1" Cut="0.0000000000000000e+00" cType="1" res="-3.5961493849754333e-03" rms="3.7776210904121399e-01" purity="2.0425370335578918e-01" nType="-99"/>
        </Node>
      </Node>
    </BinaryTree>
    <BinaryTree type="DecisionTree" boostWeight="1.0000000000000000e+00" itree="548">
      <Node pos="s" depth="0" NCoef="0" IVar="1" Cut="2.6651663780212402e+00" cType="1" res="7.1558859199285507e-03" rms="4.5040071010589600e-01" purity="4.9766507744789124e-01" nType="0">
        <Node pos="l" depth="1" NCoef="0" IVar="7" Cut="1.5874139964580536e-01" cType="1" res="1.1482769623398781e-02" rms="4.5822137594223022e-01" purity="5.2776432037353516e-01" nType="0">
          <Node pos="l" depth="2" NCoef="0" IVar="-1" Cut="0.0000000000000000e+00" cType="1" res="3.2442137598991394e-03" rms="4.6110993623733521e-01" purity="4.9882003664970398e-01" nType="-99"/>
          <Node pos="r" depth="2" NCoef="0" IVar="-1" Cut="0.0000000000000000e+00" cType="1" res="2.0965879957657307e-04" rms="4.5741420984268188e-01" purity="5.3080803155899048e-01" nType="-99"/>
        </Node>
        <Node pos="r" depth="1" NCoef="0" IVar="-1" Cut="0.0000000000000000e+00" cType="1" res="-3.2347191590815783e-03" rms="3.3841311931610107e-01" purity="1.3590082526206970e-01" nType="-99"/>
      </Node>
    </BinaryTree>
    <BinaryTree type="DecisionTree" boostWeight="1.0000000000000000e+00" itree="549">
      <Node pos="s" depth="0" NCoef="0" IVar="5" Cut="6.7196303606033325e-01" cType="1" res="-6.8078660406172276e-03" rms="4.4929823279380798e-01" purity="4.9104750156402588e-01" nType="0">
        <Node pos="l" depth="1" NCoef="0" IVar="3" Cut="-3.3731292933225632e-02" cType="1" res="1.2468685396015644e-02" rms="4.5591187477111816e-01" purity="5.8796590566635132e-01" nType="0">
          <Node pos="l" depth="2" NCoef="0" IVar="-1" Cut="0.0000000000000000e+00" cType="1" res="-6.9029768928885460e-04" rms="4.6451151371002197e-01" purity="5.3550195693969727e-01" nType="-99"/>
          <Node pos="r" depth="2" NCoef="0" IVar="-1" Cut="0.0000000000000000e+00" cType="1" res="1.6121787484735250e-03" rms="4.4650003314018250e-01" purity="6.3499796390533447e-01" nType="-99"/>
        </Node>
        <Node pos="r" depth="1" NCoef="0" IVar="1" Cut="2.0404877662658691e+00" cType="1" res="-1.8206132575869560e-02" rms="4.4494864344596863e-01" purity="4.3373942375183105e-01" nType="0">
          <Node pos="l" depth="2" NCoef="0" IVar="-1" Cut="0.0000000000000000e+00" cType="1" res="-2.5233435444533825e-03" rms="4.6067354083061218e-01" purity="4.8362013697624207e-01" nType="-99"/>
          <Node pos="r" depth="2" NCoef="0" IVar="-1" Cut="0.0000000000000000e+00" cType="1" res="-2.2930973500479013e-04" rms="4.3884724378585815e-01" purity="4.1736716032028198e-01" nType="-99"/>
        </Node>
      </Node>
    </BinaryTree>
    <BinaryTree type="DecisionTree" boostWeight="1.0000000000000000e+00" itree="550">
      <Node pos="s" depth="0" NCoef="0" IVar="2" Cut="9.1933131217956543e-01" cType="1" res="-4.0644337423145771e-03" rms="4.5530304312705994e-01" purity="4.9434533715248108e-01" nType="0">
        <Node pos="l" depth="1" NCoef="0" IVar="2" Cut="9.1003447771072388e-01" cType="1" res="6.5447345376014709e-02" rms="4.5789003372192383e-01" purity="3.5138368606567383e-01" nType="0">
          <Node pos="l" depth="2" NCoef="0" IVar="-1" Cut="0.0000000000000000e+00" cType="1" res="1.5544439665973186e-03" rms="4.4395768642425537e-01" purity="2.9446065425872803e-01" nType="-99"/>
          <Node pos="r" depth="2" NCoef="0" IVar="-1" Cut="0.0000000000000000e+00" cType="1" res="4.8875203356146812e-03" rms="4.7031018137931824e-01" purity="4.1704627871513367e-01" nType="-99"/>
        </Node>
        <Node pos="r" depth="1" NCoef="0" IVar="6" Cut="5.5689349174499512e+00" cType="1" res="-1.2470095418393612e-02" rms="4.5426893234252930e-01" purity="5.1163291931152344e-01" nType="0">
          <Node pos="l" depth="2" NCoef="0" IVar="-1" Cut="0.0000000000000000e+00" cType="1" res="-3.2338781747967005e-03" rms="4.0510398149490356e-01" purity="2.3549687862396240e-01" nType="-99"/>
          <Node pos="r" depth="2" NCoef="0" IVar="-1" Cut="0.0000000000000000e+00" cType="1" res="-3.3723431988619268e-04" rms="4.5792815089225769e-01" purity="5.3533267974853516e-01" nType="-99"/>
        </Node>
      </Node>
    </BinaryTree>
    <BinaryTree type="DecisionTree" boostWeight="1.0000000000000000e+00" itree="551">
      <Node pos="s" depth="0" NCoef="0" IVar="7" Cut="6.7417782545089722e-01" cType="1" res="1.1645201448118314e-04" rms="4.5279034972190857e-01" purity="5.0103646516799927e-01" nType="0">
        <Node pos="l" depth="1" NCoef="0" IVar="6" Cut="7.1501526832580566e+00" cType="1" res="5.3479615598917007e-03" rms="4.5176044106483459e-01" purity="4.9622669816017151e-01" nType="0">
          <Node pos="l" depth="2" NCoef="0" IVar="-1" Cut="0.0000000000000000e+00" cType="1" res="7.9481984721496701e-04" rms="4.5512545108795166e-01" purity="4.1126039624214172e-01" nType="-99"/>
          <Node pos="r" depth="2" NCoef="0" IVar="-1" Cut="0.0000000000000000e+00" cType="1" res="-6.4264627872034907e-04" rms="4.4600799679756165e-01" purity="6.2278836965560913e-01" nType="-99"/>
        </Node>
        <Node pos="r" depth="1" NCoef="0" IVar="-1" Cut="0.0000000000000000e+00" cType="1" res="-2.1352020557969809e-03" rms="4.5957198739051819e-01" purity="5.4758155345916748e-01" nType="-99"/>
      </Node>
    </BinaryTree>
    <BinaryTree type="DecisionTree" boostWeight="1.0000000000000000e+00" itree="552">
      <Node pos="s" depth="0" NCoef="0" IVar="7" Cut="5.4036557674407959e-01" cType="1" res="-5.3338026627898216e-03" rms="4.5205020904541016e-01" purity="4.9575996398925781e-01" nType="0">
        <Node pos="l" depth="1" NCoef="0" IVar="1" Cut="2.0904290676116943e+00" cType="1" res="-1.4914173632860184e-02" rms="4.5068731904029846e-01" purity="4.5967629551887512e-01" nType="0">
          <Node pos="l" depth="2" NCoef="0" IVar="-1" Cut="0.0000000000000000e+00" cType="1" res="-1.4380452921614051e-03" rms="4.6269816160202026e-01" purity="5.2415144443511963e-01" nType="-99"/>
          <Node pos="r" depth="2" NCoef="0" IVar="-1" Cut="0.0000000000000000e+00" cType="1" res="-1.2339118984527886e-04" rms="4.4261670112609863e-01" purity="4.1961783170700073e-01" nType="-99"/>
        </Node>
        <Node pos="r" depth="1" NCoef="0" IVar="5" Cut="7.5836336612701416e-01" cType="1" res="2.3078709840774536e-02" rms="4.5488324761390686e-01" purity="6.0277336835861206e-01" nType="0">
          <Node pos="l" depth="2" NCoef="0" IVar="-1" Cut="0.0000000000000000e+00" cType="1" res="1.9491289276629686e-03" rms="4.4328108429908752e-01" purity="6.5563762187957764e-01" nType="-99"/>
          <Node pos="r" depth="2" NCoef="0" IVar="-1" Cut="0.0000000000000000e+00" cType="1" res="-5.5895862169563770e-04" rms="4.6982231736183167e-01" purity="5.2170902490615845e-01" nType="-99"/>
        </Node>
      </Node>
    </BinaryTree>
    <BinaryTree type="DecisionTree" boostWeight="1.0000000000000000e+00" itree="553">
      <Node pos="s" depth="0" NCoef="0" IVar="0" Cut="1.4279339599609375e+02" cType="1" res="3.4802327863872051e-03" rms="4.4977933168411255e-01" purity="4.9917083978652954e-01" nType="0">
        <Node pos="l" depth="1" NCoef="0" IVar="3" Cut="2.2530199587345123e-01" cType="1" res="6.9161066785454750e-03" rms="4.4965100288391113e-01" purity="5.0538015365600586e-01" nType="0">
          <Node pos="l" depth="2" NCoef="0" IVar="-1" Cut="0.0000000000000000e+00" cType="1" res="4.2245112126693130e-04" rms="4.4953414797782898e-01" purity="5.0195163488388062e-01" nType="-99"/>
          <Node pos="r" depth="2" NCoef="0" IVar="-1" Cut="0.0000000000000000e+00" cType="1" res="-1.2842143187299371e-03" rms="4.4964760541915894e-01" purity="5.5521827936172485e-01" nType="-99"/>
        </Node>
        <Node pos="r" depth="1" NCoef="0" IVar="-1" Cut="0.0000000000000000e+00" cType="1" res="-2.0218698773533106e-03" rms="4.4894018769264221e-01" purity="4.1530135273933411e-01" nType="-99"/>
      </Node>
    </BinaryTree>
    <BinaryTree type="DecisionTree" boostWeight="1.0000000000000000e+00" itree="554">
      <Node pos="s" depth="0" NCoef="0" IVar="7" Cut="1.9078390300273895e-01" cType="1" res="2.6004640385508537e-03" rms="4.4795471429824829e-01" purity="5.0135803222656250e-01" nType="0">
        <Node pos="l" depth="1" NCoef="0" IVar="6" Cut="6.0080833435058594e+00" cType="1" res="-3.4434057772159576e-02" rms="4.2871561646461487e-01" purity="3.4844490885734558e-01" nType="0">
          <Node pos="l" depth="2" NCoef="0" IVar="-1" Cut="0.0000000000000000e+00" cType="1" res="4.6259249211288989e-04" rms="4.1545313596725464e-01" purity="2.6950839161872864e-01" nType="-99"/>
          <Node pos="r" depth="2" NCoef="0" IVar="-1" Cut="0.0000000000000000e+00" cType="1" res="-2.6776005979627371e-03" rms="4.3387559056282043e-01" purity="3.9061743021011353e-01" nType="-99"/>
        </Node>
        <Node pos="r" depth="1" NCoef="0" IVar="6" Cut="4.9463920593261719e+00" cType="1" res="9.2798899859189987e-03" rms="4.5101374387741089e-01" purity="5.2893692255020142e-01" nType="0">
          <Node pos="l" depth="2" NCoef="0" IVar="-1" Cut="0.0000000000000000e+00" cType="1" res="-2.2370056249201298e-03" rms="4.0386158227920532e-01" purity="2.1243970096111298e-01" nType="-99"/>
          <Node pos="r" depth="2" NCoef="0" IVar="-1" Cut="0.0000000000000000e+00" cType="1" res="5.6742870947346091e-04" rms="4.5393311977386475e-01" purity="5.5150467157363892e-01" nType="-99"/>
        </Node>
      </Node>
    </BinaryTree>
    <BinaryTree type="DecisionTree" boostWeight="1.0000000000000000e+00" itree="555">
      <Node pos="s" depth="0" NCoef="0" IVar="3" Cut="-2.9783487319946289e-02" cType="1" res="2.0924678537994623e-03" rms="4.5119181275367737e-01" purity="5.0003749132156372e-01" nType="0">
        <Node pos="l" depth="1" NCoef="0" IVar="7" Cut="3.3171331882476807e-01" cType="1" res="2.0176682621240616e-02" rms="4.5347723364830017e-01" purity="4.6629992127418518e-01" nType="0">
          <Node pos="l" depth="2" NCoef="0" IVar="-1" Cut="0.0000000000000000e+00" cType="1" res="3.1082564964890480e-03" rms="4.4623795151710510e-01" purity="4.3567267060279846e-01" nType="-99"/>
          <Node pos="r" depth="2" NCoef="0" IVar="-1" Cut="0.0000000000000000e+00" cType="1" res="-3.3225025981664658e-04" rms="4.5579856634140015e-01" purity="4.8570322990417480e-01" nType="-99"/>
        </Node>
        <Node pos="r" depth="1" NCoef="0" IVar="5" Cut="7.0145952701568604e-01" cType="1" res="-1.1291739530861378e-02" rms="4.4902411103248596e-01" purity="5.2500683069229126e-01" nType="0">
          <Node pos="l" depth="2" NCoef="0" IVar="-1" Cut="0.0000000000000000e+00" cType="1" res="6.2092050211504102e-04" rms="4.5175373554229736e-01" purity="6.1521160602569580e-01" nType="-99"/>
          <Node pos="r" depth="2" NCoef="0" IVar="-1" Cut="0.0000000000000000e+00" cType="1" res="-1.2233605375513434e-03" rms="4.4647029042243958e-01" purity="4.6742972731590271e-01" nType="-99"/>
        </Node>
      </Node>
    </BinaryTree>
    <BinaryTree type="DecisionTree" boostWeight="1.0000000000000000e+00" itree="556">
      <Node pos="s" depth="0" NCoef="0" IVar="6" Cut="5.2796964645385742e+00" cType="1" res="3.1620202935300767e-04" rms="4.4757610559463501e-01" purity="4.9953335523605347e-01" nType="0">
        <Node pos="l" depth="1" NCoef="0" IVar="5" Cut="8.8148367404937744e-01" cType="1" res="-4.3297871947288513e-02" rms="4.1416344046592712e-01" purity="2.2837089002132416e-01" nType="0">
          <Node pos="l" depth="2" NCoef="0" IVar="-1" Cut="0.0000000000000000e+00" cType="1" res="-4.3546510860323906e-03" rms="4.1393080353736877e-01" purity="2.2347879409790039e-01" nType="-99"/>
          <Node pos="r" depth="2" NCoef="0" IVar="-1" Cut="0.0000000000000000e+00" cType="1" res="1.1689087841659784e-03" rms="4.0525802969932556e-01" purity="2.3425248265266418e-01" nType="-99"/>
        </Node>
        <Node pos="r" depth="1" NCoef="0" IVar="3" Cut="2.0908193290233612e-01" cType="1" res="6.2031308189034462e-03" rms="4.5157432556152344e-01" purity="5.3613424301147461e-01" nType="0">
          <Node pos="l" depth="2" NCoef="0" IVar="-1" Cut="0.0000000000000000e+00" cType="1" res="5.7143657613778487e-05" rms="4.5318406820297241e-01" purity="5.2278757095336914e-01" nType="-99"/>
          <Node pos="r" depth="2" NCoef="0" IVar="-1" Cut="0.0000000000000000e+00" cType="1" res="2.8169548604637384e-03" rms="4.2786312103271484e-01" purity="6.9387876987457275e-01" nType="-99"/>
        </Node>
      </Node>
    </BinaryTree>
    <BinaryTree type="DecisionTree" boostWeight="1.0000000000000000e+00" itree="557">
      <Node pos="s" depth="0" NCoef="0" IVar="6" Cut="6.6026482582092285e+00" cType="1" res="3.2895815093070269e-03" rms="4.5121330022811890e-01" purity="5.0114238262176514e-01" nType="0">
        <Node pos="l" depth="1" NCoef="0" IVar="6" Cut="6.3974952697753906e+00" cType="1" res="-1.1078929528594017e-02" rms="4.5542529225349426e-01" purity="3.6000990867614746e-01" nType="0">
          <Node pos="l" depth="2" NCoef="0" IVar="-1" Cut="0.0000000000000000e+00" cType="1" res="-5.0554181143525057e-06" rms="4.5095214247703552e-01" purity="3.5804444551467896e-01" nType="-99"/>
          <Node pos="r" depth="2" NCoef="0" IVar="-1" Cut="0.0000000000000000e+00" cType="1" res="-3.8440627977252007e-03" rms="4.7958016395568848e-01" purity="3.7460514903068542e-01" nType="-99"/>
        </Node>
        <Node pos="r" depth="1" NCoef="0" IVar="2" Cut="9.5194178819656372e-01" cType="1" res="1.4667056500911713e-02" rms="4.4752287864685059e-01" purity="6.1289590597152710e-01" nType="0">
          <Node pos="l" depth="2" NCoef="0" IVar="-1" Cut="0.0000000000000000e+00" cType="1" res="2.8785164467990398e-03" rms="4.5219939947128296e-01" purity="6.0104495286941528e-01" nType="-99"/>
          <Node pos="r" depth="2" NCoef="0" IVar="-1" Cut="0.0000000000000000e+00" cType="1" res="2.2139366774354130e-04" rms="4.4597187638282776e-01" purity="6.1499929428100586e-01" nType="-99"/>
        </Node>
      </Node>
    </BinaryTree>
    <BinaryTree type="DecisionTree" boostWeight="1.0000000000000000e+00" itree="558">
      <Node pos="s" depth="0" NCoef="0" IVar="7" Cut="3.0522552132606506e-01" cType="1" res="-1.3727203942835331e-02" rms="4.5074507594108582e-01" purity="4.8300072550773621e-01" nType="0">
        <Node pos="l" depth="1" NCoef="0" IVar="7" Cut="2.6743024587631226e-01" cType="1" res="1.0321965441107750e-02" rms="4.3761262297630310e-01" purity="4.2690840363502502e-01" nType="0">
          <Node pos="l" depth="2" NCoef="0" IVar="-1" Cut="0.0000000000000000e+00" cType="1" res="-1.5459033602382988e-04" rms="4.3367254734039307e-01" purity="4.0159124135971069e-01" nType="-99"/>
          <Node pos="r" depth="2" NCoef="0" IVar="-1" Cut="0.0000000000000000e+00" cType="1" res="3.0099488794803619e-03" rms="4.4922506809234619e-01" purity="5.3281050920486450e-01" nType="-99"/>
        </Node>
        <Node pos="r" depth="1" NCoef="0" IVar="3" Cut="8.0915726721286774e-02" cType="1" res="-2.6459235697984695e-02" rms="4.5703300833702087e-01" purity="5.1269698143005371e-01" nType="0">
          <Node pos="l" depth="2" NCoef="0" IVar="-1" Cut="0.0000000000000000e+00" cType="1" res="-1.7041417304426432e-03" rms="4.5845815539360046e-01" purity="4.7681894898414612e-01" nType="-99"/>
          <Node pos="r" depth="2" NCoef="0" IVar="-1" Cut="0.0000000000000000e+00" cType="1" res="3.9205819484777749e-04" rms="4.5124652981758118e-01" purity="6.0961031913757324e-01" nType="-99"/>
        </Node>
      </Node>
    </BinaryTree>
    <BinaryTree type="DecisionTree" boostWeight="1.0000000000000000e+00" itree="559">
      <Node pos="s" depth="0" NCoef="0" IVar="5" Cut="1.2180370092391968e+00" cType="1" res="5.0280923023819923e-03" rms="4.5161485671997070e-01" purity="5.1149952411651611e-01" nType="0">
        <Node pos="l" depth="1" NCoef="0" IVar="6" Cut="8.2193851470947266e+00" cType="1" res="9.4734821468591690e-03" rms="4.5315802097320557e-01" purity="5.2317321300506592e-01" nType="0">
          <Node pos="l" depth="2" NCoef="0" IVar="-1" Cut="0.0000000000000000e+00" cType="1" res="7.2327879024669528e-04" rms="4.5763999223709106e-01" purity="4.8883381485939026e-01" nType="-99"/>
          <Node pos="r" depth="2" NCoef="0" IVar="-1" Cut="0.0000000000000000e+00" cType="1" res="-1.1412709718570113e-03" rms="4.3166255950927734e-01" purity="6.7242938280105591e-01" nType="-99"/>
        </Node>
        <Node pos="r" depth="1" NCoef="0" IVar="-1" Cut="0.0000000000000000e+00" cType="1" res="-2.9927433934062719e-03" rms="4.2029249668121338e-01" purity="3.2702794671058655e-01" nType="-99"/>
      </Node>
    </BinaryTree>
    <BinaryTree type="DecisionTree" boostWeight="1.0000000000000000e+00" itree="560">
      <Node pos="s" depth="0" NCoef="0" IVar="0" Cut="1.0200418090820312e+02" cType="1" res="-3.1168942805379629e-03" rms="4.5107838511466980e-01" purity="4.9847221374511719e-01" nType="0">
        <Node pos="l" depth="1" NCoef="0" IVar="1" Cut="2.1182870864868164e+00" cType="1" res="-1.4726846478879452e-02" rms="4.5239156484603882e-01" purity="4.6754711866378784e-01" nType="0">
          <Node pos="l" depth="2" NCoef="0" IVar="-1" Cut="0.0000000000000000e+00" cType="1" res="3.3951416844502091e-04" rms="4.6424767374992371e-01" purity="5.6480312347412109e-01" nType="-99"/>
          <Node pos="r" depth="2" NCoef="0" IVar="-1" Cut="0.0000000000000000e+00" cType="1" res="-1.8523742910474539e-03" rms="4.3757966160774231e-01" purity="3.6045742034912109e-01" nType="-99"/>
        </Node>
        <Node pos="r" depth="1" NCoef="0" IVar="7" Cut="5.5563241243362427e-01" cType="1" res="2.9273616150021553e-02" rms="4.4579872488975525e-01" purity="5.8474993705749512e-01" nType="0">
          <Node pos="l" depth="2" NCoef="0" IVar="-1" Cut="0.0000000000000000e+00" cType="1" res="2.0622010342776775e-03" rms="4.4604867696762085e-01" purity="5.8204841613769531e-01" nType="-99"/>
          <Node pos="r" depth="2" NCoef="0" IVar="-1" Cut="0.0000000000000000e+00" cType="1" res="-1.6602154355496168e-03" rms="4.3881914019584656e-01" purity="5.9554541110992432e-01" nType="-99"/>
        </Node>
      </Node>
    </BinaryTree>
    <BinaryTree type="DecisionTree" boostWeight="1.0000000000000000e+00" itree="561">
      <Node pos="s" depth="0" NCoef="0" IVar="4" Cut="7.1725225448608398e-01" cType="1" res="6.1141182668507099e-03" rms="4.5158931612968445e-01" purity="5.1005643606185913e-01" nType="0">
        <Node pos="l" depth="1" NCoef="0" IVar="2" Cut="9.4205611944198608e-01" cType="1" res="-3.0287517234683037e-02" rms="4.5410269498825073e-01" purity="6.2065964937210083e-01" nType="0">
          <Node pos="l" depth="2" NCoef="0" IVar="-1" Cut="0.0000000000000000e+00" cType="1" res="-3.1274990178644657e-03" rms="4.7531884908676147e-01" purity="4.3070089817047119e-01" nType="-99"/>
          <Node pos="r" depth="2" NCoef="0" IVar="-1" Cut="0.0000000000000000e+00" cType="1" res="-1.4947808813303709e-04" rms="4.4085782766342163e-01" purity="7.1333253383636475e-01" nType="-99"/>
        </Node>
        <Node pos="r" depth="1" NCoef="0" IVar="6" Cut="9.1382894515991211e+00" cType="1" res="1.7614066600799561e-02" rms="4.5018094778060913e-01" purity="4.7511482238769531e-01" nType="0">
          <Node pos="l" depth="2" NCoef="0" IVar="-1" Cut="0.0000000000000000e+00" cType="1" res="5.8891775552183390e-04" rms="4.5302200317382812e-01" purity="4.5415070652961731e-01" nType="-99"/>
          <Node pos="r" depth="2" NCoef="0" IVar="-1" Cut="0.0000000000000000e+00" cType="1" res="3.3999814186245203e-03" rms="4.1007122397422791e-01" purity="7.3094564676284790e-01" nType="-99"/>
        </Node>
      </Node>
    </BinaryTree>
    <BinaryTree type="DecisionTree" boostWeight="1.0000000000000000e+00" itree="562">
      <Node pos="s" depth="0" NCoef="0" IVar="4" Cut="1.0344041585922241e+00" cType="1" res="2.9894318431615829e-03" rms="4.4803553819656372e-01" purity="4.9983111023902893e-01" nType="0">
        <Node pos="l" depth="1" NCoef="0" IVar="7" Cut="2.6205393671989441e-01" cType="1" res="1.9595488905906677e-02" rms="4.5545333623886108e-01" purity="6.3214415311813354e-01" nType="0">
          <Node pos="l" depth="2" NCoef="0" IVar="-1" Cut="0.0000000000000000e+00" cType="1" res="-1.7936747753992677e-03" rms="4.6748733520507812e-01" purity="5.4401904344558716e-01" nType="-99"/>
          <Node pos="r" depth="2" NCoef="0" IVar="-1" Cut="0.0000000000000000e+00" cType="1" res="1.3897803146392107e-03" rms="4.5159190893173218e-01" purity="6.5157091617584229e-01" nType="-99"/>
        </Node>
        <Node pos="r" depth="1" NCoef="0" IVar="1" Cut="2.3260986804962158e+00" cType="1" res="-1.6640141606330872e-02" rms="4.3829488754272461e-01" purity="3.4342730045318604e-01" nType="0">
          <Node pos="l" depth="2" NCoef="0" IVar="-1" Cut="0.0000000000000000e+00" cType="1" res="-1.7258066218346357e-03" rms="4.5658323168754578e-01" purity="3.9859136939048767e-01" nType="-99"/>
          <Node pos="r" depth="2" NCoef="0" IVar="-1" Cut="0.0000000000000000e+00" cType="1" res="5.9655933000613004e-05" rms="4.2330172657966614e-01" purity="3.0238837003707886e-01" nType="-99"/>
        </Node>
      </Node>
    </BinaryTree>
    <BinaryTree type="DecisionTree" boostWeight="1.0000000000000000e+00" itree="563">
      <Node pos="s" depth="0" NCoef="0" IVar="7" Cut="1.3336601853370667e-01" cType="1" res="-6.7117935977876186e-03" rms="4.5185604691505432e-01" purity="4.9149858951568604e-01" nType="0">
        <Node pos="l" depth="1" NCoef="0" IVar="-1" Cut="0.0000000000000000e+00" cType="1" res="-2.6410454884171486e-03" rms="4.2470398545265198e-01" purity="3.3143624663352966e-01" nType="-99"/>
        <Node pos="r" depth="1" NCoef="0" IVar="5" Cut="5.4987668991088867e-01" cType="1" res="-3.1880380120128393e-03" rms="4.5364356040954590e-01" purity="5.0357437133789062e-01" nType="0">
          <Node pos="l" depth="2" NCoef="0" IVar="-1" Cut="0.0000000000000000e+00" cType="1" res="-1.1665325146168470e-03" rms="4.6611890196800232e-01" purity="5.5625873804092407e-01" nType="-99"/>
          <Node pos="r" depth="2" NCoef="0" IVar="-1" Cut="0.0000000000000000e+00" cType="1" res="2.2116574109531939e-04" rms="4.4927474856376648e-01" purity="4.8671838641166687e-01" nType="-99"/>
        </Node>
      </Node>
    </BinaryTree>
    <BinaryTree type="DecisionTree" boostWeight="1.0000000000000000e+00" itree="564">
      <Node pos="s" depth="0" NCoef="0" IVar="4" Cut="5.4221445322036743e-01" cType="1" res="6.1210832791402936e-04" rms="4.5164915919303894e-01" purity="5.0031685829162598e-01" nType="0">
        <Node pos="l" depth="1" NCoef="0" IVar="-1" Cut="0.0000000000000000e+00" cType="1" res="1.2797466479241848e-03" rms="4.4173878431320190e-01" purity="6.9486254453659058e-01" nType="-99"/>
        <Node pos="r" depth="1" NCoef="0" IVar="4" Cut="1.6298630237579346e+00" cType="1" res="-2.6213193777948618e-03" rms="4.5260789990425110e-01" purity="4.7894650697708130e-01" nType="0">
          <Node pos="l" depth="2" NCoef="0" IVar="-1" Cut="0.0000000000000000e+00" cType="1" res="-2.7465535094961524e-04" rms="4.5729368925094604e-01" purity="5.0274455547332764e-01" nType="-99"/>
          <Node pos="r" depth="2" NCoef="0" IVar="-1" Cut="0.0000000000000000e+00" cType="1" res="2.3510062601417303e-03" rms="4.0034428238868713e-01" purity="2.3904198408126831e-01" nType="-99"/>
        </Node>
      </Node>
    </BinaryTree>
    <BinaryTree type="DecisionTree" boostWeight="1.0000000000000000e+00" itree="565">
      <Node pos="s" depth="0" NCoef="0" IVar="4" Cut="1.2984732389450073e+00" cType="1" res="-6.8026538938283920e-03" rms="4.5182573795318604e-01" purity="4.9221244454383850e-01" nType="0">
        <Node pos="l" depth="1" NCoef="0" IVar="2" Cut="9.5895636081695557e-01" cType="1" res="-1.5543001703917980e-02" rms="4.5843291282653809e-01" purity="5.5279570817947388e-01" nType="0">
          <Node pos="l" depth="2" NCoef="0" IVar="-1" Cut="0.0000000000000000e+00" cType="1" res="-1.0476564057171345e-03" rms="4.6991580724716187e-01" purity="4.6059671044349670e-01" nType="-99"/>
          <Node pos="r" depth="2" NCoef="0" IVar="-1" Cut="0.0000000000000000e+00" cType="1" res="7.8820186899974942e-05" rms="4.3901628255844116e-01" purity="6.9932597875595093e-01" nType="-99"/>
        </Node>
        <Node pos="r" depth="1" NCoef="0" IVar="3" Cut="-5.8204732835292816e-02" cType="1" res="2.1038206294178963e-02" rms="4.2891809344291687e-01" purity="2.9923477768898010e-01" nType="0">
          <Node pos="l" depth="2" NCoef="0" IVar="-1" Cut="0.0000000000000000e+00" cType="1" res="-3.1610281439498067e-04" rms="4.0485358238220215e-01" purity="2.5448933243751526e-01" nType="-99"/>
          <Node pos="r" depth="2" NCoef="0" IVar="-1" Cut="0.0000000000000000e+00" cType="1" res="2.4861176498234272e-03" rms="4.5077443122863770e-01" purity="3.4546077251434326e-01" nType="-99"/>
        </Node>
      </Node>
    </BinaryTree>
    <BinaryTree type="DecisionTree" boostWeight="1.0000000000000000e+00" itree="566">
      <Node pos="s" depth="0" NCoef="0" IVar="7" Cut="5.6350612640380859e-01" cType="1" res="1.5128322411328554e-03" rms="4.5063674449920654e-01" purity="4.9968364834785461e-01" nType="0">
        <Node pos="l" depth="1" NCoef="0" IVar="1" Cut="1.9522107839584351e+00" cType="1" res="1.0547837242484093e-02" rms="4.4934639334678650e-01" purity="4.8657763004302979e-01" nType="0">
          <Node pos="l" depth="2" NCoef="0" IVar="-1" Cut="0.0000000000000000e+00" cType="1" res="2.3604293819516897e-03" rms="4.6238696575164795e-01" purity="6.1792981624603271e-01" nType="-99"/>
          <Node pos="r" depth="2" NCoef="0" IVar="-1" Cut="0.0000000000000000e+00" cType="1" res="-8.5350511653814465e-05" rms="4.4506931304931641e-01" purity="4.5256975293159485e-01" nType="-99"/>
        </Node>
        <Node pos="r" depth="1" NCoef="0" IVar="6" Cut="6.6380586624145508e+00" cType="1" res="-3.0327340587973595e-02" rms="4.5372298359870911e-01" purity="5.4587018489837646e-01" nType="0">
          <Node pos="l" depth="2" NCoef="0" IVar="-1" Cut="0.0000000000000000e+00" cType="1" res="-3.1702369451522827e-03" rms="4.5971354842185974e-01" purity="3.6159622669219971e-01" nType="-99"/>
          <Node pos="r" depth="2" NCoef="0" IVar="-1" Cut="0.0000000000000000e+00" cType="1" res="2.1708586427848786e-04" rms="4.4617304205894470e-01" purity="6.7211520671844482e-01" nType="-99"/>
        </Node>
      </Node>
    </BinaryTree>
    <BinaryTree type="DecisionTree" boostWeight="1.0000000000000000e+00" itree="567">
      <Node pos="s" depth="0" NCoef="0" IVar="3" Cut="1.6222605109214783e-01" cType="1" res="-7.0177079178392887e-03" rms="4.4982990622520447e-01" purity="4.9121460318565369e-01" nType="0">
        <Node pos="l" depth="1" NCoef="0" IVar="5" Cut="1.0511788129806519e+00" cType="1" res="-1.4609117992222309e-02" rms="4.4950926303863525e-01" purity="4.6747767925262451e-01" nType="0">
          <Node pos="l" depth="2" NCoef="0" IVar="-1" Cut="0.0000000000000000e+00" cType="1" res="-9.5242686802521348e-04" rms="4.4957369565963745e-01" purity="4.8281803727149963e-01" nType="-99"/>
          <Node pos="r" depth="2" NCoef="0" IVar="-1" Cut="0.0000000000000000e+00" cType="1" res="8.5209857206791639e-04" rms="4.4773709774017334e-01" purity="3.9602881669998169e-01" nType="-99"/>
        </Node>
        <Node pos="r" depth="1" NCoef="0" IVar="2" Cut="9.5334875583648682e-01" cType="1" res="3.5132832825183868e-02" rms="4.4927862286567688e-01" purity="6.2301170825958252e-01" nType="0">
          <Node pos="l" depth="2" NCoef="0" IVar="-1" Cut="0.0000000000000000e+00" cType="1" res="2.6644256431609392e-03" rms="4.6366930007934570e-01" purity="5.4836332798004150e-01" nType="-99"/>
          <Node pos="r" depth="2" NCoef="0" IVar="-1" Cut="0.0000000000000000e+00" cType="1" res="-6.9346067903097719e-05" rms="4.2948415875434875e-01" purity="7.0753341913223267e-01" nType="-99"/>
        </Node>
      </Node>
    </BinaryTree>
    <BinaryTree type="DecisionTree" boostWeight="1.0000000000000000e+00" itree="568">
      <Node pos="s" depth="0" NCoef="0" IVar="1" Cut="1.7953057289123535e+00" cType="1" res="5.2133379504084587e-03" rms="4.4837275147438049e-01" purity="5.0907969474792480e-01" nType="0">
        <Node pos="l" depth="1" NCoef="0" IVar="-1" Cut="0.0000000000000000e+00" cType="1" res="-1.7641084268689156e-03" rms="4.7438368201255798e-01" purity="5.0294733047485352e-01" nType="-99"/>
        <Node pos="r" depth="1" NCoef="0" IVar="3" Cut="-6.1786798760294914e-03" cType="1" res="1.0135994292795658e-02" rms="4.4532445073127747e-01" purity="5.0970917940139771e-01" nType="0">
          <Node pos="l" depth="2" NCoef="0" IVar="-1" Cut="0.0000000000000000e+00" cType="1" res="1.1862729443237185e-03" rms="4.4441008567810059e-01" purity="4.8304980993270874e-01" nType="-99"/>
          <Node pos="r" depth="2" NCoef="0" IVar="-1" Cut="0.0000000000000000e+00" cType="1" res="-2.6224725297652185e-04" rms="4.4566956162452698e-01" purity="5.3657895326614380e-01" nType="-99"/>
        </Node>
      </Node>
    </BinaryTree>
    <BinaryTree type="DecisionTree" boostWeight="1.0000000000000000e+00" itree="569">
      <Node pos="s" depth="0" NCoef="0" IVar="4" Cut="1.7574292421340942e+00" cType="1" res="-2.3654142860323191e-03" rms="4.5333150029182434e-01" purity="4.9589622020721436e-01" nType="0">
        <Node pos="l" depth="1" NCoef="0" IVar="3" Cut="3.0314404517412186e-02" cType="1" res="2.4025794118642807e-04" rms="4.5913153886795044e-01" purity="5.1636052131652832e-01" nType="0">
          <Node pos="l" depth="2" NCoef="0" IVar="-1" Cut="0.0000000000000000e+00" cType="1" res="5.0106237176805735e-04" rms="4.5838668942451477e-01" purity="5.0209569931030273e-01" nType="-99"/>
          <Node pos="r" depth="2" NCoef="0" IVar="-1" Cut="0.0000000000000000e+00" cType="1" res="-6.2367680948227644e-04" rms="4.5968592166900635e-01" purity="5.3492218255996704e-01" nType="-99"/>
        </Node>
        <Node pos="r" depth="1" NCoef="0" IVar="-1" Cut="0.0000000000000000e+00" cType="1" res="-3.7393083330243826e-03" rms="3.2744109630584717e-01" purity="1.2492563575506210e-01" nType="-99"/>
      </Node>
    </BinaryTree>
    <BinaryTree type="DecisionTree" boostWeight="1.0000000000000000e+00" itree="570">
      <Node pos="s" depth="0" NCoef="0" IVar="6" Cut="6.5049457550048828e+00" cType="1" res="3.6883456632494926e-03" rms="4.4927585124969482e-01" purity="5.0467658042907715e-01" nType="0">
        <Node pos="l" depth="1" NCoef="0" IVar="2" Cut="9.2486840486526489e-01" cType="1" res="2.8558840975165367e-02" rms="4.4792655110359192e-01" purity="3.8991793990135193e-01" nType="0">
          <Node pos="l" depth="2" NCoef="0" IVar="-1" Cut="0.0000000000000000e+00" cType="1" res="-5.6825752835720778e-04" rms="4.2091730237007141e-01" purity="2.8534355759620667e-01" nType="-99"/>
          <Node pos="r" depth="2" NCoef="0" IVar="-1" Cut="0.0000000000000000e+00" cType="1" res="2.1450601052492857e-03" rms="4.6069091558456421e-01" purity="4.4787591695785522e-01" nType="-99"/>
        </Node>
        <Node pos="r" depth="1" NCoef="0" IVar="5" Cut="4.6112748980522156e-01" cType="1" res="-1.3374602422118187e-02" rms="4.4940385222434998e-01" purity="5.8340924978256226e-01" nType="0">
          <Node pos="l" depth="2" NCoef="0" IVar="-1" Cut="0.0000000000000000e+00" cType="1" res="-3.1064774375408888e-03" rms="4.5163810253143311e-01" purity="5.8562982082366943e-01" nType="-99"/>
          <Node pos="r" depth="2" NCoef="0" IVar="-1" Cut="0.0000000000000000e+00" cType="1" res="-1.2815775698982179e-04" rms="4.4819137454032898e-01" purity="5.8301001787185669e-01" nType="-99"/>
        </Node>
      </Node>
    </BinaryTree>
    <BinaryTree type="DecisionTree" boostWeight="1.0000000000000000e+00" itree="571">
      <Node pos="s" depth="0" NCoef="0" IVar="2" Cut="9.5464128255844116e-01" cType="1" res="2.3698431905359030e-03" rms="4.5710968971252441e-01" purity="5.0024437904357910e-01" nType="0">
        <Node pos="l" depth="1" NCoef="0" IVar="7" Cut="4.4624853134155273e-01" cType="1" res="1.9947985187172890e-02" rms="4.5787003636360168e-01" purity="4.2425721883773804e-01" nType="0">
          <Node pos="l" depth="2" NCoef="0" IVar="-1" Cut="0.0000000000000000e+00" cType="1" res="4.3516502046259120e-05" rms="4.4913107156753540e-01" purity="3.7631595134735107e-01" nType="-99"/>
          <Node pos="r" depth="2" NCoef="0" IVar="-1" Cut="0.0000000000000000e+00" cType="1" res="2.0613323431462049e-03" rms="4.7038739919662476e-01" purity="5.0419467687606812e-01" nType="-99"/>
        </Node>
        <Node pos="r" depth="1" NCoef="0" IVar="7" Cut="2.2677029669284821e-01" cType="1" res="-2.0656932145357132e-02" rms="4.5508563518524170e-01" purity="5.9978497028350830e-01" nType="0">
          <Node pos="l" depth="2" NCoef="0" IVar="-1" Cut="0.0000000000000000e+00" cType="1" res="1.5976683935150504e-03" rms="4.6837571263313293e-01" purity="5.4909110069274902e-01" nType="-99"/>
          <Node pos="r" depth="2" NCoef="0" IVar="-1" Cut="0.0000000000000000e+00" cType="1" res="-1.4617452397942543e-03" rms="4.5163381099700928e-01" purity="6.0968744754791260e-01" nType="-99"/>
        </Node>
      </Node>
    </BinaryTree>
    <BinaryTree type="DecisionTree" boostWeight="1.0000000000000000e+00" itree="572">
      <Node pos="s" depth="0" NCoef="0" IVar="4" Cut="8.6551302671432495e-01" cType="1" res="-5.7910508476197720e-03" rms="4.4618582725524902e-01" purity="4.9538737535476685e-01" nType="0">
        <Node pos="l" depth="1" NCoef="0" IVar="0" Cut="1.0485812377929688e+02" cType="1" res="1.0316451080143452e-02" rms="4.4835674762725830e-01" purity="6.4598947763442993e-01" nType="0">
          <Node pos="l" depth="2" NCoef="0" IVar="-1" Cut="0.0000000000000000e+00" cType="1" res="-4.8002835683291778e-05" rms="4.6107456088066101e-01" purity="6.0821861028671265e-01" nType="-99"/>
          <Node pos="r" depth="2" NCoef="0" IVar="-1" Cut="0.0000000000000000e+00" cType="1" res="2.7172656264156103e-03" rms="3.9220747351646423e-01" purity="7.9201620817184448e-01" nType="-99"/>
        </Node>
        <Node pos="r" depth="1" NCoef="0" IVar="4" Cut="9.8076039552688599e-01" cType="1" res="-1.5951408073306084e-02" rms="4.4451087713241577e-01" purity="4.0038987994194031e-01" nType="0">
          <Node pos="l" depth="2" NCoef="0" IVar="-1" Cut="0.0000000000000000e+00" cType="1" res="-2.7548293583095074e-03" rms="4.6649268269538879e-01" purity="5.0752019882202148e-01" nType="-99"/>
          <Node pos="r" depth="2" NCoef="0" IVar="-1" Cut="0.0000000000000000e+00" cType="1" res="-1.8848988111130893e-04" rms="4.3829825520515442e-01" purity="3.7503445148468018e-01" nType="-99"/>
        </Node>
      </Node>
    </BinaryTree>
    <BinaryTree type="DecisionTree" boostWeight="1.0000000000000000e+00" itree="573">
      <Node pos="s" depth="0" NCoef="0" IVar="1" Cut="2.4695618152618408e+00" cType="1" res="2.3048738949000835e-03" rms="4.4691729545593262e-01" purity="5.0210320949554443e-01" nType="0">
        <Node pos="l" depth="1" NCoef="0" IVar="5" Cut="7.6969993114471436e-01" cType="1" res="9.4130309298634529e-03" rms="4.5538860559463501e-01" purity="5.5641841888427734e-01" nType="0">
          <Node pos="l" depth="2" NCoef="0" IVar="-1" Cut="0.0000000000000000e+00" cType="1" res="-3.2903146347962320e-04" rms="4.5178800821304321e-01" purity="5.7592010498046875e-01" nType="-99"/>
          <Node pos="r" depth="2" NCoef="0" IVar="-1" Cut="0.0000000000000000e+00" cType="1" res="1.3627021107822657e-03" rms="4.5896443724632263e-01" purity="5.3159743547439575e-01" nType="-99"/>
        </Node>
        <Node pos="r" depth="1" NCoef="0" IVar="6" Cut="7.2496004104614258e+00" cType="1" res="-3.4721888601779938e-02" rms="3.9784961938858032e-01" purity="2.1917274594306946e-01" nType="0">
          <Node pos="l" depth="2" NCoef="0" IVar="-1" Cut="0.0000000000000000e+00" cType="1" res="-2.6779106701724231e-04" rms="3.8822349905967712e-01" purity="2.0387306809425354e-01" nType="-99"/>
          <Node pos="r" depth="2" NCoef="0" IVar="-1" Cut="0.0000000000000000e+00" cType="1" res="-4.9202772788703442e-03" rms="4.1028669476509094e-01" purity="2.5230756402015686e-01" nType="-99"/>
        </Node>
      </Node>
    </BinaryTree>
    <BinaryTree type="DecisionTree" boostWeight="1.0000000000000000e+00" itree="574">
      <Node pos="s" depth="0" NCoef="0" IVar="2" Cut="9.3375200033187866e-01" cType="1" res="-8.9698573574423790e-03" rms="4.5132321119308472e-01" purity="4.9373120069503784e-01" nType="0">
        <Node pos="l" depth="1" NCoef="0" IVar="7" Cut="3.3812198042869568e-01" cType="1" res="-4.2634896934032440e-02" rms="4.2944943904876709e-01" purity="2.9749813675880432e-01" nType="0">
          <Node pos="l" depth="2" NCoef="0" IVar="-1" Cut="0.0000000000000000e+00" cType="1" res="-3.2939198426902294e-03" rms="3.8960769772529602e-01" purity="2.1588502824306488e-01" nType="-99"/>
          <Node pos="r" depth="2" NCoef="0" IVar="-1" Cut="0.0000000000000000e+00" cType="1" res="-9.0042990632355213e-04" rms="4.5579358935356140e-01" purity="3.5833376646041870e-01" nType="-99"/>
        </Node>
        <Node pos="r" depth="1" NCoef="0" IVar="4" Cut="1.1421889066696167e+00" cType="1" res="2.5711182970553637e-03" rms="4.5801267027854919e-01" purity="5.6100332736968994e-01" nType="0">
          <Node pos="l" depth="2" NCoef="0" IVar="-1" Cut="0.0000000000000000e+00" cType="1" res="-3.5885180113837123e-04" rms="4.5626202225685120e-01" purity="6.4097172021865845e-01" nType="-99"/>
          <Node pos="r" depth="2" NCoef="0" IVar="-1" Cut="0.0000000000000000e+00" cType="1" res="1.1187082855030894e-03" rms="4.6072989702224731e-01" purity="4.0071827173233032e-01" nType="-99"/>
        </Node>
      </Node>
    </BinaryTree>
    <BinaryTree type="DecisionTree" boostWeight="1.0000000000000000e+00" itree="575">
      <Node pos="s" depth="0" NCoef="0" IVar="2" Cut="9.5895636081695557e-01" cType="1" res="6.5028667449951172e-03" rms="4.4890186190605164e-01" purity="5.0628459453582764e-01" nType="0">
        <Node pos="l" depth="1" NCoef="0" IVar="0" Cut="1.1068321228027344e+02" cType="1" res="-8.0880466848611832e-03" rms="4.5447480678558350e-01" purity="4.1164210438728333e-01" nType="0">
          <Node pos="l" depth="2" NCoef="0" IVar="-1" Cut="0.0000000000000000e+00" cType="1" res="-8.8522699661552906e-04" rms="4.5627799630165100e-01" purity="3.8441461324691772e-01" nType="-99"/>
          <Node pos="r" depth="2" NCoef="0" IVar="-1" Cut="0.0000000000000000e+00" cType="1" res="1.7915843054652214e-03" rms="4.4403320550918579e-01" purity="5.1575106382369995e-01" nType="-99"/>
        </Node>
        <Node pos="r" depth="1" NCoef="0" IVar="0" Cut="4.5077236175537109e+01" cType="1" res="3.0885757878422737e-02" rms="4.3834859132766724e-01" purity="6.6444176435470581e-01" nType="0">
          <Node pos="l" depth="2" NCoef="0" IVar="-1" Cut="0.0000000000000000e+00" cType="1" res="-9.8014622926712036e-04" rms="4.8245039582252502e-01" purity="4.9908852577209473e-01" nType="-99"/>
          <Node pos="r" depth="2" NCoef="0" IVar="-1" Cut="0.0000000000000000e+00" cType="1" res="1.9290979253128171e-03" rms="4.2866212129592896e-01" purity="6.9595611095428467e-01" nType="-99"/>
        </Node>
      </Node>
    </BinaryTree>
    <BinaryTree type="DecisionTree" boostWeight="1.0000000000000000e+00" itree="576">
      <Node pos="s" depth="0" NCoef="0" IVar="5" Cut="1.0551522970199585e+00" cType="1" res="2.1297903731465340e-03" rms="4.4939431548118591e-01" purity="4.9789491295814514e-01" nType="0">
        <Node pos="l" depth="1" NCoef="0" IVar="7" Cut="6.2393254041671753e-01" cType="1" res="-3.3782767131924629e-03" rms="4.5087534189224243e-01" purity="5.1227653026580811e-01" nType="0">
          <Node pos="l" depth="2" NCoef="0" IVar="-1" Cut="0.0000000000000000e+00" cType="1" res="-3.8701636367477477e-04" rms="4.4995513558387756e-01" purity="4.9258509278297424e-01" nType="-99"/>
          <Node pos="r" depth="2" NCoef="0" IVar="-1" Cut="0.0000000000000000e+00" cType="1" res="1.2227798579260707e-03" rms="4.5485034584999084e-01" purity="6.2703609466552734e-01" nType="-99"/>
        </Node>
        <Node pos="r" depth="1" NCoef="0" IVar="7" Cut="3.9257887005805969e-01" cType="1" res="2.7767149731516838e-02" rms="4.4153231382369995e-01" purity="4.3095576763153076e-01" nType="0">
          <Node pos="l" depth="2" NCoef="0" IVar="-1" Cut="0.0000000000000000e+00" cType="1" res="2.5850455276668072e-03" rms="4.2765748500823975e-01" purity="4.2568257451057434e-01" nType="-99"/>
          <Node pos="r" depth="2" NCoef="0" IVar="-1" Cut="0.0000000000000000e+00" cType="1" res="-3.9776539779268205e-04" rms="4.5858594775199890e-01" purity="4.3868622183799744e-01" nType="-99"/>
        </Node>
      </Node>
    </BinaryTree>
    <BinaryTree type="DecisionTree" boostWeight="1.0000000000000000e+00" itree="577">
      <Node pos="s" depth="0" NCoef="0" IVar="1" Cut="1.7980004549026489e+00" cType="1" res="-3.6461518902797252e-05" rms="4.4868579506874084e-01" purity="5.0021064281463623e-01" nType="0">
        <Node pos="l" depth="1" NCoef="0" IVar="-1" Cut="0.0000000000000000e+00" cType="1" res="-1.8777911318466067e-03" rms="4.6089062094688416e-01" purity="4.9338540434837341e-01" nType="-99"/>
        <Node pos="r" depth="1" NCoef="0" IVar="1" Cut="2.7506370544433594e+00" cType="1" res="4.7840871848165989e-03" rms="4.4720128178596497e-01" purity="5.0086504220962524e-01" nType="0">
          <Node pos="l" depth="2" NCoef="0" IVar="-1" Cut="0.0000000000000000e+00" cType="1" res="3.8477583439089358e-04" rms="4.5389589667320251e-01" purity="5.2561050653457642e-01" nType="-99"/>
          <Node pos="r" depth="2" NCoef="0" IVar="-1" Cut="0.0000000000000000e+00" cType="1" res="-4.6244733966886997e-03" rms="3.1651929020881653e-01" purity="1.0928982496261597e-01" nType="-99"/>
        </Node>
      </Node>
    </BinaryTree>
    <BinaryTree type="DecisionTree" boostWeight="1.0000000000000000e+00" itree="578">
      <Node pos="s" depth="0" NCoef="0" IVar="0" Cut="1.3982769775390625e+02" cType="1" res="6.1143045313656330e-03" rms="4.5058640837669373e-01" purity="5.0426125526428223e-01" nType="0">
        <Node pos="l" depth="1" NCoef="0" IVar="0" Cut="4.5320030212402344e+01" cType="1" res="1.3664036057889462e-02" rms="4.5044758915901184e-01" purity="5.1301974058151245e-01" nType="0">
          <Node pos="l" depth="2" NCoef="0" IVar="-1" Cut="0.0000000000000000e+00" cType="1" res="-9.8854769021272659e-04" rms="4.4863331317901611e-01" purity="3.6835935711860657e-01" nType="-99"/>
          <Node pos="r" depth="2" NCoef="0" IVar="-1" Cut="0.0000000000000000e+00" cType="1" res="9.2633959138765931e-04" rms="4.5046818256378174e-01" purity="5.4481768608093262e-01" nType="-99"/>
        </Node>
        <Node pos="r" depth="1" NCoef="0" IVar="-1" Cut="0.0000000000000000e+00" cType="1" res="-3.9766156114637852e-03" rms="4.4253352284431458e-01" purity="4.0050643682479858e-01" nType="-99"/>
      </Node>
    </BinaryTree>
    <BinaryTree type="DecisionTree" boostWeight="1.0000000000000000e+00" itree="579">
      <Node pos="s" depth="0" NCoef="0" IVar="7" Cut="3.0104699730873108e-01" cType="1" res="-5.3791288519278169e-04" rms="4.5313704013824463e-01" purity="4.9887946248054504e-01" nType="0">
        <Node pos="l" depth="1" NCoef="0" IVar="7" Cut="2.0993444323539734e-01" cType="1" res="1.6950068995356560e-02" rms="4.4874796271324158e-01" purity="4.4692018628120422e-01" nType="0">
          <Node pos="l" depth="2" NCoef="0" IVar="-1" Cut="0.0000000000000000e+00" cType="1" res="-2.5578655186109245e-04" rms="4.3164119124412537e-01" purity="3.9674511551856995e-01" nType="-99"/>
          <Node pos="r" depth="2" NCoef="0" IVar="-1" Cut="0.0000000000000000e+00" cType="1" res="1.9279780099168420e-03" rms="4.6613600850105286e-01" purity="5.0397276878356934e-01" nType="-99"/>
        </Node>
        <Node pos="r" depth="1" NCoef="0" IVar="0" Cut="1.2095629119873047e+02" cType="1" res="-9.4248736277222633e-03" rms="4.5509380102157593e-01" purity="5.2528387308120728e-01" nType="0">
          <Node pos="l" depth="2" NCoef="0" IVar="-1" Cut="0.0000000000000000e+00" cType="1" res="-1.0065146489068866e-04" rms="4.5682683587074280e-01" purity="5.2700322866439819e-01" nType="-99"/>
          <Node pos="r" depth="2" NCoef="0" IVar="-1" Cut="0.0000000000000000e+00" cType="1" res="-2.3793173022568226e-03" rms="4.4183391332626343e-01" purity="5.1472741365432739e-01" nType="-99"/>
        </Node>
      </Node>
    </BinaryTree>
    <BinaryTree type="DecisionTree" boostWeight="1.0000000000000000e+00" itree="580">
      <Node pos="s" depth="0" NCoef="0" IVar="1" Cut="2.5945141315460205e+00" cType="1" res="1.2812143191695213e-02" rms="4.5277953147888184e-01" purity="5.1171213388442993e-01" nType="0">
        <Node pos="l" depth="1" NCoef="0" IVar="4" Cut="4.6627998352050781e-01" cType="1" res="8.7767383083701134e-03" rms="4.5642149448394775e-01" purity="5.4278737306594849e-01" nType="0">
          <Node pos="l" depth="2" NCoef="0" IVar="-1" Cut="0.0000000000000000e+00" cType="1" res="-2.3366834502667189e-03" rms="4.5032194256782532e-01" purity="6.1712300777435303e-01" nType="-99"/>
          <Node pos="r" depth="2" NCoef="0" IVar="-1" Cut="0.0000000000000000e+00" cType="1" res="5.5191764840856194e-04" rms="4.5652019977569580e-01" purity="5.3774529695510864e-01" nType="-99"/>
        </Node>
        <Node pos="r" depth="1" NCoef="0" IVar="3" Cut="-6.9661855697631836e-02" cType="1" res="4.6530567109584808e-02" rms="4.1960513591766357e-01" purity="2.5205829739570618e-01" nType="0">
          <Node pos="l" depth="2" NCoef="0" IVar="-1" Cut="0.0000000000000000e+00" cType="1" res="1.1895340867340565e-03" rms="4.0363398194313049e-01" purity="2.1384613215923309e-01" nType="-99"/>
          <Node pos="r" depth="2" NCoef="0" IVar="-1" Cut="0.0000000000000000e+00" cType="1" res="4.4521093368530273e-03" rms="4.3272387981414795e-01" purity="2.8932070732116699e-01" nType="-99"/>
        </Node>
      </Node>
    </BinaryTree>
    <BinaryTree type="DecisionTree" boostWeight="1.0000000000000000e+00" itree="581">
      <Node pos="s" depth="0" NCoef="0" IVar="5" Cut="1.2081061601638794e+00" cType="1" res="-1.5255825128406286e-03" rms="4.5276072621345520e-01" purity="4.9401092529296875e-01" nType="0">
        <Node pos="l" depth="1" NCoef="0" IVar="5" Cut="6.9681280851364136e-01" cType="1" res="-6.2829311937093735e-03" rms="4.5204368233680725e-01" purity="4.9632203578948975e-01" nType="0">
          <Node pos="l" depth="2" NCoef="0" IVar="-1" Cut="0.0000000000000000e+00" cType="1" res="4.0477787842974067e-04" rms="4.6094974875450134e-01" purity="5.7471483945846558e-01" nType="-99"/>
          <Node pos="r" depth="2" NCoef="0" IVar="-1" Cut="0.0000000000000000e+00" cType="1" res="-8.9058926096186042e-04" rms="4.4422405958175659e-01" purity="4.3247288465499878e-01" nType="-99"/>
        </Node>
        <Node pos="r" depth="1" NCoef="0" IVar="-1" Cut="0.0000000000000000e+00" cType="1" res="2.7436607051640749e-03" rms="4.5751655101776123e-01" purity="4.6270143985748291e-01" nType="-99"/>
      </Node>
    </BinaryTree>
    <BinaryTree type="DecisionTree" boostWeight="1.0000000000000000e+00" itree="582">
      <Node pos="s" depth="0" NCoef="0" IVar="5" Cut="1.0608141422271729e+00" cType="1" res="2.5356155820190907e-03" rms="4.5155739784240723e-01" purity="5.0182956457138062e-01" nType="0">
        <Node pos="l" depth="1" NCoef="0" IVar="5" Cut="9.3789249658584595e-01" cType="1" res="-4.5259501785039902e-03" rms="4.4994768500328064e-01" purity="5.1541811227798462e-01" nType="0">
          <Node pos="l" depth="2" NCoef="0" IVar="-1" Cut="0.0000000000000000e+00" cType="1" res="5.5624837841605768e-05" rms="4.5354250073432922e-01" purity="5.3644496202468872e-01" nType="-99"/>
          <Node pos="r" depth="2" NCoef="0" IVar="-1" Cut="0.0000000000000000e+00" cType="1" res="-2.0184929016977549e-03" rms="4.2439547181129456e-01" purity="3.8116142153739929e-01" nType="-99"/>
        </Node>
        <Node pos="r" depth="1" NCoef="0" IVar="4" Cut="1.1340401172637939e+00" cType="1" res="3.8720894604921341e-02" rms="4.5801231265068054e-01" purity="4.3219858407974243e-01" nType="0">
          <Node pos="l" depth="2" NCoef="0" IVar="-1" Cut="0.0000000000000000e+00" cType="1" res="2.5503517827019095e-04" rms="4.7105908393859863e-01" purity="5.1728290319442749e-01" nType="-99"/>
          <Node pos="r" depth="2" NCoef="0" IVar="-1" Cut="0.0000000000000000e+00" cType="1" res="2.7527972124516964e-03" rms="4.4932994246482849e-01" purity="3.8358300924301147e-01" nType="-99"/>
        </Node>
      </Node>
    </BinaryTree>
    <BinaryTree type="DecisionTree" boostWeight="1.0000000000000000e+00" itree="583">
      <Node pos="s" depth="0" NCoef="0" IVar="3" Cut="2.1090656518936157e-01" cType="1" res="2.1390032488852739e-03" rms="4.4808369874954224e-01" purity="4.9815067648887634e-01" nType="0">
        <Node pos="l" depth="1" NCoef="0" IVar="1" Cut="2.6725649833679199e+00" cType="1" res="-1.9968689884990454e-03" rms="4.4802871346473694e-01" purity="4.8600193858146667e-01" nType="0">
          <Node pos="l" depth="2" NCoef="0" IVar="-1" Cut="0.0000000000000000e+00" cType="1" res="9.4673509011045098e-05" rms="4.5741757750511169e-01" purity="5.2029222249984741e-01" nType="-99"/>
          <Node pos="r" depth="2" NCoef="0" IVar="-1" Cut="0.0000000000000000e+00" cType="1" res="-3.2114412169903517e-03" rms="3.3534333109855652e-01" purity="1.3804562389850616e-01" nType="-99"/>
        </Node>
        <Node pos="r" depth="1" NCoef="0" IVar="-1" Cut="0.0000000000000000e+00" cType="1" res="2.1506128832697868e-03" rms="4.4589853286743164e-01" purity="6.3989835977554321e-01" nType="-99"/>
      </Node>
    </BinaryTree>
    <BinaryTree type="DecisionTree" boostWeight="1.0000000000000000e+00" itree="584">
      <Node pos="s" depth="0" NCoef="0" IVar="2" Cut="9.3735861778259277e-01" cType="1" res="-3.2221898436546326e-03" rms="4.5418226718902588e-01" purity="4.9869927763938904e-01" nType="0">
        <Node pos="l" depth="1" NCoef="0" IVar="5" Cut="6.1810529232025146e-01" cType="1" res="3.2283760607242584e-02" rms="4.6077960729598999e-01" purity="3.7132191658020020e-01" nType="0">
          <Node pos="l" depth="2" NCoef="0" IVar="-1" Cut="0.0000000000000000e+00" cType="1" res="3.1229057349264622e-03" rms="4.8631104826927185e-01" purity="5.0540900230407715e-01" nType="-99"/>
          <Node pos="r" depth="2" NCoef="0" IVar="-1" Cut="0.0000000000000000e+00" cType="1" res="6.1327900039032102e-04" rms="4.4863367080688477e-01" purity="3.1716638803482056e-01" nType="-99"/>
        </Node>
        <Node pos="r" depth="1" NCoef="0" IVar="7" Cut="1.8545968830585480e-01" cType="1" res="-1.7826512455940247e-02" rms="4.5062941312789917e-01" purity="5.5109220743179321e-01" nType="0">
          <Node pos="l" depth="2" NCoef="0" IVar="-1" Cut="0.0000000000000000e+00" cType="1" res="-4.1646477766335011e-03" rms="4.1681787371635437e-01" purity="3.5711130499839783e-01" nType="-99"/>
          <Node pos="r" depth="2" NCoef="0" IVar="-1" Cut="0.0000000000000000e+00" cType="1" res="-3.4026149660348892e-04" rms="4.5433863997459412e-01" purity="5.7863461971282959e-01" nType="-99"/>
        </Node>
      </Node>
    </BinaryTree>
    <BinaryTree type="DecisionTree" boostWeight="1.0000000000000000e+00" itree="585">
      <Node pos="s" depth="0" NCoef="0" IVar="4" Cut="5.3288310766220093e-01" cType="1" res="-2.4939209688454866e-03" rms="4.5280000567436218e-01" purity="4.9854829907417297e-01" nType="0">
        <Node pos="l" depth="1" NCoef="0" IVar="-1" Cut="0.0000000000000000e+00" cType="1" res="2.1621969062834978e-03" rms="4.3369376659393311e-01" purity="7.1371936798095703e-01" nType="-99"/>
        <Node pos="r" depth="1" NCoef="0" IVar="1" Cut="2.1508381366729736e+00" cType="1" res="-7.9588619992136955e-03" rms="4.5435869693756104e-01" purity="4.7650286555290222e-01" nType="0">
          <Node pos="l" depth="2" NCoef="0" IVar="-1" Cut="0.0000000000000000e+00" cType="1" res="-9.9226168822497129e-04" rms="4.6726489067077637e-01" purity="5.4058593511581421e-01" nType="-99"/>
          <Node pos="r" depth="2" NCoef="0" IVar="-1" Cut="0.0000000000000000e+00" cType="1" res="2.6910929591394961e-04" rms="4.4276079535484314e-01" purity="4.2267599701881409e-01" nType="-99"/>
        </Node>
      </Node>
    </BinaryTree>
    <BinaryTree type="DecisionTree" boostWeight="1.0000000000000000e+00" itree="586">
      <Node pos="s" depth="0" NCoef="0" IVar="6" Cut="4.9463920593261719e+00" cType="1" res="5.8092284016311169e-03" rms="4.4445911049842834e-01" purity="5.0417155027389526e-01" nType="0">
        <Node pos="l" depth="1" NCoef="0" IVar="-1" Cut="0.0000000000000000e+00" cType="1" res="-3.7314295768737793e-03" rms="3.6846852302551270e-01" purity="1.6647419333457947e-01" nType="-99"/>
        <Node pos="r" depth="1" NCoef="0" IVar="2" Cut="9.2210525274276733e-01" cType="1" res="1.1169276200234890e-02" rms="4.4885128736495972e-01" purity="5.2800279855728149e-01" nType="0">
          <Node pos="l" depth="2" NCoef="0" IVar="-1" Cut="0.0000000000000000e+00" cType="1" res="2.8727473691105843e-03" rms="4.4408449530601501e-01" purity="4.0762615203857422e-01" nType="-99"/>
          <Node pos="r" depth="2" NCoef="0" IVar="-1" Cut="0.0000000000000000e+00" cType="1" res="2.9919086955487728e-04" rms="4.4895169138908386e-01" purity="5.3774976730346680e-01" nType="-99"/>
        </Node>
      </Node>
    </BinaryTree>
    <BinaryTree type="DecisionTree" boostWeight="1.0000000000000000e+00" itree="587">
      <Node pos="s" depth="0" NCoef="0" IVar="7" Cut="1.2988914549350739e-01" cType="1" res="-1.2478443095460534e-03" rms="4.4797697663307190e-01" purity="5.0302100181579590e-01" nType="0">
        <Node pos="l" depth="1" NCoef="0" IVar="-1" Cut="0.0000000000000000e+00" cType="1" res="2.4497495032846928e-03" rms="4.4673851132392883e-01" purity="4.0544494986534119e-01" nType="-99"/>
        <Node pos="r" depth="1" NCoef="0" IVar="7" Cut="2.5727048516273499e-01" cType="1" res="-4.7440831549465656e-03" rms="4.4785127043724060e-01" purity="5.0976216793060303e-01" nType="0">
          <Node pos="l" depth="2" NCoef="0" IVar="-1" Cut="0.0000000000000000e+00" cType="1" res="-1.8313791370019317e-03" rms="4.4366011023521423e-01" purity="3.8767486810684204e-01" nType="-99"/>
          <Node pos="r" depth="2" NCoef="0" IVar="-1" Cut="0.0000000000000000e+00" cType="1" res="1.8225156236439943e-04" rms="4.4851535558700562e-01" purity="5.4182678461074829e-01" nType="-99"/>
        </Node>
      </Node>
    </BinaryTree>
    <BinaryTree type="DecisionTree" boostWeight="1.0000000000000000e+00" itree="588">
      <Node pos="s" depth="0" NCoef="0" IVar="5" Cut="3.4314715862274170e-01" cType="1" res="7.0195356383919716e-03" rms="4.5369717478752136e-01" purity="5.1004654169082642e-01" nType="0">
        <Node pos="l" depth="1" NCoef="0" IVar="-1" Cut="0.0000000000000000e+00" cType="1" res="-2.4682416114956141e-03" rms="4.6922472119331360e-01" purity="5.2881681919097900e-01" nType="-99"/>
        <Node pos="r" depth="1" NCoef="0" IVar="6" Cut="7.5087223052978516e+00" cType="1" res="1.1115021072328091e-02" rms="4.5240557193756104e-01" purity="5.0889319181442261e-01" nType="0">
          <Node pos="l" depth="2" NCoef="0" IVar="-1" Cut="0.0000000000000000e+00" cType="1" res="1.0080934735015035e-03" rms="4.5672777295112610e-01" purity="4.4801017642021179e-01" nType="-99"/>
          <Node pos="r" depth="2" NCoef="0" IVar="-1" Cut="0.0000000000000000e+00" cType="1" res="-6.3925696304067969e-04" rms="4.4263347983360291e-01" purity="6.3004696369171143e-01" nType="-99"/>
        </Node>
      </Node>
    </BinaryTree>
    <BinaryTree type="DecisionTree" boostWeight="1.0000000000000000e+00" itree="589">
      <Node pos="s" depth="0" NCoef="0" IVar="2" Cut="9.8484653234481812e-01" cType="1" res="-3.0887555330991745e-03" rms="4.5120763778686523e-01" purity="4.9499017000198364e-01" nType="0">
        <Node pos="l" depth="1" NCoef="0" IVar="4" Cut="1.2404897212982178e+00" cType="1" res="-7.3647690005600452e-03" rms="4.5588681101799011e-01" purity="4.7529086470603943e-01" nType="0">
          <Node pos="l" depth="2" NCoef="0" IVar="-1" Cut="0.0000000000000000e+00" cType="1" res="-8.0878654262050986e-04" rms="4.6447184681892395e-01" purity="5.4257446527481079e-01" nType="-99"/>
          <Node pos="r" depth="2" NCoef="0" IVar="-1" Cut="0.0000000000000000e+00" cType="1" res="1.1882984545081854e-03" rms="4.3248540163040161e-01" purity="3.0932721495628357e-01" nType="-99"/>
        </Node>
        <Node pos="r" depth="1" NCoef="0" IVar="-1" Cut="0.0000000000000000e+00" cType="1" res="2.8234601486474276e-03" rms="3.7616002559661865e-01" purity="7.6594710350036621e-01" nType="-99"/>
      </Node>
    </BinaryTree>
    <BinaryTree type="DecisionTree" boostWeight="1.0000000000000000e+00" itree="590">
      <Node pos="s" depth="0" NCoef="0" IVar="2" Cut="9.4271886348724365e-01" cType="1" res="-1.8034011591225863e-03" rms="4.5394146442413330e-01" purity="4.9969357252120972e-01" nType="0">
        <Node pos="l" depth="1" NCoef="0" IVar="5" Cut="6.9405174255371094e-01" cType="1" res="1.8672663718461990e-02" rms="4.5674252510070801e-01" purity="3.7512910366058350e-01" nType="0">
          <Node pos="l" depth="2" NCoef="0" IVar="-1" Cut="0.0000000000000000e+00" cType="1" res="2.0393049344420433e-03" rms="4.8229315876960754e-01" purity="4.8067861795425415e-01" nType="-99"/>
          <Node pos="r" depth="2" NCoef="0" IVar="-1" Cut="0.0000000000000000e+00" cType="1" res="-6.5713989897631109e-05" rms="4.3926545977592468e-01" purity="3.1091624498367310e-01" nType="-99"/>
        </Node>
        <Node pos="r" depth="1" NCoef="0" IVar="0" Cut="4.5022899627685547e+01" cType="1" res="-1.3804912567138672e-02" rms="4.5186051726341248e-01" purity="5.7270377874374390e-01" nType="0">
          <Node pos="l" depth="2" NCoef="0" IVar="-1" Cut="0.0000000000000000e+00" cType="1" res="-2.6046375278383493e-03" rms="4.4872894883155823e-01" purity="4.1716000437736511e-01" nType="-99"/>
          <Node pos="r" depth="2" NCoef="0" IVar="-1" Cut="0.0000000000000000e+00" cType="1" res="-2.0880304509773850e-04" rms="4.5190972089767456e-01" purity="6.0317862033843994e-01" nType="-99"/>
        </Node>
      </Node>
    </BinaryTree>
    <BinaryTree type="DecisionTree" boostWeight="1.0000000000000000e+00" itree="591">
      <Node pos="s" depth="0" NCoef="0" IVar="4" Cut="1.7456290721893311e+00" cType="1" res="-1.7379728378728032e-03" rms="4.5014691352844238e-01" purity="4.9866059422492981e-01" nType="0">
        <Node pos="l" depth="1" NCoef="0" IVar="2" Cut="9.7214883565902710e-01" cType="1" res="1.8494024407118559e-03" rms="4.5687621831893921e-01" purity="5.2158188819885254e-01" nType="0">
          <Node pos="l" depth="2" NCoef="0" IVar="-1" Cut="0.0000000000000000e+00" cType="1" res="-2.2131926380097866e-04" rms="4.6421194076538086e-01" purity="4.7168561816215515e-01" nType="-99"/>
          <Node pos="r" depth="2" NCoef="0" IVar="-1" Cut="0.0000000000000000e+00" cType="1" res="1.4715790748596191e-03" rms="4.2481246590614319e-01" purity="7.2280406951904297e-01" nType="-99"/>
        </Node>
        <Node pos="r" depth="1" NCoef="0" IVar="-1" Cut="0.0000000000000000e+00" cType="1" res="-4.4044428505003452e-03" rms="3.1167995929718018e-01" purity="1.1673895269632339e-01" nType="-99"/>
      </Node>
    </BinaryTree>
    <BinaryTree type="DecisionTree" boostWeight="1.0000000000000000e+00" itree="592">
      <Node pos="s" depth="0" NCoef="0" IVar="6" Cut="5.4602952003479004e+00" cType="1" res="6.8865902721881866e-03" rms="4.4892248511314392e-01" purity="5.0512266159057617e-01" nType="0">
        <Node pos="l" depth="1" NCoef="0" IVar="3" Cut="-2.5678239762783051e-02" cType="1" res="-2.3168526589870453e-02" rms="4.1960647702217102e-01" purity="2.6594012975692749e-01" nType="0">
          <Node pos="l" depth="2" NCoef="0" IVar="-1" Cut="0.0000000000000000e+00" cType="1" res="-3.5609197802841663e-03" rms="3.7886956334114075e-01" purity="1.8996660411357880e-01" nType="-99"/>
          <Node pos="r" depth="2" NCoef="0" IVar="-1" Cut="0.0000000000000000e+00" cType="1" res="2.5640302919782698e-04" rms="4.4205161929130554e-01" purity="3.1602528691291809e-01" nType="-99"/>
        </Node>
        <Node pos="r" depth="1" NCoef="0" IVar="0" Cut="1.3656048583984375e+02" cType="1" res="1.2559993192553520e-02" rms="4.5402097702026367e-01" purity="5.5027228593826294e-01" nType="0">
          <Node pos="l" depth="2" NCoef="0" IVar="-1" Cut="0.0000000000000000e+00" cType="1" res="7.6304766116663814e-04" rms="4.5336771011352539e-01" purity="5.5753546953201294e-01" nType="-99"/>
          <Node pos="r" depth="2" NCoef="0" IVar="-1" Cut="0.0000000000000000e+00" cType="1" res="-1.8278090283274651e-03" rms="4.5749229192733765e-01" purity="4.7582992911338806e-01" nType="-99"/>
        </Node>
      </Node>
    </BinaryTree>
    <BinaryTree type="DecisionTree" boostWeight="1.0000000000000000e+00" itree="593">
      <Node pos="s" depth="0" NCoef="0" IVar="3" Cut="4.0243983268737793e-02" cType="1" res="-7.0249396376311779e-03" rms="4.5236644148826599e-01" purity="4.9123561382293701e-01" nType="0">
        <Node pos="l" depth="1" NCoef="0" IVar="6" Cut="5.3335938453674316e+00" cType="1" res="5.4762028157711029e-03" rms="4.5329529047012329e-01" purity="4.7330844402313232e-01" nType="0">
          <Node pos="l" depth="2" NCoef="0" IVar="-1" Cut="0.0000000000000000e+00" cType="1" res="2.8079890180379152e-03" rms="4.3500852584838867e-01" purity="3.1072700023651123e-01" nType="-99"/>
          <Node pos="r" depth="2" NCoef="0" IVar="-1" Cut="0.0000000000000000e+00" cType="1" res="-7.8075107012409717e-05" rms="4.5543974637985229e-01" purity="4.9695977568626404e-01" nType="-99"/>
        </Node>
        <Node pos="r" depth="1" NCoef="0" IVar="4" Cut="8.1095504760742188e-01" cType="1" res="-2.6881162077188492e-02" rms="4.5017415285110474e-01" purity="5.1971030235290527e-01" nType="0">
          <Node pos="l" depth="2" NCoef="0" IVar="-1" Cut="0.0000000000000000e+00" cType="1" res="3.3065699972212315e-04" rms="4.4771900773048401e-01" purity="6.5136605501174927e-01" nType="-99"/>
          <Node pos="r" depth="2" NCoef="0" IVar="-1" Cut="0.0000000000000000e+00" cType="1" res="-2.3975616786628962e-03" rms="4.5023003220558167e-01" purity="4.1570121049880981e-01" nType="-99"/>
        </Node>
      </Node>
    </BinaryTree>
    <BinaryTree type="DecisionTree" boostWeight="1.0000000000000000e+00" itree="594">
      <Node pos="s" depth="0" NCoef="0" IVar="1" Cut="2.2302360534667969e+00" cType="1" res="-8.6799571290612221e-03" rms="4.5114755630493164e-01" purity="4.9252215027809143e-01" nType="0">
        <Node pos="l" depth="1" NCoef="0" IVar="4" Cut="8.6825418472290039e-01" cType="1" res="3.0654531437903643e-03" rms="4.6122750639915466e-01" purity="5.8151632547378540e-01" nType="0">
          <Node pos="l" depth="2" NCoef="0" IVar="-1" Cut="0.0000000000000000e+00" cType="1" res="-7.4217672226950526e-04" rms="4.5391389727592468e-01" purity="6.1965203285217285e-01" nType="-99"/>
          <Node pos="r" depth="2" NCoef="0" IVar="-1" Cut="0.0000000000000000e+00" cType="1" res="1.3661026023328304e-03" rms="4.6992582082748413e-01" purity="5.2674216032028198e-01" nType="-99"/>
        </Node>
        <Node pos="r" depth="1" NCoef="0" IVar="0" Cut="6.0263935089111328e+01" cType="1" res="-2.7798248454928398e-02" rms="4.3356013298034668e-01" purity="3.4766411781311035e-01" nType="0">
          <Node pos="l" depth="2" NCoef="0" IVar="-1" Cut="0.0000000000000000e+00" cType="1" res="-4.1389758698642254e-03" rms="3.8524881005287170e-01" purity="2.0350970327854156e-01" nType="-99"/>
          <Node pos="r" depth="2" NCoef="0" IVar="-1" Cut="0.0000000000000000e+00" cType="1" res="-7.6291331788524985e-04" rms="4.4458612799644470e-01" purity="3.8531422615051270e-01" nType="-99"/>
        </Node>
      </Node>
    </BinaryTree>
    <BinaryTree type="DecisionTree" boostWeight="1.0000000000000000e+00" itree="595">
      <Node pos="s" depth="0" NCoef="0" IVar="4" Cut="5.4117989540100098e-01" cType="1" res="-4.3197521008551121e-03" rms="4.4849154353141785e-01" purity="4.9695396423339844e-01" nType="0">
        <Node pos="l" depth="1" NCoef="0" IVar="-1" Cut="0.0000000000000000e+00" cType="1" res="2.6372217107564211e-03" rms="4.1965800523757935e-01" purity="7.4066716432571411e-01" nType="-99"/>
        <Node pos="r" depth="1" NCoef="0" IVar="3" Cut="-5.2291834726929665e-03" cType="1" res="-1.1747722513973713e-02" rms="4.5098653435707092e-01" purity="4.6975374221801758e-01" nType="0">
          <Node pos="l" depth="2" NCoef="0" IVar="-1" Cut="0.0000000000000000e+00" cType="1" res="3.0582695035263896e-04" rms="4.4789168238639832e-01" purity="4.5242223143577576e-01" nType="-99"/>
          <Node pos="r" depth="2" NCoef="0" IVar="-1" Cut="0.0000000000000000e+00" cType="1" res="-1.2940062442794442e-03" rms="4.5327773690223694e-01" purity="4.8683011531829834e-01" nType="-99"/>
        </Node>
      </Node>
    </BinaryTree>
    <BinaryTree type="DecisionTree" boostWeight="1.0000000000000000e+00" itree="596">
      <Node pos="s" depth="0" NCoef="0" IVar="3" Cut="-7.2697825729846954e-02" cType="1" res="7.1465256623923779e-03" rms="4.4715556502342224e-01" purity="5.0658619403839111e-01" nType="0">
        <Node pos="l" depth="1" NCoef="0" IVar="6" Cut="6.3067889213562012e+00" cType="1" res="-1.9495477899909019e-02" rms="4.3800130486488342e-01" purity="4.0183022618293762e-01" nType="0">
          <Node pos="l" depth="2" NCoef="0" IVar="-1" Cut="0.0000000000000000e+00" cType="1" res="-2.5566734839230776e-03" rms="4.0708789229393005e-01" purity="2.4349942803382874e-01" nType="-99"/>
          <Node pos="r" depth="2" NCoef="0" IVar="-1" Cut="0.0000000000000000e+00" cType="1" res="2.1682577425963245e-05" rms="4.5493918657302856e-01" purity="4.9981966614723206e-01" nType="-99"/>
        </Node>
        <Node pos="r" depth="1" NCoef="0" IVar="5" Cut="7.1501708030700684e-01" cType="1" res="1.5513780526816845e-02" rms="4.4966655969619751e-01" purity="5.3948616981506348e-01" nType="0">
          <Node pos="l" depth="2" NCoef="0" IVar="-1" Cut="0.0000000000000000e+00" cType="1" res="1.4224702026695013e-03" rms="4.4828256964683533e-01" purity="6.2380367517471313e-01" nType="-99"/>
          <Node pos="r" depth="2" NCoef="0" IVar="-1" Cut="0.0000000000000000e+00" cType="1" res="1.2899265857413411e-04" rms="4.5021477341651917e-01" purity="4.7989660501480103e-01" nType="-99"/>
        </Node>
      </Node>
    </BinaryTree>
    <BinaryTree type="DecisionTree" boostWeight="1.0000000000000000e+00" itree="597">
      <Node pos="s" depth="0" NCoef="0" IVar="3" Cut="2.5643218308687210e-02" cType="1" res="-6.5030553378164768e-03" rms="4.5250082015991211e-01" purity="4.9117225408554077e-01" nType="0">
        <Node pos="l" depth="1" NCoef="0" IVar="6" Cut="7.5072631835937500e+00" cType="1" res="6.2798927538096905e-03" rms="4.5176544785499573e-01" purity="4.7021144628524780e-01" nType="0">
          <Node pos="l" depth="2" NCoef="0" IVar="-1" Cut="0.0000000000000000e+00" cType="1" res="9.7840279340744019e-04" rms="4.5375081896781921e-01" purity="4.0952950716018677e-01" nType="-99"/>
          <Node pos="r" depth="2" NCoef="0" IVar="-1" Cut="0.0000000000000000e+00" cType="1" res="-1.0363473556935787e-03" rms="4.4656014442443848e-01" purity="5.8372527360916138e-01" nType="-99"/>
        </Node>
        <Node pos="r" depth="1" NCoef="0" IVar="3" Cut="1.3783413171768188e-01" cType="1" res="-2.3539630696177483e-02" rms="4.5291858911514282e-01" purity="5.1910793781280518e-01" nType="0">
          <Node pos="l" depth="2" NCoef="0" IVar="-1" Cut="0.0000000000000000e+00" cType="1" res="-1.9131877925246954e-03" rms="4.5065224170684814e-01" purity="4.6589529514312744e-01" nType="-99"/>
          <Node pos="r" depth="2" NCoef="0" IVar="-1" Cut="0.0000000000000000e+00" cType="1" res="7.4695759394671768e-05" rms="4.5447695255279541e-01" purity="5.8583378791809082e-01" nType="-99"/>
        </Node>
      </Node>
    </BinaryTree>
    <BinaryTree type="DecisionTree" boostWeight="1.0000000000000000e+00" itree="598">
      <Node pos="s" depth="0" NCoef="0" IVar="6" Cut="4.9521121978759766e+00" cType="1" res="-5.3652017377316952e-03" rms="4.4413679838180542e-01" purity="4.9081033468246460e-01" nType="0">
        <Node pos="l" depth="1" NCoef="0" IVar="-1" Cut="0.0000000000000000e+00" cType="1" res="-4.5607187785208225e-03" rms="3.5623112320899963e-01" purity="1.5184114873409271e-01" nType="-99"/>
        <Node pos="r" depth="1" NCoef="0" IVar="1" Cut="2.2028970718383789e+00" cType="1" res="5.2173982840031385e-04" rms="4.4928032159805298e-01" purity="5.1541686058044434e-01" nType="0">
          <Node pos="l" depth="2" NCoef="0" IVar="-1" Cut="0.0000000000000000e+00" cType="1" res="6.8545102840289474e-04" rms="4.5472329854965210e-01" purity="6.1123937368392944e-01" nType="-99"/>
          <Node pos="r" depth="2" NCoef="0" IVar="-1" Cut="0.0000000000000000e+00" cType="1" res="-9.8287581931799650e-04" rms="4.4095301628112793e-01" purity="3.8669127225875854e-01" nType="-99"/>
        </Node>
      </Node>
    </BinaryTree>
    <BinaryTree type="DecisionTree" boostWeight="1.0000000000000000e+00" itree="599">
      <Node pos="s" depth="0" NCoef="0" IVar="7" Cut="7.1434372663497925e-01" cType="1" res="4.5037623494863510e-03" rms="4.4783836603164673e-01" purity="5.0596660375595093e-01" nType="0">
        <Node pos="l" depth="1" NCoef="0" IVar="3" Cut="-7.4493549764156342e-02" cType="1" res="-3.4533193684183061e-04" rms="4.4974496960639954e-01" purity="4.9498665332794189e-01" nType="0">
          <Node pos="l" depth="2" NCoef="0" IVar="-1" Cut="0.0000000000000000e+00" cType="1" res="-1.5113576082512736e-03" rms="4.3167543411254883e-01" purity="3.9878365397453308e-01" nType="-99"/>
          <Node pos="r" depth="2" NCoef="0" IVar="-1" Cut="0.0000000000000000e+00" cType="1" res="4.5991232036612928e-04" rms="4.5511761307716370e-01" purity="5.2718842029571533e-01" nType="-99"/>
        </Node>
        <Node pos="r" depth="1" NCoef="0" IVar="-1" Cut="0.0000000000000000e+00" cType="1" res="3.7588886916637421e-03" rms="4.0416157245635986e-01" purity="6.9661754369735718e-01" nType="-99"/>
      </Node>
    </BinaryTree>
    <BinaryTree type="DecisionTree" boostWeight="1.0000000000000000e+00" itree="600">
      <Node pos="s" depth="0" NCoef="0" IVar="2" Cut="9.4109475612640381e-01" cType="1" res="1.0867667151615024e-03" rms="4.4842272996902466e-01" purity="5.0411444902420044e-01" nType="0">
        <Node pos="l" depth="1" NCoef="0" IVar="2" Cut="9.1809266805648804e-01" cType="1" res="-1.4051021076738834e-02" rms="4.4746109843254089e-01" purity="3.4195077419281006e-01" nType="0">
          <Node pos="l" depth="2" NCoef="0" IVar="-1" Cut="0.0000000000000000e+00" cType="1" res="1.5912614762783051e-03" rms="4.3260803818702698e-01" purity="3.2132473587989807e-01" nType="-99"/>
          <Node pos="r" depth="2" NCoef="0" IVar="-1" Cut="0.0000000000000000e+00" cType="1" res="-1.4204869512468576e-03" rms="4.5196405053138733e-01" purity="3.5037031769752502e-01" nType="-99"/>
        </Node>
        <Node pos="r" depth="1" NCoef="0" IVar="5" Cut="5.2434682846069336e-01" cType="1" res="9.0135307982563972e-03" rms="4.4872176647186279e-01" purity="5.8902996778488159e-01" nType="0">
          <Node pos="l" depth="2" NCoef="0" IVar="-1" Cut="0.0000000000000000e+00" cType="1" res="-1.0973174357786775e-03" rms="4.4745090603828430e-01" purity="6.3460910320281982e-01" nType="-99"/>
          <Node pos="r" depth="2" NCoef="0" IVar="-1" Cut="0.0000000000000000e+00" cType="1" res="8.1394508015364408e-04" rms="4.4862252473831177e-01" purity="5.7644706964492798e-01" nType="-99"/>
        </Node>
      </Node>
    </BinaryTree>
    <BinaryTree type="DecisionTree" boostWeight="1.0000000000000000e+00" itree="601">
      <Node pos="s" depth="0" NCoef="0" IVar="1" Cut="2.1580390930175781e+00" cType="1" res="-4.2563686147332191e-03" rms="4.4735747575759888e-01" purity="5.0021845102310181e-01" nType="0">
        <Node pos="l" depth="1" NCoef="0" IVar="6" Cut="8.1336812973022461e+00" cType="1" res="1.1942461133003235e-02" rms="4.5501944422721863e-01" purity="5.9761220216751099e-01" nType="0">
          <Node pos="l" depth="2" NCoef="0" IVar="-1" Cut="0.0000000000000000e+00" cType="1" res="9.9580246023833752e-04" rms="4.5973360538482666e-01" purity="5.6473827362060547e-01" nType="-99"/>
          <Node pos="r" depth="2" NCoef="0" IVar="-1" Cut="0.0000000000000000e+00" cType="1" res="-1.7835986800491810e-03" rms="4.3447968363761902e-01" purity="7.1539157629013062e-01" nType="-99"/>
        </Node>
        <Node pos="r" depth="1" NCoef="0" IVar="5" Cut="8.7774318456649780e-01" cType="1" res="-2.2102223709225655e-02" rms="4.3806868791580200e-01" purity="3.9292213320732117e-01" nType="0">
          <Node pos="l" depth="2" NCoef="0" IVar="-1" Cut="0.0000000000000000e+00" cType="1" res="-1.9060734193772078e-03" rms="4.4416677951812744e-01" purity="4.1088771820068359e-01" nType="-99"/>
          <Node pos="r" depth="2" NCoef="0" IVar="-1" Cut="0.0000000000000000e+00" cType="1" res="6.7930322984466329e-06" rms="4.2997437715530396e-01" purity="3.7256956100463867e-01" nType="-99"/>
        </Node>
      </Node>
    </BinaryTree>
    <BinaryTree type="DecisionTree" boostWeight="1.0000000000000000e+00" itree="602">
      <Node pos="s" depth="0" NCoef="0" IVar="6" Cut="6.2599205970764160e+00" cType="1" res="-3.8950815796852112e-03" rms="4.4856441020965576e-01" purity="4.9442407488822937e-01" nType="0">
        <Node pos="l" depth="1" NCoef="0" IVar="5" Cut="1.0810633897781372e+00" cType="1" res="-2.7547109872102737e-02" rms="4.4418758153915405e-01" purity="3.1894454360008240e-01" nType="0">
          <Node pos="l" depth="2" NCoef="0" IVar="-1" Cut="0.0000000000000000e+00" cType="1" res="-1.7722675111144781e-03" rms="4.4413521885871887e-01" purity="3.2150852680206299e-01" nType="-99"/>
          <Node pos="r" depth="2" NCoef="0" IVar="-1" Cut="0.0000000000000000e+00" cType="1" res="1.6600770177319646e-03" rms="4.3923452496528625e-01" purity="3.0710476636886597e-01" nType="-99"/>
        </Node>
        <Node pos="r" depth="1" NCoef="0" IVar="5" Cut="9.3249356746673584e-01" cType="1" res="9.0273525565862656e-03" rms="4.5041340589523315e-01" purity="5.9029841423034668e-01" nType="0">
          <Node pos="l" depth="2" NCoef="0" IVar="-1" Cut="0.0000000000000000e+00" cType="1" res="-2.2279305267147720e-04" rms="4.5000693202018738e-01" purity="6.1225128173828125e-01" nType="-99"/>
          <Node pos="r" depth="2" NCoef="0" IVar="-1" Cut="0.0000000000000000e+00" cType="1" res="1.8935684347525239e-03" rms="4.4954517483711243e-01" purity="5.3618609905242920e-01" nType="-99"/>
        </Node>
      </Node>
    </BinaryTree>
    <BinaryTree type="DecisionTree" boostWeight="1.0000000000000000e+00" itree="603">
      <Node pos="s" depth="0" NCoef="0" IVar="2" Cut="9.1859269142150879e-01" cType="1" res="-5.1213796250522137e-03" rms="4.5274689793586731e-01" purity="4.9200722575187683e-01" nType="0">
        <Node pos="l" depth="1" NCoef="0" IVar="-1" Cut="0.0000000000000000e+00" cType="1" res="2.5065238587558270e-03" rms="4.4157132506370544e-01" purity="3.4443217515945435e-01" nType="-99"/>
        <Node pos="r" depth="1" NCoef="0" IVar="0" Cut="1.3917845153808594e+02" cType="1" res="-1.2003614567220211e-02" rms="4.5351612567901611e-01" purity="5.0905436277389526e-01" nType="0">
          <Node pos="l" depth="2" NCoef="0" IVar="-1" Cut="0.0000000000000000e+00" cType="1" res="-2.9087596340104938e-04" rms="4.5298662781715393e-01" purity="5.1673191785812378e-01" nType="-99"/>
          <Node pos="r" depth="2" NCoef="0" IVar="-1" Cut="0.0000000000000000e+00" cType="1" res="-3.7130953278392553e-03" rms="4.5482602715492249e-01" purity="4.1552728414535522e-01" nType="-99"/>
        </Node>
      </Node>
    </BinaryTree>
    <BinaryTree type="DecisionTree" boostWeight="1.0000000000000000e+00" itree="604">
      <Node pos="s" depth="0" NCoef="0" IVar="1" Cut="2.7122251987457275e+00" cType="1" res="7.6923305168747902e-03" rms="4.4761785864830017e-01" purity="5.0656604766845703e-01" nType="0">
        <Node pos="l" depth="1" NCoef="0" IVar="3" Cut="-2.6543602347373962e-02" cType="1" res="1.2163923121988773e-02" rms="4.5533776283264160e-01" purity="5.3483074903488159e-01" nType="0">
          <Node pos="l" depth="2" NCoef="0" IVar="-1" Cut="0.0000000000000000e+00" cType="1" res="1.3064369559288025e-03" rms="4.6290749311447144e-01" purity="5.1958161592483521e-01" nType="-99"/>
          <Node pos="r" depth="2" NCoef="0" IVar="-1" Cut="0.0000000000000000e+00" cType="1" res="-1.4903533156029880e-05" rms="4.4961813092231750e-01" purity="5.4534393548965454e-01" nType="-99"/>
        </Node>
        <Node pos="r" depth="1" NCoef="0" IVar="-1" Cut="0.0000000000000000e+00" cType="1" res="-4.1928575374186039e-03" rms="3.1556522846221924e-01" purity="1.1463991552591324e-01" nType="-99"/>
      </Node>
    </BinaryTree>
    <BinaryTree type="DecisionTree" boostWeight="1.0000000000000000e+00" itree="605">
      <Node pos="s" depth="0" NCoef="0" IVar="7" Cut="5.3900736570358276e-01" cType="1" res="-6.4893905073404312e-03" rms="4.4944220781326294e-01" purity="4.9274989962577820e-01" nType="0">
        <Node pos="l" depth="1" NCoef="0" IVar="5" Cut="8.1003242731094360e-01" cType="1" res="-1.6781030222773552e-02" rms="4.4686597585678101e-01" purity="4.5942789316177368e-01" nType="0">
          <Node pos="l" depth="2" NCoef="0" IVar="-1" Cut="0.0000000000000000e+00" cType="1" res="-1.6054259613156319e-03" rms="4.4840884208679199e-01" purity="5.0467598438262939e-01" nType="-99"/>
          <Node pos="r" depth="2" NCoef="0" IVar="-1" Cut="0.0000000000000000e+00" cType="1" res="2.8197001665830612e-04" rms="4.4408127665519714e-01" purity="4.1083824634552002e-01" nType="-99"/>
        </Node>
        <Node pos="r" depth="1" NCoef="0" IVar="0" Cut="6.8358261108398438e+01" cType="1" res="2.5618664920330048e-02" rms="4.5589575171470642e-01" purity="5.9670853614807129e-01" nType="0">
          <Node pos="l" depth="2" NCoef="0" IVar="-1" Cut="0.0000000000000000e+00" cType="1" res="2.3860256187617779e-03" rms="4.7072327136993408e-01" purity="5.9204018115997314e-01" nType="-99"/>
          <Node pos="r" depth="2" NCoef="0" IVar="-1" Cut="0.0000000000000000e+00" cType="1" res="-3.0755461193621159e-04" rms="4.3813663721084595e-01" purity="6.0138130187988281e-01" nType="-99"/>
        </Node>
      </Node>
    </BinaryTree>
    <BinaryTree type="DecisionTree" boostWeight="1.0000000000000000e+00" itree="606">
      <Node pos="s" depth="0" NCoef="0" IVar="5" Cut="1.1002916097640991e+00" cType="1" res="-1.1579300276935101e-02" rms="4.5458725094795227e-01" purity="4.9030289053916931e-01" nType="0">
        <Node pos="l" depth="1" NCoef="0" IVar="5" Cut="7.0378911495208740e-01" cType="1" res="-1.7855383455753326e-02" rms="4.5496368408203125e-01" purity="4.9911525845527649e-01" nType="0">
          <Node pos="l" depth="2" NCoef="0" IVar="-1" Cut="0.0000000000000000e+00" cType="1" res="1.8203513172920793e-04" rms="4.6468219161033630e-01" purity="5.7152539491653442e-01" nType="-99"/>
          <Node pos="r" depth="2" NCoef="0" IVar="-1" Cut="0.0000000000000000e+00" cType="1" res="-1.7922897823154926e-03" rms="4.4421559572219849e-01" purity="4.2854607105255127e-01" nType="-99"/>
        </Node>
        <Node pos="r" depth="1" NCoef="0" IVar="3" Cut="-1.4983993954956532e-02" cType="1" res="2.8883902356028557e-02" rms="4.5005670189857483e-01" purity="4.3348804116249084e-01" nType="0">
          <Node pos="l" depth="2" NCoef="0" IVar="-1" Cut="0.0000000000000000e+00" cType="1" res="4.2622843757271767e-03" rms="4.5131450891494751e-01" purity="4.2437446117401123e-01" nType="-99"/>
          <Node pos="r" depth="2" NCoef="0" IVar="-1" Cut="0.0000000000000000e+00" cType="1" res="-2.7234584558755159e-04" rms="4.4564107060432434e-01" purity="4.3895891308784485e-01" nType="-99"/>
        </Node>
      </Node>
    </BinaryTree>
    <BinaryTree type="DecisionTree" boostWeight="1.0000000000000000e+00" itree="607">
      <Node pos="s" depth="0" NCoef="0" IVar="0" Cut="1.1948363494873047e+02" cType="1" res="8.4203742444515228e-03" rms="4.5342302322387695e-01" purity="5.0662916898727417e-01" nType="0">
        <Node pos="l" depth="1" NCoef="0" IVar="6" Cut="5.0082554817199707e+00" cType="1" res="5.4848671425133944e-04" rms="4.5493337512016296e-01" purity="4.9249479174613953e-01" nType="0">
          <Node pos="l" depth="2" NCoef="0" IVar="-1" Cut="0.0000000000000000e+00" cType="1" res="2.7530002407729626e-03" rms="4.4966465234756470e-01" purity="3.0769720673561096e-01" nType="-99"/>
          <Node pos="r" depth="2" NCoef="0" IVar="-1" Cut="0.0000000000000000e+00" cType="1" res="-1.6442364722024649e-04" rms="4.5505928993225098e-01" purity="5.0691390037536621e-01" nType="-99"/>
        </Node>
        <Node pos="r" depth="1" NCoef="0" IVar="5" Cut="9.5738720893859863e-01" cType="1" res="4.6850375831127167e-02" rms="4.4397675991058350e-01" purity="5.7563209533691406e-01" nType="0">
          <Node pos="l" depth="2" NCoef="0" IVar="-1" Cut="0.0000000000000000e+00" cType="1" res="1.1344358790665865e-03" rms="4.4014310836791992e-01" purity="6.0298663377761841e-01" nType="-99"/>
          <Node pos="r" depth="2" NCoef="0" IVar="-1" Cut="0.0000000000000000e+00" cType="1" res="4.2240126058459282e-03" rms="4.4853490591049194e-01" purity="5.1866871118545532e-01" nType="-99"/>
        </Node>
      </Node>
    </BinaryTree>
    <BinaryTree type="DecisionTree" boostWeight="1.0000000000000000e+00" itree="608">
      <Node pos="s" depth="0" NCoef="0" IVar="2" Cut="9.1980928182601929e-01" cType="1" res="2.2474266588687897e-03" rms="4.4982907176017761e-01" purity="5.0102722644805908e-01" nType="0">
        <Node pos="l" depth="1" NCoef="0" IVar="6" Cut="4.9122290611267090e+00" cType="1" res="5.1560346037149429e-02" rms="4.4755312800407410e-01" purity="3.4970420598983765e-01" nType="0">
          <Node pos="l" depth="2" NCoef="0" IVar="-1" Cut="0.0000000000000000e+00" cType="1" res="-2.7681646315613762e-05" rms="4.2983859777450562e-01" purity="2.4924603104591370e-01" nType="-99"/>
          <Node pos="r" depth="2" NCoef="0" IVar="-1" Cut="0.0000000000000000e+00" cType="1" res="4.4958507642149925e-03" rms="4.5873266458511353e-01" purity="4.5044589042663574e-01" nType="-99"/>
        </Node>
        <Node pos="r" depth="1" NCoef="0" IVar="2" Cut="9.6311891078948975e-01" cType="1" res="-4.2671635746955872e-03" rms="4.4972473382949829e-01" purity="5.2101808786392212e-01" nType="0">
          <Node pos="l" depth="2" NCoef="0" IVar="-1" Cut="0.0000000000000000e+00" cType="1" res="-6.6795159364119172e-04" rms="4.5865929126739502e-01" purity="4.4809830188751221e-01" nType="-99"/>
          <Node pos="r" depth="2" NCoef="0" IVar="-1" Cut="0.0000000000000000e+00" cType="1" res="8.8893529027700424e-04" rms="4.3067535758018494e-01" purity="6.6444408893585205e-01" nType="-99"/>
        </Node>
      </Node>
    </BinaryTree>
    <BinaryTree type="DecisionTree" boostWeight="1.0000000000000000e+00" itree="609">
      <Node pos="s" depth="0" NCoef="0" IVar="0" Cut="7.3364311218261719e+01" cType="1" res="-2.0312611013650894e-03" rms="4.5293369889259338e-01" purity="5.0065535306930542e-01" nType="0">
        <Node pos="l" depth="1" NCoef="0" IVar="3" Cut="-5.6762836873531342e-02" cType="1" res="1.0276701301336288e-02" rms="4.5538392663002014e-01" purity="4.6834442019462585e-01" nType="0">
          <Node pos="l" depth="2" NCoef="0" IVar="-1" Cut="0.0000000000000000e+00" cType="1" res="2.1682307124137878e-03" rms="4.5367425680160522e-01" purity="4.4397908449172974e-01" nType="-99"/>
          <Node pos="r" depth="2" NCoef="0" IVar="-1" Cut="0.0000000000000000e+00" cType="1" res="-1.8982849724125117e-04" rms="4.5521542429924011e-01" purity="4.7799888253211975e-01" nType="-99"/>
        </Node>
        <Node pos="r" depth="1" NCoef="0" IVar="5" Cut="8.9308375120162964e-01" cType="1" res="-1.3592600822448730e-02" rms="4.5031368732452393e-01" purity="5.3100621700286865e-01" nType="0">
          <Node pos="l" depth="2" NCoef="0" IVar="-1" Cut="0.0000000000000000e+00" cType="1" res="-1.4409477589651942e-03" rms="4.5215404033660889e-01" purity="5.6158095598220825e-01" nType="-99"/>
          <Node pos="r" depth="2" NCoef="0" IVar="-1" Cut="0.0000000000000000e+00" cType="1" res="9.1287354007363319e-04" rms="4.4509023427963257e-01" purity="4.7711172699928284e-01" nType="-99"/>
        </Node>
      </Node>
    </BinaryTree>
    <BinaryTree type="DecisionTree" boostWeight="1.0000000000000000e+00" itree="610">
      <Node pos="s" depth="0" NCoef="0" IVar="3" Cut="2.2542728483676910e-01" cType="1" res="5.6735570542514324e-03" rms="4.5238867402076721e-01" purity="5.0463008880615234e-01" nType="0">
        <Node pos="l" depth="1" NCoef="0" IVar="2" Cut="9.5066815614700317e-01" cType="1" res="9.4053028151392937e-03" rms="4.5252469182014465e-01" purity="5.0319904088973999e-01" nType="0">
          <Node pos="l" depth="2" NCoef="0" IVar="-1" Cut="0.0000000000000000e+00" cType="1" res="1.1077433591708541e-03" rms="4.5655277371406555e-01" purity="4.0790358185768127e-01" nType="-99"/>
          <Node pos="r" depth="2" NCoef="0" IVar="-1" Cut="0.0000000000000000e+00" cType="1" res="-2.9039493529126048e-04" rms="4.4796061515808105e-01" purity="5.9697312116622925e-01" nType="-99"/>
        </Node>
        <Node pos="r" depth="1" NCoef="0" IVar="-1" Cut="0.0000000000000000e+00" cType="1" res="-2.2097448818385601e-03" rms="4.4642570614814758e-01" purity="5.2653491497039795e-01" nType="-99"/>
      </Node>
    </BinaryTree>
    <BinaryTree type="DecisionTree" boostWeight="1.0000000000000000e+00" itree="611">
      <Node pos="s" depth="0" NCoef="0" IVar="4" Cut="7.4324649572372437e-01" cType="1" res="-9.4045279547572136e-03" rms="4.5075726509094238e-01" purity="4.9099236726760864e-01" nType="0">
        <Node pos="l" depth="1" NCoef="0" IVar="4" Cut="6.1434412002563477e-01" cType="1" res="-3.0747899785637856e-02" rms="4.5994684100151062e-01" purity="6.1416560411453247e-01" nType="0">
          <Node pos="l" depth="2" NCoef="0" IVar="-1" Cut="0.0000000000000000e+00" cType="1" res="-2.2592536697629839e-04" rms="4.4983065128326416e-01" purity="6.5637594461441040e-01" nType="-99"/>
          <Node pos="r" depth="2" NCoef="0" IVar="-1" Cut="0.0000000000000000e+00" cType="1" res="-2.7268512640148401e-03" rms="4.7151356935501099e-01" purity="5.5497926473617554e-01" nType="-99"/>
        </Node>
        <Node pos="r" depth="1" NCoef="0" IVar="0" Cut="6.0989551544189453e+01" cType="1" res="-1.8577177543193102e-03" rms="4.4721907377243042e-01" purity="4.4743949174880981e-01" nType="0">
          <Node pos="l" depth="2" NCoef="0" IVar="-1" Cut="0.0000000000000000e+00" cType="1" res="-1.2839193223044276e-03" rms="4.5172834396362305e-01" purity="3.6035466194152832e-01" nType="-99"/>
          <Node pos="r" depth="2" NCoef="0" IVar="-1" Cut="0.0000000000000000e+00" cType="1" res="5.1155593246221542e-04" rms="4.4432428479194641e-01" purity="4.9163585901260376e-01" nType="-99"/>
        </Node>
      </Node>
    </BinaryTree>
    <BinaryTree type="DecisionTree" boostWeight="1.0000000000000000e+00" itree="612">
      <Node pos="s" depth="0" NCoef="0" IVar="6" Cut="5.6196327209472656e+00" cType="1" res="-1.3894722796976566e-03" rms="4.4971153140068054e-01" purity="4.9940684437751770e-01" nType="0">
        <Node pos="l" depth="1" NCoef="0" IVar="2" Cut="9.1938990354537964e-01" cType="1" res="-3.5602580755949020e-02" rms="4.2190891504287720e-01" purity="2.7073693275451660e-01" nType="0">
          <Node pos="l" depth="2" NCoef="0" IVar="-1" Cut="0.0000000000000000e+00" cType="1" res="-1.9481923663988709e-04" rms="4.2844840884208679e-01" purity="2.9430842399597168e-01" nType="-99"/>
          <Node pos="r" depth="2" NCoef="0" IVar="-1" Cut="0.0000000000000000e+00" cType="1" res="-3.3455977682024240e-03" rms="4.1079437732696533e-01" purity="2.4248394370079041e-01" nType="-99"/>
        </Node>
        <Node pos="r" depth="1" NCoef="0" IVar="0" Cut="5.9883750915527344e+01" cType="1" res="6.3306842930614948e-03" rms="4.5539540052413940e-01" purity="5.5100601911544800e-01" nType="0">
          <Node pos="l" depth="2" NCoef="0" IVar="-1" Cut="0.0000000000000000e+00" cType="1" res="-9.3924661632627249e-04" rms="4.6273341774940491e-01" purity="4.6206283569335938e-01" nType="-99"/>
          <Node pos="r" depth="2" NCoef="0" IVar="-1" Cut="0.0000000000000000e+00" cType="1" res="9.2273874906823039e-04" rms="4.5089152455329895e-01" purity="5.9667825698852539e-01" nType="-99"/>
        </Node>
      </Node>
    </BinaryTree>
    <BinaryTree type="DecisionTree" boostWeight="1.0000000000000000e+00" itree="613">
      <Node pos="s" depth="0" NCoef="0" IVar="6" Cut="6.0254931449890137e+00" cType="1" res="-4.9949629465118051e-04" rms="4.5875957608222961e-01" purity="4.9437722563743591e-01" nType="0">
        <Node pos="l" depth="1" NCoef="0" IVar="4" Cut="9.4659632444381714e-01" cType="1" res="2.5763301178812981e-02" rms="4.4669768214225769e-01" purity="3.5346776247024536e-01" nType="0">
          <Node pos="l" depth="2" NCoef="0" IVar="-1" Cut="0.0000000000000000e+00" cType="1" res="2.0544864237308502e-03" rms="4.8412939906120300e-01" purity="5.0846451520919800e-01" nType="-99"/>
          <Node pos="r" depth="2" NCoef="0" IVar="-1" Cut="0.0000000000000000e+00" cType="1" res="3.7741183768957853e-04" rms="4.1985931992530823e-01" purity="2.5399753451347351e-01" nType="-99"/>
        </Node>
        <Node pos="r" depth="1" NCoef="0" IVar="4" Cut="1.3569936752319336e+00" cType="1" res="-1.1489557102322578e-02" rms="4.6327227354049683e-01" purity="5.5334293842315674e-01" nType="0">
          <Node pos="l" depth="2" NCoef="0" IVar="-1" Cut="0.0000000000000000e+00" cType="1" res="-9.9300325382500887e-04" rms="4.6413549780845642e-01" purity="5.9830802679061890e-01" nType="-99"/>
          <Node pos="r" depth="2" NCoef="0" IVar="-1" Cut="0.0000000000000000e+00" cType="1" res="1.9937129691243172e-03" rms="4.5585590600967407e-01" purity="3.5571742057800293e-01" nType="-99"/>
        </Node>
      </Node>
    </BinaryTree>
    <BinaryTree type="DecisionTree" boostWeight="1.0000000000000000e+00" itree="614">
      <Node pos="s" depth="0" NCoef="0" IVar="3" Cut="1.8421391723677516e-03" cType="1" res="3.9295642636716366e-03" rms="4.5163527131080627e-01" purity="4.9900993704795837e-01" nType="0">
        <Node pos="l" depth="1" NCoef="0" IVar="2" Cut="9.6272492408752441e-01" cType="1" res="1.6408961266279221e-02" rms="4.5264330506324768e-01" purity="4.7676452994346619e-01" nType="0">
          <Node pos="l" depth="2" NCoef="0" IVar="-1" Cut="0.0000000000000000e+00" cType="1" res="1.2409228365868330e-03" rms="4.5764964818954468e-01" purity="4.2495369911193848e-01" nType="-99"/>
          <Node pos="r" depth="2" NCoef="0" IVar="-1" Cut="0.0000000000000000e+00" cType="1" res="-5.1249400712549686e-04" rms="4.3940684199333191e-01" purity="5.9881275892257690e-01" nType="-99"/>
        </Node>
        <Node pos="r" depth="1" NCoef="0" IVar="2" Cut="9.5066833496093750e-01" cType="1" res="-9.5295347273349762e-03" rms="4.5015799999237061e-01" purity="5.2300179004669189e-01" nType="0">
          <Node pos="l" depth="2" NCoef="0" IVar="-1" Cut="0.0000000000000000e+00" cType="1" res="-1.3452157145366073e-03" rms="4.5648941397666931e-01" purity="3.8501885533332825e-01" nType="-99"/>
          <Node pos="r" depth="2" NCoef="0" IVar="-1" Cut="0.0000000000000000e+00" cType="1" res="7.3667429387569427e-04" rms="4.4203120470046997e-01" purity="6.6595399379730225e-01" nType="-99"/>
        </Node>
      </Node>
    </BinaryTree>
    <BinaryTree type="DecisionTree" boostWeight="1.0000000000000000e+00" itree="615">
      <Node pos="s" depth="0" NCoef="0" IVar="5" Cut="5.2434682846069336e-01" cType="1" res="-1.8450657080393285e-04" rms="4.5471552014350891e-01" purity="4.9724367260932922e-01" nType="0">
        <Node pos="l" depth="1" NCoef="0" IVar="6" Cut="6.3999505043029785e+00" cType="1" res="-3.8837239146232605e-02" rms="4.6913552284240723e-01" purity="5.4532420635223389e-01" nType="0">
          <Node pos="l" depth="2" NCoef="0" IVar="-1" Cut="0.0000000000000000e+00" cType="1" res="8.3186116535216570e-04" rms="4.7681650519371033e-01" purity="4.6038764715194702e-01" nType="-99"/>
          <Node pos="r" depth="2" NCoef="0" IVar="-1" Cut="0.0000000000000000e+00" cType="1" res="-3.1656867358833551e-03" rms="4.6184033155441284e-01" purity="5.9039336442947388e-01" nType="-99"/>
        </Node>
        <Node pos="r" depth="1" NCoef="0" IVar="7" Cut="5.7096004486083984e-01" cType="1" res="9.5977298915386200e-03" rms="4.5046740770339966e-01" purity="4.8507547378540039e-01" nType="0">
          <Node pos="l" depth="2" NCoef="0" IVar="-1" Cut="0.0000000000000000e+00" cType="1" res="8.7922561215236783e-04" rms="4.4814670085906982e-01" purity="4.7289705276489258e-01" nType="-99"/>
          <Node pos="r" depth="2" NCoef="0" IVar="-1" Cut="0.0000000000000000e+00" cType="1" res="-1.4486956642940640e-03" rms="4.5817455649375916e-01" purity="5.3945088386535645e-01" nType="-99"/>
        </Node>
      </Node>
    </BinaryTree>
    <BinaryTree type="DecisionTree" boostWeight="1.0000000000000000e+00" itree="616">
      <Node pos="s" depth="0" NCoef="0" IVar="2" Cut="9.3706965446472168e-01" cType="1" res="4.3443967588245869e-03" rms="4.4978928565979004e-01" purity="5.0334310531616211e-01" nType="0">
        <Node pos="l" depth="1" NCoef="0" IVar="5" Cut="5.2160644531250000e-01" cType="1" res="3.3354185521602631e-02" rms="4.5530584454536438e-01" purity="3.7687370181083679e-01" nType="0">
          <Node pos="l" depth="2" NCoef="0" IVar="-1" Cut="0.0000000000000000e+00" cType="1" res="4.7008441761136055e-03" rms="4.8647114634513855e-01" purity="5.6319594383239746e-01" nType="-99"/>
          <Node pos="r" depth="2" NCoef="0" IVar="-1" Cut="0.0000000000000000e+00" cType="1" res="5.1710981642827392e-04" rms="4.4485393166542053e-01" purity="3.3355751633644104e-01" nType="-99"/>
        </Node>
        <Node pos="r" depth="1" NCoef="0" IVar="2" Cut="9.4101929664611816e-01" cType="1" res="-8.1524280831217766e-03" rms="4.4681182503700256e-01" purity="5.5782359838485718e-01" nType="0">
          <Node pos="l" depth="2" NCoef="0" IVar="-1" Cut="0.0000000000000000e+00" cType="1" res="-3.4854649566113949e-03" rms="4.3810549378395081e-01" purity="3.4655332565307617e-01" nType="-99"/>
          <Node pos="r" depth="2" NCoef="0" IVar="-1" Cut="0.0000000000000000e+00" cType="1" res="-7.3682647780515254e-05" rms="4.4693008065223694e-01" purity="5.7565015554428101e-01" nType="-99"/>
        </Node>
      </Node>
    </BinaryTree>
    <BinaryTree type="DecisionTree" boostWeight="1.0000000000000000e+00" itree="617">
      <Node pos="s" depth="0" NCoef="0" IVar="4" Cut="1.4674576520919800e+00" cType="1" res="-5.2099127788096666e-04" rms="4.4577264785766602e-01" purity="4.9981099367141724e-01" nType="0">
        <Node pos="l" depth="1" NCoef="0" IVar="7" Cut="3.6537215113639832e-01" cType="1" res="8.2476818934082985e-03" rms="4.5776069164276123e-01" purity="5.5391114950180054e-01" nType="0">
          <Node pos="l" depth="2" NCoef="0" IVar="-1" Cut="0.0000000000000000e+00" cType="1" res="-4.2607312207110226e-04" rms="4.5954686403274536e-01" purity="5.0035518407821655e-01" nType="-99"/>
          <Node pos="r" depth="2" NCoef="0" IVar="-1" Cut="0.0000000000000000e+00" cType="1" res="8.4055180195719004e-04" rms="4.5618391036987305e-01" purity="5.8923202753067017e-01" nType="-99"/>
        </Node>
        <Node pos="r" depth="1" NCoef="0" IVar="5" Cut="9.2438769340515137e-01" cType="1" res="-5.2475169301033020e-02" rms="3.6246576905250549e-01" purity="1.7926873266696930e-01" nType="0">
          <Node pos="l" depth="2" NCoef="0" IVar="-1" Cut="0.0000000000000000e+00" cType="1" res="-5.1015457138419151e-03" rms="3.4069755673408508e-01" purity="1.5088559687137604e-01" nType="-99"/>
          <Node pos="r" depth="2" NCoef="0" IVar="-1" Cut="0.0000000000000000e+00" cType="1" res="-1.5860480489209294e-03" rms="3.7775337696075439e-01" purity="2.0298691093921661e-01" nType="-99"/>
        </Node>
      </Node>
    </BinaryTree>
    <BinaryTree type="DecisionTree" boostWeight="1.0000000000000000e+00" itree="618">
      <Node pos="s" depth="0" NCoef="0" IVar="7" Cut="7.0526117086410522e-01" cType="1" res="7.6499357819557190e-03" rms="4.5067554712295532e-01" purity="5.0639480352401733e-01" nType="0">
        <Node pos="l" depth="1" NCoef="0" IVar="3" Cut="4.1863445192575455e-02" cType="1" res="2.1706651896238327e-03" rms="4.5236170291900635e-01" purity="4.9525448679924011e-01" nType="0">
          <Node pos="l" depth="2" NCoef="0" IVar="-1" Cut="0.0000000000000000e+00" cType="1" res="-5.0480756908655167e-04" rms="4.5140162110328674e-01" purity="4.4963991641998291e-01" nType="-99"/>
          <Node pos="r" depth="2" NCoef="0" IVar="-1" Cut="0.0000000000000000e+00" cType="1" res="9.8605209495872259e-04" rms="4.5305281877517700e-01" purity="5.6480127573013306e-01" nType="-99"/>
        </Node>
        <Node pos="r" depth="1" NCoef="0" IVar="-1" Cut="0.0000000000000000e+00" cType="1" res="3.5994194913655519e-03" rms="4.1812154650688171e-01" purity="6.6542345285415649e-01" nType="-99"/>
      </Node>
    </BinaryTree>
    <BinaryTree type="DecisionTree" boostWeight="1.0000000000000000e+00" itree="619">
      <Node pos="s" depth="0" NCoef="0" IVar="1" Cut="2.7257254123687744e+00" cType="1" res="4.5458795502781868e-03" rms="4.4827118515968323e-01" purity="5.0313150882720947e-01" nType="0">
        <Node pos="l" depth="1" NCoef="0" IVar="6" Cut="5.0164332389831543e+00" cType="1" res="8.5261343047022820e-03" rms="4.5574453473091125e-01" purity="5.2937012910842896e-01" nType="0">
          <Node pos="l" depth="2" NCoef="0" IVar="-1" Cut="0.0000000000000000e+00" cType="1" res="-2.4898904375731945e-03" rms="4.0775293111801147e-01" purity="2.1465365588665009e-01" nType="-99"/>
          <Node pos="r" depth="2" NCoef="0" IVar="-1" Cut="0.0000000000000000e+00" cType="1" res="5.5504619376733899e-04" rms="4.5873710513114929e-01" purity="5.5233579874038696e-01" nType="-99"/>
        </Node>
        <Node pos="r" depth="1" NCoef="0" IVar="-1" Cut="0.0000000000000000e+00" cType="1" res="-4.2047272436320782e-03" rms="3.1094247102737427e-01" purity="1.1274208873510361e-01" nType="-99"/>
      </Node>
    </BinaryTree>
    <BinaryTree type="DecisionTree" boostWeight="1.0000000000000000e+00" itree="620">
      <Node pos="s" depth="0" NCoef="0" IVar="3" Cut="1.6752196848392487e-01" cType="1" res="-1.0741217061877251e-02" rms="4.4762983918190002e-01" purity="4.8891639709472656e-01" nType="0">
        <Node pos="l" depth="1" NCoef="0" IVar="4" Cut="8.3525967597961426e-01" cType="1" res="-2.5374228134751320e-03" rms="4.4712802767753601e-01" purity="4.8159536719322205e-01" nType="0">
          <Node pos="l" depth="2" NCoef="0" IVar="-1" Cut="0.0000000000000000e+00" cType="1" res="8.5367169231176376e-04" rms="4.4971445202827454e-01" purity="6.5969675779342651e-01" nType="-99"/>
          <Node pos="r" depth="2" NCoef="0" IVar="-1" Cut="0.0000000000000000e+00" cType="1" res="-6.0321966884657741e-04" rms="4.4552582502365112e-01" purity="3.9951401948928833e-01" nType="-99"/>
        </Node>
        <Node pos="r" depth="1" NCoef="0" IVar="2" Cut="9.5748114585876465e-01" cType="1" res="-6.1676878482103348e-02" rms="4.4737887382507324e-01" purity="5.3437143564224243e-01" nType="0">
          <Node pos="l" depth="2" NCoef="0" IVar="-1" Cut="0.0000000000000000e+00" cType="1" res="-3.0558411963284016e-03" rms="4.5479086041450500e-01" purity="4.1371914744377136e-01" nType="-99"/>
          <Node pos="r" depth="2" NCoef="0" IVar="-1" Cut="0.0000000000000000e+00" cType="1" res="-3.3490580972284079e-04" rms="4.2947748303413391e-01" purity="7.2901481389999390e-01" nType="-99"/>
        </Node>
      </Node>
    </BinaryTree>
    <BinaryTree type="DecisionTree" boostWeight="1.0000000000000000e+00" itree="621">
      <Node pos="s" depth="0" NCoef="0" IVar="2" Cut="9.4604700803756714e-01" cType="1" res="2.6431963779032230e-03" rms="4.4846269488334656e-01" purity="5.0415891408920288e-01" nType="0">
        <Node pos="l" depth="1" NCoef="0" IVar="2" Cut="9.1648381948471069e-01" cType="1" res="-2.2441940382122993e-02" rms="4.4969183206558228e-01" purity="3.5019889473915100e-01" nType="0">
          <Node pos="l" depth="2" NCoef="0" IVar="-1" Cut="0.0000000000000000e+00" cType="1" res="9.1786112170666456e-04" rms="4.3721291422843933e-01" purity="3.0500677227973938e-01" nType="-99"/>
          <Node pos="r" depth="2" NCoef="0" IVar="-1" Cut="0.0000000000000000e+00" cType="1" res="-1.4372274745255709e-03" rms="4.5247051119804382e-01" purity="3.6308759450912476e-01" nType="-99"/>
        </Node>
        <Node pos="r" depth="1" NCoef="0" IVar="2" Cut="9.8337483406066895e-01" cType="1" res="2.1135849878191948e-02" rms="4.4665321707725525e-01" purity="6.1765754222869873e-01" nType="0">
          <Node pos="l" depth="2" NCoef="0" IVar="-1" Cut="0.0000000000000000e+00" cType="1" res="6.3692877301946282e-04" rms="4.5514276623725891e-01" purity="5.9243154525756836e-01" nType="-99"/>
          <Node pos="r" depth="2" NCoef="0" IVar="-1" Cut="0.0000000000000000e+00" cType="1" res="3.1112213619053364e-03" rms="3.8716620206832886e-01" purity="7.7479612827301025e-01" nType="-99"/>
        </Node>
      </Node>
    </BinaryTree>
    <BinaryTree type="DecisionTree" boostWeight="1.0000000000000000e+00" itree="622">
      <Node pos="s" depth="0" NCoef="0" IVar="3" Cut="-3.7025704979896545e-02" cType="1" res="4.8906467854976654e-03" rms="4.5001828670501709e-01" purity="5.0447833538055420e-01" nType="0">
        <Node pos="l" depth="1" NCoef="0" IVar="3" Cut="-6.8124942481517792e-02" cType="1" res="2.7144135907292366e-02" rms="4.4605952501296997e-01" purity="4.7689828276634216e-01" nType="0">
          <Node pos="l" depth="2" NCoef="0" IVar="-1" Cut="0.0000000000000000e+00" cType="1" res="4.1027972474694252e-04" rms="4.4043555855751038e-01" purity="4.3853795528411865e-01" nType="-99"/>
          <Node pos="r" depth="2" NCoef="0" IVar="-1" Cut="0.0000000000000000e+00" cType="1" res="2.9316402506083250e-03" rms="4.5570683479309082e-01" purity="5.6188821792602539e-01" nType="-99"/>
        </Node>
        <Node pos="r" depth="1" NCoef="0" IVar="2" Cut="9.2268705368041992e-01" cType="1" res="-9.7260167822241783e-03" rms="4.5200389623641968e-01" purity="5.2259361743927002e-01" nType="0">
          <Node pos="l" depth="2" NCoef="0" IVar="-1" Cut="0.0000000000000000e+00" cType="1" res="-2.2094440646469593e-03" rms="4.1881480813026428e-01" purity="2.6156142354011536e-01" nType="-99"/>
          <Node pos="r" depth="2" NCoef="0" IVar="-1" Cut="0.0000000000000000e+00" cType="1" res="-1.5580568287987262e-04" rms="4.5668029785156250e-01" purity="5.6347310543060303e-01" nType="-99"/>
        </Node>
      </Node>
    </BinaryTree>
    <BinaryTree type="DecisionTree" boostWeight="1.0000000000000000e+00" itree="623">
      <Node pos="s" depth="0" NCoef="0" IVar="4" Cut="1.1087628602981567e+00" cType="1" res="1.9211156759411097e-03" rms="4.5447871088981628e-01" purity="5.0063431262969971e-01" nType="0">
        <Node pos="l" depth="1" NCoef="0" IVar="1" Cut="2.1471076011657715e+00" cType="1" res="-1.6004566103219986e-02" rms="4.6057391166687012e-01" purity="5.8468747138977051e-01" nType="0">
          <Node pos="l" depth="2" NCoef="0" IVar="-1" Cut="0.0000000000000000e+00" cType="1" res="1.3123817916493863e-04" rms="4.5805418491363525e-01" purity="6.1380982398986816e-01" nType="-99"/>
          <Node pos="r" depth="2" NCoef="0" IVar="-1" Cut="0.0000000000000000e+00" cType="1" res="-2.5254907086491585e-03" rms="4.6327435970306396e-01" purity="5.1991820335388184e-01" nType="-99"/>
        </Node>
        <Node pos="r" depth="1" NCoef="0" IVar="3" Cut="-7.5502768158912659e-02" cType="1" res="3.0131455510854721e-02" rms="4.4325160980224609e-01" purity="3.6835652589797974e-01" nType="0">
          <Node pos="l" depth="2" NCoef="0" IVar="-1" Cut="0.0000000000000000e+00" cType="1" res="-5.1313588755874662e-07" rms="4.1736480593681335e-01" purity="3.1135556101799011e-01" nType="-99"/>
          <Node pos="r" depth="2" NCoef="0" IVar="-1" Cut="0.0000000000000000e+00" cType="1" res="2.1685566753149033e-03" rms="4.5546618103981018e-01" purity="3.9830589294433594e-01" nType="-99"/>
        </Node>
      </Node>
    </BinaryTree>
    <BinaryTree type="DecisionTree" boostWeight="1.0000000000000000e+00" itree="624">
      <Node pos="s" depth="0" NCoef="0" IVar="7" Cut="6.9818663597106934e-01" cType="1" res="2.7115754783153534e-03" rms="4.4612911343574524e-01" purity="4.9895527958869934e-01" nType="0">
        <Node pos="l" depth="1" NCoef="0" IVar="6" Cut="6.2808480262756348e+00" cType="1" res="7.9955412074923515e-03" rms="4.4433632493019104e-01" purity="4.9656900763511658e-01" nType="0">
          <Node pos="l" depth="2" NCoef="0" IVar="-1" Cut="0.0000000000000000e+00" cType="1" res="-5.8139534667134285e-04" rms="4.4172802567481995e-01" purity="3.2729244232177734e-01" nType="-99"/>
          <Node pos="r" depth="2" NCoef="0" IVar="-1" Cut="0.0000000000000000e+00" cType="1" res="8.6818059207871556e-04" rms="4.4537007808685303e-01" purity="5.9244018793106079e-01" nType="-99"/>
        </Node>
        <Node pos="r" depth="1" NCoef="0" IVar="-1" Cut="0.0000000000000000e+00" cType="1" res="-2.7585406787693501e-03" rms="4.6320179104804993e-01" purity="5.2956151962280273e-01" nType="-99"/>
      </Node>
    </BinaryTree>
    <BinaryTree type="DecisionTree" boostWeight="1.0000000000000000e+00" itree="625">
      <Node pos="s" depth="0" NCoef="0" IVar="2" Cut="9.7625976800918579e-01" cType="1" res="-4.4074682518839836e-03" rms="4.5506548881530762e-01" purity="4.9792203307151794e-01" nType="0">
        <Node pos="l" depth="1" NCoef="0" IVar="5" Cut="3.7085521221160889e-01" cType="1" res="-1.1090289801359177e-02" rms="4.6178567409515381e-01" purity="4.5724895596504211e-01" nType="0">
          <Node pos="l" depth="2" NCoef="0" IVar="-1" Cut="0.0000000000000000e+00" cType="1" res="-3.1565043609589338e-03" rms="4.6902406215667725e-01" purity="4.9221631884574890e-01" nType="-99"/>
          <Node pos="r" depth="2" NCoef="0" IVar="-1" Cut="0.0000000000000000e+00" cType="1" res="-2.4840948753990233e-04" rms="4.6078163385391235e-01" purity="4.5452037453651428e-01" nType="-99"/>
        </Node>
        <Node pos="r" depth="1" NCoef="0" IVar="2" Cut="9.8682063817977905e-01" cType="1" res="3.3895723521709442e-02" rms="4.1236743330955505e-01" purity="7.3104369640350342e-01" nType="0">
          <Node pos="l" depth="2" NCoef="0" IVar="-1" Cut="0.0000000000000000e+00" cType="1" res="7.4760400457307696e-04" rms="4.2198392748832703e-01" purity="6.9857656955718994e-01" nType="-99"/>
          <Node pos="r" depth="2" NCoef="0" IVar="-1" Cut="0.0000000000000000e+00" cType="1" res="3.4667160362005234e-03" rms="3.9227092266082764e-01" purity="7.8918641805648804e-01" nType="-99"/>
        </Node>
      </Node>
    </BinaryTree>
    <BinaryTree type="DecisionTree" boostWeight="1.0000000000000000e+00" itree="626">
      <Node pos="s" depth="0" NCoef="0" IVar="7" Cut="6.9811952114105225e-01" cType="1" res="1.1324549268465489e-04" rms="4.4717317819595337e-01" purity="5.0039792060852051e-01" nType="0">
        <Node pos="l" depth="1" NCoef="0" IVar="5" Cut="1.1526683568954468e+00" cType="1" res="-4.7611263580620289e-03" rms="4.4589570164680481e-01" purity="4.8895561695098877e-01" nType="0">
          <Node pos="l" depth="2" NCoef="0" IVar="-1" Cut="0.0000000000000000e+00" cType="1" res="-4.7410209663212299e-04" rms="4.4441804289817810e-01" purity="4.9389448761940002e-01" nType="-99"/>
          <Node pos="r" depth="2" NCoef="0" IVar="-1" Cut="0.0000000000000000e+00" cType="1" res="2.1034709643572569e-03" rms="4.5524880290031433e-01" purity="4.4645094871520996e-01" nType="-99"/>
        </Node>
        <Node pos="r" depth="1" NCoef="0" IVar="-1" Cut="0.0000000000000000e+00" cType="1" res="2.7001227717846632e-03" rms="4.5910194516181946e-01" purity="6.5631163120269775e-01" nType="-99"/>
      </Node>
    </BinaryTree>
    <BinaryTree type="DecisionTree" boostWeight="1.0000000000000000e+00" itree="627">
      <Node pos="s" depth="0" NCoef="0" IVar="7" Cut="6.6698944568634033e-01" cType="1" res="-4.7963174438336864e-05" rms="4.5060268044471741e-01" purity="4.9855688214302063e-01" nType="0">
        <Node pos="l" depth="1" NCoef="0" IVar="2" Cut="9.3392807245254517e-01" cType="1" res="5.7520964182913303e-03" rms="4.4936650991439819e-01" purity="4.9436354637145996e-01" nType="0">
          <Node pos="l" depth="2" NCoef="0" IVar="-1" Cut="0.0000000000000000e+00" cType="1" res="1.5202636132016778e-03" rms="4.4957280158996582e-01" purity="3.6053955554962158e-01" nType="-99"/>
          <Node pos="r" depth="2" NCoef="0" IVar="-1" Cut="0.0000000000000000e+00" cType="1" res="-1.6890846018213779e-04" rms="4.4889748096466064e-01" purity="5.4070156812667847e-01" nType="-99"/>
        </Node>
        <Node pos="r" depth="1" NCoef="0" IVar="-1" Cut="0.0000000000000000e+00" cType="1" res="-2.3252195678651333e-03" rms="4.5849794149398804e-01" purity="5.3805589675903320e-01" nType="-99"/>
      </Node>
    </BinaryTree>
    <BinaryTree type="DecisionTree" boostWeight="1.0000000000000000e+00" itree="628">
      <Node pos="s" depth="0" NCoef="0" IVar="3" Cut="-9.2381939291954041e-02" cType="1" res="-1.4716334408149123e-03" rms="4.5264303684234619e-01" purity="4.9706047773361206e-01" nType="0">
        <Node pos="l" depth="1" NCoef="0" IVar="0" Cut="6.9974777221679688e+01" cType="1" res="3.0492469668388367e-02" rms="4.3906077742576599e-01" purity="4.5420444011688232e-01" nType="0">
          <Node pos="l" depth="2" NCoef="0" IVar="-1" Cut="0.0000000000000000e+00" cType="1" res="-7.4258277891203761e-04" rms="4.3566146492958069e-01" purity="3.6226004362106323e-01" nType="-99"/>
          <Node pos="r" depth="2" NCoef="0" IVar="-1" Cut="0.0000000000000000e+00" cType="1" res="2.7023307047784328e-03" rms="4.3874165415763855e-01" purity="5.1063501834869385e-01" nType="-99"/>
        </Node>
        <Node pos="r" depth="1" NCoef="0" IVar="4" Cut="5.4117989540100098e-01" cType="1" res="-7.1869972161948681e-03" rms="4.5479220151901245e-01" purity="5.0472337007522583e-01" nType="0">
          <Node pos="l" depth="2" NCoef="0" IVar="-1" Cut="0.0000000000000000e+00" cType="1" res="1.4002051902934909e-03" rms="4.3379005789756775e-01" purity="7.0833617448806763e-01" nType="-99"/>
          <Node pos="r" depth="2" NCoef="0" IVar="-1" Cut="0.0000000000000000e+00" cType="1" res="-5.1935424562543631e-04" rms="4.5703300833702087e-01" purity="4.8020926117897034e-01" nType="-99"/>
        </Node>
      </Node>
    </BinaryTree>
    <BinaryTree type="DecisionTree" boostWeight="1.0000000000000000e+00" itree="629">
      <Node pos="s" depth="0" NCoef="0" IVar="7" Cut="5.2641946077346802e-01" cType="1" res="2.7847606688737869e-03" rms="4.4950386881828308e-01" purity="4.9755251407623291e-01" nType="0">
        <Node pos="l" depth="1" NCoef="0" IVar="3" Cut="-2.2910213097929955e-02" cType="1" res="-7.8329415991902351e-03" rms="4.4651547074317932e-01" purity="4.6012040972709656e-01" nType="0">
          <Node pos="l" depth="2" NCoef="0" IVar="-1" Cut="0.0000000000000000e+00" cType="1" res="-1.0369884548708797e-03" rms="4.3910005688667297e-01" purity="4.0289369225502014e-01" nType="-99"/>
          <Node pos="r" depth="2" NCoef="0" IVar="-1" Cut="0.0000000000000000e+00" cType="1" res="1.3968074927106500e-04" rms="4.5187687873840332e-01" purity="5.0453078746795654e-01" nType="-99"/>
        </Node>
        <Node pos="r" depth="1" NCoef="0" IVar="3" Cut="3.0987912323325872e-03" cType="1" res="3.1263884156942368e-02" rms="4.5620435476303101e-01" purity="5.9795421361923218e-01" nType="0">
          <Node pos="l" depth="2" NCoef="0" IVar="-1" Cut="0.0000000000000000e+00" cType="1" res="2.3187305778264999e-03" rms="4.5981815457344055e-01" purity="5.9014087915420532e-01" nType="-99"/>
          <Node pos="r" depth="2" NCoef="0" IVar="-1" Cut="0.0000000000000000e+00" cType="1" res="-4.4775733840651810e-05" rms="4.4927561283111572e-01" purity="6.0846227407455444e-01" nType="-99"/>
        </Node>
      </Node>
    </BinaryTree>
    <BinaryTree type="DecisionTree" boostWeight="1.0000000000000000e+00" itree="630">
      <Node pos="s" depth="0" NCoef="0" IVar="2" Cut="9.7596353292465210e-01" cType="1" res="-5.0564049743115902e-03" rms="4.5325759053230286e-01" purity="4.9159124493598938e-01" nType="0">
        <Node pos="l" depth="1" NCoef="0" IVar="6" Cut="6.0094504356384277e+00" cType="1" res="-1.1337069794535637e-02" rms="4.6075659990310669e-01" purity="4.5053780078887939e-01" nType="0">
          <Node pos="l" depth="2" NCoef="0" IVar="-1" Cut="0.0000000000000000e+00" cType="1" res="7.8030023723840714e-04" rms="4.4849953055381775e-01" purity="3.4377574920654297e-01" nType="-99"/>
          <Node pos="r" depth="2" NCoef="0" IVar="-1" Cut="0.0000000000000000e+00" cType="1" res="-1.0916704777628183e-03" rms="4.6599942445755005e-01" purity="5.0284206867218018e-01" nType="-99"/>
        </Node>
        <Node pos="r" depth="1" NCoef="0" IVar="0" Cut="7.1576408386230469e+01" cType="1" res="3.1519506126642227e-02" rms="4.0491861104965210e-01" purity="7.3066890239715576e-01" nType="0">
          <Node pos="l" depth="2" NCoef="0" IVar="-1" Cut="0.0000000000000000e+00" cType="1" res="-7.5209565693512559e-05" rms="4.4659852981567383e-01" purity="6.3567918539047241e-01" nType="-99"/>
          <Node pos="r" depth="2" NCoef="0" IVar="-1" Cut="0.0000000000000000e+00" cType="1" res="3.2735443674027920e-03" rms="3.6159357428550720e-01" purity="8.1464815139770508e-01" nType="-99"/>
        </Node>
      </Node>
    </BinaryTree>
    <BinaryTree type="DecisionTree" boostWeight="1.0000000000000000e+00" itree="631">
      <Node pos="s" depth="0" NCoef="0" IVar="7" Cut="2.7606368064880371e-01" cType="1" res="2.6593932416290045e-03" rms="4.5232072472572327e-01" purity="5.0346535444259644e-01" nType="0">
        <Node pos="l" depth="1" NCoef="0" IVar="6" Cut="7.8452420234680176e+00" cType="1" res="2.1376630291342735e-02" rms="4.3832969665527344e-01" purity="4.3739885091781616e-01" nType="0">
          <Node pos="l" depth="2" NCoef="0" IVar="-1" Cut="0.0000000000000000e+00" cType="1" res="2.6967519079335034e-04" rms="4.4259041547775269e-01" purity="3.6598336696624756e-01" nType="-99"/>
          <Node pos="r" depth="2" NCoef="0" IVar="-1" Cut="0.0000000000000000e+00" cType="1" res="3.1874324195086956e-03" rms="4.2090338468551636e-01" purity="6.6147828102111816e-01" nType="-99"/>
        </Node>
        <Node pos="r" depth="1" NCoef="0" IVar="5" Cut="5.0296598672866821e-01" cType="1" res="-4.8054428771138191e-03" rms="4.5756787061691284e-01" purity="5.2981412410736084e-01" nType="0">
          <Node pos="l" depth="2" NCoef="0" IVar="-1" Cut="0.0000000000000000e+00" cType="1" res="7.6268648263067007e-04" rms="4.6586495637893677e-01" purity="6.2494868040084839e-01" nType="-99"/>
          <Node pos="r" depth="2" NCoef="0" IVar="-1" Cut="0.0000000000000000e+00" cType="1" res="-4.7113883192650974e-04" rms="4.5516300201416016e-01" purity="5.0470668077468872e-01" nType="-99"/>
        </Node>
      </Node>
    </BinaryTree>
    <BinaryTree type="DecisionTree" boostWeight="1.0000000000000000e+00" itree="632">
      <Node pos="s" depth="0" NCoef="0" IVar="2" Cut="9.6280825138092041e-01" cType="1" res="-4.3617114424705505e-03" rms="4.4849699735641479e-01" purity="4.9745413661003113e-01" nType="0">
        <Node pos="l" depth="1" NCoef="0" IVar="7" Cut="3.9620006084442139e-01" cType="1" res="-1.5119803138077259e-02" rms="4.5625072717666626e-01" purity="4.1735556721687317e-01" nType="0">
          <Node pos="l" depth="2" NCoef="0" IVar="-1" Cut="0.0000000000000000e+00" cType="1" res="-1.6427368391305208e-03" rms="4.4203996658325195e-01" purity="3.5039177536964417e-01" nType="-99"/>
          <Node pos="r" depth="2" NCoef="0" IVar="-1" Cut="0.0000000000000000e+00" cType="1" res="2.9802881181240082e-04" rms="4.6995192766189575e-01" purity="4.8905003070831299e-01" nType="-99"/>
        </Node>
        <Node pos="r" depth="1" NCoef="0" IVar="0" Cut="1.0397984313964844e+02" cType="1" res="1.8535165116190910e-02" rms="4.3063712120056152e-01" purity="6.6793113946914673e-01" nType="0">
          <Node pos="l" depth="2" NCoef="0" IVar="-1" Cut="0.0000000000000000e+00" cType="1" res="3.2260594889521599e-04" rms="4.5121854543685913e-01" purity="6.3296324014663696e-01" nType="-99"/>
          <Node pos="r" depth="2" NCoef="0" IVar="-1" Cut="0.0000000000000000e+00" cType="1" res="2.5722680147737265e-03" rms="3.6981174349784851e-01" purity="7.5938701629638672e-01" nType="-99"/>
        </Node>
      </Node>
    </BinaryTree>
    <BinaryTree type="DecisionTree" boostWeight="1.0000000000000000e+00" itree="633">
      <Node pos="s" depth="0" NCoef="0" IVar="3" Cut="-7.3303498327732086e-02" cType="1" res="1.3510403223335743e-03" rms="4.5127394795417786e-01" purity="5.0409358739852905e-01" nType="0">
        <Node pos="l" depth="1" NCoef="0" IVar="0" Cut="9.2941818237304688e+01" cType="1" res="-3.1745579093694687e-02" rms="4.3808481097221375e-01" purity="4.1268926858901978e-01" nType="0">
          <Node pos="l" depth="2" NCoef="0" IVar="-1" Cut="0.0000000000000000e+00" cType="1" res="-2.5435963179916143e-03" rms="4.3581449985504150e-01" purity="3.5298544168472290e-01" nType="-99"/>
          <Node pos="r" depth="2" NCoef="0" IVar="-1" Cut="0.0000000000000000e+00" cType="1" res="2.9869485297240317e-04" rms="4.3884587287902832e-01" purity="5.0491929054260254e-01" nType="-99"/>
        </Node>
        <Node pos="r" depth="1" NCoef="0" IVar="3" Cut="-4.6599157154560089e-02" cType="1" res="1.1829177848994732e-02" rms="4.5486828684806824e-01" purity="5.3303152322769165e-01" nType="0">
          <Node pos="l" depth="2" NCoef="0" IVar="-1" Cut="0.0000000000000000e+00" cType="1" res="2.3294335696846247e-03" rms="4.6610718965530396e-01" purity="5.4396736621856689e-01" nType="-99"/>
          <Node pos="r" depth="2" NCoef="0" IVar="-1" Cut="0.0000000000000000e+00" cType="1" res="1.8629139231052250e-04" rms="4.5239126682281494e-01" purity="5.3104424476623535e-01" nType="-99"/>
        </Node>
      </Node>
    </BinaryTree>
    <BinaryTree type="DecisionTree" boostWeight="1.0000000000000000e+00" itree="634">
      <Node pos="s" depth="0" NCoef="0" IVar="2" Cut="9.1050350666046143e-01" cType="1" res="2.2377965506166220e-03" rms="4.4942787289619446e-01" purity="5.0315582752227783e-01" nType="0">
        <Node pos="l" depth="1" NCoef="0" IVar="-1" Cut="0.0000000000000000e+00" cType="1" res="-4.2024357244372368e-03" rms="3.6917871236801147e-01" purity="1.8315827846527100e-01" nType="-99"/>
        <Node pos="r" depth="1" NCoef="0" IVar="1" Cut="1.7926150560379028e+00" cType="1" res="7.5563895516097546e-03" rms="4.5330938696861267e-01" purity="5.2262657880783081e-01" nType="0">
          <Node pos="l" depth="2" NCoef="0" IVar="-1" Cut="0.0000000000000000e+00" cType="1" res="-1.6461777267977595e-03" rms="4.5810398459434509e-01" purity="5.0866436958312988e-01" nType="-99"/>
          <Node pos="r" depth="2" NCoef="0" IVar="-1" Cut="0.0000000000000000e+00" cType="1" res="5.5161310592666268e-04" rms="4.5254877209663391e-01" purity="5.2394837141036987e-01" nType="-99"/>
        </Node>
      </Node>
    </BinaryTree>
    <BinaryTree type="DecisionTree" boostWeight="1.0000000000000000e+00" itree="635">
      <Node pos="s" depth="0" NCoef="0" IVar="2" Cut="9.1964435577392578e-01" cType="1" res="-4.9482514150440693e-03" rms="4.5260679721832275e-01" purity="4.9214604496955872e-01" nType="0">
        <Node pos="l" depth="1" NCoef="0" IVar="1" Cut="2.1809387207031250e+00" cType="1" res="4.2015999555587769e-02" rms="4.5188075304031372e-01" purity="3.3796817064285278e-01" nType="0">
          <Node pos="l" depth="2" NCoef="0" IVar="-1" Cut="0.0000000000000000e+00" cType="1" res="4.9911992391571403e-04" rms="4.6284443140029907e-01" purity="3.8032948970794678e-01" nType="-99"/>
          <Node pos="r" depth="2" NCoef="0" IVar="-1" Cut="0.0000000000000000e+00" cType="1" res="4.0477900765836239e-03" rms="4.3847689032554626e-01" purity="2.9508292675018311e-01" nType="-99"/>
        </Node>
        <Node pos="r" depth="1" NCoef="0" IVar="5" Cut="8.3075499534606934e-01" cType="1" res="-1.1128686368465424e-02" rms="4.5233935117721558e-01" purity="5.1243567466735840e-01" nType="0">
          <Node pos="l" depth="2" NCoef="0" IVar="-1" Cut="0.0000000000000000e+00" cType="1" res="-1.0896092280745506e-03" rms="4.5688968896865845e-01" purity="5.4475647211074829e-01" nType="-99"/>
          <Node pos="r" depth="2" NCoef="0" IVar="-1" Cut="0.0000000000000000e+00" cType="1" res="3.9666611701250076e-04" rms="4.4491103291511536e-01" purity="4.6563431620597839e-01" nType="-99"/>
        </Node>
      </Node>
    </BinaryTree>
    <BinaryTree type="DecisionTree" boostWeight="1.0000000000000000e+00" itree="636">
      <Node pos="s" depth="0" NCoef="0" IVar="2" Cut="9.1927224397659302e-01" cType="1" res="-8.2332352176308632e-03" rms="4.5159766077995300e-01" purity="4.9425616860389709e-01" nType="0">
        <Node pos="l" depth="1" NCoef="0" IVar="5" Cut="8.2211816310882568e-01" cType="1" res="3.7334412336349487e-02" rms="4.4039806723594666e-01" purity="3.3952504396438599e-01" nType="0">
          <Node pos="l" depth="2" NCoef="0" IVar="-1" Cut="0.0000000000000000e+00" cType="1" res="3.9756782352924347e-03" rms="4.7534659504890442e-01" purity="4.5079514384269714e-01" nType="-99"/>
          <Node pos="r" depth="2" NCoef="0" IVar="-1" Cut="0.0000000000000000e+00" cType="1" res="-1.5564360655844212e-03" rms="3.8677090406417847e-01" purity="2.1510703861713409e-01" nType="-99"/>
        </Node>
        <Node pos="r" depth="1" NCoef="0" IVar="6" Cut="5.6664643287658691e+00" cType="1" res="-1.3652285560965538e-02" rms="4.5260602235794067e-01" purity="5.1265728473663330e-01" nType="0">
          <Node pos="l" depth="2" NCoef="0" IVar="-1" Cut="0.0000000000000000e+00" cType="1" res="-3.4658573567867279e-03" rms="3.9914116263389587e-01" purity="2.4796569347381592e-01" nType="-99"/>
          <Node pos="r" depth="2" NCoef="0" IVar="-1" Cut="0.0000000000000000e+00" cType="1" res="-2.6975321816280484e-04" rms="4.5785546302795410e-01" purity="5.4346579313278198e-01" nType="-99"/>
        </Node>
      </Node>
    </BinaryTree>
    <BinaryTree type="DecisionTree" boostWeight="1.0000000000000000e+00" itree="637">
      <Node pos="s" depth="0" NCoef="0" IVar="1" Cut="1.9658472537994385e+00" cType="1" res="1.0496519505977631e-02" rms="4.5350688695907593e-01" purity="5.0651466846466064e-01" nType="0">
        <Node pos="l" depth="1" NCoef="0" IVar="0" Cut="8.5807289123535156e+01" cType="1" res="-2.0903959870338440e-02" rms="4.6245950460433960e-01" purity="5.4791766405105591e-01" nType="0">
          <Node pos="l" depth="2" NCoef="0" IVar="-1" Cut="0.0000000000000000e+00" cType="1" res="-1.2844280572608113e-03" rms="4.7011163830757141e-01" purity="5.0263893604278564e-01" nType="-99"/>
          <Node pos="r" depth="2" NCoef="0" IVar="-1" Cut="0.0000000000000000e+00" cType="1" res="1.0563054820522666e-03" rms="4.3163236975669861e-01" purity="7.0691609382629395e-01" nType="-99"/>
        </Node>
        <Node pos="r" depth="1" NCoef="0" IVar="7" Cut="2.4688540399074554e-01" cType="1" res="2.0472403615713120e-02" rms="4.5016720890998840e-01" purity="4.9336099624633789e-01" nType="0">
          <Node pos="l" depth="2" NCoef="0" IVar="-1" Cut="0.0000000000000000e+00" cType="1" res="-3.6266737151890993e-04" rms="4.3760427832603455e-01" purity="3.7232649326324463e-01" nType="-99"/>
          <Node pos="r" depth="2" NCoef="0" IVar="-1" Cut="0.0000000000000000e+00" cType="1" res="1.3356283307075500e-03" rms="4.5411148667335510e-01" purity="5.3606587648391724e-01" nType="-99"/>
        </Node>
      </Node>
    </BinaryTree>
    <BinaryTree type="DecisionTree" boostWeight="1.0000000000000000e+00" itree="638">
      <Node pos="s" depth="0" NCoef="0" IVar="7" Cut="3.5998770594596863e-01" cType="1" res="1.8787654116749763e-02" rms="4.5237743854522705e-01" purity="5.1796233654022217e-01" nType="0">
        <Node pos="l" depth="1" NCoef="0" IVar="3" Cut="-2.3095758631825447e-02" cType="1" res="3.5190146416425705e-02" rms="4.4572389125823975e-01" purity="4.7734016180038452e-01" nType="0">
          <Node pos="l" depth="2" NCoef="0" IVar="-1" Cut="0.0000000000000000e+00" cType="1" res="3.2121823169291019e-03" rms="4.3537461757659912e-01" purity="4.5899650454521179e-01" nType="-99"/>
          <Node pos="r" depth="2" NCoef="0" IVar="-1" Cut="0.0000000000000000e+00" cType="1" res="5.0975690828636289e-04" rms="4.5169797539710999e-01" purity="4.9064412713050842e-01" nType="-99"/>
        </Node>
        <Node pos="r" depth="1" NCoef="0" IVar="5" Cut="7.7530723810195923e-01" cType="1" res="5.5352952331304550e-03" rms="4.5725294947624207e-01" purity="5.5078291893005371e-01" nType="0">
          <Node pos="l" depth="2" NCoef="0" IVar="-1" Cut="0.0000000000000000e+00" cType="1" res="-4.2704254155978560e-04" rms="4.6081995964050293e-01" purity="5.7879751920700073e-01" nType="-99"/>
          <Node pos="r" depth="2" NCoef="0" IVar="-1" Cut="0.0000000000000000e+00" cType="1" res="1.2138468446210027e-03" rms="4.5121821761131287e-01" purity="5.1109457015991211e-01" nType="-99"/>
        </Node>
      </Node>
    </BinaryTree>
    <BinaryTree type="DecisionTree" boostWeight="1.0000000000000000e+00" itree="639">
      <Node pos="s" depth="0" NCoef="0" IVar="1" Cut="2.3021886348724365e+00" cType="1" res="5.7941605336964130e-04" rms="4.5419356226921082e-01" purity="5.0303167104721069e-01" nType="0">
        <Node pos="l" depth="1" NCoef="0" IVar="0" Cut="1.2028260040283203e+02" cType="1" res="-1.0086627677083015e-02" rms="4.5856931805610657e-01" purity="5.6195771694183350e-01" nType="0">
          <Node pos="l" depth="2" NCoef="0" IVar="-1" Cut="0.0000000000000000e+00" cType="1" res="-6.7307869903743267e-04" rms="4.6237030625343323e-01" purity="5.4113793373107910e-01" nType="-99"/>
          <Node pos="r" depth="2" NCoef="0" IVar="-1" Cut="0.0000000000000000e+00" cType="1" res="1.7671163659542799e-03" rms="4.2509767413139343e-01" purity="7.2199600934982300e-01" nType="-99"/>
        </Node>
        <Node pos="r" depth="1" NCoef="0" IVar="5" Cut="7.0781236886978149e-01" cType="1" res="2.4858636781573296e-02" rms="4.4311586022377014e-01" purity="3.6889767646789551e-01" nType="0">
          <Node pos="l" depth="2" NCoef="0" IVar="-1" Cut="0.0000000000000000e+00" cType="1" res="4.0346765890717506e-03" rms="4.7973632812500000e-01" purity="4.8930040001869202e-01" nType="-99"/>
          <Node pos="r" depth="2" NCoef="0" IVar="-1" Cut="0.0000000000000000e+00" cType="1" res="2.0815311290789396e-04" rms="4.2821389436721802e-01" purity="3.2878804206848145e-01" nType="-99"/>
        </Node>
      </Node>
    </BinaryTree>
    <BinaryTree type="DecisionTree" boostWeight="1.0000000000000000e+00" itree="640">
      <Node pos="s" depth="0" NCoef="0" IVar="5" Cut="9.9700516462326050e-01" cType="1" res="-7.0907981134951115e-03" rms="4.4778987765312195e-01" purity="4.9404624104499817e-01" nType="0">
        <Node pos="l" depth="1" NCoef="0" IVar="1" Cut="2.4494607448577881e+00" cType="1" res="3.7580861244350672e-03" rms="4.5025703310966492e-01" purity="5.3332316875457764e-01" nType="0">
          <Node pos="l" depth="2" NCoef="0" IVar="-1" Cut="0.0000000000000000e+00" cType="1" res="4.6943125198595226e-04" rms="4.5637449622154236e-01" purity="5.8353656530380249e-01" nType="-99"/>
          <Node pos="r" depth="2" NCoef="0" IVar="-1" Cut="0.0000000000000000e+00" cType="1" res="-2.2405751515179873e-03" rms="4.1004085540771484e-01" purity="2.3980379104614258e-01" nType="-99"/>
        </Node>
        <Node pos="r" depth="1" NCoef="0" IVar="3" Cut="-7.2466172277927399e-03" cType="1" res="-4.5999549329280853e-02" rms="4.3661606311798096e-01" purity="3.5318243503570557e-01" nType="0">
          <Node pos="l" depth="2" NCoef="0" IVar="-1" Cut="0.0000000000000000e+00" cType="1" res="-6.8480643676593900e-04" rms="4.3032106757164001e-01" purity="3.2764697074890137e-01" nType="-99"/>
          <Node pos="r" depth="2" NCoef="0" IVar="-1" Cut="0.0000000000000000e+00" cType="1" res="-3.2140528783202171e-03" rms="4.3986532092094421e-01" purity="3.7317082285881042e-01" nType="-99"/>
        </Node>
      </Node>
    </BinaryTree>
    <BinaryTree type="DecisionTree" boostWeight="1.0000000000000000e+00" itree="641">
      <Node pos="s" depth="0" NCoef="0" IVar="3" Cut="1.1861032247543335e-01" cType="1" res="-2.7677977923303843e-03" rms="4.4791200757026672e-01" purity="4.9415197968482971e-01" nType="0">
        <Node pos="l" depth="1" NCoef="0" IVar="2" Cut="9.2446208000183105e-01" cType="1" res="5.6974706239998341e-03" rms="4.4839334487915039e-01" purity="4.8095819354057312e-01" nType="0">
          <Node pos="l" depth="2" NCoef="0" IVar="-1" Cut="0.0000000000000000e+00" cType="1" res="2.8739343397319317e-03" rms="4.3299418687820435e-01" purity="3.4911689162254333e-01" nType="-99"/>
          <Node pos="r" depth="2" NCoef="0" IVar="-1" Cut="0.0000000000000000e+00" cType="1" res="-1.6671101911924779e-04" rms="4.5035690069198608e-01" purity="5.0395947694778442e-01" nType="-99"/>
        </Node>
        <Node pos="r" depth="1" NCoef="0" IVar="4" Cut="1.0140558481216431e+00" cType="1" res="-3.3998079597949982e-02" rms="4.4474020600318909e-01" purity="5.4282695055007935e-01" nType="0">
          <Node pos="l" depth="2" NCoef="0" IVar="-1" Cut="0.0000000000000000e+00" cType="1" res="-6.1710976297035813e-04" rms="4.5113304257392883e-01" purity="6.1445659399032593e-01" nType="-99"/>
          <Node pos="r" depth="2" NCoef="0" IVar="-1" Cut="0.0000000000000000e+00" cType="1" res="-4.1124876588582993e-03" rms="4.2018115520477295e-01" purity="3.3481770753860474e-01" nType="-99"/>
        </Node>
      </Node>
    </BinaryTree>
    <BinaryTree type="DecisionTree" boostWeight="1.0000000000000000e+00" itree="642">
      <Node pos="s" depth="0" NCoef="0" IVar="3" Cut="2.0082464814186096e-01" cType="1" res="-3.4846740309149027e-03" rms="4.5032441616058350e-01" purity="4.9612462520599365e-01" nType="0">
        <Node pos="l" depth="1" NCoef="0" IVar="1" Cut="1.8238654136657715e+00" cType="1" res="4.0727802552282810e-03" rms="4.4860801100730896e-01" purity="4.9549603462219238e-01" nType="0">
          <Node pos="l" depth="2" NCoef="0" IVar="-1" Cut="0.0000000000000000e+00" cType="1" res="-1.4646460767835379e-03" rms="4.6438816189765930e-01" purity="5.0607216358184814e-01" nType="-99"/>
          <Node pos="r" depth="2" NCoef="0" IVar="-1" Cut="0.0000000000000000e+00" cType="1" res="3.6476561217568815e-04" rms="4.4675716757774353e-01" purity="4.9441349506378174e-01" nType="-99"/>
        </Node>
        <Node pos="r" depth="1" NCoef="0" IVar="-1" Cut="0.0000000000000000e+00" cType="1" res="-3.5951735917478800e-03" rms="4.6047639846801758e-01" purity="5.0260263681411743e-01" nType="-99"/>
      </Node>
    </BinaryTree>
    <BinaryTree type="DecisionTree" boostWeight="1.0000000000000000e+00" itree="643">
      <Node pos="s" depth="0" NCoef="0" IVar="6" Cut="6.9714961051940918e+00" cType="1" res="-9.4732089200988412e-04" rms="4.5239531993865967e-01" purity="4.9868378043174744e-01" nType="0">
        <Node pos="l" depth="1" NCoef="0" IVar="7" Cut="1.8753780424594879e-01" cType="1" res="1.1171663179993629e-02" rms="4.5741149783134460e-01" purity="4.0625751018524170e-01" nType="0">
          <Node pos="l" depth="2" NCoef="0" IVar="-1" Cut="0.0000000000000000e+00" cType="1" res="2.7551827952265739e-03" rms="4.4420447945594788e-01" purity="3.6622577905654907e-01" nType="-99"/>
          <Node pos="r" depth="2" NCoef="0" IVar="-1" Cut="0.0000000000000000e+00" cType="1" res="8.3255421486683190e-05" rms="4.5950886607170105e-01" purity="4.1440114378929138e-01" nType="-99"/>
        </Node>
        <Node pos="r" depth="1" NCoef="0" IVar="0" Cut="1.0233372497558594e+02" cType="1" res="-1.5028182417154312e-02" rms="4.4608300924301147e-01" purity="6.0607248544692993e-01" nType="0">
          <Node pos="l" depth="2" NCoef="0" IVar="-1" Cut="0.0000000000000000e+00" cType="1" res="-1.2562505435198545e-03" rms="4.5621204376220703e-01" purity="5.7567352056503296e-01" nType="-99"/>
          <Node pos="r" depth="2" NCoef="0" IVar="-1" Cut="0.0000000000000000e+00" cType="1" res="8.3399214781820774e-04" rms="4.1945198178291321e-01" purity="6.7789494991302490e-01" nType="-99"/>
        </Node>
      </Node>
    </BinaryTree>
    <BinaryTree type="DecisionTree" boostWeight="1.0000000000000000e+00" itree="644">
      <Node pos="s" depth="0" NCoef="0" IVar="7" Cut="6.6968846321105957e-01" cType="1" res="-3.9412300102412701e-03" rms="4.4778776168823242e-01" purity="4.8905146121978760e-01" nType="0">
        <Node pos="l" depth="1" NCoef="0" IVar="0" Cut="1.1622560119628906e+02" cType="1" res="-9.2722075060009956e-03" rms="4.4815242290496826e-01" purity="4.7531768679618835e-01" nType="0">
          <Node pos="l" depth="2" NCoef="0" IVar="-1" Cut="0.0000000000000000e+00" cType="1" res="-7.2120217373594642e-04" rms="4.5066788792610168e-01" purity="4.5933461189270020e-01" nType="-99"/>
          <Node pos="r" depth="2" NCoef="0" IVar="-1" Cut="0.0000000000000000e+00" cType="1" res="1.0199070675298572e-03" rms="4.3550726771354675e-01" purity="5.4572319984436035e-01" nType="-99"/>
        </Node>
        <Node pos="r" depth="1" NCoef="0" IVar="-1" Cut="0.0000000000000000e+00" cType="1" res="2.0038383081555367e-03" rms="4.4065657258033752e-01" purity="6.2553095817565918e-01" nType="-99"/>
      </Node>
    </BinaryTree>
    <BinaryTree type="DecisionTree" boostWeight="1.0000000000000000e+00" itree="645">
      <Node pos="s" depth="0" NCoef="0" IVar="7" Cut="5.5601733922958374e-01" cType="1" res="-5.3964457474648952e-03" rms="4.5144072175025940e-01" purity="4.9069607257843018e-01" nType="0">
        <Node pos="l" depth="1" NCoef="0" IVar="1" Cut="2.1711678504943848e+00" cType="1" res="3.9094137027859688e-03" rms="4.4899460673332214e-01" purity="4.7676706314086914e-01" nType="0">
          <Node pos="l" depth="2" NCoef="0" IVar="-1" Cut="0.0000000000000000e+00" cType="1" res="7.7225896529853344e-04" rms="4.5899283885955811e-01" purity="5.8979082107543945e-01" nType="-99"/>
          <Node pos="r" depth="2" NCoef="0" IVar="-1" Cut="0.0000000000000000e+00" cType="1" res="-4.8459073877893388e-04" rms="4.3882766366004944e-01" purity="3.6937180161476135e-01" nType="-99"/>
        </Node>
        <Node pos="r" depth="1" NCoef="0" IVar="0" Cut="8.7247604370117188e+01" cType="1" res="-3.6840751767158508e-02" rms="4.5821377635002136e-01" purity="5.3776180744171143e-01" nType="0">
          <Node pos="l" depth="2" NCoef="0" IVar="-1" Cut="0.0000000000000000e+00" cType="1" res="-2.3186411708593369e-03" rms="4.6866935491561890e-01" purity="4.8929327726364136e-01" nType="-99"/>
          <Node pos="r" depth="2" NCoef="0" IVar="-1" Cut="0.0000000000000000e+00" cType="1" res="1.5672088193241507e-04" rms="4.3263930082321167e-01" purity="6.3973587751388550e-01" nType="-99"/>
        </Node>
      </Node>
    </BinaryTree>
    <BinaryTree type="DecisionTree" boostWeight="1.0000000000000000e+00" itree="646">
      <Node pos="s" depth="0" NCoef="0" IVar="5" Cut="9.9700516462326050e-01" cType="1" res="-4.3725958676077425e-05" rms="4.4525226950645447e-01" purity="5.0251734256744385e-01" nType="0">
        <Node pos="l" depth="1" NCoef="0" IVar="3" Cut="1.9384136795997620e-01" cType="1" res="8.6699351668357849e-03" rms="4.4884005188941956e-01" purity="5.3698474168777466e-01" nType="0">
          <Node pos="l" depth="2" NCoef="0" IVar="-1" Cut="0.0000000000000000e+00" cType="1" res="8.6069543613120914e-05" rms="4.5098012685775757e-01" purity="5.2049434185028076e-01" nType="-99"/>
          <Node pos="r" depth="2" NCoef="0" IVar="-1" Cut="0.0000000000000000e+00" cType="1" res="2.8796216938644648e-03" rms="4.2539194226264954e-01" purity="6.8015313148498535e-01" nType="-99"/>
        </Node>
        <Node pos="r" depth="1" NCoef="0" IVar="3" Cut="4.0651448071002960e-02" cType="1" res="-3.1547982245683670e-02" rms="4.3056327104568481e-01" purity="3.7790033221244812e-01" nType="0">
          <Node pos="l" depth="2" NCoef="0" IVar="-1" Cut="0.0000000000000000e+00" cType="1" res="-2.6503072585910559e-03" rms="4.1913729906082153e-01" purity="3.0207282304763794e-01" nType="-99"/>
          <Node pos="r" depth="2" NCoef="0" IVar="-1" Cut="0.0000000000000000e+00" cType="1" res="-1.1893020564457402e-04" rms="4.4216784834861755e-01" purity="4.6889537572860718e-01" nType="-99"/>
        </Node>
      </Node>
    </BinaryTree>
    <BinaryTree type="DecisionTree" boostWeight="1.0000000000000000e+00" itree="647">
      <Node pos="s" depth="0" NCoef="0" IVar="6" Cut="4.9480643272399902e+00" cType="1" res="-2.6800334453582764e-03" rms="4.4992193579673767e-01" purity="4.9409297108650208e-01" nType="0">
        <Node pos="l" depth="1" NCoef="0" IVar="-1" Cut="0.0000000000000000e+00" cType="1" res="-3.3969341311603785e-03" rms="3.6857482790946960e-01" purity="1.7097102105617523e-01" nType="-99"/>
        <Node pos="r" depth="1" NCoef="0" IVar="5" Cut="1.1526683568954468e+00" cType="1" res="1.3632978079840541e-03" rms="4.5455980300903320e-01" purity="5.1571559906005859e-01" nType="0">
          <Node pos="l" depth="2" NCoef="0" IVar="-1" Cut="0.0000000000000000e+00" cType="1" res="3.1852285610511899e-04" rms="4.5601871609687805e-01" purity="5.3464591503143311e-01" nType="-99"/>
          <Node pos="r" depth="2" NCoef="0" IVar="-1" Cut="0.0000000000000000e+00" cType="1" res="-2.4021184071898460e-03" rms="4.3776878714561462e-01" purity="3.4664642810821533e-01" nType="-99"/>
        </Node>
      </Node>
    </BinaryTree>
    <BinaryTree type="DecisionTree" boostWeight="1.0000000000000000e+00" itree="648">
      <Node pos="s" depth="0" NCoef="0" IVar="7" Cut="2.7114567160606384e-01" cType="1" res="5.4709827527403831e-03" rms="4.5115852355957031e-01" purity="5.0543791055679321e-01" nType="0">
        <Node pos="l" depth="1" NCoef="0" IVar="7" Cut="1.2943738698959351e-01" cType="1" res="-2.0845972001552582e-02" rms="4.3854102492332458e-01" purity="3.9245983958244324e-01" nType="0">
          <Node pos="l" depth="2" NCoef="0" IVar="-1" Cut="0.0000000000000000e+00" cType="1" res="1.0702091967687011e-03" rms="4.3429735302925110e-01" purity="4.0025115013122559e-01" nType="-99"/>
          <Node pos="r" depth="2" NCoef="0" IVar="-1" Cut="0.0000000000000000e+00" cType="1" res="-1.4775722520425916e-03" rms="4.3900051712989807e-01" purity="3.9004921913146973e-01" nType="-99"/>
        </Node>
        <Node pos="r" depth="1" NCoef="0" IVar="6" Cut="8.2269363403320312e+00" cType="1" res="1.5743400901556015e-02" rms="4.5557650923728943e-01" purity="5.4953724145889282e-01" nType="0">
          <Node pos="l" depth="2" NCoef="0" IVar="-1" Cut="0.0000000000000000e+00" cType="1" res="1.0725456522777677e-03" rms="4.6166676282882690e-01" purity="5.1549053192138672e-01" nType="-99"/>
          <Node pos="r" depth="2" NCoef="0" IVar="-1" Cut="0.0000000000000000e+00" cType="1" res="-1.2141896877437830e-03" rms="4.2821881175041199e-01" purity="6.8457239866256714e-01" nType="-99"/>
        </Node>
      </Node>
    </BinaryTree>
    <BinaryTree type="DecisionTree" boostWeight="1.0000000000000000e+00" itree="649">
      <Node pos="s" depth="0" NCoef="0" IVar="1" Cut="2.7388615608215332e+00" cType="1" res="2.3196166148409247e-04" rms="4.5008385181427002e-01" purity="4.9685540795326233e-01" nType="0">
        <Node pos="l" depth="1" NCoef="0" IVar="3" Cut="-9.2381939291954041e-02" cType="1" res="3.7849084474146366e-03" rms="4.5656520128250122e-01" purity="5.1876282691955566e-01" nType="0">
          <Node pos="l" depth="2" NCoef="0" IVar="-1" Cut="0.0000000000000000e+00" cType="1" res="2.1004576701670885e-03" rms="4.4653886556625366e-01" purity="5.0263291597366333e-01" nType="-99"/>
          <Node pos="r" depth="2" NCoef="0" IVar="-1" Cut="0.0000000000000000e+00" cType="1" res="-1.6682129353284836e-04" rms="4.5780533552169800e-01" purity="5.2150350809097290e-01" nType="-99"/>
        </Node>
        <Node pos="r" depth="1" NCoef="0" IVar="-1" Cut="0.0000000000000000e+00" cType="1" res="-4.8160841688513756e-03" rms="3.0597496032714844e-01" purity="1.0644631832838058e-01" nType="-99"/>
      </Node>
    </BinaryTree>
    <BinaryTree type="DecisionTree" boostWeight="1.0000000000000000e+00" itree="650">
      <Node pos="s" depth="0" NCoef="0" IVar="1" Cut="1.7272257804870605e+00" cType="1" res="-1.2420291313901544e-03" rms="4.5064136385917664e-01" purity="4.9298039078712463e-01" nType="0">
        <Node pos="l" depth="1" NCoef="0" IVar="-1" Cut="0.0000000000000000e+00" cType="1" res="-3.5460132639855146e-03" rms="4.5670339465141296e-01" purity="3.9930900931358337e-01" nType="-99"/>
        <Node pos="r" depth="1" NCoef="0" IVar="0" Cut="1.0281442260742188e+02" cType="1" res="4.9284808337688446e-03" rms="4.4953608512878418e-01" purity="4.9875140190124512e-01" nType="0">
          <Node pos="l" depth="2" NCoef="0" IVar="-1" Cut="0.0000000000000000e+00" cType="1" res="-2.2928242105990648e-04" rms="4.5479533076286316e-01" purity="4.6333238482475281e-01" nType="-99"/>
          <Node pos="r" depth="2" NCoef="0" IVar="-1" Cut="0.0000000000000000e+00" cType="1" res="1.3984089018777013e-03" rms="4.3524789810180664e-01" purity="5.8631181716918945e-01" nType="-99"/>
        </Node>
      </Node>
    </BinaryTree>
    <BinaryTree type="DecisionTree" boostWeight="1.0000000000000000e+00" itree="651">
      <Node pos="s" depth="0" NCoef="0" IVar="1" Cut="2.4206776618957520e+00" cType="1" res="1.0512071661651134e-02" rms="4.4727590680122375e-01" purity="5.0957202911376953e-01" nType="0">
        <Node pos="l" depth="1" NCoef="0" IVar="6" Cut="7.1888022422790527e+00" cType="1" res="1.9399631768465042e-02" rms="4.5744562149047852e-01" purity="5.7662963867187500e-01" nType="0">
          <Node pos="l" depth="2" NCoef="0" IVar="-1" Cut="0.0000000000000000e+00" cType="1" res="1.3598612276837230e-03" rms="4.6587017178535461e-01" purity="4.9886512756347656e-01" nType="-99"/>
          <Node pos="r" depth="2" NCoef="0" IVar="-1" Cut="0.0000000000000000e+00" cType="1" res="-1.4938232197891921e-05" rms="4.4533973932266235e-01" purity="6.7903983592987061e-01" nType="-99"/>
        </Node>
        <Node pos="r" depth="1" NCoef="0" IVar="7" Cut="3.5742223262786865e-01" cType="1" res="-2.3114956915378571e-02" rms="4.0473946928977966e-01" purity="2.5585249066352844e-01" nType="0">
          <Node pos="l" depth="2" NCoef="0" IVar="-1" Cut="0.0000000000000000e+00" cType="1" res="-2.7760651428252459e-03" rms="3.7185809016227722e-01" purity="1.9987428188323975e-01" nType="-99"/>
          <Node pos="r" depth="2" NCoef="0" IVar="-1" Cut="0.0000000000000000e+00" cType="1" res="8.2259997725486755e-04" rms="4.5220500230789185e-01" purity="3.5063228011131287e-01" nType="-99"/>
        </Node>
      </Node>
    </BinaryTree>
    <BinaryTree type="DecisionTree" boostWeight="1.0000000000000000e+00" itree="652">
      <Node pos="s" depth="0" NCoef="0" IVar="5" Cut="1.2558815479278564e+00" cType="1" res="-4.7009503468871117e-03" rms="4.5582392811775208e-01" purity="4.9222558736801147e-01" nType="0">
        <Node pos="l" depth="1" NCoef="0" IVar="2" Cut="9.3799197673797607e-01" cType="1" res="-9.6848979592323303e-03" rms="4.5540276169776917e-01" purity="4.9290561676025391e-01" nType="0">
          <Node pos="l" depth="2" NCoef="0" IVar="-1" Cut="0.0000000000000000e+00" cType="1" res="6.2855711439624429e-04" rms="4.5733639597892761e-01" purity="3.7067884206771851e-01" nType="-99"/>
          <Node pos="r" depth="2" NCoef="0" IVar="-1" Cut="0.0000000000000000e+00" cType="1" res="-9.6032029250636697e-04" rms="4.5398193597793579e-01" purity="5.5276650190353394e-01" nType="-99"/>
        </Node>
        <Node pos="r" depth="1" NCoef="0" IVar="-1" Cut="0.0000000000000000e+00" cType="1" res="3.9547360502183437e-03" rms="4.5372840762138367e-01" purity="4.7959133982658386e-01" nType="-99"/>
      </Node>
    </BinaryTree>
    <BinaryTree type="DecisionTree" boostWeight="1.0000000000000000e+00" itree="653">
      <Node pos="s" depth="0" NCoef="0" IVar="3" Cut="1.3161587715148926e-01" cType="1" res="-4.3849209323525429e-03" rms="4.4815382361412048e-01" purity="4.9536240100860596e-01" nType="0">
        <Node pos="l" depth="1" NCoef="0" IVar="1" Cut="2.5062687397003174e+00" cType="1" res="-1.3001174665987492e-02" rms="4.4795817136764526e-01" purity="4.6643972396850586e-01" nType="0">
          <Node pos="l" depth="2" NCoef="0" IVar="-1" Cut="0.0000000000000000e+00" cType="1" res="-2.3982083075679839e-04" rms="4.6074116230010986e-01" purity="5.2400118112564087e-01" nType="-99"/>
          <Node pos="r" depth="2" NCoef="0" IVar="-1" Cut="0.0000000000000000e+00" cType="1" res="-2.9264707118272781e-03" rms="3.7872663140296936e-01" purity="1.9011671841144562e-01" nType="-99"/>
        </Node>
        <Node pos="r" depth="1" NCoef="0" IVar="5" Cut="9.8154598474502563e-01" cType="1" res="3.1888898462057114e-02" rms="4.4715946912765503e-01" purity="6.1712491512298584e-01" nType="0">
          <Node pos="l" depth="2" NCoef="0" IVar="-1" Cut="0.0000000000000000e+00" cType="1" res="2.0607886835932732e-03" rms="4.4320920109748840e-01" purity="6.5836560726165771e-01" nType="-99"/>
          <Node pos="r" depth="2" NCoef="0" IVar="-1" Cut="0.0000000000000000e+00" cType="1" res="-2.3840137873776257e-04" rms="4.5497417449951172e-01" purity="5.1169502735137939e-01" nType="-99"/>
        </Node>
      </Node>
    </BinaryTree>
    <BinaryTree type="DecisionTree" boostWeight="1.0000000000000000e+00" itree="654">
      <Node pos="s" depth="0" NCoef="0" IVar="4" Cut="6.3092058897018433e-01" cType="1" res="-8.6913798004388809e-03" rms="4.4709101319313049e-01" purity="4.9150329828262329e-01" nType="0">
        <Node pos="l" depth="1" NCoef="0" IVar="6" Cut="6.4388556480407715e+00" cType="1" res="4.2091533541679382e-02" rms="4.3555667996406555e-01" purity="7.1039164066314697e-01" nType="0">
          <Node pos="l" depth="2" NCoef="0" IVar="-1" Cut="0.0000000000000000e+00" cType="1" res="3.1616252381354570e-03" rms="4.6428516507148743e-01" purity="6.2328505516052246e-01" nType="-99"/>
          <Node pos="r" depth="2" NCoef="0" IVar="-1" Cut="0.0000000000000000e+00" cType="1" res="8.3354406524449587e-04" rms="4.1640955209732056e-01" purity="7.5959897041320801e-01" nType="-99"/>
        </Node>
        <Node pos="r" depth="1" NCoef="0" IVar="3" Cut="2.0354753732681274e-01" cType="1" res="-1.8537510186433792e-02" rms="4.4862827658653259e-01" purity="4.4906377792358398e-01" nType="0">
          <Node pos="l" depth="2" NCoef="0" IVar="-1" Cut="0.0000000000000000e+00" cType="1" res="-6.0099770780652761e-04" rms="4.4663903117179871e-01" purity="4.4839614629745483e-01" nType="-99"/>
          <Node pos="r" depth="2" NCoef="0" IVar="-1" Cut="0.0000000000000000e+00" cType="1" res="-4.1637592948973179e-03" rms="4.7158014774322510e-01" purity="4.5928663015365601e-01" nType="-99"/>
        </Node>
      </Node>
    </BinaryTree>
    <BinaryTree type="DecisionTree" boostWeight="1.0000000000000000e+00" itree="655">
      <Node pos="s" depth="0" NCoef="0" IVar="3" Cut="4.0243983268737793e-02" cType="1" res="6.9839914795011282e-04" rms="4.5085766911506653e-01" purity="4.9652191996574402e-01" nType="0">
        <Node pos="l" depth="1" NCoef="0" IVar="6" Cut="6.7969727516174316e+00" cType="1" res="-1.0612219572067261e-02" rms="4.4879823923110962e-01" purity="4.5590096712112427e-01" nType="0">
          <Node pos="l" depth="2" NCoef="0" IVar="-1" Cut="0.0000000000000000e+00" cType="1" res="3.7775927921757102e-04" rms="4.4548445940017700e-01" purity="3.5608714818954468e-01" nType="-99"/>
          <Node pos="r" depth="2" NCoef="0" IVar="-1" Cut="0.0000000000000000e+00" cType="1" res="-1.2587840901687741e-03" rms="4.5115309953689575e-01" purity="5.4927802085876465e-01" nType="-99"/>
        </Node>
        <Node pos="r" depth="1" NCoef="0" IVar="4" Cut="1.2095184326171875e+00" cType="1" res="1.8855819478631020e-02" rms="4.5355477929115295e-01" purity="5.6173253059387207e-01" nType="0">
          <Node pos="l" depth="2" NCoef="0" IVar="-1" Cut="0.0000000000000000e+00" cType="1" res="1.4966628805268556e-04" rms="4.4957777857780457e-01" purity="5.9673768281936646e-01" nType="-99"/>
          <Node pos="r" depth="2" NCoef="0" IVar="-1" Cut="0.0000000000000000e+00" cType="1" res="4.0361443534493446e-03" rms="4.6465125679969788e-01" purity="4.1030988097190857e-01" nType="-99"/>
        </Node>
      </Node>
    </BinaryTree>
    <BinaryTree type="DecisionTree" boostWeight="1.0000000000000000e+00" itree="656">
      <Node pos="s" depth="0" NCoef="0" IVar="3" Cut="-5.7299103587865829e-02" cType="1" res="9.1822771355509758e-03" rms="4.5160865783691406e-01" purity="5.0626289844512939e-01" nType="0">
        <Node pos="l" depth="1" NCoef="0" IVar="1" Cut="2.4174110889434814e+00" cType="1" res="2.9290486127138138e-02" rms="4.4598773121833801e-01" purity="4.6790799498558044e-01" nType="0">
          <Node pos="l" depth="2" NCoef="0" IVar="-1" Cut="0.0000000000000000e+00" cType="1" res="1.9947760738432407e-03" rms="4.6371230483055115e-01" purity="5.6721550226211548e-01" nType="-99"/>
          <Node pos="r" depth="2" NCoef="0" IVar="-1" Cut="0.0000000000000000e+00" cType="1" res="-8.3953252760693431e-04" rms="3.9908409118652344e-01" purity="2.4090257287025452e-01" nType="-99"/>
        </Node>
        <Node pos="r" depth="1" NCoef="0" IVar="4" Cut="5.5888569355010986e-01" cType="1" res="-2.6716385036706924e-04" rms="4.5391851663589478e-01" purity="5.2428698539733887e-01" nType="0">
          <Node pos="l" depth="2" NCoef="0" IVar="-1" Cut="0.0000000000000000e+00" cType="1" res="1.6835399437695742e-03" rms="4.2849737405776978e-01" purity="7.0760977268218994e-01" nType="-99"/>
          <Node pos="r" depth="2" NCoef="0" IVar="-1" Cut="0.0000000000000000e+00" cType="1" res="-2.6748547679744661e-04" rms="4.5720890164375305e-01" purity="4.9759727716445923e-01" nType="-99"/>
        </Node>
      </Node>
    </BinaryTree>
    <BinaryTree type="DecisionTree" boostWeight="1.0000000000000000e+00" itree="657">
      <Node pos="s" depth="0" NCoef="0" IVar="7" Cut="5.0061005353927612e-01" cType="1" res="6.6730240359902382e-03" rms="4.5004719495773315e-01" purity="5.0398194789886475e-01" nType="0">
        <Node pos="l" depth="1" NCoef="0" IVar="7" Cut="3.7442159652709961e-01" cType="1" res="1.6064267605543137e-02" rms="4.4723394513130188e-01" purity="4.8260134458541870e-01" nType="0">
          <Node pos="l" depth="2" NCoef="0" IVar="-1" Cut="0.0000000000000000e+00" cType="1" res="1.6773666720837355e-04" rms="4.4141644239425659e-01" purity="4.4361627101898193e-01" nType="-99"/>
          <Node pos="r" depth="2" NCoef="0" IVar="-1" Cut="0.0000000000000000e+00" cType="1" res="1.8164634238928556e-03" rms="4.5820355415344238e-01" purity="5.6526041030883789e-01" nType="-99"/>
        </Node>
        <Node pos="r" depth="1" NCoef="0" IVar="4" Cut="1.0478703975677490e+00" cType="1" res="-1.4836166054010391e-02" rms="4.5569652318954468e-01" purity="5.5295091867446899e-01" nType="0">
          <Node pos="l" depth="2" NCoef="0" IVar="-1" Cut="0.0000000000000000e+00" cType="1" res="6.1365164583548903e-04" rms="4.5347446203231812e-01" purity="6.4093667268753052e-01" nType="-99"/>
          <Node pos="r" depth="2" NCoef="0" IVar="-1" Cut="0.0000000000000000e+00" cType="1" res="-3.3883638679981232e-03" rms="4.5405095815658569e-01" purity="3.6605775356292725e-01" nType="-99"/>
        </Node>
      </Node>
    </BinaryTree>
    <BinaryTree type="DecisionTree" boostWeight="1.0000000000000000e+00" itree="658">
      <Node pos="s" depth="0" NCoef="0" IVar="2" Cut="9.4115221500396729e-01" cType="1" res="1.0257726535201073e-03" rms="4.4710299372673035e-01" purity="5.0105559825897217e-01" nType="0">
        <Node pos="l" depth="1" NCoef="0" IVar="3" Cut="1.2658610939979553e-01" cType="1" res="-3.4414168447256088e-02" rms="4.4184541702270508e-01" purity="3.1998100876808167e-01" nType="0">
          <Node pos="l" depth="2" NCoef="0" IVar="-1" Cut="0.0000000000000000e+00" cType="1" res="-2.1431834902614355e-03" rms="4.3346399068832397e-01" purity="2.9079568386077881e-01" nType="-99"/>
          <Node pos="r" depth="2" NCoef="0" IVar="-1" Cut="0.0000000000000000e+00" cType="1" res="8.1011099973693490e-04" rms="4.7007301449775696e-01" purity="4.3701347708702087e-01" nType="-99"/>
        </Node>
        <Node pos="r" depth="1" NCoef="0" IVar="3" Cut="-9.6667088568210602e-02" cType="1" res="2.0154863595962524e-02" rms="4.4875371456146240e-01" purity="5.9879255294799805e-01" nType="0">
          <Node pos="l" depth="2" NCoef="0" IVar="-1" Cut="0.0000000000000000e+00" cType="1" res="2.8489555697888136e-03" rms="4.5205959677696228e-01" purity="5.4474091529846191e-01" nType="-99"/>
          <Node pos="r" depth="2" NCoef="0" IVar="-1" Cut="0.0000000000000000e+00" cType="1" res="6.0140789719298482e-04" rms="4.4787704944610596e-01" purity="6.0687637329101562e-01" nType="-99"/>
        </Node>
      </Node>
    </BinaryTree>
    <BinaryTree type="DecisionTree" boostWeight="1.0000000000000000e+00" itree="659">
      <Node pos="s" depth="0" NCoef="0" IVar="7" Cut="2.1832443773746490e-01" cType="1" res="1.0395468212664127e-02" rms="4.5006653666496277e-01" purity="5.0742191076278687e-01" nType="0">
        <Node pos="l" depth="1" NCoef="0" IVar="5" Cut="8.2882934808731079e-01" cType="1" res="-1.7042707651853561e-02" rms="4.4292837381362915e-01" purity="3.7314778566360474e-01" nType="0">
          <Node pos="l" depth="2" NCoef="0" IVar="-1" Cut="0.0000000000000000e+00" cType="1" res="1.1515883961692452e-03" rms="4.5937260985374451e-01" purity="4.8201343417167664e-01" nType="-99"/>
          <Node pos="r" depth="2" NCoef="0" IVar="-1" Cut="0.0000000000000000e+00" cType="1" res="-2.2907592356204987e-03" rms="4.2874690890312195e-01" purity="2.9822552204132080e-01" nType="-99"/>
        </Node>
        <Node pos="r" depth="1" NCoef="0" IVar="5" Cut="9.7258418798446655e-01" cType="1" res="1.7389787361025810e-02" rms="4.5160153508186340e-01" purity="5.4164999723434448e-01" nType="0">
          <Node pos="l" depth="2" NCoef="0" IVar="-1" Cut="0.0000000000000000e+00" cType="1" res="2.7343560941517353e-04" rms="4.4758135080337524e-01" purity="5.5705827474594116e-01" nType="-99"/>
          <Node pos="r" depth="2" NCoef="0" IVar="-1" Cut="0.0000000000000000e+00" cType="1" res="2.4814223870635033e-03" rms="4.6348011493682861e-01" purity="4.8698967695236206e-01" nType="-99"/>
        </Node>
      </Node>
    </BinaryTree>
    <BinaryTree type="DecisionTree" boostWeight="1.0000000000000000e+00" itree="660">
      <Node pos="s" depth="0" NCoef="0" IVar="2" Cut="9.4602996110916138e-01" cType="1" res="-1.4151092618703842e-03" rms="4.4911423325538635e-01" purity="5.0060993432998657e-01" nType="0">
        <Node pos="l" depth="1" NCoef="0" IVar="5" Cut="1.0368484258651733e+00" cType="1" res="-2.2498143836855888e-02" rms="4.4869351387023926e-01" purity="3.5746681690216064e-01" nType="0">
          <Node pos="l" depth="2" NCoef="0" IVar="-1" Cut="0.0000000000000000e+00" cType="1" res="-4.6254022163338959e-04" rms="4.5895594358444214e-01" purity="3.8759973645210266e-01" nType="-99"/>
          <Node pos="r" depth="2" NCoef="0" IVar="-1" Cut="0.0000000000000000e+00" cType="1" res="-3.1578529160469770e-03" rms="4.0319871902465820e-01" purity="2.4018032848834991e-01" nType="-99"/>
        </Node>
        <Node pos="r" depth="1" NCoef="0" IVar="1" Cut="2.0850076675415039e+00" cType="1" res="1.4014438726007938e-02" rms="4.4879466295242310e-01" purity="6.0536879301071167e-01" nType="0">
          <Node pos="l" depth="2" NCoef="0" IVar="-1" Cut="0.0000000000000000e+00" cType="1" res="1.5129144303500652e-03" rms="4.3494024872779846e-01" purity="7.0815968513488770e-01" nType="-99"/>
          <Node pos="r" depth="2" NCoef="0" IVar="-1" Cut="0.0000000000000000e+00" cType="1" res="-1.9317913029226474e-05" rms="4.5809155702590942e-01" purity="5.3043359518051147e-01" nType="-99"/>
        </Node>
      </Node>
    </BinaryTree>
    <BinaryTree type="DecisionTree" boostWeight="1.0000000000000000e+00" itree="661">
      <Node pos="s" depth="0" NCoef="0" IVar="5" Cut="1.1560417413711548e+00" cType="1" res="-4.4215242378413677e-03" rms="4.5078921318054199e-01" purity="4.9367335438728333e-01" nType="0">
        <Node pos="l" depth="1" NCoef="0" IVar="6" Cut="5.9652915000915527e+00" cType="1" res="-9.9072810262441635e-03" rms="4.5115461945533752e-01" purity="4.9980396032333374e-01" nType="0">
          <Node pos="l" depth="2" NCoef="0" IVar="-1" Cut="0.0000000000000000e+00" cType="1" res="-1.5671967994421721e-03" rms="4.3368381261825562e-01" purity="3.0114057660102844e-01" nType="-99"/>
          <Node pos="r" depth="2" NCoef="0" IVar="-1" Cut="0.0000000000000000e+00" cType="1" res="-1.7090056644519791e-05" rms="4.5721626281738281e-01" purity="5.7481443881988525e-01" nType="-99"/>
        </Node>
        <Node pos="r" depth="1" NCoef="0" IVar="2" Cut="9.4955563545227051e-01" cType="1" res="4.2379122227430344e-02" rms="4.4491815567016602e-01" purity="4.4137138128280640e-01" nType="0">
          <Node pos="l" depth="2" NCoef="0" IVar="-1" Cut="0.0000000000000000e+00" cType="1" res="6.9503660779446363e-04" rms="4.3505975604057312e-01" purity="2.9943370819091797e-01" nType="-99"/>
          <Node pos="r" depth="2" NCoef="0" IVar="-1" Cut="0.0000000000000000e+00" cType="1" res="3.0449409969151020e-03" rms="4.5271924138069153e-01" purity="5.8059203624725342e-01" nType="-99"/>
        </Node>
      </Node>
    </BinaryTree>
    <BinaryTree type="DecisionTree" boostWeight="1.0000000000000000e+00" itree="662">
      <Node pos="s" depth="0" NCoef="0" IVar="7" Cut="5.9995526075363159e-01" cType="1" res="6.7728417925536633e-03" rms="4.4823780655860901e-01" purity="5.0535857677459717e-01" nType="0">
        <Node pos="l" depth="1" NCoef="0" IVar="3" Cut="-1.1092757433652878e-01" cType="1" res="1.5306184068322182e-02" rms="4.4410860538482666e-01" purity="4.9642354249954224e-01" nType="0">
          <Node pos="l" depth="2" NCoef="0" IVar="-1" Cut="0.0000000000000000e+00" cType="1" res="3.2899379730224609e-03" rms="4.4777992367744446e-01" purity="4.3591091036796570e-01" nType="-99"/>
          <Node pos="r" depth="2" NCoef="0" IVar="-1" Cut="0.0000000000000000e+00" cType="1" res="4.5280336053110659e-04" rms="4.4342559576034546e-01" purity="5.0232118368148804e-01" nType="-99"/>
        </Node>
        <Node pos="r" depth="1" NCoef="0" IVar="7" Cut="7.1321874856948853e-01" cType="1" res="-3.3906023949384689e-02" rms="4.6527448296546936e-01" purity="5.4795229434967041e-01" nType="0">
          <Node pos="l" depth="2" NCoef="0" IVar="-1" Cut="0.0000000000000000e+00" cType="1" res="-2.4984090123325586e-03" rms="4.6856069564819336e-01" purity="5.1056295633316040e-01" nType="-99"/>
          <Node pos="r" depth="2" NCoef="0" IVar="-1" Cut="0.0000000000000000e+00" cType="1" res="4.7852608258835971e-04" rms="4.5561817288398743e-01" purity="6.1787784099578857e-01" nType="-99"/>
        </Node>
      </Node>
    </BinaryTree>
    <BinaryTree type="DecisionTree" boostWeight="1.0000000000000000e+00" itree="663">
      <Node pos="s" depth="0" NCoef="0" IVar="5" Cut="1.1595262289047241e+00" cType="1" res="-2.0169510971754789e-03" rms="4.4751909375190735e-01" purity="4.9840354919433594e-01" nType="0">
        <Node pos="l" depth="1" NCoef="0" IVar="3" Cut="2.3051518201828003e-01" cType="1" res="-7.4161496013402939e-03" rms="4.4633477926254272e-01" purity="5.0374585390090942e-01" nType="0">
          <Node pos="l" depth="2" NCoef="0" IVar="-1" Cut="0.0000000000000000e+00" cType="1" res="-1.4601649309042841e-04" rms="4.4535279273986816e-01" purity="5.0123417377471924e-01" nType="-99"/>
          <Node pos="r" depth="2" NCoef="0" IVar="-1" Cut="0.0000000000000000e+00" cType="1" res="-2.5685792788863182e-03" rms="4.5621141791343689e-01" purity="5.4046583175659180e-01" nType="-99"/>
        </Node>
        <Node pos="r" depth="1" NCoef="0" IVar="-1" Cut="0.0000000000000000e+00" cType="1" res="2.2602451499551535e-03" rms="4.5541185140609741e-01" purity="4.4790104031562805e-01" nType="-99"/>
      </Node>
    </BinaryTree>
    <BinaryTree type="DecisionTree" boostWeight="1.0000000000000000e+00" itree="664">
      <Node pos="s" depth="0" NCoef="0" IVar="4" Cut="4.5453354716300964e-01" cType="1" res="2.7363686822354794e-03" rms="4.5207297801971436e-01" purity="5.0239175558090210e-01" nType="0">
        <Node pos="l" depth="1" NCoef="0" IVar="-1" Cut="0.0000000000000000e+00" cType="1" res="-2.5728505570441484e-03" rms="4.6836346387863159e-01" purity="6.1245584487915039e-01" nType="-99"/>
        <Node pos="r" depth="1" NCoef="0" IVar="5" Cut="7.2220361232757568e-01" cType="1" res="6.3133309595286846e-03" rms="4.5084384083747864e-01" purity="4.9594193696975708e-01" nType="0">
          <Node pos="l" depth="2" NCoef="0" IVar="-1" Cut="0.0000000000000000e+00" cType="1" res="1.1783441295847297e-03" rms="4.6333175897598267e-01" purity="5.8467680215835571e-01" nType="-99"/>
          <Node pos="r" depth="2" NCoef="0" IVar="-1" Cut="0.0000000000000000e+00" cType="1" res="-4.0334096411243081e-04" rms="4.4106206297874451e-01" purity="4.3241551518440247e-01" nType="-99"/>
        </Node>
      </Node>
    </BinaryTree>
    <BinaryTree type="DecisionTree" boostWeight="1.0000000000000000e+00" itree="665">
      <Node pos="s" depth="0" NCoef="0" IVar="2" Cut="9.7091162204742432e-01" cType="1" res="-3.8706271443516016e-03" rms="4.4820281863212585e-01" purity="4.9569669365882874e-01" nType="0">
        <Node pos="l" depth="1" NCoef="0" IVar="1" Cut="1.7586247920989990e+00" cType="1" res="-1.0359221138060093e-02" rms="4.5519754290580750e-01" purity="4.4381716847419739e-01" nType="0">
          <Node pos="l" depth="2" NCoef="0" IVar="-1" Cut="0.0000000000000000e+00" cType="1" res="-3.1447943765670061e-03" rms="4.5516580343246460e-01" purity="3.9141446352005005e-01" nType="-99"/>
          <Node pos="r" depth="2" NCoef="0" IVar="-1" Cut="0.0000000000000000e+00" cType="1" res="-2.2410528617911041e-04" rms="4.5475336909294128e-01" purity="4.4767209887504578e-01" nType="-99"/>
        </Node>
        <Node pos="r" depth="1" NCoef="0" IVar="4" Cut="9.8754221200942993e-01" cType="1" res="2.1753096953034401e-02" rms="4.1845995187759399e-01" purity="7.0057106018066406e-01" nType="0">
          <Node pos="l" depth="2" NCoef="0" IVar="-1" Cut="0.0000000000000000e+00" cType="1" res="2.4465378373861313e-03" rms="3.8000333309173584e-01" purity="8.1316262483596802e-01" nType="-99"/>
          <Node pos="r" depth="2" NCoef="0" IVar="-1" Cut="0.0000000000000000e+00" cType="1" res="-5.4648926015943289e-04" rms="4.6366572380065918e-01" purity="5.4700595140457153e-01" nType="-99"/>
        </Node>
      </Node>
    </BinaryTree>
    <BinaryTree type="DecisionTree" boostWeight="1.0000000000000000e+00" itree="666">
      <Node pos="s" depth="0" NCoef="0" IVar="5" Cut="4.6831002831459045e-01" cType="1" res="-9.6233596559613943e-04" rms="4.5411041378974915e-01" purity="4.9516373872756958e-01" nType="0">
        <Node pos="l" depth="1" NCoef="0" IVar="7" Cut="4.0039163827896118e-01" cType="1" res="-4.9625206738710403e-02" rms="4.6745389699935913e-01" purity="5.3782790899276733e-01" nType="0">
          <Node pos="l" depth="2" NCoef="0" IVar="-1" Cut="0.0000000000000000e+00" cType="1" res="-6.8841077154502273e-04" rms="4.6952426433563232e-01" purity="5.3254085779190063e-01" nType="-99"/>
          <Node pos="r" depth="2" NCoef="0" IVar="-1" Cut="0.0000000000000000e+00" cType="1" res="-3.1187946442514658e-03" rms="4.6430030465126038e-01" purity="5.4181158542633057e-01" nType="-99"/>
        </Node>
        <Node pos="r" depth="1" NCoef="0" IVar="1" Cut="2.0836515426635742e+00" cType="1" res="7.6763271354138851e-03" rms="4.5115220546722412e-01" purity="4.8758995532989502e-01" nType="0">
          <Node pos="l" depth="2" NCoef="0" IVar="-1" Cut="0.0000000000000000e+00" cType="1" res="1.2835670495405793e-03" rms="4.5942154526710510e-01" purity="5.9548538923263550e-01" nType="-99"/>
          <Node pos="r" depth="2" NCoef="0" IVar="-1" Cut="0.0000000000000000e+00" cType="1" res="-2.5925104273483157e-04" rms="4.4584703445434570e-01" purity="4.2635801434516907e-01" nType="-99"/>
        </Node>
      </Node>
    </BinaryTree>
    <BinaryTree type="DecisionTree" boostWeight="1.0000000000000000e+00" itree="667">
      <Node pos="s" depth="0" NCoef="0" IVar="3" Cut="1.8806685507297516e-01" cType="1" res="7.7092275023460388e-03" rms="4.5476356148719788e-01" purity="5.0763881206512451e-01" nType="0">
        <Node pos="l" depth="1" NCoef="0" IVar="4" Cut="7.7466231584548950e-01" cType="1" res="2.0518777891993523e-03" rms="4.5664131641387939e-01" purity="4.8964932560920715e-01" nType="0">
          <Node pos="l" depth="2" NCoef="0" IVar="-1" Cut="0.0000000000000000e+00" cType="1" res="-1.5274807810783386e-03" rms="4.6060404181480408e-01" purity="6.1278885602951050e-01" nType="-99"/>
          <Node pos="r" depth="2" NCoef="0" IVar="-1" Cut="0.0000000000000000e+00" cType="1" res="7.2600145358592272e-04" rms="4.5435756444931030e-01" purity="4.4421225786209106e-01" nType="-99"/>
        </Node>
        <Node pos="r" depth="1" NCoef="0" IVar="3" Cut="2.3386958241462708e-01" cType="1" res="5.4412193596363068e-02" rms="4.3616113066673279e-01" purity="6.5614724159240723e-01" nType="0">
          <Node pos="l" depth="2" NCoef="0" IVar="-1" Cut="0.0000000000000000e+00" cType="1" res="3.5438856575638056e-03" rms="4.3004897236824036e-01" purity="6.8831729888916016e-01" nType="-99"/>
          <Node pos="r" depth="2" NCoef="0" IVar="-1" Cut="0.0000000000000000e+00" cType="1" res="1.3266627211123705e-03" rms="4.4063311815261841e-01" purity="6.2513446807861328e-01" nType="-99"/>
        </Node>
      </Node>
    </BinaryTree>
    <BinaryTree type="DecisionTree" boostWeight="1.0000000000000000e+00" itree="668">
      <Node pos="s" depth="0" NCoef="0" IVar="4" Cut="7.1635460853576660e-01" cType="1" res="-3.0846823938190937e-03" rms="4.5251017808914185e-01" purity="4.9661016464233398e-01" nType="0">
        <Node pos="l" depth="1" NCoef="0" IVar="2" Cut="9.3878787755966187e-01" cType="1" res="-3.8532149046659470e-02" rms="4.5608159899711609e-01" purity="6.1372762918472290e-01" nType="0">
          <Node pos="l" depth="2" NCoef="0" IVar="-1" Cut="0.0000000000000000e+00" cType="1" res="-2.8498400934040546e-03" rms="4.7561368346214294e-01" purity="4.2367228865623474e-01" nType="-99"/>
          <Node pos="r" depth="2" NCoef="0" IVar="-1" Cut="0.0000000000000000e+00" cType="1" res="-8.9489296078681946e-04" rms="4.4679093360900879e-01" purity="6.8801224231719971e-01" nType="-99"/>
        </Node>
        <Node pos="r" depth="1" NCoef="0" IVar="3" Cut="1.2137248367071152e-01" cType="1" res="8.2212602719664574e-03" rms="4.5077919960021973e-01" purity="4.5925566554069519e-01" nType="0">
          <Node pos="l" depth="2" NCoef="0" IVar="-1" Cut="0.0000000000000000e+00" cType="1" res="-1.4368986012414098e-04" rms="4.4984367489814758e-01" purity="4.3025368452072144e-01" nType="-99"/>
          <Node pos="r" depth="2" NCoef="0" IVar="-1" Cut="0.0000000000000000e+00" cType="1" res="2.6444010436534882e-03" rms="4.5131891965866089e-01" purity="5.9504920244216919e-01" nType="-99"/>
        </Node>
      </Node>
    </BinaryTree>
    <BinaryTree type="DecisionTree" boostWeight="1.0000000000000000e+00" itree="669">
      <Node pos="s" depth="0" NCoef="0" IVar="3" Cut="2.2761423885822296e-01" cType="1" res="5.2328095771372318e-03" rms="4.4824934005737305e-01" purity="5.0480765104293823e-01" nType="0">
        <Node pos="l" depth="1" NCoef="0" IVar="6" Cut="4.9205026626586914e+00" cType="1" res="1.0088743641972542e-02" rms="4.4750127196311951e-01" purity="5.0426864624023438e-01" nType="0">
          <Node pos="l" depth="2" NCoef="0" IVar="-1" Cut="0.0000000000000000e+00" cType="1" res="-2.9630456119775772e-03" rms="3.7289729714393616e-01" purity="1.7733480036258698e-01" nType="-99"/>
          <Node pos="r" depth="2" NCoef="0" IVar="-1" Cut="0.0000000000000000e+00" cType="1" res="6.1803782591596246e-04" rms="4.5129686594009399e-01" purity="5.2401918172836304e-01" nType="-99"/>
        </Node>
        <Node pos="r" depth="1" NCoef="0" IVar="-1" Cut="0.0000000000000000e+00" cType="1" res="-3.2469232100993395e-03" rms="4.5298954844474792e-01" purity="5.1359695196151733e-01" nType="-99"/>
      </Node>
    </BinaryTree>
    <BinaryTree type="DecisionTree" boostWeight="1.0000000000000000e+00" itree="670">
      <Node pos="s" depth="0" NCoef="0" IVar="3" Cut="-6.0369618237018585e-02" cType="1" res="6.3349399715662003e-03" rms="4.4913327693939209e-01" purity="5.0086045265197754e-01" nType="0">
        <Node pos="l" depth="1" NCoef="0" IVar="3" Cut="-7.5559988617897034e-02" cType="1" res="3.8765598088502884e-02" rms="4.4462338089942932e-01" purity="4.7800388932228088e-01" nType="0">
          <Node pos="l" depth="2" NCoef="0" IVar="-1" Cut="0.0000000000000000e+00" cType="1" res="1.0922558140009642e-03" rms="4.4585955142974854e-01" purity="4.5278632640838623e-01" nType="-99"/>
          <Node pos="r" depth="2" NCoef="0" IVar="-1" Cut="0.0000000000000000e+00" cType="1" res="3.9768619462847710e-03" rms="4.3643462657928467e-01" purity="5.6275278329849243e-01" nType="-99"/>
        </Node>
        <Node pos="r" depth="1" NCoef="0" IVar="3" Cut="1.3428348302841187e-01" cType="1" res="-7.7652265317738056e-03" rms="4.5035219192504883e-01" purity="5.1079791784286499e-01" nType="0">
          <Node pos="l" depth="2" NCoef="0" IVar="-1" Cut="0.0000000000000000e+00" cType="1" res="-1.0796261485666037e-03" rms="4.4903117418289185e-01" purity="4.7115013003349304e-01" nType="-99"/>
          <Node pos="r" depth="2" NCoef="0" IVar="-1" Cut="0.0000000000000000e+00" cType="1" res="1.5125565696507692e-03" rms="4.5090734958648682e-01" purity="6.1146879196166992e-01" nType="-99"/>
        </Node>
      </Node>
    </BinaryTree>
    <BinaryTree type="DecisionTree" boostWeight="1.0000000000000000e+00" itree="671">
      <Node pos="s" depth="0" NCoef="0" IVar="0" Cut="1.0200418090820312e+02" cType="1" res="7.8286835923790932e-03" rms="4.5117181539535522e-01" purity="5.1097255945205688e-01" nType="0">
        <Node pos="l" depth="1" NCoef="0" IVar="5" Cut="3.9638632535934448e-01" cType="1" res="-5.0004478543996811e-03" rms="4.5556682348251343e-01" purity="4.7546797990798950e-01" nType="0">
          <Node pos="l" depth="2" NCoef="0" IVar="-1" Cut="0.0000000000000000e+00" cType="1" res="-2.9345997609198093e-03" rms="4.6887975931167603e-01" purity="4.9648249149322510e-01" nType="-99"/>
          <Node pos="r" depth="2" NCoef="0" IVar="-1" Cut="0.0000000000000000e+00" cType="1" res="6.9158908445388079e-05" rms="4.5369160175323486e-01" purity="4.7336703538894653e-01" nType="-99"/>
        </Node>
        <Node pos="r" depth="1" NCoef="0" IVar="0" Cut="1.2037934112548828e+02" cType="1" res="4.1669003665447235e-02" rms="4.3756699562072754e-01" purity="6.0462552309036255e-01" nType="0">
          <Node pos="l" depth="2" NCoef="0" IVar="-1" Cut="0.0000000000000000e+00" cType="1" res="3.1077857129275799e-03" rms="4.2345094680786133e-01" purity="6.8093889951705933e-01" nType="-99"/>
          <Node pos="r" depth="2" NCoef="0" IVar="-1" Cut="0.0000000000000000e+00" cType="1" res="1.0470966808497906e-03" rms="4.4656300544738770e-01" purity="5.4917526245117188e-01" nType="-99"/>
        </Node>
      </Node>
    </BinaryTree>
    <BinaryTree type="DecisionTree" boostWeight="1.0000000000000000e+00" itree="672">
      <Node pos="s" depth="0" NCoef="0" IVar="6" Cut="5.8088774681091309e+00" cType="1" res="-1.0891536949202418e-03" rms="4.5134744048118591e-01" purity="4.9545031785964966e-01" nType="0">
        <Node pos="l" depth="1" NCoef="0" IVar="7" Cut="4.7516193985939026e-01" cType="1" res="2.7803262695670128e-02" rms="4.4584673643112183e-01" purity="3.3889877796173096e-01" nType="0">
          <Node pos="l" depth="2" NCoef="0" IVar="-1" Cut="0.0000000000000000e+00" cType="1" res="1.6989665164146572e-04" rms="4.3053099513053894e-01" purity="2.9339194297790527e-01" nType="-99"/>
          <Node pos="r" depth="2" NCoef="0" IVar="-1" Cut="0.0000000000000000e+00" cType="1" res="3.3048016484826803e-03" rms="4.7339916229248047e-01" purity="4.3879371881484985e-01" nType="-99"/>
        </Node>
        <Node pos="r" depth="1" NCoef="0" IVar="3" Cut="1.9384136795997620e-01" cType="1" res="-1.0026797652244568e-02" rms="4.5266219973564148e-01" purity="5.4387837648391724e-01" nType="0">
          <Node pos="l" depth="2" NCoef="0" IVar="-1" Cut="0.0000000000000000e+00" cType="1" res="-7.8250584192574024e-04" rms="4.5455777645111084e-01" purity="5.2423632144927979e-01" nType="-99"/>
          <Node pos="r" depth="2" NCoef="0" IVar="-1" Cut="0.0000000000000000e+00" cType="1" res="2.6006496045738459e-03" rms="4.2952713370323181e-01" purity="7.1822530031204224e-01" nType="-99"/>
        </Node>
      </Node>
    </BinaryTree>
    <BinaryTree type="DecisionTree" boostWeight="1.0000000000000000e+00" itree="673">
      <Node pos="s" depth="0" NCoef="0" IVar="5" Cut="8.6576354503631592e-01" cType="1" res="1.1281279847025871e-02" rms="4.4999030232429504e-01" purity="5.0843459367752075e-01" nType="0">
        <Node pos="l" depth="1" NCoef="0" IVar="7" Cut="2.5084832310676575e-01" cType="1" res="-7.1778724668547511e-04" rms="4.5171523094177246e-01" purity="5.4466903209686279e-01" nType="0">
          <Node pos="l" depth="2" NCoef="0" IVar="-1" Cut="0.0000000000000000e+00" cType="1" res="-1.8614212749525905e-03" rms="4.5916855335235596e-01" purity="4.1250693798065186e-01" nType="-99"/>
          <Node pos="r" depth="2" NCoef="0" IVar="-1" Cut="0.0000000000000000e+00" cType="1" res="3.7740645348094404e-04" rms="4.4938829541206360e-01" purity="5.7629150152206421e-01" nType="-99"/>
        </Node>
        <Node pos="r" depth="1" NCoef="0" IVar="4" Cut="8.7848585844039917e-01" cType="1" res="3.1274057924747467e-02" rms="4.4638556241989136e-01" purity="4.4806101918220520e-01" nType="0">
          <Node pos="l" depth="2" NCoef="0" IVar="-1" Cut="0.0000000000000000e+00" cType="1" res="-6.4738828223198652e-04" rms="4.6090155839920044e-01" purity="5.8997923135757446e-01" nType="-99"/>
          <Node pos="r" depth="2" NCoef="0" IVar="-1" Cut="0.0000000000000000e+00" cType="1" res="1.9415782298892736e-03" rms="4.4254109263420105e-01" purity="4.1729396581649780e-01" nType="-99"/>
        </Node>
      </Node>
    </BinaryTree>
    <BinaryTree type="DecisionTree" boostWeight="1.0000000000000000e+00" itree="674">
      <Node pos="s" depth="0" NCoef="0" IVar="7" Cut="6.7342460155487061e-01" cType="1" res="4.0172715671360493e-03" rms="4.4734495878219604e-01" purity="4.9839213490486145e-01" nType="0">
        <Node pos="l" depth="1" NCoef="0" IVar="6" Cut="5.0412659645080566e+00" cType="1" res="8.1327343359589577e-03" rms="4.4601982831954956e-01" purity="4.9374866485595703e-01" nType="0">
          <Node pos="l" depth="2" NCoef="0" IVar="-1" Cut="0.0000000000000000e+00" cType="1" res="-1.8427610630169511e-03" rms="3.8996455073356628e-01" purity="2.0135322213172913e-01" nType="-99"/>
          <Node pos="r" depth="2" NCoef="0" IVar="-1" Cut="0.0000000000000000e+00" cType="1" res="5.1379791693761945e-04" rms="4.5051524043083191e-01" purity="5.1995456218719482e-01" nType="-99"/>
        </Node>
        <Node pos="r" depth="1" NCoef="0" IVar="-1" Cut="0.0000000000000000e+00" cType="1" res="-1.7432345775887370e-03" rms="4.5917442440986633e-01" purity="5.4910504817962646e-01" nType="-99"/>
      </Node>
    </BinaryTree>
    <BinaryTree type="DecisionTree" boostWeight="1.0000000000000000e+00" itree="675">
      <Node pos="s" depth="0" NCoef="0" IVar="0" Cut="1.4447615051269531e+02" cType="1" res="-1.7375117167830467e-03" rms="4.5126065611839294e-01" purity="4.9551230669021606e-01" nType="0">
        <Node pos="l" depth="1" NCoef="0" IVar="0" Cut="4.6696430206298828e+01" cType="1" res="1.9972650334239006e-03" rms="4.5165655016899109e-01" purity="4.9992981553077698e-01" nType="0">
          <Node pos="l" depth="2" NCoef="0" IVar="-1" Cut="0.0000000000000000e+00" cType="1" res="-1.5064979670569301e-03" rms="4.3786448240280151e-01" purity="3.7323856353759766e-01" nType="-99"/>
          <Node pos="r" depth="2" NCoef="0" IVar="-1" Cut="0.0000000000000000e+00" cType="1" res="4.9376970855519176e-04" rms="4.5476165413856506e-01" purity="5.3322392702102661e-01" nType="-99"/>
        </Node>
        <Node pos="r" depth="1" NCoef="0" IVar="-1" Cut="0.0000000000000000e+00" cType="1" res="-2.3779685143381357e-03" rms="4.4305357336997986e-01" purity="4.3715927004814148e-01" nType="-99"/>
      </Node>
    </BinaryTree>
    <BinaryTree type="DecisionTree" boostWeight="1.0000000000000000e+00" itree="676">
      <Node pos="s" depth="0" NCoef="0" IVar="5" Cut="6.9182455539703369e-01" cType="1" res="2.5684903375804424e-03" rms="4.5043921470642090e-01" purity="5.0118905305862427e-01" nType="0">
        <Node pos="l" depth="1" NCoef="0" IVar="5" Cut="4.2760470509529114e-01" cType="1" res="2.0837776362895966e-02" rms="4.5107656717300415e-01" purity="5.9260612726211548e-01" nType="0">
          <Node pos="l" depth="2" NCoef="0" IVar="-1" Cut="0.0000000000000000e+00" cType="1" res="-5.2292569307610393e-04" rms="4.6388921141624451e-01" purity="5.8108675479888916e-01" nType="-99"/>
          <Node pos="r" depth="2" NCoef="0" IVar="-1" Cut="0.0000000000000000e+00" cType="1" res="1.4256308786571026e-03" rms="4.4537809491157532e-01" purity="5.9704357385635376e-01" nType="-99"/>
        </Node>
        <Node pos="r" depth="1" NCoef="0" IVar="5" Cut="1.1721805334091187e+00" cType="1" res="-1.0448564775288105e-02" rms="4.4953179359436035e-01" purity="4.3605348467826843e-01" nType="0">
          <Node pos="l" depth="2" NCoef="0" IVar="-1" Cut="0.0000000000000000e+00" cType="1" res="-8.7986426660791039e-04" rms="4.4723287224769592e-01" purity="4.3714660406112671e-01" nType="-99"/>
          <Node pos="r" depth="2" NCoef="0" IVar="-1" Cut="0.0000000000000000e+00" cType="1" res="1.6315822722390294e-03" rms="4.5879957079887390e-01" purity="4.3023991584777832e-01" nType="-99"/>
        </Node>
      </Node>
    </BinaryTree>
    <BinaryTree type="DecisionTree" boostWeight="1.0000000000000000e+00" itree="677">
      <Node pos="s" depth="0" NCoef="0" IVar="0" Cut="1.0515281677246094e+02" cType="1" res="9.8235597833991051e-03" rms="4.4949823617935181e-01" purity="5.1291263103485107e-01" nType="0">
        <Node pos="l" depth="1" NCoef="0" IVar="0" Cut="6.0999904632568359e+01" cType="1" res="1.3664007419720292e-03" rms="4.5554155111312866e-01" purity="4.8287805914878845e-01" nType="0">
          <Node pos="l" depth="2" NCoef="0" IVar="-1" Cut="0.0000000000000000e+00" cType="1" res="9.8404951859265566e-04" rms="4.5162174105644226e-01" purity="4.6366238594055176e-01" nType="-99"/>
          <Node pos="r" depth="2" NCoef="0" IVar="-1" Cut="0.0000000000000000e+00" cType="1" res="-7.8828586265444756e-04" rms="4.5830187201499939e-01" purity="5.0092929601669312e-01" nType="-99"/>
        </Node>
        <Node pos="r" depth="1" NCoef="0" IVar="2" Cut="9.6168136596679688e-01" cType="1" res="3.5184834152460098e-02" rms="4.2987114191055298e-01" purity="6.0298007726669312e-01" nType="0">
          <Node pos="l" depth="2" NCoef="0" IVar="-1" Cut="0.0000000000000000e+00" cType="1" res="2.4774367921054363e-03" rms="4.4346734881401062e-01" purity="5.4528343677520752e-01" nType="-99"/>
          <Node pos="r" depth="2" NCoef="0" IVar="-1" Cut="0.0000000000000000e+00" cType="1" res="-1.0467527317814529e-04" rms="4.0144297480583191e-01" purity="7.0740908384323120e-01" nType="-99"/>
        </Node>
      </Node>
    </BinaryTree>
    <BinaryTree type="DecisionTree" boostWeight="1.0000000000000000e+00" itree="678">
      <Node pos="s" depth="0" NCoef="0" IVar="0" Cut="1.1425482177734375e+02" cType="1" res="9.9611720070242882e-03" rms="4.4975370168685913e-01" purity="5.0849181413650513e-01" nType="0">
        <Node pos="l" depth="1" NCoef="0" IVar="7" Cut="4.6960377693176270e-01" cType="1" res="2.9088442679494619e-03" rms="4.5197501778602600e-01" purity="4.8946213722229004e-01" nType="0">
          <Node pos="l" depth="2" NCoef="0" IVar="-1" Cut="0.0000000000000000e+00" cType="1" res="-6.1910162912681699e-04" rms="4.4943094253540039e-01" purity="4.2893862724304199e-01" nType="-99"/>
          <Node pos="r" depth="2" NCoef="0" IVar="-1" Cut="0.0000000000000000e+00" cType="1" res="1.2019568821415305e-03" rms="4.5461934804916382e-01" purity="5.8154791593551636e-01" nType="-99"/>
        </Node>
        <Node pos="r" depth="1" NCoef="0" IVar="7" Cut="3.7666440010070801e-01" cType="1" res="4.0063153952360153e-02" rms="4.3887388706207275e-01" purity="5.8971726894378662e-01" nType="0">
          <Node pos="l" depth="2" NCoef="0" IVar="-1" Cut="0.0000000000000000e+00" cType="1" res="3.9686798118054867e-03" rms="4.2976170778274536e-01" purity="5.8223646879196167e-01" nType="-99"/>
          <Node pos="r" depth="2" NCoef="0" IVar="-1" Cut="0.0000000000000000e+00" cType="1" res="-3.2570361508987844e-04" rms="4.4289755821228027e-01" purity="5.9723174571990967e-01" nType="-99"/>
        </Node>
      </Node>
    </BinaryTree>
    <BinaryTree type="DecisionTree" boostWeight="1.0000000000000000e+00" itree="679">
      <Node pos="s" depth="0" NCoef="0" IVar="2" Cut="9.1052716970443726e-01" cType="1" res="-9.9772503599524498e-03" rms="4.4822111725807190e-01" purity="4.8763954639434814e-01" nType="0">
        <Node pos="l" depth="1" NCoef="0" IVar="-1" Cut="0.0000000000000000e+00" cType="1" res="-2.6731558609753847e-03" rms="3.9779755473136902e-01" purity="2.2109812498092651e-01" nType="-99"/>
        <Node pos="r" depth="1" NCoef="0" IVar="0" Cut="3.3616134643554688e+01" cType="1" res="-7.3273158632218838e-03" rms="4.5090430974960327e-01" purity="5.0349479913711548e-01" nType="0">
          <Node pos="l" depth="2" NCoef="0" IVar="-1" Cut="0.0000000000000000e+00" cType="1" res="-3.1725368462502956e-03" rms="4.3698340654373169e-01" purity="3.0155286192893982e-01" nType="-99"/>
          <Node pos="r" depth="2" NCoef="0" IVar="-1" Cut="0.0000000000000000e+00" cType="1" res="-1.6815066919662058e-04" rms="4.5145004987716675e-01" purity="5.1513129472732544e-01" nType="-99"/>
        </Node>
      </Node>
    </BinaryTree>
    <BinaryTree type="DecisionTree" boostWeight="1.0000000000000000e+00" itree="680">
      <Node pos="s" depth="0" NCoef="0" IVar="4" Cut="6.0535424947738647e-01" cType="1" res="-3.2797169405966997e-03" rms="4.4610849022865295e-01" purity="5.0176477432250977e-01" nType="0">
        <Node pos="l" depth="1" NCoef="0" IVar="0" Cut="7.8688011169433594e+01" cType="1" res="4.1621174663305283e-02" rms="4.3091535568237305e-01" purity="7.1287924051284790e-01" nType="0">
          <Node pos="l" depth="2" NCoef="0" IVar="-1" Cut="0.0000000000000000e+00" cType="1" res="2.4024543818086386e-03" rms="4.4008868932723999e-01" purity="6.8291163444519043e-01" nType="-99"/>
          <Node pos="r" depth="2" NCoef="0" IVar="-1" Cut="0.0000000000000000e+00" cType="1" res="6.2562030507251620e-04" rms="4.1347169876098633e-01" purity="7.6313865184783936e-01" nType="-99"/>
        </Node>
        <Node pos="r" depth="1" NCoef="0" IVar="1" Cut="2.1654813289642334e+00" cType="1" res="-1.1085039936006069e-02" rms="4.4823843240737915e-01" purity="4.6506586670875549e-01" nType="0">
          <Node pos="l" depth="2" NCoef="0" IVar="-1" Cut="0.0000000000000000e+00" cType="1" res="1.7647954518906772e-04" rms="4.6474808454513550e-01" purity="5.6104445457458496e-01" nType="-99"/>
          <Node pos="r" depth="2" NCoef="0" IVar="-1" Cut="0.0000000000000000e+00" cType="1" res="-1.1188195785507560e-03" rms="4.3405377864837646e-01" purity="3.8756397366523743e-01" nType="-99"/>
        </Node>
      </Node>
    </BinaryTree>
    <BinaryTree type="DecisionTree" boostWeight="1.0000000000000000e+00" itree="681">
      <Node pos="s" depth="0" NCoef="0" IVar="1" Cut="2.1322495937347412e+00" cType="1" res="6.4151436090469360e-03" rms="4.4744461774826050e-01" purity="5.0040745735168457e-01" nType="0">
        <Node pos="l" depth="1" NCoef="0" IVar="0" Cut="6.8359367370605469e+01" cType="1" res="2.2473402321338654e-02" rms="4.5437788963317871e-01" purity="6.0508096218109131e-01" nType="0">
          <Node pos="l" depth="2" NCoef="0" IVar="-1" Cut="0.0000000000000000e+00" cType="1" res="1.6070915153250098e-03" rms="4.6420365571975708e-01" purity="5.6410652399063110e-01" nType="-99"/>
          <Node pos="r" depth="2" NCoef="0" IVar="-1" Cut="0.0000000000000000e+00" cType="1" res="-5.8216424804413691e-05" rms="4.4019293785095215e-01" purity="6.5813124179840088e-01" nType="-99"/>
        </Node>
        <Node pos="r" depth="1" NCoef="0" IVar="4" Cut="9.5258486270904541e-01" cType="1" res="-7.8548947349190712e-03" rms="4.4070124626159668e-01" purity="4.0739026665687561e-01" nType="0">
          <Node pos="l" depth="2" NCoef="0" IVar="-1" Cut="0.0000000000000000e+00" cType="1" res="-2.3108480963855982e-03" rms="4.5964697003364563e-01" purity="5.5939179658889771e-01" nType="-99"/>
          <Node pos="r" depth="2" NCoef="0" IVar="-1" Cut="0.0000000000000000e+00" cType="1" res="2.5469603133387864e-04" rms="4.3430128693580627e-01" purity="3.6440086364746094e-01" nType="-99"/>
        </Node>
      </Node>
    </BinaryTree>
    <BinaryTree type="DecisionTree" boostWeight="1.0000000000000000e+00" itree="682">
      <Node pos="s" depth="0" NCoef="0" IVar="4" Cut="5.4221445322036743e-01" cType="1" res="1.0930365533567965e-05" rms="4.5051714777946472e-01" purity="4.9928441643714905e-01" nType="0">
        <Node pos="l" depth="1" NCoef="0" IVar="-1" Cut="0.0000000000000000e+00" cType="1" res="-1.6016170848160982e-03" rms="4.5861497521400452e-01" purity="6.3684552907943726e-01" nType="-99"/>
        <Node pos="r" depth="1" NCoef="0" IVar="1" Cut="2.0867493152618408e+00" cType="1" res="4.0842220187187195e-03" rms="4.4942301511764526e-01" purity="4.8398327827453613e-01" nType="0">
          <Node pos="l" depth="2" NCoef="0" IVar="-1" Cut="0.0000000000000000e+00" cType="1" res="1.0079923085868359e-03" rms="4.4900697469711304e-01" purity="5.9235483407974243e-01" nType="-99"/>
          <Node pos="r" depth="2" NCoef="0" IVar="-1" Cut="0.0000000000000000e+00" cType="1" res="-3.2017633202485740e-04" rms="4.4924044609069824e-01" purity="4.2785492539405823e-01" nType="-99"/>
        </Node>
      </Node>
    </BinaryTree>
    <BinaryTree type="DecisionTree" boostWeight="1.0000000000000000e+00" itree="683">
      <Node pos="s" depth="0" NCoef="0" IVar="0" Cut="1.0200418090820312e+02" cType="1" res="-6.3095549121499062e-03" rms="4.4891965389251709e-01" purity="4.9480485916137695e-01" nType="0">
        <Node pos="l" depth="1" NCoef="0" IVar="7" Cut="5.7439053058624268e-01" cType="1" res="-1.5237319283187389e-02" rms="4.5321875810623169e-01" purity="4.6344885230064392e-01" nType="0">
          <Node pos="l" depth="2" NCoef="0" IVar="-1" Cut="0.0000000000000000e+00" cType="1" res="-1.1064118007197976e-03" rms="4.5177963376045227e-01" purity="4.3013289570808411e-01" nType="-99"/>
          <Node pos="r" depth="2" NCoef="0" IVar="-1" Cut="0.0000000000000000e+00" cType="1" res="9.2008523643016815e-04" rms="4.5654204487800598e-01" purity="5.8684891462326050e-01" nType="-99"/>
        </Node>
        <Node pos="r" depth="1" NCoef="0" IVar="3" Cut="5.1597706973552704e-02" cType="1" res="1.8043499439954758e-02" rms="4.3604925274848938e-01" purity="5.8033734560012817e-01" nType="0">
          <Node pos="l" depth="2" NCoef="0" IVar="-1" Cut="0.0000000000000000e+00" cType="1" res="3.8017489714547992e-05" rms="4.4744297862052917e-01" purity="5.2274936437606812e-01" nType="-99"/>
          <Node pos="r" depth="2" NCoef="0" IVar="-1" Cut="0.0000000000000000e+00" cType="1" res="2.5753127411007881e-03" rms="4.0846621990203857e-01" purity="7.0238137245178223e-01" nType="-99"/>
        </Node>
      </Node>
    </BinaryTree>
    <BinaryTree type="DecisionTree" boostWeight="1.0000000000000000e+00" itree="684">
      <Node pos="s" depth="0" NCoef="0" IVar="5" Cut="1.0182646512985229e+00" cType="1" res="-8.8810449233278632e-04" rms="4.5164272189140320e-01" purity="4.9850550293922424e-01" nType="0">
        <Node pos="l" depth="1" NCoef="0" IVar="7" Cut="5.1325416564941406e-01" cType="1" res="9.9658044055104256e-03" rms="4.5396608114242554e-01" purity="5.3459835052490234e-01" nType="0">
          <Node pos="l" depth="2" NCoef="0" IVar="-1" Cut="0.0000000000000000e+00" cType="1" res="-6.2394110500463285e-06" rms="4.5238095521926880e-01" purity="4.9863761663436890e-01" nType="-99"/>
          <Node pos="r" depth="2" NCoef="0" IVar="-1" Cut="0.0000000000000000e+00" cType="1" res="1.3066279934719205e-03" rms="4.5651817321777344e-01" purity="6.0899531841278076e-01" nType="-99"/>
        </Node>
        <Node pos="r" depth="1" NCoef="0" IVar="6" Cut="6.6010584831237793e+00" cType="1" res="-4.2848378419876099e-02" rms="4.4003528356552124e-01" purity="3.5897359251976013e-01" nType="0">
          <Node pos="l" depth="2" NCoef="0" IVar="-1" Cut="0.0000000000000000e+00" cType="1" res="-8.7380601326003671e-04" rms="4.2108324170112610e-01" purity="2.6309603452682495e-01" nType="-99"/>
          <Node pos="r" depth="2" NCoef="0" IVar="-1" Cut="0.0000000000000000e+00" cType="1" res="-2.8970611747354269e-03" rms="4.5481115579605103e-01" purity="4.4317322969436646e-01" nType="-99"/>
        </Node>
      </Node>
    </BinaryTree>
    <BinaryTree type="DecisionTree" boostWeight="1.0000000000000000e+00" itree="685">
      <Node pos="s" depth="0" NCoef="0" IVar="3" Cut="1.6006849706172943e-01" cType="1" res="2.7787482831627131e-03" rms="4.4876539707183838e-01" purity="5.0679421424865723e-01" nType="0">
        <Node pos="l" depth="1" NCoef="0" IVar="2" Cut="9.3336951732635498e-01" cType="1" res="-3.9564068429172039e-03" rms="4.4770339131355286e-01" purity="4.8224896192550659e-01" nType="0">
          <Node pos="l" depth="2" NCoef="0" IVar="-1" Cut="0.0000000000000000e+00" cType="1" res="-1.2314360355958343e-03" rms="4.3096470832824707e-01" purity="2.9783493280410767e-01" nType="-99"/>
          <Node pos="r" depth="2" NCoef="0" IVar="-1" Cut="0.0000000000000000e+00" cType="1" res="1.6098954074550420e-04" rms="4.5283290743827820e-01" purity="5.4309618473052979e-01" nType="-99"/>
        </Node>
        <Node pos="r" depth="1" NCoef="0" IVar="5" Cut="7.5826543569564819e-01" cType="1" res="3.8747411221265793e-02" rms="4.5270159840583801e-01" purity="6.3787680864334106e-01" nType="0">
          <Node pos="l" depth="2" NCoef="0" IVar="-1" Cut="0.0000000000000000e+00" cType="1" res="-1.2107673101127148e-03" rms="4.5135858654975891e-01" purity="6.2779337167739868e-01" nType="-99"/>
          <Node pos="r" depth="2" NCoef="0" IVar="-1" Cut="0.0000000000000000e+00" cType="1" res="3.4118024632334709e-03" rms="4.4875854253768921e-01" purity="6.4421385526657104e-01" nType="-99"/>
        </Node>
      </Node>
    </BinaryTree>
    <BinaryTree type="DecisionTree" boostWeight="1.0000000000000000e+00" itree="686">
      <Node pos="s" depth="0" NCoef="0" IVar="1" Cut="2.6244857311248779e+00" cType="1" res="5.8058561990037560e-04" rms="4.5069080591201782e-01" purity="4.9920681118965149e-01" nType="0">
        <Node pos="l" depth="1" NCoef="0" IVar="2" Cut="9.6807003021240234e-01" cType="1" res="-4.6771992929279804e-03" rms="4.5388919115066528e-01" purity="5.2452743053436279e-01" nType="0">
          <Node pos="l" depth="2" NCoef="0" IVar="-1" Cut="0.0000000000000000e+00" cType="1" res="-5.7658535661175847e-04" rms="4.6144077181816101e-01" purity="4.6262180805206299e-01" nType="-99"/>
          <Node pos="r" depth="2" NCoef="0" IVar="-1" Cut="0.0000000000000000e+00" cType="1" res="1.1908651795238256e-03" rms="4.2837557196617126e-01" purity="7.1591877937316895e-01" nType="-99"/>
        </Node>
        <Node pos="r" depth="1" NCoef="0" IVar="-1" Cut="0.0000000000000000e+00" cType="1" res="3.2115499489009380e-03" rms="4.1597902774810791e-01" purity="2.5983113050460815e-01" nType="-99"/>
      </Node>
    </BinaryTree>
    <BinaryTree type="DecisionTree" boostWeight="1.0000000000000000e+00" itree="687">
      <Node pos="s" depth="0" NCoef="0" IVar="2" Cut="9.6245932579040527e-01" cType="1" res="1.2168639339506626e-02" rms="4.4465735554695129e-01" purity="5.1582229137420654e-01" nType="0">
        <Node pos="l" depth="1" NCoef="0" IVar="1" Cut="1.8801909685134888e+00" cType="1" res="9.1193476691842079e-04" rms="4.5375752449035645e-01" purity="4.3319252133369446e-01" nType="0">
          <Node pos="l" depth="2" NCoef="0" IVar="-1" Cut="0.0000000000000000e+00" cType="1" res="-2.0729971583932638e-03" rms="4.7308367490768433e-01" purity="4.2899930477142334e-01" nType="-99"/>
          <Node pos="r" depth="2" NCoef="0" IVar="-1" Cut="0.0000000000000000e+00" cType="1" res="4.3221897794865072e-04" rms="4.5007130503654480e-01" purity="4.3383586406707764e-01" nType="-99"/>
        </Node>
        <Node pos="r" depth="1" NCoef="0" IVar="1" Cut="2.3918724060058594e+00" cType="1" res="3.6059524863958359e-02" rms="4.2370808124542236e-01" purity="6.9119316339492798e-01" nType="0">
          <Node pos="l" depth="2" NCoef="0" IVar="-1" Cut="0.0000000000000000e+00" cType="1" res="2.1585528738796711e-03" rms="4.1630047559738159e-01" purity="7.4770998954772949e-01" nType="-99"/>
          <Node pos="r" depth="2" NCoef="0" IVar="-1" Cut="0.0000000000000000e+00" cType="1" res="-3.3916914253495634e-04" rms="4.5352181792259216e-01" purity="4.3265712261199951e-01" nType="-99"/>
        </Node>
      </Node>
    </BinaryTree>
    <BinaryTree type="DecisionTree" boostWeight="1.0000000000000000e+00" itree="688">
      <Node pos="s" depth="0" NCoef="0" IVar="7" Cut="6.2145429849624634e-01" cType="1" res="-2.1793032065033913e-03" rms="4.5257976651191711e-01" purity="4.9967405200004578e-01" nType="0">
        <Node pos="l" depth="1" NCoef="0" IVar="6" Cut="7.5726442337036133e+00" cType="1" res="-1.0257814079523087e-02" rms="4.5358067750930786e-01" purity="4.7631007432937622e-01" nType="0">
          <Node pos="l" depth="2" NCoef="0" IVar="-1" Cut="0.0000000000000000e+00" cType="1" res="7.3968141805380583e-05" rms="4.5411410927772522e-01" purity="4.1825270652770996e-01" nType="-99"/>
          <Node pos="r" depth="2" NCoef="0" IVar="-1" Cut="0.0000000000000000e+00" cType="1" res="-1.7216950654983521e-03" rms="4.5132705569267273e-01" purity="6.0280752182006836e-01" nType="-99"/>
        </Node>
        <Node pos="r" depth="1" NCoef="0" IVar="5" Cut="7.1167916059494019e-01" cType="1" res="4.2591527104377747e-02" rms="4.4433745741844177e-01" purity="6.2915652990341187e-01" nType="0">
          <Node pos="l" depth="2" NCoef="0" IVar="-1" Cut="0.0000000000000000e+00" cType="1" res="3.3742287196218967e-03" rms="4.3080008029937744e-01" purity="7.0110344886779785e-01" nType="-99"/>
          <Node pos="r" depth="2" NCoef="0" IVar="-1" Cut="0.0000000000000000e+00" cType="1" res="-1.8610333791002631e-04" rms="4.5546683669090271e-01" purity="5.4351878166198730e-01" nType="-99"/>
        </Node>
      </Node>
    </BinaryTree>
    <BinaryTree type="DecisionTree" boostWeight="1.0000000000000000e+00" itree="689">
      <Node pos="s" depth="0" NCoef="0" IVar="7" Cut="6.7270833253860474e-01" cType="1" res="7.7073397114872932e-03" rms="4.5140975713729858e-01" purity="5.0526148080825806e-01" nType="0">
        <Node pos="l" depth="1" NCoef="0" IVar="4" Cut="1.6763459444046021e+00" cType="1" res="1.2450589798390865e-02" rms="4.5078372955322266e-01" purity="5.0053757429122925e-01" nType="0">
          <Node pos="l" depth="2" NCoef="0" IVar="-1" Cut="0.0000000000000000e+00" cType="1" res="7.2054710472002625e-04" rms="4.5752611756324768e-01" purity="5.2593904733657837e-01" nType="-99"/>
          <Node pos="r" depth="2" NCoef="0" IVar="-1" Cut="0.0000000000000000e+00" cType="1" res="-3.1313877552747726e-03" rms="3.3944818377494812e-01" purity="1.5000917017459869e-01" nType="-99"/>
        </Node>
        <Node pos="r" depth="1" NCoef="0" IVar="-1" Cut="0.0000000000000000e+00" cType="1" res="-1.8236744217574596e-03" rms="4.5496064424514771e-01" purity="5.5518513917922974e-01" nType="-99"/>
      </Node>
    </BinaryTree>
    <BinaryTree type="DecisionTree" boostWeight="1.0000000000000000e+00" itree="690">
      <Node pos="s" depth="0" NCoef="0" IVar="4" Cut="1.3520127534866333e+00" cType="1" res="2.1286776755005121e-03" rms="4.5131471753120422e-01" purity="4.9884477257728577e-01" nType="0">
        <Node pos="l" depth="1" NCoef="0" IVar="1" Cut="2.3649022579193115e+00" cType="1" res="-3.5980036482214928e-03" rms="4.5836737751960754e-01" purity="5.5823123455047607e-01" nType="0">
          <Node pos="l" depth="2" NCoef="0" IVar="-1" Cut="0.0000000000000000e+00" cType="1" res="1.5935678675305098e-04" rms="4.5965647697448730e-01" purity="5.8491849899291992e-01" nType="-99"/>
          <Node pos="r" depth="2" NCoef="0" IVar="-1" Cut="0.0000000000000000e+00" cType="1" res="-2.5401024613529444e-03" rms="4.4511404633522034e-01" purity="3.6354777216911316e-01" nType="-99"/>
        </Node>
        <Node pos="r" depth="1" NCoef="0" IVar="1" Cut="2.4644427299499512e+00" cType="1" res="2.3037042468786240e-02" rms="4.2391517758369446e-01" purity="2.8202223777770996e-01" nType="0">
          <Node pos="l" depth="2" NCoef="0" IVar="-1" Cut="0.0000000000000000e+00" cType="1" res="-9.5265090931206942e-04" rms="4.2928186058998108e-01" purity="3.1836479902267456e-01" nType="-99"/>
          <Node pos="r" depth="2" NCoef="0" IVar="-1" Cut="0.0000000000000000e+00" cType="1" res="3.1925155781209469e-03" rms="4.1828796267509460e-01" purity="2.5959527492523193e-01" nType="-99"/>
        </Node>
      </Node>
    </BinaryTree>
    <BinaryTree type="DecisionTree" boostWeight="1.0000000000000000e+00" itree="691">
      <Node pos="s" depth="0" NCoef="0" IVar="4" Cut="1.3629246950149536e+00" cType="1" res="-2.0754599943757057e-02" rms="4.5178550481796265e-01" purity="4.7356656193733215e-01" nType="0">
        <Node pos="l" depth="1" NCoef="0" IVar="7" Cut="1.9866248965263367e-01" cType="1" res="-2.8448089957237244e-02" rms="4.6114742755889893e-01" purity="5.2906316518783569e-01" nType="0">
          <Node pos="l" depth="2" NCoef="0" IVar="-1" Cut="0.0000000000000000e+00" cType="1" res="-3.4704443532973528e-03" rms="4.4614642858505249e-01" purity="4.0694132447242737e-01" nType="-99"/>
          <Node pos="r" depth="2" NCoef="0" IVar="-1" Cut="0.0000000000000000e+00" cType="1" res="-9.2759926337748766e-04" rms="4.6261239051818848e-01" purity="5.4458624124526978e-01" nType="-99"/>
        </Node>
        <Node pos="r" depth="1" NCoef="0" IVar="4" Cut="1.4742521047592163e+00" cType="1" res="7.1944859810173512e-03" rms="4.1480705142021179e-01" purity="2.7195724844932556e-01" nType="0">
          <Node pos="l" depth="2" NCoef="0" IVar="-1" Cut="0.0000000000000000e+00" cType="1" res="2.6590640190988779e-03" rms="4.7394064068794250e-01" purity="4.0331262350082397e-01" nType="-99"/>
          <Node pos="r" depth="2" NCoef="0" IVar="-1" Cut="0.0000000000000000e+00" cType="1" res="-8.6726952577009797e-04" rms="3.8544383645057678e-01" purity="2.1712557971477509e-01" nType="-99"/>
        </Node>
      </Node>
    </BinaryTree>
    <BinaryTree type="DecisionTree" boostWeight="1.0000000000000000e+00" itree="692">
      <Node pos="s" depth="0" NCoef="0" IVar="0" Cut="3.4393901824951172e+01" cType="1" res="7.2638355195522308e-03" rms="4.4669386744499207e-01" purity="5.0498050451278687e-01" nType="0">
        <Node pos="l" depth="1" NCoef="0" IVar="-1" Cut="0.0000000000000000e+00" cType="1" res="-2.5695592630654573e-03" rms="4.3271124362945557e-01" purity="3.0278658866882324e-01" nType="-99"/>
        <Node pos="r" depth="1" NCoef="0" IVar="5" Cut="5.8546334505081177e-01" cType="1" res="1.0810721665620804e-02" rms="4.4723439216613770e-01" purity="5.1670110225677490e-01" nType="0">
          <Node pos="l" depth="2" NCoef="0" IVar="-1" Cut="0.0000000000000000e+00" cType="1" res="-5.2365020383149385e-04" rms="4.5363298058509827e-01" purity="5.7594710588455200e-01" nType="-99"/>
          <Node pos="r" depth="2" NCoef="0" IVar="-1" Cut="0.0000000000000000e+00" cType="1" res="8.6532550631090999e-04" rms="4.4460460543632507e-01" purity="4.9530488252639771e-01" nType="-99"/>
        </Node>
      </Node>
    </BinaryTree>
    <BinaryTree type="DecisionTree" boostWeight="1.0000000000000000e+00" itree="693">
      <Node pos="s" depth="0" NCoef="0" IVar="5" Cut="1.1053525209426880e+00" cType="1" res="2.7298426721245050e-03" rms="4.4954428076744080e-01" purity="5.0453507900238037e-01" nType="0">
        <Node pos="l" depth="1" NCoef="0" IVar="7" Cut="1.9421328604221344e-01" cType="1" res="-4.8487172462046146e-03" rms="4.4729256629943848e-01" purity="5.1140248775482178e-01" nType="0">
          <Node pos="l" depth="2" NCoef="0" IVar="-1" Cut="0.0000000000000000e+00" cType="1" res="1.7620123689994216e-03" rms="4.3248528242111206e-01" purity="4.4335362315177917e-01" nType="-99"/>
          <Node pos="r" depth="2" NCoef="0" IVar="-1" Cut="0.0000000000000000e+00" cType="1" res="-5.1448208978399634e-04" rms="4.4933250546455383e-01" purity="5.2273243665695190e-01" nType="-99"/>
        </Node>
        <Node pos="r" depth="1" NCoef="0" IVar="5" Cut="1.2312664985656738e+00" cType="1" res="5.4379370063543320e-02" rms="4.6129569411277771e-01" purity="4.5773181319236755e-01" nType="0">
          <Node pos="l" depth="2" NCoef="0" IVar="-1" Cut="0.0000000000000000e+00" cType="1" res="3.8714704569429159e-03" rms="4.7044247388839722e-01" purity="4.9008113145828247e-01" nType="-99"/>
          <Node pos="r" depth="2" NCoef="0" IVar="-1" Cut="0.0000000000000000e+00" cType="1" res="7.8030320582911372e-04" rms="4.4713655114173889e-01" purity="4.1857689619064331e-01" nType="-99"/>
        </Node>
      </Node>
    </BinaryTree>
    <BinaryTree type="DecisionTree" boostWeight="1.0000000000000000e+00" itree="694">
      <Node pos="s" depth="0" NCoef="0" IVar="1" Cut="2.7388615608215332e+00" cType="1" res="1.8574695568531752e-03" rms="4.4814512133598328e-01" purity="5.0403237342834473e-01" nType="0">
        <Node pos="l" depth="1" NCoef="0" IVar="4" Cut="1.1559276580810547e+00" cType="1" res="5.3935088217258453e-03" rms="4.5488837361335754e-01" purity="5.2690535783767700e-01" nType="0">
          <Node pos="l" depth="2" NCoef="0" IVar="-1" Cut="0.0000000000000000e+00" cType="1" res="-1.8865015590563416e-04" rms="4.5425608754158020e-01" purity="5.9122937917709351e-01" nType="-99"/>
          <Node pos="r" depth="2" NCoef="0" IVar="-1" Cut="0.0000000000000000e+00" cType="1" res="1.2945695780217648e-03" rms="4.5552578568458557e-01" purity="3.8071900606155396e-01" nType="-99"/>
        </Node>
        <Node pos="r" depth="1" NCoef="0" IVar="-1" Cut="0.0000000000000000e+00" cType="1" res="-4.7086086124181747e-03" rms="3.0051225423812866e-01" purity="1.0405619442462921e-01" nType="-99"/>
      </Node>
    </BinaryTree>
    <BinaryTree type="DecisionTree" boostWeight="1.0000000000000000e+00" itree="695">
      <Node pos="s" depth="0" NCoef="0" IVar="5" Cut="5.8710783720016479e-01" cType="1" res="-9.4797303900122643e-03" rms="4.4736748933792114e-01" purity="4.9270892143249512e-01" nType="0">
        <Node pos="l" depth="1" NCoef="0" IVar="3" Cut="2.3409385234117508e-02" cType="1" res="-3.0402936041355133e-02" rms="4.5767387747764587e-01" purity="5.4221755266189575e-01" nType="0">
          <Node pos="l" depth="2" NCoef="0" IVar="-1" Cut="0.0000000000000000e+00" cType="1" res="-3.4944596700370312e-04" rms="4.5954087376594543e-01" purity="5.5134665966033936e-01" nType="-99"/>
          <Node pos="r" depth="2" NCoef="0" IVar="-1" Cut="0.0000000000000000e+00" cType="1" res="-3.3958156127482653e-03" rms="4.4819736480712891e-01" purity="5.1926869153976440e-01" nType="-99"/>
        </Node>
        <Node pos="r" depth="1" NCoef="0" IVar="1" Cut="1.8223879337310791e+00" cType="1" res="-1.3805567286908627e-03" rms="4.4304847717285156e-01" purity="4.7354453802108765e-01" nType="0">
          <Node pos="l" depth="2" NCoef="0" IVar="-1" Cut="0.0000000000000000e+00" cType="1" res="3.0669274274259806e-03" rms="4.5132261514663696e-01" purity="5.8957040309906006e-01" nType="-99"/>
          <Node pos="r" depth="2" NCoef="0" IVar="-1" Cut="0.0000000000000000e+00" cType="1" res="-3.3564143814146519e-04" rms="4.4183617830276489e-01" purity="4.6437871456146240e-01" nType="-99"/>
        </Node>
      </Node>
    </BinaryTree>
    <BinaryTree type="DecisionTree" boostWeight="1.0000000000000000e+00" itree="696">
      <Node pos="s" depth="0" NCoef="0" IVar="1" Cut="1.9903287887573242e+00" cType="1" res="4.8430091701447964e-03" rms="4.4738379120826721e-01" purity="5.1024365425109863e-01" nType="0">
        <Node pos="l" depth="1" NCoef="0" IVar="1" Cut="1.7952389717102051e+00" cType="1" res="3.3691834658384323e-02" rms="4.4674888253211975e-01" purity="6.2643784284591675e-01" nType="0">
          <Node pos="l" depth="2" NCoef="0" IVar="-1" Cut="0.0000000000000000e+00" cType="1" res="-6.9985567824915051e-04" rms="4.5456075668334961e-01" purity="5.3824496269226074e-01" nType="-99"/>
          <Node pos="r" depth="2" NCoef="0" IVar="-1" Cut="0.0000000000000000e+00" cType="1" res="2.5821097660809755e-03" rms="4.4011607766151428e-01" purity="6.7262804508209229e-01" nType="-99"/>
        </Node>
        <Node pos="r" depth="1" NCoef="0" IVar="3" Cut="1.8519288301467896e-01" cType="1" res="-5.9675839729607105e-03" rms="4.4714233279228210e-01" purity="4.6670183539390564e-01" nType="0">
          <Node pos="l" depth="2" NCoef="0" IVar="-1" Cut="0.0000000000000000e+00" cType="1" res="-4.3092045234516263e-04" rms="4.4775676727294922e-01" purity="4.5107185840606689e-01" nType="-99"/>
          <Node pos="r" depth="2" NCoef="0" IVar="-1" Cut="0.0000000000000000e+00" cType="1" res="1.3193269260227680e-03" rms="4.3925800919532776e-01" purity="6.2607133388519287e-01" nType="-99"/>
        </Node>
      </Node>
    </BinaryTree>
    <BinaryTree type="DecisionTree" boostWeight="1.0000000000000000e+00" itree="697">
      <Node pos="s" depth="0" NCoef="0" IVar="0" Cut="1.0233372497558594e+02" cType="1" res="7.4719022959470749e-03" rms="4.4761914014816284e-01" purity="5.0760269165039062e-01" nType="0">
        <Node pos="l" depth="1" NCoef="0" IVar="4" Cut="5.3288310766220093e-01" cType="1" res="-4.8140315338969231e-03" rms="4.5534002780914307e-01" purity="4.7014960646629333e-01" nType="0">
          <Node pos="l" depth="2" NCoef="0" IVar="-1" Cut="0.0000000000000000e+00" cType="1" res="1.9936573226004839e-03" rms="4.2987614870071411e-01" purity="6.8580818176269531e-01" nType="-99"/>
          <Node pos="r" depth="2" NCoef="0" IVar="-1" Cut="0.0000000000000000e+00" cType="1" res="-4.7507410636171699e-04" rms="4.5785504579544067e-01" purity="4.4474232196807861e-01" nType="-99"/>
        </Node>
        <Node pos="r" depth="1" NCoef="0" IVar="6" Cut="5.7378234863281250e+00" cType="1" res="3.8506083190441132e-02" rms="4.2592039704322815e-01" purity="6.0220891237258911e-01" nType="0">
          <Node pos="l" depth="2" NCoef="0" IVar="-1" Cut="0.0000000000000000e+00" cType="1" res="-1.7880504019558430e-03" rms="4.3442139029502869e-01" purity="3.2623645663261414e-01" nType="-99"/>
          <Node pos="r" depth="2" NCoef="0" IVar="-1" Cut="0.0000000000000000e+00" cType="1" res="2.7410965412855148e-03" rms="4.2133560776710510e-01" purity="6.7289930582046509e-01" nType="-99"/>
        </Node>
      </Node>
    </BinaryTree>
    <BinaryTree type="DecisionTree" boostWeight="1.0000000000000000e+00" itree="698">
      <Node pos="s" depth="0" NCoef="0" IVar="5" Cut="6.9857013225555420e-01" cType="1" res="-1.5335734933614731e-03" rms="4.5159697532653809e-01" purity="4.9866715073585510e-01" nType="0">
        <Node pos="l" depth="1" NCoef="0" IVar="5" Cut="5.4028660058975220e-01" cType="1" res="9.5903510227799416e-03" rms="4.5636135339736938e-01" purity="5.8288592100143433e-01" nType="0">
          <Node pos="l" depth="2" NCoef="0" IVar="-1" Cut="0.0000000000000000e+00" cType="1" res="-5.8827217435464263e-04" rms="4.6035113930702209e-01" purity="5.7145810127258301e-01" nType="-99"/>
          <Node pos="r" depth="2" NCoef="0" IVar="-1" Cut="0.0000000000000000e+00" cType="1" res="1.5915012918412685e-03" rms="4.5031288266181946e-01" purity="5.9551101922988892e-01" nType="-99"/>
        </Node>
        <Node pos="r" depth="1" NCoef="0" IVar="3" Cut="1.2416072934865952e-01" cType="1" res="-9.8238354548811913e-03" rms="4.4783365726470947e-01" purity="4.3590191006660461e-01" nType="0">
          <Node pos="l" depth="2" NCoef="0" IVar="-1" Cut="0.0000000000000000e+00" cType="1" res="-1.0084441164508462e-03" rms="4.4493269920349121e-01" purity="3.8445925712585449e-01" nType="-99"/>
          <Node pos="r" depth="2" NCoef="0" IVar="-1" Cut="0.0000000000000000e+00" cType="1" res="1.0940610663965344e-03" rms="4.5454230904579163e-01" purity="5.8860808610916138e-01" nType="-99"/>
        </Node>
      </Node>
    </BinaryTree>
    <BinaryTree type="DecisionTree" boostWeight="1.0000000000000000e+00" itree="699">
      <Node pos="s" depth="0" NCoef="0" IVar="2" Cut="9.1272568702697754e-01" cType="1" res="1.1208042502403259e-02" rms="4.5176950097084045e-01" purity="5.1470613479614258e-01" nType="0">
        <Node pos="l" depth="1" NCoef="0" IVar="-1" Cut="0.0000000000000000e+00" cType="1" res="3.3130811061710119e-03" rms="4.6135345101356506e-01" purity="3.6426410079002380e-01" nType="-99"/>
        <Node pos="r" depth="1" NCoef="0" IVar="2" Cut="9.6816790103912354e-01" cType="1" res="7.0653525181114674e-03" rms="4.5080715417861938e-01" purity="5.2505350112915039e-01" nType="0">
          <Node pos="l" depth="2" NCoef="0" IVar="-1" Cut="0.0000000000000000e+00" cType="1" res="-1.4924830793461297e-05" rms="4.5822566747665405e-01" purity="4.7121116518974304e-01" nType="-99"/>
          <Node pos="r" depth="2" NCoef="0" IVar="-1" Cut="0.0000000000000000e+00" cType="1" res="1.4344600494951010e-03" rms="4.2625913023948669e-01" purity="6.9140475988388062e-01" nType="-99"/>
        </Node>
      </Node>
    </BinaryTree>
    <BinaryTree type="DecisionTree" boostWeight="1.0000000000000000e+00" itree="700">
      <Node pos="s" depth="0" NCoef="0" IVar="3" Cut="1.3548269867897034e-01" cType="1" res="6.9946856237947941e-03" rms="4.5087215304374695e-01" purity="5.1099944114685059e-01" nType="0">
        <Node pos="l" depth="1" NCoef="0" IVar="2" Cut="9.1941416263580322e-01" cType="1" res="-1.2704568216577172e-03" rms="4.5248368382453918e-01" purity="4.8199483752250671e-01" nType="0">
          <Node pos="l" depth="2" NCoef="0" IVar="-1" Cut="0.0000000000000000e+00" cType="1" res="2.6778243482112885e-03" rms="4.4756969809532166e-01" purity="3.4922435879707336e-01" nType="-99"/>
          <Node pos="r" depth="2" NCoef="0" IVar="-1" Cut="0.0000000000000000e+00" cType="1" res="-3.7992329453118145e-04" rms="4.5257857441902161e-01" purity="4.9897465109825134e-01" nType="-99"/>
        </Node>
        <Node pos="r" depth="1" NCoef="0" IVar="7" Cut="3.2953605055809021e-01" cType="1" res="4.4067997485399246e-02" rms="4.4167280197143555e-01" purity="6.4109975099563599e-01" nType="0">
          <Node pos="l" depth="2" NCoef="0" IVar="-1" Cut="0.0000000000000000e+00" cType="1" res="7.9273647861555219e-04" rms="4.5543634891510010e-01" purity="5.7305622100830078e-01" nType="-99"/>
          <Node pos="r" depth="2" NCoef="0" IVar="-1" Cut="0.0000000000000000e+00" cType="1" res="3.0429998878389597e-03" rms="4.2649763822555542e-01" purity="7.0667022466659546e-01" nType="-99"/>
        </Node>
      </Node>
    </BinaryTree>
    <BinaryTree type="DecisionTree" boostWeight="1.0000000000000000e+00" itree="701">
      <Node pos="s" depth="0" NCoef="0" IVar="3" Cut="1.4318205416202545e-01" cType="1" res="2.6556828524917364e-03" rms="4.5162853598594666e-01" purity="5.0263428688049316e-01" nType="0">
        <Node pos="l" depth="1" NCoef="0" IVar="7" Cut="6.7940247058868408e-01" cType="1" res="1.0676569305360317e-02" rms="4.5077833533287048e-01" purity="4.9261313676834106e-01" nType="0">
          <Node pos="l" depth="2" NCoef="0" IVar="-1" Cut="0.0000000000000000e+00" cType="1" res="8.0009287921711802e-04" rms="4.4959765672683716e-01" purity="4.8613616824150085e-01" nType="-99"/>
          <Node pos="r" depth="2" NCoef="0" IVar="-1" Cut="0.0000000000000000e+00" cType="1" res="-2.3478474467992783e-03" rms="4.5610100030899048e-01" purity="5.5078381299972534e-01" nType="-99"/>
        </Node>
        <Node pos="r" depth="1" NCoef="0" IVar="4" Cut="8.0153948068618774e-01" cType="1" res="-3.3476486802101135e-02" rms="4.5368403196334839e-01" purity="5.4777699708938599e-01" nType="0">
          <Node pos="l" depth="2" NCoef="0" IVar="-1" Cut="0.0000000000000000e+00" cType="1" res="-5.1106897444697097e-05" rms="4.5252293348312378e-01" purity="6.4596015214920044e-01" nType="-99"/>
          <Node pos="r" depth="2" NCoef="0" IVar="-1" Cut="0.0000000000000000e+00" cType="1" res="-2.8170458972454071e-03" rms="4.5261564850807190e-01" purity="4.5304435491561890e-01" nType="-99"/>
        </Node>
      </Node>
    </BinaryTree>
    <BinaryTree type="DecisionTree" boostWeight="1.0000000000000000e+00" itree="702">
      <Node pos="s" depth="0" NCoef="0" IVar="6" Cut="8.5161304473876953e+00" cType="1" res="-7.2664557956159115e-03" rms="4.4825807213783264e-01" purity="4.9038645625114441e-01" nType="0">
        <Node pos="l" depth="1" NCoef="0" IVar="5" Cut="1.2167563438415527e+00" cType="1" res="-1.2878971174359322e-02" rms="4.5331424474716187e-01" purity="4.5209679007530212e-01" nType="0">
          <Node pos="l" depth="2" NCoef="0" IVar="-1" Cut="0.0000000000000000e+00" cType="1" res="-3.7125177914276719e-04" rms="4.5519438385963440e-01" purity="4.6426454186439514e-01" nType="-99"/>
          <Node pos="r" depth="2" NCoef="0" IVar="-1" Cut="0.0000000000000000e+00" cType="1" res="-2.9941310640424490e-03" rms="4.2510414123535156e-01" purity="2.9705187678337097e-01" nType="-99"/>
        </Node>
        <Node pos="r" depth="1" NCoef="0" IVar="6" Cut="8.9192485809326172e+00" cType="1" res="2.5646315887570381e-02" rms="4.1585522890090942e-01" purity="7.1492362022399902e-01" nType="0">
          <Node pos="l" depth="2" NCoef="0" IVar="-1" Cut="0.0000000000000000e+00" cType="1" res="3.1501709017902613e-03" rms="4.1232571005821228e-01" purity="7.3987615108489990e-01" nType="-99"/>
          <Node pos="r" depth="2" NCoef="0" IVar="-1" Cut="0.0000000000000000e+00" cType="1" res="9.7715528681874275e-06" rms="4.1603475809097290e-01" purity="6.9928896427154541e-01" nType="-99"/>
        </Node>
      </Node>
    </BinaryTree>
    <BinaryTree type="DecisionTree" boostWeight="1.0000000000000000e+00" itree="703">
      <Node pos="s" depth="0" NCoef="0" IVar="1" Cut="1.8666175603866577e+00" cType="1" res="1.0384541936218739e-02" rms="4.5058187842369080e-01" purity="5.0860577821731567e-01" nType="0">
        <Node pos="l" depth="1" NCoef="0" IVar="7" Cut="3.7062057852745056e-01" cType="1" res="4.2192600667476654e-02" rms="4.6023210883140564e-01" purity="5.9396791458129883e-01" nType="0">
          <Node pos="l" depth="2" NCoef="0" IVar="-1" Cut="0.0000000000000000e+00" cType="1" res="1.6440090257674456e-04" rms="4.6363753080368042e-01" purity="5.2238070964813232e-01" nType="-99"/>
          <Node pos="r" depth="2" NCoef="0" IVar="-1" Cut="0.0000000000000000e+00" cType="1" res="2.7347877621650696e-03" rms="4.5622658729553223e-01" purity="6.4105713367462158e-01" nType="-99"/>
        </Node>
        <Node pos="r" depth="1" NCoef="0" IVar="4" Cut="5.3412938117980957e-01" cType="1" res="5.4488312453031540e-03" rms="4.4886389374732971e-01" purity="4.9535998702049255e-01" nType="0">
          <Node pos="l" depth="2" NCoef="0" IVar="-1" Cut="0.0000000000000000e+00" cType="1" res="-2.2135854233056307e-03" rms="4.3982705473899841e-01" purity="6.5423971414566040e-01" nType="-99"/>
          <Node pos="r" depth="2" NCoef="0" IVar="-1" Cut="0.0000000000000000e+00" cType="1" res="4.1687701013870537e-04" rms="4.4926768541336060e-01" purity="4.8398345708847046e-01" nType="-99"/>
        </Node>
      </Node>
    </BinaryTree>
    <BinaryTree type="DecisionTree" boostWeight="1.0000000000000000e+00" itree="704">
      <Node pos="s" depth="0" NCoef="0" IVar="5" Cut="1.2086006402969360e+00" cType="1" res="3.7796685937792063e-03" rms="4.4691678881645203e-01" purity="5.0290215015411377e-01" nType="0">
        <Node pos="l" depth="1" NCoef="0" IVar="2" Cut="9.3375200033187866e-01" cType="1" res="7.3838173411786556e-03" rms="4.4870430231094360e-01" purity="5.1529842615127563e-01" nType="0">
          <Node pos="l" depth="2" NCoef="0" IVar="-1" Cut="0.0000000000000000e+00" cType="1" res="-5.4871907923370600e-04" rms="4.3692642450332642e-01" purity="3.3225044608116150e-01" nType="-99"/>
          <Node pos="r" depth="2" NCoef="0" IVar="-1" Cut="0.0000000000000000e+00" cType="1" res="6.2266393797472119e-04" rms="4.5236894488334656e-01" purity="5.7640427350997925e-01" nType="-99"/>
        </Node>
        <Node pos="r" depth="1" NCoef="0" IVar="-1" Cut="0.0000000000000000e+00" cType="1" res="-1.8809864996001124e-03" rms="4.2081475257873535e-01" purity="3.4510105848312378e-01" nType="-99"/>
      </Node>
    </BinaryTree>
    <BinaryTree type="DecisionTree" boostWeight="1.0000000000000000e+00" itree="705">
      <Node pos="s" depth="0" NCoef="0" IVar="5" Cut="6.7514598369598389e-01" cType="1" res="-5.0928406417369843e-03" rms="4.5140179991722107e-01" purity="4.9692830443382263e-01" nType="0">
        <Node pos="l" depth="1" NCoef="0" IVar="4" Cut="9.8019546270370483e-01" cType="1" res="1.6110923141241074e-02" rms="4.5871832966804504e-01" purity="5.9147268533706665e-01" nType="0">
          <Node pos="l" depth="2" NCoef="0" IVar="-1" Cut="0.0000000000000000e+00" cType="1" res="-1.6971421428024769e-04" rms="4.5122927427291870e-01" purity="6.2823295593261719e-01" nType="-99"/>
          <Node pos="r" depth="2" NCoef="0" IVar="-1" Cut="0.0000000000000000e+00" cType="1" res="3.0101323500275612e-03" rms="4.7355750203132629e-01" purity="4.9667957425117493e-01" nType="-99"/>
        </Node>
        <Node pos="r" depth="1" NCoef="0" IVar="1" Cut="1.8974392414093018e+00" cType="1" res="-1.8616903573274612e-02" rms="4.4614657759666443e-01" purity="4.3662658333778381e-01" nType="0">
          <Node pos="l" depth="2" NCoef="0" IVar="-1" Cut="0.0000000000000000e+00" cType="1" res="1.3091025175526738e-03" rms="4.7341656684875488e-01" purity="5.3307026624679565e-01" nType="-99"/>
          <Node pos="r" depth="2" NCoef="0" IVar="-1" Cut="0.0000000000000000e+00" cType="1" res="-1.1631895322352648e-03" rms="4.4214236736297607e-01" purity="4.2438086867332458e-01" nType="-99"/>
        </Node>
      </Node>
    </BinaryTree>
    <BinaryTree type="DecisionTree" boostWeight="1.0000000000000000e+00" itree="706">
      <Node pos="s" depth="0" NCoef="0" IVar="3" Cut="1.5770158171653748e-01" cType="1" res="-1.2350976467132568e-02" rms="4.4913524389266968e-01" purity="4.9070701003074646e-01" nType="0">
        <Node pos="l" depth="1" NCoef="0" IVar="0" Cut="3.7356891632080078e+01" cType="1" res="-6.9474480114877224e-03" rms="4.4700056314468384e-01" purity="4.7940248250961304e-01" nType="0">
          <Node pos="l" depth="2" NCoef="0" IVar="-1" Cut="0.0000000000000000e+00" cType="1" res="2.8826456982642412e-03" rms="4.4613277912139893e-01" purity="4.2311510443687439e-01" nType="-99"/>
          <Node pos="r" depth="2" NCoef="0" IVar="-1" Cut="0.0000000000000000e+00" cType="1" res="-5.5299670202657580e-04" rms="4.4660618901252747e-01" purity="4.8400303721427917e-01" nType="-99"/>
        </Node>
        <Node pos="r" depth="1" NCoef="0" IVar="1" Cut="2.0458428859710693e+00" cType="1" res="-4.0433079004287720e-02" rms="4.5904666185379028e-01" purity="5.4945641756057739e-01" nType="0">
          <Node pos="l" depth="2" NCoef="0" IVar="-1" Cut="0.0000000000000000e+00" cType="1" res="-3.2402810174971819e-03" rms="4.6846595406532288e-01" purity="5.3000408411026001e-01" nType="-99"/>
          <Node pos="r" depth="2" NCoef="0" IVar="-1" Cut="0.0000000000000000e+00" cType="1" res="-1.1864592670463026e-04" rms="4.4666904211044312e-01" purity="5.6786406040191650e-01" nType="-99"/>
        </Node>
      </Node>
    </BinaryTree>
    <BinaryTree type="DecisionTree" boostWeight="1.0000000000000000e+00" itree="707">
      <Node pos="s" depth="0" NCoef="0" IVar="2" Cut="9.5705026388168335e-01" cType="1" res="8.9008621871471405e-03" rms="4.4713249802589417e-01" purity="5.1185131072998047e-01" nType="0">
        <Node pos="l" depth="1" NCoef="0" IVar="7" Cut="5.5424219369888306e-01" cType="1" res="-5.0919931381940842e-03" rms="4.5823779702186584e-01" purity="4.0926149487495422e-01" nType="0">
          <Node pos="l" depth="2" NCoef="0" IVar="-1" Cut="0.0000000000000000e+00" cType="1" res="4.3944956269115210e-04" rms="4.5490160584449768e-01" purity="4.0640506148338318e-01" nType="-99"/>
          <Node pos="r" depth="2" NCoef="0" IVar="-1" Cut="0.0000000000000000e+00" cType="1" res="-2.3517226800322533e-03" rms="4.6590194106101990e-01" purity="4.1951945424079895e-01" nType="-99"/>
        </Node>
        <Node pos="r" depth="1" NCoef="0" IVar="0" Cut="1.2619213104248047e+02" cType="1" res="2.9592743143439293e-02" rms="4.2935049533843994e-01" purity="6.6355562210083008e-01" nType="0">
          <Node pos="l" depth="2" NCoef="0" IVar="-1" Cut="0.0000000000000000e+00" cType="1" res="1.7079705139622092e-03" rms="4.3074396252632141e-01" purity="6.6768246889114380e-01" nType="-99"/>
          <Node pos="r" depth="2" NCoef="0" IVar="-1" Cut="0.0000000000000000e+00" cType="1" res="-1.0072787990793586e-03" rms="4.1668072342872620e-01" purity="6.3665896654129028e-01" nType="-99"/>
        </Node>
      </Node>
    </BinaryTree>
    <BinaryTree type="DecisionTree" boostWeight="1.0000000000000000e+00" itree="708">
      <Node pos="s" depth="0" NCoef="0" IVar="3" Cut="2.3159709572792053e-01" cType="1" res="-4.4759358279407024e-03" rms="4.5065543055534363e-01" purity="4.9127796292304993e-01" nType="0">
        <Node pos="l" depth="1" NCoef="0" IVar="1" Cut="2.7286918163299561e+00" cType="1" res="2.3797911126166582e-05" rms="4.4997307658195496e-01" purity="4.9044069647789001e-01" nType="0">
          <Node pos="l" depth="2" NCoef="0" IVar="-1" Cut="0.0000000000000000e+00" cType="1" res="2.0081625552847981e-04" rms="4.5896527171134949e-01" purity="5.1938605308532715e-01" nType="-99"/>
          <Node pos="r" depth="2" NCoef="0" IVar="-1" Cut="0.0000000000000000e+00" cType="1" res="-4.6814889647066593e-03" rms="2.9932346940040588e-01" purity="1.0525892674922943e-01" nType="-99"/>
        </Node>
        <Node pos="r" depth="1" NCoef="0" IVar="-1" Cut="0.0000000000000000e+00" cType="1" res="-2.8645393904298544e-03" rms="4.5541334152221680e-01" purity="5.0488334894180298e-01" nType="-99"/>
      </Node>
    </BinaryTree>
    <BinaryTree type="DecisionTree" boostWeight="1.0000000000000000e+00" itree="709">
      <Node pos="s" depth="0" NCoef="0" IVar="1" Cut="2.3207664489746094e+00" cType="1" res="-8.9095737785100937e-03" rms="4.4436997175216675e-01" purity="4.9121102690696716e-01" nType="0">
        <Node pos="l" depth="1" NCoef="0" IVar="2" Cut="9.7079807519912720e-01" cType="1" res="1.7168921185657382e-03" rms="4.5469984412193298e-01" purity="5.6832855939865112e-01" nType="0">
          <Node pos="l" depth="2" NCoef="0" IVar="-1" Cut="0.0000000000000000e+00" cType="1" res="-3.4893018892034888e-04" rms="4.6673527359962463e-01" purity="5.1385402679443359e-01" nType="-99"/>
          <Node pos="r" depth="2" NCoef="0" IVar="-1" Cut="0.0000000000000000e+00" cType="1" res="1.9894212018698454e-03" rms="4.0510684251785278e-01" purity="7.6855438947677612e-01" nType="-99"/>
        </Node>
        <Node pos="r" depth="1" NCoef="0" IVar="4" Cut="1.6326599121093750e+00" cType="1" res="-3.6376506090164185e-02" rms="4.1522642970085144e-01" purity="2.9188019037246704e-01" nType="0">
          <Node pos="l" depth="2" NCoef="0" IVar="-1" Cut="0.0000000000000000e+00" cType="1" res="-2.6907878927886486e-03" rms="4.2483571171760559e-01" purity="3.2195985317230225e-01" nType="-99"/>
          <Node pos="r" depth="2" NCoef="0" IVar="-1" Cut="0.0000000000000000e+00" cType="1" res="1.6944246599450707e-03" rms="3.7871164083480835e-01" purity="2.0187318325042725e-01" nType="-99"/>
        </Node>
      </Node>
    </BinaryTree>
    <BinaryTree type="DecisionTree" boostWeight="1.0000000000000000e+00" itree="710">
      <Node pos="s" depth="0" NCoef="0" IVar="6" Cut="7.0926866531372070e+00" cType="1" res="1.3412396423518658e-02" rms="4.5431175827980042e-01" purity="5.2018046379089355e-01" nType="0">
        <Node pos="l" depth="1" NCoef="0" IVar="7" Cut="5.0202798843383789e-01" cType="1" res="3.0066832900047302e-02" rms="4.5906898379325867e-01" purity="4.3560475111007690e-01" nType="0">
          <Node pos="l" depth="2" NCoef="0" IVar="-1" Cut="0.0000000000000000e+00" cType="1" res="1.8589595565572381e-03" rms="4.5565930008888245e-01" purity="4.2145714163780212e-01" nType="-99"/>
          <Node pos="r" depth="2" NCoef="0" IVar="-1" Cut="0.0000000000000000e+00" cType="1" res="9.3792164989281446e-05" rms="4.6581828594207764e-01" purity="4.6887961030006409e-01" nType="-99"/>
        </Node>
        <Node pos="r" depth="1" NCoef="0" IVar="7" Cut="1.8412187695503235e-01" cType="1" res="-8.2498909905552864e-03" rms="4.4712126255035400e-01" purity="6.3018739223480225e-01" nType="0">
          <Node pos="l" depth="2" NCoef="0" IVar="-1" Cut="0.0000000000000000e+00" cType="1" res="-2.6507880538702011e-03" rms="4.6728467941284180e-01" purity="4.9123358726501465e-01" nType="-99"/>
          <Node pos="r" depth="2" NCoef="0" IVar="-1" Cut="0.0000000000000000e+00" cType="1" res="-6.2782273744232953e-05" rms="4.4380238652229309e-01" purity="6.4962327480316162e-01" nType="-99"/>
        </Node>
      </Node>
    </BinaryTree>
    <BinaryTree type="DecisionTree" boostWeight="1.0000000000000000e+00" itree="711">
      <Node pos="s" depth="0" NCoef="0" IVar="0" Cut="1.2306439208984375e+02" cType="1" res="-1.7732824198901653e-03" rms="4.5204910635948181e-01" purity="4.9548491835594177e-01" nType="0">
        <Node pos="l" depth="1" NCoef="0" IVar="0" Cut="1.1285427856445312e+02" cType="1" res="-6.4218058250844479e-03" rms="4.5394220948219299e-01" purity="4.8586887121200562e-01" nType="0">
          <Node pos="l" depth="2" NCoef="0" IVar="-1" Cut="0.0000000000000000e+00" cType="1" res="-4.5332883019000292e-04" rms="4.5411419868469238e-01" purity="4.7240510582923889e-01" nType="-99"/>
          <Node pos="r" depth="2" NCoef="0" IVar="-1" Cut="0.0000000000000000e+00" cType="1" res="2.2191582247614861e-03" rms="4.4828119874000549e-01" purity="6.6309177875518799e-01" nType="-99"/>
        </Node>
        <Node pos="r" depth="1" NCoef="0" IVar="5" Cut="8.2312065362930298e-01" cType="1" res="2.8104549273848534e-02" rms="4.3851211667060852e-01" purity="5.5729109048843384e-01" nType="0">
          <Node pos="l" depth="2" NCoef="0" IVar="-1" Cut="0.0000000000000000e+00" cType="1" res="2.9134245123714209e-03" rms="4.3538969755172729e-01" purity="6.5397572517395020e-01" nType="-99"/>
          <Node pos="r" depth="2" NCoef="0" IVar="-1" Cut="0.0000000000000000e+00" cType="1" res="-4.0320702828466892e-04" rms="4.3881821632385254e-01" purity="4.5497295260429382e-01" nType="-99"/>
        </Node>
      </Node>
    </BinaryTree>
    <BinaryTree type="DecisionTree" boostWeight="1.0000000000000000e+00" itree="712">
      <Node pos="s" depth="0" NCoef="0" IVar="0" Cut="8.9052894592285156e+01" cType="1" res="1.2240967480465770e-03" rms="4.5114395022392273e-01" purity="5.0237005949020386e-01" nType="0">
        <Node pos="l" depth="1" NCoef="0" IVar="0" Cut="6.1432868957519531e+01" cType="1" res="-1.1373614892363548e-02" rms="4.5470866560935974e-01" purity="4.5954903960227966e-01" nType="0">
          <Node pos="l" depth="2" NCoef="0" IVar="-1" Cut="0.0000000000000000e+00" cType="1" res="1.8133668345399201e-04" rms="4.5401272177696228e-01" purity="4.5323652029037476e-01" nType="-99"/>
          <Node pos="r" depth="2" NCoef="0" IVar="-1" Cut="0.0000000000000000e+00" cType="1" res="-1.3521122746169567e-03" rms="4.5482179522514343e-01" purity="4.6776539087295532e-01" nType="-99"/>
        </Node>
        <Node pos="r" depth="1" NCoef="0" IVar="3" Cut="1.2577618658542633e-01" cType="1" res="2.3718899115920067e-02" rms="4.4381922483444214e-01" purity="5.7883220911026001e-01" nType="0">
          <Node pos="l" depth="2" NCoef="0" IVar="-1" Cut="0.0000000000000000e+00" cType="1" res="1.7340598860755563e-03" rms="4.4694292545318604e-01" purity="5.7157981395721436e-01" nType="-99"/>
          <Node pos="r" depth="2" NCoef="0" IVar="-1" Cut="0.0000000000000000e+00" cType="1" res="-2.4085191544145346e-03" rms="4.2041596770286560e-01" purity="6.1458206176757812e-01" nType="-99"/>
        </Node>
      </Node>
    </BinaryTree>
    <BinaryTree type="DecisionTree" boostWeight="1.0000000000000000e+00" itree="713">
      <Node pos="s" depth="0" NCoef="0" IVar="7" Cut="3.8748949766159058e-01" cType="1" res="-2.4949584621936083e-03" rms="4.5518589019775391e-01" purity="4.9266088008880615e-01" nType="0">
        <Node pos="l" depth="1" NCoef="0" IVar="0" Cut="8.9052894592285156e+01" cType="1" res="-1.9668390974402428e-02" rms="4.4330212473869324e-01" purity="4.2132833600044250e-01" nType="0">
          <Node pos="l" depth="2" NCoef="0" IVar="-1" Cut="0.0000000000000000e+00" cType="1" res="-1.8593543209135532e-03" rms="4.3176701664924622e-01" purity="3.5701188445091248e-01" nType="-99"/>
          <Node pos="r" depth="2" NCoef="0" IVar="-1" Cut="0.0000000000000000e+00" cType="1" res="6.0015631606802344e-04" rms="4.5742097496986389e-01" purity="5.1406931877136230e-01" nType="-99"/>
        </Node>
        <Node pos="r" depth="1" NCoef="0" IVar="6" Cut="5.7679672241210938e+00" cType="1" res="1.4355299063026905e-02" rms="4.6593707799911499e-01" purity="5.6265103816986084e-01" nType="0">
          <Node pos="l" depth="2" NCoef="0" IVar="-1" Cut="0.0000000000000000e+00" cType="1" res="3.1494735740125179e-03" rms="4.8211568593978882e-01" purity="4.2072105407714844e-01" nType="-99"/>
          <Node pos="r" depth="2" NCoef="0" IVar="-1" Cut="0.0000000000000000e+00" cType="1" res="-4.9003367166733369e-05" rms="4.6039733290672302e-01" purity="5.9932148456573486e-01" nType="-99"/>
        </Node>
      </Node>
    </BinaryTree>
    <BinaryTree type="DecisionTree" boostWeight="1.0000000000000000e+00" itree="714">
      <Node pos="s" depth="0" NCoef="0" IVar="7" Cut="2.4165411293506622e-01" cType="1" res="-8.5326528642326593e-04" rms="4.5419627428054810e-01" purity="5.0036823749542236e-01" nType="0">
        <Node pos="l" depth="1" NCoef="0" IVar="5" Cut="9.2545396089553833e-01" cType="1" res="3.3309329301118851e-02" rms="4.4187358021736145e-01" purity="4.3614432215690613e-01" nType="0">
          <Node pos="l" depth="2" NCoef="0" IVar="-1" Cut="0.0000000000000000e+00" cType="1" res="2.9940316453576088e-03" rms="4.5245394110679626e-01" purity="5.1187187433242798e-01" nType="-99"/>
          <Node pos="r" depth="2" NCoef="0" IVar="-1" Cut="0.0000000000000000e+00" cType="1" res="-3.7153577432036400e-04" rms="4.2448812723159790e-01" purity="3.3896926045417786e-01" nType="-99"/>
        </Node>
        <Node pos="r" depth="1" NCoef="0" IVar="6" Cut="6.0890116691589355e+00" cType="1" res="-1.0939080268144608e-02" rms="4.5728316903114319e-01" purity="5.1932907104492188e-01" nType="0">
          <Node pos="l" depth="2" NCoef="0" IVar="-1" Cut="0.0000000000000000e+00" cType="1" res="7.0645217783749104e-04" rms="4.5567005872726440e-01" purity="3.7706097960472107e-01" nType="-99"/>
          <Node pos="r" depth="2" NCoef="0" IVar="-1" Cut="0.0000000000000000e+00" cType="1" res="-9.7403384279459715e-04" rms="4.5745810866355896e-01" purity="5.7709985971450806e-01" nType="-99"/>
        </Node>
      </Node>
    </BinaryTree>
    <BinaryTree type="DecisionTree" boostWeight="1.0000000000000000e+00" itree="715">
      <Node pos="s" depth="0" NCoef="0" IVar="0" Cut="1.4412460327148438e+02" cType="1" res="-6.6791339777410030e-03" rms="4.4876474142074585e-01" purity="4.9512392282485962e-01" nType="0">
        <Node pos="l" depth="1" NCoef="0" IVar="2" Cut="9.5868229866027832e-01" cType="1" res="-2.3358322214335203e-03" rms="4.4824269413948059e-01" purity="5.0297462940216064e-01" nType="0">
          <Node pos="l" depth="2" NCoef="0" IVar="-1" Cut="0.0000000000000000e+00" cType="1" res="-5.4993649246171117e-04" rms="4.5308282971382141e-01" purity="4.1239795088768005e-01" nType="-99"/>
          <Node pos="r" depth="2" NCoef="0" IVar="-1" Cut="0.0000000000000000e+00" cType="1" res="6.9462670944631100e-04" rms="4.3950265645980835e-01" purity="6.5385371446609497e-01" nType="-99"/>
        </Node>
        <Node pos="r" depth="1" NCoef="0" IVar="-1" Cut="0.0000000000000000e+00" cType="1" res="-3.3010558690875769e-03" rms="4.5158952474594116e-01" purity="3.8072675466537476e-01" nType="-99"/>
      </Node>
    </BinaryTree>
    <BinaryTree type="DecisionTree" boostWeight="1.0000000000000000e+00" itree="716">
      <Node pos="s" depth="0" NCoef="0" IVar="1" Cut="2.2442069053649902e+00" cType="1" res="-1.5719289658591151e-03" rms="4.4855117797851562e-01" purity="5.0071239471435547e-01" nType="0">
        <Node pos="l" depth="1" NCoef="0" IVar="4" Cut="1.2006438970565796e+00" cType="1" res="9.8192626610398293e-03" rms="4.5899948477745056e-01" purity="5.9181708097457886e-01" nType="0">
          <Node pos="l" depth="2" NCoef="0" IVar="-1" Cut="0.0000000000000000e+00" cType="1" res="9.7448137239553034e-05" rms="4.5959132909774780e-01" purity="6.0650700330734253e-01" nType="-99"/>
          <Node pos="r" depth="2" NCoef="0" IVar="-1" Cut="0.0000000000000000e+00" cType="1" res="3.4218537621200085e-03" rms="4.4816538691520691e-01" purity="4.6106645464897156e-01" nType="-99"/>
        </Node>
        <Node pos="r" depth="1" NCoef="0" IVar="0" Cut="1.1191896057128906e+02" cType="1" res="-2.0311947911977768e-02" rms="4.3015551567077637e-01" purity="3.5083311796188354e-01" nType="0">
          <Node pos="l" depth="2" NCoef="0" IVar="-1" Cut="0.0000000000000000e+00" cType="1" res="-2.4617847520858049e-04" rms="4.2128527164459229e-01" purity="3.3428972959518433e-01" nType="-99"/>
          <Node pos="r" depth="2" NCoef="0" IVar="-1" Cut="0.0000000000000000e+00" cType="1" res="-2.4196999147534370e-03" rms="4.4617646932601929e-01" purity="3.8486993312835693e-01" nType="-99"/>
        </Node>
      </Node>
    </BinaryTree>
    <BinaryTree type="DecisionTree" boostWeight="1.0000000000000000e+00" itree="717">
      <Node pos="s" depth="0" NCoef="0" IVar="0" Cut="7.6544036865234375e+01" cType="1" res="-2.5243819691240788e-03" rms="4.5047512650489807e-01" purity="4.9207231402397156e-01" nType="0">
        <Node pos="l" depth="1" NCoef="0" IVar="2" Cut="9.6123069524765015e-01" cType="1" res="1.5181340277194977e-02" rms="4.5914888381958008e-01" purity="4.6989738941192627e-01" nType="0">
          <Node pos="l" depth="2" NCoef="0" IVar="-1" Cut="0.0000000000000000e+00" cType="1" res="1.3084161328151822e-03" rms="4.5591861009597778e-01" purity="4.1338312625885010e-01" nType="-99"/>
          <Node pos="r" depth="2" NCoef="0" IVar="-1" Cut="0.0000000000000000e+00" cType="1" res="-7.8177766408771276e-04" rms="4.6412289142608643e-01" purity="5.8830988407135010e-01" nType="-99"/>
        </Node>
        <Node pos="r" depth="1" NCoef="0" IVar="2" Cut="9.2403995990753174e-01" cType="1" res="-2.1697843447327614e-02" rms="4.4008728861808777e-01" purity="5.1608544588088989e-01" nType="0">
          <Node pos="l" depth="2" NCoef="0" IVar="-1" Cut="0.0000000000000000e+00" cType="1" res="-4.0655178017914295e-03" rms="4.2091846466064453e-01" purity="2.4806401133537292e-01" nType="-99"/>
          <Node pos="r" depth="2" NCoef="0" IVar="-1" Cut="0.0000000000000000e+00" cType="1" res="-4.3330556945875287e-04" rms="4.4229373335838318e-01" purity="5.6372356414794922e-01" nType="-99"/>
        </Node>
      </Node>
    </BinaryTree>
    <BinaryTree type="DecisionTree" boostWeight="1.0000000000000000e+00" itree="718">
      <Node pos="s" depth="0" NCoef="0" IVar="5" Cut="5.1647192239761353e-01" cType="1" res="2.6128191966563463e-03" rms="4.4767147302627563e-01" purity="5.0410366058349609e-01" nType="0">
        <Node pos="l" depth="1" NCoef="0" IVar="6" Cut="6.4823799133300781e+00" cType="1" res="-2.3782344534993172e-02" rms="4.6768510341644287e-01" purity="5.5261528491973877e-01" nType="0">
          <Node pos="l" depth="2" NCoef="0" IVar="-1" Cut="0.0000000000000000e+00" cType="1" res="1.3419864699244499e-03" rms="4.7844573855400085e-01" purity="4.7213876247406006e-01" nType="-99"/>
          <Node pos="r" depth="2" NCoef="0" IVar="-1" Cut="0.0000000000000000e+00" cType="1" res="-2.3603744339197874e-03" rms="4.5777618885040283e-01" purity="5.9993410110473633e-01" nType="-99"/>
        </Node>
        <Node pos="r" depth="1" NCoef="0" IVar="4" Cut="1.3421387672424316e+00" cType="1" res="8.8763795793056488e-03" rms="4.4255840778350830e-01" purity="4.9259188771247864e-01" nType="0">
          <Node pos="l" depth="2" NCoef="0" IVar="-1" Cut="0.0000000000000000e+00" cType="1" res="7.4080139165744185e-04" rms="4.5396807789802551e-01" purity="5.7412713766098022e-01" nType="-99"/>
          <Node pos="r" depth="2" NCoef="0" IVar="-1" Cut="0.0000000000000000e+00" cType="1" res="-8.6554588051512837e-04" rms="4.0739527344703674e-01" purity="2.6102775335311890e-01" nType="-99"/>
        </Node>
      </Node>
    </BinaryTree>
    <BinaryTree type="DecisionTree" boostWeight="1.0000000000000000e+00" itree="719">
      <Node pos="s" depth="0" NCoef="0" IVar="4" Cut="8.3536398410797119e-01" cType="1" res="2.7807713486254215e-03" rms="4.4678130745887756e-01" purity="5.0582534074783325e-01" nType="0">
        <Node pos="l" depth="1" NCoef="0" IVar="2" Cut="9.2936563491821289e-01" cType="1" res="2.2802682593464851e-02" rms="4.4188678264617920e-01" purity="6.6815221309661865e-01" nType="0">
          <Node pos="l" depth="2" NCoef="0" IVar="-1" Cut="0.0000000000000000e+00" cType="1" res="-1.2730626622214913e-03" rms="4.6901568770408630e-01" purity="4.2240318655967712e-01" nType="-99"/>
          <Node pos="r" depth="2" NCoef="0" IVar="-1" Cut="0.0000000000000000e+00" cType="1" res="1.4529643813148141e-03" rms="4.3581736087799072e-01" purity="7.1410053968429565e-01" nType="-99"/>
        </Node>
        <Node pos="r" depth="1" NCoef="0" IVar="3" Cut="1.0382363200187683e-01" cType="1" res="-8.6330249905586243e-03" rms="4.4914838671684265e-01" purity="4.1328850388526917e-01" nType="0">
          <Node pos="l" depth="2" NCoef="0" IVar="-1" Cut="0.0000000000000000e+00" cType="1" res="5.7604414905654266e-05" rms="4.4905072450637817e-01" purity="4.0820589661598206e-01" nType="-99"/>
          <Node pos="r" depth="2" NCoef="0" IVar="-1" Cut="0.0000000000000000e+00" cType="1" res="-2.5484410580247641e-03" rms="4.4661784172058105e-01" purity="4.3748337030410767e-01" nType="-99"/>
        </Node>
      </Node>
    </BinaryTree>
    <BinaryTree type="DecisionTree" boostWeight="1.0000000000000000e+00" itree="720">
      <Node pos="s" depth="0" NCoef="0" IVar="0" Cut="1.0200418090820312e+02" cType="1" res="-3.1219234224408865e-03" rms="4.5052406191825867e-01" purity="4.9713054299354553e-01" nType="0">
        <Node pos="l" depth="1" NCoef="0" IVar="1" Cut="2.2799358367919922e+00" cType="1" res="-1.4088029973208904e-02" rms="4.5657807588577271e-01" purity="4.6344035863876343e-01" nType="0">
          <Node pos="l" depth="2" NCoef="0" IVar="-1" Cut="0.0000000000000000e+00" cType="1" res="-9.4523909501731396e-04" rms="4.6898254752159119e-01" purity="5.1897001266479492e-01" nType="-99"/>
          <Node pos="r" depth="2" NCoef="0" IVar="-1" Cut="0.0000000000000000e+00" cType="1" res="4.9556937301531434e-04" rms="4.2264819145202637e-01" purity="3.2294195890426636e-01" nType="-99"/>
        </Node>
        <Node pos="r" depth="1" NCoef="0" IVar="6" Cut="5.7851805686950684e+00" cType="1" res="2.6881067082285881e-02" rms="4.3210855126380920e-01" purity="5.8930587768554688e-01" nType="0">
          <Node pos="l" depth="2" NCoef="0" IVar="-1" Cut="0.0000000000000000e+00" cType="1" res="-9.6386182121932507e-04" rms="4.3443220853805542e-01" purity="3.5000100731849670e-01" nType="-99"/>
          <Node pos="r" depth="2" NCoef="0" IVar="-1" Cut="0.0000000000000000e+00" cType="1" res="1.8633436411619186e-03" rms="4.3053099513053894e-01" purity="6.5342891216278076e-01" nType="-99"/>
        </Node>
      </Node>
    </BinaryTree>
    <BinaryTree type="DecisionTree" boostWeight="1.0000000000000000e+00" itree="721">
      <Node pos="s" depth="0" NCoef="0" IVar="2" Cut="9.5464247465133667e-01" cType="1" res="-3.8728388026356697e-03" rms="4.4886517524719238e-01" purity="4.9649509787559509e-01" nType="0">
        <Node pos="l" depth="1" NCoef="0" IVar="4" Cut="1.5141793489456177e+00" cType="1" res="-2.1556401625275612e-02" rms="4.5301771163940430e-01" purity="3.8593748211860657e-01" nType="0">
          <Node pos="l" depth="2" NCoef="0" IVar="-1" Cut="0.0000000000000000e+00" cType="1" res="-1.2195744784548879e-03" rms="4.6131962537765503e-01" purity="4.1125380992889404e-01" nType="-99"/>
          <Node pos="r" depth="2" NCoef="0" IVar="-1" Cut="0.0000000000000000e+00" cType="1" res="2.6667937636375427e-03" rms="3.8806596398353577e-01" purity="2.1756941080093384e-01" nType="-99"/>
        </Node>
        <Node pos="r" depth="1" NCoef="0" IVar="6" Cut="8.2411909103393555e+00" cType="1" res="1.9286358729004860e-02" rms="4.4229999184608459e-01" purity="6.4128649234771729e-01" nType="0">
          <Node pos="l" depth="2" NCoef="0" IVar="-1" Cut="0.0000000000000000e+00" cType="1" res="1.7175938701257110e-03" rms="4.5085042715072632e-01" purity="6.0947328805923462e-01" nType="-99"/>
          <Node pos="r" depth="2" NCoef="0" IVar="-1" Cut="0.0000000000000000e+00" cType="1" res="-4.0891065145842731e-04" rms="4.2881923913955688e-01" purity="6.8477189540863037e-01" nType="-99"/>
        </Node>
      </Node>
    </BinaryTree>
    <BinaryTree type="DecisionTree" boostWeight="1.0000000000000000e+00" itree="722">
      <Node pos="s" depth="0" NCoef="0" IVar="4" Cut="1.1576157808303833e+00" cType="1" res="-1.9895581062883139e-03" rms="4.4610199332237244e-01" purity="4.9763366580009460e-01" nType="0">
        <Node pos="l" depth="1" NCoef="0" IVar="4" Cut="4.9712306261062622e-01" cType="1" res="7.8788865357637405e-03" rms="4.5517715811729431e-01" purity="5.9745919704437256e-01" nType="0">
          <Node pos="l" depth="2" NCoef="0" IVar="-1" Cut="0.0000000000000000e+00" cType="1" res="-2.0581767894327641e-03" rms="4.4895860552787781e-01" purity="6.1972880363464355e-01" nType="-99"/>
          <Node pos="r" depth="2" NCoef="0" IVar="-1" Cut="0.0000000000000000e+00" cType="1" res="5.8542669285088778e-04" rms="4.5548236370086670e-01" purity="5.9481930732727051e-01" nType="-99"/>
        </Node>
        <Node pos="r" depth="1" NCoef="0" IVar="3" Cut="-1.2866537086665630e-02" cType="1" res="-2.1588373929262161e-02" rms="4.2683175206184387e-01" purity="2.9937928915023804e-01" nType="0">
          <Node pos="l" depth="2" NCoef="0" IVar="-1" Cut="0.0000000000000000e+00" cType="1" res="-2.5539326015859842e-03" rms="4.1456583142280579e-01" purity="2.5675851106643677e-01" nType="-99"/>
          <Node pos="r" depth="2" NCoef="0" IVar="-1" Cut="0.0000000000000000e+00" cType="1" res="1.2612062273547053e-03" rms="4.4324541091918945e-01" purity="3.7335690855979919e-01" nType="-99"/>
        </Node>
      </Node>
    </BinaryTree>
    <BinaryTree type="DecisionTree" boostWeight="1.0000000000000000e+00" itree="723">
      <Node pos="s" depth="0" NCoef="0" IVar="1" Cut="1.9653993844985962e+00" cType="1" res="-6.2170629389584064e-03" rms="4.4885557889938354e-01" purity="4.9191647768020630e-01" nType="0">
        <Node pos="l" depth="1" NCoef="0" IVar="6" Cut="6.0261931419372559e+00" cType="1" res="2.8946340084075928e-02" rms="4.6054333448410034e-01" purity="6.0114473104476929e-01" nType="0">
          <Node pos="l" depth="2" NCoef="0" IVar="-1" Cut="0.0000000000000000e+00" cType="1" res="2.8964364901185036e-03" rms="4.8530295491218567e-01" purity="4.8236998915672302e-01" nType="-99"/>
          <Node pos="r" depth="2" NCoef="0" IVar="-1" Cut="0.0000000000000000e+00" cType="1" res="5.1003077533096075e-04" rms="4.4968497753143311e-01" purity="6.4584118127822876e-01" nType="-99"/>
        </Node>
        <Node pos="r" depth="1" NCoef="0" IVar="7" Cut="6.6862094402313232e-01" cType="1" res="-1.7478980123996735e-02" rms="4.4445964694023132e-01" purity="4.5693352818489075e-01" nType="0">
          <Node pos="l" depth="2" NCoef="0" IVar="-1" Cut="0.0000000000000000e+00" cType="1" res="-5.9230218175798655e-04" rms="4.4465929269790649e-01" purity="4.5028659701347351e-01" nType="-99"/>
          <Node pos="r" depth="2" NCoef="0" IVar="-1" Cut="0.0000000000000000e+00" cType="1" res="-2.9174699448049068e-03" rms="4.3921518325805664e-01" purity="5.2964943647384644e-01" nType="-99"/>
        </Node>
      </Node>
    </BinaryTree>
    <BinaryTree type="DecisionTree" boostWeight="1.0000000000000000e+00" itree="724">
      <Node pos="s" depth="0" NCoef="0" IVar="7" Cut="5.8764404058456421e-01" cType="1" res="1.8675303726922721e-04" rms="4.5418125391006470e-01" purity="4.9782687425613403e-01" nType="0">
        <Node pos="l" depth="1" NCoef="0" IVar="0" Cut="6.0291538238525391e+01" cType="1" res="9.1720391064882278e-03" rms="4.4986853003501892e-01" purity="4.8680058121681213e-01" nType="0">
          <Node pos="l" depth="2" NCoef="0" IVar="-1" Cut="0.0000000000000000e+00" cType="1" res="1.4629742363467813e-03" rms="4.5070177316665649e-01" purity="4.5255661010742188e-01" nType="-99"/>
          <Node pos="r" depth="2" NCoef="0" IVar="-1" Cut="0.0000000000000000e+00" cType="1" res="-1.2980094470549375e-04" rms="4.4896274805068970e-01" purity="5.0439840555191040e-01" nType="-99"/>
        </Node>
        <Node pos="r" depth="1" NCoef="0" IVar="1" Cut="2.1751348972320557e+00" cType="1" res="-3.9559286087751389e-02" rms="4.7073397040367126e-01" purity="5.4660123586654663e-01" nType="0">
          <Node pos="l" depth="2" NCoef="0" IVar="-1" Cut="0.0000000000000000e+00" cType="1" res="-2.9046759009361267e-03" rms="4.6927434206008911e-01" purity="5.5680519342422485e-01" nType="-99"/>
          <Node pos="r" depth="2" NCoef="0" IVar="-1" Cut="0.0000000000000000e+00" cType="1" res="6.7394546931609511e-04" rms="4.6846204996109009e-01" purity="5.2747642993927002e-01" nType="-99"/>
        </Node>
      </Node>
    </BinaryTree>
    <BinaryTree type="DecisionTree" boostWeight="1.0000000000000000e+00" itree="725">
      <Node pos="s" depth="0" NCoef="0" IVar="0" Cut="1.5406120300292969e+02" cType="1" res="1.9568770658224821e-03" rms="4.4611564278602600e-01" purity="4.9942183494567871e-01" nType="0">
        <Node pos="l" depth="1" NCoef="0" IVar="4" Cut="1.5553160905838013e+00" cType="1" res="5.5343015119433403e-03" rms="4.4716244935989380e-01" purity="5.0514137744903564e-01" nType="0">
          <Node pos="l" depth="2" NCoef="0" IVar="-1" Cut="0.0000000000000000e+00" cType="1" res="4.5562218292616308e-04" rms="4.5612215995788574e-01" purity="5.4366463422775269e-01" nType="-99"/>
          <Node pos="r" depth="2" NCoef="0" IVar="-1" Cut="0.0000000000000000e+00" cType="1" res="-2.3770674597471952e-03" rms="3.6000823974609375e-01" purity="1.8006907403469086e-01" nType="-99"/>
        </Node>
        <Node pos="r" depth="1" NCoef="0" IVar="-1" Cut="0.0000000000000000e+00" cType="1" res="-3.0579031445086002e-03" rms="4.2133769392967224e-01" purity="3.9531517028808594e-01" nType="-99"/>
      </Node>
    </BinaryTree>
    <BinaryTree type="DecisionTree" boostWeight="1.0000000000000000e+00" itree="726">
      <Node pos="s" depth="0" NCoef="0" IVar="6" Cut="6.8672389984130859e+00" cType="1" res="5.9320046566426754e-03" rms="4.5569843053817749e-01" purity="5.0538867712020874e-01" nType="0">
        <Node pos="l" depth="1" NCoef="0" IVar="6" Cut="6.2012009620666504e+00" cType="1" res="2.5907978415489197e-02" rms="4.5872533321380615e-01" purity="4.1872096061706543e-01" nType="0">
          <Node pos="l" depth="2" NCoef="0" IVar="-1" Cut="0.0000000000000000e+00" cType="1" res="1.2434062955435365e-04" rms="4.5333036780357361e-01" purity="3.5388213396072388e-01" nType="-99"/>
          <Node pos="r" depth="2" NCoef="0" IVar="-1" Cut="0.0000000000000000e+00" cType="1" res="2.8377606067806482e-03" rms="4.6552330255508423e-01" purity="5.3839081525802612e-01" nType="-99"/>
        </Node>
        <Node pos="r" depth="1" NCoef="0" IVar="0" Cut="4.2308712005615234e+01" cType="1" res="-1.5575508587062359e-02" rms="4.5142969489097595e-01" purity="5.9870117902755737e-01" nType="0">
          <Node pos="l" depth="2" NCoef="0" IVar="-1" Cut="0.0000000000000000e+00" cType="1" res="-4.0453607216477394e-03" rms="4.5061862468719482e-01" purity="3.9444267749786377e-01" nType="-99"/>
          <Node pos="r" depth="2" NCoef="0" IVar="-1" Cut="0.0000000000000000e+00" cType="1" res="-2.1439936244860291e-04" rms="4.5047494769096375e-01" purity="6.2686228752136230e-01" nType="-99"/>
        </Node>
      </Node>
    </BinaryTree>
    <BinaryTree type="DecisionTree" boostWeight="1.0000000000000000e+00" itree="727">
      <Node pos="s" depth="0" NCoef="0" IVar="2" Cut="9.8089885711669922e-01" cType="1" res="-3.0621197074651718e-03" rms="4.4828125834465027e-01" purity="4.9999243021011353e-01" nType="0">
        <Node pos="l" depth="1" NCoef="0" IVar="3" Cut="8.2898549735546112e-02" cType="1" res="-9.2483656480908394e-03" rms="4.5400997996330261e-01" purity="4.7008943557739258e-01" nType="0">
          <Node pos="l" depth="2" NCoef="0" IVar="-1" Cut="0.0000000000000000e+00" cType="1" res="-9.9534017499536276e-04" rms="4.5005404949188232e-01" purity="4.3076035380363464e-01" nType="-99"/>
          <Node pos="r" depth="2" NCoef="0" IVar="-1" Cut="0.0000000000000000e+00" cType="1" res="8.6211104644462466e-04" rms="4.6143174171447754e-01" purity="5.5928552150726318e-01" nType="-99"/>
        </Node>
        <Node pos="r" depth="1" NCoef="0" IVar="-1" Cut="0.0000000000000000e+00" cType="1" res="2.7543988544493914e-03" rms="3.8757210969924927e-01" purity="7.7306556701660156e-01" nType="-99"/>
      </Node>
    </BinaryTree>
    <BinaryTree type="DecisionTree" boostWeight="1.0000000000000000e+00" itree="728">
      <Node pos="s" depth="0" NCoef="0" IVar="1" Cut="2.0108060836791992e+00" cType="1" res="-8.9585157111287117e-03" rms="4.5040845870971680e-01" purity="4.8996716737747192e-01" nType="0">
        <Node pos="l" depth="1" NCoef="0" IVar="2" Cut="9.5396238565444946e-01" cType="1" res="1.2566342018544674e-02" rms="4.5798742771148682e-01" purity="5.9603321552276611e-01" nType="0">
          <Node pos="l" depth="2" NCoef="0" IVar="-1" Cut="0.0000000000000000e+00" cType="1" res="1.3315886026248336e-03" rms="4.6898964047431946e-01" purity="5.1996040344238281e-01" nType="-99"/>
          <Node pos="r" depth="2" NCoef="0" IVar="-1" Cut="0.0000000000000000e+00" cType="1" res="-5.6841096375137568e-04" rms="4.4400566816329956e-01" purity="6.8126201629638672e-01" nType="-99"/>
        </Node>
        <Node pos="r" depth="1" NCoef="0" IVar="3" Cut="-7.1414932608604431e-02" cType="1" res="-1.8328595906496048e-02" rms="4.4674521684646606e-01" purity="4.4379511475563049e-01" nType="0">
          <Node pos="l" depth="2" NCoef="0" IVar="-1" Cut="0.0000000000000000e+00" cType="1" res="-2.3234898690134287e-03" rms="4.2290660738945007e-01" purity="3.5419571399688721e-01" nType="-99"/>
          <Node pos="r" depth="2" NCoef="0" IVar="-1" Cut="0.0000000000000000e+00" cType="1" res="-2.5996146723628044e-04" rms="4.5603340864181519e-01" purity="4.8229140043258667e-01" nType="-99"/>
        </Node>
      </Node>
    </BinaryTree>
    <BinaryTree type="DecisionTree" boostWeight="1.0000000000000000e+00" itree="729">
      <Node pos="s" depth="0" NCoef="0" IVar="1" Cut="1.7276433706283569e+00" cType="1" res="5.0879293121397495e-03" rms="4.4880267977714539e-01" purity="5.0134038925170898e-01" nType="0">
        <Node pos="l" depth="1" NCoef="0" IVar="-1" Cut="0.0000000000000000e+00" cType="1" res="-2.3510286118835211e-03" rms="4.5276257395744324e-01" purity="4.6331477165222168e-01" nType="-99"/>
        <Node pos="r" depth="1" NCoef="0" IVar="1" Cut="2.3681638240814209e+00" cType="1" res="9.1636795550584793e-03" rms="4.4824010133743286e-01" purity="5.0377339124679565e-01" nType="0">
          <Node pos="l" depth="2" NCoef="0" IVar="-1" Cut="0.0000000000000000e+00" cType="1" res="7.9280463978648186e-04" rms="4.5825642347335815e-01" purity="5.8215653896331787e-01" nType="-99"/>
          <Node pos="r" depth="2" NCoef="0" IVar="-1" Cut="0.0000000000000000e+00" cType="1" res="-8.4899290231987834e-04" rms="4.1921964287757874e-01" purity="2.9422023892402649e-01" nType="-99"/>
        </Node>
      </Node>
    </BinaryTree>
    <BinaryTree type="DecisionTree" boostWeight="1.0000000000000000e+00" itree="730">
      <Node pos="s" depth="0" NCoef="0" IVar="6" Cut="7.4215960502624512e+00" cType="1" res="9.0336371213197708e-03" rms="4.5321124792098999e-01" purity="5.1077717542648315e-01" nType="0">
        <Node pos="l" depth="1" NCoef="0" IVar="5" Cut="5.6327748298645020e-01" cType="1" res="2.4318447336554527e-02" rms="4.5908305048942566e-01" purity="4.4424232840538025e-01" nType="0">
          <Node pos="l" depth="2" NCoef="0" IVar="-1" Cut="0.0000000000000000e+00" cType="1" res="-9.6406682860106230e-04" rms="4.6846184134483337e-01" purity="4.7642004489898682e-01" nType="-99"/>
          <Node pos="r" depth="2" NCoef="0" IVar="-1" Cut="0.0000000000000000e+00" cType="1" res="1.7468234291300178e-03" rms="4.5504960417747498e-01" purity="4.3434271216392517e-01" nType="-99"/>
        </Node>
        <Node pos="r" depth="1" NCoef="0" IVar="0" Cut="1.0355275726318359e+02" cType="1" res="-1.8362775444984436e-02" rms="4.4116851687431335e-01" purity="6.3003385066986084e-01" nType="0">
          <Node pos="l" depth="2" NCoef="0" IVar="-1" Cut="0.0000000000000000e+00" cType="1" res="-1.6913498984649777e-03" rms="4.5739641785621643e-01" purity="5.9014230966567993e-01" nType="-99"/>
          <Node pos="r" depth="2" NCoef="0" IVar="-1" Cut="0.0000000000000000e+00" cType="1" res="1.4719933969900012e-03" rms="3.9596503973007202e-01" purity="7.2500795125961304e-01" nType="-99"/>
        </Node>
      </Node>
    </BinaryTree>
    <BinaryTree type="DecisionTree" boostWeight="1.0000000000000000e+00" itree="731">
      <Node pos="s" depth="0" NCoef="0" IVar="6" Cut="8.4903240203857422e+00" cType="1" res="-4.6399366110563278e-03" rms="4.4865125417709351e-01" purity="4.9452477693557739e-01" nType="0">
        <Node pos="l" depth="1" NCoef="0" IVar="4" Cut="8.7537932395935059e-01" cType="1" res="-1.2409096583724022e-02" rms="4.5640760660171509e-01" purity="4.5213586091995239e-01" nType="0">
          <Node pos="l" depth="2" NCoef="0" IVar="-1" Cut="0.0000000000000000e+00" cType="1" res="-1.4049172168597579e-03" rms="4.7050663828849792e-01" purity="5.6340503692626953e-01" nType="-99"/>
          <Node pos="r" depth="2" NCoef="0" IVar="-1" Cut="0.0000000000000000e+00" cType="1" res="6.4323052356485277e-05" rms="4.4720628857612610e-01" purity="3.8569429516792297e-01" nType="-99"/>
        </Node>
        <Node pos="r" depth="1" NCoef="0" IVar="6" Cut="9.2121677398681641e+00" cType="1" res="3.9394676685333252e-02" rms="3.9902198314666748e-01" purity="7.3477983474731445e-01" nType="0">
          <Node pos="l" depth="2" NCoef="0" IVar="-1" Cut="0.0000000000000000e+00" cType="1" res="3.4029334783554077e-03" rms="3.8567987084388733e-01" purity="7.5045448541641235e-01" nType="-99"/>
          <Node pos="r" depth="2" NCoef="0" IVar="-1" Cut="0.0000000000000000e+00" cType="1" res="-3.4928371314890683e-04" rms="4.1323971748352051e-01" purity="7.1213716268539429e-01" nType="-99"/>
        </Node>
      </Node>
    </BinaryTree>
    <BinaryTree type="DecisionTree" boostWeight="1.0000000000000000e+00" itree="732">
      <Node pos="s" depth="0" NCoef="0" IVar="6" Cut="5.4476709365844727e+00" cType="1" res="-3.1682916451245546e-03" rms="4.5113116502761841e-01" purity="4.9798089265823364e-01" nType="0">
        <Node pos="l" depth="1" NCoef="0" IVar="4" Cut="1.1400259733200073e+00" cType="1" res="-4.2767148464918137e-02" rms="4.1004374623298645e-01" purity="2.4880047142505646e-01" nType="0">
          <Node pos="l" depth="2" NCoef="0" IVar="-1" Cut="0.0000000000000000e+00" cType="1" res="-2.6390769053250551e-03" rms="4.3153807520866394e-01" purity="2.9780891537666321e-01" nType="-99"/>
          <Node pos="r" depth="2" NCoef="0" IVar="-1" Cut="0.0000000000000000e+00" cType="1" res="-4.8763828817754984e-04" rms="3.7281498312950134e-01" purity="1.7550309002399445e-01" nType="-99"/>
        </Node>
        <Node pos="r" depth="1" NCoef="0" IVar="7" Cut="3.0202278494834900e-01" cType="1" res="3.5848002880811691e-03" rms="4.5742812752723694e-01" purity="5.4047548770904541e-01" nType="0">
          <Node pos="l" depth="2" NCoef="0" IVar="-1" Cut="0.0000000000000000e+00" cType="1" res="1.2828584294766188e-03" rms="4.5225140452384949e-01" purity="4.8944762349128723e-01" nType="-99"/>
          <Node pos="r" depth="2" NCoef="0" IVar="-1" Cut="0.0000000000000000e+00" cType="1" res="-3.7767799221910536e-04" rms="4.5952075719833374e-01" purity="5.6619656085968018e-01" nType="-99"/>
        </Node>
      </Node>
    </BinaryTree>
    <BinaryTree type="DecisionTree" boostWeight="1.0000000000000000e+00" itree="733">
      <Node pos="s" depth="0" NCoef="0" IVar="2" Cut="9.6368265151977539e-01" cType="1" res="4.5534591190516949e-03" rms="4.4980886578559875e-01" purity="5.0565332174301147e-01" nType="0">
        <Node pos="l" depth="1" NCoef="0" IVar="2" Cut="9.5065808296203613e-01" cType="1" res="-4.4185421429574490e-03" rms="4.5790144801139832e-01" purity="4.3231153488159180e-01" nType="0">
          <Node pos="l" depth="2" NCoef="0" IVar="-1" Cut="0.0000000000000000e+00" cType="1" res="5.1640288438647985e-04" rms="4.5121231675148010e-01" purity="4.0182128548622131e-01" nType="-99"/>
          <Node pos="r" depth="2" NCoef="0" IVar="-1" Cut="0.0000000000000000e+00" cType="1" res="-1.8692673183977604e-03" rms="4.7128283977508545e-01" purity="5.0553697347640991e-01" nType="-99"/>
        </Node>
        <Node pos="r" depth="1" NCoef="0" IVar="6" Cut="8.2762107849121094e+00" cType="1" res="2.6729099452495575e-02" rms="4.2834705114364624e-01" purity="6.8692845106124878e-01" nType="0">
          <Node pos="l" depth="2" NCoef="0" IVar="-1" Cut="0.0000000000000000e+00" cType="1" res="2.5817360728979111e-03" rms="4.4175535440444946e-01" purity="6.6806936264038086e-01" nType="-99"/>
          <Node pos="r" depth="2" NCoef="0" IVar="-1" Cut="0.0000000000000000e+00" cType="1" res="1.8687018018681556e-04" rms="4.1705629229545593e-01" purity="7.0028316974639893e-01" nType="-99"/>
        </Node>
      </Node>
    </BinaryTree>
    <BinaryTree type="DecisionTree" boostWeight="1.0000000000000000e+00" itree="734">
      <Node pos="s" depth="0" NCoef="0" IVar="7" Cut="3.5791215300559998e-01" cType="1" res="1.0894318111240864e-02" rms="4.4783493876457214e-01" purity="5.0944596529006958e-01" nType="0">
        <Node pos="l" depth="1" NCoef="0" IVar="7" Cut="3.2513865828514099e-01" cType="1" res="-7.2701340541243553e-03" rms="4.3686085939407349e-01" purity="4.3258330225944519e-01" nType="0">
          <Node pos="l" depth="2" NCoef="0" IVar="-1" Cut="0.0000000000000000e+00" cType="1" res="1.5802256530150771e-04" rms="4.3734422326087952e-01" purity="4.3304958939552307e-01" nType="-99"/>
          <Node pos="r" depth="2" NCoef="0" IVar="-1" Cut="0.0000000000000000e+00" cType="1" res="-3.3608705271035433e-03" rms="4.2814490199089050e-01" purity="4.2972055077552795e-01" nType="-99"/>
        </Node>
        <Node pos="r" depth="1" NCoef="0" IVar="6" Cut="8.6255187988281250e+00" cType="1" res="2.5568787008523941e-02" rms="4.5597982406616211e-01" purity="5.7154083251953125e-01" nType="0">
          <Node pos="l" depth="2" NCoef="0" IVar="-1" Cut="0.0000000000000000e+00" cType="1" res="1.4042636612430215e-03" rms="4.6041044592857361e-01" purity="5.4936742782592773e-01" nType="-99"/>
          <Node pos="r" depth="2" NCoef="0" IVar="-1" Cut="0.0000000000000000e+00" cType="1" res="-1.3982063392177224e-03" rms="4.2355296015739441e-01" purity="7.1051400899887085e-01" nType="-99"/>
        </Node>
      </Node>
    </BinaryTree>
    <BinaryTree type="DecisionTree" boostWeight="1.0000000000000000e+00" itree="735">
      <Node pos="s" depth="0" NCoef="0" IVar="6" Cut="7.0545091629028320e+00" cType="1" res="1.1295008473098278e-02" rms="4.4871410727500916e-01" purity="5.1563203334808350e-01" nType="0">
        <Node pos="l" depth="1" NCoef="0" IVar="1" Cut="2.5360505580902100e+00" cType="1" res="-4.9273720942437649e-03" rms="4.5646005868911743e-01" purity="3.9660483598709106e-01" nType="0">
          <Node pos="l" depth="2" NCoef="0" IVar="-1" Cut="0.0000000000000000e+00" cType="1" res="-5.7914486387744546e-04" rms="4.6537137031555176e-01" purity="4.2850765585899353e-01" nType="-99"/>
          <Node pos="r" depth="2" NCoef="0" IVar="-1" Cut="0.0000000000000000e+00" cType="1" res="2.9031126759946346e-03" rms="4.0204313397407532e-01" purity="2.2642546892166138e-01" nType="-99"/>
        </Node>
        <Node pos="r" depth="1" NCoef="0" IVar="5" Cut="9.1660434007644653e-01" cType="1" res="3.1757190823554993e-02" rms="4.3789246678352356e-01" purity="6.6576761007308960e-01" nType="0">
          <Node pos="l" depth="2" NCoef="0" IVar="-1" Cut="0.0000000000000000e+00" cType="1" res="8.8563619647175074e-04" rms="4.3523722887039185e-01" purity="6.8570542335510254e-01" nType="-99"/>
          <Node pos="r" depth="2" NCoef="0" IVar="-1" Cut="0.0000000000000000e+00" cType="1" res="2.7992790564894676e-03" rms="4.4285991787910461e-01" purity="6.1633139848709106e-01" nType="-99"/>
        </Node>
      </Node>
    </BinaryTree>
    <BinaryTree type="DecisionTree" boostWeight="1.0000000000000000e+00" itree="736">
      <Node pos="s" depth="0" NCoef="0" IVar="7" Cut="6.0420894622802734e-01" cType="1" res="5.5974666029214859e-03" rms="4.4958978891372681e-01" purity="5.0594800710678101e-01" nType="0">
        <Node pos="l" depth="1" NCoef="0" IVar="0" Cut="1.0200418090820312e+02" cType="1" res="-1.0854466818273067e-03" rms="4.4972139596939087e-01" purity="4.8118725419044495e-01" nType="0">
          <Node pos="l" depth="2" NCoef="0" IVar="-1" Cut="0.0000000000000000e+00" cType="1" res="-4.5126365148462355e-04" rms="4.5112949609756470e-01" purity="4.4532674551010132e-01" nType="-99"/>
          <Node pos="r" depth="2" NCoef="0" IVar="-1" Cut="0.0000000000000000e+00" cType="1" res="1.0431574191898108e-03" rms="4.4519987702369690e-01" purity="5.7369363307952881e-01" nType="-99"/>
        </Node>
        <Node pos="r" depth="1" NCoef="0" IVar="7" Cut="6.5876430273056030e-01" cType="1" res="3.7992067635059357e-02" rms="4.4753924012184143e-01" purity="6.2597274780273438e-01" nType="0">
          <Node pos="l" depth="2" NCoef="0" IVar="-1" Cut="0.0000000000000000e+00" cType="1" res="3.4467198420315981e-03" rms="4.5824891328811646e-01" purity="6.5346866846084595e-01" nType="-99"/>
          <Node pos="r" depth="2" NCoef="0" IVar="-1" Cut="0.0000000000000000e+00" cType="1" res="4.8248900566250086e-04" rms="4.3864202499389648e-01" purity="6.0880559682846069e-01" nType="-99"/>
        </Node>
      </Node>
    </BinaryTree>
    <BinaryTree type="DecisionTree" boostWeight="1.0000000000000000e+00" itree="737">
      <Node pos="s" depth="0" NCoef="0" IVar="4" Cut="1.3520127534866333e+00" cType="1" res="1.4840313233435154e-03" rms="4.5031076669692993e-01" purity="5.0466120243072510e-01" nType="0">
        <Node pos="l" depth="1" NCoef="0" IVar="7" Cut="6.2640345096588135e-01" cType="1" res="-6.8774018436670303e-03" rms="4.5580270886421204e-01" purity="5.5857443809509277e-01" nType="0">
          <Node pos="l" depth="2" NCoef="0" IVar="-1" Cut="0.0000000000000000e+00" cType="1" res="-7.2177412221208215e-04" rms="4.5590323209762573e-01" purity="5.4108017683029175e-01" nType="-99"/>
          <Node pos="r" depth="2" NCoef="0" IVar="-1" Cut="0.0000000000000000e+00" cType="1" res="1.7073425697162747e-03" rms="4.5223897695541382e-01" purity="6.4302343130111694e-01" nType="-99"/>
        </Node>
        <Node pos="r" depth="1" NCoef="0" IVar="4" Cut="1.7289493083953857e+00" cType="1" res="3.3859599381685257e-02" rms="4.2684012651443481e-01" purity="2.9590839147567749e-01" nType="0">
          <Node pos="l" depth="2" NCoef="0" IVar="-1" Cut="0.0000000000000000e+00" cType="1" res="2.8260820545256138e-03" rms="4.5368599891662598e-01" purity="3.5200047492980957e-01" nType="-99"/>
          <Node pos="r" depth="2" NCoef="0" IVar="-1" Cut="0.0000000000000000e+00" cType="1" res="-1.7546764574944973e-03" rms="3.3969971537590027e-01" purity="1.4800463616847992e-01" nType="-99"/>
        </Node>
      </Node>
    </BinaryTree>
    <BinaryTree type="DecisionTree" boostWeight="1.0000000000000000e+00" itree="738">
      <Node pos="s" depth="0" NCoef="0" IVar="4" Cut="4.7781744599342346e-01" cType="1" res="4.3753135832957923e-04" rms="4.4518458843231201e-01" purity="5.0488233566284180e-01" nType="0">
        <Node pos="l" depth="1" NCoef="0" IVar="-1" Cut="0.0000000000000000e+00" cType="1" res="2.7126828208565712e-03" rms="4.1916275024414062e-01" purity="7.2433125972747803e-01" nType="-99"/>
        <Node pos="r" depth="1" NCoef="0" IVar="0" Cut="5.5421657562255859e+01" cType="1" res="-3.4126196987926960e-03" rms="4.4649964570999146e-01" purity="4.9100881814956665e-01" nType="0">
          <Node pos="l" depth="2" NCoef="0" IVar="-1" Cut="0.0000000000000000e+00" cType="1" res="-1.2764008715748787e-03" rms="4.5287698507308960e-01" purity="3.9981898665428162e-01" nType="-99"/>
          <Node pos="r" depth="2" NCoef="0" IVar="-1" Cut="0.0000000000000000e+00" cType="1" res="2.9016789630986750e-04" rms="4.4358688592910767e-01" purity="5.2669167518615723e-01" nType="-99"/>
        </Node>
      </Node>
    </BinaryTree>
    <BinaryTree type="DecisionTree" boostWeight="1.0000000000000000e+00" itree="739">
      <Node pos="s" depth="0" NCoef="0" IVar="7" Cut="7.1434372663497925e-01" cType="1" res="-1.0290393605828285e-02" rms="4.4519120454788208e-01" purity="4.9070489406585693e-01" nType="0">
        <Node pos="l" depth="1" NCoef="0" IVar="1" Cut="2.7512404918670654e+00" cType="1" res="-1.4988302253186703e-02" rms="4.4551059603691101e-01" purity="4.7787615656852722e-01" nType="0">
          <Node pos="l" depth="2" NCoef="0" IVar="-1" Cut="0.0000000000000000e+00" cType="1" res="-4.7273776726797223e-04" rms="4.5370146632194519e-01" purity="5.0170665979385376e-01" nType="-99"/>
          <Node pos="r" depth="2" NCoef="0" IVar="-1" Cut="0.0000000000000000e+00" cType="1" res="-7.1175894699990749e-03" rms="2.6147031784057617e-01" purity="7.4144355952739716e-02" nType="-99"/>
        </Node>
        <Node pos="r" depth="1" NCoef="0" IVar="-1" Cut="0.0000000000000000e+00" cType="1" res="2.4366490542888641e-03" rms="4.3477839231491089e-01" purity="6.7777287960052490e-01" nType="-99"/>
      </Node>
    </BinaryTree>
    <BinaryTree type="DecisionTree" boostWeight="1.0000000000000000e+00" itree="740">
      <Node pos="s" depth="0" NCoef="0" IVar="4" Cut="6.4875715970993042e-01" cType="1" res="-3.3081113360822201e-04" rms="4.4660866260528564e-01" purity="5.0055378675460815e-01" nType="0">
        <Node pos="l" depth="1" NCoef="0" IVar="3" Cut="1.5001060068607330e-01" cType="1" res="3.4853972494602203e-02" rms="4.3489518761634827e-01" purity="6.9171863794326782e-01" nType="0">
          <Node pos="l" depth="2" NCoef="0" IVar="-1" Cut="0.0000000000000000e+00" cType="1" res="2.4454409722238779e-03" rms="4.3203201889991760e-01" purity="7.1046233177185059e-01" nType="-99"/>
          <Node pos="r" depth="2" NCoef="0" IVar="-1" Cut="0.0000000000000000e+00" cType="1" res="-3.5395662416703999e-04" rms="4.3695816397666931e-01" purity="6.5482872724533081e-01" nType="-99"/>
        </Node>
        <Node pos="r" depth="1" NCoef="0" IVar="0" Cut="6.0237709045410156e+01" cType="1" res="-7.9451035708189011e-03" rms="4.4874039292335510e-01" purity="4.5918399095535278e-01" nType="0">
          <Node pos="l" depth="2" NCoef="0" IVar="-1" Cut="0.0000000000000000e+00" cType="1" res="-1.2523918412625790e-03" rms="4.4326505064964294e-01" purity="3.8201841711997986e-01" nType="-99"/>
          <Node pos="r" depth="2" NCoef="0" IVar="-1" Cut="0.0000000000000000e+00" cType="1" res="8.6879852460697293e-05" rms="4.5114406943321228e-01" purity="4.9797475337982178e-01" nType="-99"/>
        </Node>
      </Node>
    </BinaryTree>
    <BinaryTree type="DecisionTree" boostWeight="1.0000000000000000e+00" itree="741">
      <Node pos="s" depth="0" NCoef="0" IVar="6" Cut="8.1901903152465820e+00" cType="1" res="-1.2774439528584480e-02" rms="4.5360732078552246e-01" purity="4.8779425024986267e-01" nType="0">
        <Node pos="l" depth="1" NCoef="0" IVar="2" Cut="9.6117603778839111e-01" cType="1" res="-2.3856160696595907e-03" rms="4.5543414354324341e-01" purity="4.5269212126731873e-01" nType="0">
          <Node pos="l" depth="2" NCoef="0" IVar="-1" Cut="0.0000000000000000e+00" cType="1" res="-5.0020532216876745e-04" rms="4.5803573727607727e-01" purity="4.1679722070693970e-01" nType="-99"/>
          <Node pos="r" depth="2" NCoef="0" IVar="-1" Cut="0.0000000000000000e+00" cType="1" res="1.6910232370719314e-03" rms="4.4153374433517456e-01" purity="6.0950374603271484e-01" nType="-99"/>
        </Node>
        <Node pos="r" depth="1" NCoef="0" IVar="6" Cut="9.1904144287109375e+00" cType="1" res="-5.6410301476716995e-02" rms="4.4320085644721985e-01" purity="6.3523268699645996e-01" nType="0">
          <Node pos="l" depth="2" NCoef="0" IVar="-1" Cut="0.0000000000000000e+00" cType="1" res="-4.1036373004317284e-03" rms="4.5233318209648132e-01" purity="5.9252208471298218e-01" nType="-99"/>
          <Node pos="r" depth="2" NCoef="0" IVar="-1" Cut="0.0000000000000000e+00" cType="1" res="1.4831367479928304e-05" rms="4.1817820072174072e-01" purity="7.2282582521438599e-01" nType="-99"/>
        </Node>
      </Node>
    </BinaryTree>
    <BinaryTree type="DecisionTree" boostWeight="1.0000000000000000e+00" itree="742">
      <Node pos="s" depth="0" NCoef="0" IVar="6" Cut="6.9848437309265137e+00" cType="1" res="2.2258471290115267e-04" rms="4.4994539022445679e-01" purity="5.0121712684631348e-01" nType="0">
        <Node pos="l" depth="1" NCoef="0" IVar="5" Cut="1.1602426767349243e+00" cType="1" res="1.3371205888688564e-02" rms="4.5587292313575745e-01" purity="4.0951314568519592e-01" nType="0">
          <Node pos="l" depth="2" NCoef="0" IVar="-1" Cut="0.0000000000000000e+00" cType="1" res="8.6426071356981993e-04" rms="4.5891997218132019e-01" purity="4.2703190445899963e-01" nType="-99"/>
          <Node pos="r" depth="2" NCoef="0" IVar="-1" Cut="0.0000000000000000e+00" cType="1" res="-2.1700775250792503e-03" rms="4.2410871386528015e-01" purity="2.5786751508712769e-01" nType="-99"/>
        </Node>
        <Node pos="r" depth="1" NCoef="0" IVar="2" Cut="9.6850937604904175e-01" cType="1" res="-1.4750244095921516e-02" rms="4.4262352585792542e-01" purity="6.0564386844635010e-01" nType="0">
          <Node pos="l" depth="2" NCoef="0" IVar="-1" Cut="0.0000000000000000e+00" cType="1" res="-1.6218058299273252e-03" rms="4.6369609236717224e-01" purity="5.3012102842330933e-01" nType="-99"/>
          <Node pos="r" depth="2" NCoef="0" IVar="-1" Cut="0.0000000000000000e+00" cType="1" res="4.8516367678530514e-04" rms="4.1841244697570801e-01" purity="6.8329846858978271e-01" nType="-99"/>
        </Node>
      </Node>
    </BinaryTree>
    <BinaryTree type="DecisionTree" boostWeight="1.0000000000000000e+00" itree="743">
      <Node pos="s" depth="0" NCoef="0" IVar="0" Cut="5.9883750915527344e+01" cType="1" res="5.4994542151689529e-03" rms="4.5336127281188965e-01" purity="5.0621634721755981e-01" nType="0">
        <Node pos="l" depth="1" NCoef="0" IVar="2" Cut="9.6758794784545898e-01" cType="1" res="2.0631097257137299e-02" rms="4.5550680160522461e-01" purity="4.6141839027404785e-01" nType="0">
          <Node pos="l" depth="2" NCoef="0" IVar="-1" Cut="0.0000000000000000e+00" cType="1" res="1.4576768735423684e-03" rms="4.5623698830604553e-01" purity="4.2430448532104492e-01" nType="-99"/>
          <Node pos="r" depth="2" NCoef="0" IVar="-1" Cut="0.0000000000000000e+00" cType="1" res="-9.7124231979250908e-04" rms="4.5059126615524292e-01" purity="5.8082878589630127e-01" nType="-99"/>
        </Node>
        <Node pos="r" depth="1" NCoef="0" IVar="1" Cut="2.6560897827148438e+00" cType="1" res="-2.4317526258528233e-03" rms="4.5203033089637756e-01" purity="5.2969706058502197e-01" nType="0">
          <Node pos="l" depth="2" NCoef="0" IVar="-1" Cut="0.0000000000000000e+00" cType="1" res="-3.9747776463627815e-04" rms="4.5573595166206360e-01" purity="5.6140905618667603e-01" nType="-99"/>
          <Node pos="r" depth="2" NCoef="0" IVar="-1" Cut="0.0000000000000000e+00" cType="1" res="3.6542732268571854e-03" rms="4.1384831070899963e-01" purity="2.5465944409370422e-01" nType="-99"/>
        </Node>
      </Node>
    </BinaryTree>
    <BinaryTree type="DecisionTree" boostWeight="1.0000000000000000e+00" itree="744">
      <Node pos="s" depth="0" NCoef="0" IVar="3" Cut="1.2349882721900940e-01" cType="1" res="-7.2028995491564274e-03" rms="4.4869396090507507e-01" purity="4.8962104320526123e-01" nType="0">
        <Node pos="l" depth="1" NCoef="0" IVar="4" Cut="5.7779550552368164e-01" cType="1" res="1.4470542082563043e-03" rms="4.4887292385101318e-01" purity="4.7595307230949402e-01" nType="0">
          <Node pos="l" depth="2" NCoef="0" IVar="-1" Cut="0.0000000000000000e+00" cType="1" res="2.3355553857982159e-03" rms="4.3733614683151245e-01" purity="7.1377062797546387e-01" nType="-99"/>
          <Node pos="r" depth="2" NCoef="0" IVar="-1" Cut="0.0000000000000000e+00" cType="1" res="-2.3783864162396640e-04" rms="4.4982588291168213e-01" purity="4.4660323858261108e-01" nType="-99"/>
        </Node>
        <Node pos="r" depth="1" NCoef="0" IVar="2" Cut="9.4958084821701050e-01" cType="1" res="-3.9380807429552078e-02" rms="4.4655895233154297e-01" purity="5.4046601057052612e-01" nType="0">
          <Node pos="l" depth="2" NCoef="0" IVar="-1" Cut="0.0000000000000000e+00" cType="1" res="-2.6322186458855867e-03" rms="4.5463275909423828e-01" purity="3.9374807476997375e-01" nType="-99"/>
          <Node pos="r" depth="2" NCoef="0" IVar="-1" Cut="0.0000000000000000e+00" cType="1" res="-4.7251558862626553e-04" rms="4.3641906976699829e-01" purity="6.8550354242324829e-01" nType="-99"/>
        </Node>
      </Node>
    </BinaryTree>
    <BinaryTree type="DecisionTree" boostWeight="1.0000000000000000e+00" itree="745">
      <Node pos="s" depth="0" NCoef="0" IVar="3" Cut="-1.0990998893976212e-01" cType="1" res="8.6482375627383590e-04" rms="4.5017367601394653e-01" purity="5.0174254179000854e-01" nType="0">
        <Node pos="l" depth="1" NCoef="0" IVar="-1" Cut="0.0000000000000000e+00" cType="1" res="3.1357691623270512e-03" rms="4.4701075553894043e-01" purity="4.1738724708557129e-01" nType="-99"/>
        <Node pos="r" depth="1" NCoef="0" IVar="5" Cut="9.6439278125762939e-01" cType="1" res="-4.1363742202520370e-03" rms="4.5005556941032410e-01" purity="5.0854521989822388e-01" nType="0">
          <Node pos="l" depth="2" NCoef="0" IVar="-1" Cut="0.0000000000000000e+00" cType="1" res="2.1922668383922428e-04" rms="4.5265939831733704e-01" purity="5.4876846075057983e-01" nType="-99"/>
          <Node pos="r" depth="2" NCoef="0" IVar="-1" Cut="0.0000000000000000e+00" cType="1" res="-1.4868258731439710e-03" rms="4.4089651107788086e-01" purity="3.8672512769699097e-01" nType="-99"/>
        </Node>
      </Node>
    </BinaryTree>
    <BinaryTree type="DecisionTree" boostWeight="1.0000000000000000e+00" itree="746">
      <Node pos="s" depth="0" NCoef="0" IVar="3" Cut="2.3833932355046272e-02" cType="1" res="6.1572823142341804e-06" rms="4.5134654641151428e-01" purity="4.9801176786422729e-01" nType="0">
        <Node pos="l" depth="1" NCoef="0" IVar="1" Cut="2.0535967350006104e+00" cType="1" res="1.1577760800719261e-02" rms="4.4920399785041809e-01" purity="4.7423461079597473e-01" nType="0">
          <Node pos="l" depth="2" NCoef="0" IVar="-1" Cut="0.0000000000000000e+00" cType="1" res="1.3976090122014284e-03" rms="4.5596650242805481e-01" purity="6.0050898790359497e-01" nType="-99"/>
          <Node pos="r" depth="2" NCoef="0" IVar="-1" Cut="0.0000000000000000e+00" cType="1" res="1.0440098412800580e-04" rms="4.4605088233947754e-01" purity="4.2217132449150085e-01" nType="-99"/>
        </Node>
        <Node pos="r" depth="1" NCoef="0" IVar="3" Cut="1.1619791388511658e-01" cType="1" res="-1.4804660342633724e-02" rms="4.5364362001419067e-01" purity="5.2844488620758057e-01" nType="0">
          <Node pos="l" depth="2" NCoef="0" IVar="-1" Cut="0.0000000000000000e+00" cType="1" res="-1.6799665754660964e-03" rms="4.6351462602615356e-01" purity="4.6277892589569092e-01" nType="-99"/>
          <Node pos="r" depth="2" NCoef="0" IVar="-1" Cut="0.0000000000000000e+00" cType="1" res="2.4058260896708816e-04" rms="4.4384992122650146e-01" purity="5.8580511808395386e-01" nType="-99"/>
        </Node>
      </Node>
    </BinaryTree>
    <BinaryTree type="DecisionTree" boostWeight="1.0000000000000000e+00" itree="747">
      <Node pos="s" depth="0" NCoef="0" IVar="2" Cut="9.6191984415054321e-01" cType="1" res="4.0728971362113953e-03" rms="4.4656935334205627e-01" purity="4.9947267770767212e-01" nType="0">
        <Node pos="l" depth="1" NCoef="0" IVar="5" Cut="1.0044941902160645e+00" cType="1" res="-5.9580435045063496e-03" rms="4.5464110374450684e-01" purity="4.2040014266967773e-01" nType="0">
          <Node pos="l" depth="2" NCoef="0" IVar="-1" Cut="0.0000000000000000e+00" cType="1" res="1.8158271268475801e-04" rms="4.6433308720588684e-01" purity="4.5866060256958008e-01" nType="-99"/>
          <Node pos="r" depth="2" NCoef="0" IVar="-1" Cut="0.0000000000000000e+00" cType="1" res="-1.9304172601550817e-03" rms="4.1832265257835388e-01" purity="2.9092454910278320e-01" nType="-99"/>
        </Node>
        <Node pos="r" depth="1" NCoef="0" IVar="5" Cut="8.8865780830383301e-01" cType="1" res="2.4896768853068352e-02" rms="4.2857944965362549e-01" purity="6.6362440586090088e-01" nType="0">
          <Node pos="l" depth="2" NCoef="0" IVar="-1" Cut="0.0000000000000000e+00" cType="1" res="3.8642061554128304e-05" rms="4.2818295955657959e-01" purity="6.7928242683410645e-01" nType="-99"/>
          <Node pos="r" depth="2" NCoef="0" IVar="-1" Cut="0.0000000000000000e+00" cType="1" res="3.1728921458125114e-03" rms="4.2555004358291626e-01" purity="6.3366800546646118e-01" nType="-99"/>
        </Node>
      </Node>
    </BinaryTree>
    <BinaryTree type="DecisionTree" boostWeight="1.0000000000000000e+00" itree="748">
      <Node pos="s" depth="0" NCoef="0" IVar="7" Cut="1.6143980622291565e-01" cType="1" res="-7.6098548015579581e-04" rms="4.4780614972114563e-01" purity="4.9532890319824219e-01" nType="0">
        <Node pos="l" depth="1" NCoef="0" IVar="5" Cut="9.1038560867309570e-01" cType="1" res="2.9461545869708061e-02" rms="4.3584650754928589e-01" purity="4.1091790795326233e-01" nType="0">
          <Node pos="l" depth="2" NCoef="0" IVar="-1" Cut="0.0000000000000000e+00" cType="1" res="4.1748606599867344e-03" rms="4.5027783513069153e-01" purity="5.2532362937927246e-01" nType="-99"/>
          <Node pos="r" depth="2" NCoef="0" IVar="-1" Cut="0.0000000000000000e+00" cType="1" res="-1.2756092473864555e-03" rms="4.1448336839675903e-01" purity="3.0486938357353210e-01" nType="-99"/>
        </Node>
        <Node pos="r" depth="1" NCoef="0" IVar="6" Cut="4.9724855422973633e+00" cType="1" res="-4.5704869553446770e-03" rms="4.4914674758911133e-01" purity="5.0596874952316284e-01" nType="0">
          <Node pos="l" depth="2" NCoef="0" IVar="-1" Cut="0.0000000000000000e+00" cType="1" res="-2.6711367536336184e-03" rms="4.0036836266517639e-01" purity="1.9612637162208557e-01" nType="-99"/>
          <Node pos="r" depth="2" NCoef="0" IVar="-1" Cut="0.0000000000000000e+00" cType="1" res="-3.6754874599864706e-05" rms="4.5243480801582336e-01" purity="5.2960389852523804e-01" nType="-99"/>
        </Node>
      </Node>
    </BinaryTree>
    <BinaryTree type="DecisionTree" boostWeight="1.0000000000000000e+00" itree="749">
      <Node pos="s" depth="0" NCoef="0" IVar="1" Cut="2.0648968219757080e+00" cType="1" res="-1.0351653210818768e-02" rms="4.4732075929641724e-01" purity="4.8503014445304871e-01" nType="0">
        <Node pos="l" depth="1" NCoef="0" IVar="4" Cut="7.8437757492065430e-01" cType="1" res="7.6386439613997936e-03" rms="4.5754110813140869e-01" purity="5.8841657638549805e-01" nType="0">
          <Node pos="l" depth="2" NCoef="0" IVar="-1" Cut="0.0000000000000000e+00" cType="1" res="-8.7730993982404470e-04" rms="4.4969972968101501e-01" purity="6.1784493923187256e-01" nType="-99"/>
          <Node pos="r" depth="2" NCoef="0" IVar="-1" Cut="0.0000000000000000e+00" cType="1" res="1.8526169005781412e-03" rms="4.6492081880569458e-01" purity="5.4961812496185303e-01" nType="-99"/>
        </Node>
        <Node pos="r" depth="1" NCoef="0" IVar="0" Cut="6.5973258972167969e+01" cType="1" res="-2.1817602217197418e-02" rms="4.4029986858367920e-01" purity="4.1913774609565735e-01" nType="0">
          <Node pos="l" depth="2" NCoef="0" IVar="-1" Cut="0.0000000000000000e+00" cType="1" res="-2.5490520056337118e-03" rms="4.2238160967826843e-01" purity="3.1361573934555054e-01" nType="-99"/>
          <Node pos="r" depth="2" NCoef="0" IVar="-1" Cut="0.0000000000000000e+00" cType="1" res="-3.5622029099613428e-04" rms="4.4777926802635193e-01" purity="4.6867567300796509e-01" nType="-99"/>
        </Node>
      </Node>
    </BinaryTree>
    <BinaryTree type="DecisionTree" boostWeight="1.0000000000000000e+00" itree="750">
      <Node pos="s" depth="0" NCoef="0" IVar="1" Cut="1.8674142360687256e+00" cType="1" res="2.3028775467537344e-04" rms="4.5046880841255188e-01" purity="5.0222218036651611e-01" nType="0">
        <Node pos="l" depth="1" NCoef="0" IVar="3" Cut="8.6728259921073914e-02" cType="1" res="4.4648751616477966e-02" rms="4.5105093717575073e-01" purity="6.0568588972091675e-01" nType="0">
          <Node pos="l" depth="2" NCoef="0" IVar="-1" Cut="0.0000000000000000e+00" cType="1" res="7.6500006252899766e-04" rms="4.6991142630577087e-01" purity="5.6137913465499878e-01" nType="-99"/>
          <Node pos="r" depth="2" NCoef="0" IVar="-1" Cut="0.0000000000000000e+00" cType="1" res="3.3072775695472956e-03" rms="4.2126846313476562e-01" purity="6.6659772396087646e-01" nType="-99"/>
        </Node>
        <Node pos="r" depth="1" NCoef="0" IVar="0" Cut="1.1808782958984375e+02" cType="1" res="-6.4586941152811050e-03" rms="4.5000138878822327e-01" purity="4.8664158582687378e-01" nType="0">
          <Node pos="l" depth="2" NCoef="0" IVar="-1" Cut="0.0000000000000000e+00" cType="1" res="3.2309621019521728e-05" rms="4.5133715867996216e-01" purity="4.8537564277648926e-01" nType="-99"/>
          <Node pos="r" depth="2" NCoef="0" IVar="-1" Cut="0.0000000000000000e+00" cType="1" res="-1.7941941041499376e-03" rms="4.4280275702476501e-01" purity="4.9214142560958862e-01" nType="-99"/>
        </Node>
      </Node>
    </BinaryTree>
    <BinaryTree type="DecisionTree" boostWeight="1.0000000000000000e+00" itree="751">
      <Node pos="s" depth="0" NCoef="0" IVar="3" Cut="1.9484306871891022e-01" cType="1" res="-9.9777789728250355e-05" rms="4.5474547147750854e-01" purity="5.0151485204696655e-01" nType="0">
        <Node pos="l" depth="1" NCoef="0" IVar="3" Cut="9.3455150723457336e-02" cType="1" res="-5.2451286464929581e-03" rms="4.5566824078559875e-01" purity="4.8532387614250183e-01" nType="0">
          <Node pos="l" depth="2" NCoef="0" IVar="-1" Cut="0.0000000000000000e+00" cType="1" res="2.7124409098178148e-04" rms="4.5673155784606934e-01" purity="4.8060166835784912e-01" nType="-99"/>
          <Node pos="r" depth="2" NCoef="0" IVar="-1" Cut="0.0000000000000000e+00" cType="1" res="-2.2588728461414576e-03" rms="4.4836696982383728e-01" purity="5.0459653139114380e-01" nType="-99"/>
        </Node>
        <Node pos="r" depth="1" NCoef="0" IVar="0" Cut="6.5459884643554688e+01" cType="1" res="4.2076587677001953e-02" rms="4.4487226009368896e-01" purity="6.3423210382461548e-01" nType="0">
          <Node pos="l" depth="2" NCoef="0" IVar="-1" Cut="0.0000000000000000e+00" cType="1" res="1.9943346269428730e-03" rms="4.5753401517868042e-01" purity="5.7967114448547363e-01" nType="-99"/>
          <Node pos="r" depth="2" NCoef="0" IVar="-1" Cut="0.0000000000000000e+00" cType="1" res="1.2866238830611110e-03" rms="4.3170362710952759e-01" purity="6.8743050098419189e-01" nType="-99"/>
        </Node>
      </Node>
    </BinaryTree>
    <BinaryTree type="DecisionTree" boostWeight="1.0000000000000000e+00" itree="752">
      <Node pos="s" depth="0" NCoef="0" IVar="7" Cut="5.9860205650329590e-01" cType="1" res="9.6768969669938087e-03" rms="4.5207214355468750e-01" purity="5.1151090860366821e-01" nType="0">
        <Node pos="l" depth="1" NCoef="0" IVar="6" Cut="6.2773065567016602e+00" cType="1" res="1.7218522727489471e-02" rms="4.5163258910179138e-01" purity="4.9883171916007996e-01" nType="0">
          <Node pos="l" depth="2" NCoef="0" IVar="-1" Cut="0.0000000000000000e+00" cType="1" res="2.0175899844616652e-03" rms="4.5749619603157043e-01" purity="3.7951263785362244e-01" nType="-99"/>
          <Node pos="r" depth="2" NCoef="0" IVar="-1" Cut="0.0000000000000000e+00" cType="1" res="1.0132624447578564e-04" rms="4.4767418503761292e-01" purity="5.6437987089157104e-01" nType="-99"/>
        </Node>
        <Node pos="r" depth="1" NCoef="0" IVar="2" Cut="9.6301519870758057e-01" cType="1" res="-2.5513878092169762e-02" rms="4.5245882868766785e-01" purity="5.7067459821701050e-01" nType="0">
          <Node pos="l" depth="2" NCoef="0" IVar="-1" Cut="0.0000000000000000e+00" cType="1" res="-2.0604117307811975e-03" rms="4.7116750478744507e-01" purity="4.7159394621849060e-01" nType="-99"/>
          <Node pos="r" depth="2" NCoef="0" IVar="-1" Cut="0.0000000000000000e+00" cType="1" res="9.9617044907063246e-04" rms="4.1329517960548401e-01" purity="7.4655991792678833e-01" nType="-99"/>
        </Node>
      </Node>
    </BinaryTree>
    <BinaryTree type="DecisionTree" boostWeight="1.0000000000000000e+00" itree="753">
      <Node pos="s" depth="0" NCoef="0" IVar="6" Cut="7.8194913864135742e+00" cType="1" res="4.6343659050762653e-03" rms="4.4935750961303711e-01" purity="5.0188308954238892e-01" nType="0">
        <Node pos="l" depth="1" NCoef="0" IVar="4" Cut="1.5421167612075806e+00" cType="1" res="1.4934907667338848e-02" rms="4.5168063044548035e-01" purity="4.5094984769821167e-01" nType="0">
          <Node pos="l" depth="2" NCoef="0" IVar="-1" Cut="0.0000000000000000e+00" cType="1" res="8.4744009654968977e-04" rms="4.6517306566238403e-01" purity="4.9318799376487732e-01" nType="-99"/>
          <Node pos="r" depth="2" NCoef="0" IVar="-1" Cut="0.0000000000000000e+00" cType="1" res="-2.1974237170070410e-03" rms="3.3393421769142151e-01" purity="1.4304493367671967e-01" nType="-99"/>
        </Node>
        <Node pos="r" depth="1" NCoef="0" IVar="2" Cut="9.7119683027267456e-01" cType="1" res="-2.3119051009416580e-02" rms="4.4184407591819763e-01" purity="6.3911581039428711e-01" nType="0">
          <Node pos="l" depth="2" NCoef="0" IVar="-1" Cut="0.0000000000000000e+00" cType="1" res="-3.6452806089073420e-03" rms="4.7503408789634705e-01" purity="5.3401440382003784e-01" nType="-99"/>
          <Node pos="r" depth="2" NCoef="0" IVar="-1" Cut="0.0000000000000000e+00" cType="1" res="9.7154537797905505e-05" rms="4.2488446831703186e-01" purity="6.8242913484573364e-01" nType="-99"/>
        </Node>
      </Node>
    </BinaryTree>
    <BinaryTree type="DecisionTree" boostWeight="1.0000000000000000e+00" itree="754">
      <Node pos="s" depth="0" NCoef="0" IVar="7" Cut="7.1497046947479248e-01" cType="1" res="-6.0895727947354317e-03" rms="4.5158886909484863e-01" purity="4.9501702189445496e-01" nType="0">
        <Node pos="l" depth="1" NCoef="0" IVar="2" Cut="9.1025722026824951e-01" cType="1" res="-9.5371296629309654e-03" rms="4.5186015963554382e-01" purity="4.8472765088081360e-01" nType="0">
          <Node pos="l" depth="2" NCoef="0" IVar="-1" Cut="0.0000000000000000e+00" cType="1" res="1.7891842871904373e-03" rms="4.4197529554367065e-01" purity="3.0933219194412231e-01" nType="-99"/>
          <Node pos="r" depth="2" NCoef="0" IVar="-1" Cut="0.0000000000000000e+00" cType="1" res="-5.4044660646468401e-04" rms="4.5231735706329346e-01" purity="4.9578627943992615e-01" nType="-99"/>
        </Node>
        <Node pos="r" depth="1" NCoef="0" IVar="-1" Cut="0.0000000000000000e+00" cType="1" res="2.1776619832962751e-03" rms="4.4306659698486328e-01" purity="6.6713011264801025e-01" nType="-99"/>
      </Node>
    </BinaryTree>
    <BinaryTree type="DecisionTree" boostWeight="1.0000000000000000e+00" itree="755">
      <Node pos="s" depth="0" NCoef="0" IVar="4" Cut="7.1719413995742798e-01" cType="1" res="-7.1381418965756893e-03" rms="4.4688129425048828e-01" purity="4.9435317516326904e-01" nType="0">
        <Node pos="l" depth="1" NCoef="0" IVar="3" Cut="-3.4000061452388763e-02" cType="1" res="2.7071759104728699e-02" rms="4.4058185815811157e-01" purity="6.7325264215469360e-01" nType="0">
          <Node pos="l" depth="2" NCoef="0" IVar="-1" Cut="0.0000000000000000e+00" cType="1" res="-9.3009998090565205e-04" rms="4.5699137449264526e-01" purity="6.0541731119155884e-01" nType="-99"/>
          <Node pos="r" depth="2" NCoef="0" IVar="-1" Cut="0.0000000000000000e+00" cType="1" res="1.9360843580216169e-03" rms="4.3333208560943604e-01" purity="6.9704651832580566e-01" nType="-99"/>
        </Node>
        <Node pos="r" depth="1" NCoef="0" IVar="4" Cut="7.7990430593490601e-01" cType="1" res="-1.7800372093915939e-02" rms="4.4829326868057251e-01" purity="4.3859538435935974e-01" nType="0">
          <Node pos="l" depth="2" NCoef="0" IVar="-1" Cut="0.0000000000000000e+00" cType="1" res="-3.2100705429911613e-03" rms="4.7204947471618652e-01" purity="5.3077840805053711e-01" nType="-99"/>
          <Node pos="r" depth="2" NCoef="0" IVar="-1" Cut="0.0000000000000000e+00" cType="1" res="-5.7589518837630749e-04" rms="4.4587725400924683e-01" purity="4.3086007237434387e-01" nType="-99"/>
        </Node>
      </Node>
    </BinaryTree>
    <BinaryTree type="DecisionTree" boostWeight="1.0000000000000000e+00" itree="756">
      <Node pos="s" depth="0" NCoef="0" IVar="5" Cut="1.0691939592361450e+00" cType="1" res="3.8396394811570644e-03" rms="4.5267465710639954e-01" purity="5.0538283586502075e-01" nType="0">
        <Node pos="l" depth="1" NCoef="0" IVar="7" Cut="1.6058520972728729e-01" cType="1" res="-3.7047495134174824e-03" rms="4.5333746075630188e-01" purity="5.1601558923721313e-01" nType="0">
          <Node pos="l" depth="2" NCoef="0" IVar="-1" Cut="0.0000000000000000e+00" cType="1" res="2.7877155225723982e-03" rms="4.3829545378684998e-01" purity="4.6550920605659485e-01" nType="-99"/>
          <Node pos="r" depth="2" NCoef="0" IVar="-1" Cut="0.0000000000000000e+00" cType="1" res="-4.2098958510905504e-04" rms="4.5428937673568726e-01" purity="5.2080923318862915e-01" nType="-99"/>
        </Node>
        <Node pos="r" depth="1" NCoef="0" IVar="6" Cut="7.3354778289794922e+00" cType="1" res="4.4163573533296585e-02" rms="4.4696137309074402e-01" purity="4.4855186343193054e-01" nType="0">
          <Node pos="l" depth="2" NCoef="0" IVar="-1" Cut="0.0000000000000000e+00" cType="1" res="3.0908323824405670e-03" rms="4.5244693756103516e-01" purity="3.9101606607437134e-01" nType="-99"/>
          <Node pos="r" depth="2" NCoef="0" IVar="-1" Cut="0.0000000000000000e+00" cType="1" res="1.3297644909471273e-04" rms="4.3370655179023743e-01" purity="5.5420106649398804e-01" nType="-99"/>
        </Node>
      </Node>
    </BinaryTree>
    <BinaryTree type="DecisionTree" boostWeight="1.0000000000000000e+00" itree="757">
      <Node pos="s" depth="0" NCoef="0" IVar="5" Cut="1.0603443384170532e+00" cType="1" res="-2.0513767376542091e-03" rms="4.4941475987434387e-01" purity="4.9382480978965759e-01" nType="0">
        <Node pos="l" depth="1" NCoef="0" IVar="7" Cut="1.8945482373237610e-01" cType="1" res="-9.1814110055565834e-03" rms="4.4673022627830505e-01" purity="5.0796854496002197e-01" nType="0">
          <Node pos="l" depth="2" NCoef="0" IVar="-1" Cut="0.0000000000000000e+00" cType="1" res="-2.6585734449326992e-03" rms="4.3695229291915894e-01" purity="3.4750798344612122e-01" nType="-99"/>
          <Node pos="r" depth="2" NCoef="0" IVar="-1" Cut="0.0000000000000000e+00" cType="1" res="-9.2047652287874371e-05" rms="4.4780200719833374e-01" purity="5.3271389007568359e-01" nType="-99"/>
        </Node>
        <Node pos="r" depth="1" NCoef="0" IVar="4" Cut="1.3603733777999878e+00" cType="1" res="3.2237764447927475e-02" rms="4.6056801080703735e-01" purity="4.2580589652061462e-01" nType="0">
          <Node pos="l" depth="2" NCoef="0" IVar="-1" Cut="0.0000000000000000e+00" cType="1" res="2.0200923609081656e-04" rms="4.6322610974311829e-01" purity="4.7066923975944519e-01" nType="-99"/>
          <Node pos="r" depth="2" NCoef="0" IVar="-1" Cut="0.0000000000000000e+00" cType="1" res="4.3566636741161346e-03" rms="4.5217314362525940e-01" purity="3.4922534227371216e-01" nType="-99"/>
        </Node>
      </Node>
    </BinaryTree>
    <BinaryTree type="DecisionTree" boostWeight="1.0000000000000000e+00" itree="758">
      <Node pos="s" depth="0" NCoef="0" IVar="3" Cut="-1.0296052694320679e-01" cType="1" res="-6.6561941057443619e-03" rms="4.4926747679710388e-01" purity="4.9731713533401489e-01" nType="0">
        <Node pos="l" depth="1" NCoef="0" IVar="-1" Cut="0.0000000000000000e+00" cType="1" res="-2.4168367963284254e-03" rms="4.2816025018692017e-01" purity="3.6365091800689697e-01" nType="-99"/>
        <Node pos="r" depth="1" NCoef="0" IVar="0" Cut="1.2658477783203125e+02" cType="1" res="-1.8711034208536148e-03" rms="4.5122274756431580e-01" purity="5.1172327995300293e-01" nType="0">
          <Node pos="l" depth="2" NCoef="0" IVar="-1" Cut="0.0000000000000000e+00" cType="1" res="-3.5645090974867344e-04" rms="4.5317879319190979e-01" purity="5.0153517723083496e-01" nType="-99"/>
          <Node pos="r" depth="2" NCoef="0" IVar="-1" Cut="0.0000000000000000e+00" cType="1" res="2.1194785367697477e-03" rms="4.3334838747978210e-01" purity="5.8837729692459106e-01" nType="-99"/>
        </Node>
      </Node>
    </BinaryTree>
    <BinaryTree type="DecisionTree" boostWeight="1.0000000000000000e+00" itree="759">
      <Node pos="s" depth="0" NCoef="0" IVar="1" Cut="1.7096889019012451e+00" cType="1" res="3.7147428374737501e-03" rms="4.5534661412239075e-01" purity="5.0397372245788574e-01" nType="0">
        <Node pos="l" depth="1" NCoef="0" IVar="-1" Cut="0.0000000000000000e+00" cType="1" res="-2.2204127162694931e-03" rms="4.5003789663314819e-01" purity="4.5201849937438965e-01" nType="-99"/>
        <Node pos="r" depth="1" NCoef="0" IVar="3" Cut="1.5044508874416351e-01" cType="1" res="7.8194551169872284e-03" rms="4.5535147190093994e-01" purity="5.0716698169708252e-01" nType="0">
          <Node pos="l" depth="2" NCoef="0" IVar="-1" Cut="0.0000000000000000e+00" cType="1" res="6.4279139041900635e-04" rms="4.5454993844032288e-01" purity="4.9787139892578125e-01" nType="-99"/>
          <Node pos="r" depth="2" NCoef="0" IVar="-1" Cut="0.0000000000000000e+00" cType="1" res="-1.1463972041383386e-03" rms="4.5790728926658630e-01" purity="5.5402755737304688e-01" nType="-99"/>
        </Node>
      </Node>
    </BinaryTree>
    <BinaryTree type="DecisionTree" boostWeight="1.0000000000000000e+00" itree="760">
      <Node pos="s" depth="0" NCoef="0" IVar="0" Cut="1.5431752014160156e+02" cType="1" res="1.4533307403326035e-03" rms="4.5007878541946411e-01" purity="5.0216984748840332e-01" nType="0">
        <Node pos="l" depth="1" NCoef="0" IVar="5" Cut="9.4283151626586914e-01" cType="1" res="7.1256626397371292e-03" rms="4.4982278347015381e-01" purity="5.1002788543701172e-01" nType="0">
          <Node pos="l" depth="2" NCoef="0" IVar="-1" Cut="0.0000000000000000e+00" cType="1" res="7.5782940257340670e-04" rms="4.5349392294883728e-01" purity="5.5404472351074219e-01" nType="-99"/>
          <Node pos="r" depth="2" NCoef="0" IVar="-1" Cut="0.0000000000000000e+00" cType="1" res="-1.0025289375334978e-03" rms="4.3859329819679260e-01" purity="3.9185234904289246e-01" nType="-99"/>
        </Node>
        <Node pos="r" depth="1" NCoef="0" IVar="-1" Cut="0.0000000000000000e+00" cType="1" res="-5.1208850927650928e-03" rms="4.4176140427589417e-01" purity="3.5622245073318481e-01" nType="-99"/>
      </Node>
    </BinaryTree>
    <BinaryTree type="DecisionTree" boostWeight="1.0000000000000000e+00" itree="761">
      <Node pos="s" depth="0" NCoef="0" IVar="5" Cut="1.2022762298583984e+00" cType="1" res="-6.2713995575904846e-03" rms="4.4985634088516235e-01" purity="4.9775749444961548e-01" nType="0">
        <Node pos="l" depth="1" NCoef="0" IVar="4" Cut="6.7238533496856689e-01" cType="1" res="-2.5768808554857969e-03" rms="4.5087805390357971e-01" purity="5.0995475053787231e-01" nType="0">
          <Node pos="l" depth="2" NCoef="0" IVar="-1" Cut="0.0000000000000000e+00" cType="1" res="-1.2245464604347944e-03" rms="4.5664334297180176e-01" purity="6.3409662246704102e-01" nType="-99"/>
          <Node pos="r" depth="2" NCoef="0" IVar="-1" Cut="0.0000000000000000e+00" cType="1" res="1.8916376575361937e-04" rms="4.4907054305076599e-01" purity="4.7662162780761719e-01" nType="-99"/>
        </Node>
        <Node pos="r" depth="1" NCoef="0" IVar="-1" Cut="0.0000000000000000e+00" cType="1" res="-2.2951764985918999e-03" rms="4.3464976549148560e-01" purity="3.4871524572372437e-01" nType="-99"/>
      </Node>
    </BinaryTree>
    <BinaryTree type="DecisionTree" boostWeight="1.0000000000000000e+00" itree="762">
      <Node pos="s" depth="0" NCoef="0" IVar="3" Cut="1.4903424680233002e-01" cType="1" res="2.3944398853927851e-03" rms="4.4631990790367126e-01" purity="4.9978309869766235e-01" nType="0">
        <Node pos="l" depth="1" NCoef="0" IVar="7" Cut="6.2372922897338867e-01" cType="1" res="9.6010211855173111e-03" rms="4.4682702422142029e-01" purity="4.8827829957008362e-01" nType="0">
          <Node pos="l" depth="2" NCoef="0" IVar="-1" Cut="0.0000000000000000e+00" cType="1" res="1.5819752297829837e-04" rms="4.4622829556465149e-01" purity="4.6227875351905823e-01" nType="-99"/>
          <Node pos="r" depth="2" NCoef="0" IVar="-1" Cut="0.0000000000000000e+00" cType="1" res="1.7371295252814889e-03" rms="4.4859310984611511e-01" purity="6.2469542026519775e-01" nType="-99"/>
        </Node>
        <Node pos="r" depth="1" NCoef="0" IVar="2" Cut="9.5834809541702271e-01" cType="1" res="-3.2782860100269318e-02" rms="4.4215348362922668e-01" purity="5.5594128370285034e-01" nType="0">
          <Node pos="l" depth="2" NCoef="0" IVar="-1" Cut="0.0000000000000000e+00" cType="1" res="-2.3891045711934566e-03" rms="4.5732286572456360e-01" purity="4.4360941648483276e-01" nType="-99"/>
          <Node pos="r" depth="2" NCoef="0" IVar="-1" Cut="0.0000000000000000e+00" cType="1" res="3.0073031666688621e-04" rms="4.1362735629081726e-01" purity="7.3690229654312134e-01" nType="-99"/>
        </Node>
      </Node>
    </BinaryTree>
    <BinaryTree type="DecisionTree" boostWeight="1.0000000000000000e+00" itree="763">
      <Node pos="s" depth="0" NCoef="0" IVar="0" Cut="6.0237709045410156e+01" cType="1" res="-3.3742443192750216e-03" rms="4.5106363296508789e-01" purity="4.9635878205299377e-01" nType="0">
        <Node pos="l" depth="1" NCoef="0" IVar="1" Cut="2.3442294597625732e+00" cType="1" res="1.3162650167942047e-02" rms="4.5018959045410156e-01" purity="4.5946583151817322e-01" nType="0">
          <Node pos="l" depth="2" NCoef="0" IVar="-1" Cut="0.0000000000000000e+00" cType="1" res="9.8513555712997913e-04" rms="4.6318373084068298e-01" purity="5.1169228553771973e-01" nType="-99"/>
          <Node pos="r" depth="2" NCoef="0" IVar="-1" Cut="0.0000000000000000e+00" cType="1" res="-3.0833554919809103e-03" rms="3.6349564790725708e-01" purity="1.6794544458389282e-01" nType="-99"/>
        </Node>
        <Node pos="r" depth="1" NCoef="0" IVar="3" Cut="-7.0443019270896912e-02" cType="1" res="-1.2370320968329906e-02" rms="4.5128399133682251e-01" purity="5.1642853021621704e-01" nType="0">
          <Node pos="l" depth="2" NCoef="0" IVar="-1" Cut="0.0000000000000000e+00" cType="1" res="-1.8879219423979521e-03" rms="4.4513925909996033e-01" purity="4.1532185673713684e-01" nType="-99"/>
          <Node pos="r" depth="2" NCoef="0" IVar="-1" Cut="0.0000000000000000e+00" cType="1" res="-9.0508692665025592e-05" rms="4.5300540328025818e-01" purity="5.5247223377227783e-01" nType="-99"/>
        </Node>
      </Node>
    </BinaryTree>
    <BinaryTree type="DecisionTree" boostWeight="1.0000000000000000e+00" itree="764">
      <Node pos="s" depth="0" NCoef="0" IVar="1" Cut="2.2001779079437256e+00" cType="1" res="3.1477648299187422e-03" rms="4.5138567686080933e-01" purity="5.0804698467254639e-01" nType="0">
        <Node pos="l" depth="1" NCoef="0" IVar="0" Cut="6.5289703369140625e+01" cType="1" res="1.6084885224699974e-02" rms="4.6116089820861816e-01" purity="6.0163313150405884e-01" nType="0">
          <Node pos="l" depth="2" NCoef="0" IVar="-1" Cut="0.0000000000000000e+00" cType="1" res="1.4404164394363761e-03" rms="4.7287309169769287e-01" purity="5.5190813541412354e-01" nType="-99"/>
          <Node pos="r" depth="2" NCoef="0" IVar="-1" Cut="0.0000000000000000e+00" cType="1" res="-1.8740804807748646e-04" rms="4.4843530654907227e-01" purity="6.5044587850570679e-01" nType="-99"/>
        </Node>
        <Node pos="r" depth="1" NCoef="0" IVar="6" Cut="5.5793552398681641e+00" cType="1" res="-1.4634595252573490e-02" rms="4.3696862459182739e-01" purity="3.7941071391105652e-01" nType="0">
          <Node pos="l" depth="2" NCoef="0" IVar="-1" Cut="0.0000000000000000e+00" cType="1" res="-3.4541136119514704e-03" rms="3.5356566309928894e-01" purity="1.6375763714313507e-01" nType="-99"/>
          <Node pos="r" depth="2" NCoef="0" IVar="-1" Cut="0.0000000000000000e+00" cType="1" res="-1.5844841254875064e-04" rms="4.5473873615264893e-01" purity="4.3328726291656494e-01" nType="-99"/>
        </Node>
      </Node>
    </BinaryTree>
    <BinaryTree type="DecisionTree" boostWeight="1.0000000000000000e+00" itree="765">
      <Node pos="s" depth="0" NCoef="0" IVar="5" Cut="1.2249798774719238e+00" cType="1" res="-3.7353411316871643e-03" rms="4.5664307475090027e-01" purity="4.9563646316528320e-01" nType="0">
        <Node pos="l" depth="1" NCoef="0" IVar="1" Cut="2.5225253105163574e+00" cType="1" res="-8.9994361624121666e-03" rms="4.5572534203529358e-01" purity="4.9665623903274536e-01" nType="0">
          <Node pos="l" depth="2" NCoef="0" IVar="-1" Cut="0.0000000000000000e+00" cType="1" res="-6.6087924642488360e-04" rms="4.6243911981582642e-01" purity="5.3281062841415405e-01" nType="-99"/>
          <Node pos="r" depth="2" NCoef="0" IVar="-1" Cut="0.0000000000000000e+00" cType="1" res="2.1337883081287146e-03" rms="4.0696004033088684e-01" purity="2.6346108317375183e-01" nType="-99"/>
        </Node>
        <Node pos="r" depth="1" NCoef="0" IVar="-1" Cut="0.0000000000000000e+00" cType="1" res="3.6100007127970457e-03" rms="4.6299481391906738e-01" purity="4.7909814119338989e-01" nType="-99"/>
      </Node>
    </BinaryTree>
    <BinaryTree type="DecisionTree" boostWeight="1.0000000000000000e+00" itree="766">
      <Node pos="s" depth="0" NCoef="0" IVar="4" Cut="7.8042465448379517e-01" cType="1" res="-8.5792019963264465e-03" rms="4.5045292377471924e-01" purity="4.9066513776779175e-01" nType="0">
        <Node pos="l" depth="1" NCoef="0" IVar="5" Cut="5.4107481241226196e-01" cType="1" res="-2.7504257857799530e-02" rms="4.5679408311843872e-01" purity="6.1548686027526855e-01" nType="0">
          <Node pos="l" depth="2" NCoef="0" IVar="-1" Cut="0.0000000000000000e+00" cType="1" res="-2.2784492102800868e-05" rms="4.5203608274459839e-01" purity="6.3740277290344238e-01" nType="-99"/>
          <Node pos="r" depth="2" NCoef="0" IVar="-1" Cut="0.0000000000000000e+00" cType="1" res="-2.3165559396147728e-03" rms="4.5974972844123840e-01" purity="5.9518986940383911e-01" nType="-99"/>
        </Node>
        <Node pos="r" depth="1" NCoef="0" IVar="1" Cut="2.2315196990966797e+00" cType="1" res="-2.9195501701906323e-04" rms="4.4739592075347900e-01" purity="4.3600592017173767e-01" nType="0">
          <Node pos="l" depth="2" NCoef="0" IVar="-1" Cut="0.0000000000000000e+00" cType="1" res="9.9045969545841217e-04" rms="4.6106296777725220e-01" purity="5.5305451154708862e-01" nType="-99"/>
          <Node pos="r" depth="2" NCoef="0" IVar="-1" Cut="0.0000000000000000e+00" cType="1" res="-9.5591449644416571e-04" rms="4.3506079912185669e-01" purity="3.4137305617332458e-01" nType="-99"/>
        </Node>
      </Node>
    </BinaryTree>
    <BinaryTree type="DecisionTree" boostWeight="1.0000000000000000e+00" itree="767">
      <Node pos="s" depth="0" NCoef="0" IVar="5" Cut="1.0329569578170776e+00" cType="1" res="-4.4607557356357574e-03" rms="4.5019504427909851e-01" purity="4.9858707189559937e-01" nType="0">
        <Node pos="l" depth="1" NCoef="0" IVar="6" Cut="7.0705585479736328e+00" cType="1" res="5.4575139656662941e-03" rms="4.5343959331512451e-01" purity="5.3266656398773193e-01" nType="0">
          <Node pos="l" depth="2" NCoef="0" IVar="-1" Cut="0.0000000000000000e+00" cType="1" res="8.0436142161488533e-04" rms="4.5807534456253052e-01" purity="4.4685846567153931e-01" nType="-99"/>
          <Node pos="r" depth="2" NCoef="0" IVar="-1" Cut="0.0000000000000000e+00" cType="1" res="-5.1045307191088796e-04" rms="4.4710892438888550e-01" purity="6.3816398382186890e-01" nType="-99"/>
        </Node>
        <Node pos="r" depth="1" NCoef="0" IVar="5" Cut="1.1084855794906616e+00" cType="1" res="-4.6945556998252869e-02" rms="4.3346333503723145e-01" purity="3.5260790586471558e-01" nType="0">
          <Node pos="l" depth="2" NCoef="0" IVar="-1" Cut="0.0000000000000000e+00" cType="1" res="-4.4997420627623796e-04" rms="4.4528919458389282e-01" purity="4.1014799475669861e-01" nType="-99"/>
          <Node pos="r" depth="2" NCoef="0" IVar="-1" Cut="0.0000000000000000e+00" cType="1" res="-3.0798646621406078e-03" rms="4.2629870772361755e-01" purity="3.2418373227119446e-01" nType="-99"/>
        </Node>
      </Node>
    </BinaryTree>
    <BinaryTree type="DecisionTree" boostWeight="1.0000000000000000e+00" itree="768">
      <Node pos="s" depth="0" NCoef="0" IVar="5" Cut="1.2706243991851807e+00" cType="1" res="-2.7389868628233671e-03" rms="4.4782349467277527e-01" purity="4.9991708993911743e-01" nType="0">
        <Node pos="l" depth="1" NCoef="0" IVar="2" Cut="9.1933023929595947e-01" cType="1" res="-6.5246410667896271e-03" rms="4.4723036885261536e-01" purity="5.0234007835388184e-01" nType="0">
          <Node pos="l" depth="2" NCoef="0" IVar="-1" Cut="0.0000000000000000e+00" cType="1" res="1.6080741770565510e-03" rms="4.4464913010597229e-01" purity="3.4524470567703247e-01" nType="-99"/>
          <Node pos="r" depth="2" NCoef="0" IVar="-1" Cut="0.0000000000000000e+00" cType="1" res="-5.0377321895211935e-04" rms="4.4727307558059692e-01" purity="5.2034598588943481e-01" nType="-99"/>
        </Node>
        <Node pos="r" depth="1" NCoef="0" IVar="-1" Cut="0.0000000000000000e+00" cType="1" res="3.0761067755520344e-03" rms="4.5298317074775696e-01" purity="4.5454913377761841e-01" nType="-99"/>
      </Node>
    </BinaryTree>
    <BinaryTree type="DecisionTree" boostWeight="1.0000000000000000e+00" itree="769">
      <Node pos="s" depth="0" NCoef="0" IVar="0" Cut="1.4078097534179688e+02" cType="1" res="-1.7896604258567095e-03" rms="4.4556191563606262e-01" purity="5.0200760364532471e-01" nType="0">
        <Node pos="l" depth="1" NCoef="0" IVar="2" Cut="9.5842313766479492e-01" cType="1" res="3.9063086733222008e-03" rms="4.4529667496681213e-01" purity="5.0926375389099121e-01" nType="0">
          <Node pos="l" depth="2" NCoef="0" IVar="-1" Cut="0.0000000000000000e+00" cType="1" res="-4.7437855391763151e-04" rms="4.5449051260948181e-01" purity="4.0833407640457153e-01" nType="-99"/>
          <Node pos="r" depth="2" NCoef="0" IVar="-1" Cut="0.0000000000000000e+00" cType="1" res="1.2114378623664379e-03" rms="4.3005844950675964e-01" purity="6.6179567575454712e-01" nType="-99"/>
        </Node>
        <Node pos="r" depth="1" NCoef="0" IVar="-1" Cut="0.0000000000000000e+00" cType="1" res="-3.2914900220930576e-03" rms="4.4305765628814697e-01" purity="4.1493660211563110e-01" nType="-99"/>
      </Node>
    </BinaryTree>
    <BinaryTree type="DecisionTree" boostWeight="1.0000000000000000e+00" itree="770">
      <Node pos="s" depth="0" NCoef="0" IVar="2" Cut="9.2870354652404785e-01" cType="1" res="2.5913352146744728e-04" rms="4.5121937990188599e-01" purity="4.9982774257659912e-01" nType="0">
        <Node pos="l" depth="1" NCoef="0" IVar="3" Cut="7.9435668885707855e-02" cType="1" res="2.2050276398658752e-02" rms="4.4855514168739319e-01" purity="3.4305956959724426e-01" nType="0">
          <Node pos="l" depth="2" NCoef="0" IVar="-1" Cut="0.0000000000000000e+00" cType="1" res="1.9746213220059872e-03" rms="4.4508978724479675e-01" purity="3.3730867505073547e-01" nType="-99"/>
          <Node pos="r" depth="2" NCoef="0" IVar="-1" Cut="0.0000000000000000e+00" cType="1" res="-7.5740186730399728e-04" rms="4.5319414138793945e-01" purity="3.5529899597167969e-01" nType="-99"/>
        </Node>
        <Node pos="r" depth="1" NCoef="0" IVar="2" Cut="9.4455951452255249e-01" cType="1" res="-5.3544635884463787e-03" rms="4.5173293352127075e-01" purity="5.4021263122558594e-01" nType="0">
          <Node pos="l" depth="2" NCoef="0" IVar="-1" Cut="0.0000000000000000e+00" cType="1" res="-1.7720940522849560e-03" rms="4.5582532882690430e-01" purity="3.7613275647163391e-01" nType="-99"/>
          <Node pos="r" depth="2" NCoef="0" IVar="-1" Cut="0.0000000000000000e+00" cType="1" res="4.1316697024740279e-04" rms="4.4935488700866699e-01" purity="5.9920573234558105e-01" nType="-99"/>
        </Node>
      </Node>
    </BinaryTree>
    <BinaryTree type="DecisionTree" boostWeight="1.0000000000000000e+00" itree="771">
      <Node pos="s" depth="0" NCoef="0" IVar="4" Cut="7.9586696624755859e-01" cType="1" res="-6.3589168712496758e-04" rms="4.5219266414642334e-01" purity="4.9706321954727173e-01" nType="0">
        <Node pos="l" depth="1" NCoef="0" IVar="7" Cut="4.7990313172340393e-01" cType="1" res="-3.0969109386205673e-02" rms="4.5557150244712830e-01" purity="6.0931658744812012e-01" nType="0">
          <Node pos="l" depth="2" NCoef="0" IVar="-1" Cut="0.0000000000000000e+00" cType="1" res="-2.2258695680648088e-03" rms="4.6080765128135681e-01" purity="5.6739175319671631e-01" nType="-99"/>
          <Node pos="r" depth="2" NCoef="0" IVar="-1" Cut="0.0000000000000000e+00" cType="1" res="1.1944222205784172e-04" rms="4.4632869958877563e-01" purity="6.6471177339553833e-01" nType="-99"/>
        </Node>
        <Node pos="r" depth="1" NCoef="0" IVar="1" Cut="2.4206776618957520e+00" cType="1" res="1.2900410220026970e-02" rms="4.5001736283302307e-01" purity="4.4696974754333496e-01" nType="0">
          <Node pos="l" depth="2" NCoef="0" IVar="-1" Cut="0.0000000000000000e+00" cType="1" res="1.0507064871490002e-03" rms="4.6448093652725220e-01" purity="5.2659344673156738e-01" nType="-99"/>
          <Node pos="r" depth="2" NCoef="0" IVar="-1" Cut="0.0000000000000000e+00" cType="1" res="-8.2057446707040071e-04" rms="4.1340938210487366e-01" purity="2.6339301466941833e-01" nType="-99"/>
        </Node>
      </Node>
    </BinaryTree>
    <BinaryTree type="DecisionTree" boostWeight="1.0000000000000000e+00" itree="772">
      <Node pos="s" depth="0" NCoef="0" IVar="6" Cut="5.2838702201843262e+00" cType="1" res="-6.6295783035457134e-03" rms="4.4947102665901184e-01" purity="4.9544820189476013e-01" nType="0">
        <Node pos="l" depth="1" NCoef="0" IVar="6" Cut="4.8797392845153809e+00" cType="1" res="-5.7798698544502258e-02" rms="3.9539790153503418e-01" purity="2.2038529813289642e-01" nType="0">
          <Node pos="l" depth="2" NCoef="0" IVar="-1" Cut="0.0000000000000000e+00" cType="1" res="-1.5748348087072372e-03" rms="3.9450702071189880e-01" purity="2.1322143077850342e-01" nType="-99"/>
          <Node pos="r" depth="2" NCoef="0" IVar="-1" Cut="0.0000000000000000e+00" cType="1" res="-3.8695915136486292e-03" rms="3.9461544156074524e-01" purity="2.2698521614074707e-01" nType="-99"/>
        </Node>
        <Node pos="r" depth="1" NCoef="0" IVar="6" Cut="7.2601852416992188e+00" cType="1" res="-6.4178064349107444e-05" rms="4.5552921295166016e-01" purity="5.3074091672897339e-01" nType="0">
          <Node pos="l" depth="2" NCoef="0" IVar="-1" Cut="0.0000000000000000e+00" cType="1" res="6.3786661485210061e-04" rms="4.6172103285789490e-01" purity="4.5674300193786621e-01" nType="-99"/>
          <Node pos="r" depth="2" NCoef="0" IVar="-1" Cut="0.0000000000000000e+00" cType="1" res="-9.2732434859499335e-04" rms="4.4670578837394714e-01" purity="6.2522578239440918e-01" nType="-99"/>
        </Node>
      </Node>
    </BinaryTree>
    <BinaryTree type="DecisionTree" boostWeight="1.0000000000000000e+00" itree="773">
      <Node pos="s" depth="0" NCoef="0" IVar="3" Cut="-1.0135100781917572e-01" cType="1" res="-4.5087044127285480e-03" rms="4.4954723119735718e-01" purity="4.9449068307876587e-01" nType="0">
        <Node pos="l" depth="1" NCoef="0" IVar="5" Cut="7.1526908874511719e-01" cType="1" res="2.9102398082613945e-02" rms="4.4476059079170227e-01" purity="4.3343037366867065e-01" nType="0">
          <Node pos="l" depth="2" NCoef="0" IVar="-1" Cut="0.0000000000000000e+00" cType="1" res="1.7351213609799743e-03" rms="4.7323343157768250e-01" purity="5.4596555233001709e-01" nType="-99"/>
          <Node pos="r" depth="2" NCoef="0" IVar="-1" Cut="0.0000000000000000e+00" cType="1" res="9.0028985869139433e-04" rms="4.1177803277969360e-01" purity="3.1292212009429932e-01" nType="-99"/>
        </Node>
        <Node pos="r" depth="1" NCoef="0" IVar="4" Cut="6.1230707168579102e-01" cType="1" res="-8.4313284605741501e-03" rms="4.4993898272514343e-01" purity="5.0161677598953247e-01" nType="0">
          <Node pos="l" depth="2" NCoef="0" IVar="-1" Cut="0.0000000000000000e+00" cType="1" res="8.0369203351438046e-04" rms="4.4108998775482178e-01" purity="6.8240767717361450e-01" nType="-99"/>
          <Node pos="r" depth="2" NCoef="0" IVar="-1" Cut="0.0000000000000000e+00" cType="1" res="-6.1550975078716874e-04" rms="4.5150554180145264e-01" purity="4.6507716178894043e-01" nType="-99"/>
        </Node>
      </Node>
    </BinaryTree>
    <BinaryTree type="DecisionTree" boostWeight="1.0000000000000000e+00" itree="774">
      <Node pos="s" depth="0" NCoef="0" IVar="1" Cut="2.3523201942443848e+00" cType="1" res="1.1605269974097610e-03" rms="4.5246374607086182e-01" purity="5.0060409307479858e-01" nType="0">
        <Node pos="l" depth="1" NCoef="0" IVar="2" Cut="9.6758794784545898e-01" cType="1" res="-1.0035659186542034e-02" rms="4.5555296540260315e-01" purity="5.5482906103134155e-01" nType="0">
          <Node pos="l" depth="2" NCoef="0" IVar="-1" Cut="0.0000000000000000e+00" cType="1" res="-8.1773096462711692e-04" rms="4.6776738762855530e-01" purity="4.9039414525032043e-01" nType="-99"/>
          <Node pos="r" depth="2" NCoef="0" IVar="-1" Cut="0.0000000000000000e+00" cType="1" res="1.0716996621340513e-03" rms="4.1625928878784180e-01" purity="7.4286204576492310e-01" nType="-99"/>
        </Node>
        <Node pos="r" depth="1" NCoef="0" IVar="2" Cut="9.6385312080383301e-01" cType="1" res="3.2446231693029404e-02" rms="4.4221729040145874e-01" purity="3.4908214211463928e-01" nType="0">
          <Node pos="l" depth="2" NCoef="0" IVar="-1" Cut="0.0000000000000000e+00" cType="1" res="2.6958486996591091e-03" rms="4.4375407695770264e-01" purity="3.1974813342094421e-01" nType="-99"/>
          <Node pos="r" depth="2" NCoef="0" IVar="-1" Cut="0.0000000000000000e+00" cType="1" res="-9.1959582641720772e-04" rms="4.3352481722831726e-01" purity="4.3330171704292297e-01" nType="-99"/>
        </Node>
      </Node>
    </BinaryTree>
    <BinaryTree type="DecisionTree" boostWeight="1.0000000000000000e+00" itree="775">
      <Node pos="s" depth="0" NCoef="0" IVar="6" Cut="8.0722312927246094e+00" cType="1" res="8.8933175429701805e-03" rms="4.4767412543296814e-01" purity="5.0357210636138916e-01" nType="0">
        <Node pos="l" depth="1" NCoef="0" IVar="7" Cut="2.0035433769226074e-01" cType="1" res="1.9156651571393013e-02" rms="4.4950899481773376e-01" purity="4.6621158719062805e-01" nType="0">
          <Node pos="l" depth="2" NCoef="0" IVar="-1" Cut="0.0000000000000000e+00" cType="1" res="-1.3612107140943408e-03" rms="4.1220143437385559e-01" purity="3.1232735514640808e-01" nType="-99"/>
          <Node pos="r" depth="2" NCoef="0" IVar="-1" Cut="0.0000000000000000e+00" cType="1" res="1.2109106173738837e-03" rms="4.5624801516532898e-01" purity="4.9806755781173706e-01" nType="-99"/>
        </Node>
        <Node pos="r" depth="1" NCoef="0" IVar="7" Cut="5.4108619689941406e-01" cType="1" res="-3.1535200774669647e-02" rms="4.3803888559341431e-01" purity="6.5073978900909424e-01" nType="0">
          <Node pos="l" depth="2" NCoef="0" IVar="-1" Cut="0.0000000000000000e+00" cType="1" res="-4.9649423453956842e-04" rms="4.2877244949340820e-01" purity="6.5133911371231079e-01" nType="-99"/>
          <Node pos="r" depth="2" NCoef="0" IVar="-1" Cut="0.0000000000000000e+00" cType="1" res="-4.7486778348684311e-03" rms="4.5679974555969238e-01" purity="6.4915126562118530e-01" nType="-99"/>
        </Node>
      </Node>
    </BinaryTree>
    <BinaryTree type="DecisionTree" boostWeight="1.0000000000000000e+00" itree="776">
      <Node pos="s" depth="0" NCoef="0" IVar="3" Cut="2.0559489727020264e-01" cType="1" res="-1.5281713567674160e-03" rms="4.4892016053199768e-01" purity="4.9366679787635803e-01" nType="0">
        <Node pos="l" depth="1" NCoef="0" IVar="3" Cut="2.3327244445681572e-02" cType="1" res="-6.8697803653776646e-03" rms="4.4920152425765991e-01" purity="4.7985365986824036e-01" nType="0">
          <Node pos="l" depth="2" NCoef="0" IVar="-1" Cut="0.0000000000000000e+00" cType="1" res="3.1093202414922416e-04" rms="4.4809332489967346e-01" purity="4.6885505318641663e-01" nType="-99"/>
          <Node pos="r" depth="2" NCoef="0" IVar="-1" Cut="0.0000000000000000e+00" cType="1" res="-1.3192059705033898e-03" rms="4.5010650157928467e-01" purity="4.9837997555732727e-01" nType="-99"/>
        </Node>
        <Node pos="r" depth="1" NCoef="0" IVar="-1" Cut="0.0000000000000000e+00" cType="1" res="2.4735983461141586e-03" rms="4.4149637222290039e-01" purity="6.4658498764038086e-01" nType="-99"/>
      </Node>
    </BinaryTree>
    <BinaryTree type="DecisionTree" boostWeight="1.0000000000000000e+00" itree="777">
      <Node pos="s" depth="0" NCoef="0" IVar="0" Cut="1.4447615051269531e+02" cType="1" res="-3.1257478985935450e-04" rms="4.4771614670753479e-01" purity="4.9640390276908875e-01" nType="0">
        <Node pos="l" depth="1" NCoef="0" IVar="3" Cut="2.3051518201828003e-01" cType="1" res="2.9518017545342445e-03" rms="4.4746813178062439e-01" purity="5.0183111429214478e-01" nType="0">
          <Node pos="l" depth="2" NCoef="0" IVar="-1" Cut="0.0000000000000000e+00" cType="1" res="2.7347356081008911e-04" rms="4.4716638326644897e-01" purity="4.9873641133308411e-01" nType="-99"/>
          <Node pos="r" depth="2" NCoef="0" IVar="-1" Cut="0.0000000000000000e+00" cType="1" res="-1.8189207185059786e-03" rms="4.4916167855262756e-01" purity="5.5118054151535034e-01" nType="-99"/>
        </Node>
        <Node pos="r" depth="1" NCoef="0" IVar="-1" Cut="0.0000000000000000e+00" cType="1" res="-2.1145765203982592e-03" rms="4.4871494174003601e-01" purity="4.2203560471534729e-01" nType="-99"/>
      </Node>
    </BinaryTree>
    <BinaryTree type="DecisionTree" boostWeight="1.0000000000000000e+00" itree="778">
      <Node pos="s" depth="0" NCoef="0" IVar="3" Cut="1.4345020055770874e-01" cType="1" res="-5.7825697585940361e-03" rms="4.5266139507293701e-01" purity="4.9667936563491821e-01" nType="0">
        <Node pos="l" depth="1" NCoef="0" IVar="1" Cut="2.2680516242980957e+00" cType="1" res="-1.3869325630366802e-02" rms="4.5298469066619873e-01" purity="4.7128972411155701e-01" nType="0">
          <Node pos="l" depth="2" NCoef="0" IVar="-1" Cut="0.0000000000000000e+00" cType="1" res="-1.2022608425468206e-03" rms="4.6335303783416748e-01" purity="5.4212963581085205e-01" nType="-99"/>
          <Node pos="r" depth="2" NCoef="0" IVar="-1" Cut="0.0000000000000000e+00" cType="1" res="5.0058949273079634e-04" rms="4.3490198254585266e-01" purity="3.5849937796592712e-01" nType="-99"/>
        </Node>
        <Node pos="r" depth="1" NCoef="0" IVar="3" Cut="2.2181874513626099e-01" cType="1" res="2.9193766415119171e-02" rms="4.4958850741386414e-01" purity="6.0649329423904419e-01" nType="0">
          <Node pos="l" depth="2" NCoef="0" IVar="-1" Cut="0.0000000000000000e+00" cType="1" res="2.3748979438096285e-03" rms="4.4689801335334778e-01" purity="6.2584716081619263e-01" nType="-99"/>
          <Node pos="r" depth="2" NCoef="0" IVar="-1" Cut="0.0000000000000000e+00" cType="1" res="-3.8856046739965677e-04" rms="4.5110553503036499e-01" purity="5.7626724243164062e-01" nType="-99"/>
        </Node>
      </Node>
    </BinaryTree>
    <BinaryTree type="DecisionTree" boostWeight="1.0000000000000000e+00" itree="779">
      <Node pos="s" depth="0" NCoef="0" IVar="4" Cut="5.9572505950927734e-01" cType="1" res="-3.2752966508269310e-03" rms="4.4780865311622620e-01" purity="4.9732613563537598e-01" nType="0">
        <Node pos="l" depth="1" NCoef="0" IVar="5" Cut="4.8852914571762085e-01" cType="1" res="2.7505023404955864e-02" rms="4.3330109119415283e-01" purity="6.9560021162033081e-01" nType="0">
          <Node pos="l" depth="2" NCoef="0" IVar="-1" Cut="0.0000000000000000e+00" cType="1" res="-8.9628396381158382e-05" rms="4.5003405213356018e-01" purity="6.5410500764846802e-01" nType="-99"/>
          <Node pos="r" depth="2" NCoef="0" IVar="-1" Cut="0.0000000000000000e+00" cType="1" res="2.9341694898903370e-03" rms="4.0728363394737244e-01" purity="7.4952065944671631e-01" nType="-99"/>
        </Node>
        <Node pos="r" depth="1" NCoef="0" IVar="0" Cut="9.9139572143554688e+01" cType="1" res="-8.5437679663300514e-03" rms="4.5003402233123779e-01" purity="4.6338886022567749e-01" nType="0">
          <Node pos="l" depth="2" NCoef="0" IVar="-1" Cut="0.0000000000000000e+00" cType="1" res="-8.9049740927293897e-04" rms="4.4850498437881470e-01" purity="4.2442572116851807e-01" nType="-99"/>
          <Node pos="r" depth="2" NCoef="0" IVar="-1" Cut="0.0000000000000000e+00" cType="1" res="7.5793883297592402e-04" rms="4.5235735177993774e-01" purity="5.4883360862731934e-01" nType="-99"/>
        </Node>
      </Node>
    </BinaryTree>
    <BinaryTree type="DecisionTree" boostWeight="1.0000000000000000e+00" itree="780">
      <Node pos="s" depth="0" NCoef="0" IVar="7" Cut="6.8087196350097656e-01" cType="1" res="1.1444252450019121e-03" rms="4.5289537310600281e-01" purity="5.0171065330505371e-01" nType="0">
        <Node pos="l" depth="1" NCoef="0" IVar="3" Cut="2.3051518201828003e-01" cType="1" res="8.2077598199248314e-03" rms="4.5150429010391235e-01" purity="5.0071060657501221e-01" nType="0">
          <Node pos="l" depth="2" NCoef="0" IVar="-1" Cut="0.0000000000000000e+00" cType="1" res="5.9623306151479483e-04" rms="4.5182988047599792e-01" purity="4.9914821982383728e-01" nType="-99"/>
          <Node pos="r" depth="2" NCoef="0" IVar="-1" Cut="0.0000000000000000e+00" cType="1" res="-3.0703728552907705e-03" rms="4.3907052278518677e-01" purity="5.2429342269897461e-01" nType="-99"/>
        </Node>
        <Node pos="r" depth="1" NCoef="0" IVar="-1" Cut="0.0000000000000000e+00" cType="1" res="-3.4545406233519316e-03" rms="4.6088919043540955e-01" purity="5.1337063312530518e-01" nType="-99"/>
      </Node>
    </BinaryTree>
    <BinaryTree type="DecisionTree" boostWeight="1.0000000000000000e+00" itree="781">
      <Node pos="s" depth="0" NCoef="0" IVar="1" Cut="1.7655004262924194e+00" cType="1" res="6.1499042203649879e-04" rms="4.4907554984092712e-01" purity="4.9461430311203003e-01" nType="0">
        <Node pos="l" depth="1" NCoef="0" IVar="-1" Cut="0.0000000000000000e+00" cType="1" res="-1.9094117451459169e-03" rms="4.5889151096343994e-01" purity="4.7747048735618591e-01" nType="-99"/>
        <Node pos="r" depth="1" NCoef="0" IVar="3" Cut="2.1267913281917572e-01" cType="1" res="4.3913815170526505e-03" rms="4.4807088375091553e-01" purity="4.9597498774528503e-01" nType="0">
          <Node pos="l" depth="2" NCoef="0" IVar="-1" Cut="0.0000000000000000e+00" cType="1" res="-3.1709143968328135e-06" rms="4.4799095392227173e-01" purity="4.8508435487747192e-01" nType="-99"/>
          <Node pos="r" depth="2" NCoef="0" IVar="-1" Cut="0.0000000000000000e+00" cType="1" res="2.8909451793879271e-03" rms="4.4463402032852173e-01" purity="6.4607417583465576e-01" nType="-99"/>
        </Node>
      </Node>
    </BinaryTree>
    <BinaryTree type="DecisionTree" boostWeight="1.0000000000000000e+00" itree="782">
      <Node pos="s" depth="0" NCoef="0" IVar="3" Cut="8.2898549735546112e-02" cType="1" res="-4.8926961608231068e-03" rms="4.5605558156967163e-01" purity="4.9450045824050903e-01" nType="0">
        <Node pos="l" depth="1" NCoef="0" IVar="4" Cut="1.0251832008361816e+00" cType="1" res="-1.6975659877061844e-02" rms="4.5717051625251770e-01" purity="4.5606797933578491e-01" nType="0">
          <Node pos="l" depth="2" NCoef="0" IVar="-1" Cut="0.0000000000000000e+00" cType="1" res="-1.6926226671785116e-03" rms="4.7105851769447327e-01" purity="5.6741750240325928e-01" nType="-99"/>
          <Node pos="r" depth="2" NCoef="0" IVar="-1" Cut="0.0000000000000000e+00" cType="1" res="1.7922632105182856e-04" rms="4.4380146265029907e-01" purity="3.5998946428298950e-01" nType="-99"/>
        </Node>
        <Node pos="r" depth="1" NCoef="0" IVar="3" Cut="1.3381291925907135e-01" cType="1" res="2.5043671950697899e-02" rms="4.5189180970191956e-01" purity="5.8971941471099854e-01" nType="0">
          <Node pos="l" depth="2" NCoef="0" IVar="-1" Cut="0.0000000000000000e+00" cType="1" res="2.4855583906173706e-03" rms="4.5561403036117554e-01" purity="5.8968752622604370e-01" nType="-99"/>
          <Node pos="r" depth="2" NCoef="0" IVar="-1" Cut="0.0000000000000000e+00" cType="1" res="3.6394418566487730e-04" rms="4.4907632470130920e-01" purity="5.8973538875579834e-01" nType="-99"/>
        </Node>
      </Node>
    </BinaryTree>
    <BinaryTree type="DecisionTree" boostWeight="1.0000000000000000e+00" itree="783">
      <Node pos="s" depth="0" NCoef="0" IVar="0" Cut="1.4002964782714844e+02" cType="1" res="7.2776363231241703e-03" rms="4.5002618432044983e-01" purity="5.0467258691787720e-01" nType="0">
        <Node pos="l" depth="1" NCoef="0" IVar="2" Cut="9.1975349187850952e-01" cType="1" res="1.1724543757736683e-02" rms="4.4970393180847168e-01" purity="5.1056450605392456e-01" nType="0">
          <Node pos="l" depth="2" NCoef="0" IVar="-1" Cut="0.0000000000000000e+00" cType="1" res="2.6159044355154037e-03" rms="4.5802536606788635e-01" purity="3.5581904649734497e-01" nType="-99"/>
          <Node pos="r" depth="2" NCoef="0" IVar="-1" Cut="0.0000000000000000e+00" cType="1" res="2.5793717941269279e-04" rms="4.4829714298248291e-01" purity="5.3036993741989136e-01" nType="-99"/>
        </Node>
        <Node pos="r" depth="1" NCoef="0" IVar="-1" Cut="0.0000000000000000e+00" cType="1" res="-2.2537601180374622e-03" rms="4.5042192935943604e-01" purity="4.3288859724998474e-01" nType="-99"/>
      </Node>
    </BinaryTree>
    <BinaryTree type="DecisionTree" boostWeight="1.0000000000000000e+00" itree="784">
      <Node pos="s" depth="0" NCoef="0" IVar="6" Cut="8.4817295074462891e+00" cType="1" res="4.8215077258646488e-03" rms="4.5045030117034912e-01" purity="5.0410556793212891e-01" nType="0">
        <Node pos="l" depth="1" NCoef="0" IVar="7" Cut="4.2363855242729187e-01" cType="1" res="-1.5898491255939007e-03" rms="4.5742100477218628e-01" purity="4.6493911743164062e-01" nType="0">
          <Node pos="l" depth="2" NCoef="0" IVar="-1" Cut="0.0000000000000000e+00" cType="1" res="-7.0183456409722567e-04" rms="4.4929575920104980e-01" purity="4.0717154741287231e-01" nType="-99"/>
          <Node pos="r" depth="2" NCoef="0" IVar="-1" Cut="0.0000000000000000e+00" cType="1" res="6.6966196754947305e-04" rms="4.6711957454681396e-01" purity="5.3973561525344849e-01" nType="-99"/>
        </Node>
        <Node pos="r" depth="1" NCoef="0" IVar="0" Cut="8.0291374206542969e+01" cType="1" res="4.3264470994472504e-02" rms="4.0402349829673767e-01" purity="7.3895037174224854e-01" nType="0">
          <Node pos="l" depth="2" NCoef="0" IVar="-1" Cut="0.0000000000000000e+00" cType="1" res="3.9649350219406188e-04" rms="4.3776038289070129e-01" purity="6.6264832019805908e-01" nType="-99"/>
          <Node pos="r" depth="2" NCoef="0" IVar="-1" Cut="0.0000000000000000e+00" cType="1" res="4.4156759977340698e-03" rms="3.6169418692588806e-01" purity="8.1898885965347290e-01" nType="-99"/>
        </Node>
      </Node>
    </BinaryTree>
    <BinaryTree type="DecisionTree" boostWeight="1.0000000000000000e+00" itree="785">
      <Node pos="s" depth="0" NCoef="0" IVar="7" Cut="2.2006484866142273e-01" cType="1" res="-7.3280637152493000e-03" rms="4.4673696160316467e-01" purity="4.8810222744941711e-01" nType="0">
        <Node pos="l" depth="1" NCoef="0" IVar="1" Cut="2.0256178379058838e+00" cType="1" res="2.4281146004796028e-02" rms="4.4037193059921265e-01" purity="4.1596618294715881e-01" nType="0">
          <Node pos="l" depth="2" NCoef="0" IVar="-1" Cut="0.0000000000000000e+00" cType="1" res="-1.0425134096294641e-03" rms="4.7716251015663147e-01" purity="4.7356531023979187e-01" nType="-99"/>
          <Node pos="r" depth="2" NCoef="0" IVar="-1" Cut="0.0000000000000000e+00" cType="1" res="2.1118305157870054e-03" rms="4.2539650201797485e-01" purity="3.9589825272560120e-01" nType="-99"/>
        </Node>
        <Node pos="r" depth="1" NCoef="0" IVar="7" Cut="3.3299189805984497e-01" cType="1" res="-1.5494331717491150e-02" rms="4.4800430536270142e-01" purity="5.0673860311508179e-01" nType="0">
          <Node pos="l" depth="2" NCoef="0" IVar="-1" Cut="0.0000000000000000e+00" cType="1" res="-2.3002047091722488e-03" rms="4.3904134631156921e-01" purity="4.1121140122413635e-01" nType="-99"/>
          <Node pos="r" depth="2" NCoef="0" IVar="-1" Cut="0.0000000000000000e+00" cType="1" res="-1.4209873916115612e-04" rms="4.5026266574859619e-01" purity="5.3832459449768066e-01" nType="-99"/>
        </Node>
      </Node>
    </BinaryTree>
    <BinaryTree type="DecisionTree" boostWeight="1.0000000000000000e+00" itree="786">
      <Node pos="s" depth="0" NCoef="0" IVar="3" Cut="-9.1687999665737152e-02" cType="1" res="9.5040369778871536e-03" rms="4.4799667596817017e-01" purity="5.0456362962722778e-01" nType="0">
        <Node pos="l" depth="1" NCoef="0" IVar="6" Cut="7.4097466468811035e+00" cType="1" res="4.8193860799074173e-02" rms="4.4726565480232239e-01" purity="4.5820504426956177e-01" nType="0">
          <Node pos="l" depth="2" NCoef="0" IVar="-1" Cut="0.0000000000000000e+00" cType="1" res="3.4618894569575787e-03" rms="4.5158049464225769e-01" purity="4.0340003371238708e-01" nType="-99"/>
          <Node pos="r" depth="2" NCoef="0" IVar="-1" Cut="0.0000000000000000e+00" cType="1" res="1.8179164908360690e-04" rms="4.3567898869514465e-01" purity="5.6069719791412354e-01" nType="-99"/>
        </Node>
        <Node pos="r" depth="1" NCoef="0" IVar="3" Cut="-1.9568279385566711e-02" cType="1" res="1.9573485478758812e-03" rms="4.4774964451789856e-01" purity="5.1360619068145752e-01" nType="0">
          <Node pos="l" depth="2" NCoef="0" IVar="-1" Cut="0.0000000000000000e+00" cType="1" res="-1.1709872633218765e-03" rms="4.4915392994880676e-01" purity="4.5160600543022156e-01" nType="-99"/>
          <Node pos="r" depth="2" NCoef="0" IVar="-1" Cut="0.0000000000000000e+00" cType="1" res="7.2600966086611152e-04" rms="4.4630482792854309e-01" purity="5.4612731933593750e-01" nType="-99"/>
        </Node>
      </Node>
    </BinaryTree>
    <BinaryTree type="DecisionTree" boostWeight="1.0000000000000000e+00" itree="787">
      <Node pos="s" depth="0" NCoef="0" IVar="5" Cut="4.9408254027366638e-01" cType="1" res="-6.3718314049765468e-04" rms="4.5428019762039185e-01" purity="4.9760171771049500e-01" nType="0">
        <Node pos="l" depth="1" NCoef="0" IVar="5" Cut="3.5705465078353882e-01" cType="1" res="-3.8785144686698914e-02" rms="4.6536082029342651e-01" purity="5.4233902692794800e-01" nType="0">
          <Node pos="l" depth="2" NCoef="0" IVar="-1" Cut="0.0000000000000000e+00" cType="1" res="2.2479637118522078e-04" rms="4.6502017974853516e-01" purity="5.9421205520629883e-01" nType="-99"/>
          <Node pos="r" depth="2" NCoef="0" IVar="-1" Cut="0.0000000000000000e+00" cType="1" res="-2.8117385227233171e-03" rms="4.6364596486091614e-01" purity="5.1248490810394287e-01" nType="-99"/>
        </Node>
        <Node pos="r" depth="1" NCoef="0" IVar="5" Cut="1.0047199726104736e+00" cType="1" res="7.0682466030120850e-03" rms="4.5161807537078857e-01" purity="4.8856532573699951e-01" nType="0">
          <Node pos="l" depth="2" NCoef="0" IVar="-1" Cut="0.0000000000000000e+00" cType="1" res="8.3281734259799123e-04" rms="4.5396667718887329e-01" purity="5.3047877550125122e-01" nType="-99"/>
          <Node pos="r" depth="2" NCoef="0" IVar="-1" Cut="0.0000000000000000e+00" cType="1" res="-1.1699082097038627e-03" rms="4.4337424635887146e-01" purity="3.7140735983848572e-01" nType="-99"/>
        </Node>
      </Node>
    </BinaryTree>
    <BinaryTree type="DecisionTree" boostWeight="1.0000000000000000e+00" itree="788">
      <Node pos="s" depth="0" NCoef="0" IVar="4" Cut="9.7361516952514648e-01" cType="1" res="1.3623434118926525e-02" rms="4.5173877477645874e-01" purity="5.1270174980163574e-01" nType="0">
        <Node pos="l" depth="1" NCoef="0" IVar="3" Cut="1.7232792451977730e-02" cType="1" res="-3.3911373466253281e-03" rms="4.5589175820350647e-01" purity="6.1628192663192749e-01" nType="0">
          <Node pos="l" depth="2" NCoef="0" IVar="-1" Cut="0.0000000000000000e+00" cType="1" res="7.9849018948152661e-04" rms="4.6097862720489502e-01" purity="6.3556200265884399e-01" nType="-99"/>
          <Node pos="r" depth="2" NCoef="0" IVar="-1" Cut="0.0000000000000000e+00" cType="1" res="-9.4322435325011611e-04" rms="4.5086076855659485e-01" purity="6.0059326887130737e-01" nType="-99"/>
        </Node>
        <Node pos="r" depth="1" NCoef="0" IVar="4" Cut="1.0787354707717896e+00" cType="1" res="2.9657540842890739e-02" rms="4.4719779491424561e-01" purity="4.1509041190147400e-01" nType="0">
          <Node pos="l" depth="2" NCoef="0" IVar="-1" Cut="0.0000000000000000e+00" cType="1" res="3.2659957651048899e-03" rms="4.6556094288825989e-01" purity="6.1661183834075928e-01" nType="-99"/>
          <Node pos="r" depth="2" NCoef="0" IVar="-1" Cut="0.0000000000000000e+00" cType="1" res="7.8546022996306419e-04" rms="4.4136720895767212e-01" purity="3.6341306567192078e-01" nType="-99"/>
        </Node>
      </Node>
    </BinaryTree>
    <BinaryTree type="DecisionTree" boostWeight="1.0000000000000000e+00" itree="789">
      <Node pos="s" depth="0" NCoef="0" IVar="3" Cut="2.3281952738761902e-01" cType="1" res="7.1957372128963470e-03" rms="4.4580698013305664e-01" purity="5.0384396314620972e-01" nType="0">
        <Node pos="l" depth="1" NCoef="0" IVar="3" Cut="1.3787430524826050e-01" cType="1" res="1.1915843933820724e-02" rms="4.4566333293914795e-01" purity="5.0290369987487793e-01" nType="0">
          <Node pos="l" depth="2" NCoef="0" IVar="-1" Cut="0.0000000000000000e+00" cType="1" res="1.8672300211619586e-04" rms="4.4752997159957886e-01" purity="4.7951662540435791e-01" nType="-99"/>
          <Node pos="r" depth="2" NCoef="0" IVar="-1" Cut="0.0000000000000000e+00" cType="1" res="2.5886693038046360e-03" rms="4.3117862939834595e-01" purity="6.4492797851562500e-01" nType="-99"/>
        </Node>
        <Node pos="r" depth="1" NCoef="0" IVar="-1" Cut="0.0000000000000000e+00" cType="1" res="-2.9772315174341202e-03" rms="4.3990054726600647e-01" purity="5.2065628767013550e-01" nType="-99"/>
      </Node>
    </BinaryTree>
    <BinaryTree type="DecisionTree" boostWeight="1.0000000000000000e+00" itree="790">
      <Node pos="s" depth="0" NCoef="0" IVar="3" Cut="-1.0135100781917572e-01" cType="1" res="8.8974687969312072e-04" rms="4.4841569662094116e-01" purity="5.0530195236206055e-01" nType="0">
        <Node pos="l" depth="1" NCoef="0" IVar="7" Cut="2.6879829168319702e-01" cType="1" res="-4.5978300273418427e-02" rms="4.2554402351379395e-01" purity="3.5991492867469788e-01" nType="0">
          <Node pos="l" depth="2" NCoef="0" IVar="-1" Cut="0.0000000000000000e+00" cType="1" res="-3.6790163721889257e-03" rms="4.0407669544219971e-01" purity="2.8865572810173035e-01" nType="-99"/>
          <Node pos="r" depth="2" NCoef="0" IVar="-1" Cut="0.0000000000000000e+00" cType="1" res="-5.5303366389125586e-04" rms="4.4690048694610596e-01" purity="4.4298106431961060e-01" nType="-99"/>
        </Node>
        <Node pos="r" depth="1" NCoef="0" IVar="5" Cut="7.6992589235305786e-01" cType="1" res="6.8103605881333351e-03" rms="4.5087602734565735e-01" purity="5.2366793155670166e-01" nType="0">
          <Node pos="l" depth="2" NCoef="0" IVar="-1" Cut="0.0000000000000000e+00" cType="1" res="-3.9053184445947409e-04" rms="4.5656225085258484e-01" purity="5.6620907783508301e-01" nType="-99"/>
          <Node pos="r" depth="2" NCoef="0" IVar="-1" Cut="0.0000000000000000e+00" cType="1" res="1.0348823852837086e-03" rms="4.4449850916862488e-01" purity="4.8079511523246765e-01" nType="-99"/>
        </Node>
      </Node>
    </BinaryTree>
    <BinaryTree type="DecisionTree" boostWeight="1.0000000000000000e+00" itree="791">
      <Node pos="s" depth="0" NCoef="0" IVar="3" Cut="2.0822843909263611e-01" cType="1" res="-4.5038377866148949e-03" rms="4.5018577575683594e-01" purity="4.9392217397689819e-01" nType="0">
        <Node pos="l" depth="1" NCoef="0" IVar="3" Cut="1.6800882294774055e-02" cType="1" res="-1.0072014294564724e-02" rms="4.5063987374305725e-01" purity="4.7921553254127502e-01" nType="0">
          <Node pos="l" depth="2" NCoef="0" IVar="-1" Cut="0.0000000000000000e+00" cType="1" res="1.6796050476841629e-04" rms="4.5008358359336853e-01" purity="4.6736347675323486e-01" nType="-99"/>
          <Node pos="r" depth="2" NCoef="0" IVar="-1" Cut="0.0000000000000000e+00" cType="1" res="-1.3372987741604447e-03" rms="4.5068457722663879e-01" purity="4.9678671360015869e-01" nType="-99"/>
        </Node>
        <Node pos="r" depth="1" NCoef="0" IVar="-1" Cut="0.0000000000000000e+00" cType="1" res="2.5737257674336433e-03" rms="4.4019967317581177e-01" purity="6.5958738327026367e-01" nType="-99"/>
      </Node>
    </BinaryTree>
    <BinaryTree type="DecisionTree" boostWeight="1.0000000000000000e+00" itree="792">
      <Node pos="s" depth="0" NCoef="0" IVar="2" Cut="9.4572836160659790e-01" cType="1" res="1.2105957604944706e-02" rms="4.5223253965377808e-01" purity="5.1362591981887817e-01" nType="0">
        <Node pos="l" depth="1" NCoef="0" IVar="4" Cut="1.2807793617248535e+00" cType="1" res="-8.7756169959902763e-03" rms="4.5680683851242065e-01" purity="3.6309954524040222e-01" nType="0">
          <Node pos="l" depth="2" NCoef="0" IVar="-1" Cut="0.0000000000000000e+00" cType="1" res="-1.0942708468064666e-03" rms="4.7024613618850708e-01" purity="4.1046592593193054e-01" nType="-99"/>
          <Node pos="r" depth="2" NCoef="0" IVar="-1" Cut="0.0000000000000000e+00" cType="1" res="2.3909851443022490e-03" rms="4.1759046912193298e-01" purity="2.4495884776115417e-01" nType="-99"/>
        </Node>
        <Node pos="r" depth="1" NCoef="0" IVar="1" Cut="2.3382472991943359e+00" cType="1" res="2.6802383363246918e-02" rms="4.4840258359909058e-01" purity="6.1956614255905151e-01" nType="0">
          <Node pos="l" depth="2" NCoef="0" IVar="-1" Cut="0.0000000000000000e+00" cType="1" res="7.1226817090064287e-04" rms="4.4516262412071228e-01" purity="6.7495864629745483e-01" nType="-99"/>
          <Node pos="r" depth="2" NCoef="0" IVar="-1" Cut="0.0000000000000000e+00" cType="1" res="2.6914565823972225e-03" rms="4.5607575774192810e-01" purity="4.6162024140357971e-01" nType="-99"/>
        </Node>
      </Node>
    </BinaryTree>
    <BinaryTree type="DecisionTree" boostWeight="1.0000000000000000e+00" itree="793">
      <Node pos="s" depth="0" NCoef="0" IVar="2" Cut="9.1501170396804810e-01" cType="1" res="-1.6965548275038600e-03" rms="4.5110356807708740e-01" purity="4.9798777699470520e-01" nType="0">
        <Node pos="l" depth="1" NCoef="0" IVar="-1" Cut="0.0000000000000000e+00" cType="1" res="2.8906431980431080e-03" rms="4.4275730848312378e-01" purity="3.4783178567886353e-01" nType="-99"/>
        <Node pos="r" depth="1" NCoef="0" IVar="3" Cut="1.3300062716007233e-01" cType="1" res="-6.7132306285202503e-03" rms="4.5139431953430176e-01" purity="5.1007044315338135e-01" nType="0">
          <Node pos="l" depth="2" NCoef="0" IVar="-1" Cut="0.0000000000000000e+00" cType="1" res="-7.1300956187769771e-04" rms="4.5250433683395386e-01" purity="4.7850656509399414e-01" nType="-99"/>
          <Node pos="r" depth="2" NCoef="0" IVar="-1" Cut="0.0000000000000000e+00" cType="1" res="1.3450268888846040e-03" rms="4.4475397467613220e-01" purity="6.3945108652114868e-01" nType="-99"/>
        </Node>
      </Node>
    </BinaryTree>
    <BinaryTree type="DecisionTree" boostWeight="1.0000000000000000e+00" itree="794">
      <Node pos="s" depth="0" NCoef="0" IVar="6" Cut="5.0412659645080566e+00" cType="1" res="6.7752865143120289e-03" rms="4.5066913962364197e-01" purity="5.0679254531860352e-01" nType="0">
        <Node pos="l" depth="1" NCoef="0" IVar="-1" Cut="0.0000000000000000e+00" cType="1" res="3.1047083903104067e-03" rms="4.4136703014373779e-01" purity="3.0485668778419495e-01" nType="-99"/>
        <Node pos="r" depth="1" NCoef="0" IVar="3" Cut="-3.2555576413869858e-02" cType="1" res="2.3837469052523375e-03" rms="4.5114481449127197e-01" purity="5.2340608835220337e-01" nType="0">
          <Node pos="l" depth="2" NCoef="0" IVar="-1" Cut="0.0000000000000000e+00" cType="1" res="9.7136368276551366e-04" rms="4.5272615551948547e-01" purity="4.9904564023017883e-01" nType="-99"/>
          <Node pos="r" depth="2" NCoef="0" IVar="-1" Cut="0.0000000000000000e+00" cType="1" res="-5.0862430362030864e-04" rms="4.4948378205299377e-01" purity="5.4092377424240112e-01" nType="-99"/>
        </Node>
      </Node>
    </BinaryTree>
    <BinaryTree type="DecisionTree" boostWeight="1.0000000000000000e+00" itree="795">
      <Node pos="s" depth="0" NCoef="0" IVar="3" Cut="1.2777832150459290e-01" cType="1" res="4.1509675793349743e-03" rms="4.5317259430885315e-01" purity="5.0437128543853760e-01" nType="0">
        <Node pos="l" depth="1" NCoef="0" IVar="3" Cut="-4.5106583274900913e-03" cType="1" res="-2.4256268516182899e-03" rms="4.5424604415893555e-01" purity="4.7556883096694946e-01" nType="0">
          <Node pos="l" depth="2" NCoef="0" IVar="-1" Cut="0.0000000000000000e+00" cType="1" res="4.9743481213226914e-04" rms="4.5295509696006775e-01" purity="4.7403034567832947e-01" nType="-99"/>
          <Node pos="r" depth="2" NCoef="0" IVar="-1" Cut="0.0000000000000000e+00" cType="1" res="-1.0445220395922661e-03" rms="4.5548307895660400e-01" purity="4.7805124521255493e-01" nType="-99"/>
        </Node>
        <Node pos="r" depth="1" NCoef="0" IVar="5" Cut="8.1034135818481445e-01" cType="1" res="2.9771424829959869e-02" rms="4.4804671406745911e-01" purity="6.1657702922821045e-01" nType="0">
          <Node pos="l" depth="2" NCoef="0" IVar="-1" Cut="0.0000000000000000e+00" cType="1" res="-4.2738797492347658e-04" rms="4.4312608242034912e-01" purity="6.3244503736495972e-01" nType="-99"/>
          <Node pos="r" depth="2" NCoef="0" IVar="-1" Cut="0.0000000000000000e+00" cType="1" res="2.6598696131259203e-03" rms="4.4947898387908936e-01" purity="6.0339677333831787e-01" nType="-99"/>
        </Node>
      </Node>
    </BinaryTree>
    <BinaryTree type="DecisionTree" boostWeight="1.0000000000000000e+00" itree="796">
      <Node pos="s" depth="0" NCoef="0" IVar="2" Cut="9.6128660440444946e-01" cType="1" res="6.7682689987123013e-03" rms="4.4665303826332092e-01" purity="5.1177102327346802e-01" nType="0">
        <Node pos="l" depth="1" NCoef="0" IVar="5" Cut="9.8794400691986084e-01" cType="1" res="-9.3939444050192833e-03" rms="4.5476028323173523e-01" purity="4.2240917682647705e-01" nType="0">
          <Node pos="l" depth="2" NCoef="0" IVar="-1" Cut="0.0000000000000000e+00" cType="1" res="6.6444416006561369e-05" rms="4.6370279788970947e-01" purity="4.6197015047073364e-01" nType="-99"/>
          <Node pos="r" depth="2" NCoef="0" IVar="-1" Cut="0.0000000000000000e+00" cType="1" res="-2.0365251693874598e-03" rms="4.2482799291610718e-01" purity="3.0269554257392883e-01" nType="-99"/>
        </Node>
        <Node pos="r" depth="1" NCoef="0" IVar="2" Cut="9.6956139802932739e-01" cType="1" res="3.6963608115911484e-02" rms="4.2947161197662354e-01" purity="6.7872279882431030e-01" nType="0">
          <Node pos="l" depth="2" NCoef="0" IVar="-1" Cut="0.0000000000000000e+00" cType="1" res="3.1510952394455671e-03" rms="4.3437334895133972e-01" purity="6.7534548044204712e-01" nType="-99"/>
          <Node pos="r" depth="2" NCoef="0" IVar="-1" Cut="0.0000000000000000e+00" cType="1" res="8.0321839777752757e-04" rms="4.2522385716438293e-01" purity="6.8072539567947388e-01" nType="-99"/>
        </Node>
      </Node>
    </BinaryTree>
    <BinaryTree type="DecisionTree" boostWeight="1.0000000000000000e+00" itree="797">
      <Node pos="s" depth="0" NCoef="0" IVar="2" Cut="9.1014730930328369e-01" cType="1" res="-3.3637182787060738e-03" rms="4.4784146547317505e-01" purity="4.9797087907791138e-01" nType="0">
        <Node pos="l" depth="1" NCoef="0" IVar="-1" Cut="0.0000000000000000e+00" cType="1" res="-3.9905426092445850e-03" rms="3.9120447635650635e-01" purity="2.0627912878990173e-01" nType="-99"/>
        <Node pos="r" depth="1" NCoef="0" IVar="1" Cut="1.7698223590850830e+00" cType="1" res="1.7128026811406016e-03" rms="4.5061948895454407e-01" purity="5.1600772142410278e-01" nType="0">
          <Node pos="l" depth="2" NCoef="0" IVar="-1" Cut="0.0000000000000000e+00" cType="1" res="2.7735081966966391e-03" rms="4.4135516881942749e-01" purity="6.2744814157485962e-01" nType="-99"/>
          <Node pos="r" depth="2" NCoef="0" IVar="-1" Cut="0.0000000000000000e+00" cType="1" res="-1.5315873315557837e-04" rms="4.5091983675956726e-01" purity="5.0737929344177246e-01" nType="-99"/>
        </Node>
      </Node>
    </BinaryTree>
    <BinaryTree type="DecisionTree" boostWeight="1.0000000000000000e+00" itree="798">
      <Node pos="s" depth="0" NCoef="0" IVar="0" Cut="4.5430686950683594e+01" cType="1" res="-1.3820354826748371e-02" rms="4.4818568229675293e-01" purity="4.8279917240142822e-01" nType="0">
        <Node pos="l" depth="1" NCoef="0" IVar="3" Cut="2.5763768702745438e-02" cType="1" res="-5.5598266422748566e-02" rms="4.3837410211563110e-01" purity="3.3438563346862793e-01" nType="0">
          <Node pos="l" depth="2" NCoef="0" IVar="-1" Cut="0.0000000000000000e+00" cType="1" res="-1.4052917249500751e-03" rms="4.2827472090721130e-01" purity="3.2182365655899048e-01" nType="-99"/>
          <Node pos="r" depth="2" NCoef="0" IVar="-1" Cut="0.0000000000000000e+00" cType="1" res="-3.9182822220027447e-03" rms="4.4910806417465210e-01" purity="3.5080322623252869e-01" nType="-99"/>
        </Node>
        <Node pos="r" depth="1" NCoef="0" IVar="5" Cut="3.6429968476295471e-01" cType="1" res="-4.8286062665283680e-03" rms="4.4976222515106201e-01" purity="5.1474177837371826e-01" nType="0">
          <Node pos="l" depth="2" NCoef="0" IVar="-1" Cut="0.0000000000000000e+00" cType="1" res="-2.3164751473814249e-03" rms="4.7011923789978027e-01" purity="5.3460854291915894e-01" nType="-99"/>
          <Node pos="r" depth="2" NCoef="0" IVar="-1" Cut="0.0000000000000000e+00" cType="1" res="1.0090783689520322e-05" rms="4.4780096411705017e-01" purity="5.1326668262481689e-01" nType="-99"/>
        </Node>
      </Node>
    </BinaryTree>
    <BinaryTree type="DecisionTree" boostWeight="1.0000000000000000e+00" itree="799">
      <Node pos="s" depth="0" NCoef="0" IVar="4" Cut="5.4983717203140259e-01" cType="1" res="1.2017539702355862e-03" rms="4.5010337233543396e-01" purity="4.9906733632087708e-01" nType="0">
        <Node pos="l" depth="1" NCoef="0" IVar="-1" Cut="0.0000000000000000e+00" cType="1" res="1.7942565027624369e-03" rms="4.2483872175216675e-01" purity="7.0940667390823364e-01" nType="-99"/>
        <Node pos="r" depth="1" NCoef="0" IVar="5" Cut="8.3850336074829102e-01" cType="1" res="-3.5522237885743380e-03" rms="4.5277586579322815e-01" purity="4.7408172488212585e-01" nType="0">
          <Node pos="l" depth="2" NCoef="0" IVar="-1" Cut="0.0000000000000000e+00" cType="1" res="-6.4177287276834249e-04" rms="4.5961961150169373e-01" purity="5.1075333356857300e-01" nType="-99"/>
          <Node pos="r" depth="2" NCoef="0" IVar="-1" Cut="0.0000000000000000e+00" cType="1" res="4.9847480840981007e-04" rms="4.4370079040527344e-01" purity="4.2847156524658203e-01" nType="-99"/>
        </Node>
      </Node>
    </BinaryTree>
    <BinaryTree type="DecisionTree" boostWeight="1.0000000000000000e+00" itree="800">
      <Node pos="s" depth="0" NCoef="0" IVar="3" Cut="1.9489949941635132e-01" cType="1" res="3.1099896878004074e-03" rms="4.5462986826896667e-01" purity="5.0814217329025269e-01" nType="0">
        <Node pos="l" depth="1" NCoef="0" IVar="3" Cut="2.8160059824585915e-02" cType="1" res="-1.9818861037492752e-03" rms="4.5603016018867493e-01" purity="4.9228551983833313e-01" nType="0">
          <Node pos="l" depth="2" NCoef="0" IVar="-1" Cut="0.0000000000000000e+00" cType="1" res="4.3901067692786455e-04" rms="4.5285308361053467e-01" purity="4.8313137888908386e-01" nType="-99"/>
          <Node pos="r" depth="2" NCoef="0" IVar="-1" Cut="0.0000000000000000e+00" cType="1" res="-1.0280770948156714e-03" rms="4.6099767088890076e-01" purity="5.0906860828399658e-01" nType="-99"/>
        </Node>
        <Node pos="r" depth="1" NCoef="0" IVar="-1" Cut="0.0000000000000000e+00" cType="1" res="2.1458445116877556e-03" rms="4.3930643796920776e-01" purity="6.4984709024429321e-01" nType="-99"/>
      </Node>
    </BinaryTree>
    <BinaryTree type="DecisionTree" boostWeight="1.0000000000000000e+00" itree="801">
      <Node pos="s" depth="0" NCoef="0" IVar="7" Cut="4.4324395060539246e-01" cType="1" res="6.8654835922643542e-04" rms="4.5012760162353516e-01" purity="5.0028765201568604e-01" nType="0">
        <Node pos="l" depth="1" NCoef="0" IVar="6" Cut="5.5028963088989258e+00" cType="1" res="1.3653545640408993e-02" rms="4.4166064262390137e-01" purity="4.6776902675628662e-01" nType="0">
          <Node pos="l" depth="2" NCoef="0" IVar="-1" Cut="0.0000000000000000e+00" cType="1" res="-9.3984988052397966e-04" rms="4.1566428542137146e-01" purity="2.3824587464332581e-01" nType="-99"/>
          <Node pos="r" depth="2" NCoef="0" IVar="-1" Cut="0.0000000000000000e+00" cType="1" res="9.0549892047420144e-04" rms="4.4657662510871887e-01" purity="5.1528400182723999e-01" nType="-99"/>
        </Node>
        <Node pos="r" depth="1" NCoef="0" IVar="2" Cut="9.5490801334381104e-01" cType="1" res="-1.8083225935697556e-02" rms="4.6146386861801147e-01" purity="5.4735851287841797e-01" nType="0">
          <Node pos="l" depth="2" NCoef="0" IVar="-1" Cut="0.0000000000000000e+00" cType="1" res="2.6855987380258739e-04" rms="4.6671539545059204e-01" purity="4.7398072481155396e-01" nType="-99"/>
          <Node pos="r" depth="2" NCoef="0" IVar="-1" Cut="0.0000000000000000e+00" cType="1" res="-2.0987133029848337e-03" rms="4.5421573519706726e-01" purity="6.2653338909149170e-01" nType="-99"/>
        </Node>
      </Node>
    </BinaryTree>
    <BinaryTree type="DecisionTree" boostWeight="1.0000000000000000e+00" itree="802">
      <Node pos="s" depth="0" NCoef="0" IVar="0" Cut="1.4442974853515625e+02" cType="1" res="-4.8698857426643372e-03" rms="4.4650569558143616e-01" purity="4.9413210153579712e-01" nType="0">
        <Node pos="l" depth="1" NCoef="0" IVar="0" Cut="9.1440147399902344e+01" cType="1" res="-1.6479926416650414e-03" rms="4.4644227623939514e-01" purity="4.9891114234924316e-01" nType="0">
          <Node pos="l" depth="2" NCoef="0" IVar="-1" Cut="0.0000000000000000e+00" cType="1" res="-6.3593429513275623e-04" rms="4.4862028956413269e-01" purity="4.5408883690834045e-01" nType="-99"/>
          <Node pos="r" depth="2" NCoef="0" IVar="-1" Cut="0.0000000000000000e+00" cType="1" res="1.2314496561884880e-03" rms="4.4014912843704224e-01" purity="5.9883755445480347e-01" nType="-99"/>
        </Node>
        <Node pos="r" depth="1" NCoef="0" IVar="-1" Cut="0.0000000000000000e+00" cType="1" res="-2.3967640008777380e-03" rms="4.4480988383293152e-01" purity="4.2484191060066223e-01" nType="-99"/>
      </Node>
    </BinaryTree>
    <BinaryTree type="DecisionTree" boostWeight="1.0000000000000000e+00" itree="803">
      <Node pos="s" depth="0" NCoef="0" IVar="4" Cut="1.6763459444046021e+00" cType="1" res="1.9814434926956892e-03" rms="4.4618698954582214e-01" purity="4.9745181202888489e-01" nType="0">
        <Node pos="l" depth="1" NCoef="0" IVar="6" Cut="6.5562558174133301e+00" cType="1" res="4.9764839932322502e-03" rms="4.5329901576042175e-01" purity="5.2323013544082642e-01" nType="0">
          <Node pos="l" depth="2" NCoef="0" IVar="-1" Cut="0.0000000000000000e+00" cType="1" res="8.9799915440380573e-04" rms="4.6276900172233582e-01" purity="3.9890629053115845e-01" nType="-99"/>
          <Node pos="r" depth="2" NCoef="0" IVar="-1" Cut="0.0000000000000000e+00" cType="1" res="-3.1959760235622525e-04" rms="4.4579118490219116e-01" purity="6.1497598886489868e-01" nType="-99"/>
        </Node>
        <Node pos="r" depth="1" NCoef="0" IVar="-1" Cut="0.0000000000000000e+00" cType="1" res="-2.8759238775819540e-03" rms="3.3064785599708557e-01" purity="1.4309966564178467e-01" nType="-99"/>
      </Node>
    </BinaryTree>
    <BinaryTree type="DecisionTree" boostWeight="1.0000000000000000e+00" itree="804">
      <Node pos="s" depth="0" NCoef="0" IVar="5" Cut="8.7744981050491333e-01" cType="1" res="-7.6864473521709442e-03" rms="4.4986644387245178e-01" purity="4.9251201748847961e-01" nType="0">
        <Node pos="l" depth="1" NCoef="0" IVar="2" Cut="9.1783130168914795e-01" cType="1" res="-1.9254775717854500e-02" rms="4.5421236753463745e-01" purity="5.2517426013946533e-01" nType="0">
          <Node pos="l" depth="2" NCoef="0" IVar="-1" Cut="0.0000000000000000e+00" cType="1" res="1.3891287380829453e-03" rms="4.5640936493873596e-01" purity="3.6953479051589966e-01" nType="-99"/>
          <Node pos="r" depth="2" NCoef="0" IVar="-1" Cut="0.0000000000000000e+00" cType="1" res="-1.0609161108732224e-03" rms="4.5366221666336060e-01" purity="5.4106938838958740e-01" nType="-99"/>
        </Node>
        <Node pos="r" depth="1" NCoef="0" IVar="1" Cut="2.1398108005523682e+00" cType="1" res="1.2963360175490379e-02" rms="4.4124940037727356e-01" purity="4.3420901894569397e-01" nType="0">
          <Node pos="l" depth="2" NCoef="0" IVar="-1" Cut="0.0000000000000000e+00" cType="1" res="1.8855971284210682e-03" rms="4.6636551618576050e-01" purity="5.5863237380981445e-01" nType="-99"/>
          <Node pos="r" depth="2" NCoef="0" IVar="-1" Cut="0.0000000000000000e+00" cType="1" res="-1.9916165911126882e-04" rms="4.2637774348258972e-01" purity="3.6835739016532898e-01" nType="-99"/>
        </Node>
      </Node>
    </BinaryTree>
    <BinaryTree type="DecisionTree" boostWeight="1.0000000000000000e+00" itree="805">
      <Node pos="s" depth="0" NCoef="0" IVar="6" Cut="5.2410364151000977e+00" cType="1" res="4.7261188738048077e-03" rms="4.5353180170059204e-01" purity="5.0531023740768433e-01" nType="0">
        <Node pos="l" depth="1" NCoef="0" IVar="5" Cut="8.5787713527679443e-01" cType="1" res="5.5356565862894058e-02" rms="4.5372140407562256e-01" purity="3.1846728920936584e-01" nType="0">
          <Node pos="l" depth="2" NCoef="0" IVar="-1" Cut="0.0000000000000000e+00" cType="1" res="1.5378621174022555e-03" rms="4.6927797794342041e-01" purity="3.4878435730934143e-01" nType="-99"/>
          <Node pos="r" depth="2" NCoef="0" IVar="-1" Cut="0.0000000000000000e+00" cType="1" res="4.3596373870968819e-03" rms="4.3567976355552673e-01" purity="2.8667366504669189e-01" nType="-99"/>
        </Node>
        <Node pos="r" depth="1" NCoef="0" IVar="5" Cut="1.1540714502334595e+00" cType="1" res="-1.3461887137964368e-03" rms="4.5312926173210144e-01" purity="5.2771896123886108e-01" nType="0">
          <Node pos="l" depth="2" NCoef="0" IVar="-1" Cut="0.0000000000000000e+00" cType="1" res="-2.5330384960398078e-04" rms="4.5163178443908691e-01" purity="5.3613579273223877e-01" nType="-99"/>
          <Node pos="r" depth="2" NCoef="0" IVar="-1" Cut="0.0000000000000000e+00" cType="1" res="1.7678572330623865e-03" rms="4.6487152576446533e-01" purity="4.4917944073677063e-01" nType="-99"/>
        </Node>
      </Node>
    </BinaryTree>
    <BinaryTree type="DecisionTree" boostWeight="1.0000000000000000e+00" itree="806">
      <Node pos="s" depth="0" NCoef="0" IVar="4" Cut="6.3668781518936157e-01" cType="1" res="-9.3692471273243427e-04" rms="4.4796127080917358e-01" purity="5.0056284666061401e-01" nType="0">
        <Node pos="l" depth="1" NCoef="0" IVar="6" Cut="6.3265662193298340e+00" cType="1" res="-3.4190304577350616e-02" rms="4.5239129662513733e-01" purity="6.3274157047271729e-01" nType="0">
          <Node pos="l" depth="2" NCoef="0" IVar="-1" Cut="0.0000000000000000e+00" cType="1" res="-3.0386850703507662e-03" rms="4.7628748416900635e-01" purity="4.5071479678153992e-01" nType="-99"/>
          <Node pos="r" depth="2" NCoef="0" IVar="-1" Cut="0.0000000000000000e+00" cType="1" res="-5.1635119598358870e-04" rms="4.3831914663314819e-01" purity="7.2154593467712402e-01" nType="-99"/>
        </Node>
        <Node pos="r" depth="1" NCoef="0" IVar="5" Cut="4.7917625308036804e-01" cType="1" res="5.6988787837326527e-03" rms="4.4677585363388062e-01" purity="4.7418624162673950e-01" nType="0">
          <Node pos="l" depth="2" NCoef="0" IVar="-1" Cut="0.0000000000000000e+00" cType="1" res="3.0651297420263290e-03" rms="4.4551777839660645e-01" purity="5.9834206104278564e-01" nType="-99"/>
          <Node pos="r" depth="2" NCoef="0" IVar="-1" Cut="0.0000000000000000e+00" cType="1" res="-3.5435245081316680e-05" rms="4.4637441635131836e-01" purity="4.6197268366813660e-01" nType="-99"/>
        </Node>
      </Node>
    </BinaryTree>
    <BinaryTree type="DecisionTree" boostWeight="1.0000000000000000e+00" itree="807">
      <Node pos="s" depth="0" NCoef="0" IVar="5" Cut="1.0328750610351562e+00" cType="1" res="-9.2476885765790939e-04" rms="4.4764134287834167e-01" purity="4.9884191155433655e-01" nType="0">
        <Node pos="l" depth="1" NCoef="0" IVar="1" Cut="2.1636903285980225e+00" cType="1" res="8.5052391514182091e-03" rms="4.5152959227561951e-01" purity="5.3123235702514648e-01" nType="0">
          <Node pos="l" depth="2" NCoef="0" IVar="-1" Cut="0.0000000000000000e+00" cType="1" res="-2.9937917133793235e-04" rms="4.5740684866905212e-01" purity="5.9231841564178467e-01" nType="-99"/>
          <Node pos="r" depth="2" NCoef="0" IVar="-1" Cut="0.0000000000000000e+00" cType="1" res="1.2816017260774970e-03" rms="4.4341081380844116e-01" purity="4.5581465959548950e-01" nType="-99"/>
        </Node>
        <Node pos="r" depth="1" NCoef="0" IVar="3" Cut="-4.1289426386356354e-02" cType="1" res="-4.2064443230628967e-02" rms="4.2784318327903748e-01" purity="3.5753440856933594e-01" nType="0">
          <Node pos="l" depth="2" NCoef="0" IVar="-1" Cut="0.0000000000000000e+00" cType="1" res="-2.3637633421458304e-04" rms="4.0788230299949646e-01" purity="3.4693819284439087e-01" nType="-99"/>
          <Node pos="r" depth="2" NCoef="0" IVar="-1" Cut="0.0000000000000000e+00" cType="1" res="-2.7940713334828615e-03" rms="4.3654406070709229e-01" purity="3.6299082636833191e-01" nType="-99"/>
        </Node>
      </Node>
    </BinaryTree>
    <BinaryTree type="DecisionTree" boostWeight="1.0000000000000000e+00" itree="808">
      <Node pos="s" depth="0" NCoef="0" IVar="5" Cut="7.8642040491104126e-01" cType="1" res="9.5000239089131355e-03" rms="4.4748753309249878e-01" purity="5.1116466522216797e-01" nType="0">
        <Node pos="l" depth="1" NCoef="0" IVar="0" Cut="7.2282470703125000e+01" cType="1" res="2.4936489760875702e-02" rms="4.4870996475219727e-01" purity="5.7991325855255127e-01" nType="0">
          <Node pos="l" depth="2" NCoef="0" IVar="-1" Cut="0.0000000000000000e+00" cType="1" res="1.8002970609813929e-03" rms="4.5911583304405212e-01" purity="5.4864197969436646e-01" nType="-99"/>
          <Node pos="r" depth="2" NCoef="0" IVar="-1" Cut="0.0000000000000000e+00" cType="1" res="1.8851124332286417e-04" rms="4.3676516413688660e-01" purity="6.1214691400527954e-01" nType="-99"/>
        </Node>
        <Node pos="r" depth="1" NCoef="0" IVar="7" Cut="5.8953672647476196e-01" cType="1" res="-8.9802984148263931e-03" rms="4.4531646370887756e-01" purity="4.2885982990264893e-01" nType="0">
          <Node pos="l" depth="2" NCoef="0" IVar="-1" Cut="0.0000000000000000e+00" cType="1" res="-3.2402433134848252e-05" rms="4.4010698795318604e-01" purity="4.1897308826446533e-01" nType="-99"/>
          <Node pos="r" depth="2" NCoef="0" IVar="-1" Cut="0.0000000000000000e+00" cType="1" res="-2.7361675165593624e-03" rms="4.7349706292152405e-01" purity="4.9112090468406677e-01" nType="-99"/>
        </Node>
      </Node>
    </BinaryTree>
    <BinaryTree type="DecisionTree" boostWeight="1.0000000000000000e+00" itree="809">
      <Node pos="s" depth="0" NCoef="0" IVar="0" Cut="5.8771011352539062e+01" cType="1" res="-2.8932506684213877e-03" rms="4.4732099771499634e-01" purity="4.9367246031761169e-01" nType="0">
        <Node pos="l" depth="1" NCoef="0" IVar="5" Cut="1.0329569578170776e+00" cType="1" res="2.4692771956324577e-02" rms="4.5127323269844055e-01" purity="4.6542009711265564e-01" nType="0">
          <Node pos="l" depth="2" NCoef="0" IVar="-1" Cut="0.0000000000000000e+00" cType="1" res="5.8440398424863815e-04" rms="4.5095428824424744e-01" purity="4.7657775878906250e-01" nType="-99"/>
          <Node pos="r" depth="2" NCoef="0" IVar="-1" Cut="0.0000000000000000e+00" cType="1" res="3.6111678928136826e-03" rms="4.4923070073127747e-01" purity="4.1346612572669983e-01" nType="-99"/>
        </Node>
        <Node pos="r" depth="1" NCoef="0" IVar="2" Cut="9.1517215967178345e-01" cType="1" res="-1.6496224328875542e-02" rms="4.4472971558570862e-01" purity="5.0760400295257568e-01" nType="0">
          <Node pos="l" depth="2" NCoef="0" IVar="-1" Cut="0.0000000000000000e+00" cType="1" res="-3.0311974696815014e-03" rms="4.0382632613182068e-01" purity="2.4556908011436462e-01" nType="-99"/>
          <Node pos="r" depth="2" NCoef="0" IVar="-1" Cut="0.0000000000000000e+00" cType="1" res="-4.9440568545833230e-04" rms="4.4826790690422058e-01" purity="5.3353261947631836e-01" nType="-99"/>
        </Node>
      </Node>
    </BinaryTree>
    <BinaryTree type="DecisionTree" boostWeight="1.0000000000000000e+00" itree="810">
      <Node pos="s" depth="0" NCoef="0" IVar="5" Cut="6.9182455539703369e-01" cType="1" res="1.8193869618698955e-03" rms="4.4980734586715698e-01" purity="5.0510156154632568e-01" nType="0">
        <Node pos="l" depth="1" NCoef="0" IVar="5" Cut="4.6534198522567749e-01" cType="1" res="2.7263697236776352e-02" rms="4.5284950733184814e-01" purity="6.0259240865707397e-01" nType="0">
          <Node pos="l" depth="2" NCoef="0" IVar="-1" Cut="0.0000000000000000e+00" cType="1" res="-1.6912445425987244e-04" rms="4.6107664704322815e-01" purity="5.8186751604080200e-01" nType="-99"/>
          <Node pos="r" depth="2" NCoef="0" IVar="-1" Cut="0.0000000000000000e+00" cType="1" res="1.9113833550363779e-03" rms="4.4740718603134155e-01" purity="6.1378711462020874e-01" nType="-99"/>
        </Node>
        <Node pos="r" depth="1" NCoef="0" IVar="0" Cut="1.2434957122802734e+02" cType="1" res="-1.6556011512875557e-02" rms="4.4669708609580994e-01" purity="4.3469554185867310e-01" nType="0">
          <Node pos="l" depth="2" NCoef="0" IVar="-1" Cut="0.0000000000000000e+00" cType="1" res="-4.2296497849747539e-04" rms="4.4728687405586243e-01" purity="4.3752354383468628e-01" nType="-99"/>
          <Node pos="r" depth="2" NCoef="0" IVar="-1" Cut="0.0000000000000000e+00" cType="1" res="-2.5367729831486940e-03" rms="4.4177073240280151e-01" purity="4.2008748650550842e-01" nType="-99"/>
        </Node>
      </Node>
    </BinaryTree>
    <BinaryTree type="DecisionTree" boostWeight="1.0000000000000000e+00" itree="811">
      <Node pos="s" depth="0" NCoef="0" IVar="5" Cut="1.2136999368667603e+00" cType="1" res="3.3918598201125860e-03" rms="4.5026189088821411e-01" purity="5.0365269184112549e-01" nType="0">
        <Node pos="l" depth="1" NCoef="0" IVar="2" Cut="9.1864937543869019e-01" cType="1" res="9.3606067821383476e-03" rms="4.5126298069953918e-01" purity="5.1743996143341064e-01" nType="0">
          <Node pos="l" depth="2" NCoef="0" IVar="-1" Cut="0.0000000000000000e+00" cType="1" res="3.3788206055760384e-03" rms="4.5419099926948547e-01" purity="3.8304349780082703e-01" nType="-99"/>
          <Node pos="r" depth="2" NCoef="0" IVar="-1" Cut="0.0000000000000000e+00" cType="1" res="1.0056471364805475e-04" rms="4.5038765668869019e-01" purity="5.3215384483337402e-01" nType="-99"/>
        </Node>
        <Node pos="r" depth="1" NCoef="0" IVar="-1" Cut="0.0000000000000000e+00" cType="1" res="-3.9983377791941166e-03" rms="4.2517444491386414e-01" purity="2.9770660400390625e-01" nType="-99"/>
      </Node>
    </BinaryTree>
    <BinaryTree type="DecisionTree" boostWeight="1.0000000000000000e+00" itree="812">
      <Node pos="s" depth="0" NCoef="0" IVar="2" Cut="9.7079807519912720e-01" cType="1" res="2.4056429974734783e-03" rms="4.4743129611015320e-01" purity="5.0311529636383057e-01" nType="0">
        <Node pos="l" depth="1" NCoef="0" IVar="2" Cut="9.1839820146560669e-01" cType="1" res="-7.9615032300353050e-03" rms="4.5679461956024170e-01" purity="4.4768989086151123e-01" nType="0">
          <Node pos="l" depth="2" NCoef="0" IVar="-1" Cut="0.0000000000000000e+00" cType="1" res="1.5206696698442101e-03" rms="4.4833260774612427e-01" purity="3.3527481555938721e-01" nType="-99"/>
          <Node pos="r" depth="2" NCoef="0" IVar="-1" Cut="0.0000000000000000e+00" cType="1" res="-6.2298687407746911e-04" rms="4.5779678225517273e-01" purity="4.6593415737152100e-01" nType="-99"/>
        </Node>
        <Node pos="r" depth="1" NCoef="0" IVar="6" Cut="8.4154758453369141e+00" cType="1" res="4.5705322176218033e-02" rms="4.0312442183494568e-01" purity="7.3460638523101807e-01" nType="0">
          <Node pos="l" depth="2" NCoef="0" IVar="-1" Cut="0.0000000000000000e+00" cType="1" res="4.6511762775480747e-03" rms="4.0073332190513611e-01" purity="7.3082035779953003e-01" nType="-99"/>
          <Node pos="r" depth="2" NCoef="0" IVar="-1" Cut="0.0000000000000000e+00" cType="1" res="1.1570611968636513e-03" rms="4.0162435173988342e-01" purity="7.3607689142227173e-01" nType="-99"/>
        </Node>
      </Node>
    </BinaryTree>
    <BinaryTree type="DecisionTree" boostWeight="1.0000000000000000e+00" itree="813">
      <Node pos="s" depth="0" NCoef="0" IVar="6" Cut="8.3198156356811523e+00" cType="1" res="2.2567768610315397e-05" rms="4.5365422964096069e-01" purity="4.9846488237380981e-01" nType="0">
        <Node pos="l" depth="1" NCoef="0" IVar="1" Cut="2.6697924137115479e+00" cType="1" res="6.2959529459476471e-03" rms="4.5719754695892334e-01" purity="4.6421638131141663e-01" nType="0">
          <Node pos="l" depth="2" NCoef="0" IVar="-1" Cut="0.0000000000000000e+00" cType="1" res="4.1072784370044246e-05" rms="4.6095657348632812e-01" purity="4.8490181565284729e-01" nType="-99"/>
          <Node pos="r" depth="2" NCoef="0" IVar="-1" Cut="0.0000000000000000e+00" cType="1" res="4.9022510647773743e-03" rms="4.0752533078193665e-01" purity="2.3037907481193542e-01" nType="-99"/>
        </Node>
        <Node pos="r" depth="1" NCoef="0" IVar="7" Cut="3.9154216647148132e-01" cType="1" res="-2.9642183333635330e-02" rms="4.3528690934181213e-01" purity="6.6041493415832520e-01" nType="0">
          <Node pos="l" depth="2" NCoef="0" IVar="-1" Cut="0.0000000000000000e+00" cType="1" res="4.2537748231552541e-04" rms="4.2776057124137878e-01" purity="6.4594405889511108e-01" nType="-99"/>
          <Node pos="r" depth="2" NCoef="0" IVar="-1" Cut="0.0000000000000000e+00" cType="1" res="-3.3329508733004332e-03" rms="4.3903291225433350e-01" purity="6.7323136329650879e-01" nType="-99"/>
        </Node>
      </Node>
    </BinaryTree>
    <BinaryTree type="DecisionTree" boostWeight="1.0000000000000000e+00" itree="814">
      <Node pos="s" depth="0" NCoef="0" IVar="3" Cut="2.3516288399696350e-01" cType="1" res="1.0529039427638054e-02" rms="4.4896781444549561e-01" purity="5.1068753004074097e-01" nType="0">
        <Node pos="l" depth="1" NCoef="0" IVar="5" Cut="4.7910210490226746e-01" cType="1" res="1.4922678470611572e-02" rms="4.4850480556488037e-01" purity="5.0954914093017578e-01" nType="0">
          <Node pos="l" depth="2" NCoef="0" IVar="-1" Cut="0.0000000000000000e+00" cType="1" res="-8.8171428069472313e-04" rms="4.5767873525619507e-01" purity="5.5619591474533081e-01" nType="-99"/>
          <Node pos="r" depth="2" NCoef="0" IVar="-1" Cut="0.0000000000000000e+00" cType="1" res="9.9206378217786551e-04" rms="4.4629773497581482e-01" purity="5.0021451711654663e-01" nType="-99"/>
        </Node>
        <Node pos="r" depth="1" NCoef="0" IVar="-1" Cut="0.0000000000000000e+00" cType="1" res="-2.7801787946373224e-03" rms="4.5022085309028625e-01" purity="5.3017228841781616e-01" nType="-99"/>
      </Node>
    </BinaryTree>
    <BinaryTree type="DecisionTree" boostWeight="1.0000000000000000e+00" itree="815">
      <Node pos="s" depth="0" NCoef="0" IVar="2" Cut="9.8541247844696045e-01" cType="1" res="6.4379745163023472e-03" rms="4.5083102583885193e-01" purity="5.0574749708175659e-01" nType="0">
        <Node pos="l" depth="1" NCoef="0" IVar="2" Cut="9.4160151481628418e-01" cType="1" res="2.6171796489506960e-03" rms="4.5571589469909668e-01" purity="4.8574072122573853e-01" nType="0">
          <Node pos="l" depth="2" NCoef="0" IVar="-1" Cut="0.0000000000000000e+00" cType="1" res="1.0548316640779376e-03" rms="4.5396575331687927e-01" purity="3.7825953960418701e-01" nType="-99"/>
          <Node pos="r" depth="2" NCoef="0" IVar="-1" Cut="0.0000000000000000e+00" cType="1" res="-4.7241963329724967e-04" rms="4.5631110668182373e-01" purity="5.5314868688583374e-01" nType="-99"/>
        </Node>
        <Node pos="r" depth="1" NCoef="0" IVar="-1" Cut="0.0000000000000000e+00" cType="1" res="3.1611898448318243e-03" rms="3.7032985687255859e-01" purity="7.9013496637344360e-01" nType="-99"/>
      </Node>
    </BinaryTree>
    <BinaryTree type="DecisionTree" boostWeight="1.0000000000000000e+00" itree="816">
      <Node pos="s" depth="0" NCoef="0" IVar="1" Cut="2.1627213954925537e+00" cType="1" res="-2.2086335811764002e-03" rms="4.4792136549949646e-01" purity="5.0086647272109985e-01" nType="0">
        <Node pos="l" depth="1" NCoef="0" IVar="7" Cut="2.4883937835693359e-01" cType="1" res="1.3430912047624588e-02" rms="4.5427310466766357e-01" purity="5.9940898418426514e-01" nType="0">
          <Node pos="l" depth="2" NCoef="0" IVar="-1" Cut="0.0000000000000000e+00" cType="1" res="-1.1368807172402740e-03" rms="4.6051362156867981e-01" purity="4.9287226796150208e-01" nType="-99"/>
          <Node pos="r" depth="2" NCoef="0" IVar="-1" Cut="0.0000000000000000e+00" cType="1" res="9.3316560378298163e-04" rms="4.5237344503402710e-01" purity="6.2315487861633301e-01" nType="-99"/>
        </Node>
        <Node pos="r" depth="1" NCoef="0" IVar="0" Cut="1.2147977447509766e+02" cType="1" res="-1.9134558737277985e-02" rms="4.4031864404678345e-01" purity="3.9421859383583069e-01" nType="0">
          <Node pos="l" depth="2" NCoef="0" IVar="-1" Cut="0.0000000000000000e+00" cType="1" res="-4.1833205614238977e-04" rms="4.4034010171890259e-01" purity="3.9391705393791199e-01" nType="-99"/>
          <Node pos="r" depth="2" NCoef="0" IVar="-1" Cut="0.0000000000000000e+00" cType="1" res="-2.6237352285534143e-03" rms="4.3811100721359253e-01" purity="3.9533850550651550e-01" nType="-99"/>
        </Node>
      </Node>
    </BinaryTree>
    <BinaryTree type="DecisionTree" boostWeight="1.0000000000000000e+00" itree="817">
      <Node pos="s" depth="0" NCoef="0" IVar="2" Cut="9.2910701036453247e-01" cType="1" res="2.0363982766866684e-03" rms="4.4680774211883545e-01" purity="5.0030428171157837e-01" nType="0">
        <Node pos="l" depth="1" NCoef="0" IVar="6" Cut="5.5347747802734375e+00" cType="1" res="-2.5065986439585686e-02" rms="4.2697545886039734e-01" purity="2.9868903756141663e-01" nType="0">
          <Node pos="l" depth="2" NCoef="0" IVar="-1" Cut="0.0000000000000000e+00" cType="1" res="-1.9232205813750625e-03" rms="4.1985785961151123e-01" purity="2.5306418538093567e-01" nType="-99"/>
          <Node pos="r" depth="2" NCoef="0" IVar="-1" Cut="0.0000000000000000e+00" cType="1" res="8.0133118899539113e-04" rms="4.4340106844902039e-01" purity="4.2709401249885559e-01" nType="-99"/>
        </Node>
        <Node pos="r" depth="1" NCoef="0" IVar="3" Cut="1.1857083439826965e-01" cType="1" res="9.2148585245013237e-03" rms="4.5164248347282410e-01" purity="5.5370503664016724e-01" nType="0">
          <Node pos="l" depth="2" NCoef="0" IVar="-1" Cut="0.0000000000000000e+00" cType="1" res="-1.5073735266923904e-04" rms="4.5579427480697632e-01" purity="5.1567173004150391e-01" nType="-99"/>
          <Node pos="r" depth="2" NCoef="0" IVar="-1" Cut="0.0000000000000000e+00" cType="1" res="2.2926132660359144e-03" rms="4.3460023403167725e-01" purity="6.8227356672286987e-01" nType="-99"/>
        </Node>
      </Node>
    </BinaryTree>
    <BinaryTree type="DecisionTree" boostWeight="1.0000000000000000e+00" itree="818">
      <Node pos="s" depth="0" NCoef="0" IVar="1" Cut="1.8672412633895874e+00" cType="1" res="-1.2993146665394306e-02" rms="4.4724881649017334e-01" purity="4.8859474062919617e-01" nType="0">
        <Node pos="l" depth="1" NCoef="0" IVar="1" Cut="1.7264908552169800e+00" cType="1" res="2.5622427463531494e-02" rms="4.5038825273513794e-01" purity="5.9009552001953125e-01" nType="0">
          <Node pos="l" depth="2" NCoef="0" IVar="-1" Cut="0.0000000000000000e+00" cType="1" res="-1.3356420677155256e-03" rms="4.5315665006637573e-01" purity="4.9147531390190125e-01" nType="-99"/>
          <Node pos="r" depth="2" NCoef="0" IVar="-1" Cut="0.0000000000000000e+00" cType="1" res="3.1129578128457069e-03" rms="4.4163122773170471e-01" purity="6.6981130838394165e-01" nType="-99"/>
        </Node>
        <Node pos="r" depth="1" NCoef="0" IVar="1" Cut="2.2493917942047119e+00" cType="1" res="-1.8753856420516968e-02" rms="4.4649240374565125e-01" purity="4.7345274686813354e-01" nType="0">
          <Node pos="l" depth="2" NCoef="0" IVar="-1" Cut="0.0000000000000000e+00" cType="1" res="-1.4185898471623659e-03" rms="4.5334434509277344e-01" purity="5.5200415849685669e-01" nType="-99"/>
          <Node pos="r" depth="2" NCoef="0" IVar="-1" Cut="0.0000000000000000e+00" cType="1" res="1.6154632248799317e-05" rms="4.3648999929428101e-01" purity="3.6906537413597107e-01" nType="-99"/>
        </Node>
      </Node>
    </BinaryTree>
    <BinaryTree type="DecisionTree" boostWeight="1.0000000000000000e+00" itree="819">
      <Node pos="s" depth="0" NCoef="0" IVar="5" Cut="3.4642660617828369e-01" cType="1" res="-4.8602544702589512e-03" rms="4.4687643647193909e-01" purity="4.9218401312828064e-01" nType="0">
        <Node pos="l" depth="1" NCoef="0" IVar="-1" Cut="0.0000000000000000e+00" cType="1" res="2.6566921733319759e-03" rms="4.2109346389770508e-01" purity="6.5422320365905762e-01" nType="-99"/>
        <Node pos="r" depth="1" NCoef="0" IVar="3" Cut="1.5301075577735901e-01" cType="1" res="-9.0355491265654564e-03" rms="4.4803243875503540e-01" purity="4.8246294260025024e-01" nType="0">
          <Node pos="l" depth="2" NCoef="0" IVar="-1" Cut="0.0000000000000000e+00" cType="1" res="-9.7120857390109450e-05" rms="4.4394138455390930e-01" purity="4.7145217657089233e-01" nType="-99"/>
          <Node pos="r" depth="2" NCoef="0" IVar="-1" Cut="0.0000000000000000e+00" cType="1" res="-1.9692862406373024e-03" rms="4.6701243519783020e-01" purity="5.3941345214843750e-01" nType="-99"/>
        </Node>
      </Node>
    </BinaryTree>
    <BinaryTree type="DecisionTree" boostWeight="1.0000000000000000e+00" itree="820">
      <Node pos="s" depth="0" NCoef="0" IVar="1" Cut="1.8145679235458374e+00" cType="1" res="1.9730053842067719e-02" rms="4.5040500164031982e-01" purity="5.2197277545928955e-01" nType="0">
        <Node pos="l" depth="1" NCoef="0" IVar="-1" Cut="0.0000000000000000e+00" cType="1" res="2.5406617205590010e-03" rms="4.4892743229866028e-01" purity="6.0603487491607666e-01" nType="-99"/>
        <Node pos="r" depth="1" NCoef="0" IVar="7" Cut="1.9825258851051331e-01" cType="1" res="1.4490527100861073e-02" rms="4.5026090741157532e-01" purity="5.1270097494125366e-01" nType="0">
          <Node pos="l" depth="2" NCoef="0" IVar="-1" Cut="0.0000000000000000e+00" cType="1" res="-1.1473400518298149e-03" rms="4.3146833777427673e-01" purity="3.6339759826660156e-01" nType="-99"/>
          <Node pos="r" depth="2" NCoef="0" IVar="-1" Cut="0.0000000000000000e+00" cType="1" res="9.5458806026726961e-04" rms="4.5346963405609131e-01" purity="5.4175603389739990e-01" nType="-99"/>
        </Node>
      </Node>
    </BinaryTree>
    <BinaryTree type="DecisionTree" boostWeight="1.0000000000000000e+00" itree="821">
      <Node pos="s" depth="0" NCoef="0" IVar="4" Cut="5.9671986103057861e-01" cType="1" res="-7.0862420834600925e-03" rms="4.4647395610809326e-01" purity="4.9551826715469360e-01" nType="0">
        <Node pos="l" depth="1" NCoef="0" IVar="5" Cut="4.3258523941040039e-01" cType="1" res="3.7953134626150131e-02" rms="4.1960880160331726e-01" purity="7.2020614147186279e-01" nType="0">
          <Node pos="l" depth="2" NCoef="0" IVar="-1" Cut="0.0000000000000000e+00" cType="1" res="-2.9651081422343850e-04" rms="4.4081255793571472e-01" purity="6.5193176269531250e-01" nType="-99"/>
          <Node pos="r" depth="2" NCoef="0" IVar="-1" Cut="0.0000000000000000e+00" cType="1" res="3.1068834941834211e-03" rms="4.0084227919578552e-01" purity="7.6870507001876831e-01" nType="-99"/>
        </Node>
        <Node pos="r" depth="1" NCoef="0" IVar="5" Cut="1.0437119007110596e+00" cType="1" res="-1.4497471041977406e-02" rms="4.5030981302261353e-01" purity="4.5854586362838745e-01" nType="0">
          <Node pos="l" depth="2" NCoef="0" IVar="-1" Cut="0.0000000000000000e+00" cType="1" res="-3.8041960215196013e-04" rms="4.5349222421646118e-01" purity="4.8151957988739014e-01" nType="-99"/>
          <Node pos="r" depth="2" NCoef="0" IVar="-1" Cut="0.0000000000000000e+00" cType="1" res="-1.7686522332951427e-03" rms="4.3691980838775635e-01" purity="3.6896598339080811e-01" nType="-99"/>
        </Node>
      </Node>
    </BinaryTree>
    <BinaryTree type="DecisionTree" boostWeight="1.0000000000000000e+00" itree="822">
      <Node pos="s" depth="0" NCoef="0" IVar="6" Cut="5.0151062011718750e+00" cType="1" res="3.3622188493609428e-03" rms="4.4932320713996887e-01" purity="5.0650918483734131e-01" nType="0">
        <Node pos="l" depth="1" NCoef="0" IVar="-1" Cut="0.0000000000000000e+00" cType="1" res="-3.8342426996678114e-03" rms="3.8727241754531860e-01" purity="1.7839522659778595e-01" nType="-99"/>
        <Node pos="r" depth="1" NCoef="0" IVar="2" Cut="9.3783599138259888e-01" cType="1" res="9.4102174043655396e-03" rms="4.5320269465446472e-01" purity="5.3186315298080444e-01" nType="0">
          <Node pos="l" depth="2" NCoef="0" IVar="-1" Cut="0.0000000000000000e+00" cType="1" res="1.3543341774493456e-03" rms="4.6406811475753784e-01" purity="4.0770304203033447e-01" nType="-99"/>
          <Node pos="r" depth="2" NCoef="0" IVar="-1" Cut="0.0000000000000000e+00" cType="1" res="9.3462818767875433e-05" rms="4.4928762316703796e-01" purity="5.7322049140930176e-01" nType="-99"/>
        </Node>
      </Node>
    </BinaryTree>
    <BinaryTree type="DecisionTree" boostWeight="1.0000000000000000e+00" itree="823">
      <Node pos="s" depth="0" NCoef="0" IVar="6" Cut="6.6335110664367676e+00" cType="1" res="-5.1433211192488670e-03" rms="4.5104640722274780e-01" purity="4.9322098493576050e-01" nType="0">
        <Node pos="l" depth="1" NCoef="0" IVar="6" Cut="6.1417579650878906e+00" cType="1" res="1.1358529329299927e-02" rms="4.5353403687477112e-01" purity="3.7889915704727173e-01" nType="0">
          <Node pos="l" depth="2" NCoef="0" IVar="-1" Cut="0.0000000000000000e+00" cType="1" res="-9.2446331109385937e-05" rms="4.4476750493049622e-01" purity="3.3421382308006287e-01" nType="-99"/>
          <Node pos="r" depth="2" NCoef="0" IVar="-1" Cut="0.0000000000000000e+00" cType="1" res="1.8387325108051300e-03" rms="4.7287321090698242e-01" purity="4.8934951424598694e-01" nType="-99"/>
        </Node>
        <Node pos="r" depth="1" NCoef="0" IVar="3" Cut="8.6112394928932190e-02" cType="1" res="-1.8938792869448662e-02" rms="4.4849044084548950e-01" purity="5.8879345655441284e-01" nType="0">
          <Node pos="l" depth="2" NCoef="0" IVar="-1" Cut="0.0000000000000000e+00" cType="1" res="-1.3215696671977639e-03" rms="4.5504453778266907e-01" purity="5.4576301574707031e-01" nType="-99"/>
          <Node pos="r" depth="2" NCoef="0" IVar="-1" Cut="0.0000000000000000e+00" cType="1" res="3.9852026384323835e-04" rms="4.3037563562393188e-01" purity="6.9683337211608887e-01" nType="-99"/>
        </Node>
      </Node>
    </BinaryTree>
    <BinaryTree type="DecisionTree" boostWeight="1.0000000000000000e+00" itree="824">
      <Node pos="s" depth="0" NCoef="0" IVar="2" Cut="9.7671192884445190e-01" cType="1" res="4.3854457326233387e-03" rms="4.4717392325401306e-01" purity="5.0676238536834717e-01" nType="0">
        <Node pos="l" depth="1" NCoef="0" IVar="4" Cut="1.2710100412368774e+00" cType="1" res="-2.1975717972964048e-03" rms="4.5514827966690063e-01" purity="4.6822994947433472e-01" nType="0">
          <Node pos="l" depth="2" NCoef="0" IVar="-1" Cut="0.0000000000000000e+00" cType="1" res="-6.2176096253097057e-04" rms="4.6508401632308960e-01" purity="5.3290855884552002e-01" nType="-99"/>
          <Node pos="r" depth="2" NCoef="0" IVar="-1" Cut="0.0000000000000000e+00" cType="1" res="1.7845877446234226e-03" rms="4.2522832751274109e-01" purity="2.9371678829193115e-01" nType="-99"/>
        </Node>
        <Node pos="r" depth="1" NCoef="0" IVar="4" Cut="9.9234074354171753e-01" cType="1" res="4.6765439212322235e-02" rms="3.8931599259376526e-01" purity="7.5482547283172607e-01" nType="0">
          <Node pos="l" depth="2" NCoef="0" IVar="-1" Cut="0.0000000000000000e+00" cType="1" res="3.9849407039582729e-03" rms="3.4382793307304382e-01" purity="8.6028498411178589e-01" nType="-99"/>
          <Node pos="r" depth="2" NCoef="0" IVar="-1" Cut="0.0000000000000000e+00" cType="1" res="6.2139937654137611e-04" rms="4.4167450070381165e-01" purity="6.1126500368118286e-01" nType="-99"/>
        </Node>
      </Node>
    </BinaryTree>
    <BinaryTree type="DecisionTree" boostWeight="1.0000000000000000e+00" itree="825">
      <Node pos="s" depth="0" NCoef="0" IVar="7" Cut="7.1507507562637329e-01" cType="1" res="2.0074760541319847e-03" rms="4.4593220949172974e-01" purity="5.0147539377212524e-01" nType="0">
        <Node pos="l" depth="1" NCoef="0" IVar="1" Cut="1.9573831558227539e+00" cType="1" res="-3.4436192363500595e-03" rms="4.4599273800849915e-01" purity="4.8934903740882874e-01" nType="0">
          <Node pos="l" depth="2" NCoef="0" IVar="-1" Cut="0.0000000000000000e+00" cType="1" res="1.1906895088031888e-03" rms="4.4894677400588989e-01" purity="6.0212886333465576e-01" nType="-99"/>
          <Node pos="r" depth="2" NCoef="0" IVar="-1" Cut="0.0000000000000000e+00" cType="1" res="-6.0202303575351834e-04" rms="4.4465240836143494e-01" purity="4.5664006471633911e-01" nType="-99"/>
        </Node>
        <Node pos="r" depth="1" NCoef="0" IVar="-1" Cut="0.0000000000000000e+00" cType="1" res="3.5859006457030773e-03" rms="4.3612122535705566e-01" purity="6.9203978776931763e-01" nType="-99"/>
      </Node>
    </BinaryTree>
    <BinaryTree type="DecisionTree" boostWeight="1.0000000000000000e+00" itree="826">
      <Node pos="s" depth="0" NCoef="0" IVar="6" Cut="6.2982344627380371e+00" cType="1" res="6.9360458292067051e-03" rms="4.4853758811950684e-01" purity="5.0290000438690186e-01" nType="0">
        <Node pos="l" depth="1" NCoef="0" IVar="5" Cut="9.6358275413513184e-01" cType="1" res="2.4747187271714211e-02" rms="4.4211241602897644e-01" purity="3.7446242570877075e-01" nType="0">
          <Node pos="l" depth="2" NCoef="0" IVar="-1" Cut="0.0000000000000000e+00" cType="1" res="1.8600586336106062e-03" rms="4.5536452531814575e-01" purity="4.2590770125389099e-01" nType="-99"/>
          <Node pos="r" depth="2" NCoef="0" IVar="-1" Cut="0.0000000000000000e+00" cType="1" res="-1.0542687959969044e-03" rms="4.0605583786964417e-01" purity="2.5513353943824768e-01" nType="-99"/>
        </Node>
        <Node pos="r" depth="1" NCoef="0" IVar="5" Cut="4.7910210490226746e-01" cType="1" res="-3.5704805050045252e-03" rms="4.5195585489273071e-01" purity="5.7866346836090088e-01" nType="0">
          <Node pos="l" depth="2" NCoef="0" IVar="-1" Cut="0.0000000000000000e+00" cType="1" res="-3.3957418054342270e-03" rms="4.6285796165466309e-01" purity="5.8598864078521729e-01" nType="-99"/>
          <Node pos="r" depth="2" NCoef="0" IVar="-1" Cut="0.0000000000000000e+00" cType="1" res="4.7604058636352420e-04" rms="4.4839650392532349e-01" purity="5.7721519470214844e-01" nType="-99"/>
        </Node>
      </Node>
    </BinaryTree>
    <BinaryTree type="DecisionTree" boostWeight="1.0000000000000000e+00" itree="827">
      <Node pos="s" depth="0" NCoef="0" IVar="3" Cut="6.3441872596740723e-02" cType="1" res="-5.1128803752362728e-03" rms="4.4786465167999268e-01" purity="4.9345314502716064e-01" nType="0">
        <Node pos="l" depth="1" NCoef="0" IVar="4" Cut="1.0341314077377319e+00" cType="1" res="7.9187303781509399e-03" rms="4.4372567534446716e-01" purity="4.7527068853378296e-01" nType="0">
          <Node pos="l" depth="2" NCoef="0" IVar="-1" Cut="0.0000000000000000e+00" cType="1" res="1.1524782748892903e-03" rms="4.5636013150215149e-01" purity="6.3150221109390259e-01" nType="-99"/>
          <Node pos="r" depth="2" NCoef="0" IVar="-1" Cut="0.0000000000000000e+00" cType="1" res="-5.2713457262143493e-04" rms="4.3107110261917114e-01" purity="3.3309394121170044e-01" nType="-99"/>
        </Node>
        <Node pos="r" depth="1" NCoef="0" IVar="3" Cut="1.9541329145431519e-01" cType="1" res="-3.1465064734220505e-02" rms="4.5498049259185791e-01" purity="5.3022116422653198e-01" nType="0">
          <Node pos="l" depth="2" NCoef="0" IVar="-1" Cut="0.0000000000000000e+00" cType="1" res="-2.5754296220839024e-03" rms="4.5568126440048218e-01" purity="4.8231437802314758e-01" nType="-99"/>
          <Node pos="r" depth="2" NCoef="0" IVar="-1" Cut="0.0000000000000000e+00" cType="1" res="7.8105722786858678e-04" rms="4.4905149936676025e-01" purity="6.2208628654479980e-01" nType="-99"/>
        </Node>
      </Node>
    </BinaryTree>
    <BinaryTree type="DecisionTree" boostWeight="1.0000000000000000e+00" itree="828">
      <Node pos="s" depth="0" NCoef="0" IVar="4" Cut="1.2404897212982178e+00" cType="1" res="-6.7044734023511410e-03" rms="4.5346757769584656e-01" purity="4.9316638708114624e-01" nType="0">
        <Node pos="l" depth="1" NCoef="0" IVar="7" Cut="3.7320104241371155e-01" cType="1" res="-1.7472533509135246e-02" rms="4.6050426363945007e-01" purity="5.6039023399353027e-01" nType="0">
          <Node pos="l" depth="2" NCoef="0" IVar="-1" Cut="0.0000000000000000e+00" cType="1" res="-1.8977773142978549e-03" rms="4.5404615998268127e-01" purity="5.0750315189361572e-01" nType="-99"/>
          <Node pos="r" depth="2" NCoef="0" IVar="-1" Cut="0.0000000000000000e+00" cType="1" res="7.3532712121959776e-05" rms="4.6367415785789490e-01" purity="5.9499806165695190e-01" nType="-99"/>
        </Node>
        <Node pos="r" depth="1" NCoef="0" IVar="2" Cut="9.5790225267410278e-01" cType="1" res="2.1326601505279541e-02" rms="4.3336290121078491e-01" purity="3.1817135214805603e-01" nType="0">
          <Node pos="l" depth="2" NCoef="0" IVar="-1" Cut="0.0000000000000000e+00" cType="1" res="-4.1487797716399655e-05" rms="4.1367155313491821e-01" purity="2.3684339225292206e-01" nType="-99"/>
          <Node pos="r" depth="2" NCoef="0" IVar="-1" Cut="0.0000000000000000e+00" cType="1" res="2.8275374788790941e-03" rms="4.6577352285385132e-01" purity="4.7343650460243225e-01" nType="-99"/>
        </Node>
      </Node>
    </BinaryTree>
    <BinaryTree type="DecisionTree" boostWeight="1.0000000000000000e+00" itree="829">
      <Node pos="s" depth="0" NCoef="0" IVar="0" Cut="6.0237709045410156e+01" cType="1" res="8.0966828390955925e-03" rms="4.4996610283851624e-01" purity="5.0846260786056519e-01" nType="0">
        <Node pos="l" depth="1" NCoef="0" IVar="3" Cut="-7.7955931425094604e-02" cType="1" res="2.9651632532477379e-02" rms="4.5507600903511047e-01" purity="4.7498089075088501e-01" nType="0">
          <Node pos="l" depth="2" NCoef="0" IVar="-1" Cut="0.0000000000000000e+00" cType="1" res="-1.1831187875941396e-03" rms="4.2671963572502136e-01" purity="3.4824490547180176e-01" nType="-99"/>
          <Node pos="r" depth="2" NCoef="0" IVar="-1" Cut="0.0000000000000000e+00" cType="1" res="1.8460252322256565e-03" rms="4.6100777387619019e-01" purity="5.0733983516693115e-01" nType="-99"/>
        </Node>
        <Node pos="r" depth="1" NCoef="0" IVar="5" Cut="1.1183674335479736e+00" cType="1" res="-4.2304568924009800e-03" rms="4.4655013084411621e-01" purity="5.2761065959930420e-01" nType="0">
          <Node pos="l" depth="2" NCoef="0" IVar="-1" Cut="0.0000000000000000e+00" cType="1" res="2.1007593022659421e-04" rms="4.4700783491134644e-01" purity="5.5273920297622681e-01" nType="-99"/>
          <Node pos="r" depth="2" NCoef="0" IVar="-1" Cut="0.0000000000000000e+00" cType="1" res="-2.7295902837067842e-03" rms="4.3926689028739929e-01" purity="3.6581656336784363e-01" nType="-99"/>
        </Node>
      </Node>
    </BinaryTree>
    <BinaryTree type="DecisionTree" boostWeight="1.0000000000000000e+00" itree="830">
      <Node pos="s" depth="0" NCoef="0" IVar="6" Cut="5.2661499977111816e+00" cType="1" res="2.9239200521260500e-03" rms="4.4986903667449951e-01" purity="5.0280582904815674e-01" nType="0">
        <Node pos="l" depth="1" NCoef="0" IVar="5" Cut="8.2839596271514893e-01" cType="1" res="-4.0425039827823639e-02" rms="4.0331262350082397e-01" purity="2.2505746781826019e-01" nType="0">
          <Node pos="l" depth="2" NCoef="0" IVar="-1" Cut="0.0000000000000000e+00" cType="1" res="-3.1551709398627281e-03" rms="4.2003801465034485e-01" purity="2.5455990433692932e-01" nType="-99"/>
          <Node pos="r" depth="2" NCoef="0" IVar="-1" Cut="0.0000000000000000e+00" cType="1" res="-6.3559628324583173e-04" rms="3.8527286052703857e-01" purity="1.9854655861854553e-01" nType="-99"/>
        </Node>
        <Node pos="r" depth="1" NCoef="0" IVar="1" Cut="1.7686351537704468e+00" cType="1" res="8.3151087164878845e-03" rms="4.5503777265548706e-01" purity="5.3734856843948364e-01" nType="0">
          <Node pos="l" depth="2" NCoef="0" IVar="-1" Cut="0.0000000000000000e+00" cType="1" res="-2.4382492993026972e-03" rms="4.5763468742370605e-01" purity="4.8867323994636536e-01" nType="-99"/>
          <Node pos="r" depth="2" NCoef="0" IVar="-1" Cut="0.0000000000000000e+00" cType="1" res="5.8764568530023098e-04" rms="4.5443871617317200e-01" purity="5.4101699590682983e-01" nType="-99"/>
        </Node>
      </Node>
    </BinaryTree>
    <BinaryTree type="DecisionTree" boostWeight="1.0000000000000000e+00" itree="831">
      <Node pos="s" depth="0" NCoef="0" IVar="6" Cut="5.0151062011718750e+00" cType="1" res="-2.2935620509088039e-03" rms="4.4658321142196655e-01" purity="4.9858003854751587e-01" nType="0">
        <Node pos="l" depth="1" NCoef="0" IVar="-1" Cut="0.0000000000000000e+00" cType="1" res="-3.5929440055042505e-03" rms="3.7658992409706116e-01" purity="1.7194247245788574e-01" nType="-99"/>
        <Node pos="r" depth="1" NCoef="0" IVar="0" Cut="1.0016911315917969e+02" cType="1" res="3.1408176291733980e-03" rms="4.5133793354034424e-01" purity="5.2501958608627319e-01" nType="0">
          <Node pos="l" depth="2" NCoef="0" IVar="-1" Cut="0.0000000000000000e+00" cType="1" res="-4.1236288961954415e-04" rms="4.5538362860679626e-01" purity="4.8668420314788818e-01" nType="-99"/>
          <Node pos="r" depth="2" NCoef="0" IVar="-1" Cut="0.0000000000000000e+00" cType="1" res="1.5816681552678347e-03" rms="4.3982580304145813e-01" purity="6.1793345212936401e-01" nType="-99"/>
        </Node>
      </Node>
    </BinaryTree>
    <BinaryTree type="DecisionTree" boostWeight="1.0000000000000000e+00" itree="832">
      <Node pos="s" depth="0" NCoef="0" IVar="5" Cut="4.7723755240440369e-01" cType="1" res="3.3732228912413120e-03" rms="4.5122912526130676e-01" purity="5.0497567653656006e-01" nType="0">
        <Node pos="l" depth="1" NCoef="0" IVar="1" Cut="2.0821206569671631e+00" cType="1" res="-2.8252245858311653e-02" rms="4.7436410188674927e-01" purity="5.5054169893264771e-01" nType="0">
          <Node pos="l" depth="2" NCoef="0" IVar="-1" Cut="0.0000000000000000e+00" cType="1" res="-2.1572634577751160e-03" rms="4.7245481610298157e-01" purity="5.6073033809661865e-01" nType="-99"/>
          <Node pos="r" depth="2" NCoef="0" IVar="-1" Cut="0.0000000000000000e+00" cType="1" res="5.2601686911657453e-04" rms="4.7484686970710754e-01" purity="5.3332620859146118e-01" nType="-99"/>
        </Node>
        <Node pos="r" depth="1" NCoef="0" IVar="5" Cut="6.4129906892776489e-01" cType="1" res="9.2345271259546280e-03" rms="4.4656389951705933e-01" purity="4.9653074145317078e-01" nType="0">
          <Node pos="l" depth="2" NCoef="0" IVar="-1" Cut="0.0000000000000000e+00" cType="1" res="1.5330777969211340e-03" rms="4.4592708349227905e-01" purity="6.1407196521759033e-01" nType="-99"/>
          <Node pos="r" depth="2" NCoef="0" IVar="-1" Cut="0.0000000000000000e+00" cType="1" res="5.5371354392264038e-05" rms="4.4642758369445801e-01" purity="4.6246790885925293e-01" nType="-99"/>
        </Node>
      </Node>
    </BinaryTree>
    <BinaryTree type="DecisionTree" boostWeight="1.0000000000000000e+00" itree="833">
      <Node pos="s" depth="0" NCoef="0" IVar="1" Cut="1.9654694795608521e+00" cType="1" res="-1.8972737016156316e-03" rms="4.5004081726074219e-01" purity="5.0077468156814575e-01" nType="0">
        <Node pos="l" depth="1" NCoef="0" IVar="7" Cut="5.6930452585220337e-01" cType="1" res="-3.1815890222787857e-02" rms="4.5478656888008118e-01" purity="5.5207604169845581e-01" nType="0">
          <Node pos="l" depth="2" NCoef="0" IVar="-1" Cut="0.0000000000000000e+00" cType="1" res="-4.1955974302254617e-04" rms="4.5402759313583374e-01" purity="5.5743259191513062e-01" nType="-99"/>
          <Node pos="r" depth="2" NCoef="0" IVar="-1" Cut="0.0000000000000000e+00" cType="1" res="-3.8244093302637339e-03" rms="4.5200353860855103e-01" purity="5.3849530220031738e-01" nType="-99"/>
        </Node>
        <Node pos="r" depth="1" NCoef="0" IVar="7" Cut="2.7200740575790405e-01" cType="1" res="7.1924561634659767e-03" rms="4.4819363951683044e-01" purity="4.8518851399421692e-01" nType="0">
          <Node pos="l" depth="2" NCoef="0" IVar="-1" Cut="0.0000000000000000e+00" cType="1" res="-8.7084027472883463e-04" rms="4.3907383084297180e-01" purity="3.6746451258659363e-01" nType="-99"/>
          <Node pos="r" depth="2" NCoef="0" IVar="-1" Cut="0.0000000000000000e+00" cType="1" res="7.6987629290670156e-04" rms="4.5160377025604248e-01" purity="5.3520005941390991e-01" nType="-99"/>
        </Node>
      </Node>
    </BinaryTree>
    <BinaryTree type="DecisionTree" boostWeight="1.0000000000000000e+00" itree="834">
      <Node pos="s" depth="0" NCoef="0" IVar="6" Cut="7.8463611602783203e+00" cType="1" res="4.0494818240404129e-03" rms="4.5154395699501038e-01" purity="5.0461035966873169e-01" nType="0">
        <Node pos="l" depth="1" NCoef="0" IVar="5" Cut="4.1982021927833557e-01" cType="1" res="1.4175817370414734e-02" rms="4.5281079411506653e-01" purity="4.5368444919586182e-01" nType="0">
          <Node pos="l" depth="2" NCoef="0" IVar="-1" Cut="0.0000000000000000e+00" cType="1" res="-1.7705250065773726e-03" rms="4.6984323859214783e-01" purity="4.7906416654586792e-01" nType="-99"/>
          <Node pos="r" depth="2" NCoef="0" IVar="-1" Cut="0.0000000000000000e+00" cType="1" res="8.9659582590684295e-04" rms="4.5052289962768555e-01" purity="4.5099660754203796e-01" nType="-99"/>
        </Node>
        <Node pos="r" depth="1" NCoef="0" IVar="7" Cut="5.4188370704650879e-01" cType="1" res="-2.3523284122347832e-02" rms="4.4691491127014160e-01" purity="6.4327555894851685e-01" nType="0">
          <Node pos="l" depth="2" NCoef="0" IVar="-1" Cut="0.0000000000000000e+00" cType="1" res="-1.8680591892916709e-04" rms="4.4248357415199280e-01" purity="6.4192122220993042e-01" nType="-99"/>
          <Node pos="r" depth="2" NCoef="0" IVar="-1" Cut="0.0000000000000000e+00" cType="1" res="-3.9257793687283993e-03" rms="4.5460781455039978e-01" purity="6.4703905582427979e-01" nType="-99"/>
        </Node>
      </Node>
    </BinaryTree>
    <BinaryTree type="DecisionTree" boostWeight="1.0000000000000000e+00" itree="835">
      <Node pos="s" depth="0" NCoef="0" IVar="3" Cut="-7.2697825729846954e-02" cType="1" res="-8.0893151462078094e-03" rms="4.5326545834541321e-01" purity="4.8969244956970215e-01" nType="0">
        <Node pos="l" depth="1" NCoef="0" IVar="7" Cut="4.1572844982147217e-01" cType="1" res="1.9468380138278008e-02" rms="4.4509023427963257e-01" purity="4.4642704725265503e-01" nType="0">
          <Node pos="l" depth="2" NCoef="0" IVar="-1" Cut="0.0000000000000000e+00" cType="1" res="2.1540122106671333e-03" rms="4.3428954482078552e-01" purity="4.1664355993270874e-01" nType="-99"/>
          <Node pos="r" depth="2" NCoef="0" IVar="-1" Cut="0.0000000000000000e+00" cType="1" res="-7.3610717663541436e-04" rms="4.5879086852073669e-01" purity="4.9243119359016418e-01" nType="-99"/>
        </Node>
        <Node pos="r" depth="1" NCoef="0" IVar="2" Cut="9.4734686613082886e-01" cType="1" res="-1.6987560316920280e-02" rms="4.5551794767379761e-01" purity="5.0366264581680298e-01" nType="0">
          <Node pos="l" depth="2" NCoef="0" IVar="-1" Cut="0.0000000000000000e+00" cType="1" res="8.5882398707326502e-05" rms="4.5501184463500977e-01" purity="3.9864721894264221e-01" nType="-99"/>
          <Node pos="r" depth="2" NCoef="0" IVar="-1" Cut="0.0000000000000000e+00" cType="1" res="-1.4837086200714111e-03" rms="4.5533826947212219e-01" purity="5.8959883451461792e-01" nType="-99"/>
        </Node>
      </Node>
    </BinaryTree>
    <BinaryTree type="DecisionTree" boostWeight="1.0000000000000000e+00" itree="836">
      <Node pos="s" depth="0" NCoef="0" IVar="5" Cut="3.4299734234809875e-01" cType="1" res="-9.3884943053126335e-03" rms="4.4458076357841492e-01" purity="4.9628809094429016e-01" nType="0">
        <Node pos="l" depth="1" NCoef="0" IVar="-1" Cut="0.0000000000000000e+00" cType="1" res="2.4692134466022253e-03" rms="4.4342130422592163e-01" purity="6.4157450199127197e-01" nType="-99"/>
        <Node pos="r" depth="1" NCoef="0" IVar="0" Cut="4.6835384368896484e+01" cType="1" res="-1.3831501826643944e-02" rms="4.4429117441177368e-01" purity="4.8686704039573669e-01" nType="0">
          <Node pos="l" depth="2" NCoef="0" IVar="-1" Cut="0.0000000000000000e+00" cType="1" res="-2.0860508084297180e-03" rms="4.4369933009147644e-01" purity="3.6583432555198669e-01" nType="-99"/>
          <Node pos="r" depth="2" NCoef="0" IVar="-1" Cut="0.0000000000000000e+00" cType="1" res="-2.7097450220026076e-04" rms="4.4406944513320923e-01" purity="5.1523363590240479e-01" nType="-99"/>
        </Node>
      </Node>
    </BinaryTree>
    <BinaryTree type="DecisionTree" boostWeight="1.0000000000000000e+00" itree="837">
      <Node pos="s" depth="0" NCoef="0" IVar="2" Cut="9.5772868394851685e-01" cType="1" res="6.0731898993253708e-03" rms="4.4837477803230286e-01" purity="5.0597959756851196e-01" nType="0">
        <Node pos="l" depth="1" NCoef="0" IVar="3" Cut="9.7450911998748779e-02" cType="1" res="-5.7725077494978905e-03" rms="4.5437783002853394e-01" purity="4.0949138998985291e-01" nType="0">
          <Node pos="l" depth="2" NCoef="0" IVar="-1" Cut="0.0000000000000000e+00" cType="1" res="2.5860467576421797e-04" rms="4.5127013325691223e-01" purity="3.9384514093399048e-01" nType="-99"/>
          <Node pos="r" depth="2" NCoef="0" IVar="-1" Cut="0.0000000000000000e+00" cType="1" res="-1.4018869260326028e-03" rms="4.6122506260871887e-01" purity="4.5197516679763794e-01" nType="-99"/>
        </Node>
        <Node pos="r" depth="1" NCoef="0" IVar="0" Cut="1.0233372497558594e+02" cType="1" res="2.4144642055034637e-02" rms="4.3844249844551086e-01" purity="6.5317928791046143e-01" nType="0">
          <Node pos="l" depth="2" NCoef="0" IVar="-1" Cut="0.0000000000000000e+00" cType="1" res="1.7096379306167364e-03" rms="4.4592615962028503e-01" purity="6.4369457960128784e-01" nType="-99"/>
          <Node pos="r" depth="2" NCoef="0" IVar="-1" Cut="0.0000000000000000e+00" cType="1" res="-6.7693722667172551e-04" rms="4.1583943367004395e-01" purity="6.7810404300689697e-01" nType="-99"/>
        </Node>
      </Node>
    </BinaryTree>
    <BinaryTree type="DecisionTree" boostWeight="1.0000000000000000e+00" itree="838">
      <Node pos="s" depth="0" NCoef="0" IVar="3" Cut="2.3516288399696350e-01" cType="1" res="8.1688091158866882e-03" rms="4.5007926225662231e-01" purity="5.0802415609359741e-01" nType="0">
        <Node pos="l" depth="1" NCoef="0" IVar="1" Cut="2.0067164897918701e+00" cType="1" res="1.1897841468453407e-02" rms="4.4960078597068787e-01" purity="5.0703996419906616e-01" nType="0">
          <Node pos="l" depth="2" NCoef="0" IVar="-1" Cut="0.0000000000000000e+00" cType="1" res="1.4585637254640460e-03" rms="4.4579461216926575e-01" purity="6.1582535505294800e-01" nType="-99"/>
          <Node pos="r" depth="2" NCoef="0" IVar="-1" Cut="0.0000000000000000e+00" cType="1" res="1.2217019684612751e-04" rms="4.5074737071990967e-01" purity="4.6443819999694824e-01" nType="-99"/>
        </Node>
        <Node pos="r" depth="1" NCoef="0" IVar="-1" Cut="0.0000000000000000e+00" cType="1" res="-2.0174100063741207e-03" rms="4.5348900556564331e-01" purity="5.2440977096557617e-01" nType="-99"/>
      </Node>
    </BinaryTree>
    <BinaryTree type="DecisionTree" boostWeight="1.0000000000000000e+00" itree="839">
      <Node pos="s" depth="0" NCoef="0" IVar="0" Cut="4.6307411193847656e+01" cType="1" res="-9.7523350268602371e-03" rms="4.4841113686561584e-01" purity="4.9073666334152222e-01" nType="0">
        <Node pos="l" depth="1" NCoef="0" IVar="0" Cut="3.5828922271728516e+01" cType="1" res="-4.7661568969488144e-02" rms="4.4470676779747009e-01" purity="3.5011571645736694e-01" nType="0">
          <Node pos="l" depth="2" NCoef="0" IVar="-1" Cut="0.0000000000000000e+00" cType="1" res="-7.6935807010158896e-04" rms="4.3754565715789795e-01" purity="3.3683788776397705e-01" nType="-99"/>
          <Node pos="r" depth="2" NCoef="0" IVar="-1" Cut="0.0000000000000000e+00" cType="1" res="-3.0274994205683470e-03" rms="4.4802537560462952e-01" purity="3.5847005248069763e-01" nType="-99"/>
        </Node>
        <Node pos="r" depth="1" NCoef="0" IVar="4" Cut="8.3671438694000244e-01" cType="1" res="-1.3807088835164905e-03" rms="4.4879359006881714e-01" purity="5.2179044485092163e-01" nType="0">
          <Node pos="l" depth="2" NCoef="0" IVar="-1" Cut="0.0000000000000000e+00" cType="1" res="9.9850713741034269e-04" rms="4.4468164443969727e-01" purity="6.8592047691345215e-01" nType="-99"/>
          <Node pos="r" depth="2" NCoef="0" IVar="-1" Cut="0.0000000000000000e+00" cType="1" res="-7.0187554229050875e-04" rms="4.5047017931938171e-01" purity="4.2947706580162048e-01" nType="-99"/>
        </Node>
      </Node>
    </BinaryTree>
    <BinaryTree type="DecisionTree" boostWeight="1.0000000000000000e+00" itree="840">
      <Node pos="s" depth="0" NCoef="0" IVar="1" Cut="1.9894783496856689e+00" cType="1" res="3.9932740037329495e-04" rms="4.5119586586952209e-01" purity="5.0166463851928711e-01" nType="0">
        <Node pos="l" depth="1" NCoef="0" IVar="0" Cut="8.2127082824707031e+01" cType="1" res="1.7132399603724480e-02" rms="4.5475003123283386e-01" purity="5.9670656919479370e-01" nType="0">
          <Node pos="l" depth="2" NCoef="0" IVar="-1" Cut="0.0000000000000000e+00" cType="1" res="3.2196305255638435e-05" rms="4.6866711974143982e-01" purity="5.3822386264801025e-01" nType="-99"/>
          <Node pos="r" depth="2" NCoef="0" IVar="-1" Cut="0.0000000000000000e+00" cType="1" res="3.0443230643868446e-03" rms="4.0745541453361511e-01" purity="7.6827645301818848e-01" nType="-99"/>
        </Node>
        <Node pos="r" depth="1" NCoef="0" IVar="5" Cut="8.4901052713394165e-01" cType="1" res="-5.7509057223796844e-03" rms="4.4972601532936096e-01" purity="4.6673196554183960e-01" nType="0">
          <Node pos="l" depth="2" NCoef="0" IVar="-1" Cut="0.0000000000000000e+00" cType="1" res="-8.9922867482528090e-04" rms="4.5827993750572205e-01" purity="5.0200283527374268e-01" nType="-99"/>
          <Node pos="r" depth="2" NCoef="0" IVar="-1" Cut="0.0000000000000000e+00" cType="1" res="5.4905534489080310e-04" rms="4.3870249390602112e-01" purity="4.2478021979331970e-01" nType="-99"/>
        </Node>
      </Node>
    </BinaryTree>
    <BinaryTree type="DecisionTree" boostWeight="1.0000000000000000e+00" itree="841">
      <Node pos="s" depth="0" NCoef="0" IVar="5" Cut="1.2528250217437744e+00" cType="1" res="1.5872704098001122e-03" rms="4.4952335953712463e-01" purity="5.0057804584503174e-01" nType="0">
        <Node pos="l" depth="1" NCoef="0" IVar="0" Cut="7.8741172790527344e+01" cType="1" res="-2.5311785284429789e-03" rms="4.4807869195938110e-01" purity="5.0308138132095337e-01" nType="0">
          <Node pos="l" depth="2" NCoef="0" IVar="-1" Cut="0.0000000000000000e+00" cType="1" res="5.6615943321958184e-04" rms="4.5150995254516602e-01" purity="4.8279210925102234e-01" nType="-99"/>
          <Node pos="r" depth="2" NCoef="0" IVar="-1" Cut="0.0000000000000000e+00" cType="1" res="-9.2679332010447979e-04" rms="4.4341602921485901e-01" purity="5.2650696039199829e-01" nType="-99"/>
        </Node>
        <Node pos="r" depth="1" NCoef="0" IVar="-1" Cut="0.0000000000000000e+00" cType="1" res="2.9243878088891506e-03" rms="4.6701660752296448e-01" purity="4.6086570620536804e-01" nType="-99"/>
      </Node>
    </BinaryTree>
    <BinaryTree type="DecisionTree" boostWeight="1.0000000000000000e+00" itree="842">
      <Node pos="s" depth="0" NCoef="0" IVar="5" Cut="9.3249356746673584e-01" cType="1" res="-4.4528818689286709e-03" rms="4.4729566574096680e-01" purity="4.9828746914863586e-01" nType="0">
        <Node pos="l" depth="1" NCoef="0" IVar="2" Cut="9.3394482135772705e-01" cType="1" res="-1.6056109219789505e-02" rms="4.4917926192283630e-01" purity="5.2143585681915283e-01" nType="0">
          <Node pos="l" depth="2" NCoef="0" IVar="-1" Cut="0.0000000000000000e+00" cType="1" res="-2.0033922046422958e-03" rms="4.3986764550209045e-01" purity="3.2708421349525452e-01" nType="-99"/>
          <Node pos="r" depth="2" NCoef="0" IVar="-1" Cut="0.0000000000000000e+00" cType="1" res="-2.4643822689540684e-04" rms="4.5174214243888855e-01" purity="5.8601510524749756e-01" nType="-99"/>
        </Node>
        <Node pos="r" depth="1" NCoef="0" IVar="0" Cut="9.9096824645996094e+01" cType="1" res="2.3794822394847870e-02" rms="4.4140332937240601e-01" purity="4.4193345308303833e-01" nType="0">
          <Node pos="l" depth="2" NCoef="0" IVar="-1" Cut="0.0000000000000000e+00" cType="1" res="2.7366023277863860e-04" rms="4.3518209457397461e-01" purity="3.9703875780105591e-01" nType="-99"/>
          <Node pos="r" depth="2" NCoef="0" IVar="-1" Cut="0.0000000000000000e+00" cType="1" res="2.7318256907165051e-03" rms="4.5151492953300476e-01" purity="5.3220349550247192e-01" nType="-99"/>
        </Node>
      </Node>
    </BinaryTree>
    <BinaryTree type="DecisionTree" boostWeight="1.0000000000000000e+00" itree="843">
      <Node pos="s" depth="0" NCoef="0" IVar="2" Cut="9.7555661201477051e-01" cType="1" res="-5.2361615234985948e-04" rms="4.5305323600769043e-01" purity="4.9770593643188477e-01" nType="0">
        <Node pos="l" depth="1" NCoef="0" IVar="4" Cut="1.3612833023071289e+00" cType="1" res="6.3184062018990517e-03" rms="4.5556670427322388e-01" purity="4.6985197067260742e-01" nType="0">
          <Node pos="l" depth="2" NCoef="0" IVar="-1" Cut="0.0000000000000000e+00" cType="1" res="-3.1208524887915701e-05" rms="4.6517506241798401e-01" purity="5.2328026294708252e-01" nType="-99"/>
          <Node pos="r" depth="2" NCoef="0" IVar="-1" Cut="0.0000000000000000e+00" cType="1" res="1.7499044770374894e-03" rms="4.1837275028228760e-01" purity="2.7851927280426025e-01" nType="-99"/>
        </Node>
        <Node pos="r" depth="1" NCoef="0" IVar="0" Cut="6.6069610595703125e+01" cType="1" res="-3.9896816015243530e-02" rms="4.3622845411300659e-01" purity="6.5799468755722046e-01" nType="0">
          <Node pos="l" depth="2" NCoef="0" IVar="-1" Cut="0.0000000000000000e+00" cType="1" res="-3.4486472140997648e-03" rms="4.5431277155876160e-01" purity="5.5472981929779053e-01" nType="-99"/>
          <Node pos="r" depth="2" NCoef="0" IVar="-1" Cut="0.0000000000000000e+00" cType="1" res="-8.6331291822716594e-04" rms="4.2097359895706177e-01" purity="7.3280620574951172e-01" nType="-99"/>
        </Node>
      </Node>
    </BinaryTree>
    <BinaryTree type="DecisionTree" boostWeight="1.0000000000000000e+00" itree="844">
      <Node pos="s" depth="0" NCoef="0" IVar="0" Cut="1.2076881408691406e+02" cType="1" res="-4.4341227039694786e-03" rms="4.5235806703567505e-01" purity="5.0227963924407959e-01" nType="0">
        <Node pos="l" depth="1" NCoef="0" IVar="3" Cut="2.3260341584682465e-01" cType="1" res="1.9806304480880499e-03" rms="4.5394033193588257e-01" purity="5.0276082754135132e-01" nType="0">
          <Node pos="l" depth="2" NCoef="0" IVar="-1" Cut="0.0000000000000000e+00" cType="1" res="-8.0276273365598172e-05" rms="4.5425203442573547e-01" purity="4.9408146739006042e-01" nType="-99"/>
          <Node pos="r" depth="2" NCoef="0" IVar="-1" Cut="0.0000000000000000e+00" cType="1" res="2.6204765308648348e-03" rms="4.4490644335746765e-01" purity="6.3741135597229004e-01" nType="-99"/>
        </Node>
        <Node pos="r" depth="1" NCoef="0" IVar="3" Cut="-5.8004256337881088e-02" cType="1" res="-3.8783043622970581e-02" rms="4.4220909476280212e-01" purity="4.9970296025276184e-01" nType="0">
          <Node pos="l" depth="2" NCoef="0" IVar="-1" Cut="0.0000000000000000e+00" cType="1" res="2.8904620558023453e-04" rms="4.3201768398284912e-01" purity="4.9716213345527649e-01" nType="-99"/>
          <Node pos="r" depth="2" NCoef="0" IVar="-1" Cut="0.0000000000000000e+00" cType="1" res="-3.0307231936603785e-03" rms="4.4598302245140076e-01" purity="5.0120490789413452e-01" nType="-99"/>
        </Node>
      </Node>
    </BinaryTree>
    <BinaryTree type="DecisionTree" boostWeight="1.0000000000000000e+00" itree="845">
      <Node pos="s" depth="0" NCoef="0" IVar="6" Cut="5.5115265846252441e+00" cType="1" res="2.2473859135061502e-03" rms="4.4722974300384521e-01" purity="5.0138211250305176e-01" nType="0">
        <Node pos="l" depth="1" NCoef="0" IVar="2" Cut="9.1877174377441406e-01" cType="1" res="-3.4732609987258911e-02" rms="4.1683083772659302e-01" purity="2.5816315412521362e-01" nType="0">
          <Node pos="l" depth="2" NCoef="0" IVar="-1" Cut="0.0000000000000000e+00" cType="1" res="-3.1853531254455447e-04" rms="4.2465361952781677e-01" purity="2.8118699789047241e-01" nType="-99"/>
          <Node pos="r" depth="2" NCoef="0" IVar="-1" Cut="0.0000000000000000e+00" cType="1" res="-3.6476589739322662e-03" rms="4.0046456456184387e-01" purity="2.2232583165168762e-01" nType="-99"/>
        </Node>
        <Node pos="r" depth="1" NCoef="0" IVar="0" Cut="1.1317183685302734e+02" cType="1" res="9.8276389762759209e-03" rms="4.5283645391464233e-01" purity="5.5123770236968994e-01" nType="0">
          <Node pos="l" depth="2" NCoef="0" IVar="-1" Cut="0.0000000000000000e+00" cType="1" res="2.9358086521824589e-06" rms="4.5733174681663513e-01" purity="5.2851402759552002e-01" nType="-99"/>
          <Node pos="r" depth="2" NCoef="0" IVar="-1" Cut="0.0000000000000000e+00" cType="1" res="2.3089533206075430e-03" rms="4.3205201625823975e-01" purity="6.4268773794174194e-01" nType="-99"/>
        </Node>
      </Node>
    </BinaryTree>
    <BinaryTree type="DecisionTree" boostWeight="1.0000000000000000e+00" itree="846">
      <Node pos="s" depth="0" NCoef="0" IVar="1" Cut="1.9162793159484863e+00" cType="1" res="4.2602731846272945e-03" rms="4.5014306902885437e-01" purity="5.0895845890045166e-01" nType="0">
        <Node pos="l" depth="1" NCoef="0" IVar="6" Cut="6.2382831573486328e+00" cType="1" res="-2.7608050033450127e-02" rms="4.6324840188026428e-01" purity="5.4981994628906250e-01" nType="0">
          <Node pos="l" depth="2" NCoef="0" IVar="-1" Cut="0.0000000000000000e+00" cType="1" res="9.7875948995351791e-04" rms="4.7026503086090088e-01" purity="4.4719702005386353e-01" nType="-99"/>
          <Node pos="r" depth="2" NCoef="0" IVar="-1" Cut="0.0000000000000000e+00" cType="1" res="-2.2544919047504663e-03" rms="4.5699828863143921e-01" purity="6.0414272546768188e-01" nType="-99"/>
        </Node>
        <Node pos="r" depth="1" NCoef="0" IVar="3" Cut="1.9094082713127136e-01" cType="1" res="1.1771244928240776e-02" rms="4.4666737318038940e-01" purity="4.9932795763015747e-01" nType="0">
          <Node pos="l" depth="2" NCoef="0" IVar="-1" Cut="0.0000000000000000e+00" cType="1" res="7.5767352245748043e-04" rms="4.4810131192207336e-01" purity="4.9325492978096008e-01" nType="-99"/>
          <Node pos="r" depth="2" NCoef="0" IVar="-1" Cut="0.0000000000000000e+00" cType="1" res="-1.6381464665755630e-03" rms="4.2975163459777832e-01" purity="5.5766570568084717e-01" nType="-99"/>
        </Node>
      </Node>
    </BinaryTree>
    <BinaryTree type="DecisionTree" boostWeight="1.0000000000000000e+00" itree="847">
      <Node pos="s" depth="0" NCoef="0" IVar="5" Cut="5.3497183322906494e-01" cType="1" res="-1.8180812185164541e-04" rms="4.5113223791122437e-01" purity="4.9910247325897217e-01" nType="0">
        <Node pos="l" depth="1" NCoef="0" IVar="2" Cut="9.6383154392242432e-01" cType="1" res="3.5927493125200272e-02" rms="4.5663335919380188e-01" purity="6.0844689607620239e-01" nType="0">
          <Node pos="l" depth="2" NCoef="0" IVar="-1" Cut="0.0000000000000000e+00" cType="1" res="2.5456049479544163e-03" rms="4.5607846975326538e-01" purity="5.7887917757034302e-01" nType="-99"/>
          <Node pos="r" depth="2" NCoef="0" IVar="-1" Cut="0.0000000000000000e+00" cType="1" res="-1.5705898404121399e-03" rms="4.5053103566169739e-01" purity="6.7888206243515015e-01" nType="-99"/>
        </Node>
        <Node pos="r" depth="1" NCoef="0" IVar="0" Cut="1.4060000610351562e+02" cType="1" res="-1.0377235710620880e-02" rms="4.4904145598411560e-01" purity="4.6822917461395264e-01" nType="0">
          <Node pos="l" depth="2" NCoef="0" IVar="-1" Cut="0.0000000000000000e+00" cType="1" res="-1.8457956321071833e-04" rms="4.4839119911193848e-01" purity="4.7750744223594666e-01" nType="-99"/>
          <Node pos="r" depth="2" NCoef="0" IVar="-1" Cut="0.0000000000000000e+00" cType="1" res="-4.0584229864180088e-03" rms="4.5013797283172607e-01" purity="3.6146900057792664e-01" nType="-99"/>
        </Node>
      </Node>
    </BinaryTree>
    <BinaryTree type="DecisionTree" boostWeight="1.0000000000000000e+00" itree="848">
      <Node pos="s" depth="0" NCoef="0" IVar="7" Cut="2.7600279450416565e-01" cType="1" res="-3.4918359597213566e-04" rms="4.4710353016853333e-01" purity="5.0112503767013550e-01" nType="0">
        <Node pos="l" depth="1" NCoef="0" IVar="4" Cut="1.2807382345199585e+00" cType="1" res="-2.6467297226190567e-02" rms="4.4119110703468323e-01" purity="3.8031941652297974e-01" nType="0">
          <Node pos="l" depth="2" NCoef="0" IVar="-1" Cut="0.0000000000000000e+00" cType="1" res="-2.4262811057269573e-03" rms="4.6463134884834290e-01" purity="4.7916871309280396e-01" nType="-99"/>
          <Node pos="r" depth="2" NCoef="0" IVar="-1" Cut="0.0000000000000000e+00" cType="1" res="7.6981046004220843e-04" rms="4.0820458531379700e-01" purity="2.6354447007179260e-01" nType="-99"/>
        </Node>
        <Node pos="r" depth="1" NCoef="0" IVar="1" Cut="2.4418044090270996e+00" cType="1" res="1.0478812269866467e-02" rms="4.4908669590950012e-01" purity="5.5120837688446045e-01" nType="0">
          <Node pos="l" depth="2" NCoef="0" IVar="-1" Cut="0.0000000000000000e+00" cType="1" res="7.5886421836912632e-04" rms="4.5436042547225952e-01" purity="5.9743714332580566e-01" nType="-99"/>
          <Node pos="r" depth="2" NCoef="0" IVar="-1" Cut="0.0000000000000000e+00" cType="1" res="-1.7139383126050234e-03" rms="4.1362351179122925e-01" purity="2.7589634060859680e-01" nType="-99"/>
        </Node>
      </Node>
    </BinaryTree>
    <BinaryTree type="DecisionTree" boostWeight="1.0000000000000000e+00" itree="849">
      <Node pos="s" depth="0" NCoef="0" IVar="6" Cut="7.5630507469177246e+00" cType="1" res="-4.7047543339431286e-03" rms="4.5326748490333557e-01" purity="4.9414011836051941e-01" nType="0">
        <Node pos="l" depth="1" NCoef="0" IVar="3" Cut="-4.4146715663373470e-03" cType="1" res="7.0845307782292366e-03" rms="4.5387336611747742e-01" purity="4.3384137749671936e-01" nType="0">
          <Node pos="l" depth="2" NCoef="0" IVar="-1" Cut="0.0000000000000000e+00" cType="1" res="1.2589413672685623e-03" rms="4.5197120308876038e-01" purity="4.2363414168357849e-01" nType="-99"/>
          <Node pos="r" depth="2" NCoef="0" IVar="-1" Cut="0.0000000000000000e+00" cType="1" res="-5.8805319713428617e-04" rms="4.5473989844322205e-01" purity="4.4383925199508667e-01" nType="-99"/>
        </Node>
        <Node pos="r" depth="1" NCoef="0" IVar="3" Cut="-1.3451451435685158e-02" cType="1" res="-2.9858831316232681e-02" rms="4.5094290375709534e-01" purity="6.2279570102691650e-01" nType="0">
          <Node pos="l" depth="2" NCoef="0" IVar="-1" Cut="0.0000000000000000e+00" cType="1" res="-2.5500315241515636e-03" rms="4.6544972062110901e-01" purity="5.5598133802413940e-01" nType="-99"/>
          <Node pos="r" depth="2" NCoef="0" IVar="-1" Cut="0.0000000000000000e+00" cType="1" res="-3.8037588819861412e-04" rms="4.3694356083869934e-01" purity="6.7995476722717285e-01" nType="-99"/>
        </Node>
      </Node>
    </BinaryTree>
    <BinaryTree type="DecisionTree" boostWeight="1.0000000000000000e+00" itree="850">
      <Node pos="s" depth="0" NCoef="0" IVar="0" Cut="1.1573117065429688e+02" cType="1" res="-4.8785656690597534e-03" rms="4.5051252841949463e-01" purity="4.9614787101745605e-01" nType="0">
        <Node pos="l" depth="1" NCoef="0" IVar="6" Cut="8.0886917114257812e+00" cType="1" res="-1.2677664868533611e-02" rms="4.5306214690208435e-01" purity="4.7830635309219360e-01" nType="0">
          <Node pos="l" depth="2" NCoef="0" IVar="-1" Cut="0.0000000000000000e+00" cType="1" res="-2.1292353630997241e-04" rms="4.5311838388442993e-01" purity="4.4120779633522034e-01" nType="-99"/>
          <Node pos="r" depth="2" NCoef="0" IVar="-1" Cut="0.0000000000000000e+00" cType="1" res="-2.0418304484337568e-03" rms="4.5161220431327820e-01" purity="6.2386935949325562e-01" nType="-99"/>
        </Node>
        <Node pos="r" depth="1" NCoef="0" IVar="5" Cut="8.4394335746765137e-01" cType="1" res="2.9592359438538551e-02" rms="4.3740370869636536e-01" purity="5.7500481605529785e-01" nType="0">
          <Node pos="l" depth="2" NCoef="0" IVar="-1" Cut="0.0000000000000000e+00" cType="1" res="1.3956664770375937e-04" rms="4.3250519037246704e-01" purity="6.1448824405670166e-01" nType="-99"/>
          <Node pos="r" depth="2" NCoef="0" IVar="-1" Cut="0.0000000000000000e+00" cType="1" res="2.9240208677947521e-03" rms="4.4115242362022400e-01" purity="5.2663207054138184e-01" nType="-99"/>
        </Node>
      </Node>
    </BinaryTree>
    <BinaryTree type="DecisionTree" boostWeight="1.0000000000000000e+00" itree="851">
      <Node pos="s" depth="0" NCoef="0" IVar="2" Cut="9.2057520151138306e-01" cType="1" res="-9.5861899899318814e-04" rms="4.5087498426437378e-01" purity="4.9869251251220703e-01" nType="0">
        <Node pos="l" depth="1" NCoef="0" IVar="6" Cut="4.8777747154235840e+00" cType="1" res="3.5657487809658051e-02" rms="4.5027974247932434e-01" purity="3.4348374605178833e-01" nType="0">
          <Node pos="l" depth="2" NCoef="0" IVar="-1" Cut="0.0000000000000000e+00" cType="1" res="-7.9907721374183893e-04" rms="4.1130429506301880e-01" purity="2.3033401370048523e-01" nType="-99"/>
          <Node pos="r" depth="2" NCoef="0" IVar="-1" Cut="0.0000000000000000e+00" cType="1" res="3.0650326516479254e-03" rms="4.7272995114326477e-01" purity="4.2390525341033936e-01" nType="-99"/>
        </Node>
        <Node pos="r" depth="1" NCoef="0" IVar="7" Cut="6.1198967695236206e-01" cType="1" res="-6.3363770022988319e-03" rms="4.5071187615394592e-01" purity="5.2148783206939697e-01" nType="0">
          <Node pos="l" depth="2" NCoef="0" IVar="-1" Cut="0.0000000000000000e+00" cType="1" res="2.6372677893959917e-05" rms="4.4930252432823181e-01" purity="5.1285082101821899e-01" nType="-99"/>
          <Node pos="r" depth="2" NCoef="0" IVar="-1" Cut="0.0000000000000000e+00" cType="1" res="-1.7850603908300400e-03" rms="4.5616599917411804e-01" purity="5.6523251533508301e-01" nType="-99"/>
        </Node>
      </Node>
    </BinaryTree>
    <BinaryTree type="DecisionTree" boostWeight="1.0000000000000000e+00" itree="852">
      <Node pos="s" depth="0" NCoef="0" IVar="5" Cut="8.7688702344894409e-01" cType="1" res="2.9133795760571957e-03" rms="4.4684374332427979e-01" purity="5.0507622957229614e-01" nType="0">
        <Node pos="l" depth="1" NCoef="0" IVar="6" Cut="8.7308816909790039e+00" cType="1" res="-1.2352913618087769e-02" rms="4.4905757904052734e-01" purity="5.3510612249374390e-01" nType="0">
          <Node pos="l" depth="2" NCoef="0" IVar="-1" Cut="0.0000000000000000e+00" cType="1" res="-8.2530669169500470e-04" rms="4.5581102371215820e-01" purity="4.9899965524673462e-01" nType="-99"/>
          <Node pos="r" depth="2" NCoef="0" IVar="-1" Cut="0.0000000000000000e+00" cType="1" res="1.8724178662523627e-03" rms="3.9812508225440979e-01" purity="7.7424609661102295e-01" nType="-99"/>
        </Node>
        <Node pos="r" depth="1" NCoef="0" IVar="5" Cut="1.0973627567291260e+00" cType="1" res="2.9302613809704781e-02" rms="4.4174832105636597e-01" purity="4.5316669344902039e-01" nType="0">
          <Node pos="l" depth="2" NCoef="0" IVar="-1" Cut="0.0000000000000000e+00" cType="1" res="2.6622510049492121e-03" rms="4.4573545455932617e-01" purity="5.0025206804275513e-01" nType="-99"/>
          <Node pos="r" depth="2" NCoef="0" IVar="-1" Cut="0.0000000000000000e+00" cType="1" res="-6.5075012389570475e-04" rms="4.3199157714843750e-01" purity="3.8100320100784302e-01" nType="-99"/>
        </Node>
      </Node>
    </BinaryTree>
    <BinaryTree type="DecisionTree" boostWeight="1.0000000000000000e+00" itree="853">
      <Node pos="s" depth="0" NCoef="0" IVar="2" Cut="9.8421657085418701e-01" cType="1" res="4.0826103650033474e-03" rms="4.4762703776359558e-01" purity="5.0440502166748047e-01" nType="0">
        <Node pos="l" depth="1" NCoef="0" IVar="2" Cut="9.0906417369842529e-01" cType="1" res="-5.7309784460812807e-04" rms="4.5193168520927429e-01" purity="4.8337748646736145e-01" nType="0">
          <Node pos="l" depth="2" NCoef="0" IVar="-1" Cut="0.0000000000000000e+00" cType="1" res="-2.5374905671924353e-03" rms="3.8112390041351318e-01" purity="2.0537716150283813e-01" nType="-99"/>
          <Node pos="r" depth="2" NCoef="0" IVar="-1" Cut="0.0000000000000000e+00" cType="1" res="1.0029206168837845e-04" rms="4.5563051104545593e-01" purity="4.9990892410278320e-01" nType="-99"/>
        </Node>
        <Node pos="r" depth="1" NCoef="0" IVar="-1" Cut="0.0000000000000000e+00" cType="1" res="3.3007464371621609e-03" rms="3.8160637021064758e-01" purity="7.7994042634963989e-01" nType="-99"/>
      </Node>
    </BinaryTree>
    <BinaryTree type="DecisionTree" boostWeight="1.0000000000000000e+00" itree="854">
      <Node pos="s" depth="0" NCoef="0" IVar="5" Cut="9.8938268423080444e-01" cType="1" res="-4.4016549363732338e-03" rms="4.5075348019599915e-01" purity="4.9615299701690674e-01" nType="0">
        <Node pos="l" depth="1" NCoef="0" IVar="5" Cut="5.3579205274581909e-01" cType="1" res="5.1827775314450264e-03" rms="4.5572701096534729e-01" purity="5.3559482097625732e-01" nType="0">
          <Node pos="l" depth="2" NCoef="0" IVar="-1" Cut="0.0000000000000000e+00" cType="1" res="-9.2527299420908093e-04" rms="4.6634197235107422e-01" purity="5.5428850650787354e-01" nType="-99"/>
          <Node pos="r" depth="2" NCoef="0" IVar="-1" Cut="0.0000000000000000e+00" cType="1" res="7.0146512007340789e-04" rms="4.5103183388710022e-01" purity="5.2823656797409058e-01" nType="-99"/>
        </Node>
        <Node pos="r" depth="1" NCoef="0" IVar="2" Cut="9.5359295606613159e-01" cType="1" res="-3.6343619227409363e-02" rms="4.3223506212234497e-01" purity="3.6470547318458557e-01" nType="0">
          <Node pos="l" depth="2" NCoef="0" IVar="-1" Cut="0.0000000000000000e+00" cType="1" res="-2.7508949860930443e-03" rms="4.1801413893699646e-01" purity="2.5438612699508667e-01" nType="-99"/>
          <Node pos="r" depth="2" NCoef="0" IVar="-1" Cut="0.0000000000000000e+00" cType="1" res="-3.7623033858835697e-04" rms="4.4990590214729309e-01" purity="5.1920050382614136e-01" nType="-99"/>
        </Node>
      </Node>
    </BinaryTree>
    <BinaryTree type="DecisionTree" boostWeight="1.0000000000000000e+00" itree="855">
      <Node pos="s" depth="0" NCoef="0" IVar="6" Cut="8.2222042083740234e+00" cType="1" res="1.6049061669036746e-03" rms="4.5236119627952576e-01" purity="5.0114560127258301e-01" nType="0">
        <Node pos="l" depth="1" NCoef="0" IVar="2" Cut="9.5557135343551636e-01" cType="1" res="7.5753019191324711e-03" rms="4.5444336533546448e-01" purity="4.6821376681327820e-01" nType="0">
          <Node pos="l" depth="2" NCoef="0" IVar="-1" Cut="0.0000000000000000e+00" cType="1" res="-1.1796739272540435e-04" rms="4.5515421032905579e-01" purity="4.0567517280578613e-01" nType="-99"/>
          <Node pos="r" depth="2" NCoef="0" IVar="-1" Cut="0.0000000000000000e+00" cType="1" res="1.3268080074340105e-03" rms="4.5196411013603210e-01" purity="6.0949003696441650e-01" nType="-99"/>
        </Node>
        <Node pos="r" depth="1" NCoef="0" IVar="3" Cut="-4.5412216335535049e-02" cType="1" res="-2.5917395949363708e-02" rms="4.4159367680549622e-01" purity="6.5295481681823730e-01" nType="0">
          <Node pos="l" depth="2" NCoef="0" IVar="-1" Cut="0.0000000000000000e+00" cType="1" res="-2.9365378431975842e-03" rms="4.5462575554847717e-01" purity="5.4619878530502319e-01" nType="-99"/>
          <Node pos="r" depth="2" NCoef="0" IVar="-1" Cut="0.0000000000000000e+00" cType="1" res="-4.1558034718036652e-04" rms="4.3414765596389771e-01" purity="7.0377969741821289e-01" nType="-99"/>
        </Node>
      </Node>
    </BinaryTree>
    <BinaryTree type="DecisionTree" boostWeight="1.0000000000000000e+00" itree="856">
      <Node pos="s" depth="0" NCoef="0" IVar="3" Cut="-9.1687999665737152e-02" cType="1" res="5.2626864053308964e-03" rms="4.4835945963859558e-01" purity="5.0345385074615479e-01" nType="0">
        <Node pos="l" depth="1" NCoef="0" IVar="3" Cut="-1.0834013670682907e-01" cType="1" res="4.7144234180450439e-02" rms="4.3968883156776428e-01" purity="4.6950015425682068e-01" nType="0">
          <Node pos="l" depth="2" NCoef="0" IVar="-1" Cut="0.0000000000000000e+00" cType="1" res="4.5745103852823377e-04" rms="4.3681693077087402e-01" purity="3.9070397615432739e-01" nType="-99"/>
          <Node pos="r" depth="2" NCoef="0" IVar="-1" Cut="0.0000000000000000e+00" cType="1" res="3.7033776752650738e-03" rms="4.3944919109344482e-01" purity="5.4329764842987061e-01" nType="-99"/>
        </Node>
        <Node pos="r" depth="1" NCoef="0" IVar="0" Cut="1.2306439208984375e+02" cType="1" res="-2.7603514026850462e-03" rms="4.4955629110336304e-01" purity="5.0995820760726929e-01" nType="0">
          <Node pos="l" depth="2" NCoef="0" IVar="-1" Cut="0.0000000000000000e+00" cType="1" res="-4.4700963189825416e-04" rms="4.5072454214096069e-01" purity="4.9578025937080383e-01" nType="-99"/>
          <Node pos="r" depth="2" NCoef="0" IVar="-1" Cut="0.0000000000000000e+00" cType="1" res="1.9956913311034441e-03" rms="4.3968409299850464e-01" purity="5.9532147645950317e-01" nType="-99"/>
        </Node>
      </Node>
    </BinaryTree>
    <BinaryTree type="DecisionTree" boostWeight="1.0000000000000000e+00" itree="857">
      <Node pos="s" depth="0" NCoef="0" IVar="7" Cut="6.2234967947006226e-01" cType="1" res="4.4129858724772930e-03" rms="4.5165050029754639e-01" purity="5.0109958648681641e-01" nType="0">
        <Node pos="l" depth="1" NCoef="0" IVar="7" Cut="1.7227266728878021e-01" cType="1" res="-2.2422755137085915e-03" rms="4.4994723796844482e-01" purity="4.8163637518882751e-01" nType="0">
          <Node pos="l" depth="2" NCoef="0" IVar="-1" Cut="0.0000000000000000e+00" cType="1" res="2.0283875055611134e-03" rms="4.4353529810905457e-01" purity="4.1120141744613647e-01" nType="-99"/>
          <Node pos="r" depth="2" NCoef="0" IVar="-1" Cut="0.0000000000000000e+00" cType="1" res="-4.0694331983104348e-04" rms="4.5056682825088501e-01" purity="4.9281731247901917e-01" nType="-99"/>
        </Node>
        <Node pos="r" depth="1" NCoef="0" IVar="7" Cut="6.7847406864166260e-01" cType="1" res="4.3280500918626785e-02" rms="4.5955118536949158e-01" purity="6.1476689577102661e-01" nType="0">
          <Node pos="l" depth="2" NCoef="0" IVar="-1" Cut="0.0000000000000000e+00" cType="1" res="3.2741683535277843e-03" rms="4.6087098121643066e-01" purity="6.3621586561203003e-01" nType="-99"/>
          <Node pos="r" depth="2" NCoef="0" IVar="-1" Cut="0.0000000000000000e+00" cType="1" res="6.5672298660501838e-04" rms="4.5664075016975403e-01" purity="5.9857863187789917e-01" nType="-99"/>
        </Node>
      </Node>
    </BinaryTree>
    <BinaryTree type="DecisionTree" boostWeight="1.0000000000000000e+00" itree="858">
      <Node pos="s" depth="0" NCoef="0" IVar="4" Cut="1.1898461580276489e+00" cType="1" res="-1.1727762175723910e-03" rms="4.5632246136665344e-01" purity="4.9245968461036682e-01" nType="0">
        <Node pos="l" depth="1" NCoef="0" IVar="3" Cut="-4.3665401637554169e-02" cType="1" res="-1.4087121002376080e-02" rms="4.6351832151412964e-01" purity="5.6963670253753662e-01" nType="0">
          <Node pos="l" depth="2" NCoef="0" IVar="-1" Cut="0.0000000000000000e+00" cType="1" res="1.0922740912064910e-03" rms="4.6472269296646118e-01" purity="5.9994566440582275e-01" nType="-99"/>
          <Node pos="r" depth="2" NCoef="0" IVar="-1" Cut="0.0000000000000000e+00" cType="1" res="-1.3050448615103960e-03" rms="4.6199294924736023e-01" purity="5.5722570419311523e-01" nType="-99"/>
        </Node>
        <Node pos="r" depth="1" NCoef="0" IVar="4" Cut="1.7077735662460327e+00" cType="1" res="2.5446189567446709e-02" rms="4.3992581963539124e-01" purity="3.3338296413421631e-01" nType="0">
          <Node pos="l" depth="2" NCoef="0" IVar="-1" Cut="0.0000000000000000e+00" cType="1" res="2.0072069019079208e-03" rms="4.6122235059738159e-01" purity="3.8052400946617126e-01" nType="-99"/>
          <Node pos="r" depth="2" NCoef="0" IVar="-1" Cut="0.0000000000000000e+00" cType="1" res="-3.3533128444105387e-03" rms="3.2874161005020142e-01" purity="1.3893911242485046e-01" nType="-99"/>
        </Node>
      </Node>
    </BinaryTree>
    <BinaryTree type="DecisionTree" boostWeight="1.0000000000000000e+00" itree="859">
      <Node pos="s" depth="0" NCoef="0" IVar="6" Cut="5.3962378501892090e+00" cType="1" res="-8.9754993095993996e-03" rms="4.4542914628982544e-01" purity="4.8789936304092407e-01" nType="0">
        <Node pos="l" depth="1" NCoef="0" IVar="2" Cut="9.1763490438461304e-01" cType="1" res="-4.4956352561712265e-02" rms="4.0955153107643127e-01" purity="2.3561936616897583e-01" nType="0">
          <Node pos="l" depth="2" NCoef="0" IVar="-1" Cut="0.0000000000000000e+00" cType="1" res="-2.4655548622831702e-04" rms="4.3135923147201538e-01" purity="2.7685099840164185e-01" nType="-99"/>
          <Node pos="r" depth="2" NCoef="0" IVar="-1" Cut="0.0000000000000000e+00" cType="1" res="-5.6228633038699627e-03" rms="3.6012473702430725e-01" purity="1.6621018946170807e-01" nType="-99"/>
        </Node>
        <Node pos="r" depth="1" NCoef="0" IVar="1" Cut="2.4025664329528809e+00" cType="1" res="-3.2032108865678310e-03" rms="4.5065191388130188e-01" purity="5.2837181091308594e-01" nType="0">
          <Node pos="l" depth="2" NCoef="0" IVar="-1" Cut="0.0000000000000000e+00" cType="1" res="2.0520023826975375e-04" rms="4.5723450183868408e-01" purity="5.9251058101654053e-01" nType="-99"/>
          <Node pos="r" depth="2" NCoef="0" IVar="-1" Cut="0.0000000000000000e+00" cType="1" res="-1.7125268932431936e-03" rms="4.2352089285850525e-01" purity="2.8629451990127563e-01" nType="-99"/>
        </Node>
      </Node>
    </BinaryTree>
    <BinaryTree type="DecisionTree" boostWeight="1.0000000000000000e+00" itree="860">
      <Node pos="s" depth="0" NCoef="0" IVar="1" Cut="1.8582046031951904e+00" cType="1" res="-7.6611465774476528e-03" rms="4.4903814792633057e-01" purity="4.9319794774055481e-01" nType="0">
        <Node pos="l" depth="1" NCoef="0" IVar="1" Cut="1.7592678070068359e+00" cType="1" res="3.4085206687450409e-02" rms="4.4953525066375732e-01" purity="5.9263551235198975e-01" nType="0">
          <Node pos="l" depth="2" NCoef="0" IVar="-1" Cut="0.0000000000000000e+00" cType="1" res="-1.1289714166196063e-04" rms="4.5179468393325806e-01" purity="5.1647919416427612e-01" nType="-99"/>
          <Node pos="r" depth="2" NCoef="0" IVar="-1" Cut="0.0000000000000000e+00" cType="1" res="3.2581819687038660e-03" rms="4.4257366657257080e-01" purity="6.8532890081405640e-01" nType="-99"/>
        </Node>
        <Node pos="r" depth="1" NCoef="0" IVar="5" Cut="1.0075109004974365e+00" cType="1" res="-1.3905129395425320e-02" rms="4.4862991571426392e-01" purity="4.7832515835762024e-01" nType="0">
          <Node pos="l" depth="2" NCoef="0" IVar="-1" Cut="0.0000000000000000e+00" cType="1" res="-1.1334120063111186e-03" rms="4.4995924830436707e-01" purity="4.9605229496955872e-01" nType="-99"/>
          <Node pos="r" depth="2" NCoef="0" IVar="-1" Cut="0.0000000000000000e+00" cType="1" res="1.1401880765333772e-03" rms="4.4199079275131226e-01" purity="4.1853982210159302e-01" nType="-99"/>
        </Node>
      </Node>
    </BinaryTree>
    <BinaryTree type="DecisionTree" boostWeight="1.0000000000000000e+00" itree="861">
      <Node pos="s" depth="0" NCoef="0" IVar="6" Cut="6.1555361747741699e+00" cType="1" res="-5.0984201952815056e-03" rms="4.5172697305679321e-01" purity="4.9406465888023376e-01" nType="0">
        <Node pos="l" depth="1" NCoef="0" IVar="5" Cut="6.6220569610595703e-01" cType="1" res="1.7580224201083183e-02" rms="4.4802421331405640e-01" purity="3.6177968978881836e-01" nType="0">
          <Node pos="l" depth="2" NCoef="0" IVar="-1" Cut="0.0000000000000000e+00" cType="1" res="2.2650964092463255e-03" rms="4.7259724140167236e-01" purity="4.7528094053268433e-01" nType="-99"/>
          <Node pos="r" depth="2" NCoef="0" IVar="-1" Cut="0.0000000000000000e+00" cType="1" res="-1.5165664080996066e-04" rms="4.3297460675239563e-01" purity="3.0150580406188965e-01" nType="-99"/>
        </Node>
        <Node pos="r" depth="1" NCoef="0" IVar="1" Cut="1.9903287887573242e+00" cType="1" res="-1.6106598079204559e-02" rms="4.5310434699058533e-01" purity="5.5827552080154419e-01" nType="0">
          <Node pos="l" depth="2" NCoef="0" IVar="-1" Cut="0.0000000000000000e+00" cType="1" res="-1.9174214685335755e-03" rms="4.6383932232856750e-01" purity="6.0228794813156128e-01" nType="-99"/>
          <Node pos="r" depth="2" NCoef="0" IVar="-1" Cut="0.0000000000000000e+00" cType="1" res="-2.2183672990649939e-04" rms="4.4857448339462280e-01" purity="5.4207682609558105e-01" nType="-99"/>
        </Node>
      </Node>
    </BinaryTree>
    <BinaryTree type="DecisionTree" boostWeight="1.0000000000000000e+00" itree="862">
      <Node pos="s" depth="0" NCoef="0" IVar="1" Cut="2.2203238010406494e+00" cType="1" res="-2.2324575111269951e-03" rms="4.4868141412734985e-01" purity="5.0007802248001099e-01" nType="0">
        <Node pos="l" depth="1" NCoef="0" IVar="0" Cut="1.0485812377929688e+02" cType="1" res="1.2062320485711098e-02" rms="4.5402172207832336e-01" purity="5.9436750411987305e-01" nType="0">
          <Node pos="l" depth="2" NCoef="0" IVar="-1" Cut="0.0000000000000000e+00" cType="1" res="-5.7238801673520356e-05" rms="4.6635371446609497e-01" purity="5.5077260732650757e-01" nType="-99"/>
          <Node pos="r" depth="2" NCoef="0" IVar="-1" Cut="0.0000000000000000e+00" cType="1" res="3.4953553695231676e-03" rms="3.8762694597244263e-01" purity="7.9155755043029785e-01" nType="-99"/>
        </Node>
        <Node pos="r" depth="1" NCoef="0" IVar="7" Cut="1.8866372108459473e-01" cType="1" res="-2.3935267701745033e-02" rms="4.3956205248832703e-01" purity="3.5692456364631653e-01" nType="0">
          <Node pos="l" depth="2" NCoef="0" IVar="-1" Cut="0.0000000000000000e+00" cType="1" res="1.4850577572360635e-03" rms="4.3148288130760193e-01" purity="3.1943565607070923e-01" nType="-99"/>
          <Node pos="r" depth="2" NCoef="0" IVar="-1" Cut="0.0000000000000000e+00" cType="1" res="-1.7521395348012447e-03" rms="4.4060805439949036e-01" purity="3.6640998721122742e-01" nType="-99"/>
        </Node>
      </Node>
    </BinaryTree>
    <BinaryTree type="DecisionTree" boostWeight="1.0000000000000000e+00" itree="863">
      <Node pos="s" depth="0" NCoef="0" IVar="3" Cut="2.1267913281917572e-01" cType="1" res="-8.5977520793676376e-03" rms="4.5080354809761047e-01" purity="4.9613419175148010e-01" nType="0">
        <Node pos="l" depth="1" NCoef="0" IVar="5" Cut="4.4002309441566467e-01" cType="1" res="-1.4088260009884834e-02" rms="4.5106768608093262e-01" purity="4.8294529318809509e-01" nType="0">
          <Node pos="l" depth="2" NCoef="0" IVar="-1" Cut="0.0000000000000000e+00" cType="1" res="-2.1442922297865152e-03" rms="4.5377606153488159e-01" purity="5.4981303215026855e-01" nType="-99"/>
          <Node pos="r" depth="2" NCoef="0" IVar="-1" Cut="0.0000000000000000e+00" cType="1" res="-3.8336540455929935e-04" rms="4.5038679242134094e-01" purity="4.7256159782409668e-01" nType="-99"/>
        </Node>
        <Node pos="r" depth="1" NCoef="0" IVar="-1" Cut="0.0000000000000000e+00" cType="1" res="2.3365963716059923e-03" rms="4.4303399324417114e-01" purity="6.4604222774505615e-01" nType="-99"/>
      </Node>
    </BinaryTree>
    <BinaryTree type="DecisionTree" boostWeight="1.0000000000000000e+00" itree="864">
      <Node pos="s" depth="0" NCoef="0" IVar="6" Cut="7.3964195251464844e+00" cType="1" res="4.2567071504890919e-03" rms="4.5100620388984680e-01" purity="5.0362563133239746e-01" nType="0">
        <Node pos="l" depth="1" NCoef="0" IVar="4" Cut="6.2810081243515015e-01" cType="1" res="1.1867761611938477e-02" rms="4.5411464571952820e-01" purity="4.2923381924629211e-01" nType="0">
          <Node pos="l" depth="2" NCoef="0" IVar="-1" Cut="0.0000000000000000e+00" cType="1" res="-1.3439505128189921e-03" rms="4.7527614235877991e-01" purity="5.5577445030212402e-01" nType="-99"/>
          <Node pos="r" depth="2" NCoef="0" IVar="-1" Cut="0.0000000000000000e+00" cType="1" res="8.8207854423671961e-04" rms="4.5003846287727356e-01" purity="4.0845850110054016e-01" nType="-99"/>
        </Node>
        <Node pos="r" depth="1" NCoef="0" IVar="0" Cut="1.0262046051025391e+02" cType="1" res="-9.4935018569231033e-03" rms="4.4500556588172913e-01" purity="6.3802260160446167e-01" nType="0">
          <Node pos="l" depth="2" NCoef="0" IVar="-1" Cut="0.0000000000000000e+00" cType="1" res="3.1673692865297198e-04" rms="4.4781669974327087e-01" purity="6.3268548250198364e-01" nType="-99"/>
          <Node pos="r" depth="2" NCoef="0" IVar="-1" Cut="0.0000000000000000e+00" cType="1" res="-2.5273747742176056e-03" rms="4.3576619029045105e-01" purity="6.5068447589874268e-01" nType="-99"/>
        </Node>
      </Node>
    </BinaryTree>
    <BinaryTree type="DecisionTree" boostWeight="1.0000000000000000e+00" itree="865">
      <Node pos="s" depth="0" NCoef="0" IVar="5" Cut="6.9245719909667969e-01" cType="1" res="5.6649046018719673e-04" rms="4.5125210285186768e-01" purity="5.0226604938507080e-01" nType="0">
        <Node pos="l" depth="1" NCoef="0" IVar="2" Cut="9.3836784362792969e-01" cType="1" res="1.6103312373161316e-02" rms="4.5700767636299133e-01" purity="5.9024870395660400e-01" nType="0">
          <Node pos="l" depth="2" NCoef="0" IVar="-1" Cut="0.0000000000000000e+00" cType="1" res="2.0325335208326578e-03" rms="4.7661286592483521e-01" purity="4.8081600666046143e-01" nType="-99"/>
          <Node pos="r" depth="2" NCoef="0" IVar="-1" Cut="0.0000000000000000e+00" cType="1" res="2.3618000341230072e-05" rms="4.4737702608108521e-01" purity="6.3751602172851562e-01" nType="-99"/>
        </Node>
        <Node pos="r" depth="1" NCoef="0" IVar="5" Cut="9.0978580713272095e-01" cType="1" res="-1.0451458394527435e-02" rms="4.4679832458496094e-01" purity="4.3987312912940979e-01" nType="0">
          <Node pos="l" depth="2" NCoef="0" IVar="-1" Cut="0.0000000000000000e+00" cType="1" res="-1.3397650327533484e-03" rms="4.5321631431579590e-01" purity="4.5573344826698303e-01" nType="-99"/>
          <Node pos="r" depth="2" NCoef="0" IVar="-1" Cut="0.0000000000000000e+00" cType="1" res="2.9391693533398211e-04" rms="4.4051891565322876e-01" purity="4.2624503374099731e-01" nType="-99"/>
        </Node>
      </Node>
    </BinaryTree>
    <BinaryTree type="DecisionTree" boostWeight="1.0000000000000000e+00" itree="866">
      <Node pos="s" depth="0" NCoef="0" IVar="4" Cut="1.2238687276840210e+00" cType="1" res="4.2539271526038647e-03" rms="4.4987499713897705e-01" purity="5.0166451930999756e-01" nType="0">
        <Node pos="l" depth="1" NCoef="0" IVar="7" Cut="2.6192814111709595e-01" cType="1" res="-4.4578332453966141e-03" rms="4.5446142554283142e-01" purity="5.7636839151382446e-01" nType="0">
          <Node pos="l" depth="2" NCoef="0" IVar="-1" Cut="0.0000000000000000e+00" cType="1" res="-1.9795461557805538e-03" rms="4.5307663083076477e-01" purity="4.9708306789398193e-01" nType="-99"/>
          <Node pos="r" depth="2" NCoef="0" IVar="-1" Cut="0.0000000000000000e+00" cType="1" res="2.6816871832124889e-04" rms="4.5417991280555725e-01" purity="5.9673655033111572e-01" nType="-99"/>
        </Node>
        <Node pos="r" depth="1" NCoef="0" IVar="2" Cut="9.6060466766357422e-01" cType="1" res="2.5269998237490654e-02" rms="4.3790066242218018e-01" purity="3.2145056128501892e-01" nType="0">
          <Node pos="l" depth="2" NCoef="0" IVar="-1" Cut="0.0000000000000000e+00" cType="1" res="2.2729381453245878e-03" rms="4.2782413959503174e-01" purity="2.8733628988265991e-01" nType="-99"/>
          <Node pos="r" depth="2" NCoef="0" IVar="-1" Cut="0.0000000000000000e+00" cType="1" res="-5.6394794955849648e-04" rms="4.5797601342201233e-01" purity="3.9978361129760742e-01" nType="-99"/>
        </Node>
      </Node>
    </BinaryTree>
    <BinaryTree type="DecisionTree" boostWeight="1.0000000000000000e+00" itree="867">
      <Node pos="s" depth="0" NCoef="0" IVar="7" Cut="1.3271011412143707e-01" cType="1" res="-7.1225124411284924e-03" rms="4.4284093379974365e-01" purity="4.8998713493347168e-01" nType="0">
        <Node pos="l" depth="1" NCoef="0" IVar="-1" Cut="0.0000000000000000e+00" cType="1" res="-3.8667588960379362e-03" rms="4.0108379721641541e-01" purity="2.9267954826354980e-01" nType="-99"/>
        <Node pos="r" depth="1" NCoef="0" IVar="4" Cut="1.1001166105270386e+00" cType="1" res="-1.7306148074567318e-03" rms="4.4538956880569458e-01" purity="5.0496852397918701e-01" nType="0">
          <Node pos="l" depth="2" NCoef="0" IVar="-1" Cut="0.0000000000000000e+00" cType="1" res="5.5644212989136577e-04" rms="4.5091193914413452e-01" purity="6.1924237012863159e-01" nType="-99"/>
          <Node pos="r" depth="2" NCoef="0" IVar="-1" Cut="0.0000000000000000e+00" cType="1" res="-1.2220675125718117e-03" rms="4.3538534641265869e-01" purity="3.2268145680427551e-01" nType="-99"/>
        </Node>
      </Node>
    </BinaryTree>
    <BinaryTree type="DecisionTree" boostWeight="1.0000000000000000e+00" itree="868">
      <Node pos="s" depth="0" NCoef="0" IVar="5" Cut="5.0944203138351440e-01" cType="1" res="3.4872083924710751e-03" rms="4.5255425572395325e-01" purity="5.0599437952041626e-01" nType="0">
        <Node pos="l" depth="1" NCoef="0" IVar="0" Cut="9.1914031982421875e+01" cType="1" res="-3.0073208734393120e-02" rms="4.5798254013061523e-01" purity="5.5204474925994873e-01" nType="0">
          <Node pos="l" depth="2" NCoef="0" IVar="-1" Cut="0.0000000000000000e+00" cType="1" res="-1.7010455485433340e-03" rms="4.7403311729431152e-01" purity="4.9056982994079590e-01" nType="-99"/>
          <Node pos="r" depth="2" NCoef="0" IVar="-1" Cut="0.0000000000000000e+00" cType="1" res="5.9942295774817467e-04" rms="4.1696289181709290e-01" purity="6.8843835592269897e-01" nType="-99"/>
        </Node>
        <Node pos="r" depth="1" NCoef="0" IVar="3" Cut="5.3596399724483490e-02" cType="1" res="1.1452276259660721e-02" rms="4.5088973641395569e-01" purity="4.9506497383117676e-01" nType="0">
          <Node pos="l" depth="2" NCoef="0" IVar="-1" Cut="0.0000000000000000e+00" cType="1" res="-6.0224433582334314e-06" rms="4.5416173338890076e-01" purity="4.4168627262115479e-01" nType="-99"/>
          <Node pos="r" depth="2" NCoef="0" IVar="-1" Cut="0.0000000000000000e+00" cType="1" res="1.2712741736322641e-03" rms="4.4524419307708740e-01" purity="5.7686865329742432e-01" nType="-99"/>
        </Node>
      </Node>
    </BinaryTree>
    <BinaryTree type="DecisionTree" boostWeight="1.0000000000000000e+00" itree="869">
      <Node pos="s" depth="0" NCoef="0" IVar="1" Cut="2.3602714538574219e+00" cType="1" res="2.7810384053736925e-03" rms="4.4627341628074646e-01" purity="5.0550568103790283e-01" nType="0">
        <Node pos="l" depth="1" NCoef="0" IVar="6" Cut="8.4893417358398438e+00" cType="1" res="1.1366738006472588e-02" rms="4.5278981328010559e-01" purity="5.7364231348037720e-01" nType="0">
          <Node pos="l" depth="2" NCoef="0" IVar="-1" Cut="0.0000000000000000e+00" cType="1" res="1.2868973135482520e-04" rms="4.6427968144416809e-01" purity="5.2740526199340820e-01" nType="-99"/>
          <Node pos="r" depth="2" NCoef="0" IVar="-1" Cut="0.0000000000000000e+00" cType="1" res="2.6639732532203197e-03" rms="3.8908243179321289e-01" purity="8.0041015148162842e-01" nType="-99"/>
        </Node>
        <Node pos="r" depth="1" NCoef="0" IVar="6" Cut="6.7793483734130859e+00" cType="1" res="-2.3939847946166992e-02" rms="4.2424392700195312e-01" purity="2.9344719648361206e-01" nType="0">
          <Node pos="l" depth="2" NCoef="0" IVar="-1" Cut="0.0000000000000000e+00" cType="1" res="9.1752200387418270e-04" rms="4.1603934764862061e-01" purity="2.4233905971050262e-01" nType="-99"/>
          <Node pos="r" depth="2" NCoef="0" IVar="-1" Cut="0.0000000000000000e+00" cType="1" res="-3.0352056492120028e-03" rms="4.2870768904685974e-01" purity="3.4620353579521179e-01" nType="-99"/>
        </Node>
      </Node>
    </BinaryTree>
    <BinaryTree type="DecisionTree" boostWeight="1.0000000000000000e+00" itree="870">
      <Node pos="s" depth="0" NCoef="0" IVar="4" Cut="6.6037261486053467e-01" cType="1" res="-6.0650645755231380e-03" rms="4.4660091400146484e-01" purity="4.9126967787742615e-01" nType="0">
        <Node pos="l" depth="1" NCoef="0" IVar="6" Cut="7.0119690895080566e+00" cType="1" res="3.6095269024372101e-02" rms="4.3128994107246399e-01" purity="7.0600813627243042e-01" nType="0">
          <Node pos="l" depth="2" NCoef="0" IVar="-1" Cut="0.0000000000000000e+00" cType="1" res="2.5020213797688484e-03" rms="4.4619625806808472e-01" purity="6.4850151538848877e-01" nType="-99"/>
          <Node pos="r" depth="2" NCoef="0" IVar="-1" Cut="0.0000000000000000e+00" cType="1" res="3.8547324948012829e-04" rms="4.1515567898750305e-01" purity="7.5913184881210327e-01" nType="-99"/>
        </Node>
        <Node pos="r" depth="1" NCoef="0" IVar="7" Cut="3.3171331882476807e-01" cType="1" res="-1.5878664329648018e-02" rms="4.4952312111854553e-01" purity="4.4128528237342834e-01" nType="0">
          <Node pos="l" depth="2" NCoef="0" IVar="-1" Cut="0.0000000000000000e+00" cType="1" res="1.1756126332329586e-04" rms="4.3886831402778625e-01" purity="4.0488296747207642e-01" nType="-99"/>
          <Node pos="r" depth="2" NCoef="0" IVar="-1" Cut="0.0000000000000000e+00" cType="1" res="-1.2854968663305044e-03" rms="4.5709171891212463e-01" purity="4.6945148706436157e-01" nType="-99"/>
        </Node>
      </Node>
    </BinaryTree>
    <BinaryTree type="DecisionTree" boostWeight="1.0000000000000000e+00" itree="871">
      <Node pos="s" depth="0" NCoef="0" IVar="1" Cut="2.5779666900634766e+00" cType="1" res="-1.8785836873576045e-03" rms="4.4989705085754395e-01" purity="4.9676805734634399e-01" nType="0">
        <Node pos="l" depth="1" NCoef="0" IVar="4" Cut="6.0150128602981567e-01" cType="1" res="-7.0688868872821331e-03" rms="4.5414492487907410e-01" purity="5.2818191051483154e-01" nType="0">
          <Node pos="l" depth="2" NCoef="0" IVar="-1" Cut="0.0000000000000000e+00" cType="1" res="1.2856767280027270e-03" rms="4.4279646873474121e-01" purity="7.1090263128280640e-01" nType="-99"/>
          <Node pos="r" depth="2" NCoef="0" IVar="-1" Cut="0.0000000000000000e+00" cType="1" res="-5.8206572430208325e-04" rms="4.5587742328643799e-01" purity="4.9481153488159180e-01" nType="-99"/>
        </Node>
        <Node pos="r" depth="1" NCoef="0" IVar="7" Cut="2.5169441103935242e-01" cType="1" res="3.8362387567758560e-02" rms="4.1328591108322144e-01" purity="2.5321319699287415e-01" nType="0">
          <Node pos="l" depth="2" NCoef="0" IVar="-1" Cut="0.0000000000000000e+00" cType="1" res="2.0939223759341985e-04" rms="3.8416057825088501e-01" purity="1.9532589614391327e-01" nType="-99"/>
          <Node pos="r" depth="2" NCoef="0" IVar="-1" Cut="0.0000000000000000e+00" cType="1" res="4.0362370200455189e-03" rms="4.3424320220947266e-01" purity="3.0236473679542542e-01" nType="-99"/>
        </Node>
      </Node>
    </BinaryTree>
    <BinaryTree type="DecisionTree" boostWeight="1.0000000000000000e+00" itree="872">
      <Node pos="s" depth="0" NCoef="0" IVar="1" Cut="2.1630594730377197e+00" cType="1" res="1.3239650288596749e-03" rms="4.4397109746932983e-01" purity="4.9935737252235413e-01" nType="0">
        <Node pos="l" depth="1" NCoef="0" IVar="2" Cut="9.2172974348068237e-01" cType="1" res="1.8676338717341423e-02" rms="4.4971013069152832e-01" purity="6.0329836606979370e-01" nType="0">
          <Node pos="l" depth="2" NCoef="0" IVar="-1" Cut="0.0000000000000000e+00" cType="1" res="-1.5677215997129679e-03" rms="4.4502922892570496e-01" purity="3.3728966116905212e-01" nType="-99"/>
          <Node pos="r" depth="2" NCoef="0" IVar="-1" Cut="0.0000000000000000e+00" cType="1" res="1.1317137395963073e-03" rms="4.4976198673248291e-01" purity="6.3799357414245605e-01" nType="-99"/>
        </Node>
        <Node pos="r" depth="1" NCoef="0" IVar="5" Cut="5.7843542098999023e-01" cType="1" res="-1.6602784395217896e-02" rms="4.3724051117897034e-01" purity="3.9197579026222229e-01" nType="0">
          <Node pos="l" depth="2" NCoef="0" IVar="-1" Cut="0.0000000000000000e+00" cType="1" res="-3.4496283624321222e-03" rms="4.4950470328330994e-01" purity="4.1607940196990967e-01" nType="-99"/>
          <Node pos="r" depth="2" NCoef="0" IVar="-1" Cut="0.0000000000000000e+00" cType="1" res="-3.1445597414858639e-04" rms="4.3431469798088074e-01" purity="3.8788834214210510e-01" nType="-99"/>
        </Node>
      </Node>
    </BinaryTree>
    <BinaryTree type="DecisionTree" boostWeight="1.0000000000000000e+00" itree="873">
      <Node pos="s" depth="0" NCoef="0" IVar="1" Cut="2.6777222156524658e+00" cType="1" res="6.0165957547724247e-03" rms="4.4851601123809814e-01" purity="5.0967746973037720e-01" nType="0">
        <Node pos="l" depth="1" NCoef="0" IVar="4" Cut="1.5139834880828857e+00" cType="1" res="1.0207273997366428e-02" rms="4.5581403374671936e-01" purity="5.3679245710372925e-01" nType="0">
          <Node pos="l" depth="2" NCoef="0" IVar="-1" Cut="0.0000000000000000e+00" cType="1" res="1.9854465790558606e-04" rms="4.5545634627342224e-01" purity="5.5239981412887573e-01" nType="-99"/>
          <Node pos="r" depth="2" NCoef="0" IVar="-1" Cut="0.0000000000000000e+00" cType="1" res="3.9175674319267273e-03" rms="4.5510932803153992e-01" purity="3.5072889924049377e-01" nType="-99"/>
        </Node>
        <Node pos="r" depth="1" NCoef="0" IVar="-1" Cut="0.0000000000000000e+00" cType="1" res="-3.8931490853428841e-03" rms="3.2398718595504761e-01" purity="1.2963379919528961e-01" nType="-99"/>
      </Node>
    </BinaryTree>
    <BinaryTree type="DecisionTree" boostWeight="1.0000000000000000e+00" itree="874">
      <Node pos="s" depth="0" NCoef="0" IVar="7" Cut="1.8968866765499115e-01" cType="1" res="-1.7478300724178553e-03" rms="4.5053458213806152e-01" purity="5.0449752807617188e-01" nType="0">
        <Node pos="l" depth="1" NCoef="0" IVar="6" Cut="6.5205512046813965e+00" cType="1" res="3.7764407694339752e-02" rms="4.4439494609832764e-01" purity="4.3095496296882629e-01" nType="0">
          <Node pos="l" depth="2" NCoef="0" IVar="-1" Cut="0.0000000000000000e+00" cType="1" res="3.7404336035251617e-03" rms="4.4414973258972168e-01" purity="3.6284267902374268e-01" nType="-99"/>
          <Node pos="r" depth="2" NCoef="0" IVar="-1" Cut="0.0000000000000000e+00" cType="1" res="1.7099361866712570e-04" rms="4.4189178943634033e-01" purity="4.9361810088157654e-01" nType="-99"/>
        </Node>
        <Node pos="r" depth="1" NCoef="0" IVar="3" Cut="-7.5373969972133636e-02" cType="1" res="-8.8891722261905670e-03" rms="4.5126634836196899e-01" purity="5.1778942346572876e-01" nType="0">
          <Node pos="l" depth="2" NCoef="0" IVar="-1" Cut="0.0000000000000000e+00" cType="1" res="-2.0185438916087151e-03" rms="4.4195795059204102e-01" purity="4.2682579159736633e-01" nType="-99"/>
          <Node pos="r" depth="2" NCoef="0" IVar="-1" Cut="0.0000000000000000e+00" cType="1" res="7.0158210291992873e-05" rms="4.5343205332756042e-01" purity="5.4453092813491821e-01" nType="-99"/>
        </Node>
      </Node>
    </BinaryTree>
  </Weights>
</MethodSetup>
